{
  "version": "1.0",
  "truncation": {
    "direction": "Right",
    "max_length": 2048,
    "strategy": "LongestFirst",
    "stride": 0
  },
  "padding": null,
  "added_tokens": [
    {
      "id": 0,
      "content": "[PAD]",
      "single_word": false,
      "lstrip": false,
      "rstrip": false,
      "normalized": false,
      "special": true
    },
    {
      "id": 1,
      "content": "[SEP]",
      "single_word": false,
      "lstrip": false,
      "rstrip": false,
      "normalized": false,
      "special": true
    },
    {
      "id": 2,
      "content": "[EOS]",
      "single_word": false,
      "lstrip": false,
      "rstrip": false,
      "normalized": false,
      "special": true
    },
    {
      "id": 3,
      "content": "[UNK]",
      "single_word": false,
      "lstrip": false,
      "rstrip": false,
      "normalized": false,
      "special": true
    }
  ],
  "normalizer": {
    "type": "Sequence",
    "normalizers": [
      {
        "type": "Strip",
        "strip_left": true,
        "strip_right": true
      },
      {
        "type": "NFKD"
      }
    ]
  },
  "pre_tokenizer": {
    "type": "ByteLevel",
    "add_prefix_space": true,
    "trim_offsets": true,
    "use_regex": true
  },
  "post_processor": {
    "type": "Sequence",
    "processors": [
      {
        "type": "ByteLevel",
        "add_prefix_space": true,
        "trim_offsets": true,
        "use_regex": true
      },
      {
        "type": "TemplateProcessing",
        "single": [
          {
            "Sequence": {
              "id": "A",
              "type_id": 0
            }
          },
          {
            "SpecialToken": {
              "id": "[EOS]",
              "type_id": 0
            }
          }
        ],
        "pair": [
          {
            "Sequence": {
              "id": "A",
              "type_id": 0
            }
          },
          {
            "SpecialToken": {
              "id": "[SEP]",
              "type_id": 0
            }
          },
          {
            "Sequence": {
              "id": "B",
              "type_id": 0
            }
          },
          {
            "SpecialToken": {
              "id": "[EOS]",
              "type_id": 0
            }
          }
        ],
        "special_tokens": {
          "[EOS]": {
            "id": "[EOS]",
            "ids": [
              2
            ],
            "tokens": [
              "[EOS]"
            ]
          },
          "[SEP]": {
            "id": "[SEP]",
            "ids": [
              1
            ],
            "tokens": [
              "[SEP]"
            ]
          }
        }
      }
    ]
  },
  "decoder": {
    "type": "ByteLevel",
    "add_prefix_space": true,
    "trim_offsets": true,
    "use_regex": true
  },
  "model": {
    "type": "Unigram",
    "unk_id": 3,
    "vocab": [
      [
        "[PAD]",
        0.0
      ],
      [
        "[SEP]",
        0.0
      ],
      [
        "[EOS]",
        0.0
      ],
      [
        "[UNK]",
        0.0
      ],
      [
        "Ġ",
        -2.0220482769145
      ],
      [
        "Ì",
        -2.7166013540942693
      ],
      [
        "a",
        -3.023594560935507
      ],
      [
        "o",
        -3.0435074803292075
      ],
      [
        ",",
        -3.422507481001052
      ],
      [
        "s",
        -3.461133342498517
      ],
      [
        "ģ",
        -3.514672952282613
      ],
      [
        "e",
        -3.568855422290401
      ],
      [
        ".",
        -3.6472451789714455
      ],
      [
        "Ġde",
        -3.798584617515164
      ],
      [
        "ĥ",
        -3.8208465096201536
      ],
      [
        "§",
        -4.260259858840193
      ],
      [
        "d",
        -4.5224110082138544
      ],
      [
        "-",
        -4.7607893695082275
      ],
      [
        "Ġque",
        -4.763952938218015
      ],
      [
        "Ġdo",
        -4.779523747543287
      ],
      [
        "m",
        -4.964424887791168
      ],
      [
        "u",
        -4.980105538443599
      ],
      [
        "ÌĤ",
        -5.184654997066826
      ],
      [
        "Ġna",
        -5.293922220792496
      ],
      [
        "Ġem",
        -5.3548803783069765
      ],
      [
        "O",
        -5.40073006678853
      ],
      [
        "\"",
        -5.403642246482587
      ],
      [
        "i",
        -5.411769592570717
      ],
      [
        "r",
        -5.442733937896303
      ],
      [
        "Ġno",
        -5.443756273236268
      ],
      [
        ")",
        -5.460527033298948
      ],
      [
        "(",
        -5.461106936319268
      ],
      [
        "n",
        -5.490039381438905
      ],
      [
        "A",
        -5.500356834711365
      ],
      [
        "Ġpara",
        -5.547403207542757
      ],
      [
        "c",
        -5.662139261980979
      ],
      [
        "Ġcom",
        -5.699843133600147
      ],
      [
        ":",
        -5.885763698796058
      ],
      [
        "/",
        -5.926956281638224
      ],
      [
        "ĠâĢĵ",
        -5.929783171904212
      ],
      [
        "Ġum",
        -5.9397240983223885
      ],
      [
        "l",
        -6.054110288343303
      ],
      [
        "t",
        -6.0548212787352895
      ],
      [
        "Ġuma",
        -6.153849883112512
      ],
      [
        "Ġpor",
        -6.165693320582125
      ],
      [
        "E",
        -6.268822026087463
      ],
      [
        "ncia",
        -6.300889137432479
      ],
      [
        "ÌĢ",
        -6.326365286320975
      ],
      [
        "rio",
        -6.380031419710386
      ],
      [
        "Ġdos",
        -6.452169063001342
      ],
      [
        "S",
        -6.544104127231897
      ],
      [
        "ria",
        -6.564619660556108
      ],
      [
        "Ġcomo",
        -6.593505806506466
      ],
      [
        "?",
        -6.646204695567025
      ],
      [
        "p",
        -6.669370305293885
      ],
      [
        "Ġfoi",
        -6.676221196990486
      ],
      [
        "Ġesta",
        -6.704144212953983
      ],
      [
        "Ġmais",
        -6.7490726124646905
      ],
      [
        "1",
        -6.751441402719552
      ],
      [
        "!",
        -6.789470291928158
      ],
      [
        "Ġdas",
        -6.842279208966959
      ],
      [
        ";",
        -6.882171949325944
      ],
      [
        "Ġpela",
        -6.901340905303053
      ],
      [
        "2",
        -6.920583589019387
      ],
      [
        "ĠDE",
        -6.93572086713988
      ],
      [
        "ĠNo",
        -6.945788856007503
      ],
      [
        "ĠNa",
        -6.951407267233931
      ],
      [
        "Ġpelo",
        -6.971385062033173
      ],
      [
        "Ġsua",
        -6.98802607043071
      ],
      [
        "C",
        -7.007326376175467
      ],
      [
        "Ġser",
        -7.039547136768965
      ],
      [
        "ĠSr",
        -7.046353079686433
      ],
      [
        "ndo",
        -7.056920703739738
      ],
      [
        "b",
        -7.11486047862299
      ],
      [
        "g",
        -7.130841740904563
      ],
      [
        "Ġsobre",
        -7.141218906298429
      ],
      [
        "h",
        -7.183608796959184
      ],
      [
        "...",
        -7.199559833319229
      ],
      [
        "................",
        -7.211716562652118
      ],
      [
        "ĠâĢľ",
        -7.232239708156019
      ],
      [
        "Ġseu",
        -7.233533779216087
      ],
      [
        "3",
        -7.239589890430949
      ],
      [
        "I",
        -7.262416181351503
      ],
      [
        "vel",
        -7.275907708054016
      ],
      [
        "f",
        -7.281608512272824
      ],
      [
        "ĠPresidente",
        -7.28637482785288
      ],
      [
        "Ġtambe",
        -7.321819066938724
      ],
      [
        "ĠLei",
        -7.352340742263626
      ],
      [
        "v",
        -7.363159752183323
      ],
      [
        "ĠEm",
        -7.374463194954414
      ],
      [
        "R",
        -7.397736706178595
      ],
      [
        "dos",
        -7.397991272239937
      ],
      [
        "Ġnos",
        -7.402980555719319
      ],
      [
        "Ġmas",
        -7.430571624519512
      ],
      [
        "ĠDeputado",
        -7.430926136387235
      ],
      [
        "Ġtem",
        -7.440807379126753
      ],
      [
        "de",
        -7.453125887432819
      ],
      [
        "5",
        -7.487709544588995
      ],
      [
        "D",
        -7.494840140398303
      ],
      [
        "4",
        -7.505281748630953
      ],
      [
        "Ġele",
        -7.507967487101643
      ],
      [
        "y",
        -7.527851333557729
      ],
      [
        "tica",
        -7.558814103429215
      ],
      [
        "ĠSR",
        -7.565458144080008
      ],
      [
        "cio",
        -7.576837452723531
      ],
      [
        "ncias",
        -7.582138553812774
      ],
      [
        "ĠFederal",
        -7.585432632738412
      ],
      [
        "Ġart",
        -7.593004407750957
      ],
      [
        "Ġvoce",
        -7.608541927040449
      ],
      [
        "mente",
        -7.621899291693381
      ],
      [
        "rios",
        -7.628542113783949
      ],
      [
        "Ġte",
        -7.629398044102514
      ],
      [
        "Ġisso",
        -7.630210343799584
      ],
      [
        "z",
        -7.631427563490613
      ],
      [
        "ĠSenador",
        -7.640399290387341
      ],
      [
        "ĠBrasil",
        -7.644109841153162
      ],
      [
        "ĠEstado",
        -7.645929605831602
      ],
      [
        "k",
        -7.650241067054928
      ],
      [
        "mos",
        -7.6572071695656
      ],
      [
        "V",
        -7.659185752251624
      ],
      [
        "P",
        -7.664311253073681
      ],
      [
        "ti",
        -7.680628519827414
      ],
      [
        "ri",
        -7.681207683861425
      ],
      [
        "Ġpu",
        -7.681526116960816
      ],
      [
        "Ġentre",
        -7.720605020939113
      ],
      [
        "Ġanos",
        -7.723613365575035
      ],
      [
        "Ġmuito",
        -7.728059074499207
      ],
      [
        "L",
        -7.731903379757584
      ],
      [
        "ĠEu",
        -7.738404225325015
      ],
      [
        "ĠSa",
        -7.740383797074937
      ],
      [
        "T",
        -7.759354716096995
      ],
      [
        "N",
        -7.759613206030046
      ],
      [
        "Ġja",
        -7.766005788871718
      ],
      [
        "B",
        -7.780806200609597
      ],
      [
        "das",
        -7.785504568396949
      ],
      [
        "%",
        -7.792249531562081
      ],
      [
        "Ġate",
        -7.797907543445742
      ],
      [
        "Ġpro",
        -7.80895035795821
      ],
      [
        "blica",
        -7.8091228598780145
      ],
      [
        "6",
        -7.829991454444872
      ],
      [
        "ĠComissa",
        -7.841266852171621
      ],
      [
        "ĠCa",
        -7.868879354196361
      ],
      [
        "Ġbem",
        -7.8705922810863935
      ],
      [
        "M",
        -7.905966769345563
      ],
      [
        "8",
        -7.921561759436864
      ],
      [
        "Ġquando",
        -7.922025529553681
      ],
      [
        "lia",
        -7.934387775191594
      ],
      [
        "Ġpode",
        -7.944600903963973
      ],
      [
        "Ġforma",
        -7.9481336422993
      ],
      [
        "Ġmesmo",
        -7.95247555186789
      ],
      [
        "7",
        -7.9538785251123
      ],
      [
        "U",
        -7.961769696399026
      ],
      [
        "ĠNacional",
        -7.962358853749601
      ],
      [
        "Ġaqui",
        -7.965032793067001
      ],
      [
        "Ġsem",
        -7.972421286351034
      ],
      [
        "era",
        -7.978143396977455
      ],
      [
        "Ġdia",
        -7.986026580553087
      ],
      [
        "li",
        -7.98868107932039
      ],
      [
        "Ġpoli",
        -7.995211071622572
      ],
      [
        "Ġcontra",
        -7.9975298021527905
      ],
      [
        "ĠÂ§",
        -8.005134533893193
      ],
      [
        "Ġtodos",
        -8.012994674725956
      ],
      [
        "9",
        -8.021432557383681
      ],
      [
        "Ġainda",
        -8.025558435149431
      ],
      [
        "Ġter",
        -8.029394538557588
      ],
      [
        "Ġpai",
        -8.04328619753583
      ],
      [
        "Ġseus",
        -8.045245319807924
      ],
      [
        "ĠSe",
        -8.052631000942883
      ],
      [
        "que",
        -8.063710261024529
      ],
      [
        "G",
        -8.066975437596655
      ],
      [
        "Ġparte",
        -8.09849002481691
      ],
      [
        "Ìģ-",
        -8.100551093989143
      ],
      [
        "Ġforam",
        -8.107525713200976
      ],
      [
        "ĠOs",
        -8.111717095253468
      ],
      [
        "Ġha",
        -8.115696323270877
      ],
      [
        "âĢĿ.",
        -8.116213025622688
      ],
      [
        "cia",
        -8.117722993749275
      ],
      [
        "ĠPaulo",
        -8.125326775316188
      ],
      [
        "Ġfazer",
        -8.1278486440781
      ],
      [
        "dio",
        -8.14372666480142
      ],
      [
        "rias",
        -8.144860814173432
      ],
      [
        "Ġ10",
        -8.158164722384091
      ],
      [
        "F",
        -8.159056032355831
      ],
      [
        "Ġservic",
        -8.162837317442884
      ],
      [
        "Ġcidade",
        -8.166558747430793
      ],
      [
        "ĠPor",
        -8.169598817666094
      ],
      [
        "ĠDe",
        -8.181547468780229
      ],
      [
        "Ġano",
        -8.198144048153386
      ],
      [
        "Ġva",
        -8.200746149491064
      ],
      [
        "Ġesse",
        -8.20721152939992
      ],
      [
        "Ġseja",
        -8.20865492989835
      ],
      [
        "ĠPL",
        -8.216714904459934
      ],
      [
        "Ġtempo",
        -8.218443622077563
      ],
      [
        "ĠPROJETO",
        -8.219083900607979
      ],
      [
        "Ġporque",
        -8.235660903890254
      ],
      [
        "ĠPara",
        -8.23731473433812
      ],
      [
        "Ġvai",
        -8.238720720102236
      ],
      [
        "Ġmeu",
        -8.243269966253331
      ],
      [
        "um",
        -8.247074024176902
      ],
      [
        "ĠLEI",
        -8.259736020355357
      ],
      [
        "ĠDeputados",
        -8.261411324797322
      ],
      [
        "Ġcaso",
        -8.264076222293188
      ],
      [
        "ĠPRESIDENTE",
        -8.265753765370768
      ],
      [
        "Ġessa",
        -8.266526189411476
      ],
      [
        "pio",
        -8.26660070536398
      ],
      [
        "veis",
        -8.2719110791467
      ],
      [
        "Ġprimeiro",
        -8.272146364628837
      ],
      [
        "Ĥ",
        -8.275994148842413
      ],
      [
        "nico",
        -8.284823895038876
      ],
      [
        "mara",
        -8.290963031276918
      ],
      [
        "ES",
        -8.301383299281627
      ],
      [
        "ĠMas",
        -8.30151933633512
      ],
      [
        "j",
        -8.302382231658434
      ],
      [
        "ĠGoverno",
        -8.302596632579993
      ],
      [
        "ĠEle",
        -8.307493966672252
      ],
      [
        "ĠMinistro",
        -8.308488853509878
      ],
      [
        "Ġsera",
        -8.315630541109693
      ],
      [
        "ĠConstituic",
        -8.315793001844517
      ],
      [
        "ĠVoce",
        -8.322450107387576
      ],
      [
        "ĠEsta",
        -8.327355230170873
      ],
      [
        "dia",
        -8.327457248173289
      ],
      [
        "Ġpessoas",
        -8.330051247969905
      ],
      [
        "Ġonde",
        -8.334215678635505
      ],
      [
        "idade",
        -8.340089958587715
      ],
      [
        "'",
        -8.346251235170408
      ],
      [
        "Ġvez",
        -8.346459222997693
      ],
      [
        "Ġoutros",
        -8.34813570576076
      ],
      [
        "Ġgrande",
        -8.349723186177076
      ],
      [
        "Ġartigo",
        -8.355100555574124
      ],
      [
        "Ġapenas",
        -8.37048280305304
      ],
      [
        "Ġtrabalho",
        -8.373047425813308
      ],
      [
        "Ġoutras",
        -8.377428168030292
      ],
      [
        "ĠAs",
        -8.385959952930143
      ],
      [
        "blico",
        -8.388975721327919
      ],
      [
        "ĠRELATOR",
        -8.391296827315328
      ],
      [
        "Ġdois",
        -8.393267878767993
      ],
      [
        "Ġsendo",
        -8.396046433724774
      ],
      [
        "ram",
        -8.409309659871633
      ],
      [
        "nio",
        -8.413051400907724
      ],
      [
        "Ġnas",
        -8.415749011372034
      ],
      [
        "ĠRio",
        -8.417035172597778
      ],
      [
        "nia",
        -8.417594154391939
      ],
      [
        "Ġsuas",
        -8.418228668378674
      ],
      [
        "ĠRefere",
        -8.421564211626986
      ],
      [
        "Ġordem",
        -8.43082201146553
      ],
      [
        "ĠProjeto",
        -8.435911265338374
      ],
      [
        "ĠCom",
        -8.435938045996599
      ],
      [
        "x",
        -8.436278335741196
      ],
      [
        "ĠII",
        -8.448247802588169
      ],
      [
        "Ġela",
        -8.456972532346624
      ],
      [
        "Ġmaior",
        -8.46737251287933
      ],
      [
        "Ġeste",
        -8.470251881810443
      ],
      [
        "tico",
        -8.471121980719186
      ],
      [
        "Ġminha",
        -8.471735306111029
      ],
      [
        "Ġhoje",
        -8.473295546873546
      ],
      [
        "Ġtermos",
        -8.473416017100394
      ],
      [
        "ĠPai",
        -8.480222659553283
      ],
      [
        "ĠCasa",
        -8.481048001101488
      ],
      [
        "Ġprocesso",
        -8.484017670620302
      ],
      [
        "Ġassim",
        -8.490452929473399
      ],
      [
        "Ġmeio",
        -8.491007304976431
      ],
      [
        "ĠArt",
        -8.499489317855417
      ],
      [
        "Ġprojeto",
        -8.504734776794804
      ],
      [
        "ĠDO",
        -8.506864015892916
      ],
      [
        "PSDB",
        -8.511600780934826
      ],
      [
        "Ġ11",
        -8.522726463968485
      ],
      [
        "w",
        -8.525840683443013
      ],
      [
        "Ġdesta",
        -8.527468171660768
      ],
      [
        "ter",
        -8.533496902100042
      ],
      [
        "Ġnosso",
        -8.536000596852631
      ],
      [
        "Ġqual",
        -8.537872391834647
      ],
      [
        "Ġin",
        -8.544306850025304
      ],
      [
        "âĢĿ",
        -8.545172817218445
      ],
      [
        "Ġlei",
        -8.551015621885458
      ],
      [
        "ĠJose",
        -8.55346757053801
      ],
      [
        "Ġdireito",
        -8.55508274279213
      ],
      [
        "J",
        -8.560969038297218
      ],
      [
        "ĠSenado",
        -8.5615176418807
      ],
      [
        "Ġqualquer",
        -8.572103480362811
      ],
      [
        "ĠTribunal",
        -8.578751104861317
      ],
      [
        "fica",
        -8.580421593913771
      ],
      [
        "$",
        -8.582252321169616
      ],
      [
        "ĠComo",
        -8.58453157227893
      ],
      [
        "Ġprimeira",
        -8.587249149322714
      ],
      [
        "ĠPu",
        -8.58754165723526
      ],
      [
        "ĠâĢ¢",
        -8.591948227874733
      ],
      [
        "Ġhisto",
        -8.599412111542598
      ],
      [
        "Ġpalavra",
        -8.602124561318943
      ],
      [
        "Ġapo",
        -8.603700766012935
      ],
      [
        "Ġnome",
        -8.604595025745086
      ],
      [
        "Ġvi",
        -8.60529051685908
      ],
      [
        "Ġacordo",
        -8.606304120612451
      ],
      [
        "Ġsistema",
        -8.60764020005791
      ],
      [
        "Ġdeste",
        -8.617759395898593
      ],
      [
        "Ġpra",
        -8.618093981385863
      ],
      [
        "Ġdepois",
        -8.618454555319982
      ],
      [
        "Ġinformac",
        -8.623343682432658
      ],
      [
        "ĠMiniste",
        -8.624694255954584
      ],
      [
        "Ġ12",
        -8.63307126959747
      ],
      [
        "ĠMa",
        -8.634806942065438
      ],
      [
        "Ġtodo",
        -8.63577537483134
      ],
      [
        "Ġprazo",
        -8.638719180112423
      ],
      [
        "Ġdisse",
        -8.639350825490958
      ],
      [
        "Ġseguinte",
        -8.639725631972759
      ],
      [
        "ĠDA",
        -8.64688891778873
      ],
      [
        "ĠRepu",
        -8.648026327929344
      ],
      [
        "ĠCarlos",
        -8.65350797676225
      ],
      [
        "Ġvida",
        -8.663075177535049
      ],
      [
        "Ġdeve",
        -8.665065757161921
      ],
      [
        "ĠSim",
        -8.668970815481648
      ],
      [
        "Ġcada",
        -8.669541745135744
      ],
      [
        "Ġagora",
        -8.670056684178686
      ],
      [
        "Ġpre",
        -8.67066738282434
      ],
      [
        "ĠSenhor",
        -8.671434056223308
      ],
      [
        "Ġpresente",
        -8.674512818927909
      ],
      [
        "ĠSem",
        -8.679857376246868
      ],
      [
        "ĠCo",
        -8.67991602629273
      ],
      [
        "Ġcomec",
        -8.681397645584044
      ],
      [
        "ĠRelator",
        -8.681437954799417
      ],
      [
        "Ġ15",
        -8.68555811389581
      ],
      [
        "min",
        -8.693781854634414
      ],
      [
        "Bloco",
        -8.699476266870912
      ],
      [
        "Ġrelac",
        -8.701619244737156
      ],
      [
        "Ġmate",
        -8.706961197224011
      ],
      [
        "Ġ20",
        -8.707182200853916
      ],
      [
        "durante",
        -8.711385530160591
      ],
      [
        "Ġdizer",
        -8.711433587052479
      ],
      [
        "Ġsegundo",
        -8.711469862881373
      ],
      [
        "...............",
        -8.712114354413218
      ],
      [
        "Ġmundo",
        -8.718012242328582
      ],
      [
        "ĠPT",
        -8.720092718797998
      ],
      [
        "Ġtre",
        -8.721608665891507
      ],
      [
        "Ġmelhor",
        -8.727081498342988
      ],
      [
        "ĠMunici",
        -8.732378135407117
      ],
      [
        "ĠJustic",
        -8.732688500660021
      ],
      [
        "nica",
        -8.734138346022839
      ],
      [
        "Ġco",
        -8.743111407051101
      ],
      [
        "0",
        -8.74447604082105
      ],
      [
        "Ġsido",
        -8.746902324430177
      ],
      [
        "Ġrecursos",
        -8.757249414027047
      ],
      [
        "RIO",
        -8.759970738687734
      ],
      [
        "Ġdezembro",
        -8.763797549022005
      ],
      [
        "ĠEstados",
        -8.766106865129473
      ],
      [
        "sica",
        -8.767474412080036
      ],
      [
        "2009",
        -8.767788258444481
      ],
      [
        "Ġvoto",
        -8.777280131906526
      ],
      [
        "Ġsob",
        -8.779811971831865
      ],
      [
        "H",
        -8.78094468246964
      ],
      [
        "Ġestava",
        -8.78271308643443
      ],
      [
        "Ġperi",
        -8.783865815633641
      ],
      [
        "Ġpartir",
        -8.787122517681846
      ],
      [
        "Ġmil",
        -8.788215028303444
      ],
      [
        "Ġpopulac",
        -8.790089987434998
      ],
      [
        "Ġtudo",
        -8.799432209590918
      ],
      [
        "Ġpa",
        -8.800761553380518
      ],
      [
        "_",
        -8.80091940831683
      ],
      [
        "Ġoutro",
        -8.804003889090037
      ],
      [
        "Ġrevisa",
        -8.80452505101489
      ],
      [
        "Ġex",
        -8.805626309807339
      ],
      [
        "Ġnossa",
        -8.81186670922609
      ],
      [
        "ĠJoa",
        -8.814105015291904
      ],
      [
        "=",
        -8.81430413636856
      ],
      [
        "Ġfami",
        -8.819475482787004
      ],
      [
        "Ġlanc",
        -8.82072162149475
      ],
      [
        "lio",
        -8.821205254598446
      ],
      [
        "ÌĪ",
        -8.82521561344568
      ],
      [
        "mero",
        -8.827762221874629
      ],
      [
        "Ġdesde",
        -8.828075271552837
      ],
      [
        "ĠLi",
        -8.830116579960231
      ],
      [
        "Ġgoverno",
        -8.830245210916715
      ],
      [
        "âĢĵ",
        -8.831369167936204
      ],
      [
        "Ġempresa",
        -8.834433660751145
      ],
      [
        "@",
        -8.83554893883018
      ],
      [
        "ĠDo",
        -8.835789990543638
      ],
      [
        "decisa",
        -8.83949549495634
      ],
      [
        "ĠPMDB",
        -8.841206454467917
      ],
      [
        "Ġdias",
        -8.846866809319819
      ],
      [
        "amento",
        -8.847561255064234
      ],
      [
        "PT",
        -8.847619229584277
      ],
      [
        "00",
        -8.848699534466311
      ],
      [
        "ĠHa",
        -8.850790683110098
      ],
      [
        "Ġ13",
        -8.851121016761665
      ],
      [
        "gua",
        -8.852655936793115
      ],
      [
        "ĠUm",
        -8.855345879569635
      ],
      [
        "Ġ16",
        -8.85559349021697
      ],
      [
        "Ġmilho",
        -8.856724366717737
      ],
      [
        "11",
        -8.857953107489514
      ],
      [
        "rito",
        -8.858105516718675
      ],
      [
        "Ġnovo",
        -8.859855780708166
      ],
      [
        "ĠIsso",
        -8.860580244864959
      ],
      [
        "ĠUnia",
        -8.86576581583045
      ],
      [
        "ĠMe",
        -8.869025642836423
      ],
      [
        "Ġproposta",
        -8.871396431047332
      ],
      [
        "orador",
        -8.871626511337166
      ],
      [
        "votac",
        -8.876070512060211
      ],
      [
        "Ġ14",
        -8.876653086215757
      ],
      [
        "Ġsempre",
        -8.88036020022504
      ],
      [
        "10",
        -8.881077776305752
      ],
      [
        "pios",
        -8.886199440084246
      ],
      [
        "Ġinciso",
        -8.887017017339387
      ],
      [
        "Ġ17",
        -8.891589529943937
      ],
      [
        "Ġfinal",
        -8.893045605745312
      ],
      [
        "der",
        -8.89309531012979
      ],
      [
        "ci",
        -8.894287172259236
      ],
      [
        "Ġcondic",
        -8.897134118640174
      ],
      [
        "culo",
        -8.898447360538068
      ],
      [
        "Ġenta",
        -8.898952763749417
      ],
      [
        "Ġmomento",
        -8.899055539829192
      ],
      [
        "ticas",
        -8.901478262172859
      ],
      [
        "Ġbrasileiro",
        -8.901659677184162
      ],
      [
        "Ġpelos",
        -8.902035972433733
      ],
      [
        "Ġduas",
        -8.902163704289837
      ],
      [
        "Ġeles",
        -8.90395645436633
      ],
      [
        "Ġvalor",
        -8.905945557871691
      ],
      [
        "Ġpouco",
        -8.907811889925668
      ],
      [
        "09",
        -8.909221308302389
      ],
      [
        "ĠEnta",
        -8.912780634974142
      ],
      [
        "ĠFoi",
        -8.91392051875228
      ],
      [
        "ĠâĢĶ",
        -8.915071826076657
      ],
      [
        "Ġmenos",
        -8.91532440541624
      ],
      [
        "Ġato",
        -8.919679874982354
      ],
      [
        "Ġantes",
        -8.926013832922903
      ],
      [
        "aprovac",
        -8.9345722953979
      ],
      [
        "ĠPela",
        -8.93647287925826
      ],
      [
        "Ġquanto",
        -8.937620302408954
      ],
      [
        "Congresso",
        -8.941992311682945
      ],
      [
        "Ġnesta",
        -8.943321677199048
      ],
      [
        "ĠSul",
        -8.94736389598692
      ],
      [
        "Ġ24",
        -8.95114408052562
      ],
      [
        "Ġfim",
        -8.952030093284316
      ],
      [
        "Ġsau",
        -8.952930619703316
      ],
      [
        "cie",
        -8.953137465120907
      ],
      [
        "rga",
        -8.95415036313233
      ],
      [
        "Ġfato",
        -8.955586563743978
      ],
      [
        "Ġtinha",
        -8.956871862164181
      ],
      [
        "Ġ18",
        -8.957493870413268
      ],
      [
        "Ġimportante",
        -8.961889536287734
      ],
      [
        "Ġgrupo",
        -8.96272337157249
      ],
      [
        "neste",
        -8.96328701288557
      ],
      [
        "mica",
        -8.97700898906763
      ],
      [
        "Ġver",
        -8.978019609188085
      ],
      [
        "Ġtodas",
        -8.97830740742629
      ],
      [
        "ĠPoder",
        -8.980122398893386
      ],
      [
        "Ġ30",
        -8.982153661363078
      ],
      [
        "Ġconta",
        -8.984063260568718
      ],
      [
        "Ġvezes",
        -8.984543188683787
      ],
      [
        "Ġcasa",
        -8.985174858276775
      ],
      [
        "Ġfaz",
        -8.98995907529242
      ],
      [
        "ch",
        -8.990405238786614
      ],
      [
        "Ġdar",
        -8.990640849267809
      ],
      [
        "Ġexemplo",
        -8.999285969401086
      ],
      [
        "âĢĿ,",
        -8.999525417009675
      ],
      [
        "Ġregia",
        -9.005746271099477
      ],
      [
        "Ġfez",
        -9.007266858253196
      ],
      [
        "Ġexternas",
        -9.011276914111075
      ],
      [
        "Ġmarc",
        -9.011879862644406
      ],
      [
        "Ligac",
        -9.012070652757638
      ],
      [
        "Ġale",
        -9.012792346859705
      ],
      [
        "ĠJa",
        -9.013714673437494
      ],
      [
        "Ġmaio",
        -9.01858928890333
      ],
      [
        "Ġnecessa",
        -9.018792497218334
      ],
      [
        "discussa",
        -9.0193192318582
      ],
      [
        "Exa",
        -9.02219021579532
      ],
      [
        "ĠLuiz",
        -9.0236043657281
      ],
      [
        "X",
        -9.02523873203666
      ],
      [
        "Ġpois",
        -9.032722065867372
      ],
      [
        "Ġlugar",
        -9.033349670843748
      ],
      [
        "Ġdiz",
        -9.034506354185291
      ],
      [
        "Ġmunici",
        -9.03532379937658
      ],
      [
        "digo",
        -9.036129043837622
      ],
      [
        "Ġjulho",
        -9.03639583087439
      ],
      [
        "Ġrecurso",
        -9.038087162626889
      ],
      [
        "Ġ2007",
        -9.038507289719204
      ],
      [
        "Ġbase",
        -9.039955007768636
      ],
      [
        "Ġsituac",
        -9.040627686977496
      ],
      [
        "Ġquero",
        -9.042183347647526
      ],
      [
        "Ġtendo",
        -9.045428271826705
      ],
      [
        "ĠRe",
        -9.04621639498601
      ],
      [
        "Ġtoda",
        -9.04707471925296
      ],
      [
        "ĠSra",
        -9.053252959831427
      ],
      [
        "Ġsentido",
        -9.053559817355929
      ],
      [
        "Ġsocial",
        -9.055672000298598
      ],
      [
        "Ġalguns",
        -9.056614019635957
      ],
      [
        "Ġdata",
        -9.057692130286217
      ],
      [
        "Ģ",
        -9.05807260529192
      ],
      [
        "Ġsetembro",
        -9.058491591246092
      ],
      [
        "Ġpoder",
        -9.06107062150031
      ],
      [
        "ĠSESS",
        -9.062707466740832
      ],
      [
        "Ġ:(",
        -9.07661595708784
      ],
      [
        "mento",
        -9.080303896456671
      ],
      [
        "Ġvou",
        -9.080528053745043
      ],
      [
        "nos",
        -9.081241693279924
      ],
      [
        "ĠVer",
        -9.081306708244115
      ],
      [
        "Â°",
        -9.081877023484688
      ],
      [
        "Ġpovo",
        -9.082058723932889
      ],
      [
        "com",
        -9.0826453611229
      ],
      [
        "Ġnada",
        -9.083963548243188
      ],
      [
        "Ġseria",
        -9.087173646806248
      ],
      [
        "Ġsociedade",
        -9.089718059177104
      ],
      [
        "Ġcoisa",
        -9.089740597464733
      ],
      [
        "Ġpodem",
        -9.09023093198244
      ],
      [
        "Ġ19",
        -9.09129578130108
      ],
      [
        "Ġmesma",
        -9.096364395131626
      ],
      [
        "Ġnem",
        -9.097074272436792
      ],
      [
        "Ġfavor",
        -9.09748364478209
      ],
      [
        "junho",
        -9.0981489093585
      ],
      [
        "questa",
        -9.101871011075469
      ],
      [
        "Ġtenho",
        -9.10577003889146
      ],
      [
        "UTC",
        -9.105891556467013
      ],
      [
        "Ġnova",
        -9.1060130339904
      ],
      [
        "Ġtemos",
        -9.10795919902946
      ],
      [
        "rica",
        -9.110955551282292
      ],
      [
        "Ġnacional",
        -9.11120687449357
      ],
      [
        "ĠMuito",
        -9.113429125045869
      ],
      [
        "Ġ2008",
        -9.11549151475687
      ],
      [
        "ha",
        -9.11568027833591
      ],
      [
        "Ġ21",
        -9.117068698001374
      ],
      [
        "Ġteve",
        -9.117142379832057
      ],
      [
        "ĠGrande",
        -9.117991749887311
      ],
      [
        "ĠVamos",
        -9.11810686946758
      ],
      [
        "Ġdisso",
        -9.119564277254137
      ],
      [
        "Ġ2009",
        -9.12085976002629
      ],
      [
        "2015",
        -9.124808730445537
      ],
      [
        "Ġbrasileira",
        -9.129058820220727
      ],
      [
        "Ġ2006",
        -9.13082379946634
      ],
      [
        "fico",
        -9.131392630261654
      ],
      [
        "Ġecono",
        -9.1322455076958
      ],
      [
        "Ġdesenvolvimento",
        -9.133491335340596
      ],
      [
        "Ġestou",
        -9.135019457648076
      ],
      [
        "ĠDecreto",
        -9.137092200759705
      ],
      [
        "tulo",
        -9.138792141383911
      ],
      [
        "Ġtra",
        -9.13927552148252
      ],
      [
        "12",
        -9.141191019079606
      ],
      [
        "ĠJu",
        -9.145361165801916
      ],
      [
        "vida",
        -9.145651913047542
      ],
      [
        "nte",
        -9.147161585949975
      ],
      [
        "vi",
        -9.151589347759147
      ],
      [
        "ĠExa",
        -9.152126756590654
      ],
      [
        "Ġconstitucional",
        -9.152866353537611
      ],
      [
        "PMDB",
        -9.153723404508918
      ],
      [
        "Ġtanto",
        -9.155380355056517
      ],
      [
        "br",
        -9.15588725466662
      ],
      [
        "Ġoutra",
        -9.156929347580627
      ],
      [
        "Ġmedida",
        -9.158164838280328
      ],
      [
        "K",
        -9.159097541751734
      ],
      [
        "Ġfor",
        -9.159989578304888
      ],
      [
        "Ġcausa",
        -9.162284956171115
      ],
      [
        "Ġbom",
        -9.164265608933755
      ],
      [
        "Ġ23",
        -9.166583970582812
      ],
      [
        "Ġpossi",
        -9.167830386929294
      ],
      [
        "ando",
        -9.170290797721428
      ],
      [
        "Ġprograma",
        -9.17184569848938
      ],
      [
        "ĠSanta",
        -9.17226456436893
      ],
      [
        "ĠJaneiro",
        -9.175209761568484
      ],
      [
        "Ġ25",
        -9.17573364528861
      ],
      [
        "Ġagosto",
        -9.177218393332229
      ],
      [
        "Ġoutubro",
        -9.177492616954746
      ],
      [
        "Ġsei",
        -9.17792424860249
      ],
      [
        "Ġespe",
        -9.183014083375214
      ],
      [
        "Ġpessoa",
        -9.185985374428425
      ],
      [
        "ĠQue",
        -9.188216555108458
      ],
      [
        "Ġ22",
        -9.189032653828988
      ],
      [
        "Ġtexto",
        -9.19119488845562
      ],
      [
        "Art",
        -9.192016561152633
      ],
      [
        "ĠEla",
        -9.192175836996883
      ],
      [
        "fi",
        -9.19307489348117
      ],
      [
        "Ġ2011",
        -9.19393073025344
      ],
      [
        "Ġvamos",
        -9.197415072413705
      ],
      [
        "Ġproduc",
        -9.198956803431424
      ],
      [
        "Ġtipo",
        -9.199465439986067
      ],
      [
        "Ġhavia",
        -9.203485621532751
      ],
      [
        "Ġprovide",
        -9.20393023947416
      ],
      [
        "Ġexiste",
        -9.206286691007596
      ],
      [
        "ximo",
        -9.208226640776036
      ],
      [
        "ĠIII",
        -9.208434683955858
      ],
      [
        "ĠEduardo",
        -9.208991373302004
      ],
      [
        "Ġabril",
        -9.210863179186068
      ],
      [
        "Ġdessa",
        -9.212528698990944
      ],
      [
        "Ġ2010",
        -9.21257950477322
      ],
      [
        "ĠSala",
        -9.213857170281123
      ],
      [
        "cios",
        -9.214505827088072
      ],
      [
        "Ġfa",
        -9.215869944219946
      ],
      [
        "Ġfi",
        -9.219649572864556
      ],
      [
        "05",
        -9.219818703283137
      ],
      [
        "Ġjaneiro",
        -9.219929116024057
      ],
      [
        "Ġprincipal",
        -9.22109137331831
      ],
      [
        "Ġempresas",
        -9.22115619908592
      ],
      [
        "Ġhabitantes",
        -9.22299422981155
      ],
      [
        "2013",
        -9.224216886615707
      ],
      [
        "Ġestado",
        -9.224308194722024
      ],
      [
        "Ġrefere",
        -9.224699365996557
      ],
      [
        "://",
        -9.225624254455608
      ],
      [
        "Ġdesse",
        -9.227189908052791
      ],
      [
        "grafo",
        -9.23084530480499
      ],
      [
        "Ġnovembro",
        -9.23139022324201
      ],
      [
        "Ġsemana",
        -9.23238269303039
      ],
      [
        "Ġcrianc",
        -9.232986436225524
      ],
      [
        "Ġ2005",
        -9.234027834016622
      ],
      [
        "Ġpresidente",
        -9.23405349840558
      ],
      [
        "Ġtrata",
        -9.236147298726843
      ],
      [
        "000",
        -9.23627026686938
      ],
      [
        "cnica",
        -9.236741152453138
      ],
      [
        "Ġfalar",
        -9.238071861914902
      ],
      [
        "seguranc",
        -9.238358292868003
      ],
      [
        "ĠEste",
        -9.240237971266096
      ],
      [
        "ĠPARECER",
        -9.240305093919847
      ],
      [
        "Ġsabe",
        -9.2406746330164
      ],
      [
        "res",
        -9.241117726056572
      ],
      [
        "DO",
        -9.241229615761846
      ],
      [
        "Ġforc",
        -9.254352271162036
      ],
      [
        "Ġexerci",
        -9.259399274819666
      ],
      [
        "ĠIn",
        -9.261200972491467
      ],
      [
        "Ġestamos",
        -9.264131004274772
      ],
      [
        "Ġestar",
        -9.26837422091711
      ],
      [
        "2011",
        -9.26867047192461
      ],
      [
        "tra",
        -9.269142753717889
      ],
      [
        "OS",
        -9.275069343660537
      ],
      [
        "uma",
        -9.27563001582365
      ],
      [
        "Ġpodera",
        -9.276439723302602
      ],
      [
        "Ġlado",
        -9.27680905032182
      ],
      [
        "Ġimporta",
        -9.276819652871025
      ],
      [
        "ĠPoli",
        -9.278367069874976
      ],
      [
        "ĠEssa",
        -9.2804720643289
      ],
      [
        "ĠEmenda",
        -9.284217941397294
      ],
      [
        "Regimento",
        -9.285899013512193
      ],
      [
        "gu",
        -9.28724180590257
      ],
      [
        "Ġfeito",
        -9.287821004099015
      ],
      [
        "03",
        -9.29070617069472
      ],
      [
        "ticos",
        -9.292046646995288
      ],
      [
        "Ġficar",
        -9.292693418564166
      ],
      [
        "Ġcon",
        -9.293371831125835
      ],
      [
        "ĠEsse",
        -9.293889521025294
      ],
      [
        "Ġeducac",
        -9.29411082405226
      ],
      [
        "ja",
        -9.294967021140874
      ],
      [
        "Ġpena",
        -9.297512607302377
      ],
      [
        "Ġverdade",
        -9.298632816066654
      ],
      [
        "Ġnum",
        -9.298911747768116
      ],
      [
        "Ġenquanto",
        -9.302464143763332
      ],
      [
        "Ġtenha",
        -9.304185800539775
      ],
      [
        "15",
        -9.30470623251731
      ],
      [
        "dito",
        -9.305475904474196
      ],
      [
        "Ġinstituic",
        -9.306742393919292
      ],
      [
        "and",
        -9.306830221357554
      ],
      [
        "qui",
        -9.308045109334698
      ],
      [
        "Ġfunc",
        -9.308159385515705
      ],
      [
        "08",
        -9.309015938878597
      ],
      [
        "ĠDia",
        -9.31030132718239
      ],
      [
        "ĠLa",
        -9.310533232319184
      ],
      [
        "ĠTe",
        -9.311128147322147
      ],
      [
        "Ġfevereiro",
        -9.311913005025072
      ],
      [
        "Ġrespeito",
        -9.313491073597737
      ],
      [
        "ing",
        -9.315711922957146
      ],
      [
        "ĠPreside",
        -9.315715593714806
      ],
      [
        "via",
        -9.31590792906263
      ],
      [
        "Ġcara",
        -9.317539506437454
      ],
      [
        "Ġjuri",
        -9.317719271572727
      ],
      [
        "Ġsessa",
        -9.318182664570628
      ],
      [
        "ntes",
        -9.31890159079838
      ],
      [
        "Ġponto",
        -9.320517479512912
      ],
      [
        "Ġquais",
        -9.321464183939076
      ],
      [
        "Ġquatro",
        -9.32165247650654
      ],
      [
        "prio",
        -9.321889313080916
      ],
      [
        "Ġdentro",
        -9.322554793203494
      ],
      [
        "07",
        -9.322798073088828
      ],
      [
        "Deputada",
        -9.324125677102412
      ],
      [
        "Ġmim",
        -9.324572601185382
      ],
      [
        "mico",
        -9.3266185974775
      ],
      [
        "Ġlocal",
        -9.328115992941068
      ],
      [
        "Ġproblema",
        -9.329564156883496
      ],
      [
        "Ġhoras",
        -9.33084157901048
      ],
      [
        "ĠBrasi",
        -9.331616891351556
      ],
      [
        "Ġali",
        -9.332116811281738
      ],
      [
        "ĠUma",
        -9.332824593409356
      ],
      [
        "ĠInterno",
        -9.333549201339482
      ],
      [
        "Ġdemais",
        -9.334990574166332
      ],
      [
        "ĠRa",
        -9.335538254446016
      ],
      [
        "Ġapoio",
        -9.335782590417756
      ],
      [
        "ĠDr",
        -9.337143831909788
      ],
      [
        "Ġhora",
        -9.338169193008977
      ],
      [
        "Ġpo",
        -9.338202236200596
      ],
      [
        "feira",
        -9.338470822971956
      ],
      [
        "Ġprecisa",
        -9.339085167546294
      ],
      [
        "Ġ(\"",
        -9.340450645599711
      ],
      [
        "Ġsala",
        -9.346525558158868
      ],
      [
        "Ġini",
        -9.34665586744949
      ],
      [
        "ĠSupremo",
        -9.347442047415274
      ],
      [
        "Ġ2013",
        -9.348164515162308
      ],
      [
        "Ġcriac",
        -9.350192141138669
      ],
      [
        "lise",
        -9.3513727426426
      ],
      [
        "AS",
        -9.351993588538372
      ],
      [
        "ĠUnidos",
        -9.356051098780751
      ],
      [
        "ĠTurma",
        -9.362401257031832
      ],
      [
        "Ġvei",
        -9.362955444924085
      ],
      [
        "ĠLe",
        -9.363246472809283
      ],
      [
        "Ġcargo",
        -9.363571652000694
      ],
      [
        "Ġvista",
        -9.363597221695647
      ],
      [
        "ĠPa",
        -9.364157463039271
      ],
      [
        "ĠEducac",
        -9.36438645622515
      ],
      [
        "Ġconforme",
        -9.365227646826886
      ],
      [
        "Ġalgo",
        -9.366642987462566
      ],
      [
        "ĠAle",
        -9.367073895079736
      ],
      [
        "Ġacesso",
        -9.367075624108702
      ],
      [
        "Ġ26",
        -9.368858762314844
      ],
      [
        "Ġnunca",
        -9.369482843877798
      ],
      [
        "Ġfilme",
        -9.36970370049266
      ],
      [
        "ĠConselho",
        -9.37123835947909
      ],
      [
        "Ġ2012",
        -9.37258142041561
      ],
      [
        "ĠSau",
        -9.37567360718339
      ],
      [
        "Ġ2004",
        -9.376198673796852
      ],
      [
        "nimo",
        -9.377151984051132
      ],
      [
        "ĠSu",
        -9.377201330321313
      ],
      [
        "Ġcre",
        -9.377330269890976
      ],
      [
        "ĠQuando",
        -9.3793350468025
      ],
      [
        "Ġsou",
        -9.380581659343518
      ],
      [
        "06",
        -9.380761794629857
      ],
      [
        "Ġjogo",
        -9.382087561361388
      ],
      [
        "dica",
        -9.383166423551788
      ],
      [
        "Ġespecial",
        -9.384836991164988
      ],
      [
        "Ġobrigado",
        -9.38495994304799
      ],
      [
        "ĠUniversidade",
        -9.385015705280669
      ],
      [
        "ĠMaria",
        -9.386419990296554
      ],
      [
        "ĠPR",
        -9.387191000486682
      ],
      [
        "Ġfalta",
        -9.389078609861974
      ],
      [
        "reas",
        -9.39071271713986
      ],
      [
        "Ġequipe",
        -9.391598399858328
      ],
      [
        "bi",
        -9.392515411572164
      ],
      [
        "Ġparecer",
        -9.392828042914816
      ],
      [
        "Ġtotal",
        -9.393341378253234
      ],
      [
        "Ġve",
        -9.394261865679136
      ],
      [
        "Ġ28",
        -9.394749426046827
      ],
      [
        "Ġatrave",
        -9.394905787029794
      ],
      [
        "ĠSilva",
        -9.39558500530657
      ],
      [
        "Ġrelato",
        -9.395766444218603
      ],
      [
        "poca",
        -9.397811996990148
      ],
      [
        "ver",
        -9.398405219593954
      ],
      [
        "th",
        -9.39840545194842
      ],
      [
        "Ġcerca",
        -9.399275043962838
      ],
      [
        "Ġpelas",
        -9.39935841317658
      ],
      [
        "Ġvolta",
        -9.400098178124404
      ],
      [
        "Ġcinco",
        -9.40019020734821
      ],
      [
        "Ġdireitos",
        -9.40181531374679
      ],
      [
        "Ġsim",
        -9.402559185722954
      ],
      [
        "ĠPlena",
        -9.403118437151438
      ],
      [
        "Ġobjetivo",
        -9.40438182319376
      ],
      [
        "Ġdefesa",
        -9.404454591044328
      ],
      [
        "ĠPre",
        -9.405655409641382
      ],
      [
        "ĠLu",
        -9.405981188256714
      ],
      [
        "Ġpec",
        -9.40726364306415
      ],
      [
        "Ġregimental",
        -9.408524934780983
      ],
      [
        "ĠOliveira",
        -9.40877576696399
      ],
      [
        "Ġpedido",
        -9.40987190923359
      ],
      [
        "Ġsegunda",
        -9.410232488388091
      ],
      [
        "ĠPedro",
        -9.414318470499689
      ],
      [
        "Ġrealizada",
        -9.416940839748907
      ],
      [
        "Ġmercado",
        -9.417599412718811
      ],
      [
        "dico",
        -9.417815615716789
      ],
      [
        "Ġfora",
        -9.41808934890005
      ],
      [
        "Ġextraordina",
        -9.420584699273544
      ],
      [
        "..............",
        -9.42078618940213
      ],
      [
        "art",
        -9.420997305606736
      ],
      [
        "ĠTotal",
        -9.42120103351535
      ],
      [
        "Ġmorte",
        -9.422030610673172
      ],
      [
        "Ġprec",
        -9.42247774889128
      ],
      [
        "Ġdados",
        -9.423056032203236
      ],
      [
        "Ġ27",
        -9.42371840891198
      ],
      [
        "Ġprinci",
        -9.424996040572264
      ],
      [
        "devido",
        -9.425903043811294
      ],
      [
        "iz",
        -9.431317683789716
      ],
      [
        "Ġ29",
        -9.433671294392392
      ],
      [
        "SP",
        -9.433838494506324
      ],
      [
        "Ġobjeto",
        -9.433889629351714
      ],
      [
        "Ġfazendo",
        -9.43511178104204
      ],
      [
        "Ġvem",
        -9.436388832786156
      ],
      [
        "Ġraza",
        -9.436513241050369
      ],
      [
        "ĠTem",
        -9.437133461938531
      ],
      [
        "2000",
        -9.439358918990184
      ],
      [
        "ĠDa",
        -9.440114844816875
      ],
      [
        "Ġmeses",
        -9.445556755177552
      ],
      [
        "Ġpesquisa",
        -9.44684683694607
      ],
      [
        "Ġthe",
        -9.447634279934611
      ],
      [
        "20",
        -9.448030934530976
      ],
      [
        "Ġvota",
        -9.448853635855087
      ],
      [
        "Ġorigem",
        -9.448895479641436
      ],
      [
        "rcio",
        -9.44974892719823
      ],
      [
        "Ġ2003",
        -9.451321901886937
      ],
      [
        "Ġluta",
        -9.453690811232107
      ],
      [
        "2008",
        -9.454530414106223
      ],
      [
        "The",
        -9.457114001895237
      ],
      [
        "ĠK",
        -9.458099368290338
      ],
      [
        "Ġ2015",
        -9.463298997983454
      ],
      [
        "blicos",
        -9.463449180127943
      ],
      [
        "PTB",
        -9.464583248174584
      ],
      [
        "ĠComunicac",
        -9.46520624276646
      ],
      [
        "ĠFilho",
        -9.466169850985052
      ],
      [
        "ĠSegundo",
        -9.467370964817707
      ],
      [
        "Ġkm",
        -9.468885092019253
      ],
      [
        "Ġtal",
        -9.46932716581044
      ],
      [
        "Ġgeral",
        -9.471539088806695
      ],
      [
        "2007",
        -9.472169774686982
      ],
      [
        "ĠAgora",
        -9.472513769562154
      ],
      [
        "Ġinclusive",
        -9.47341736956466
      ],
      [
        "gina",
        -9.475838972974254
      ],
      [
        "Ġedic",
        -9.477128631762293
      ],
      [
        "Ġfosse",
        -9.477217130975813
      ],
      [
        "ela",
        -9.47789838023435
      ],
      [
        "Ġatividades",
        -9.47820639571723
      ],
      [
        "ĠSocial",
        -9.478253732347389
      ],
      [
        "radiodifusa",
        -9.48056227659726
      ],
      [
        "ĠPP",
        -9.481106583269243
      ],
      [
        "Ġdeixar",
        -9.481892245798672
      ],
      [
        "Ġpagamento",
        -9.483651138515093
      ],
      [
        "Executivo",
        -9.484146567916016
      ],
      [
        "Ġqualidade",
        -9.485351367783672
      ],
      [
        "ĠFa",
        -9.486615282678336
      ],
      [
        "Ġquase",
        -9.490044777569864
      ],
      [
        "2010",
        -9.493083262277615
      ],
      [
        "Ġalgumas",
        -9.493585175393072
      ],
      [
        "Ġnecessidade",
        -9.49405335058497
      ],
      [
        "cada",
        -9.495075869257311
      ],
      [
        "amos",
        -9.496603235896714
      ],
      [
        "los",
        -9.498054802456636
      ],
      [
        "Ġpoderia",
        -9.49883339039028
      ],
      [
        "ĠDeus",
        -9.500041799090264
      ],
      [
        "Ġcri",
        -9.501220597160383
      ],
      [
        "Ġminutos",
        -9.503762033653318
      ],
      [
        "rico",
        -9.503952602293133
      ],
      [
        "ĠCie",
        -9.506533475298484
      ],
      [
        "Ġparticipac",
        -9.509232499906394
      ],
      [
        "Ġmaioria",
        -9.509748495768031
      ],
      [
        "lhe",
        -9.51009406944377
      ],
      [
        "ĠMo",
        -9.510810137038831
      ],
      [
        "ĠMin",
        -9.51110032945567
      ],
      [
        "Ġesses",
        -9.512240238450582
      ],
      [
        "Ġ2014",
        -9.513579887209715
      ],
      [
        "cil",
        -9.51444108634742
      ],
      [
        "Ġfilho",
        -9.515743552435284
      ],
      [
        "Ġ50",
        -9.519620547352933
      ],
      [
        "Ġba",
        -9.51989220926034
      ],
      [
        "Ġpublicac",
        -9.519961541027998
      ],
      [
        "Ġdinheiro",
        -9.521255840545471
      ],
      [
        "Ġdeixa",
        -9.526339195377677
      ],
      [
        "Ġposic",
        -9.528097729947602
      ],
      [
        "RIA",
        -9.528434300289067
      ],
      [
        "ira",
        -9.530499248144457
      ],
      [
        "anos",
        -9.531580938356475
      ],
      [
        "Ġconhecido",
        -9.531686163974818
      ],
      [
        "Ġrequerimento",
        -9.531747343173992
      ],
      [
        "Ġquer",
        -9.531800021996682
      ],
      [
        "Ġcerto",
        -9.533895349846494
      ],
      [
        "Ġdele",
        -9.534047928371464
      ],
      [
        "Ġresponsa",
        -9.535689571560464
      ],
      [
        "Ġcrime",
        -9.538458494113788
      ],
      [
        "Ġmodo",
        -9.538508085990212
      ],
      [
        "Ġaumento",
        -9.539903073670589
      ],
      [
        "Ġemenda",
        -9.540807396554584
      ],
      [
        "Ġensino",
        -9.541818796731986
      ],
      [
        "Ġinteresse",
        -9.542083074443692
      ],
      [
        "ĠAme",
        -9.542097933159551
      ],
      [
        "https",
        -9.542438031471317
      ],
      [
        "Ġlegal",
        -9.542812122639214
      ],
      [
        "dores",
        -9.543205544220331
      ],
      [
        "Ġ2016",
        -9.545049905934675
      ],
      [
        "gio",
        -9.546805454044067
      ],
      [
        "gica",
        -9.547395703802136
      ],
      [
        "agravo",
        -9.547765882684947
      ],
      [
        "W",
        -9.548222550663477
      ],
      [
        "Ġboa",
        -9.54929683515318
      ],
      [
        "Ġessas",
        -9.549614551669949
      ],
      [
        "Ġpartido",
        -9.553573759833531
      ],
      [
        "Ġredac",
        -9.553844025207074
      ],
      [
        "ĠPrograma",
        -9.556346378581967
      ],
      [
        ");",
        -9.556727987315574
      ],
      [
        "Ġmuitas",
        -9.556768826140654
      ],
      [
        "ĠParecer",
        -9.557746985053992
      ],
      [
        "eleic",
        -9.55798172002998
      ],
      [
        "Ġirma",
        -9.55867454471181
      ],
      [
        "Ġnuma",
        -9.560021498654809
      ],
      [
        "altera",
        -9.560875125614748
      ],
      [
        "ĠAssim",
        -9.560987247929626
      ],
      [
        "lbum",
        -9.561713141093398
      ],
      [
        "somente",
        -9.562067444662633
      ],
      [
        "Ġgrandes",
        -9.564365737840657
      ],
      [
        "Ġfac",
        -9.56445744752676
      ],
      [
        "ĠLula",
        -9.56469225482778
      ],
      [
        "ĠEM",
        -9.56504598731289
      ],
      [
        "Ġnoite",
        -9.56524987344431
      ],
      [
        "Ġlegislac",
        -9.56610612008792
      ],
      [
        "Ġconstruc",
        -9.56710442765737
      ],
      [
        "entanto",
        -9.567641953656295
      ],
      [
        "13",
        -9.567720122957342
      ],
      [
        "ate",
        -9.568366507480228
      ],
      [
        "Ġnorte",
        -9.568904197384828
      ],
      [
        "pria",
        -9.569161330161498
      ],
      [
        "04",
        -9.56966179375524
      ],
      [
        "Ġsuperior",
        -9.569972961483703
      ],
      [
        "ĠLegislativo",
        -9.5716976273871
      ],
      [
        "ltimo",
        -9.57179944016578
      ],
      [
        "Ġpe",
        -9.572307116147435
      ],
      [
        "Ġcompete",
        -9.572535763923836
      ],
      [
        "Ġoperac",
        -9.572557775178034
      ],
      [
        "ĠAssociac",
        -9.57341347082524
      ],
      [
        "NCIA",
        -9.574975201453483
      ],
      [
        "ĠNova",
        -9.576458510696366
      ],
      [
        "Ġhomem",
        -9.580379971886396
      ],
      [
        "ista",
        -9.58280400812108
      ],
      [
        "Ġcontrole",
        -9.58411742958106
      ],
      [
        "Ġtarde",
        -9.584590975135267
      ],
      [
        "Ġlongo",
        -9.58651051268464
      ],
      [
        "02",
        -9.58756772793353
      ],
      [
        "Ġjunto",
        -9.588499247757625
      ],
      [
        "Ġsaber",
        -9.589222565650706
      ],
      [
        "2012",
        -9.59092825967788
      ],
      [
        "ĠFernando",
        -9.592096944450384
      ],
      [
        "Ġpassa",
        -9.593789050785023
      ],
      [
        "Ġge",
        -9.594172657138062
      ],
      [
        "Ġoficial",
        -9.594829991312947
      ],
      [
        "ĠTa",
        -9.595460097556732
      ],
      [
        "Ġrealizac",
        -9.59625265170104
      ],
      [
        "2016",
        -9.596513682133716
      ],
      [
        "Ġbrasileiros",
        -9.601690244988006
      ],
      [
        "stica",
        -9.602005481190096
      ],
      [
        "Ġmembro",
        -9.602305140158707
      ],
      [
        "Ġorc",
        -9.602454779068566
      ],
      [
        "Ġpossa",
        -9.602483767448057
      ],
      [
        "passou",
        -9.602947202473516
      ],
      [
        "Ġpossui",
        -9.603049965117023
      ],
      [
        "Ġ100",
        -9.603949050995787
      ],
      [
        "ĠCA",
        -9.603994380093228
      ],
      [
        "Ġjulgamento",
        -9.605275033852507
      ],
      [
        "ĠTrabalho",
        -9.607037037697262
      ],
      [
        "Ġdispo",
        -9.607805092519929
      ],
      [
        "ĠRoberto",
        -9.608096599800865
      ],
      [
        "ĠSP",
        -9.610681661286955
      ],
      [
        ".âĢĿ",
        -9.611153932640262
      ],
      [
        "ÌĤ?",
        -9.61164236606808
      ],
      [
        "Ġpreciso",
        -9.613166406246364
      ],
      [
        "men",
        -9.613508324769116
      ],
      [
        "ĠThe",
        -9.615294328872638
      ],
      [
        "gi",
        -9.615650978637976
      ],
      [
        "ini",
        -9.616525950237577
      ],
      [
        "ĠBem",
        -9.61810737083553
      ],
      [
        "Ġmuitos",
        -9.61911484359736
      ],
      [
        "Ġproduto",
        -9.61938430793369
      ],
      [
        "ĠMaia",
        -9.620812112943357
      ],
      [
        "Ġreforma",
        -9.62163836171178
      ],
      [
        "Ġmembros",
        -9.62755018107263
      ],
      [
        "Ġsetor",
        -9.62816749380048
      ],
      [
        "culos",
        -9.632172994223463
      ],
      [
        "Ġmulheres",
        -9.635634346338032
      ],
      [
        "tro",
        -9.637319034720887
      ],
      [
        "Ġregime",
        -9.637870699772668
      ],
      [
        "ĠNO",
        -9.637931707176914
      ],
      [
        "Ġ31",
        -9.63896490618779
      ],
      [
        "ĠPortugal",
        -9.639914462102595
      ],
      [
        "Ġenergia",
        -9.641380879704773
      ],
      [
        "Z",
        -9.641515267686422
      ],
      [
        "Ġdez",
        -9.64220572748493
      ],
      [
        "2014",
        -9.643201748529648
      ],
      [
        "Ġcontrato",
        -9.64487571022246
      ],
      [
        "Ġfeita",
        -9.64655303110644
      ],
      [
        "ĠW",
        -9.646786256369229
      ],
      [
        "Ġassunto",
        -9.647230088292236
      ],
      [
        "Ġprova",
        -9.647637292869817
      ],
      [
        "ltima",
        -9.649781611270148
      ],
      [
        "Ġfala",
        -9.650176690048449
      ],
      [
        "Ġmaneira",
        -9.651502853010228
      ],
      [
        "Ġatual",
        -9.65363585075005
      ],
      [
        "Ġfrente",
        -9.65402521594513
      ],
      [
        "DA",
        -9.65422317190535
      ],
      [
        "ĠApo",
        -9.654717581035262
      ],
      [
        "ĠMesa",
        -9.65585962286872
      ],
      [
        "ĠMinas",
        -9.656631533097816
      ],
      [
        "legislativa",
        -9.659202468807248
      ],
      [
        "registro",
        -9.660195036746334
      ],
      [
        "Ġespac",
        -9.66024997840408
      ],
      [
        "Ġchamado",
        -9.66062079442118
      ],
      [
        "tes",
        -9.660707809247178
      ],
      [
        "Ġconjunto",
        -9.660776057026384
      ],
      [
        "Ġprincipalmente",
        -9.660882302233368
      ],
      [
        "ÌĤ-",
        -9.661388339357323
      ],
      [
        "Ġeconomia",
        -9.66147417007724
      ],
      [
        "ĠHisto",
        -9.6618231207595
      ],
      [
        "devera",
        -9.663108979409929
      ],
      [
        "Ġdebate",
        -9.663349073509591
      ],
      [
        "ĠDesenvolvimento",
        -9.663514769126923
      ],
      [
        "Ġsai",
        -9.665080178711882
      ],
      [
        "Ġpresenc",
        -9.666049824858453
      ],
      [
        "Ġobras",
        -9.66613101635924
      ],
      [
        "ĠEstou",
        -9.667233556766066
      ],
      [
        "Ġpapel",
        -9.667385784344662
      ],
      [
        "reais",
        -9.670792223588764
      ],
      [
        "Ġproblemas",
        -9.67175039400862
      ],
      [
        "ĠNorte",
        -9.67195850979437
      ],
      [
        "ĠPSB",
        -9.6720224405272
      ],
      [
        "ĠDEM",
        -9.672655691469506
      ],
      [
        "ĠFrancisco",
        -9.672878699191964
      ],
      [
        "Ġlhe",
        -9.676132753409355
      ],
      [
        "Ġnota",
        -9.678243710600167
      ],
      [
        "Ġaplicac",
        -9.679292436796397
      ],
      [
        "Ġchegar",
        -9.679413564605069
      ],
      [
        "Ġeram",
        -9.680056269925368
      ],
      [
        "Ġbenefi",
        -9.680538067828808
      ],
      [
        "ĠPartido",
        -9.6824211432797
      ],
      [
        "ĠPro",
        -9.683290023568718
      ],
      [
        "ĠMu",
        -9.684802480467264
      ],
      [
        "Ġcoisas",
        -9.687110753735563
      ],
      [
        "Ġhouve",
        -9.687985635800825
      ],
      [
        "#",
        -9.688542152562484
      ],
      [
        "Ġaprovado",
        -9.689085276382666
      ],
      [
        "Ġparece",
        -9.69036824756352
      ],
      [
        "Ġnesse",
        -9.690970504422756
      ],
      [
        "Ġposso",
        -9.694297203923028
      ],
      [
        "ĠSua",
        -9.695321383100586
      ],
      [
        "Ġterra",
        -9.699343577092458
      ],
      [
        "\")",
        -9.699674506670668
      ],
      [
        "Ġocorre",
        -9.699906402803338
      ],
      [
        "Ġbanda",
        -9.69996963101699
      ],
      [
        "Ġalgum",
        -9.702283263786304
      ],
      [
        "blicas",
        -9.702878192718725
      ],
      [
        "vam",
        -9.703071134456383
      ],
      [
        "Ġconhecimento",
        -9.703877092222225
      ],
      [
        "ĠDJ",
        -9.704741319134872
      ],
      [
        "Ġembora",
        -9.705992275772036
      ],
      [
        "Ġpassado",
        -9.706498683553312
      ],
      [
        "gico",
        -9.707535590455748
      ],
      [
        "Ġacho",
        -9.708335541837222
      ],
      [
        "Ġdeveria",
        -9.708980313143016
      ],
      [
        "16",
        -9.70908009986248
      ],
      [
        "Ġoportunidade",
        -9.71036500835694
      ],
      [
        "ante",
        -9.710998471844356
      ],
      [
        "Ġgente",
        -9.711034047165665
      ],
      [
        "ĠIV",
        -9.711276286889316
      ],
      [
        "Ġ2017",
        -9.711382755163337
      ],
      [
        "responsabilidade",
        -9.711845531633433
      ],
      [
        "Ġbusca",
        -9.71215438770616
      ],
      [
        "COMISSA",
        -9.713354432608376
      ],
      [
        "Ġalguma",
        -9.714208647500346
      ],
      [
        "Ġatividade",
        -9.716899824765257
      ],
      [
        "Ġinclui",
        -9.716991826047678
      ],
      [
        "chi",
        -9.719820236246711
      ],
      [
        "19",
        -9.72040407471333
      ],
      [
        "Ġlivro",
        -9.72177217905851
      ],
      [
        "Ġobra",
        -9.72246404888917
      ],
      [
        "tima",
        -9.723794624591662
      ],
      [
        "tion",
        -9.723956239401938
      ],
      [
        "ĠAntonio",
        -9.72520709731004
      ],
      [
        "RECURSO",
        -9.725241765608333
      ],
      [
        "ano",
        -9.725619579150877
      ],
      [
        "Defesa",
        -9.726570585641635
      ],
      [
        "):",
        -9.727549672438244
      ],
      [
        "âĢĻ",
        -9.728343851732204
      ],
      [
        "Y",
        -9.72888903995229
      ],
      [
        "&",
        -9.7301789471032
      ],
      [
        "ĠSecreta",
        -9.73027399760048
      ],
      [
        "ĠServic",
        -9.731490758247627
      ],
      [
        "Ġajuda",
        -9.732385167818158
      ],
      [
        "ĠCon",
        -9.733295232963654
      ],
      [
        "q",
        -9.7362539007218
      ],
      [
        "sociais",
        -9.739741145189877
      ],
      [
        "Ġorganizac",
        -9.740672974480326
      ],
      [
        "Ġmulher",
        -9.741356001760447
      ],
      [
        "amenta",
        -9.741771354375729
      ],
      [
        "ĠEMENDA",
        -9.743766225464976
      ],
      [
        "portanto",
        -9.745092576746002
      ],
      [
        "sejam",
        -9.745536882955422
      ],
      [
        "ĠTecnologia",
        -9.747046374503814
      ],
      [
        "Ġexecuc",
        -9.747109491235992
      ],
      [
        "Ð",
        -9.747240219044452
      ],
      [
        "che",
        -9.748872958425052
      ],
      [
        "Distrito",
        -9.749003191510903
      ],
      [
        "stico",
        -9.749227023648068
      ],
      [
        "podemos",
        -9.749723677304535
      ],
      [
        "Ġingle",
        -9.750321441535569
      ],
      [
        "ĠCivil",
        -9.751747469488684
      ],
      [
        "Ġ1990",
        -9.751904646212056
      ],
      [
        "Ġcomunicac",
        -9.752295058023908
      ],
      [
        "Ġ2020",
        -9.752300470292957
      ],
      [
        "Ġnenhum",
        -9.75247918908252
      ],
      [
        "ĠVa",
        -9.75314879411742
      ],
      [
        "Ġlinha",
        -9.75419713372318
      ],
      [
        "enta",
        -9.754950680941066
      ],
      [
        "Ġmudanc",
        -9.755147998638504
      ],
      [
        "Ġpessoal",
        -9.75531476003239
      ],
      [
        "PR",
        -9.755648630745885
      ],
      [
        "Ġavanc",
        -9.756204664778984
      ],
      [
        "Ġformula",
        -9.75749769194344
      ],
      [
        "Ġforte",
        -9.75776300670018
      ],
      [
        "Ġ2002",
        -9.759739406943536
      ],
      [
        "ĠVice",
        -9.76074628946042
      ],
      [
        "ismo",
        -9.761290918782128
      ],
      [
        "Ġiniciativa",
        -9.761981628762742
      ],
      [
        "Ġeletro",
        -9.762007822671595
      ],
      [
        "Ġespeci",
        -9.76331935153315
      ],
      [
        "Ġfunciona",
        -9.763627225944123
      ],
      [
        "ĠPrimeira",
        -9.764074254937228
      ],
      [
        "Geral",
        -9.764228755383703
      ],
      [
        "ĠBrasileiro",
        -9.7648395757914
      ],
      [
        "ĠCorte",
        -9.766942740751906
      ],
      [
        "ĠAnto",
        -9.768067190005954
      ],
      [
        "Campeonato",
        -9.768082379739983
      ],
      [
        "Ġtema",
        -9.768431876362056
      ],
      [
        "Ġescola",
        -9.769452710423792
      ],
      [
        "per",
        -9.769471090321735
      ],
      [
        "ĠBa",
        -9.770545396744897
      ],
      [
        "ĠExcele",
        -9.771601533710292
      ],
      [
        "2005",
        -9.771791102037293
      ],
      [
        "ĠDi",
        -9.771839790017244
      ],
      [
        "Ġficou",
        -9.77206587091758
      ],
      [
        "*",
        -9.77227969241284
      ],
      [
        "ĠREQUERIMENTO",
        -9.772921853854228
      ],
      [
        "dios",
        -9.77459866464113
      ],
      [
        "Ġ2019",
        -9.774615772529692
      ],
      [
        "Ġsenhor",
        -9.775593267398996
      ],
      [
        "Ġmal",
        -9.776036594919272
      ],
      [
        "Ġcarreira",
        -9.777528525411787
      ],
      [
        "ĠObrigado",
        -9.777614357564213
      ],
      [
        "prevista",
        -9.779057393234568
      ],
      [
        "ĠFe",
        -9.780701851227658
      ],
      [
        "Ìģ?",
        -9.782128373617212
      ],
      [
        "ĠVi",
        -9.782500913546585
      ],
      [
        "ĠKa",
        -9.78325191199895
      ],
      [
        "Ġcampo",
        -9.783937686784704
      ],
      [
        "dispo",
        -9.784202420859357
      ],
      [
        "ĠPDT",
        -9.785843928031946
      ],
      [
        "mbito",
        -9.786118877832736
      ],
      [
        "Ġprojetos",
        -9.786691119929488
      ],
      [
        "Ġalgue",
        -9.786784364793393
      ],
      [
        "Ġ2000",
        -9.787506751098494
      ],
      [
        "sticas",
        -9.788393138478268
      ],
      [
        "discurso",
        -9.7889470726503
      ],
      [
        "por",
        -9.789462938458744
      ],
      [
        "Ġbilho",
        -9.789648334022507
      ],
      [
        "2019",
        -9.790093017779744
      ],
      [
        "ĠInstituto",
        -9.79076899505984
      ],
      [
        "Ġtemporada",
        -9.791908645094782
      ],
      [
        "Ġanterior",
        -9.792024196666311
      ],
      [
        "tado",
        -9.792059138762548
      ],
      [
        "Ġtornou",
        -9.79318172080206
      ],
      [
        "ĠAl",
        -9.793305974758953
      ],
      [
        "ĠCosta",
        -9.79584204633358
      ],
      [
        "Ġproposic",
        -9.79749698583616
      ],
      [
        "Ġmandato",
        -9.797932412380153
      ],
      [
        "ĠCunha",
        -9.79865939679354
      ],
      [
        "Ġcampanha",
        -9.799667096741494
      ],
      [
        "Ġterrito",
        -9.801372133600784
      ],
      [
        "ĠFranc",
        -9.801912165094029
      ],
      [
        "ĠMarco",
        -9.802404240819268
      ],
      [
        "Ġcapital",
        -9.802598659078011
      ],
      [
        "ĠBo",
        -9.803117262839772
      ],
      [
        "vio",
        -9.803234670772929
      ],
      [
        "car",
        -9.80357257777984
      ],
      [
        "Ġcerteza",
        -9.804607106953092
      ],
      [
        "disposto",
        -9.805176695375508
      ],
      [
        "Ġalterac",
        -9.807428571882976
      ],
      [
        "ĠTambe",
        -9.807628022692882
      ],
      [
        "cnico",
        -9.80890029689424
      ],
      [
        "Depois",
        -9.80947877510066
      ],
      [
        "Ġexame",
        -9.809878733475374
      ],
      [
        "serem",
        -9.810392589738989
      ],
      [
        "Ġtitular",
        -9.810842293410929
      ],
      [
        "Ġvalores",
        -9.811520349313463
      ],
      [
        "Ġauto",
        -9.81392249176528
      ],
      [
        "ĠRequerimento",
        -9.814142584854151
      ],
      [
        "Ġsub",
        -9.814311411261183
      ],
      [
        "concessa",
        -9.815635548113535
      ],
      [
        "Ġtransporte",
        -9.815647957173358
      ],
      [
        "Ġfederal",
        -9.815838440821793
      ],
      [
        "lar",
        -9.817726068881177
      ],
      [
        "Ġ2001",
        -9.818249153755051
      ],
      [
        "Ġencontra",
        -9.818283012043343
      ],
      [
        "Ġcorpo",
        -9.818372274579252
      ],
      [
        "Ġatenc",
        -9.82131580517136
      ],
      [
        "Ġresultado",
        -9.821406720139654
      ],
      [
        "ĠGuerra",
        -9.821484871855144
      ],
      [
        "Ġprincipais",
        -9.82178037110732
      ],
      [
        "Ġvigor",
        -9.822104506514677
      ],
      [
        "ita",
        -9.82228051352192
      ],
      [
        "LTIMA",
        -9.82399815208929
      ],
      [
        "Ġ40",
        -9.82403254992107
      ],
      [
        "ĠAna",
        -9.824787169930453
      ],
      [
        "Ġplena",
        -9.825774171115132
      ],
      [
        "Ġpauta",
        -9.826756036644827
      ],
      [
        "Ġautos",
        -9.827235219407436
      ],
      [
        "apreciac",
        -9.827583593406729
      ],
      [
        "Ġefeito",
        -9.827801073315538
      ],
      [
        "Ġsede",
        -9.827903791282411
      ],
      [
        "ĠPortant",
        -9.828241739358
      ],
      [
        "2017",
        -9.82953938843818
      ],
      [
        "ĠMA",
        -9.829983524319791
      ],
      [
        "DEM",
        -9.83044407922833
      ],
      [
        "Ġpontos",
        -9.830478126449895
      ],
      [
        "Ġclaro",
        -9.83056831942722
      ],
      [
        "ĠSecretaria",
        -9.831104042499794
      ],
      [
        "ente",
        -9.83168477741532
      ],
      [
        "Ġhaver",
        -9.831846444387422
      ],
      [
        "reunia",
        -9.832852372082971
      ],
      [
        "Ġrenda",
        -9.833502614768118
      ],
      [
        "Ġnobre",
        -9.833708857539062
      ],
      [
        "ĠEles",
        -9.834840007634694
      ],
      [
        "Ġqueria",
        -9.836506523302562
      ],
      [
        "ĠTV",
        -9.836663695464413
      ],
      [
        "Ġmodelo",
        -9.838781466990357
      ],
      [
        "Ġcrise",
        -9.83939843157864
      ],
      [
        "ĠSi",
        -9.839944210401091
      ],
      [
        "Ġconsiderado",
        -9.840524973101902
      ],
      [
        "antes",
        -9.84168084725348
      ],
      [
        "TO",
        -9.841833818587771
      ],
      [
        "Ġnatureza",
        -9.841852748542276
      ],
      [
        "ĠPode",
        -9.843113128288666
      ],
      [
        "Ġcriar",
        -9.843566876436538
      ],
      [
        "Ġcaminho",
        -9.84519523597615
      ],
      [
        "Presidente",
        -9.846162592607708
      ],
      [
        "Ġturno",
        -9.84680243967765
      ],
      [
        "17",
        -9.84959463472144
      ],
      [
        "ĠCi",
        -9.849702123178425
      ],
      [
        "Ġ:)",
        -9.849718237796
      ],
      [
        "tre",
        -9.850938640823252
      ],
      [
        "gra",
        -9.851739526319063
      ],
      [
        "Ġmovimento",
        -9.85360217591421
      ],
      [
        "provimento",
        -9.856819637606836
      ],
      [
        "ato",
        -9.857153482167464
      ],
      [
        "ĠAG",
        -9.857212449399096
      ],
      [
        "ĠNA",
        -9.858385439403202
      ],
      [
        "Ordem",
        -9.860512219544333
      ],
      [
        "bio",
        -9.860658008760533
      ],
      [
        "TE",
        -9.860904062883238
      ],
      [
        "Ġcontribuic",
        -9.862343984629112
      ],
      [
        "Ġteria",
        -9.862429128100093
      ],
      [
        "chegou",
        -9.863923503353824
      ],
      [
        "Ġformac",
        -9.864177855467288
      ],
      [
        "ĠQuero",
        -9.86475834594336
      ],
      [
        "ncio",
        -9.8652017746231
      ],
      [
        "Ġdiferentes",
        -9.866312306134208
      ],
      [
        "ĠRicardo",
        -9.866632369844082
      ],
      [
        "Ġ1998",
        -9.86707559624466
      ],
      [
        "Ġpropo",
        -9.867747509280688
      ],
      [
        "tos",
        -9.86848811414763
      ],
      [
        "ĠCopa",
        -9.868502244847946
      ],
      [
        "ĠAlves",
        -9.868588302711002
      ],
      [
        "Ġfase",
        -9.86930358227218
      ],
      [
        "ĠQuem",
        -9.870743789491572
      ],
      [
        "ĠAGRAV",
        -9.871562400131936
      ],
      [
        "30",
        -9.871812053553189
      ],
      [
        "Ġautoria",
        -9.871976849665092
      ],
      [
        "mar",
        -9.872184245716536
      ],
      [
        "stria",
        -9.872213610539236
      ],
      [
        "ndia",
        -9.87330629934488
      ],
      [
        "ĠHenrique",
        -9.87336160242826
      ],
      [
        "Ġper",
        -9.87442325478697
      ],
      [
        "Ġaquele",
        -9.87512374530218
      ],
      [
        "Ġexpressa",
        -9.87545034718482
      ],
      [
        "Ġ2018",
        -9.876488193642327
      ],
      [
        "14",
        -9.876913008970222
      ],
      [
        "Ġlista",
        -9.877000414903904
      ],
      [
        "Ġcaput",
        -9.878738334448784
      ],
      [
        "ĠPereira",
        -9.879041620764871
      ],
      [
        "ĠAc",
        -9.8801794306402
      ],
      [
        "ck",
        -9.880265310572977
      ],
      [
        "sta",
        -9.882192640777829
      ],
      [
        "ĠBe",
        -9.88270279016626
      ],
      [
        "ĠDias",
        -9.883683422142283
      ],
      [
        "ĠEspecial",
        -9.884515138264366
      ],
      [
        "aram",
        -9.885537950775236
      ],
      [
        "Ġprofissional",
        -9.885563971769924
      ],
      [
        "ĠSistema",
        -9.88590001526502
      ],
      [
        "ĠSantos",
        -9.886597655413404
      ],
      [
        "Ġcidada",
        -9.886864451486348
      ],
      [
        "ĠAr",
        -9.886917268467084
      ],
      [
        "cias",
        -9.88754738687481
      ],
      [
        "Ġpartida",
        -9.8877637408103
      ],
      [
        "ĠSanto",
        -9.888691778873348
      ],
      [
        "Ġrede",
        -9.889405285405106
      ],
      [
        "Ġmenor",
        -9.89095063733886
      ],
      [
        "Cidadania",
        -9.891943843410386
      ],
      [
        "Q",
        -9.892678433514671
      ],
      [
        "Ġguerra",
        -9.894157801200931
      ],
      [
        "Ġcanc",
        -9.894551891800791
      ],
      [
        "ĠRE",
        -9.89517581441885
      ],
      [
        "Ġindi",
        -9.89529301619407
      ],
      [
        "rem",
        -9.895640945363002
      ],
      [
        "Ġvotar",
        -9.89692269600349
      ],
      [
        "cujo",
        -9.897836413426887
      ],
      [
        "2006",
        -9.899391126840928
      ],
      [
        "ĠRosa",
        -9.899727539715336
      ],
      [
        "tar",
        -9.90168902899122
      ],
      [
        "xima",
        -9.90324730820088
      ],
      [
        "ĠEra",
        -9.903267104779738
      ],
      [
        "Ġplano",
        -9.903427574242382
      ],
      [
        "ĠSTF",
        -9.90398122909767
      ],
      [
        "trabalhadores",
        -9.90537568331243
      ],
      [
        "ĠMi",
        -9.905918936463532
      ],
      [
        "ĠMais",
        -9.907286852567443
      ],
      [
        "recebeu",
        -9.90759547685441
      ],
      [
        "Ġinternacional",
        -9.909015081334122
      ],
      [
        "acima",
        -9.90902566268625
      ],
      [
        "Ġpenal",
        -9.910210299964444
      ],
      [
        "Ġprofessor",
        -9.910489207195129
      ],
      [
        "Medida",
        -9.910530462510804
      ],
      [
        "timo",
        -9.911833075055007
      ],
      [
        "ry",
        -9.912417877390546
      ],
      [
        "Ġseis",
        -9.912842942582008
      ],
      [
        "lha",
        -9.912899593644914
      ],
      [
        "Ġlogo",
        -9.914328411038015
      ],
      [
        "Ġdestaque",
        -9.914958592065336
      ],
      [
        "amente",
        -9.914997981597674
      ],
      [
        "Ġsu",
        -9.91507566642451
      ],
      [
        "Ġgesta",
        -9.915342333694372
      ],
      [
        "Ġviole",
        -9.915375570934046
      ],
      [
        "Ġsucesso",
        -9.915553756378912
      ],
      [
        "ĠDilma",
        -9.915765866485016
      ],
      [
        "ĠMIN",
        -9.917409454363996
      ],
      [
        "realmente",
        -9.917548404771535
      ],
      [
        "mediante",
        -9.918354435452974
      ],
      [
        "ber",
        -9.918728247995144
      ],
      [
        "Ġsul",
        -9.920794435494027
      ],
      [
        "nessa",
        -9.921572007475756
      ],
      [
        "cuja",
        -9.9222328459279
      ],
      [
        "tese",
        -9.92241388739021
      ],
      [
        "á",
        -9.922978721685286
      ],
      [
        "Ġdesses",
        -9.924095272156814
      ],
      [
        "ĠHe",
        -9.924749309576852
      ],
      [
        "Ġcusto",
        -9.92500981175599
      ],
      [
        "possibilidade",
        -9.925159329613528
      ],
      [
        "nas",
        -9.926557863134402
      ],
      [
        "Ġversa",
        -9.92659575352597
      ],
      [
        "ĠVou",
        -9.92685883072606
      ],
      [
        "Ġconstante",
        -9.92710396370884
      ],
      [
        ".............",
        -9.92806828043176
      ],
      [
        "Ġfinanceira",
        -9.928284716969571
      ],
      [
        "ĠBanco",
        -9.92894967369365
      ],
      [
        "Ġcultura",
        -9.930287075276125
      ],
      [
        "Ġcla",
        -9.931124168041023
      ],
      [
        "Ġcrite",
        -9.931726204817789
      ],
      [
        "ĠH",
        -9.931848682291742
      ],
      [
        "Ġatendimento",
        -9.931906058038717
      ],
      [
        "las",
        -9.931918945884854
      ],
      [
        "ĠPSD",
        -9.931989549976429
      ],
      [
        "ĠGo",
        -9.932178741170222
      ],
      [
        "cha",
        -9.933328785784427
      ],
      [
        "Ġnovos",
        -9.933773061402947
      ],
      [
        "Ġusua",
        -9.934710229939208
      ],
      [
        "ĠDireito",
        -9.935867523312028
      ],
      [
        "medidas",
        -9.936269703824
      ],
      [
        "Ġexige",
        -9.936575417889362
      ],
      [
        "pensado",
        -9.937260458668636
      ],
      [
        "Ġhipo",
        -9.937512289574077
      ],
      [
        "Ġcomunidade",
        -9.937661504716438
      ],
      [
        "Ġvisa",
        -9.938152206794909
      ],
      [
        "ĠNesse",
        -9.9382408031769
      ],
      [
        "category",
        -9.938251556296006
      ],
      [
        "ĠFi",
        -9.94022302114299
      ],
      [
        "ĠBrasileira",
        -9.940234011273509
      ],
      [
        "ĠOh",
        -9.941035524008786
      ],
      [
        "ki",
        -9.943478883783376
      ],
      [
        "Ġresposta",
        -9.943596222097892
      ],
      [
        "ĠProviso",
        -9.94412936240326
      ],
      [
        "seguintes",
        -9.946199134713142
      ],
      [
        "ĠPorto",
        -9.94788422587854
      ],
      [
        "ina",
        -9.947915810495877
      ],
      [
        "Ġtrabalhos",
        -9.949992108274042
      ],
      [
        "Ġaco",
        -9.95028880392127
      ],
      [
        "Gerais",
        -9.950330101770932
      ],
      [
        "Ġautor",
        -9.95093955981899
      ],
      [
        "ĠTi",
        -9.95108230371691
      ],
      [
        "Durante",
        -9.952455293054326
      ],
      [
        "ang",
        -9.95295376097111
      ],
      [
        "Ġpequeno",
        -9.954189497260794
      ],
      [
        "Ġprotec",
        -9.954704342210158
      ],
      [
        "produtos",
        -9.955320495559937
      ],
      [
        "lin",
        -9.955384244811771
      ],
      [
        "Ġmanter",
        -9.955969301088832
      ],
      [
        "Ġliberdade",
        -9.956198419680105
      ],
      [
        "ĠFundo",
        -9.956682535673
      ],
      [
        "Ġdeclarac",
        -9.957049423090444
      ],
      [
        "Ġideia",
        -9.957243075855905
      ],
      [
        "metros",
        -9.957666698750806
      ],
      [
        "PAULO",
        -9.95865028176001
      ],
      [
        "nior",
        -9.95869570520732
      ],
      [
        "ĠSA",
        -9.958791332022326
      ],
      [
        "Ġcapacidade",
        -9.960644665371374
      ],
      [
        "ĠCOM",
        -9.96077649585567
      ],
      [
        "Ġcomunita",
        -9.961029696854288
      ],
      [
        "ĠSeu",
        -9.96156027922324
      ],
      [
        "Ġdifi",
        -9.962083758880274
      ],
      [
        "con",
        -9.96336810805149
      ],
      [
        "tri",
        -9.963893277281295
      ],
      [
        "Ġartigos",
        -9.964032630601542
      ],
      [
        "ĠLima",
        -9.965840268819496
      ],
      [
        "ĠMarcelo",
        -9.965972363490003
      ],
      [
        "ĠBahia",
        -9.967694019769157
      ],
      [
        "Ġreduc",
        -9.967734557770502
      ],
      [
        "Ġexecutar",
        -9.968613776206032
      ],
      [
        "maiores",
        -9.969903102905844
      ],
      [
        "ĠAdministrac",
        -9.970125566176955
      ],
      [
        "Ġdeles",
        -9.97084997939437
      ],
      [
        "Ġdiversos",
        -9.97089765237576
      ],
      [
        "Ġporta",
        -9.970906558307217
      ],
      [
        "ĠComiss",
        -9.971344794712287
      ],
      [
        "servidores",
        -9.971442690447237
      ],
      [
        "pia",
        -9.97245792825321
      ],
      [
        "Ġhomens",
        -9.973738350635807
      ],
      [
        "ĠSENHOR",
        -9.97437133480973
      ],
      [
        "Ġterceiro",
        -9.974733866409943
      ],
      [
        "Ġchamada",
        -9.975435996384634
      ],
      [
        "ĠMundial",
        -9.97673725270646
      ],
      [
        "ĠRel",
        -9.976961204722269
      ],
      [
        "doenc",
        -9.977652077976078
      ],
      [
        "Ġalcanc",
        -9.9801713653811
      ],
      [
        "rac",
        -9.980247426770134
      ],
      [
        "ĠJorge",
        -9.980398051916325
      ],
      [
        "lica",
        -9.981144142495808
      ],
      [
        "Ġ60",
        -9.981517562971764
      ],
      [
        "Ġclube",
        -9.981963379446391
      ],
      [
        "Ġambiente",
        -9.982855474838953
      ],
      [
        "Ġproviso",
        -9.985198130717256
      ],
      [
        "aqueles",
        -9.985405466196475
      ],
      [
        "Ġisto",
        -9.98546510821717
      ],
      [
        "essa",
        -9.985471289465227
      ],
      [
        "risco",
        -9.98550647462828
      ],
      [
        "Ġescrito",
        -9.987539260680805
      ],
      [
        "Ġestudo",
        -9.988035411204825
      ],
      [
        "Ġincluindo",
        -9.988041886209706
      ],
      [
        "Ainda",
        -9.988998928157695
      ],
      [
        "Ġprofissionais",
        -9.989549894083734
      ],
      [
        "ĠInternacional",
        -9.990087050796408
      ],
      [
        "Ġdiversas",
        -9.991296269709071
      ],
      [
        "Ġfo",
        -9.991979953869055
      ],
      [
        "ĠMINISTR",
        -9.992656828704952
      ],
      [
        "ĠMendes",
        -9.992987349645182
      ],
      [
        "ltimos",
        -9.99600480571142
      ],
      [
        "ner",
        -9.997130842707284
      ],
      [
        "sico",
        -9.997702358932008
      ],
      [
        "ĠPE",
        -9.9983621386526
      ],
      [
        "Ġ1997",
        -9.999886740611702
      ],
      [
        "Ġamigo",
        -10.001020778488602
      ],
      [
        "Ġsoluc",
        -10.001311367446815
      ],
      [
        "Ġdiretor",
        -10.001589679805026
      ],
      [
        "SE",
        -10.00365912719475
      ],
      [
        "Ġrealizado",
        -10.004803147155632
      ],
      [
        "ĠRIC",
        -10.005400298028333
      ],
      [
        "ĠTudo",
        -10.00565031716395
      ],
      [
        "Ġlivre",
        -10.005862637551486
      ],
      [
        "ĠPo",
        -10.00626417848738
      ],
      [
        "Ġestrutura",
        -10.0065938668384
      ],
      [
        "AL",
        -10.007502888974038
      ],
      [
        "ngua",
        -10.00900370592946
      ],
      [
        "18",
        -10.009424689620776
      ],
      [
        "Ġentra",
        -10.009678183702167
      ],
      [
        "PCdoB",
        -10.010439930177604
      ],
      [
        "Ġ54",
        -10.010766811452372
      ],
      [
        "Ġfundamental",
        -10.011984651955125
      ],
      [
        "Ġfins",
        -10.012094772246348
      ],
      [
        "Ġreal",
        -10.01315804983871
      ],
      [
        "Ġajudar",
        -10.01326644072413
      ],
      [
        "ĠADV",
        -10.013755339455912
      ],
      [
        "ĠVoss",
        -10.013971356005271
      ],
      [
        "Ġalta",
        -10.01500768898673
      ],
      [
        "ĠâĢĺ",
        -10.016194721241874
      ],
      [
        "2003",
        -10.019201345575665
      ],
      [
        "ĠTra",
        -10.019728803079763
      ],
      [
        "ĠSesso",
        -10.019877276542996
      ],
      [
        "ĠGovernador",
        -10.020433037601409
      ],
      [
        "Ġnovas",
        -10.021528094317112
      ],
      [
        "Lei",
        -10.02215786692455
      ],
      [
        "pronunciamento",
        -10.02441854201744
      ],
      [
        "Ġevento",
        -10.025135241660983
      ],
      [
        "ĠVI",
        -10.025722749686633
      ],
      [
        "Ġsignifica",
        -10.02577242132131
      ],
      [
        "rcito",
        -10.02764835945231
      ],
      [
        "Ġdirec",
        -10.02777548505802
      ],
      [
        "ava",
        -10.028000499904158
      ],
      [
        "Ġmuita",
        -10.028448638368
      ],
      [
        "Ġaudie",
        -10.028898432229424
      ],
      [
        "Ġautoridade",
        -10.030540082107724
      ],
      [
        "Ġmaterial",
        -10.031175703376425
      ],
      [
        "Ġadministrac",
        -10.032692823154502
      ],
      [
        "Ġnego",
        -10.03301729941158
      ],
      [
        "Ġcontar",
        -10.033842519946967
      ],
      [
        "Ġoriginal",
        -10.034050793530122
      ],
      [
        "Ġrepresenta",
        -10.034086220212808
      ],
      [
        "tratamento",
        -10.03434529043755
      ],
      [
        "ĠParana",
        -10.0359090996654
      ],
      [
        "substituic",
        -10.036303384987775
      ],
      [
        "Ġapresenta",
        -10.037292021319198
      ],
      [
        "ĠAcho",
        -10.03741942361557
      ],
      [
        "Ġcrescimento",
        -10.039223710460847
      ],
      [
        "ĠInforma",
        -10.039252593382429
      ],
      [
        "ĠSuperior",
        -10.039981581941024
      ],
      [
        "ton",
        -10.040649902537174
      ],
      [
        "tiva",
        -10.041329308404327
      ],
      [
        "ĠAndre",
        -10.0415064686001
      ],
      [
        "Ġmilitar",
        -10.04309936072532
      ],
      [
        "gostaria",
        -10.043152763197757
      ],
      [
        "Ġnenhuma",
        -10.043315872658518
      ],
      [
        "Ġcivil",
        -10.043926745038332
      ],
      [
        "Ġapresentac",
        -10.044654945139932
      ],
      [
        "Ġvoltar",
        -10.04472822778349
      ],
      [
        "Ġtaxa",
        -10.045086110551638
      ],
      [
        "entidades",
        -10.045088217992747
      ],
      [
        "Ġnorma",
        -10.045882646082909
      ],
      [
        "Ġsonora",
        -10.047620979139213
      ],
      [
        "gar",
        -10.048440919178812
      ],
      [
        "sim",
        -10.048824625900046
      ],
      [
        "EXTRAORDINA",
        -10.048900218603723
      ],
      [
        "pro",
        -10.049820809412813
      ],
      [
        "Ġreuni",
        -10.050151464821935
      ],
      [
        "ĠVoto",
        -10.051727053350673
      ],
      [
        "Ġtera",
        -10.05212542851063
      ],
      [
        "Ġautorizac",
        -10.052131491077237
      ],
      [
        "logo",
        -10.05311385160178
      ],
      [
        "Ġapresentar",
        -10.053815703499897
      ],
      [
        "Ġningue",
        -10.054181519885336
      ],
      [
        "Ġimposto",
        -10.055017329223531
      ],
      [
        "Ġsimples",
        -10.05510412128412
      ],
      [
        "pido",
        -10.055269714950576
      ],
      [
        "Ġcentro",
        -10.05544557344643
      ],
      [
        "devem",
        -10.055494309791731
      ],
      [
        "ĠPmdbP",
        -10.05564390724305
      ],
      [
        "rus",
        -10.05674867861429
      ],
      [
        "Ġcategoria",
        -10.057028940421487
      ],
      [
        "Ltd",
        -10.058349120862037
      ],
      [
        "Ġpar",
        -10.058360702756628
      ],
      [
        "ĠBi",
        -10.05839107809417
      ],
      [
        "Ġconstrui",
        -10.059609891706517
      ],
      [
        "RJ",
        -10.06062517566446
      ],
      [
        "Ġfilhos",
        -10.060780028872962
      ],
      [
        "ĠCampos",
        -10.06120211911282
      ],
      [
        "ĠAte",
        -10.061676293596843
      ],
      [
        "trica",
        -10.0652936990367
      ],
      [
        "Ġinstitui",
        -10.066099933847475
      ],
      [
        "Ġprestac",
        -10.066442990088818
      ],
      [
        "Hoje",
        -10.068740338541986
      ],
      [
        "normas",
        -10.069566146612924
      ],
      [
        "Ġpassar",
        -10.070591333363108
      ],
      [
        "Ġatra",
        -10.071488538617588
      ],
      [
        "Ġtributa",
        -10.07155537258071
      ],
      [
        "Ġdespes",
        -10.072237053208983
      ],
      [
        "Anexo",
        -10.072283335995923
      ],
      [
        "Ġemprego",
        -10.072360152482624
      ],
      [
        "2004",
        -10.072707681713537
      ],
      [
        "Ġinstrumento",
        -10.072881790677249
      ],
      [
        "Ġmeus",
        -10.0736566700664
      ],
      [
        "inha",
        -10.074724220401665
      ],
      [
        "Ġcriado",
        -10.075529054319809
      ],
      [
        "Ġ1999",
        -10.076908394021723
      ],
      [
        "Ġusar",
        -10.077530104568824
      ],
      [
        "ĠIgreja",
        -10.07863792289648
      ],
      [
        "Ġlevar",
        -10.079962650827271
      ],
      [
        "ssimo",
        -10.080915332635254
      ],
      [
        "atuac",
        -10.081602279601189
      ],
      [
        "Ġcor",
        -10.081760990115905
      ],
      [
        "designado",
        -10.0826209316893
      ],
      [
        "Ġvo",
        -10.082854687413745
      ],
      [
        "ele",
        -10.083087467727749
      ],
      [
        "Ġestavam",
        -10.083319754887793
      ],
      [
        "PFL",
        -10.085639313934092
      ],
      [
        "ĠParlamentar",
        -10.085911317837995
      ],
      [
        "Ġespecialmente",
        -10.086514219769937
      ],
      [
        "Ġtrabalhar",
        -10.087180977342785
      ],
      [
        "Ġcombate",
        -10.087631338207782
      ],
      [
        "ĠCentro",
        -10.087662982243865
      ],
      [
        "Ġconhecida",
        -10.08767275052733
      ],
      [
        "juridicidade",
        -10.087698318220491
      ],
      [
        "Ġfavora",
        -10.087728023286171
      ],
      [
        "Tenho",
        -10.088203833315887
      ],
      [
        "ĠVale",
        -10.088218771397854
      ],
      [
        "DE",
        -10.088508100942423
      ],
      [
        "Ġfundo",
        -10.0885924760151
      ],
      [
        "ĠRu",
        -10.088832414618771
      ],
      [
        "ĠTodos",
        -10.08905616082462
      ],
      [
        "ĠRJ",
        -10.089980915065672
      ],
      [
        "US",
        -10.09052787883246
      ],
      [
        "Ġcurso",
        -10.09057600352716
      ],
      [
        "ĠFEDERAL",
        -10.090673471668808
      ],
      [
        "ĠEcono",
        -10.090861139901078
      ],
      [
        "Ġtermo",
        -10.093471931105082
      ],
      [
        "ĠEntre",
        -10.094075088958029
      ],
      [
        "Ġindu",
        -10.094707704348949
      ],
      [
        "ĠCultura",
        -10.095146724102188
      ],
      [
        "Ġprogramas",
        -10.095620785092398
      ],
      [
        "ĠTemer",
        -10.095919878826487
      ],
      [
        "URMA",
        -10.09617260482464
      ],
      [
        "Ġfutebol",
        -10.09617628868122
      ],
      [
        "Ġgarantir",
        -10.096826481940118
      ],
      [
        "Ġdiante",
        -10.097483829490084
      ],
      [
        "rei",
        -10.09799615317564
      ],
      [
        "Ġsair",
        -10.09881481938011
      ],
      [
        "Ġfilha",
        -10.09925730658598
      ],
      [
        "ĠTerra",
        -10.099564465843953
      ],
      [
        "Ġbastante",
        -10.100230830051206
      ],
      [
        "ĠRibeiro",
        -10.101763061405553
      ],
      [
        "MENTO",
        -10.102047613310836
      ],
      [
        "Ġcabec",
        -10.10238749073724
      ],
      [
        "Ġgarantia",
        -10.102722586575055
      ],
      [
        "tor",
        -10.103158581311826
      ],
      [
        "Ġdever",
        -10.104224720399571
      ],
      [
        "Ġconteu",
        -10.10426376395306
      ],
      [
        "Ġelas",
        -10.104468978440783
      ],
      [
        "ĠCO",
        -10.105508437680422
      ],
      [
        "Ġfuturo",
        -10.105592927385324
      ],
      [
        "Ġaprovada",
        -10.105678484731367
      ],
      [
        "Ġcumprimento",
        -10.10613517253958
      ],
      [
        "Ġpublicado",
        -10.106137722880048
      ],
      [
        "Ġrealidade",
        -10.106608591152971
      ],
      [
        "til",
        -10.107222126737325
      ],
      [
        "Ġdela",
        -10.110654477686673
      ],
      [
        "prisa",
        -10.111363923943395
      ],
      [
        "afirmou",
        -10.11181095697594
      ],
      [
        "ĠPEC",
        -10.112509027035376
      ],
      [
        "âĢĲ",
        -10.113333981626011
      ],
      [
        "instalac",
        -10.114361764082698
      ],
      [
        "Ġnovamente",
        -10.114743220813036
      ],
      [
        "Ġimportantes",
        -10.117079427194565
      ],
      [
        "Ġmostra",
        -10.118753143046842
      ],
      [
        "ĠIta",
        -10.119453822887934
      ],
      [
        "jovens",
        -10.120449636581371
      ],
      [
        "PP",
        -10.120598629413214
      ],
      [
        "CE",
        -10.121167916583454
      ],
      [
        "ficas",
        -10.121988124789691
      ],
      [
        "Ġreceber",
        -10.122053704751291
      ],
      [
        "Ġapresentado",
        -10.124776710990842
      ],
      [
        "Ġcena",
        -10.127773694287397
      ],
      [
        "REG",
        -10.12779860260618
      ],
      [
        "Ġmissa",
        -10.128344185460216
      ],
      [
        "Ġseguida",
        -10.130257113642193
      ],
      [
        "ĠSegunda",
        -10.130587480094588
      ],
      [
        "Ġepiso",
        -10.13233241940866
      ],
      [
        "Ġrazo",
        -10.133852371674289
      ],
      [
        "Ġfiscal",
        -10.13404506811028
      ],
      [
        "ĠDiretor",
        -10.135610259073232
      ],
      [
        "pre",
        -10.135792104629596
      ],
      [
        "Ġtais",
        -10.135845279048027
      ],
      [
        "Ġamor",
        -10.136833457549006
      ],
      [
        "ĠOrc",
        -10.137116657248033
      ],
      [
        "Ġmotivo",
        -10.138797358683105
      ],
      [
        "ĠSE",
        -10.138963846366403
      ],
      [
        "les",
        -10.139283872786793
      ],
      [
        "Ġcolocar",
        -10.140383735513392
      ],
      [
        "RE",
        -10.14124950566863
      ],
      [
        "ĠAta",
        -10.141509492568398
      ],
      [
        "Ġalema",
        -10.142397905290288
      ],
      [
        "micos",
        -10.142454773162765
      ],
      [
        "ĠMeu",
        -10.14349158690323
      ],
      [
        "ĠEx",
        -10.143888866315391
      ],
      [
        "Ġalto",
        -10.144912441434832
      ],
      [
        "tur",
        -10.145298202085682
      ],
      [
        "Ġjornal",
        -10.145878927995982
      ],
      [
        "PE",
        -10.146677097078856
      ],
      [
        "ĠMar",
        -10.147727270535809
      ],
      [
        "Ġafirma",
        -10.148009478888676
      ],
      [
        "Ġnatural",
        -10.148821152269369
      ],
      [
        "Ñ",
        -10.150305992535392
      ],
      [
        "ler",
        -10.150335775218547
      ],
      [
        "Ġprejui",
        -10.150549752745208
      ],
      [
        "Ġaquela",
        -10.150737570933147
      ],
      [
        "ĠTo",
        -10.150802570796165
      ],
      [
        "ĠEuropa",
        -10.152947591026704
      ],
      [
        "Ġaplica",
        -10.153104686678189
      ],
      [
        "Ġperda",
        -10.153479380185132
      ],
      [
        "rgio",
        -10.153776229643912
      ],
      [
        "AgR",
        -10.15388730444586
      ],
      [
        "nsito",
        -10.156054817026831
      ],
      [
        "ĠComplementar",
        -10.156465545657529
      ],
      [
        "Ġportugue",
        -10.156683205993758
      ],
      [
        "Ġvisto",
        -10.15811565578526
      ],
      [
        "Ġobrigac",
        -10.1581458183383
      ],
      [
        "Ġeleito",
        -10.15822841689899
      ],
      [
        "emos",
        -10.158802471916085
      ],
      [
        "bancada",
        -10.158881786153788
      ],
      [
        "ã",
        -10.160156058633907
      ],
      [
        "Ġvito",
        -10.160978407455715
      ],
      [
        "tivo",
        -10.161067997652667
      ],
      [
        "deixou",
        -10.1616922569284
      ],
      [
        "ĠPe",
        -10.16226523124851
      ],
      [
        "Ġsuficiente",
        -10.162570111128156
      ],
      [
        "Ġquesto",
        -10.163438659292346
      ],
      [
        "tenham",
        -10.16362030897355
      ],
      [
        "tac",
        -10.164973648076137
      ],
      [
        "nha",
        -10.166841799646663
      ],
      [
        "entidade",
        -10.167374689935343
      ],
      [
        "Ġcomum",
        -10.167533677234442
      ],
      [
        "Ġencontrar",
        -10.169237015685654
      ],
      [
        "ĠBom",
        -10.169893669120148
      ],
      [
        "Ġdispositivo",
        -10.169980354945126
      ],
      [
        "Ġ1996",
        -10.171296808836663
      ],
      [
        "Ġfaixa",
        -10.17259077219753
      ],
      [
        "efeitos",
        -10.174087775065113
      ],
      [
        "nero",
        -10.17425540162455
      ],
      [
        "Portaria",
        -10.174332601981718
      ],
      [
        "Ġautoriza",
        -10.174405412115576
      ],
      [
        "bra",
        -10.17440815746829
      ],
      [
        "ĠTrata",
        -10.175272728211176
      ],
      [
        "ĠPenal",
        -10.176299593525188
      ],
      [
        "Ġoutorga",
        -10.178165810321891
      ],
      [
        "Ġtratar",
        -10.178205743661424
      ],
      [
        "DEPUTADO",
        -10.179081153754284
      ],
      [
        "RA",
        -10.17951078998835
      ],
      [
        "conformidade",
        -10.181010957773657
      ],
      [
        "Ġaconteceu",
        -10.181570318363502
      ],
      [
        "zar",
        -10.181777153927158
      ],
      [
        "ĠMato",
        -10.181937439898418
      ],
      [
        "Ġexperie",
        -10.182566172936976
      ],
      [
        "Ġcienti",
        -10.18403644764659
      ],
      [
        "locais",
        -10.184928413171324
      ],
      [
        "Ġpermite",
        -10.18543769832106
      ],
      [
        "entendimento",
        -10.185951162556984
      ],
      [
        "2018",
        -10.186029471169276
      ],
      [
        "gue",
        -10.187031016442884
      ],
      [
        "ĠCar",
        -10.188306888129905
      ],
      [
        "ĠRelato",
        -10.188354650260408
      ],
      [
        "previsto",
        -10.188392174536938
      ],
      [
        "Ġbaixo",
        -10.188796717100365
      ],
      [
        "Ġdessas",
        -10.189597716322584
      ],
      [
        "ĠHo",
        -10.189828051940294
      ],
      [
        "mula",
        -10.190557519016686
      ],
      [
        "ĠBA",
        -10.190635528729215
      ],
      [
        "Ġconstitui",
        -10.190748206493534
      ],
      [
        "ĠDOS",
        -10.191039466971256
      ],
      [
        "ĠAqui",
        -10.19276393076258
      ],
      [
        "tulos",
        -10.192964239471948
      ],
      [
        "Ġacerca",
        -10.193529325898025
      ],
      [
        "vidas",
        -10.193935555625542
      ],
      [
        "distribuic",
        -10.194386522486926
      ],
      [
        "ĠDep",
        -10.194442569233315
      ],
      [
        "Ġpopular",
        -10.194875073665171
      ],
      [
        "PSOL",
        -10.195354180901871
      ],
      [
        "Substitutivo",
        -10.195634252823195
      ],
      [
        "ĠComunita",
        -10.19626485028754
      ],
      [
        "Ġtelevisa",
        -10.196335028438169
      ],
      [
        "talvez",
        -10.196843286722508
      ],
      [
        "Ġparticipar",
        -10.19802002218669
      ],
      [
        "PRB",
        -10.19868823616991
      ],
      [
        "ĠPi",
        -10.19893353774803
      ],
      [
        "gerac",
        -10.19972714783066
      ],
      [
        "lho",
        -10.201002323382331
      ],
      [
        "tura",
        -10.205111587083744
      ],
      [
        "ly",
        -10.20779612507636
      ],
      [
        "ĠMan",
        -10.208647740995508
      ],
      [
        "Ġrealizar",
        -10.209411143721908
      ],
      [
        "Ġesforc",
        -10.209810201361694
      ],
      [
        "manutenc",
        -10.210477819252768
      ],
      [
        "Ġrei",
        -10.210821280220218
      ],
      [
        "Ġgrave",
        -10.211694627397044
      ],
      [
        "Ġpermitir",
        -10.21199279321635
      ],
      [
        "Ġdenu",
        -10.214523574131189
      ],
      [
        "dade",
        -10.215040428759949
      ],
      [
        "destinada",
        -10.215436000895814
      ],
      [
        "ĠPrimeiro",
        -10.21796175427541
      ],
      [
        "bil",
        -10.21886114029308
      ],
      [
        "Ġabertura",
        -10.219930064137548
      ],
      [
        "Ġide",
        -10.221364130778277
      ],
      [
        "Ġcaracteri",
        -10.22325221678
      ],
      [
        "Ġdireta",
        -10.223538675472094
      ],
      [
        "Ġjogos",
        -10.223747493871004
      ],
      [
        "Ġcarta",
        -10.223796864923104
      ],
      [
        "Ġentrar",
        -10.224653541848763
      ],
      [
        "ĠAmazo",
        -10.225927749822768
      ],
      [
        "Ġcabe",
        -10.22640412166103
      ],
      [
        "Ġinvestigac",
        -10.226408325940968
      ],
      [
        "\",\"",
        -10.227328887943376
      ],
      [
        "BA",
        -10.227341991124026
      ],
      [
        "Ġclasse",
        -10.2274347285695
      ],
      [
        "Ġ32",
        -10.228061102224954
      ],
      [
        "Ġrepresentante",
        -10.230104370672024
      ],
      [
        "ĠOfi",
        -10.230189607610006
      ],
      [
        "Ġvia",
        -10.230829270944303
      ],
      [
        "Ġmulta",
        -10.2311698483932
      ],
      [
        "Ġassiste",
        -10.231894733053403
      ],
      [
        "lei",
        -10.23246096898085
      ],
      [
        "Ġamigos",
        -10.23253714568392
      ],
      [
        "legais",
        -10.234173657786418
      ],
      [
        "Prefeito",
        -10.234193676814014
      ],
      [
        "Ġ70",
        -10.23439904397849
      ],
      [
        "Ġause",
        -10.23596346819818
      ],
      [
        "PSC",
        -10.23598489639131
      ],
      [
        "Ġcento",
        -10.236181488694331
      ],
      [
        "RS",
        -10.237151091329194
      ],
      [
        "apesar",
        -10.23966020878305
      ],
      [
        "referido",
        -10.239821813481464
      ],
      [
        "Ġtornar",
        -10.240030381314954
      ],
      [
        "Ġdemanda",
        -10.240234635574431
      ],
      [
        "Ġcolega",
        -10.240312302623709
      ],
      [
        "Ġdisposic",
        -10.240917916259145
      ],
      [
        "ĠProcesso",
        -10.24172641390344
      ],
      [
        "Ġordina",
        -10.242405896195576
      ],
      [
        "Ġtentar",
        -10.243423051701717
      ],
      [
        "ĠJohn",
        -10.243643512533016
      ],
      [
        "Ġsite",
        -10.243667077401918
      ],
      [
        "gem",
        -10.24383097949245
      ],
      [
        "possam",
        -10.244186366292192
      ],
      [
        "ĠCentral",
        -10.244799958517032
      ],
      [
        "para",
        -10.245017420565455
      ],
      [
        "AC",
        -10.245317411920968
      ],
      [
        "ĠCE",
        -10.245595716848037
      ],
      [
        "ĠPROPOSI",
        -10.246128922876682
      ],
      [
        "sicas",
        -10.24633625977518
      ],
      [
        "Apoio",
        -10.248144084255054
      ],
      [
        "Ġdocumentos",
        -10.24829687691783
      ],
      [
        "Ġtribuna",
        -10.24884284864588
      ],
      [
        "ĠJOSE",
        -10.2492112907008
      ],
      [
        "Ġres",
        -10.24983561873078
      ],
      [
        "............",
        -10.2522016005213
      ],
      [
        "ĠSouza",
        -10.252726876989938
      ],
      [
        "Ġmanifestac",
        -10.253746279609214
      ],
      [
        "ĠCelso",
        -10.25395717768945
      ],
      [
        "Ġdiscutir",
        -10.254490013178682
      ],
      [
        "Ġquadro",
        -10.255186330794754
      ],
      [
        "Ġdado",
        -10.255465014312048
      ],
      [
        "ĠPorque",
        -10.255498900466543
      ],
      [
        "utilizac",
        -10.25555558557636
      ],
      [
        "militares",
        -10.256268672567154
      ],
      [
        "Ġmelhores",
        -10.256359923778842
      ],
      [
        "Ġdizendo",
        -10.257389859474882
      ],
      [
        "Ġnoti",
        -10.257871188188242
      ],
      [
        "ĠGomes",
        -10.258880289613929
      ],
      [
        "xi",
        -10.259042879241347
      ],
      [
        "atos",
        -10.259903805573794
      ],
      [
        "Estamos",
        -10.261068829578663
      ],
      [
        "Ġpaciente",
        -10.261416240153816
      ],
      [
        "PtbP",
        -10.26177604294204
      ],
      [
        "fer",
        -10.261848618691324
      ],
      [
        "ĠMunicipal",
        -10.26191342090152
      ],
      [
        "ĠMinistra",
        -10.262880761769928
      ],
      [
        "Ġfazem",
        -10.263007814396516
      ],
      [
        "ĠLopes",
        -10.263801006738715
      ],
      [
        "mer",
        -10.264054967716488
      ],
      [
        "casos",
        -10.26411865479424
      ],
      [
        "ĠGrosso",
        -10.264475392559785
      ],
      [
        "Ġpequena",
        -10.264789673597829
      ],
      [
        "ĠPlano",
        -10.26507920545407
      ],
      [
        "dicos",
        -10.26585342715066
      ],
      [
        "CARLOS",
        -10.266111701434198
      ],
      [
        "Ġregio",
        -10.266128804724614
      ],
      [
        "sito",
        -10.266169009660516
      ],
      [
        "ĠMilitar",
        -10.26620716752213
      ],
      [
        "Ġusado",
        -10.2666730666179
      ],
      [
        "ĠRocha",
        -10.26679170529531
      ],
      [
        "indicac",
        -10.267185020195477
      ],
      [
        "ĠEscola",
        -10.268183751214124
      ],
      [
        "Ġameac",
        -10.268897381246694
      ],
      [
        "Ġconsiderada",
        -10.269139676863125
      ],
      [
        "Ġconclui",
        -10.270229211110072
      ],
      [
        "ser",
        -10.270458376483685
      ],
      [
        "ĠSan",
        -10.270520126334825
      ],
      [
        "Ġbens",
        -10.272401800174643
      ],
      [
        "tic",
        -10.272486917884189
      ],
      [
        "esta",
        -10.272572760468456
      ],
      [
        "Ġreceita",
        -10.274420603784854
      ],
      [
        "Ġministro",
        -10.274739823479171
      ],
      [
        "imo",
        -10.27494316804388
      ],
      [
        "Pausa",
        -10.275377099409097
      ],
      [
        "Ġbaixa",
        -10.275857872710734
      ],
      [
        "CURSO",
        -10.276451346231898
      ],
      [
        "Ġfonte",
        -10.2767899127351
      ],
      [
        "the",
        -10.27773963043027
      ],
      [
        "Ġperto",
        -10.277839316603997
      ],
      [
        "ĠConced",
        -10.27814486198522
      ],
      [
        "IS",
        -10.278527155664532
      ],
      [
        "Ġcompromisso",
        -10.280184412984909
      ],
      [
        "Ġhomenage",
        -10.28239916026974
      ],
      [
        "GERAL",
        -10.28258021494799
      ],
      [
        "meros",
        -10.283553246786498
      ],
      [
        "Ġrevista",
        -10.283575200559486
      ],
      [
        "Ġtorna",
        -10.284580972384967
      ],
      [
        "Ġlocalizado",
        -10.28471149272482
      ],
      [
        "Ġdecreta",
        -10.285771387538263
      ],
      [
        "ĠCatarina",
        -10.285998871534646
      ],
      [
        "exposto",
        -10.2863156320544
      ],
      [
        "Ġacabou",
        -10.2864102109863
      ],
      [
        "Ġcapaz",
        -10.28678680863526
      ],
      [
        "Ġavaliac",
        -10.287020457227264
      ],
      [
        "Ġconseguiu",
        -10.287708391218974
      ],
      [
        "Ġaltera",
        -10.288048575962971
      ],
      [
        "Ġcandidato",
        -10.289467252000588
      ],
      [
        "Ġcompetic",
        -10.28948553840466
      ],
      [
        "Ġdiferenc",
        -10.289625804648225
      ],
      [
        "exclusividade",
        -10.28973585998832
      ],
      [
        "Of",
        -10.291254358469166
      ],
      [
        "MG",
        -10.29140249267568
      ],
      [
        "Ġigual",
        -10.291788061685102
      ],
      [
        "OR",
        -10.291845952607163
      ],
      [
        "gia",
        -10.291879857948151
      ],
      [
        "25",
        -10.292602531980508
      ],
      [
        "Ġrelativa",
        -10.29261415037528
      ],
      [
        "Ġescolas",
        -10.293031815372563
      ],
      [
        "Ġquarto",
        -10.293378591007508
      ],
      [
        "pida",
        -10.295569076460511
      ],
      [
        "ĠPU",
        -10.295877791503788
      ],
      [
        "Ġdiferente",
        -10.29618312794997
      ],
      [
        "falando",
        -10.296375032309978
      ],
      [
        "Apesar",
        -10.296553504203024
      ],
      [
        "Ġcontinuar",
        -10.29666804415274
      ],
      [
        "ĠCha",
        -10.296991123611958
      ],
      [
        "ĠLista",
        -10.297644118814729
      ],
      [
        "Ġsete",
        -10.298196833664434
      ],
      [
        "CONSTITUIC",
        -10.298516251872195
      ],
      [
        "Ġjovem",
        -10.298703139565372
      ],
      [
        "tal",
        -10.299331005084207
      ],
      [
        "ĠTemo",
        -10.299914590660444
      ],
      [
        "estabelecimento",
        -10.301989210939771
      ],
      [
        "Ġseguir",
        -10.302396094641717
      ],
      [
        "ginas",
        -10.302399857407025
      ],
      [
        "Ġsuper",
        -10.302461103239567
      ],
      [
        "Ġpagar",
        -10.302476631140411
      ],
      [
        "Ġestudos",
        -10.302495649849252
      ],
      [
        "lias",
        -10.30286342445672
      ],
      [
        "Ġfinanciamento",
        -10.303048356299987
      ],
      [
        "Ġimprensa",
        -10.303186624040984
      ],
      [
        "Ġquantidade",
        -10.3033691922335
      ],
      [
        "ex",
        -10.303593944884984
      ],
      [
        "ĠGa",
        -10.30430925852666
      ],
      [
        "remos",
        -10.304622992337222
      ],
      [
        "Maranha",
        -10.306104852450549
      ],
      [
        "Ġ1991",
        -10.306211686698123
      ],
      [
        "Ġaprova",
        -10.3076923717351
      ],
      [
        "ĠBu",
        -10.308034845100453
      ],
      [
        "ĠRS",
        -10.3083593469523
      ],
      [
        "Ġquarta",
        -10.308575125599242
      ],
      [
        "ĠVeja",
        -10.309008987852406
      ],
      [
        "est",
        -10.309116138996558
      ],
      [
        "inclusa",
        -10.309348162534716
      ],
      [
        "ĠFla",
        -10.310765176261231
      ],
      [
        "RI",
        -10.311712985233184
      ],
      [
        "lado",
        -10.312547611705575
      ],
      [
        "Ġvir",
        -10.31286088900387
      ],
      [
        "Ġmar",
        -10.313080244900892
      ],
      [
        "ĠLUIZ",
        -10.313469201672
      ],
      [
        "ĠPOR",
        -10.314186725318104
      ],
      [
        "ontem",
        -10.315470745564417
      ],
      [
        "Ġentrega",
        -10.316121656520876
      ],
      [
        "ĠAlmeida",
        -10.316229753680972
      ],
      [
        "Ġestrate",
        -10.316405467462744
      ],
      [
        "Ġlocalizada",
        -10.316512841147736
      ],
      [
        "ĠRi",
        -10.316908211384536
      ],
      [
        "Ġdada",
        -10.317003142373128
      ],
      [
        "ĠAprova",
        -10.31729752632224
      ],
      [
        "ĠPA",
        -10.318191454140694
      ],
      [
        "deres",
        -10.318423183712902
      ],
      [
        "01",
        -10.319328578747964
      ],
      [
        "Ġunidades",
        -10.319807257551636
      ],
      [
        "ĠOla",
        -10.321070028236434
      ],
      [
        "Ġcomigo",
        -10.321712532623543
      ],
      [
        "+",
        -10.321827712458782
      ],
      [
        "Ġexatamente",
        -10.322804439441263
      ],
      [
        "ĠFo",
        -10.323260794172851
      ],
      [
        "atribuic",
        -10.323274421570831
      ],
      [
        "Ġpropriedade",
        -10.323914967486598
      ],
      [
        "Ġ1995",
        -10.324336610229176
      ],
      [
        "ĠParlamentare",
        -10.325282918788997
      ],
      [
        "Ġcomissa",
        -10.325434616703635
      ],
      [
        "ĠRodrigues",
        -10.325875304285647
      ],
      [
        "Ġoito",
        -10.326414834671375
      ],
      [
        "entrada",
        -10.326638735885782
      ],
      [
        "Ġdaquel",
        -10.326763779366052
      ],
      [
        "|",
        -10.32703311038338
      ],
      [
        "Ġvenda",
        -10.329339831310914
      ],
      [
        "Ġcac",
        -10.329606042392784
      ],
      [
        "ĠFami",
        -10.330519286668553
      ],
      [
        "cies",
        -10.33070359973526
      ],
      [
        "regras",
        -10.331154624717326
      ],
      [
        "Ġsofre",
        -10.331291454860002
      ],
      [
        "Ġtrans",
        -10.33179609382818
      ],
      [
        "ssem",
        -10.331901124876286
      ],
      [
        "Ġvisita",
        -10.332069106254018
      ],
      [
        "tua",
        -10.332089169921224
      ],
      [
        "Lideran",
        -10.332273843280031
      ],
      [
        "Ġtomar",
        -10.332590534296168
      ],
      [
        "ĠSou",
        -10.332964901107822
      ],
      [
        "ĠCarvalho",
        -10.333986526603274
      ],
      [
        "Ġluz",
        -10.334663955765498
      ],
      [
        "inho",
        -10.334719983162532
      ],
      [
        "Ġhaja",
        -10.334719997739793
      ],
      [
        "par",
        -10.335015595728455
      ],
      [
        "Ġresultados",
        -10.33556744402708
      ],
      [
        "tecnologia",
        -10.336291349673276
      ],
      [
        "Ġdisputa",
        -10.336490386009343
      ],
      [
        "Ġcompra",
        -10.337198473543342
      ],
      [
        "Ġinicial",
        -10.337586501099963
      ],
      [
        "ambos",
        -10.338306578861555
      ],
      [
        "oli",
        -10.33856107433307
      ],
      [
        "mas",
        -10.3391825438547
      ],
      [
        "Ġjulgado",
        -10.339215335885712
      ],
      [
        "fl",
        -10.339719503295637
      ],
      [
        "ĠGrupo",
        -10.339803794001623
      ],
      [
        "lida",
        -10.34001089083876
      ],
      [
        "ense",
        -10.340474019113898
      ],
      [
        "Ġinterior",
        -10.341185892602256
      ],
      [
        "Ġgra",
        -10.341654343639576
      ],
      [
        "SRA",
        -10.341786228002388
      ],
      [
        "alunos",
        -10.342187896676013
      ],
      [
        "ĠPrevide",
        -10.342215516484282
      ],
      [
        "Ġinter",
        -10.342736676028762
      ],
      [
        "Ġ119",
        -10.343169425285696
      ],
      [
        "ĠAh",
        -10.344747776220371
      ],
      [
        "Ġestu",
        -10.344841107823132
      ],
      [
        "Ġapresentada",
        -10.3448930171268
      ],
      [
        "ĠOnde",
        -10.345581455159042
      ],
      [
        "Ġpasso",
        -10.34589083166091
      ],
      [
        "[",
        -10.346590286593267
      ],
      [
        "Ġregra",
        -10.34829081478707
      ],
      [
        "Ġorientac",
        -10.348445983367576
      ],
      [
        "ste",
        -10.348577927359706
      ],
      [
        "criada",
        -10.349929713748494
      ],
      [
        "cula",
        -10.350225178622152
      ],
      [
        "corrupc",
        -10.350256088498838
      ],
      [
        "rejeic",
        -10.350784738140684
      ],
      [
        "Ġestabelece",
        -10.3508731501413
      ],
      [
        "ħ",
        -10.350913771192428
      ],
      [
        "nicos",
        -10.351537968357482
      ],
      [
        "Ġmundial",
        -10.351738500175452
      ],
      [
        "ĠLEGISLATIV",
        -10.352010324738028
      ],
      [
        "ĠJudicia",
        -10.352552258143932
      ],
      [
        "Ġprovi",
        -10.352559438117776
      ],
      [
        "Ġlimite",
        -10.352826211184029
      ],
      [
        "Ġestadual",
        -10.353234875141158
      ],
      [
        "ĠGe",
        -10.354301523840846
      ],
      [
        "ĠEn",
        -10.354814911031244
      ],
      [
        "NR",
        -10.354955043622455
      ],
      [
        "Ġacha",
        -10.355088007684795
      ],
      [
        "ĠUS",
        -10.356432028070929
      ],
      [
        "Certo",
        -10.356786640621394
      ],
      [
        "ĠMinha",
        -10.357743904768707
      ],
      [
        "ĠWikipe",
        -10.357874500165892
      ],
      [
        "zada",
        -10.358302499125363
      ],
      [
        "Ġ80",
        -10.3585379993277
      ],
      [
        "ĠZe",
        -10.359567656513365
      ],
      [
        "atualmente",
        -10.359681108647758
      ],
      [
        "Ġdecidi",
        -10.360345779356171
      ],
      [
        "requisitos",
        -10.36060030871988
      ],
      [
        "ĠUSP",
        -10.360815739630006
      ],
      [
        "ĠLui",
        -10.362205144919566
      ],
      [
        "ĠSenhora",
        -10.362616410566837
      ],
      [
        "Ġleva",
        -10.362966200105486
      ],
      [
        "diretamente",
        -10.363660981587582
      ],
      [
        "ĠNordeste",
        -10.363701309254225
      ],
      [
        "Ġevitar",
        -10.363943412616823
      ],
      [
        "Seguranc",
        -10.36433643169068
      ],
      [
        "Ġchega",
        -10.364714082488288
      ],
      [
        "ĠToda",
        -10.364726624432985
      ],
      [
        "Ġencontro",
        -10.365428014131323
      ],
      [
        "LIO",
        -10.36602808201848
      ],
      [
        "Talvez",
        -10.366451098899864
      ],
      [
        "licitac",
        -10.367095924212837
      ],
      [
        "chefe",
        -10.367277092904796
      ],
      [
        "impacto",
        -10.367681065025824
      ],
      [
        "ĠEstadual",
        -10.3680862516302
      ],
      [
        "ĠRegia",
        -10.36886039688487
      ],
      [
        "Figueiredo",
        -10.369435599818477
      ],
      [
        "Ġantigo",
        -10.369581048360455
      ],
      [
        "ĠReino",
        -10.37004587381846
      ],
      [
        "ĠDECRET",
        -10.371369785339375
      ],
      [
        "Ġrecebe",
        -10.37213432753637
      ],
      [
        "ĠAugusto",
        -10.372233472041744
      ],
      [
        "ff",
        -10.372474156872649
      ],
      [
        "ĠSenhore",
        -10.372753373961812
      ],
      [
        "somos",
        -10.373451423685466
      ],
      [
        "lares",
        -10.37410064634046
      ],
      [
        "Ġdocumento",
        -10.374416889023882
      ],
      [
        "Ġcarro",
        -10.374504710269544
      ],
      [
        "Teixeira",
        -10.374756238321792
      ],
      [
        "Ġterc",
        -10.375982073910574
      ],
      [
        "ocalidades",
        -10.375996136813685
      ],
      [
        "Ġhumano",
        -10.378100189093985
      ],
      [
        "ĠFazenda",
        -10.378120783836202
      ],
      [
        "Ġpublicada",
        -10.378675240731445
      ],
      [
        "Ġsubstitui",
        -10.379169015218825
      ],
      [
        "Ġestabelecer",
        -10.379610005362895
      ],
      [
        "ĠNelson",
        -10.380174140228764
      ],
      [
        "Ġfui",
        -10.380270691107745
      ],
      [
        "ĠChina",
        -10.380445209613685
      ],
      [
        "Discussa",
        -10.380983565888958
      ],
      [
        "cho",
        -10.382158419022115
      ],
      [
        "ĠDaniel",
        -10.383751559985416
      ],
      [
        "ĠFica",
        -10.384205084787066
      ],
      [
        "Ġadministrativa",
        -10.385612070927204
      ],
      [
        "Ġestes",
        -10.386359420210908
      ],
      [
        "licitante",
        -10.387298775150745
      ],
      [
        "votos",
        -10.388669212205496
      ],
      [
        "existente",
        -10.388716608823495
      ],
      [
        "ĠSabe",
        -10.390017513984263
      ],
      [
        "Ġanimais",
        -10.39034026315727
      ],
      [
        "Ġpalavras",
        -10.390815292220095
      ],
      [
        "Ġ35",
        -10.391850384926112
      ],
      [
        "ĠDesde",
        -10.39303956853591
      ],
      [
        "ĠRO",
        -10.393246411724135
      ],
      [
        "levou",
        -10.393829467119096
      ],
      [
        "PSB",
        -10.393842393910887
      ],
      [
        "Ġabaixo",
        -10.394535015303862
      ],
      [
        "federai",
        -10.395534031909136
      ],
      [
        "onde",
        -10.398152592485305
      ],
      [
        "ĠBR",
        -10.39815986420187
      ],
      [
        "Ġmesa",
        -10.399480056988882
      ],
      [
        "ĠMG",
        -10.399629391818758
      ],
      [
        "Ġatender",
        -10.39985145435529
      ],
      [
        "ĠEspi",
        -10.400029773597304
      ],
      [
        "ĠFutebol",
        -10.401078411742107
      ],
      [
        "Ġmanha",
        -10.401123318876822
      ],
      [
        "Ġinfra",
        -10.401557468053875
      ],
      [
        "Ġdeputado",
        -10.402049196678949
      ],
      [
        "ĠReal",
        -10.404285520255854
      ],
      [
        "dando",
        -10.40442430481238
      ],
      [
        "ĠAlberto",
        -10.404504545966711
      ],
      [
        "ĠCla",
        -10.404855964886613
      ],
      [
        "ĠRelac",
        -10.405633856061929
      ],
      [
        "land",
        -10.406311106932264
      ],
      [
        "ĠPI",
        -10.407698341303137
      ],
      [
        "PDT",
        -10.409404180063294
      ],
      [
        "ĠMundo",
        -10.411122940697393
      ],
      [
        "ĠAL",
        -10.411189260684594
      ],
      [
        "Ġ37",
        -10.411625399025224
      ],
      [
        "50",
        -10.411855529118084
      ],
      [
        "ĠNossa",
        -10.412328558428698
      ],
      [
        "Ġacidente",
        -10.412679866943453
      ],
      [
        "nho",
        -10.412802236799166
      ],
      [
        "Sessa",
        -10.413339888941934
      ],
      [
        "Ġexplorar",
        -10.415769761934284
      ],
      [
        "Ġdeficie",
        -10.41747168058867
      ],
      [
        "ĠAlemanha",
        -10.417973188726288
      ],
      [
        "Ġquilo",
        -10.418467716696108
      ],
      [
        "ĠAC",
        -10.418846815441578
      ],
      [
        "Ġbe",
        -10.418863432504232
      ],
      [
        "Ġrural",
        -10.418892679970414
      ],
      [
        "istas",
        -10.41896668982421
      ],
      [
        "ĠSerra",
        -10.41923088021704
      ],
      [
        "ĠDepu",
        -10.41930039615434
      ],
      [
        "ĠForc",
        -10.419310921135656
      ],
      [
        "ĠGoia",
        -10.420144871936994
      ],
      [
        "PSL",
        -10.420455114841824
      ],
      [
        "DF",
        -10.420689237252851
      ],
      [
        "Ġ1988",
        -10.420954238904107
      ],
      [
        "Ġvige",
        -10.421099645545002
      ],
      [
        "ĠGeral",
        -10.421532582777202
      ],
      [
        "28",
        -10.422000028330537
      ],
      [
        "virtude",
        -10.423164682350114
      ],
      [
        "Ġentender",
        -10.423184468720908
      ],
      [
        "Ġacontece",
        -10.424632108141369
      ],
      [
        "EUA",
        -10.424640567524976
      ],
      [
        "Resoluc",
        -10.424809637167938
      ],
      [
        "ĠART",
        -10.425960482010384
      ],
      [
        "Ġdemocracia",
        -10.426645703993058
      ],
      [
        "ligac",
        -10.427332140346934
      ],
      [
        "Ġpromover",
        -10.427995313835138
      ],
      [
        "ĠJesus",
        -10.428511162255187
      ],
      [
        "ĠAlexandre",
        -10.431927972069788
      ],
      [
        "gen",
        -10.432147995157294
      ],
      [
        "Ġvivo",
        -10.432276416198407
      ],
      [
        "ĠFundac",
        -10.432278712353348
      ],
      [
        "Ġouvir",
        -10.432489439764456
      ],
      [
        "Ġjudicial",
        -10.432665566336333
      ],
      [
        "Ġmudar",
        -10.43303513557288
      ],
      [
        "tio",
        -10.433048422318455
      ],
      [
        "tiveram",
        -10.433815317482557
      ],
      [
        "Ġconcurso",
        -10.433880083624436
      ],
      [
        "Ġconversa",
        -10.433911120807227
      ],
      [
        "ĠVai",
        -10.433955674956968
      ],
      [
        "preocupac",
        -10.434113818638558
      ],
      [
        "Ġdisponi",
        -10.434468209228871
      ],
      [
        "imagens",
        -10.434953794563636
      ],
      [
        "Ġdepende",
        -10.435611897753148
      ],
      [
        "apresentou",
        -10.435902455694691
      ],
      [
        "Ġtime",
        -10.43635331475813
      ],
      [
        "å",
        -10.436479892317315
      ],
      [
        "ĠPelo",
        -10.436857013330751
      ],
      [
        "Ġvice",
        -10.436884143233009
      ],
      [
        "Ġcontas",
        -10.437096447699512
      ],
      [
        "Ġimagem",
        -10.437246792433786
      ],
      [
        "bal",
        -10.43754809466158
      ],
      [
        "ger",
        -10.43767428094153
      ],
      [
        "ĠLisboa",
        -10.437877512917703
      ],
      [
        "Departamento",
        -10.438283132164509
      ],
      [
        "humanos",
        -10.438568355329718
      ],
      [
        "ĠQual",
        -10.438692855962245
      ],
      [
        "Ġposto",
        -10.438731551622771
      ],
      [
        "Ġdaqui",
        -10.439426955597511
      ],
      [
        "ĠCeara",
        -10.439756570978572
      ],
      [
        "Ġanti",
        -10.440045142668488
      ],
      [
        "Ġpermiti",
        -10.440521951822491
      ],
      [
        "Ġcerta",
        -10.440647662779051
      ],
      [
        "Ġpedir",
        -10.440825345539624
      ],
      [
        "Ġdisco",
        -10.440919490122663
      ],
      [
        "Ġpior",
        -10.44120312643028
      ],
      [
        "Ġoferece",
        -10.441228507548674
      ],
      [
        "Ġacaba",
        -10.441315780908624
      ],
      [
        "Ł",
        -10.44217233850419
      ],
      [
        "cola",
        -10.443317361145144
      ],
      [
        "Ġopinia",
        -10.444119187196645
      ],
      [
        "MA",
        -10.44416281286876
      ],
      [
        "ĠLegislativa",
        -10.44428361154108
      ],
      [
        "cre",
        -10.44459706577765
      ],
      [
        "ley",
        -10.44548484615626
      ],
      [
        "qu",
        -10.446169871688124
      ],
      [
        "ador",
        -10.446184606608956
      ],
      [
        "decreto",
        -10.446479561834677
      ],
      [
        "eiro",
        -10.446615815904304
      ],
      [
        "ĠPARA",
        -10.44663393592372
      ],
      [
        "ĠMarcos",
        -10.447469688446278
      ],
      [
        "privado",
        -10.447914658703144
      ],
      [
        "Proposic",
        -10.448661415472444
      ],
      [
        "ĠNac",
        -10.4486705967842
      ],
      [
        "ĠArthur",
        -10.448784529766836
      ],
      [
        "for",
        -10.448919499576672
      ],
      [
        "IDADE",
        -10.449143562157705
      ],
      [
        "nacionais",
        -10.449254848845491
      ],
      [
        "Ġetc",
        -10.449672407454823
      ],
      [
        "ĠDESPACH",
        -10.44994128432747
      ],
      [
        "2020",
        -10.450880568045465
      ],
      [
        "Ġretorno",
        -10.45148877127443
      ],
      [
        "Ġjustic",
        -10.452162363332636
      ],
      [
        "29",
        -10.45290571636591
      ],
      [
        "investimentos",
        -10.45342132736403
      ],
      [
        "Ġ33",
        -10.45434419476535
      ],
      [
        "Ġjui",
        -10.455902295997154
      ],
      [
        "Ìģ!",
        -10.456410438113291
      ],
      [
        "Í",
        -10.456474287370703
      ],
      [
        "RO",
        -10.456958709324436
      ],
      [
        "ĠAto",
        -10.457428247750313
      ],
      [
        "ĠVista",
        -10.457624595815178
      ],
      [
        "Ġconsegue",
        -10.458118418543927
      ],
      [
        "ĠKo",
        -10.458903798090242
      ],
      [
        "Ġurge",
        -10.460170437438702
      ],
      [
        "Ġgrau",
        -10.460908293206003
      ],
      [
        "fiscalizac",
        -10.461496627007648
      ],
      [
        "ĠAge",
        -10.462019012213077
      ],
      [
        "ĠJo",
        -10.462363068696218
      ],
      [
        "Ġconsiderac",
        -10.462645041594586
      ],
      [
        "Ġamanha",
        -10.462988814121411
      ],
      [
        "Ġvale",
        -10.463255278269369
      ],
      [
        "ĠEl",
        -10.463931330114686
      ],
      [
        "ĠPp",
        -10.464052511263564
      ],
      [
        "Ġprocedimento",
        -10.464174280374026
      ],
      [
        "Ġunidade",
        -10.46487526102186
      ],
      [
        "ĠRodrigo",
        -10.46519677976919
      ],
      [
        "Ġfundamento",
        -10.465853249968491
      ],
      [
        "www",
        -10.466482902105422
      ],
      [
        "Ġdiminui",
        -10.4665832660138
      ],
      [
        "Ġinvestimento",
        -10.466850809152714
      ],
      [
        "permissa",
        -10.467489250524038
      ],
      [
        "ili",
        -10.467568344398334
      ],
      [
        "Geraldo",
        -10.469022318340588
      ],
      [
        "ĠOUTR",
        -10.469192987986736
      ],
      [
        "ocorreu",
        -10.470382367699475
      ],
      [
        "ÌĦ",
        -10.471891481132678
      ],
      [
        "ĠSobre",
        -10.47253374608632
      ],
      [
        "ĠPubli",
        -10.4731055063567
      ],
      [
        "Ġouvi",
        -10.47324969812361
      ],
      [
        "Moreira",
        -10.473356107748168
      ],
      [
        "Ġfeliz",
        -10.47341410864993
      ],
      [
        "ĠAn",
        -10.474552430221754
      ],
      [
        "ĠParis",
        -10.474900029961557
      ],
      [
        "Ġarmas",
        -10.47518446517219
      ],
      [
        "Ġmerece",
        -10.47586954857418
      ],
      [
        "Ġcarga",
        -10.476446058532852
      ],
      [
        "ĠBoa",
        -10.478757174470797
      ],
      [
        "Ġface",
        -10.479549294655753
      ],
      [
        "Ġdeciso",
        -10.479558428849266
      ],
      [
        "Ġfiz",
        -10.47985667814851
      ],
      [
        "Ġcomercial",
        -10.479883993012509
      ],
      [
        "Ġambiental",
        -10.480277504396271
      ],
      [
        "ĠQuanto",
        -10.480920280189933
      ],
      [
        "parceria",
        -10.4809931691119
      ],
      [
        "Ġarma",
        -10.482002401223705
      ],
      [
        "ĠAgrav",
        -10.48258095714566
      ],
      [
        "Ġleitura",
        -10.483682638807249
      ],
      [
        "Ġbrita",
        -10.483695505819677
      ],
      [
        "havend",
        -10.484566489234751
      ],
      [
        "Ġdispor",
        -10.485196139998664
      ],
      [
        "ssia",
        -10.485322935108696
      ],
      [
        "Ġvontade",
        -10.485660713369215
      ],
      [
        "Proposta",
        -10.486333057223456
      ],
      [
        "Ġhonra",
        -10.486944033169223
      ],
      [
        "nicas",
        -10.486951233217374
      ],
      [
        "ĠAltera",
        -10.487455479471274
      ],
      [
        "americano",
        -10.48818580043777
      ],
      [
        "elementos",
        -10.489600744212222
      ],
      [
        "ĠNos",
        -10.489657838942362
      ],
      [
        "ĠQuer",
        -10.49005121216708
      ],
      [
        "Ġtrabalhador",
        -10.490075844939929
      ],
      [
        "Ġconseguir",
        -10.49062930441161
      ],
      [
        "equipamentos",
        -10.490823144854618
      ],
      [
        "precisamos",
        -10.491125258434892
      ],
      [
        "ĠCidade",
        -10.491170381115754
      ],
      [
        "Ġdivisa",
        -10.491699357067654
      ],
      [
        "ĠGra",
        -10.49284171707572
      ],
      [
        "rum",
        -10.49341135001522
      ],
      [
        "ĠTu",
        -10.49437073470697
      ],
      [
        "contratac",
        -10.49475856353292
      ],
      [
        "Ġcorpus",
        -10.496082047740678
      ],
      [
        "ĠAure",
        -10.496754050201966
      ],
      [
        "pri",
        -10.49696950489318
      ],
      [
        "Ġcontinua",
        -10.497133417958306
      ],
      [
        "ĠQUE",
        -10.497205276489003
      ],
      [
        "Ġconsidera",
        -10.497643627281064
      ],
      [
        "ĠFederac",
        -10.49787715773413
      ],
      [
        "Ġpretende",
        -10.499304985184988
      ],
      [
        "Ġeventos",
        -10.49931247627586
      ],
      [
        "ĠNeste",
        -10.499464915077091
      ],
      [
        "Ġamericano",
        -10.499938930131853
      ],
      [
        "Ġ49",
        -10.500306244292563
      ],
      [
        "Ġcompanhia",
        -10.500713237316672
      ],
      [
        "Ġfinanceiro",
        -10.500999577574987
      ],
      [
        "Ġentrevista",
        -10.501306584436842
      ],
      [
        "ndice",
        -10.501466077559918
      ],
      [
        "constitucionai",
        -10.502297670189616
      ],
      [
        "ĠSera",
        -10.502481220461023
      ],
      [
        "Ġlicenc",
        -10.502482208213518
      ],
      [
        "Ġmedo",
        -10.502565001421424
      ],
      [
        "90",
        -10.50321945231602
      ],
      [
        "Ġataque",
        -10.503921554525553
      ],
      [
        "ĠCON",
        -10.504292710935363
      ],
      [
        "Ħ",
        -10.504891213875997
      ],
      [
        "Jogos",
        -10.50507734667742
      ],
      [
        "agentes",
        -10.505321374259037
      ],
      [
        "juros",
        -10.505515088230316
      ],
      [
        "emendas",
        -10.505524337795418
      ],
      [
        "ĠParlamento",
        -10.505589201214358
      ],
      [
        "cul",
        -10.505906558106606
      ],
      [
        "consumo",
        -10.506216035878577
      ],
      [
        "Ġmarca",
        -10.506277963205784
      ],
      [
        "retirada",
        -10.5064965934218
      ],
      [
        "Ġregistrado",
        -10.507329228433225
      ],
      [
        "etapa",
        -10.50858186955044
      ],
      [
        "Ġfesta",
        -10.508793844848656
      ],
      [
        "Ġviu",
        -10.509278783376908
      ],
      [
        "Ġdista",
        -10.509902869532402
      ],
      [
        "Barbosa",
        -10.510077110201372
      ],
      [
        "Ġdistrito",
        -10.510436768111749
      ],
      [
        "extensa",
        -10.51084290248346
      ],
      [
        "Ġjurisprude",
        -10.511267447021954
      ],
      [
        "genas",
        -10.511436006991891
      ],
      [
        "Ġestilo",
        -10.511630447622096
      ],
      [
        "Ġrespectiva",
        -10.511718197634794
      ],
      [
        "Ġcomando",
        -10.51258608752683
      ],
      [
        "isso",
        -10.512771772061354
      ],
      [
        "Ġpetro",
        -10.5132687254348
      ],
      [
        "Ġdemocra",
        -10.51386336608725
      ],
      [
        "Ġtinham",
        -10.514318891819332
      ],
      [
        "ĠNeto",
        -10.514497355337085
      ],
      [
        "contexto",
        -10.51460291164816
      ],
      [
        "Ġescolha",
        -10.51464645674504
      ],
      [
        "Ġ90",
        -10.515142467491222
      ],
      [
        "Ġinsta",
        -10.515490177587672
      ],
      [
        "ĠAmazonas",
        -10.51623469795222
      ],
      [
        "Ġvinte",
        -10.516262132218587
      ],
      [
        "Magalha",
        -10.516871982518952
      ],
      [
        "ĠRegional",
        -10.517125213866642
      ],
      [
        "ĠJU",
        -10.51721093693597
      ],
      [
        "Ġinternacionais",
        -10.51724183423528
      ],
      [
        "Ġvelho",
        -10.517438124558058
      ],
      [
        "ganhou",
        -10.517528804987109
      ],
      [
        "Ġ1993",
        -10.51782755213714
      ],
      [
        "Ġ1994",
        -10.519460237692488
      ],
      [
        "ĠAprecia",
        -10.51981866515097
      ],
      [
        "Ġcorac",
        -10.51987472119835
      ],
      [
        "Ġindependente",
        -10.521002994827828
      ],
      [
        "zes",
        -10.521174891656628
      ],
      [
        "ĠNada",
        -10.521268451133004
      ],
      [
        "Ġbanco",
        -10.521529755947748
      ],
      [
        "ĠMeio",
        -10.522049206420371
      ],
      [
        "vemos",
        -10.522169366869797
      ],
      [
        "...........",
        -10.522286645253446
      ],
      [
        "Ġsexta",
        -10.523034068511311
      ],
      [
        "Ġitem",
        -10.523948734489478
      ],
      [
        "ĠTre",
        -10.524060571196046
      ],
      [
        "Ġestac",
        -10.524190885874534
      ],
      [
        "iva",
        -10.5242958278439
      ],
      [
        "Ġesposa",
        -10.52467976065346
      ],
      [
        "Ġabsoluta",
        -10.525131831669016
      ],
      [
        "Ġpatrimo",
        -10.525365169938675
      ],
      [
        "ĠNi",
        -10.526067324298634
      ],
      [
        "Ġrodovia",
        -10.526071021176016
      ],
      [
        "Ġespi",
        -10.527045431812487
      ],
      [
        "Ġalega",
        -10.527514413836911
      ],
      [
        "Ġcentral",
        -10.528601861140547
      ],
      [
        "substitutivo",
        -10.528726717569514
      ],
      [
        "http",
        -10.52966276748863
      ],
      [
        "Ġmostrar",
        -10.530090112571456
      ],
      [
        "Ġtentativa",
        -10.53017876044455
      ],
      [
        "Ġeleitoral",
        -10.530580643866422
      ],
      [
        "gravada",
        -10.530872109194991
      ],
      [
        "Ġfrance",
        -10.531675434084024
      ],
      [
        "reconhecimento",
        -10.531885554415236
      ],
      [
        "Ġjogador",
        -10.531963117942968
      ],
      [
        "ĠIsto",
        -10.532325026831275
      ],
      [
        "2002",
        -10.53281494790132
      ],
      [
        "Ġampla",
        -10.533653948518584
      ],
      [
        "Ġquinta",
        -10.53428770612076
      ],
      [
        "sobretudo",
        -10.53448971428696
      ],
      [
        "Ġesteja",
        -10.534681815613313
      ],
      [
        "Ġdefende",
        -10.535004854802704
      ],
      [
        "Ġfogo",
        -10.53569085563429
      ],
      [
        "ĠPRIMEIR",
        -10.536850051571536
      ],
      [
        "Ġtorno",
        -10.537849227053542
      ],
      [
        "Ġpreso",
        -10.538252968739569
      ],
      [
        "habea",
        -10.53845078265205
      ],
      [
        "Ġjuiz",
        -10.53857433891952
      ],
      [
        "Ġtransfere",
        -10.539275328743958
      ],
      [
        "ĠCarreira",
        -10.539605641852312
      ],
      [
        "Ġespera",
        -10.539988318802852
      ],
      [
        "ĠZa",
        -10.540018423497836
      ],
      [
        "ĠOli",
        -10.540044101645742
      ],
      [
        "ĠBarros",
        -10.540075647328427
      ],
      [
        "metade",
        -10.540595130603894
      ],
      [
        "tem",
        -10.540625531846306
      ],
      [
        "Ġcursos",
        -10.540939729817136
      ],
      [
        "ĠClaro",
        -10.541188832008189
      ],
      [
        "shi",
        -10.542771297552532
      ],
      [
        "finalidade",
        -10.543197442307129
      ],
      [
        "presidente",
        -10.543534698258256
      ],
      [
        "SC",
        -10.543758338965182
      ],
      [
        "CIA",
        -10.543836640798512
      ],
      [
        "ĠJOA",
        -10.544352157169593
      ],
      [
        "polis",
        -10.544500658414632
      ],
      [
        "ĠExterior",
        -10.544961571357629
      ],
      [
        "Ġprocura",
        -10.545540970370652
      ],
      [
        "Ġlivros",
        -10.545546391487992
      ],
      [
        "Ġpais",
        -10.54631853773425
      ],
      [
        "frica",
        -10.546576990231229
      ],
      [
        "nunciou",
        -10.546742738097274
      ],
      [
        "Ġopc",
        -10.547523342668926
      ],
      [
        "Ġoferta",
        -10.54823188301897
      ],
      [
        "apensado",
        -10.548387260958124
      ],
      [
        "Ġsustenta",
        -10.550791066255194
      ],
      [
        "Ġigreja",
        -10.5509316013937
      ],
      [
        "ĠFerreira",
        -10.551110907011536
      ],
      [
        "ĠRede",
        -10.55175975459525
      ],
      [
        "bilidade",
        -10.552178648950632
      ],
      [
        "Ġcontato",
        -10.55232955120126
      ],
      [
        "Ġexposic",
        -10.552376101832762
      ],
      [
        "Ġassinatura",
        -10.552434512484544
      ],
      [
        "Enquanto",
        -10.552643557642131
      ],
      [
        "Ġexterior",
        -10.553132667859838
      ],
      [
        "Ġexplorac",
        -10.553230199478692
      ],
      [
        "xico",
        -10.553511736983792
      ],
      [
        "Ġdistribui",
        -10.553647404297148
      ],
      [
        "Ġposse",
        -10.554005071790783
      ],
      [
        "ĠConstitucional",
        -10.55490072922072
      ],
      [
        "Ġrelator",
        -10.55516618713493
      ],
      [
        "ĠVila",
        -10.555818412093275
      ],
      [
        "TA",
        -10.555956257607733
      ],
      [
        "Ġconsegui",
        -10.556070092758304
      ],
      [
        "Ġshow",
        -10.556197247722098
      ],
      [
        "ĠVe",
        -10.556310729201446
      ],
      [
        "ĠParai",
        -10.556929437031334
      ],
      [
        "daquele",
        -10.55733870204123
      ],
      [
        "Ġatingi",
        -10.557443542786292
      ],
      [
        "Ġquiser",
        -10.559136325652728
      ],
      [
        "ĠCPI",
        -10.560052676578843
      ],
      [
        "Ġantiga",
        -10.56036079037498
      ],
      [
        "ficos",
        -10.561349501224932
      ],
      [
        "Ġmetros",
        -10.561351155216904
      ],
      [
        "ara",
        -10.561630286245972
      ],
      [
        "Ġtive",
        -10.562563965774515
      ],
      [
        "ndi",
        -10.562698903015695
      ],
      [
        "ĠCruz",
        -10.562761258726258
      ],
      [
        "bel",
        -10.562788486700498
      ],
      [
        "Ġterceira",
        -10.563046814213813
      ],
      [
        "Ġvencedor",
        -10.563119680618865
      ],
      [
        "ĠFolha",
        -10.563157592089707
      ],
      [
        "Ġhumana",
        -10.56328530733004
      ],
      [
        "Ġjornalista",
        -10.563485570686272
      ],
      [
        "funcionamento",
        -10.564353198468265
      ],
      [
        "Ġ(...)",
        -10.565421466118048
      ],
      [
        "Outra",
        -10.56558569906618
      ],
      [
        "requer",
        -10.566111895885236
      ],
      [
        "ĠMello",
        -10.56626164580688
      ],
      [
        "Ġconte",
        -10.56630504101916
      ],
      [
        "Ġmorreu",
        -10.568161958577436
      ],
      [
        "Ġobrigato",
        -10.568508441311137
      ],
      [
        "Embora",
        -10.568610077740304
      ],
      [
        "Ġinteiro",
        -10.5686596616214
      ],
      [
        "Ġpersonagem",
        -10.56926831020014
      ],
      [
        "ral",
        -10.572285539187972
      ],
      [
        "geralmente",
        -10.57350356468634
      ],
      [
        "Ġaberto",
        -10.574163577255735
      ],
      [
        "Ġsabia",
        -10.574385337477375
      ],
      [
        "policiais",
        -10.574395746250282
      ],
      [
        "Ġregistrar",
        -10.575021114184498
      ],
      [
        "ESTADO",
        -10.57550370448845
      ],
      [
        "Ġseguro",
        -10.57622696290158
      ],
      [
        "Ġpermanece",
        -10.576401160771953
      ],
      [
        "nada",
        -10.576442580354096
      ],
      [
        "Ġpermanente",
        -10.576979067127272
      ],
      [
        "Ġbeneficia",
        -10.577532955955482
      ],
      [
        "ĠAntes",
        -10.577538890809974
      ],
      [
        "ĠTrans",
        -10.57757009019562
      ],
      [
        "trinta",
        -10.577578614099028
      ],
      [
        "Ġcultural",
        -10.577851605452068
      ],
      [
        "Ġadvogado",
        -10.57832130363285
      ],
      [
        "ĠEspanha",
        -10.578491937893528
      ],
      [
        "ĠEdita",
        -10.579156380869437
      ],
      [
        "ĠExe",
        -10.579286442029794
      ],
      [
        "99",
        -10.579620462412024
      ],
      [
        "ĠNu",
        -10.57992751052673
      ],
      [
        "metro",
        -10.581790464289345
      ],
      [
        "Ġqu",
        -10.582500142796
      ],
      [
        "Ġadolescente",
        -10.58274933420424
      ],
      [
        "Ġtroca",
        -10.583126203035633
      ],
      [
        "ĠYork",
        -10.583179683378445
      ],
      [
        "Ġfigura",
        -10.583586104017373
      ],
      [
        "Ġinforma",
        -10.583634197534082
      ],
      [
        "Ġinflue",
        -10.583684929685443
      ],
      [
        "ĠClube",
        -10.584193410868249
      ],
      [
        "Ġprodutor",
        -10.585034779190746
      ],
      [
        "Ġganhar",
        -10.585099313506127
      ],
      [
        "cer",
        -10.586119745939
      ],
      [
        "Assunto",
        -10.586416366054518
      ],
      [
        "ell",
        -10.58651915184257
      ],
      [
        "hy",
        -10.586763901994294
      ],
      [
        "MARA",
        -10.586849281231927
      ],
      [
        "Sarney",
        -10.587206013073368
      ],
      [
        "lico",
        -10.588211481284828
      ],
      [
        "Couto",
        -10.588704631953062
      ],
      [
        "micas",
        -10.588962752821637
      ],
      [
        "fizeram",
        -10.58913633554185
      ],
      [
        "Ġpressa",
        -10.58959450162932
      ],
      [
        "Bibliografia",
        -10.589898816734296
      ],
      [
        "ĠRoma",
        -10.59016821494446
      ],
      [
        "Ġconceito",
        -10.5902439008775
      ],
      [
        "ĠMichel",
        -10.590880442118582
      ],
      [
        "Ġrua",
        -10.590905723105145
      ],
      [
        "Ġleis",
        -10.590917287026206
      ],
      [
        "Ġprofessores",
        -10.591462295431365
      ],
      [
        "Ġgosto",
        -10.591971620527683
      ],
      [
        "Pernambuco",
        -10.592283918319174
      ],
      [
        "Ġcampea",
        -10.592324626013482
      ],
      [
        "Ġacontecer",
        -10.59258019566249
      ],
      [
        "ty",
        -10.59292503022259
      ],
      [
        "ĠMelhor",
        -10.593740750191282
      ],
      [
        "Ġacabar",
        -10.593791901249643
      ],
      [
        "estudantes",
        -10.593831704711729
      ],
      [
        "Vieira",
        -10.59455486618837
      ],
      [
        "uplente",
        -10.59470584669474
      ],
      [
        "ĠRequer",
        -10.596052675011656
      ],
      [
        "Ġofi",
        -10.596141131243842
      ],
      [
        "Ġenorme",
        -10.59681334637981
      ],
      [
        "ĠAgricultura",
        -10.59733753769158
      ],
      [
        "ĠMartins",
        -10.5978188001085
      ],
      [
        "cargos",
        -10.597968520838789
      ],
      [
        "Ġconsumidor",
        -10.59873776639007
      ],
      [
        "Ġlonga",
        -10.59926659206822
      ],
      [
        "40",
        -10.599352758679752
      ],
      [
        "ĠParte",
        -10.599832426967934
      ],
      [
        "terminou",
        -10.60015220543495
      ],
      [
        "ĠPiaui",
        -10.600467669070287
      ],
      [
        "ĠHi",
        -10.600560755121634
      ],
      [
        "ĠCor",
        -10.601509794471506
      ],
      [
        "Ġinterpretac",
        -10.601733407675043
      ],
      [
        "ĠReuni",
        -10.602137361146182
      ],
      [
        "Ġ1913",
        -10.602810179814474
      ],
      [
        "ĠFu",
        -10.602937475856232
      ],
      [
        "Ġproduzir",
        -10.603121684806824
      ],
      [
        "ĠSU",
        -10.60337846010832
      ],
      [
        "ricos",
        -10.604295218598695
      ],
      [
        "nanimidade",
        -10.604715930575654
      ],
      [
        "Ġ1992",
        -10.605118466719732
      ],
      [
        "Ġquerem",
        -10.605586261806714
      ],
      [
        "Ġdanc",
        -10.605620154613648
      ],
      [
        "Estatuto",
        -10.606149465251258
      ],
      [
        "Ġjeito",
        -10.60628212364849
      ],
      [
        "Ġzona",
        -10.606406346492395
      ],
      [
        "Ġgene",
        -10.60710826098307
      ],
      [
        "Ġaumentar",
        -10.607576685095554
      ],
      [
        "Ġviolac",
        -10.60784613037515
      ],
      [
        "ĠProfessor",
        -10.608316292366156
      ],
      [
        "companheiro",
        -10.60856969316088
      ],
      [
        "ĠMARCO",
        -10.60858404499271
      ],
      [
        "Ġvolume",
        -10.60894453117064
      ],
      [
        "Ġpaga",
        -10.608977195078277
      ],
      [
        "Ġ45",
        -10.609486091625316
      ],
      [
        "desempenho",
        -10.61004774535234
      ],
      [
        "Ġrel",
        -10.610503146869116
      ],
      [
        "ĠJapa",
        -10.61063766186684
      ],
      [
        "ĠNew",
        -10.611313656462112
      ],
      [
        "PLS",
        -10.611335150243304
      ],
      [
        "timas",
        -10.612001057584678
      ],
      [
        "dicas",
        -10.612061460684982
      ],
      [
        "Ġcompleta",
        -10.612215072285537
      ],
      [
        "Ġinferior",
        -10.612234156318689
      ],
      [
        "adas",
        -10.612465906658148
      ],
      [
        "Ġmensagem",
        -10.612671681595844
      ],
      [
        "tido",
        -10.61290596929035
      ],
      [
        "Ġanteriores",
        -10.612914226922008
      ],
      [
        "Ġdis",
        -10.613458107148585
      ],
      [
        "Ġrepresentac",
        -10.613485394261508
      ],
      [
        "PL",
        -10.614460759597073
      ],
      [
        "ĠMachado",
        -10.614548724796956
      ],
      [
        "EL",
        -10.614818984605304
      ],
      [
        "21",
        -10.615497004279238
      ],
      [
        "Ġcar",
        -10.615898207593798
      ],
      [
        "Ġmemo",
        -10.616326246586604
      ],
      [
        "2001",
        -10.61660601171228
      ],
      [
        "Ġutilizado",
        -10.61669708204086
      ],
      [
        "Ġofens",
        -10.617482822384126
      ],
      [
        "ĠCultural",
        -10.617583202799787
      ],
      [
        "aposentadoria",
        -10.617753053817577
      ],
      [
        "bairro",
        -10.61883822805438
      ],
      [
        "Ġtivesse",
        -10.619077556777103
      ],
      [
        "Ġsolicita",
        -10.619508518163384
      ],
      [
        "produtores",
        -10.62047506144189
      ],
      [
        "Ġvaria",
        -10.620803676342993
      ],
      [
        "âĢĵâĢĵâĢĵâĢĵâĢĵ",
        -10.62081027028334
      ],
      [
        "ĠParece",
        -10.62090234910967
      ],
      [
        "ble",
        -10.6210349511889
      ],
      [
        "Ġpensa",
        -10.621858214797122
      ],
      [
        "Ġpaz",
        -10.622653109474037
      ],
      [
        "Ġpergunta",
        -10.62296631981207
      ],
      [
        "Ġcinema",
        -10.62413343396251
      ],
      [
        "Ġolhos",
        -10.62414381173432
      ],
      [
        "Ġconquista",
        -10.624439805782757
      ],
      [
        "Ġintegral",
        -10.624816278539749
      ],
      [
        "Ġpassando",
        -10.62508825123177
      ],
      [
        "Ġcaixa",
        -10.62649579575715
      ],
      [
        "ĠImpe",
        -10.626878532389824
      ],
      [
        "Ġaltura",
        -10.627173996215078
      ],
      [
        "Ġpensar",
        -10.627235321063552
      ],
      [
        "ĠSt",
        -10.627272104654123
      ],
      [
        "fontes",
        -10.627649578359735
      ],
      [
        "Ġinicia",
        -10.628004034349496
      ],
      [
        "nasceu",
        -10.628590215762442
      ],
      [
        "ĠAb",
        -10.62873178180817
      ],
      [
        "Candido",
        -10.62888034681242
      ],
      [
        "GL",
        -10.628891774417063
      ],
      [
        "pin",
        -10.629141510395485
      ],
      [
        "crimes",
        -10.629840591797915
      ],
      [
        "gicos",
        -10.629972419979818
      ],
      [
        "Ġchama",
        -10.63004924330824
      ],
      [
        "Ġ200",
        -10.630156324437715
      ],
      [
        "esse",
        -10.630663517112277
      ],
      [
        "Ġclima",
        -10.630992683378706
      ],
      [
        "Ġcomenta",
        -10.631064556245532
      ],
      [
        "Ġbatalha",
        -10.631207875020488
      ],
      [
        "Ġcircunsta",
        -10.631853855724
      ],
      [
        "Rodrigo",
        -10.632002828832167
      ],
      [
        "ĠMarc",
        -10.632814208448409
      ],
      [
        "Ġsenador",
        -10.632862642938324
      ],
      [
        "eira",
        -10.634420626339104
      ],
      [
        "isto",
        -10.63442657745912
      ],
      [
        "ĠPri",
        -10.635003493651212
      ],
      [
        "usando",
        -10.635280601138168
      ],
      [
        "Ġsecreta",
        -10.635304927616296
      ],
      [
        "nima",
        -10.635795219353753
      ],
      [
        "Ġincide",
        -10.636255044244365
      ],
      [
        "Ġfamiliar",
        -10.636387703844662
      ],
      [
        "aspectos",
        -10.636949722567072
      ],
      [
        "aproximadamente",
        -10.636975396287438
      ],
      [
        "Ġtamanho",
        -10.6379846095845
      ],
      [
        "Ġindivi",
        -10.638072143073412
      ],
      [
        "ĠSec",
        -10.63853690502073
      ],
      [
        "Ġparticipou",
        -10.638567024779896
      ],
      [
        "age",
        -10.639416286893413
      ],
      [
        "ĠPar",
        -10.639794134591808
      ],
      [
        "Ġocorrer",
        -10.639904439259825
      ],
      [
        "ĠDu",
        -10.64014022903832
      ],
      [
        "TI",
        -10.640340355073278
      ],
      [
        "Ġcima",
        -10.640508981340137
      ],
      [
        "Mesmo",
        -10.640622387868223
      ],
      [
        "Ġselec",
        -10.640920579635422
      ],
      [
        "Ġaquilo",
        -10.641253215750323
      ],
      [
        "true",
        -10.641498287028458
      ],
      [
        "conduta",
        -10.641893538557158
      ],
      [
        "ĠSuper",
        -10.641899842423078
      ],
      [
        "Ġrepercuss",
        -10.642137066546242
      ],
      [
        "Ġmorrer",
        -10.642338221575182
      ],
      [
        "Ġatribui",
        -10.642659990299713
      ],
      [
        "Ġvive",
        -10.64287990723787
      ],
      [
        "ali",
        -10.643449891786046
      ],
      [
        "val",
        -10.643807934259248
      ],
      [
        "Ġassumi",
        -10.644630781963372
      ],
      [
        "iretrizes",
        -10.644713086699175
      ],
      [
        "Ġinu",
        -10.644938500323695
      ],
      [
        "Ġefetiva",
        -10.645365369291222
      ],
      [
        "Ġbreve",
        -10.645939159809332
      ],
      [
        "Ġplaneta",
        -10.646509685617035
      ],
      [
        "recebimento",
        -10.646627830811072
      ],
      [
        "Ġmilha",
        -10.64699568927832
      ],
      [
        "ĠJoaquim",
        -10.64719951418318
      ],
      [
        "98",
        -10.647573455352983
      ],
      [
        "Ġperder",
        -10.647774756744877
      ],
      [
        "Ġ48",
        -10.648281198816086
      ],
      [
        "ĠVida",
        -10.64963375440177
      ],
      [
        "Ġreferente",
        -10.649794441987511
      ],
      [
        "Ġpotencial",
        -10.6499988584523
      ],
      [
        "Ġerro",
        -10.650004965235992
      ],
      [
        "queremos",
        -10.650388000855614
      ],
      [
        "Ġ01",
        -10.650649601493932
      ],
      [
        "Acordo",
        -10.650649965920405
      ],
      [
        "ĠAmbiente",
        -10.650656104802705
      ],
      [
        "Excelenti",
        -10.650852716721266
      ],
      [
        "Eduardo",
        -10.65183537547652
      ],
      [
        "aquisic",
        -10.65325672411494
      ],
      [
        "Ġcria",
        -10.655865022244653
      ],
      [
        "ĠFA",
        -10.65597751098552
      ],
      [
        "Ġchance",
        -10.65673769964143
      ],
      [
        "ĠMiguel",
        -10.658842153686065
      ],
      [
        "ĠMauro",
        -10.658897752112791
      ],
      [
        "negociac",
        -10.65896946262742
      ],
      [
        "gado",
        -10.65911193335196
      ],
      [
        "teoria",
        -10.659902531711085
      ],
      [
        "Ġinternet",
        -10.660047601722344
      ],
      [
        "apelo",
        -10.660213040664472
      ],
      [
        "Ġganha",
        -10.660234463235986
      ],
      [
        "nossos",
        -10.660779007813913
      ],
      [
        "Ġcomposic",
        -10.66146285033385
      ],
      [
        "ite",
        -10.661556755807435
      ],
      [
        "Ġprima",
        -10.662226731296224
      ],
      [
        "mantid",
        -10.663229611587422
      ],
      [
        "implantac",
        -10.663895331793736
      ],
      [
        "Ġestiver",
        -10.66409905971667
      ],
      [
        "Ġagri",
        -10.664384266952274
      ],
      [
        "Ġintenc",
        -10.66443613117266
      ],
      [
        "vamos",
        -10.665189097937857
      ],
      [
        "Ġvigorar",
        -10.665375005326442
      ],
      [
        "naquele",
        -10.66570162851653
      ],
      [
        "Ġsolo",
        -10.666144268005898
      ],
      [
        "Ġclara",
        -10.666350146476308
      ],
      [
        "log",
        -10.66729305589878
      ],
      [
        "Ġprivada",
        -10.667318461226197
      ],
      [
        "ĠNota",
        -10.668261415170464
      ],
      [
        "ĠPROC",
        -10.668314950578267
      ],
      [
        "ĠContas",
        -10.669065401198084
      ],
      [
        "Ġguarda",
        -10.669454914461973
      ],
      [
        "Ġilha",
        -10.6698818288171
      ],
      [
        "Ġdireto",
        -10.67081631907984
      ],
      [
        "Ġ53",
        -10.670847771712978
      ],
      [
        "Ġportuguesa",
        -10.671532215781752
      ],
      [
        "Ġsentenc",
        -10.672339517931904
      ],
      [
        "ncipe",
        -10.672351829989882
      ],
      [
        "ocasia",
        -10.672433868287309
      ],
      [
        "Ġtrazer",
        -10.67265810161546
      ],
      [
        "ĠPresident",
        -10.673157117912767
      ],
      [
        "Nunca",
        -10.673738035601293
      ],
      [
        "Ġage",
        -10.674275695396526
      ],
      [
        "Ġgrac",
        -10.674485484632788
      ],
      [
        "ĠAP",
        -10.675386926696303
      ],
      [
        "PpP",
        -10.675416761156592
      ],
      [
        "ĠFac",
        -10.675454058443592
      ],
      [
        "suspensa",
        -10.677986338242016
      ],
      [
        "ĠFaria",
        -10.678007431586682
      ],
      [
        "Ġabrir",
        -10.678231673216786
      ],
      [
        "Chefe",
        -10.67827578527951
      ],
      [
        "casamento",
        -10.678540109107384
      ],
      [
        "convidado",
        -10.679389163221888
      ],
      [
        "Ġminuto",
        -10.679398957819693
      ],
      [
        "ĠPer",
        -10.679486664955936
      ],
      [
        "dificuldades",
        -10.68028735791133
      ],
      [
        "autoridades",
        -10.680407838077668
      ],
      [
        "Ġgovernador",
        -10.68049734042232
      ],
      [
        "Ġ38",
        -10.681035760730143
      ],
      [
        "existem",
        -10.681068082475925
      ],
      [
        "Ġnove",
        -10.682087001978497
      ],
      [
        "acrescenta",
        -10.682095245460596
      ],
      [
        "Ġamplia",
        -10.682513987769664
      ],
      [
        "Afonso",
        -10.68256941275025
      ],
      [
        "Ġmeta",
        -10.68286719050896
      ],
      [
        "Ġ55",
        -10.683181786257352
      ],
      [
        "produzido",
        -10.683631360016818
      ],
      [
        "ĠGu",
        -10.683686886232048
      ],
      [
        "Ġdefinic",
        -10.683980866239311
      ],
      [
        "%)",
        -10.684099773319108
      ],
      [
        "Ġtraz",
        -10.68549901960673
      ],
      [
        "ĠBar",
        -10.685552255841912
      ],
      [
        "Ġmusical",
        -10.685740419180156
      ],
      [
        "Ġgaroto",
        -10.688589291847984
      ],
      [
        "entes",
        -10.689635443680077
      ],
      [
        "ĠChico",
        -10.689650717377106
      ],
      [
        "Ġmunicipal",
        -10.689677486769405
      ],
      [
        "REGIMENTA",
        -10.69008502697291
      ],
      [
        "Ġprestar",
        -10.691325930817962
      ],
      [
        "Ġbrasileiras",
        -10.691871667852451
      ],
      [
        "ĠVirgi",
        -10.69192597674198
      ],
      [
        "voltou",
        -10.693298473802832
      ],
      [
        "Ġmassa",
        -10.695235835761723
      ],
      [
        "ung",
        -10.695940190555095
      ],
      [
        "Ġprefeito",
        -10.696534410259456
      ],
      [
        "dispositivos",
        -10.696836983745726
      ],
      [
        "Ġfilmes",
        -10.697090422555451
      ],
      [
        "ĠPessoal",
        -10.697158378181724
      ],
      [
        "Ġdocumentac",
        -10.697460123385936
      ],
      [
        "cnicos",
        -10.697460283191504
      ],
      [
        "Ġlonge",
        -10.69765331114253
      ],
      [
        "referida",
        -10.697936575554571
      ],
      [
        "duos",
        -10.698386756564972
      ],
      [
        "inicialmente",
        -10.698856592052154
      ],
      [
        "ĠPaim",
        -10.699012450700303
      ],
      [
        "nios",
        -10.69918313219842
      ],
      [
        "ĠAM",
        -10.699689064378314
      ],
      [
        "Ġatende",
        -10.69975425210495
      ],
      [
        "Ġpegar",
        -10.700103730132229
      ],
      [
        "conclusa",
        -10.7020510545242
      ],
      [
        "Ġcanal",
        -10.70223339464013
      ],
      [
        "dez",
        -10.702271266105996
      ],
      [
        "lideranc",
        -10.703120766239667
      ],
      [
        "Ġedifi",
        -10.703313512088656
      ],
      [
        "Ġutilizada",
        -10.703414366129248
      ],
      [
        "Ġincluir",
        -10.703485559919445
      ],
      [
        "Ġobservado",
        -10.703671530495
      ],
      [
        "ĠEspere",
        -10.704051826054377
      ],
      [
        "Ġporte",
        -10.704227453915289
      ],
      [
        "LA",
        -10.704715485447291
      ],
      [
        "tina",
        -10.705032416502776
      ],
      [
        "DIAS",
        -10.70560875409666
      ],
      [
        "Ġpreve",
        -10.706236951036992
      ],
      [
        "Ġeliminac",
        -10.70654500379328
      ],
      [
        "ĠMuseu",
        -10.7068024911109
      ],
      [
        "han",
        -10.70683375892283
      ],
      [
        "Ġchamar",
        -10.706839625587524
      ],
      [
        "Ġvoz",
        -10.70749332699952
      ],
      [
        "encaminhamento",
        -10.707494698743904
      ],
      [
        "Ġseparado",
        -10.707990411194071
      ],
      [
        "inscric",
        -10.70801843709318
      ],
      [
        "ĠJUSTIC",
        -10.708076022158616
      ],
      [
        "oficiais",
        -10.70837023390211
      ],
      [
        "Ġservidor",
        -10.708994244804671
      ],
      [
        "CIO",
        -10.709923010241493
      ],
      [
        "Desculpe",
        -10.710351709501111
      ],
      [
        "Ġdiploma",
        -10.71059593127702
      ],
      [
        "Ġaceita",
        -10.710719112315845
      ],
      [
        "Ġcha",
        -10.710874105375606
      ],
      [
        "Ġviagem",
        -10.711102554256064
      ],
      [
        "ĠCastro",
        -10.71113871223898
      ],
      [
        "lidade",
        -10.71140997800361
      ],
      [
        "CH",
        -10.71175330742817
      ],
      [
        "org",
        -10.711825657589715
      ],
      [
        "Ġnomeado",
        -10.711854855324775
      ],
      [
        "Ġparticular",
        -10.71206973793545
      ],
      [
        "Ġexe",
        -10.712097354899855
      ],
      [
        "limites",
        -10.712426538304962
      ],
      [
        "tados",
        -10.713356978593328
      ],
      [
        "Ġempre",
        -10.71364111237918
      ],
      [
        "Ġprecisam",
        -10.713651711960813
      ],
      [
        "Ġouro",
        -10.71370101864834
      ],
      [
        "Ġtrouxe",
        -10.714629621213303
      ],
      [
        "embargo",
        -10.71469996315477
      ],
      [
        "tentando",
        -10.71473480756854
      ],
      [
        "Ġtirar",
        -10.715177177694752
      ],
      [
        "Ġescreveu",
        -10.715213142011656
      ],
      [
        "ĠInformac",
        -10.71539887080923
      ],
      [
        "Ġconseque",
        -10.715908176886948
      ],
      [
        "ĠTri",
        -10.716399444739542
      ],
      [
        "velmente",
        -10.716545159817612
      ],
      [
        "NA",
        -10.717271855344718
      ],
      [
        "tomada",
        -10.717723658148122
      ],
      [
        "Ġreserva",
        -10.717788159709562
      ],
      [
        "Ġaberta",
        -10.717832990514404
      ],
      [
        "ĠROBERT",
        -10.717996042520818
      ],
      [
        "Ġtotalmente",
        -10.718084539697385
      ],
      [
        "Ġdeterminado",
        -10.719092102251002
      ],
      [
        "ĠRei",
        -10.719794242609543
      ],
      [
        "Ġobserva",
        -10.719922027360814
      ],
      [
        "ĠVerde",
        -10.71992224415199
      ],
      [
        "fronteira",
        -10.72027811663503
      ],
      [
        "velocidade",
        -10.720456790265036
      ],
      [
        "Ġsimplesmente",
        -10.722487522577484
      ],
      [
        "izac",
        -10.72257745861542
      ],
      [
        "Ġinterno",
        -10.72270190955486
      ],
      [
        "juntamente",
        -10.723096637954296
      ],
      [
        "ĠGlobo",
        -10.723509974151838
      ],
      [
        "\"),",
        -10.723636618143926
      ],
      [
        "Ġesteve",
        -10.72385079201309
      ],
      [
        "Ġpromoc",
        -10.72420226051444
      ],
      [
        "ĠCapita",
        -10.724308030359756
      ],
      [
        "Ġreside",
        -10.724377265641104
      ],
      [
        "NTE",
        -10.72472252768838
      ],
      [
        "Ġrevela",
        -10.72477677832216
      ],
      [
        "Ġ52",
        -10.724975141727075
      ],
      [
        "Ġpadra",
        -10.724997221086303
      ],
      [
        "Ġgosta",
        -10.72506794788258
      ],
      [
        "Ġmelhorar",
        -10.725218810280229
      ],
      [
        "trecho",
        -10.725569014416225
      ],
      [
        "Ġaniversa",
        -10.72623565948165
      ],
      [
        "Ġ1980",
        -10.726700908479213
      ],
      [
        "posteriormente",
        -10.727167811587476
      ],
      [
        "Ġdelas",
        -10.727358828792612
      ],
      [
        "Ġcumprir",
        -10.728099573434436
      ],
      [
        "ĠSEC",
        -10.728882193806871
      ],
      [
        "..........",
        -10.728982838910056
      ],
      [
        "RELATOR",
        -10.72902915437154
      ],
      [
        "ĠHu",
        -10.729057926608284
      ],
      [
        "constitucional",
        -10.729108194730172
      ],
      [
        "adequac",
        -10.729144884406464
      ],
      [
        "ional",
        -10.729301677612677
      ],
      [
        "tramitac",
        -10.730363062731906
      ],
      [
        "previstos",
        -10.730914224329592
      ],
      [
        "entrou",
        -10.730994718573555
      ],
      [
        "Deputado",
        -10.731599704612623
      ],
      [
        "tornando",
        -10.732204491950888
      ],
      [
        "ĠUnido",
        -10.732949684490396
      ],
      [
        "ĠJunior",
        -10.73305222985936
      ],
      [
        "Ġdetermina",
        -10.733188929424838
      ],
      [
        "Ġmorto",
        -10.733308709932444
      ],
      [
        "ĠIndu",
        -10.73345886806316
      ],
      [
        "Geografia",
        -10.733805348545966
      ],
      [
        "Ġanual",
        -10.734776130404116
      ],
      [
        "Ġtiver",
        -10.734824272612242
      ],
      [
        "Ġresolver",
        -10.734877296757992
      ],
      [
        "Ġclassificac",
        -10.735177146430964
      ],
      [
        "zado",
        -10.737157330196087
      ],
      [
        "Ġcorrente",
        -10.737366953976712
      ],
      [
        "Ġplanos",
        -10.737608988225716
      ],
      [
        "Ġ62",
        -10.738764402265868
      ],
      [
        "GO",
        -10.739797010536684
      ],
      [
        "Ġexercer",
        -10.739962718524776
      ],
      [
        "perante",
        -10.740443963410955
      ],
      [
        "ficando",
        -10.740513766598122
      ],
      [
        "Ġagricultura",
        -10.741080292033034
      ],
      [
        "Ġconhece",
        -10.741495217820503
      ],
      [
        "Ġveja",
        -10.74213302354233
      ],
      [
        "Ġnomes",
        -10.74216724171178
      ],
      [
        "23",
        -10.742815553897524
      ],
      [
        "Atualmente",
        -10.743469299335466
      ],
      [
        "ĠVII",
        -10.74357294530121
      ],
      [
        "qua",
        -10.743891806700322
      ],
      [
        "ĠCaso",
        -10.743893525961496
      ],
      [
        "Ġrenova",
        -10.744367158160816
      ],
      [
        "Ġ64",
        -10.744397735610416
      ],
      [
        "ORDINA",
        -10.744720072012765
      ],
      [
        "ist",
        -10.744771924869791
      ],
      [
        "ĠArgentina",
        -10.744772173090654
      ],
      [
        "mulo",
        -10.744947253155267
      ],
      [
        "Ĩ",
        -10.745625786323172
      ],
      [
        "Ġrecente",
        -10.745796506035854
      ],
      [
        "STF",
        -10.745869867818278
      ],
      [
        "vejo",
        -10.746092786812858
      ],
      [
        "ten",
        -10.746416592786495
      ],
      [
        "Ġconflito",
        -10.74652728032022
      ],
      [
        "Ġ43",
        -10.74691300728591
      ],
      [
        "ĠCarta",
        -10.747140106810866
      ],
      [
        "Ġverdadeira",
        -10.747953079151232
      ],
      [
        "Ġdomingo",
        -10.748725025785031
      ],
      [
        "Ġminhas",
        -10.748779441632754
      ],
      [
        "desafio",
        -10.748787720354471
      ],
      [
        "ĠGre",
        -10.748943091609696
      ],
      [
        "Ġlido",
        -10.74934692547718
      ],
      [
        "var",
        -10.74973995165654
      ],
      [
        "Ġadministrativo",
        -10.75066527737284
      ],
      [
        "ĠBorges",
        -10.750689011149811
      ],
      [
        "ĠNovo",
        -10.751319761173995
      ],
      [
        "Ġteor",
        -10.751486673531987
      ],
      [
        "Ġ1989",
        -10.751687588783016
      ],
      [
        "ant",
        -10.75169714799125
      ],
      [
        "ĠExiste",
        -10.752778518783837
      ],
      [
        "cnicas",
        -10.7528605901614
      ],
      [
        "Ġpolicial",
        -10.75310810588898
      ],
      [
        "Ġbanca",
        -10.753313958198335
      ],
      [
        "Faculdade",
        -10.755805805674946
      ],
      [
        "NT",
        -10.75592780527954
      ],
      [
        "Ġacredito",
        -10.756038912831103
      ],
      [
        "her",
        -10.756072288101532
      ],
      [
        "Cavalcanti",
        -10.756092649281143
      ],
      [
        "Ġbo",
        -10.756241638170792
      ],
      [
        "ĠZ",
        -10.756508436009051
      ],
      [
        "Ġfreque",
        -10.75654322371109
      ],
      [
        "Ġcoberto",
        -10.756607489431186
      ],
      [
        "Ġdeixe",
        -10.756646687861808
      ],
      [
        "Ġrealiza",
        -10.756662323209287
      ],
      [
        "emissora",
        -10.757057852690012
      ],
      [
        "Ġconstruir",
        -10.757406481037547
      ],
      [
        "ĠGilmar",
        -10.75765076852147
      ],
      [
        "22",
        -10.7585284262004
      ],
      [
        "agente",
        -10.75887840462546
      ],
      [
        "mudou",
        -10.75911006864938
      ],
      [
        "bado",
        -10.759246909201288
      ],
      [
        "menta",
        -10.75933744522402
      ],
      [
        "Alguns",
        -10.759429181314722
      ],
      [
        "Ġjuntos",
        -10.761153306224085
      ],
      [
        "Ġdefender",
        -10.761186951423694
      ],
      [
        "bri",
        -10.761583266021166
      ],
      [
        "Calheiros",
        -10.761784107389245
      ],
      [
        "Ġexclusivament",
        -10.762183852861504
      ],
      [
        "nal",
        -10.763045864903612
      ],
      [
        "materiais",
        -10.763226350761697
      ],
      [
        "Ġcompetente",
        -10.763674226485154
      ],
      [
        "ĠDavid",
        -10.764040588003764
      ],
      [
        "Ġbi",
        -10.765270478042108
      ],
      [
        "ĠIX",
        -10.76588115898721
      ],
      [
        "estaduais",
        -10.76592321012385
      ],
      [
        "senhores",
        -10.765979456866395
      ],
      [
        "verdadeiro",
        -10.766076206424508
      ],
      [
        "Ġreforc",
        -10.766080591470622
      ],
      [
        "Ġcompleto",
        -10.766938384942444
      ],
      [
        "ment",
        -10.766981378122722
      ],
      [
        "ĠInter",
        -10.767092478393192
      ],
      [
        "Ġdivulgac",
        -10.767189227495622
      ],
      [
        "ĠPessoa",
        -10.767564035906284
      ],
      [
        "TVR",
        -10.768288262981455
      ],
      [
        "ĠDes",
        -10.768551844114176
      ],
      [
        "ĠOrganizac",
        -10.768678088565602
      ],
      [
        "gravante",
        -10.768732701406604
      ],
      [
        "recuperac",
        -10.768957618411664
      ],
      [
        "EIRA",
        -10.769410988126806
      ],
      [
        "Ġmante",
        -10.769587487885229
      ],
      [
        "guas",
        -10.769630505441176
      ],
      [
        "Ġresto",
        -10.769739025164826
      ],
      [
        "udio",
        -10.770163101427228
      ],
      [
        "Ġbebe",
        -10.770311048551276
      ],
      [
        "Ġindividual",
        -10.770321356825695
      ],
      [
        "Ġfoto",
        -10.770486878466327
      ],
      [
        "Ġcriou",
        -10.770507149845326
      ],
      [
        "Ġescrita",
        -10.771505775336244
      ],
      [
        "Ġerrado",
        -10.771719698630676
      ],
      [
        "Ġ2021",
        -10.771744191080984
      ],
      [
        "ĠCre",
        -10.77212460582803
      ],
      [
        "feminino",
        -10.772314890428596
      ],
      [
        "setores",
        -10.772405624370974
      ],
      [
        "drogas",
        -10.77254029701724
      ],
      [
        "ker",
        -10.772850414131394
      ],
      [
        "Ġpreside",
        -10.773027037373415
      ],
      [
        "Ġintegrar",
        -10.773095360979324
      ],
      [
        "sicos",
        -10.773095496486498
      ],
      [
        "ilustre",
        -10.773199221453243
      ],
      [
        "usada",
        -10.77336761203679
      ],
      [
        "Ġ39",
        -10.77343431282912
      ],
      [
        "estrangeiro",
        -10.77362093053477
      ],
      [
        "Recurso",
        -10.77376841200157
      ],
      [
        "todo",
        -10.77385536772162
      ],
      [
        "Sujeita",
        -10.774227907858863
      ],
      [
        "Energia",
        -10.775153956746468
      ],
      [
        "Ġescolar",
        -10.775785631184885
      ],
      [
        "Ġlembrar",
        -10.776059257963404
      ],
      [
        "Ġcomportamento",
        -10.776211516868608
      ],
      [
        "riamente",
        -10.776338457535722
      ],
      [
        "Direitos",
        -10.777134316684528
      ],
      [
        "ĠInglaterra",
        -10.77722136412169
      ],
      [
        "ĠPaes",
        -10.77727073619304
      ],
      [
        "Ġ02",
        -10.778323271081453
      ],
      [
        "GTE",
        -10.778665631352382
      ],
      [
        "Ġpodia",
        -10.778829996245712
      ],
      [
        "ĠSub",
        -10.778954431962632
      ],
      [
        "Ġju",
        -10.779443506163284
      ],
      [
        "Ġdomi",
        -10.781492678424792
      ],
      [
        "Ġdestino",
        -10.78237309041324
      ],
      [
        "Ġdigital",
        -10.783794307844529
      ],
      [
        "Ġaparte",
        -10.784041521016794
      ],
      [
        "fls",
        -10.784529658687054
      ],
      [
        "Ġcafe",
        -10.784970393961542
      ],
      [
        "lculo",
        -10.78505757364241
      ],
      [
        "Ġ34",
        -10.785078361062723
      ],
      [
        "bar",
        -10.785458983329956
      ],
      [
        "Ġcolocado",
        -10.785609345985398
      ],
      [
        "Ġconhecer",
        -10.78589114605242
      ],
      [
        "Ġreconhece",
        -10.785911675283446
      ],
      [
        "Ġaplicada",
        -10.78670439199137
      ],
      [
        "BLICA",
        -10.786811260139322
      ],
      [
        "Ġseque",
        -10.787379502277537
      ],
      [
        "Ġparlamentar",
        -10.787501292874165
      ],
      [
        "Arnaldo",
        -10.788146970509892
      ],
      [
        "Ġjogar",
        -10.789714201963964
      ],
      [
        "Ġbasead",
        -10.78972082278358
      ],
      [
        "fatos",
        -10.790328135945066
      ],
      [
        "Ġatras",
        -10.790395208473344
      ],
      [
        "Ġadoc",
        -10.790399519519363
      ],
      [
        "ð",
        -10.79059828086987
      ],
      [
        "Ġ36",
        -10.791300573560996
      ],
      [
        "ĠPaulista",
        -10.791598536516952
      ],
      [
        "PA",
        -10.791644249143868
      ],
      [
        "ĠArau",
        -10.79223994441004
      ],
      [
        "sujeito",
        -10.792334105234696
      ],
      [
        "ĠPala",
        -10.792414771158237
      ],
      [
        "Ġcadeira",
        -10.793427533971023
      ],
      [
        "Localida",
        -10.793570213900056
      ],
      [
        "ĠPPS",
        -10.794065174369724
      ],
      [
        "Ġarts",
        -10.794363646884223
      ],
      [
        "Ġsorte",
        -10.794450108761128
      ],
      [
        "ĠLondres",
        -10.794696100061223
      ],
      [
        "ĠManuel",
        -10.79509669950452
      ],
      [
        "Ġpudesse",
        -10.795115988549126
      ],
      [
        "ĠQuadro",
        -10.795604396197156
      ],
      [
        "ĠSC",
        -10.796092851274478
      ],
      [
        "Ġjoga",
        -10.796295750242528
      ],
      [
        "Ġargumento",
        -10.796474362462533
      ],
      [
        "submetid",
        -10.796497681412308
      ],
      [
        "Ġexigi",
        -10.796651173228458
      ],
      [
        "ĠGeorge",
        -10.796655748360772
      ],
      [
        "ĠSubstantiv",
        -10.79733511815378
      ],
      [
        "efetivo",
        -10.797717884516096
      ],
      [
        "extremamente",
        -10.797822368616838
      ],
      [
        "ĠPreceden",
        -10.798038913425632
      ],
      [
        "Ġviver",
        -10.798040684116282
      ],
      [
        "Ġtende",
        -10.79812813988585
      ],
      [
        "let",
        -10.79838196278088
      ],
      [
        "Ġgarota",
        -10.798718047150247
      ],
      [
        "Ġacontecendo",
        -10.799081504224022
      ],
      [
        "rado",
        -10.799251877420213
      ],
      [
        "Ġvaga",
        -10.800725459373332
      ],
      [
        "Ġindo",
        -10.800744028739873
      ],
      [
        "Ġsanc",
        -10.800942776839625
      ],
      [
        "imediatamente",
        -10.801322379808669
      ],
      [
        "Ġconve",
        -10.801541644182045
      ],
      [
        "Ġfu",
        -10.801841817151969
      ],
      [
        "lhes",
        -10.802446660893429
      ],
      [
        "IC",
        -10.8029184744429
      ],
      [
        "ĠEsper",
        -10.803060918943704
      ],
      [
        "Assembleia",
        -10.80309166376056
      ],
      [
        "ende",
        -10.803285442068102
      ],
      [
        "Ġobter",
        -10.8035208464346
      ],
      [
        "ĠNem",
        -10.803521631168788
      ],
      [
        "naquela",
        -10.803819821148643
      ],
      [
        "Ġdecorre",
        -10.804602163533248
      ],
      [
        "ĠDecis",
        -10.804655402452337
      ],
      [
        "gicas",
        -10.8046563866778
      ],
      [
        "Ġperde",
        -10.80465684263178
      ],
      [
        "ĠBen",
        -10.804868501923323
      ],
      [
        "EDUARD",
        -10.80489512524958
      ],
      [
        "Ġreduzir",
        -10.805284138050029
      ],
      [
        "Con",
        -10.80629631361417
      ],
      [
        "Ġpronto",
        -10.80634548363
      ],
      [
        "Ġescritor",
        -10.806489195732013
      ],
      [
        "Ġcomprar",
        -10.806648611660332
      ],
      [
        "devidamente",
        -10.807190943819297
      ],
      [
        "Ġinterna",
        -10.807262056980584
      ],
      [
        "EMENTA",
        -10.807381692445103
      ],
      [
        "Ġcontribui",
        -10.807386671349668
      ],
      [
        "Ġsinal",
        -10.807400431747904
      ],
      [
        "â",
        -10.808395774454832
      ],
      [
        "segmento",
        -10.808484589847932
      ],
      [
        "ale",
        -10.80869515389069
      ],
      [
        "Ġanteriormente",
        -10.808852160304305
      ],
      [
        "este",
        -10.809414363729871
      ],
      [
        "Ġtri",
        -10.809566581720112
      ],
      [
        "Ġoposic",
        -10.8107646908342
      ],
      [
        "Ġcorte",
        -10.810967138865784
      ],
      [
        "ĠRoge",
        -10.81108087929594
      ],
      [
        "ĠFreitas",
        -10.812149110618352
      ],
      [
        "mios",
        -10.81234184336275
      ],
      [
        "cobranc",
        -10.812683346117486
      ],
      [
        "Ġparcela",
        -10.81304472369004
      ],
      [
        "artista",
        -10.813193106304462
      ],
      [
        "Ġleve",
        -10.81331735399221
      ],
      [
        "Biografia",
        -10.81352697412999
      ],
      [
        "ĠAcre",
        -10.813849096681995
      ],
      [
        "Ġtradic",
        -10.814213762608246
      ],
      [
        "teis",
        -10.814507191408511
      ],
      [
        "especiais",
        -10.815394209608208
      ],
      [
        "ĠPois",
        -10.816179891965218
      ],
      [
        "recorrente",
        -10.8167876530312
      ],
      [
        "ĠAPRECIA",
        -10.816877189789023
      ],
      [
        "24",
        -10.818425969703542
      ],
      [
        "ais",
        -10.818572481578142
      ],
      [
        "Ġorigina",
        -10.818608482749138
      ],
      [
        "Ġcoloca",
        -10.81891653472444
      ],
      [
        "ĠPesquisa",
        -10.820002562056912
      ],
      [
        "recebido",
        -10.82025934603409
      ],
      [
        "Ġdeterminar",
        -10.820401922914035
      ],
      [
        "como",
        -10.821582956949763
      ],
      [
        "ĠLU",
        -10.821916527719484
      ],
      [
        "integrantes",
        -10.821949988223606
      ],
      [
        "agem",
        -10.822103068068651
      ],
      [
        "remunerac",
        -10.822143003533643
      ],
      [
        "Ġtrabalha",
        -10.822444590779003
      ],
      [
        "ĠME",
        -10.822896426017522
      ],
      [
        "INA",
        -10.823559244857176
      ],
      [
        "elli",
        -10.823717935455315
      ],
      [
        "Ġreleva",
        -10.823777361013324
      ],
      [
        "ĠMelo",
        -10.82393605234336
      ],
      [
        "ĠTal",
        -10.824272404843214
      ],
      [
        "Ġ41",
        -10.824544326255934
      ],
      [
        "Î",
        -10.82455091596288
      ],
      [
        "ĠLiga",
        -10.824838787904334
      ],
      [
        "milhare",
        -10.825035542207882
      ],
      [
        "gan",
        -10.825200421312358
      ],
      [
        "ĠTributa",
        -10.826596230954989
      ],
      [
        "Ġ42",
        -10.826859889565087
      ],
      [
        "AM",
        -10.827044914504256
      ],
      [
        "Ġaparece",
        -10.82705337450349
      ],
      [
        "Ġsec",
        -10.828239861896895
      ],
      [
        "Rousseff",
        -10.82839673717778
      ],
      [
        "Ġarti",
        -10.828784033825135
      ],
      [
        "ĠMari",
        -10.828912239638711
      ],
      [
        "MDB",
        -10.82900065901996
      ],
      [
        "perdeu",
        -10.829018094528626
      ],
      [
        "Ġobrigada",
        -10.829258049777277
      ],
      [
[...]
