{
  "version": "1.0",
  "truncation": {
    "direction": "Right",
    "max_length": 512,
    "strategy": "LongestFirst",
    "stride": 0
  },
  "padding": null,
  "added_tokens": [
    {
      "id": 0,
      "content": "<pad>",
      "single_word": false,
      "lstrip": false,
      "rstrip": false,
      "normalized": false,
      "special": true
    },
    {
      "id": 1,
      "content": "<cls>",
      "single_word": false,
      "lstrip": false,
      "rstrip": false,
      "normalized": false,
      "special": true
    },
    {
      "id": 2,
      "content": "<sep>",
      "single_word": false,
      "lstrip": false,
      "rstrip": false,
      "normalized": false,
      "special": true
    },
    {
      "id": 3,
      "content": "<mask>",
      "single_word": false,
      "lstrip": false,
      "rstrip": false,
      "normalized": false,
      "special": true
    }
  ],
  "normalizer": {
    "type": "Sequence",
    "normalizers": [
      {
        "type": "NFKD"
      }
    ]
  },
  "pre_tokenizer": {
    "type": "ByteLevel",
    "add_prefix_space": true,
    "trim_offsets": true,
    "use_regex": true
  },
  "post_processor": {
    "type": "TemplateProcessing",
    "single": [
      {
        "SpecialToken": {
          "id": "<cls>",
          "type_id": 0
        }
      },
      {
        "Sequence": {
          "id": "A",
          "type_id": 0
        }
      },
      {
        "SpecialToken": {
          "id": "<sep>",
          "type_id": 0
        }
      }
    ],
    "pair": [
      {
        "SpecialToken": {
          "id": "<cls>",
          "type_id": 0
        }
      },
      {
        "Sequence": {
          "id": "A",
          "type_id": 0
        }
      },
      {
        "SpecialToken": {
          "id": "<sep>",
          "type_id": 0
        }
      },
      {
        "Sequence": {
          "id": "B",
          "type_id": 0
        }
      },
      {
        "SpecialToken": {
          "id": "<sep>",
          "type_id": 0
        }
      }
    ],
    "special_tokens": {
      "<cls>": {
        "id": "<cls>",
        "ids": [
          1
        ],
        "tokens": [
          "<cls>"
        ]
      },
      "<sep>": {
        "id": "<sep>",
        "ids": [
          2
        ],
        "tokens": [
          "<sep>"
        ]
      }
    }
  },
  "decoder": {
    "type": "ByteLevel",
    "add_prefix_space": true,
    "trim_offsets": true,
    "use_regex": true
  },
  "model": {
    "type": "BPE",
    "dropout": null,
    "unk_token": null,
    "continuing_subword_prefix": null,
    "end_of_word_suffix": null,
    "fuse_unk": false,
    "byte_fallback": false,
    "vocab": {
      "<pad>": 0,
      "<cls>": 1,
      "<sep>": 2,
      "<mask>": 3,
      "!": 4,
      "\"": 5,
      "#": 6,
      "$": 7,
      "%": 8,
      "&": 9,
      "'": 10,
      "(": 11,
      ")": 12,
      "*": 13,
      "+": 14,
      ",": 15,
      "-": 16,
      ".": 17,
      "/": 18,
      "0": 19,
      "1": 20,
      "2": 21,
      "3": 22,
      "4": 23,
      "5": 24,
      "6": 25,
      "7": 26,
      "8": 27,
      "9": 28,
      ":": 29,
      ";": 30,
      "<": 31,
      "=": 32,
      ">": 33,
      "?": 34,
      "@": 35,
      "A": 36,
      "B": 37,
      "C": 38,
      "D": 39,
      "E": 40,
      "F": 41,
      "G": 42,
      "H": 43,
      "I": 44,
      "J": 45,
      "K": 46,
      "L": 47,
      "M": 48,
      "N": 49,
      "O": 50,
      "P": 51,
      "Q": 52,
      "R": 53,
      "S": 54,
      "T": 55,
      "U": 56,
      "V": 57,
      "W": 58,
      "X": 59,
      "Y": 60,
      "Z": 61,
      "[": 62,
      "\\": 63,
      "]": 64,
      "^": 65,
      "_": 66,
      "`": 67,
      "a": 68,
      "b": 69,
      "c": 70,
      "d": 71,
      "e": 72,
      "f": 73,
      "g": 74,
      "h": 75,
      "i": 76,
      "j": 77,
      "k": 78,
      "l": 79,
      "m": 80,
      "n": 81,
      "o": 82,
      "p": 83,
      "q": 84,
      "r": 85,
      "s": 86,
      "t": 87,
      "u": 88,
      "v": 89,
      "w": 90,
      "x": 91,
      "y": 92,
      "z": 93,
      "{": 94,
      "|": 95,
      "}": 96,
      "~": 97,
      "¡": 98,
      "¢": 99,
      "£": 100,
      "¤": 101,
      "¥": 102,
      "¦": 103,
      "§": 104,
      "¨": 105,
      "©": 106,
      "ª": 107,
      "«": 108,
      "¬": 109,
      "®": 110,
      "¯": 111,
      "°": 112,
      "±": 113,
      "²": 114,
      "³": 115,
      "´": 116,
      "µ": 117,
      "¶": 118,
      "·": 119,
      "¸": 120,
      "¹": 121,
      "º": 122,
      "»": 123,
      "¼": 124,
      "½": 125,
      "¾": 126,
      "¿": 127,
      "À": 128,
      "Á": 129,
      "Â": 130,
      "Ã": 131,
      "Ä": 132,
      "Å": 133,
      "Æ": 134,
      "Ç": 135,
      "È": 136,
      "É": 137,
      "Ê": 138,
      "Ë": 139,
      "Ì": 140,
      "Í": 141,
      "Î": 142,
      "Ï": 143,
      "Ð": 144,
      "Ñ": 145,
      "Ò": 146,
      "Ó": 147,
      "Ô": 148,
      "Õ": 149,
      "Ö": 150,
      "×": 151,
      "Ø": 152,
      "Ù": 153,
      "Ú": 154,
      "Û": 155,
      "Ü": 156,
      "Ý": 157,
      "Þ": 158,
      "ß": 159,
      "à": 160,
      "á": 161,
      "â": 162,
      "ã": 163,
      "ä": 164,
      "å": 165,
      "æ": 166,
      "ç": 167,
      "è": 168,
      "é": 169,
      "ê": 170,
      "ë": 171,
      "ì": 172,
      "í": 173,
      "î": 174,
      "ï": 175,
      "ð": 176,
      "ñ": 177,
      "ò": 178,
      "ó": 179,
      "ô": 180,
      "õ": 181,
      "ö": 182,
      "÷": 183,
      "ø": 184,
      "ù": 185,
      "ú": 186,
      "û": 187,
      "ü": 188,
      "ý": 189,
      "þ": 190,
      "ÿ": 191,
      "Ā": 192,
      "ā": 193,
      "Ă": 194,
      "ă": 195,
      "Ą": 196,
      "ą": 197,
      "Ć": 198,
      "ć": 199,
      "Ĉ": 200,
      "ĉ": 201,
      "Ċ": 202,
      "ċ": 203,
      "Č": 204,
      "č": 205,
      "Ď": 206,
      "ď": 207,
      "Đ": 208,
      "đ": 209,
      "Ē": 210,
      "ē": 211,
      "Ĕ": 212,
      "ĕ": 213,
      "Ė": 214,
      "ė": 215,
      "Ę": 216,
      "ę": 217,
      "Ě": 218,
      "ě": 219,
      "Ĝ": 220,
      "ĝ": 221,
      "Ğ": 222,
      "ğ": 223,
      "Ġ": 224,
      "ġ": 225,
      "Ģ": 226,
      "ģ": 227,
      "Ĥ": 228,
      "ĥ": 229,
      "Ħ": 230,
      "ħ": 231,
      "Ĩ": 232,
      "ĩ": 233,
      "Ī": 234,
      "ī": 235,
      "Ĭ": 236,
      "ĭ": 237,
      "Į": 238,
      "į": 239,
      "İ": 240,
      "ı": 241,
      "Ĳ": 242,
      "ĳ": 243,
      "Ĵ": 244,
      "ĵ": 245,
      "Ķ": 246,
      "ķ": 247,
      "ĸ": 248,
      "Ĺ": 249,
      "ĺ": 250,
      "Ļ": 251,
      "ļ": 252,
      "Ľ": 253,
      "ľ": 254,
      "Ŀ": 255,
      "ŀ": 256,
      "Ł": 257,
      "ł": 258,
      "Ń": 259,
      "Ġd": 260,
      "Ġe": 261,
      "Ġa": 262,
      "Ìģ": 263,
      "ra": 264,
      "Ġde": 265,
      "Ġp": 266,
      "nt": 267,
      "re": 268,
      "os": 269,
      "Ġc": 270,
      "Ìĥ": 271,
      "ta": 272,
      "er": 273,
      "Ġs": 274,
      "na": 275,
      "or": 276,
      "es": 277,
      "ia": 278,
      "qu": 279,
      "is": 280,
      "do": 281,
      "ma": 282,
      "me": 283,
      "Ġo": 284,
      "da": 285,
      "Ġco": 286,
      "ic": 287,
      "Ì§": 288,
      "in": 289,
      "ro": 290,
      "Ġqu": 291,
      "de": 292,
      "te": 293,
      "Ġf": 294,
      "to": 295,
      "la": 296,
      "Ġn": 297,
      "Ġque": 298,
      "as": 299,
      "ri": 300,
      "ĠA": 301,
      "ar": 302,
      "Ġdo": 303,
      "le": 304,
      "nte": 305,
      "ĠE": 306,
      "ĠC": 307,
      "ti": 308,
      "Ġse": 309,
      "Ġu": 310,
      "nc": 311,
      "ĠS": 312,
      "ÌĤ": 313,
      "Ġv": 314,
      "ĠP": 315,
      "Ġda": 316,
      "Ġna": 317,
      "Ġre": 318,
      "Ġcom": 319,
      "ĠM": 320,
      "Ġes": 321,
      "al": 322,
      "Ġem": 323,
      "Ġm": 324,
      "io": 325,
      "ara": 326,
      "Ġno": 327,
      "ĠD": 328,
      "ha": 329,
      "ns": 330,
      "tu": 331,
      "lo": 332,
      "nto": 333,
      "Ġ1": 334,
      "Ġma": 335,
      "ĠO": 336,
      "ĠT": 337,
      "ica": 338,
      "ida": 339,
      "res": 340,
      "ĠR": 341,
      "Ġ2": 342,
      "ve": 343,
      "ndo": 344,
      "ce": 345,
      "Ġ(": 346,
      "us": 347,
      "Ġt": 348,
      "gu": 349,
      "so": 350,
      "ĠN": 351,
      "li": 352,
      "pe": 353,
      "Ġin": 354,
      "Ġpara": 355,
      "va": 356,
      "ga": 357,
      "ĠF": 358,
      "ĠB": 359,
      "Ġ\"": 360,
      "ĠI": 361,
      "Ġb": 362,
      "Ġi": 363,
      "ho": 364,
      "co": 365,
      "mo": 366,
      "se": 367,
      "Ġum": 368,
      "Ġpro": 369,
      "si": 370,
      "sa": 371,
      "mento": 372,
      "Ġpe": 373,
      "ĠL": 374,
      "Ġte": 375,
      "00": 376,
      "cu": 377,
      "po": 378,
      "go": 379,
      "Ġpo": 380,
      "dos": 381,
      "Ġpor": 382,
      "ca": 383,
      "em": 384,
      "Ġme": 385,
      "Ġas": 386,
      "Ġuma": 387,
      "no": 388,
      "nta": 389,
      "mente": 390,
      "ci": 391,
      "ncia": 392,
      "..": 393,
      "Ġsu": 394,
      "Ġso": 395,
      "nal": 396,
      "ei": 397,
      "Ġfo": 398,
      "ĠV": 399,
      "di": 400,
      "Ġj": 401,
      "Ġex": 402,
      "ria": 403,
      "il": 404,
      "Ġesta": 405,
      "Ġca": 406,
      "âĢ": 407,
      "vo": 408,
      "Ġdi": 409,
      "pa": 410,
      "Ġos": 411,
      "tra": 412,
      "ĠG": 413,
      "be": 414,
      "gra": 415,
      "ico": 416,
      "he": 417,
      "idade": 418,
      "Ġou": 419,
      "ĠCo": 420,
      "ĠJ": 421,
      "ni": 422,
      "nde": 423,
      "Ġfa": 424,
      "ge": 425,
      "Ġ-": 426,
      "ru": 427,
      "mi": 428,
      "gi": 429,
      "ne": 430,
      "rio": 431,
      "Ġvo": 432,
      "Ġcon": 433,
      "ul": 434,
      "Ġcomo": 435,
      "Ġser": 436,
      "za": 437,
      "ira": 438,
      "Ġdes": 439,
      "ntes": 440,
      "tos": 441,
      "Ġta": 442,
      "mos": 443,
      "ui": 444,
      "mp": 445,
      "ĠEs": 446,
      "ĠRe": 447,
      "Ġfoi": 448,
      "Ġdos": 449,
      "Ġpa": 450,
      "tro": 451,
      "Ġao": 452,
      "que": 453,
      "Ġ19": 454,
      "vi": 455,
      "ÌĢ": 456,
      "ĠNa": 457,
      "fe": 458,
      "ĠH": 459,
      "nd": 460,
      "ver": 461,
      "Ġsa": 462,
      "ral": 463,
      "cio": 464,
      "nda": 465,
      "Ġele": 466,
      "01": 467,
      "ĠâĢ": 468,
      "tal": 469,
      "200": 470,
      "Ġac": 471,
      "Ġpre": 472,
      "lu": 473,
      "rasi": 474,
      "ter": 475,
      "ir": 476,
      "ou": 477,
      "ĠSe": 478,
      "Ġcons": 479,
      "bu": 480,
      "ista": 481,
      "Ġar": 482,
      "RA": 483,
      "Ġtra": 484,
      "Ġmais": 485,
      "titu": 486,
      "du": 487,
      "ĠU": 488,
      "Ġh": 489,
      "...": 490,
      "cia": 491,
      "ram": 492,
      "bl": 493,
      "das": 494,
      "Ġper": 495,
      "Ġto": 496,
      "Ġsob": 497,
      "isa": 498,
      "Ġal": 499,
      "tor": 500,
      "mb": 501,
      "Ġve": 502,
      "ros": 503,
      "Ġdis": 504,
      "Ġcont": 505,
      "Ġpar": 506,
      "Ġpode": 507,
      "Ġter": 508,
      "orma": 509,
      "ĠSu": 510,
      "qui": 511,
      "pre": 512,
      "Ġmo": 513,
      "nos": 514,
      "Ġ3": 515,
      "nas": 516,
      "Ġsua": 517,
      "iro": 518,
      "Ġsi": 519,
      "tura": 520,
      "ĠPa": 521,
      "Ġtem": 522,
      "Ġle": 523,
      "ĠCa": 524,
      "ĠSa": 525,
      "tic": 526,
      "Ġqua": 527,
      "ita": 528,
      "ment": 529,
      "Ġdas": 530,
      "el": 531,
      "Ġli": 532,
      "ribu": 533,
      "ĠMa": 534,
      "ero": 535,
      "pos": 536,
      "ur": 537,
      "pres": 538,
      "Ġnu": 539,
      "Ġva": 540,
      "inha": 541,
      "Ġseu": 542,
      "dor": 543,
      "nter": 544,
      "EN": 545,
      "ja": 546,
      "esso": 547,
      "Ġla": 548,
      "\",": 549,
      "Ġha": 550,
      "__": 551,
      "Ġvoce": 552,
      "Ġpela": 553,
      "ba": 554,
      "RE": 555,
      "Ġres": 556,
      "un": 557,
      "Ġnos": 558,
      "tru": 559,
      "Ġ201": 560,
      "por": 561,
      "Ġent": 562,
      "ĠDe": 563,
      "mbe": 564,
      "rac": 565,
      "Ġins": 566,
      "Ġsegu": 567,
      "ede": 568,
      "vel": 569,
      "fere": 570,
      "ĠW": 571,
      "bo": 572,
      "ito": 573,
      "des": 574,
      "ula": 575,
      "Ġpelo": 576,
      "Ġfi": 577,
      "rime": 578,
      "inis": 579,
      "ĠQ": 580,
      "Ġeu": 581,
      ").": 582,
      "nti": 583,
      "Ġg": 584,
      "ww": 585,
      "cumento": 586,
      "Ġpos": 587,
      "ĠDE": 588,
      "ĠBrasi": 589,
      "RI": 590,
      "TO": 591,
      "ĠNo": 592,
      "essa": 593,
      "ĠĠ": 594,
      "Ġne": 595,
      "les": 596,
      "ide": 597,
      "Ġconf": 598,
      "Ġmas": 599,
      "ribunal": 600,
      "ber": 601,
      "fica": 602,
      "Ġtambe": 603,
      "Ġfu": 604,
      "Ġ200": 605,
      "Ġis": 606,
      "ĠTribunal": 607,
      "ederal": 608,
      "Ġor": 609,
      "dic": 610,
      "tar": 611,
      "ie": 612,
      "Ġcas": 613,
      "2001": 614,
      "ĠEu": 615,
      "ĠEsta": 616,
      "),": 617,
      "rec": 618,
      "ix": 619,
      "ior": 620,
      "ST": 621,
      "ves": 622,
      "Ġ4": 623,
      "ĠEm": 624,
      "Ġmes": 625,
      "nado": 626,
      "tas": 627,
      "RO": 628,
      "Ġpres": 629,
      "Ġob": 630,
      "Ġho": 631,
      "Ġlo": 632,
      "IN": 633,
      "ĠFederal": 634,
      "Ġassi": 635,
      "Ġ5": 636,
      "icas": 637,
      "je": 638,
      "nha": 639,
      "iste": 640,
      "rin": 641,
      "Ġba": 642,
      "ĠVo": 643,
      "nsa": 644,
      "Ġau": 645,
      "Ġen": 646,
      "ias": 647,
      "orre": 648,
      "nh": 649,
      "Ġgra": 650,
      "ras": 651,
      "Ġ:": 652,
      "ĠQu": 653,
      "Ġmui": 654,
      "Ġti": 655,
      "tt": 656,
      "Ġver": 657,
      "Ġsobre": 658,
      "Ġfaz": 659,
      "tica": 660,
      "gos": 661,
      "cional": 662,
      "Ġja": 663,
      "Ġentre": 664,
      "nico": 665,
      "tes": 666,
      "nho": 667,
      "las": 668,
      "Ġl": 669,
      "dia": 670,
      "Ġmu": 671,
      "ac": 672,
      "Ġdec": 673,
      "tiva": 674,
      "Ġvi": 675,
      "Ġimp": 676,
      "ali": 677,
      "ĠK": 678,
      "ncias": 679,
      "los": 680,
      "gem": 681,
      "Ġate": 682,
      "Ġespe": 683,
      "Ġdu": 684,
      "Ġisso": 685,
      "ĠIn": 686,
      "per": 687,
      "ĠPor": 688,
      "ial": 689,
      "Ġcontra": 690,
      "ĠâĢĵ": 691,
      "der": 692,
      "mas": 693,
      "DO": 694,
      "Ġprime": 695,
      "tou": 696,
      "Ġra": 697,
      "tiv": 698,
      "gar": 699,
      "Ġge": 700,
      "ĠSupre": 701,
      "ĠTe": 702,
      "im": 703,
      "on": 704,
      "dade": 705,
      "lh": 706,
      "au": 707,
      "rar": 708,
      "gia": 709,
      "ranc": 710,
      "min": 711,
      "mpe": 712,
      "orte": 713,
      "Ġpu": 714,
      "rios": 715,
      "\".": 716,
      "ĠSupremo": 717,
      "st": 718,
      "ĠMe": 719,
      "ĠPu": 720,
      "Ġbo": 721,
      "ĠMar": 722,
      "fic": 723,
      "bal": 724,
      "pu": 725,
      "mentos": 726,
      "Ġ6": 727,
      "Ġinter": 728,
      "mero": 729,
      "CI": 730,
      "eiro": 731,
      "tros": 732,
      "08": 733,
      "//": 734,
      "bi": 735,
      "Ġqual": 736,
      "ttp": 737,
      "://": 738,
      "Ġ7": 739,
      "ĠAs": 740,
      "Ġinf": 741,
      "Ġpra": 742,
      "AL": 743,
      "Ġhttp": 744,
      "an": 745,
      "esta": 746,
      "Ġforma": 747,
      "ĠPe": 748,
      "orme": 749,
      "ino": 750,
      "lac": 751,
      "tivo": 752,
      "Ġ8": 753,
      "via": 754,
      "ĠPo": 755,
      "pi": 756,
      "gue": 757,
      "leira": 758,
      "lia": 759,
      "ĠLi": 760,
      "Ġanos": 761,
      "titui": 762,
      "br": 763,
      "ĠRE": 764,
      "Ġbem": 765,
      "Ġconc": 766,
      "Ġ24": 767,
      "Ġpas": 768,
      "isto": 769,
      "OR": 770,
      "ON": 771,
      "cur": 772,
      "Ġfor": 773,
      "inda": 774,
      "pro": 775,
      "lha": 776,
      "ĠCha": 777,
      "prese": 778,
      "19": 779,
      "Ġfil": 780,
      "Ġdia": 781,
      "Ġce": 782,
      "ĠMinis": 783,
      "zo": 784,
      "Ġenc": 785,
      "Ġcar": 786,
      "gac": 787,
      "ĠVoce": 788,
      "Ġmuito": 789,
      "lar": 790,
      "Ġfe": 791,
      "tado": 792,
      "Ġcor": 793,
      "ine": 794,
      "ĠRo": 795,
      "Ġquando": 796,
      "mina": 797,
      "trutura": 798,
      "Ġ9": 799,
      "201": 800,
      "ch": 801,
      "blica": 802,
      "rado": 803,
      "TE": 804,
      "Ġdire": 805,
      "Ġeletro": 806,
      "jus": 807,
      "Ġconforme": 808,
      "Ġad": 809,
      "ĠAl": 810,
      "DE": 811,
      "DA": 812,
      "ĠSo": 813,
      "Ġera": 814,
      "ĠEle": 815,
      "ĠInf": 816,
      "Ġjo": 817,
      "Â°": 818,
      "tent": 819,
      "ado": 820,
      "LA": 821,
      "Ġvez": 822,
      "Ġmesmo": 823,
      "Ġ18": 824,
      "Ġnas": 825,
      "Ġju": 826,
      "idades": 827,
      "menta": 828,
      "ing": 829,
      "âĢĿ": 830,
      "Ġlu": 831,
      "su": 832,
      "Ġinte": 833,
      "ju": 834,
      "rem": 835,
      "ĠOs": 836,
      "indo": 837,
      "cre": 838,
      ".(": 839,
      "Ġtempo": 840,
      "nia": 841,
      "Ġcer": 842,
      "ase": 843,
      "ocumento": 844,
      "Ġpesso": 845,
      "nu": 846,
      "cial": 847,
      "tac": 848,
      "tri": 849,
      "Ġtu": 850,
      "Ġdigi": 851,
      "autent": 852,
      "ĠBrasileira": 853,
      "ĠPro": 854,
      "talmente": 855,
      "www": 856,
      "zac": 857,
      "Ġaco": 858,
      "rinci": 859,
      "blicas": 860,
      "Brasi": 861,
      "Ġcha": 862,
      "Ġende": 863,
      "cie": 864,
      "bri": 865,
      "dio": 866,
      "Ġinc": 867,
      "gado": 868,
      "Ġenderec": 869,
      "Ġrecur": 870,
      "ĠFo": 871,
      "estrutura": 872,
      "gina": 873,
      "Ġalgu": 874,
      "CP": 875,
      "ĠJo": 876,
      "Ġjul": 877,
      "Ġtrabal": 878,
      "Ġro": 879,
      "):": 880,
      "Ġseus": 881,
      "Ġassinado": 882,
      "Ġapo": 883,
      "ĠMP": 884,
      "nstitu": 885,
      "tre": 886,
      "Ġinstitui": 887,
      "Ġpai": 888,
      "en": 889,
      "fi": 890,
      "Brasil": 891,
      "ĠDO": 892,
      "ĠVa": 893,
      "nce": 894,
      "essado": 895,
      "cao": 896,
      "rada": 897,
      "AR": 898,
      "stf": 899,
      "Ġprinci": 900,
      "Ġdigitalmente": 901,
      "ĠInfra": 902,
      "Ġdiz": 903,
      "ĠChaves": 904,
      "Ġela": 905,
      "Ġaos": 906,
      "Ġconhe": 907,
      "Ġagra": 908,
      "Ġforam": 909,
      "portal": 910,
      "Ġacessado": 911,
      "____": 912,
      "Ġgo": 913,
      "icacao": 914,
      "Ġ10": 915,
      "autenticacao": 916,
      "ĠICP": 917,
      "iso": 918,
      "Ġaqui": 919,
      "Ġmar": 920,
      "ĠLe": 921,
      "Ġsub": 922,
      "documento": 923,
      "Ġainda": 924,
      "ĠMas": 925,
      "ĠRefere": 926,
      "fei": 927,
      "ĠTo": 928,
      "fo": 929,
      "usa": 930,
      "bil": 931,
      "presenta": 932,
      "ĠBo": 933,
      "rda": 934,
      "Ġape": 935,
      "ĠOdocumento": 936,
      "Ġga": 937,
      "LI": 938,
      "ntro": 939,
      "rece": 940,
      "Ġcome": 941,
      "ĠMo": 942,
      "Ġtor": 943,
      "cal": 944,
      "Ġparte": 945,
      "ntos": 946,
      "Ġart": 947,
      "esa": 948,
      "TA": 949,
      "quer": 950,
      "Ġdeve": 951,
      "mer": 952,
      "Ġarti": 953,
      "Ġrece": 954,
      "Ġcria": 955,
      "Ġsem": 956,
      "iona": 957,
      "ess": 958,
      "ina": 959,
      "Ġprodu": 960,
      "lica": 961,
      "Ġcomp": 962,
      "Ġ/": 963,
      "rie": 964,
      "ĠAr": 965,
      "um": 966,
      "vol": 967,
      "Ġche": 968,
      "ĠBa": 969,
      "Ġrela": 970,
      "Ġdese": 971,
      "mar": 972,
      "rante": 973,
      "Ìģ,": 974,
      "Ġ199": 975,
      "Ġonde": 976,
      "rias": 977,
      "ĠLo": 978,
      "aram": 979,
      "xa": 980,
      "cesso": 981,
      "Ġale": 982,
      "SO": 983,
      "ĠUni": 984,
      "gora": 985,
      "Ġcu": 986,
      "icos": 987,
      "Ġano": 988,
      "ĠInfraestrutura": 989,
      "xi": 990,
      "ciona": 991,
      "ĠJa": 992,
      "pois": 993,
      "MEN": 994,
      "Ġaf": 995,
      "ĠAG": 996,
      "gis": 997,
      "idas": 998,
      "vimento": 999,
      "ĠCar": 1000,
      "gal": 1001,
      "ĠPara": 1002,
      "Ġprec": 1003,
      "dica": 1004,
      "ndi": 1005,
      "ĠCom": 1006,
      "Ġeste": 1007,
      "pal": 1008,
      "Ġfazer": 1009,
      "ĠMIN": 1010,
      "ki": 1011,
      "qua": 1012,
      "fer": 1013,
      "Ġnome": 1014,
      "ĠâĢľ": 1015,
      "Ġenta": 1016,
      "vers": 1017,
      "ĠBrasil": 1018,
      "mes": 1019,
      "mbro": 1020,
      "Ġtrans": 1021,
      "pac": 1022,
      "Ġmaior": 1023,
      "Ġparti": 1024,
      "th": 1025,
      "Ġmeu": 1026,
      "vido": 1027,
      "ES": 1028,
      "Ġir": 1029,
      "AS": 1030,
      "Ġenco": 1031,
      "bro": 1032,
      "Ġap": 1033,
      "istas": 1034,
      "gua": 1035,
      "UR": 1036,
      "Ġ11": 1037,
      "bilidade": 1038,
      "Ġvai": 1039,
      "ze": 1040,
      "este": 1041,
      "IST": 1042,
      "Ġdecisa": 1043,
      "Ġtodos": 1044,
      "aliza": 1045,
      "ĠTur": 1046,
      "Ġrec": 1047,
      "Ġrecurso": 1048,
      "Ġoutra": 1049,
      "ĠX": 1050,
      "fa": 1051,
      "Ġdois": 1052,
      "erra": 1053,
      "ĠâĢ¢": 1054,
      "ĠĠĠĠ": 1055,
      "Ġtre": 1056,
      "aria": 1057,
      "ĠIs": 1058,
      "ris": 1059,
      "mula": 1060,
      "Ġpla": 1061,
      "Ġ12": 1062,
      "Ġsegui": 1063,
      "ĠFa": 1064,
      "OS": 1065,
      "Ìģ-": 1066,
      "Ġapenas": 1067,
      "cri": 1068,
      "Ġvol": 1069,
      "ĠLa": 1070,
      "cer": 1071,
      "ER": 1072,
      "fia": 1073,
      "AN": 1074,
      "dina": 1075,
      "liza": 1076,
      "ses": 1077,
      "Ġprimeiro": 1078,
      "ĠGe": 1079,
      "Ġcaso": 1080,
      "ĠEx": 1081,
      "ĠDa": 1082,
      "ulo": 1083,
      "ĠTa": 1084,
      "Ġestava": 1085,
      "Ġpoli": 1086,
      "Ġregi": 1087,
      "Ġ0": 1088,
      "inh": 1089,
      "Ġ20": 1090,
      "Ġfunda": 1091,
      "Ġcidade": 1092,
      "dem": 1093,
      "ĠCh": 1094,
      "ando": 1095,
      "Ġseja": 1096,
      "UT": 1097,
      "ici": 1098,
      "Ġmil": 1099,
      "Ġassim": 1100,
      "Ġsuas": 1101,
      "ona": 1102,
      "Ġminha": 1103,
      "icar": 1104,
      "Ġprimeira": 1105,
      "Ġoutros": 1106,
      "pula": 1107,
      "mental": 1108,
      "ĠHa": 1109,
      "Ġextra": 1110,
      "Ġsendo": 1111,
      "orta": 1112,
      "Ġ15": 1113,
      "IC": 1114,
      "tico": 1115,
      "ido": 1116,
      "Ġconse": 1117,
      "Documento": 1118,
      "ĠDi": 1119,
      "Ġatra": 1120,
      "ente": 1121,
      "inu": 1122,
      "idente": 1123,
      "Ġdeix": 1124,
      "ite": 1125,
      "Ġexter": 1126,
      "rea": 1127,
      "cido": 1128,
      "vas": 1129,
      "Ġmi": 1130,
      "ĠDA": 1131,
      "eira": 1132,
      "jo": 1133,
      "uma": 1134,
      "ĠMinistro": 1135,
      "nio": 1136,
      "Ġpoder": 1137,
      "Ġcri": 1138,
      "Ġatu": 1139,
      "VO": 1140,
      "Ġesco": 1141,
      "20": 1142,
      "nica": 1143,
      "Ġori": 1144,
      "ismo": 1145,
      "Ġpartic": 1146,
      "Ġoc": 1147,
      "ĠAle": 1148,
      "Ġesse": 1149,
      "ĠVer": 1150,
      "ĠPres": 1151,
      "ĠIN": 1152,
      "Ġquer": 1153,
      "val": 1154,
      "nder": 1155,
      "ĠZ": 1156,
      "ĠTurma": 1157,
      "minis": 1158,
      "Ġdisse": 1159,
      "AG": 1160,
      "osa": 1161,
      "II": 1162,
      "Ġdesta": 1163,
      "ĠRa": 1164,
      "Ġdef": 1165,
      "ntu": 1166,
      "ntar": 1167,
      "ĠRela": 1168,
      "ĠHo": 1169,
      "lho": 1170,
      "Ġdepois": 1171,
      "cimento": 1172,
      "Ġequi": 1173,
      "nca": 1174,
      "veis": 1175,
      "ĠDes": 1176,
      "Ġgover": 1177,
      "lti": 1178,
      "ĠNe": 1179,
      "Ġencont": 1180,
      "Ġ198": 1181,
      "Ġempres": 1182,
      "car": 1183,
      "MA": 1184,
      "cus": 1185,
      "tin": 1186,
      "Ġsera": 1187,
      "TRA": 1188,
      "ĠLu": 1189,
      "vic": 1190,
      "ĠAco": 1191,
      "Ġab": 1192,
      "Ġlanc": 1193,
      "ck": 1194,
      "ng": 1195,
      "EI": 1196,
      "Ġ:(": 1197,
      "ĠGo": 1198,
      "Ġartigo": 1199,
      "ĠGu": 1200,
      "gor": 1201,
      "ĠPaulo": 1202,
      "dores": 1203,
      "Ġbe": 1204,
      "mpa": 1205,
      "Ġ17": 1206,
      "Ġcasa": 1207,
      "gou": 1208,
      "ric": 1209,
      "Ġide": 1210,
      "Ġcomec": 1211,
      "Ġreco": 1212,
      "Ġval": 1213,
      "Ġgrande": 1214,
      "Ìģ.": 1215,
      "Ġcara": 1216,
      "ĠInte": 1217,
      "ĠTra": 1218,
      "ĠBe": 1219,
      "ministra": 1220,
      "rou": 1221,
      "plo": 1222,
      "ĠLei": 1223,
      "ĠTeor": 1224,
      "almente": 1225,
      "Ġpessoas": 1226,
      "ional": 1227,
      "ĠSegu": 1228,
      "ĠCON": 1229,
      "tamente": 1230,
      "Ġpassa": 1231,
      "RIO": 1232,
      "ĠComo": 1233,
      "issa": 1234,
      "rica": 1235,
      "iu": 1236,
      "ĠGra": 1237,
      "Ġestu": 1238,
      "ordo": 1239,
      "gre": 1240,
      "Ġ@": 1241,
      "ble": 1242,
      "Ġfinal": 1243,
      "Ġessa": 1244,
      "sos": 1245,
      "sas": 1246,
      "ice": 1247,
      "Ġ16": 1248,
      "Ġhisto": 1249,
      "Ġeles": 1250,
      "Ġconside": 1251,
      "ceu": 1252,
      "nhor": 1253,
      "ĠSim": 1254,
      "ĠY": 1255,
      "merica": 1256,
      "Ġobje": 1257,
      "cha": 1258,
      "ordina": 1259,
      "Ġconta": 1260,
      "Ġqualquer": 1261,
      "Ġfunc": 1262,
      "Ġsiste": 1263,
      "culo": 1264,
      "ĠVe": 1265,
      "gamento": 1266,
      "cul": 1267,
      "lhor": 1268,
      "ĠPar": 1269,
      "Ġagora": 1270,
      "Ġdurante": 1271,
      "tivos": 1272,
      "UN": 1273,
      "Ġfei": 1274,
      "nse": 1275,
      "mpre": 1276,
      "Ġmelhor": 1277,
      "tados": 1278,
      "Ġgru": 1279,
      "Ġtinha": 1280,
      "Ġagravo": 1281,
      "ĠDo": 1282,
      "Ġcolo": 1283,
      "Ġnec": 1284,
      "Ġantes": 1285,
      "Ġporque": 1286,
      "Ġtudo": 1287,
      "grafia": 1288,
      "ĠFu": 1289,
      "Ġprof": 1290,
      "cussa": 1291,
      "Ġ14": 1292,
      "Ġk": 1293,
      "ticas": 1294,
      "Ġ13": 1295,
      "Ġtrabalho": 1296,
      "tada": 1297,
      "ĠLigac": 1298,
      "ĠUm": 1299,
      "Ġbrasi": 1300,
      "ada": 1301,
      "ĠJu": 1302,
      "Ġimporta": 1303,
      "Ġof": 1304,
      "Ġpou": 1305,
      "Ġvida": 1306,
      "Ġexternas": 1307,
      "unici": 1308,
      "blico": 1309,
      "Ġchama": 1310,
      "zar": 1311,
      "Ġpartici": 1312,
      "erva": 1313,
      "Ġpopula": 1314,
      "Ġgu": 1315,
      "Ġesti": 1316,
      "ĠCe": 1317,
      "bita": 1318,
      "ais": 1319,
      "ĠFi": 1320,
      "ĠPre": 1321,
      "hi": 1322,
      "ĠConstitu": 1323,
      "vos": 1324,
      "Ġliv": 1325,
      "dido": 1326,
      "use": 1327,
      "pio": 1328,
      "reira": 1329,
      "Ġci": 1330,
      "ĠDJ": 1331,
      "Ġente": 1332,
      "Ġsido": 1333,
      "gada": 1334,
      "Ġinic": 1335,
      "ROC": 1336,
      "nhe": 1337,
      "rei": 1338,
      "Ġsenti": 1339,
      "esse": 1340,
      "nar": 1341,
      "Ġautor": 1342,
      "ĠBar": 1343,
      "CIA": 1344,
      "Ġextraordina": 1345,
      "Ġmundo": 1346,
      "mais": 1347,
      "xo": 1348,
      "Ġmul": 1349,
      "ĠOu": 1350,
      "ĠMin": 1351,
      "Ġregimental": 1352,
      "Ġsegundo": 1353,
      "10": 1354,
      "ficac": 1355,
      "posta": 1356,
      "Ġprincipal": 1357,
      "ĠCas": 1358,
      "ĠÂ": 1359,
      "mou": 1360,
      "lis": 1361,
      "Ġusa": 1362,
      "ĠInteiro": 1363,
      "gens": 1364,
      "sica": 1365,
      "ĠFoi": 1366,
      "Ġconstitu": 1367,
      "vida": 1368,
      "Ġpossi": 1369,
      "Ġapresenta": 1370,
      "Ġ197": 1371,
      "Ġinforma": 1372,
      "ĠRio": 1373,
      "iros": 1374,
      "ĠMi": 1375,
      "ĠSi": 1376,
      "hos": 1377,
      "ĠEstado": 1378,
      "ĠIsso": 1379,
      "ĠMu": 1380,
      "visa": 1381,
      "11": 1382,
      "ndes": 1383,
      "ĠCO": 1384,
      "Ġapa": 1385,
      "inho": 1386,
      "VI": 1387,
      "Ġimpe": 1388,
      "ke": 1389,
      "Ġpri": 1390,
      "Ġprocesso": 1391,
      "Ġseria": 1392,
      "Ġaca": 1393,
      "Ġhome": 1394,
      "AC": 1395,
      "Ġnova": 1396,
      "Ġnovo": 1397,
      "Ġduas": 1398,
      "UTC": 1399,
      "Ġconte": 1400,
      "Ġaju": 1401,
      "ĠTem": 1402,
      "Ġfal": 1403,
      "ĠFranc": 1404,
      "logia": 1405,
      "Ġdesde": 1406,
      "Ġsistema": 1407,
      "son": 1408,
      "EG": 1409,
      "Ġperi": 1410,
      "var": 1411,
      "sar": 1412,
      "Ġoutro": 1413,
      "Ġdifere": 1414,
      "par": 1415,
      "LATO": 1416,
      "ĠVamos": 1417,
      "quanto": 1418,
      "nou": 1419,
      "nso": 1420,
      "Ġcompe": 1421,
      "ĠDu": 1422,
      "cado": 1423,
      "Ġref": 1424,
      "mpo": 1425,
      "Ġfre": 1426,
      "12": 1427,
      "Ġbase": 1428,
      "dro": 1429,
      "Ġcada": 1430,
      "ĠQue": 1431,
      "Ġuti": 1432,
      "gas": 1433,
      "18": 1434,
      "EL": 1435,
      "ÌĪ": 1436,
      "ĠPer": 1437,
      "Ġexiste": 1438,
      "ĠConstituic": 1439,
      "osta": 1440,
      "Ġ...": 1441,
      "nge": 1442,
      "Ġhabita": 1443,
      "rito": 1444,
      "ĠGa": 1445,
      "Ġapro": 1446,
      "Ġdireito": 1447,
      "duz": 1448,
      "RAL": 1449,
      "posto": 1450,
      "ĠREC": 1451,
      "dar": 1452,
      "bol": 1453,
      "ĠâĢĶ": 1454,
      "irma": 1455,
      "RAVO": 1456,
      "lui": 1457,
      "rando": 1458,
      "lus": 1459,
      "Ġoutras": 1460,
      "Ġlugar": 1461,
      "ntou": 1462,
      "vil": 1463,
      "tegor": 1464,
      "Ġtodo": 1465,
      "SA": 1466,
      "CO": 1467,
      "ustic": 1468,
      "cos": 1469,
      "ĠNO": 1470,
      "ty": 1471,
      "Ġpelos": 1472,
      "Ġdesen": 1473,
      "Ġrespo": 1474,
      "Ġdias": 1475,
      "lio": 1476,
      "vor": 1477,
      "Ġdesco": 1478,
      "ose": 1479,
      "Ġfami": 1480,
      "Ġmeio": 1481,
      "ĠMINIST": 1482,
      "bar": 1483,
      "ton": 1484,
      ".\"": 1485,
      "Ġaplica": 1486,
      "ts": 1487,
      "leiro": 1488,
      "grama": 1489,
      "Ġservic": 1490,
      "tora": 1491,
      "tores": 1492,
      "Ġcoisa": 1493,
      "Ġnorma": 1494,
      "tido": 1495,
      "Ġdesenvol": 1496,
      "ĠAu": 1497,
      "Ġsempre": 1498,
      "Ġdecla": 1499,
      "Ġlei": 1500,
      "ĠSEN": 1501,
      "ĠEX": 1502,
      "pec": 1503,
      "DI": 1504,
      "Ġ.": 1505,
      "Ġ196": 1506,
      "Ġquem": 1507,
      "13": 1508,
      "cono": 1509,
      "Ġpes": 1510,
      "ry": 1511,
      "ĠRepu": 1512,
      "Ġami": 1513,
      "TI": 1514,
      "cra": 1515,
      "ĠEla": 1516,
      "Ġexe": 1517,
      "para": 1518,
      "Ġocorre": 1519,
      "Ġproje": 1520,
      "Ġcla": 1521,
      "ig": 1522,
      "Ġestou": 1523,
      "ĠFederalDocumento": 1524,
      "Ġaconte": 1525,
      "Ġgoverno": 1526,
      "vam": 1527,
      "Ġnada": 1528,
      "Ġgeral": 1529,
      "Ġvia": 1530,
      "gio": 1531,
      "man": 1532,
      "Ġsus": 1533,
      "ly": 1534,
      "Ġsuper": 1535,
      "URSO": 1536,
      "Ġtermos": 1537,
      "Ġdizer": 1538,
      "ĠAc": 1539,
      "ĠCons": 1540,
      "Ġru": 1541,
      "cide": 1542,
      "Ġabri": 1543,
      "tando": 1544,
      "Ġproble": 1545,
      "Ġacordo": 1546,
      "Ġsei": 1547,
      "Ġmenos": 1548,
      "Ġcul": 1549,
      "har": 1550,
      "Ġvou": 1551,
      "Ġcomple": 1552,
      "Ġverdade": 1553,
      "oso": 1554,
      "itos": 1555,
      "Ġfez": 1556,
      "ĠSENH": 1557,
      "SP": 1558,
      "Ġindi": 1559,
      "ĠAd": 1560,
      "Ġpartir": 1561,
      "Ġobs": 1562,
      "gni": 1563,
      "Ġdez": 1564,
      "mia": 1565,
      "Ġsentido": 1566,
      "ĠDocumento": 1567,
      "tivas": 1568,
      "Ġgrupo": 1569,
      "Ġcontro": 1570,
      "Ġconsegu": 1571,
      "ls": 1572,
      "MENTO": 1573,
      "lec": 1574,
      "ĠWi": 1575,
      "endo": 1576,
      "Ġmaio": 1577,
      "MP": 1578,
      "Ġsubs": 1579,
      "lic": 1580,
      "Ġmos": 1581,
      "Ġconstru": 1582,
      "ka": 1583,
      "Ġexa": 1584,
      "nco": 1585,
      "pes": 1586,
      "Ġ(\"": 1587,
      "RELATO": 1588,
      "Ġlocal": 1589,
      "cada": 1590,
      "Ġtal": 1591,
      "Ġanti": 1592,
      "creta": 1593,
      "INA": 1594,
      "Ġrepresenta": 1595,
      "Ġpodem": 1596,
      "Ġrelac": 1597,
      "Ġdemo": 1598,
      "Ġini": 1599,
      "dis": 1600,
      "pera": 1601,
      "Ġempresa": 1602,
      "pas": 1603,
      "ques": 1604,
      "ĠJustic": 1605,
      "tante": 1606,
      "ixa": 1607,
      "her": 1608,
      "dida": 1609,
      "gani": 1610,
      "Ġofic": 1611,
      "bre": 1612,
      "pende": 1613,
      "tir": 1614,
      "Ġvezes": 1615,
      "Ġ28": 1616,
      "icou": 1617,
      "Ġedi": 1618,
      "US": 1619,
      "Ġ27": 1620,
      "Ġhabitantes": 1621,
      "posic": 1622,
      "Ġdeste": 1623,
      "IS": 1624,
      "Ġsou": 1625,
      "ixo": 1626,
      "Ġprecisa": 1627,
      "berto": 1628,
      "uris": 1629,
      "quis": 1630,
      "ĠAGRAVO": 1631,
      "orri": 1632,
      "Ġbom": 1633,
      "Ġdisso": 1634,
      "Ġali": 1635,
      "ĠRelator": 1636,
      "feito": 1637,
      "Ġing": 1638,
      "ĠEnta": 1639,
      "Ġfavor": 1640,
      "ĠSenhor": 1641,
      "Ġsete": 1642,
      "ĠVi": 1643,
      "Ġtro": 1644,
      "TU": 1645,
      "fre": 1646,
      "bora": 1647,
      "ĠPrime": 1648,
      "Ġpois": 1649,
      "Ġespecial": 1650,
      "50": 1651,
      "wa": 1652,
      "Ġresul": 1653,
      "ĠJoa": 1654,
      "Ġsitu": 1655,
      "Ġteve": 1656,
      "Ġaque": 1657,
      "Ġmim": 1658,
      "ĠInter": 1659,
      "ĠUma": 1660,
      "mor": 1661,
      "luc": 1662,
      "Ġexi": 1663,
      "Ġthe": 1664,
      "Co": 1665,
      "ĠMINISTRO": 1666,
      "Ġfica": 1667,
      "Ġestra": 1668,
      "Ġpouco": 1669,
      "Ġescri": 1670,
      "ntas": 1671,
      "sou": 1672,
      "iam": 1673,
      "ĠOr": 1674,
      "lado": 1675,
      "vis": 1676,
      "vada": 1677,
      "iss": 1678,
      "Ġtenho": 1679,
      "cas": 1680,
      "Ġinteres": 1681,
      "Ġquanto": 1682,
      "17": 1683,
      "Ġproc": 1684,
      "bra": 1685,
      "ĠEstados": 1686,
      "xto": 1687,
      "Ġfilme": 1688,
      "Ġeve": 1689,
      "Ġnove": 1690,
      "Ġinformac": 1691,
      "Ġinde": 1692,
      "Ġvoto": 1693,
      "ADO": 1694,
      "cionais": 1695,
      "ĠCorte": 1696,
      "Ġprovimento": 1697,
      "ticos": 1698,
      "Ġcorre": 1699,
      "ĠII": 1700,
      "Ġfim": 1701,
      "ĠPortu": 1702,
      "ÌĤ?": 1703,
      "Ġestre": 1704,
      "Ġmunici": 1705,
      "Ġcontinu": 1706,
      "ĠSer": 1707,
      "tamento": 1708,
      "Ġvolta": 1709,
      "ĠThe": 1710,
      "ĠÂ§": 1711,
      "vista": 1712,
      "ĠSENHOR": 1713,
      "Ġpena": 1714,
      "Ġnem": 1715,
      "Ġhi": 1716,
      "Ġpresidente": 1717,
      "Ġrefere": 1718,
      "Ġexem": 1719,
      "Ġvalor": 1720,
      "iais": 1721,
      "Ġordem": 1722,
      "Ġrealiza": 1723,
      "Ġjulgamento": 1724,
      "Ġalguns": 1725,
      "tebol": 1726,
      "ntre": 1727,
      "lbu": 1728,
      "SI": 1729,
      "nac": 1730,
      "Ġhavia": 1731,
      "dra": 1732,
      "ĠTu": 1733,
      "Ġpeque": 1734,
      "ĠRECURSO": 1735,
      "Ġtendo": 1736,
      "Ġjuris": 1737,
      "Ġhoje": 1738,
      "am": 1739,
      "Ġkm": 1740,
      "odo": 1741,
      "for": 1742,
      "mpeona": 1743,
      "________": 1744,
      "uiz": 1745,
      "Ġ30": 1746,
      "tion": 1747,
      "ĠDis": 1748,
      "embro": 1749,
      "ini": 1750,
      "ĠJose": 1751,
      "Ġamb": 1752,
      "Ġdeter": 1753,
      "unho": 1754,
      "Ġclas": 1755,
      "15": 1756,
      "tulo": 1757,
      "Ġass": 1758,
      "Ġtenha": 1759,
      "sui": 1760,
      "ngo": 1761,
      "vesti": 1762,
      "ĠAD": 1763,
      "Ġata": 1764,
      "\")": 1765,
      "Ġcomun": 1766,
      "Ġadministra": 1767,
      "Ġestado": 1768,
      "Ġvis": 1769,
      "duc": 1770,
      "Ġcausa": 1771,
      "UI": 1772,
      "Ġlegal": 1773,
      "Ġpresente": 1774,
      "Ġalgo": 1775,
      "ĠST": 1776,
      "âĢĻ": 1777,
      "ficie": 1778,
      "tio": 1779,
      "Ġapre": 1780,
      "sia": 1781,
      "enc": 1782,
      "tia": 1783,
      "Ġpublica": 1784,
      "Ġvio": 1785,
      "rais": 1786,
      "ĠPA": 1787,
      "Ġlado": 1788,
      "com": 1789,
      "Ġsabe": 1790,
      "minar": 1791,
      "RELATOR": 1792,
      "UL": 1793,
      "Ġ22": 1794,
      "reiro": 1795,
      "Ġcabe": 1796,
      "DADE": 1797,
      "ins": 1798,
      "Ġenquanto": 1799,
      "Ġestabe": 1800,
      "Ġ21": 1801,
      "Ġregia": 1802,
      "ĠRu": 1803,
      "Ġtodas": 1804,
      "ĠFer": 1805,
      "Ġ25": 1806,
      "lhe": 1807,
      "mada": 1808,
      "Ġmate": 1809,
      "Ġnunca": 1810,
      "Ġcur": 1811,
      "DINA": 1812,
      "30": 1813,
      "Ġforc": 1814,
      "ĠCor": 1815,
      "Ġecono": 1816,
      "versidade": 1817,
      "ĠBem": 1818,
      "Ġinsta": 1819,
      "âĢĵ": 1820,
      "ĠNacional": 1821,
      "ĠRel": 1822,
      "Ġado": 1823,
      "inco": 1824,
      "Ġloc": 1825,
      "cac": 1826,
      "STI": 1827,
      "tanto": 1828,
      "Ġjus": 1829,
      "Ġdele": 1830,
      "Ġexp": 1831,
      "Ġ,": 1832,
      "mpeonato": 1833,
      "Ġer": 1834,
      "gR": 1835,
      "Ġreconhe": 1836,
      "Ġregis": 1837,
      "Ġdesa": 1838,
      "ĠCon": 1839,
      "vide": 1840,
      "cida": 1841,
      "Ġautos": 1842,
      "Ġfora": 1843,
      "rador": 1844,
      "Ġsal": 1845,
      "mis": 1846,
      "Ġfato": 1847,
      "mica": 1848,
      "199": 1849,
      "forma": 1850,
      "Ġconstitucional": 1851,
      "vio": 1852,
      "Ġleva": 1853,
      "ĠTUR": 1854,
      "Ġexecu": 1855,
      "Ġseguinte": 1856,
      "ĠAGR": 1857,
      "neiro": 1858,
      "ĠEste": 1859,
      "gnifica": 1860,
      "tubro": 1861,
      "âĢľ": 1862,
      "Ġana": 1863,
      "ĠSuper": 1864,
      "Ġassu": 1865,
      "Ġobri": 1866,
      "gosto": 1867,
      "ĠCer": 1868,
      "ĠJan": 1869,
      "Ġ194": 1870,
      "eiros": 1871,
      "Ġauto": 1872,
      "nes": 1873,
      "Ġpi": 1874,
      "ĠTURMA": 1875,
      "xe": 1876,
      "ÌĤ.": 1877,
      "entes": 1878,
      "ntemente": 1879,
      "tida": 1880,
      "dir": 1881,
      "Ġtele": 1882,
      "versa": 1883,
      "Ġpermi": 1884,
      "ĠCA": 1885,
      "nada": 1886,
      "Ġmer": 1887,
      "ĠEXTRA": 1888,
      "ĠĠĠĠĠĠĠĠ": 1889,
      "Ġmor": 1890,
      "Ġestar": 1891,
      "66": 1892,
      "Ġresponsa": 1893,
      "14": 1894,
      "mbo": 1895,
      "Ġani": 1896,
      "Re": 1897,
      "Ġbas": 1898,
      "ĠOli": 1899,
      "Ġtipo": 1900,
      "Ġpopulac": 1901,
      "Ġfala": 1902,
      "Ġuni": 1903,
      "Ġjogo": 1904,
      "ĠDJe": 1905,
      "Ġcondic": 1906,
      "Ġorgani": 1907,
      "elho": 1908,
      "IO": 1909,
      "Ġportu": 1910,
      "Ġnecessa": 1911,
      "Ġutiliza": 1912,
      "Ġquatro": 1913,
      "Ġtoda": 1914,
      "Ġsema": 1915,
      "ĠUnidos": 1916,
      "ĠDI": 1917,
      "lbum": 1918,
      "ORDINA": 1919,
      "Ġfilho": 1920,
      "ĠQuando": 1921,
      "000": 1922,
      "Ġ23": 1923,
      "ĠEXTRAORDINA": 1924,
      "Ġmesma": 1925,
      "Ġmostra": 1926,
      "fico": 1927,
      "Ġanter": 1928,
      "Ġdeci": 1929,
      "Ġdar": 1930,
      "vac": 1931,
      "Ġanu": 1932,
      "Ġprograma": 1933,
      "ndida": 1934,
      "Ġprazo": 1935,
      "Ġhttps": 1936,
      "Ġw": 1937,
      "ĠSul": 1938,
      "Ġencontra": 1939,
      "Ġmilho": 1940,
      "Ġvamos": 1941,
      "Ġina": 1942,
      "pc": 1943,
      "REG": 1944,
      "Ġquais": 1945,
      "Ġprova": 1946,
      "redi": 1947,
      "Ġirma": 1948,
      "Ġinvesti": 1949,
      "liz": 1950,
      "orda": 1951,
      "Ġformula": 1952,
      "bs": 1953,
      "amento": 1954,
      "MIN": 1955,
      "Ġri": 1956,
      "mentar": 1957,
      "ĠCla": 1958,
      "Ġsim": 1959,
      "Ġima": 1960,
      "pital": 1961,
      "Ġnenh": 1962,
      "ĠCi": 1963,
      "ard": 1964,
      "Ìģ?": 1965,
      "ll": 1966,
      "Ġoficial": 1967,
      "ĠPrimeira": 1968,
      "Ġhuma": 1969,
      "Ġinco": 1970,
      "GE": 1971,
      "tem": 1972,
      "rico": 1973,
      "NCIA": 1974,
      "Ġsur": 1975,
      "ntal": 1976,
      "Ġqui": 1977,
      "ner": 1978,
      "Ġfina": 1979,
      "Ġasse": 1980,
      "prio": 1981,
      "Ġorigem": 1982,
      "Ġedic": 1983,
      "Ġexemplo": 1984,
      "Ġace": 1985,
      "Ġpala": 1986,
      "The": 1987,
      "Ġquesta": 1988,
      "ĠHe": 1989,
      "ws": 1990,
      "22": 1991,
      "cil": 1992,
      "Ġder": 1993,
      "Ġrecebe": 1994,
      "Ġ2010": 1995,
      "Ġlimi": 1996,
      "ger": 1997,
      "ĠSou": 1998,
      "cios": 1999,
      "Ġlegis": 2000,
      "16": 2001,
      "ĠNA": 2002,
      "ĠEstou": 2003,
      "icita": 2004,
      "Ġtar": 2005,
      "vez": 2006,
      "Ġsegunda": 2007,
      "teri": 2008,
      "alizac": 2009,
      "ĠApo": 2010,
      "ĠSenho": 2011,
      "ĠNos": 2012,
      "Ġmomento": 2013,
      "34": 2014,
      "ĠBu": 2015,
      "cede": 2016,
      "toria": 2017,
      "socia": 2018,
      "Ġai": 2019,
      "Ġeram": 2020,
      "Ġch": 2021,
      "Ġdevido": 2022,
      "ran": 2023,
      "Ġnatu": 2024,
      "Ġ:)": 2025,
      "ĠFe": 2026,
      "ĠSTF": 2027,
      "Ġempre": 2028,
      "poca": 2029,
      "ĠAgora": 2030,
      "Ġpossui": 2031,
      "digo": 2032,
      "ircu": 2033,
      "ciais": 2034,
      "Ġmarc": 2035,
      "ĠLocal": 2036,
      "ĠJaneiro": 2037,
      "ilia": 2038,
      "EIRA": 2039,
      "AgR": 2040,
      "ol": 2041,
      "ndia": 2042,
      "Ġficar": 2043,
      "29": 2044,
      "Ġlocaliza": 2045,
      "Ġativ": 2046,
      "pria": 2047,
      "perac": 2048,
      "Ġhora": 2049,
      "Ġtorna": 2050,
      "Ġdentro": 2051,
      "men": 2052,
      "Ġcerto": 2053,
      "ncio": 2054,
      "Ġ'": 2055,
      "Ġinstru": 2056,
      "Ġquar": 2057,
      "Ġtri": 2058,
      "ĠMaria": 2059,
      "ncial": 2060,
      "Ġmili": 2061,
      "veu": 2062,
      "vem": 2063,
      "Ġtenta": 2064,
      "ntra": 2065,
      "ĠMel": 2066,
      "Ġ195": 2067,
      "Ġnoite": 2068,
      "Ġnego": 2069,
      "ĠEuro": 2070,
      "inhas": 2071,
      "vereiro": 2072,
      "Ġ2008": 2073,
      "Ġcie": 2074,
      "Ġprote": 2075,
      "mpos": 2076,
      "isas": 2077,
      "nidade": 2078,
      "che": 2079,
      "igo": 2080,
      "Ġsignifica": 2081,
      "lise": 2082,
      "remos": 2083,
      "Ġparece": 2084,
      "Ġnum": 2085,
      "zes": 2086,
      "mu": 2087,
      "Ġjuri": 2088,
      "Ġcole": 2089,
      "Ġindica": 2090,
      "tifica": 2091,
      "28": 2092,
      "IA": 2093,
      "Ġdezembro": 2094,
      "sona": 2095,
      "ĠKa": 2096,
      "Ġdivers": 2097,
      "Ġ2014": 2098,
      "osse": 2099,
      "lusi": 2100,
      "mentac": 2101,
      "ĠTi": 2102,
      "06": 2103,
      "lizac": 2104,
      "Ġama": 2105,
      "Ġfazendo": 2106,
      "Ġneste": 2107,
      "Ġsituac": 2108,
      "tivamente": 2109,
      "Ġmanda": 2110,
      "lube": 2111,
      "Ġconhecido": 2112,
      "dual": 2113,
      "bui": 2114,
      "nci": 2115,
      "Ġjaneiro": 2116,
      "Ġtanto": 2117,
      "ĠPRE": 2118,
      "Ġcerca": 2119,
      "STITU": 2120,
      "it": 2121,
      "Ġfunciona": 2122,
      "Ġ2009": 2123,
      "Ġ2012": 2124,
      "Ġestabele": 2125,
      "cou": 2126,
      "Ġjor": 2127,
      "Ġraza": 2128,
      "Ġnorte": 2129,
      "Ġembar": 2130,
      "Ġbanda": 2131,
      "Ġproduz": 2132,
      "Ġdefesa": 2133,
      "Ġcrianc": 2134,
      "sim": 2135,
      "vado": 2136,
      "Ġgara": 2137,
      "ĠAgra": 2138,
      "Ġposso": 2139,
      "ĠEM": 2140,
      "Ġ2013": 2141,
      "pressa": 2142,
      "ĠCu": 2143,
      "Ġnesta": 2144,
      "De": 2145,
      "Ġatrave": 2146,
      "Ġsimp": 2147,
      "Ġconde": 2148,
      "Ġdever": 2149,
      "mane": 2150,
      "Ġintegra": 2151,
      "Ġsetembro": 2152,
      "Ġpessoa": 2153,
      "ĠCOM": 2154,
      "mara": 2155,
      "03": 2156,
      "Ġaba": 2157,
      "ĠPla": 2158,
      "Ġterce": 2159,
      "nacional": 2160,
      "09": 2161,
      "nstitucional": 2162,
      "ĠWe": 2163,
      "Ġjunho": 2164,
      "Ġoutubro": 2165,
      "ny": 2166,
      "Ġmorre": 2167,
      "Ġ2006": 2168,
      "Ġand": 2169,
      "Ġmuda": 2170,
      "ko": 2171,
      "ĠDeus": 2172,
      "Ġni": 2173,
      "ff": 2174,
      "ĠPortugal": 2175,
      "ED": 2176,
      "pus": 2177,
      "essor": 2178,
      "mpanha": 2179,
      "ĠOh": 2180,
      "Ġacho": 2181,
      "Ġ2011": 2182,
      "25": 2183,
      "ĠSU": 2184,
      "Ġtotal": 2185,
      "vante": 2186,
      "Ġcategor": 2187,
      "midade": 2188,
      "ĠObri": 2189,
      "24": 2190,
      "ĠHisto": 2191,
      "Ġajuda": 2192,
      "lena": 2193,
      "Ġ26": 2194,
      "Ġ2007": 2195,
      "Ġat": 2196,
      "Ġmater": 2197,
      "Ġcompro": 2198,
      "rus": 2199,
      "Ġcoisas": 2200,
      "RAN": 2201,
      "Ġlicita": 2202,
      "rude": 2203,
      "diu": 2204,
      "Ġespeci": 2205,
      "Ġagosto": 2206,
      "Ġposic": 2207,
      "ĠWiki": 2208,
      "Ġuso": 2209,
      "ĠEles": 2210,
      "RIA": 2211,
      "Ġtarde": 2212,
      "ÌĤ-": 2213,
      "Ġ2015": 2214,
      "ĠSegundo": 2215,
      "ph": 2216,
      "Ġlhe": 2217,
      "ndial": 2218,
      "ĠPROC": 2219,
      "Ġalgumas": 2220,
      "Ġabril": 2221,
      "ĠSr": 2222,
      "raco": 2223,
      "21": 2224,
      "Ġreal": 2225,
      "ad": 2226,
      "04": 2227,
      "ndimento": 2228,
      "gir": 2229,
      "ĠEdi": 2230,
      "Ġinterpre": 2231,
      "Ġman": 2232,
      "Ġbrasileiro": 2233,
      "Ġquero": 2234,
      "ribuic": 2235,
      "Ġamp": 2236,
      "PROC": 2237,
      "Ġbar": 2238,
      "CION": 2239,
      "Ġmani": 2240,
      "bia": 2241,
      "Ġingle": 2242,
      "Ġponto": 2243,
      "2000": 2244,
      "05": 2245,
      "Ġprocu": 2246,
      "36": 2247,
      "greja": 2248,
      "tina": 2249,
      "ĠBi": 2250,
      "Ġbri": 2251,
      "Ġmorte": 2252,
      "Ġconce": 2253,
      "EX": 2254,
      "zer": 2255,
      "Ġfeito": 2256,
      "manda": 2257,
      "Ġacredi": 2258,
      "CA": 2259,
      "27": 2260,
      "ginal": 2261,
      "gula": 2262,
      "Ġrei": 2263,
      "Ġcircu": 2264,
      "Ġpoderia": 2265,
      "eito": 2266,
      "Ġ2016": 2267,
      "Ġpr": 2268,
      "ĠVoto": 2269,
      "Ġequipe": 2270,
      "gues": 2271,
      "Ġjulho": 2272,
      "Ġ100": 2273,
      "sico": 2274,
      "35": 2275,
      "Ġfosse": 2276,
      "Ġfalar": 2277,
      "ĠEspe": 2278,
      "Ġobjeto": 2279,
      "Ġcomer": 2280,
      "ĠUniversidade": 2281,
      "Ġpelas": 2282,
      "Ġnovembro": 2283,
      "mericano": 2284,
      "mio": 2285,
      "ĠFE": 2286,
      "gica": 2287,
      "dou": 2288,
      "IL": 2289,
      "Ġmodo": 2290,
      "Ġdemais": 2291,
      "ĠNova": 2292,
      "Ġine": 2293,
      "tria": 2294,
      "ley": 2295,
      "beas": 2296,
      "ĠAdministra": 2297,
      "Ġembora": 2298,
      "Ġproduc": 2299,
      "BI": 2300,
      "ĠSanta": 2301,
      "isco": 2302,
      "pita": 2303,
      "gh": 2304,
      "cteri": 2305,
      "Ġentanto": 2306,
      "ĠPos": 2307,
      "ya": 2308,
      "Ġmeses": 2309,
      "Ġpedido": 2310,
      "VA": 2311,
      "Ġconju": 2312,
      "Ġ29": 2313,
      "Ġafirma": 2314,
      "Ge": 2315,
      "Ġcompa": 2316,
      "Ġexce": 2317,
      "ĠAo": 2318,
      "Ġinclu": 2319,
      "vou": 2320,
      "ĠQU": 2321,
      "ĠWil": 2322,
      "39": 2323,
      "ĠGrande": 2324,
      "Ġofe": 2325,
      "pais": 2326,
      "Ġato": 2327,
      "inheiro": 2328,
      "Ġsol": 2329,
      "Ġmaioria": 2330,
      "Ġeli": 2331,
      "37": 2332,
      "quisa": 2333,
      "Ġ#": 2334,
      "porte": 2335,
      "Ġenvol": 2336,
      "Ġpalav": 2337,
      "Ġmen": 2338,
      "Ġcinco": 2339,
      "ĠPode": 2340,
      "Ġcres": 2341,
      "Ġsimples": 2342,
      "Ġprojeto": 2343,
      "TAL": 2344,
      "26": 2345,
      "mba": 2346,
      "Ġaprese": 2347,
      "prude": 2348,
      "Ġescre": 2349,
      "ltima": 2350,
      "Ġfranc": 2351,
      "Ġproblema": 2352,
      "ndido": 2353,
      "iografia": 2354,
      "38": 2355,
      "Ġboa": 2356,
      "gados": 2357,
      "has": 2358,
      "tam": 2359,
      "âĢĿ.": 2360,
      "Ġliber": 2361,
      "ximo": 2362,
      "Ġhou": 2363,
      "minac": 2364,
      "ENTE": 2365,
      "ĠSE": 2366,
      "deira": 2367,
      "iano": 2368,
      "Ġhomem": 2369,
      "lhas": 2370,
      "Ġnuma": 2371,
      "ĠAnto": 2372,
      "net": 2373,
      "Ġquase": 2374,
      "irmou": 2375,
      "Ġreve": 2376,
      "tera": 2377,
      "Ġimportante": 2378,
      "Ġfer": 2379,
      "lada": 2380,
      "Ġminis": 2381,
      "Ġmode": 2382,
      "ĠUnia": 2383,
      "Ġfevereiro": 2384,
      "Ġmuitos": 2385,
      "Ġproposta": 2386,
      "No": 2387,
      "pla": 2388,
      "Ġbus": 2389,
      "stica": 2390,
      "GI": 2391,
      "Ġsocial": 2392,
      "dico": 2393,
      "timo": 2394,
      "Ġfac": 2395,
      "Ġrespe": 2396,
      "tis": 2397,
      "ĠMui": 2398,
      "AD": 2399,
      "Ġtrabalha": 2400,
      "Ġpacie": 2401,
      "orde": 2402,
      "ori": 2403,
      "Ġpermane": 2404,
      "RIM": 2405,
      "Ġminu": 2406,
      "dades": 2407,
      "pel": 2408,
      "ĠSua": 2409,
      "guei": 2410,
      "Ġpensa": 2411,
      "Ġgaro": 2412,
      "Ġtornou": 2413,
      "Ġdeu": 2414,
      "Ġanterior": 2415,
      "CIONAL": 2416,
      "Ġobserva": 2417,
      "ĠSegunda": 2418,
      "mac": 2419,
      "itar": 2420,
      "Ġdispu": 2421,
      "ĠRi": 2422,
      "Ġcre": 2423,
      "Ġcanc": 2424,
      "Ġpassou": 2425,
      "Ġage": 2426,
      "Ġlivro": 2427,
      "ĠEntre": 2428,
      "rados": 2429,
      "Ġdefe": 2430,
      "Ġclassi": 2431,
      "Ġhe": 2432,
      "ĠAme": 2433,
      "ĠRes": 2434,
      "gando": 2435,
      "Ġargu": 2436,
      "ĠMiniste": 2437,
      "bili": 2438,
      "trito": 2439,
      "Ġcal": 2440,
      "Ġjurisprude": 2441,
      "Ġlogo": 2442,
      "Ġexc": 2443,
      "Se": 2444,
      "Ġsaber": 2445,
      "Ġprete": 2446,
      "ĠCampeonato": 2447,
      "07": 2448,
      "rga": 2449,
      "ĠTer": 2450,
      "Ġtemos": 2451,
      "discussa": 2452,
      "bou": 2453,
      "Ġtemporada": 2454,
      "Ġseguranc": 2455,
      "nsi": 2456,
      "ĠCarlos": 2457,
      "Ġinstitu": 2458,
      "gres": 2459,
      "Ġesca": 2460,
      "Ġseguintes": 2461,
      "ĠSil": 2462,
      "Ġexer": 2463,
      "oro": 2464,
      "Ġmal": 2465,
      "cho": 2466,
      "ĠPreside": 2467,
      "Ġmanif": 2468,
      "ndeu": 2469,
      "missa": 2470,
      "Ġpromo": 2471,
      "Ġdata": 2472,
      "ĠEn": 2473,
      "lusa": 2474,
      "ĠAte": 2475,
      "dios": 2476,
      "Ġversa": 2477,
      "Es": 2478,
      "Ġocu": 2479,
      "dri": 2480,
      "Ġficou": 2481,
      "Ġinicial": 2482,
      "ĠBra": 2483,
      "nais": 2484,
      "ĠPresidente": 2485,
      "Ġisto": 2486,
      "nador": 2487,
      "cito": 2488,
      "Ġtur": 2489,
      "ĠAnd": 2490,
      "Ġdeclarac": 2491,
      "Ġvence": 2492,
      "ingue": 2493,
      "ld": 2494,
      "Ġnacional": 2495,
      "Ġarqui": 2496,
      "cric": 2497,
      "ĠMA": 2498,
      "lina": 2499,
      "by": 2500,
      "Su": 2501,
      "88": 2502,
      "ĠNu": 2503,
      "art": 2504,
      "Ġacha": 2505,
      "ĠEST": 2506,
      "ĠFEDE": 2507,
      "Ġdocu": 2508,
      "ĠGil": 2509,
      "ĠSem": 2510,
      "ĠIII": 2511,
      "ler": 2512,
      "media": 2513,
      "Ġvista": 2514,
      "ĠBer": 2515,
      "ical": 2516,
      "Ġdiri": 2517,
      "Ġprofiss": 2518,
      "ĠLuiz": 2519,
      "ĠMic": 2520,
      "dito": 2521,
      "Ġcorpo": 2522,
      "ĠSeu": 2523,
      "Ġsau": 2524,
      "Ġdesenvolvimento": 2525,
      "Ġdados": 2526,
      "Ġarma": 2527,
      "ĠSecreta": 2528,
      "land": 2529,
      "Ġcompete": 2530,
      "56": 2531,
      "ltimo": 2532,
      "Ġrazo": 2533,
      "Ġques": 2534,
      "tima": 2535,
      "ĠâĢĺ": 2536,
      "Ġregra": 2537,
      "Ġalgue": 2538,
      ")(": 2539,
      "iores": 2540,
      "Ġmelho": 2541,
      "Ġefe": 2542,
      "Ġalguma": 2543,
      "Ġtexto": 2544,
      "ntado": 2545,
      "ĠEl": 2546,
      "Ġsai": 2547,
      "Ġcli": 2548,
      "orrente": 2549,
      "Ġaber": 2550,
      "02": 2551,
      "BLI": 2552,
      "pios": 2553,
      "Ġinclui": 2554,
      "ion": 2555,
      "Ġcus": 2556,
      "gador": 2557,
      "Ġdispo": 2558,
      "Ġroma": 2559,
      "sticas": 2560,
      "Ġdesse": 2561,
      "mpri": 2562,
      "ĠTudo": 2563,
      "posi": 2564,
      "Ġalgum": 2565,
      "ĠFor": 2566,
      "Ġespac": 2567,
      "venc": 2568,
      "Ġoriginal": 2569,
      "Ġespa": 2570,
      "Ġsomente": 2571,
      "ados": 2572,
      "ĠJoh": 2573,
      "ĠTal": 2574,
      "Ġpenal": 2575,
      "ĠSal": 2576,
      "ocu": 2577,
      "Ġfic": 2578,
      "ĠQuem": 2579,
      "Ġgrandes": 2580,
      "icac": 2581,
      "âĢĿ,": 2582,
      "Ġpersona": 2583,
      "ĠPRO": 2584,
      "culos": 2585,
      "isso": 2586,
      "\",\"": 2587,
      "ks": 2588,
      "ficar": 2589,
      "ĠMarco": 2590,
      "tual": 2591,
      "Ġsede": 2592,
      "Ġcaracteri": 2593,
      "ĠFEDERAL": 2594,
      "Ġcorpus": 2595,
      "ĠVou": 2596,
      "Ġtema": 2597,
      "dicional": 2598,
      "lares": 2599,
      "oo": 2600,
      "Ġinicia": 2601,
      "ĠAU": 2602,
      "ĠAdministrac": 2603,
      "ionais": 2604,
      "trado": 2605,
      "Ġperce": 2606,
      "Ġdefin": 2607,
      "Ġnega": 2608,
      "ÌĤ,": 2609,
      "Ġpec": 2610,
      "ĠPi": 2611,
      "Ma": 2612,
      "Ġfrente": 2613,
      ".)": 2614,
      "reza": 2615,
      "Ġnossa": 2616,
      "Ġteria": 2617,
      "ĠDire": 2618,
      "orrido": 2619,
      "Ġveri": 2620,
      "ĠAssim": 2621,
      "ĠMinistros": 2622,
      "Ġdemons": 2623,
      "Ġmuitas": 2624,
      "BER": 2625,
      "Ġnosso": 2626,
      "mando": 2627,
      "Ġnecess": 2628,
      "pira": 2629,
      "Ġfra": 2630,
      "ĠChe": 2631,
      "Ġbrasileira": 2632,
      ":âĢľ": 2633,
      "57": 2634,
      "Ca": 2635,
      "54": 2636,
      "Ġdessa": 2637,
      "Na": 2638,
      "Ġdinheiro": 2639,
      "Ġgosta": 2640,
      ".,": 2641,
      "Ġsul": 2642,
      "quele": 2643,
      "ĠREGI": 2644,
      "Ġrou": 2645,
      "ĠCP": 2646,
      "ĠDepois": 2647,
      "Ġprisa": 2648,
      "ĠDia": 2649,
      "ĠFil": 2650,
      "Ġpesquisa": 2651,
      "Ġvem": 2652,
      "Ġgarant": 2653,
      "Ġpodera": 2654,
      "Ġ________": 2655,
      "Ġindivi": 2656,
      "RIMEIRA": 2657,
      "Ġlinha": 2658,
      "ĠCopa": 2659,
      "vesse": 2660,
      "cidos": 2661,
      "ĠHC": 2662,
      "Ġfis": 2663,
      "ĠEi": 2664,
      "Ġcarreira": 2665,
      "ĠEsse": 2666,
      "ULA": 2667,
      "Ġrelato": 2668,
      "Ġsente": 2669,
      "vendo": 2670,
      "Ġdevera": 2671,
      "ntral": 2672,
      "!!": 2673,
      "tras": 2674,
      "Ġsemana": 2675,
      "Ġpontos": 2676,
      "Ġimpos": 2677,
      "quia": 2678,
      "Ġjornal": 2679,
      "AB": 2680,
      "Ġpreocu": 2681,
      "Ġhoras": 2682,
      "cais": 2683,
      "ĠCerto": 2684,
      "Ġante": 2685,
      "2013": 2686,
      "Ġaplicac": 2687,
      "Ġdiscu": 2688,
      "Ġtes": 2689,
      "Ġfalta": 2690,
      "Ġcasos": 2691,
      "ĠEssa": 2692,
      "menda": 2693,
      "Ġexper": 2694,
      "cor": 2695,
      "ĠWikipe": 2696,
      "veira": 2697,
      "velmente": 2698,
      "GERAL": 2699,
      "Ġnota": 2700,
      "ĠFre": 2701,
      "Ġfutebol": 2702,
      "Ġchamado": 2703,
      "Ġrefer": 2704,
      "ĠJe": 2705,
      "ores": 2706,
      "mbros": 2707,
      "cendo": 2708,
      "ĠRosa": 2709,
      "ciedade": 2710,
      "ĠAcho": 2711,
      "23": 2712,
      "Ġchegou": 2713,
      "ĠDias": 2714,
      "2012": 2715,
      "Ġvaria": 2716,
      "sua": 2717,
      "Ġempresas": 2718,
      "Ġcampo": 2719,
      "ĠMAR": 2720,
      "HC": 2721,
      "nis": 2722,
      "lhos": 2723,
      "viso": 2724,
      "dora": 2725,
      "ĠAgravo": 2726,
      "ĠTO": 2727,
      "ĠSP": 2728,
      "Ġcrime": 2729,
      "UNDA": 2730,
      "feira": 2731,
      "Ġqueria": 2732,
      "Ġmante": 2733,
      "ĠAma": 2734,
      "ĠMeu": 2735,
      "Ġlongo": 2736,
      "Ġ2000": 2737,
      "ys": 2738,
      "lor": 2739,
      "Ġdiferentes": 2740,
      "Ġeleito": 2741,
      "Ġgos": 2742,
      "cla": 2743,
      "Ġsala": 2744,
      "ĠEd": 2745,
      "pida": 2746,
      "ĠOUT": 2747,
      "ngu": 2748,
      "Ġbene": 2749,
      "Ġescola": 2750,
      "Ġpergu": 2751,
      "Ġalca": 2752,
      "sal": 2753,
      "Ġplane": 2754,
      "Ġestamos": 2755,
      "Ġsuspe": 2756,
      "zinha": 2757,
      "ĠCONTRA": 2758,
      "mpea": 2759,
      "cias": 2760,
      ");": 2761,
      "ĠGuerra": 2762,
      "Ġdiver": 2763,
      "Ġmus": 2764,
      "ĠSte": 2765,
      "Ġprop": 2766,
      "Ġcandida": 2767,
      "nimo": 2768,
      "mico": 2769,
      "nea": 2770,
      "idos": 2771,
      "mir": 2772,
      "ĠHar": 2773,
      "Ġcapa": 2774,
      "Ġ2017": 2775,
      "ridade": 2776,
      "Ġep": 2777,
      "Ġforne": 2778,
      "Ġsenhor": 2779,
      "stico": 2780,
      "Ġdesi": 2781,
      "Ġpessoal": 2782,
      "cno": 2783,
      "ds": 2784,
      "EM": 2785,
      "ĠObrigado": 2786,
      "minho": 2787,
      "ĠSta": 2788,
      "Ġrea": 2789,
      "ĠSuperior": 2790,
      "pia": 2791,
      "bate": 2792,
      "Ġprincipais": 2793,
      "ĠMes": 2794,
      "Ġpare": 2795,
      "ges": 2796,
      "Ġguerra": 2797,
      "Ġlegislac": 2798,
      "Ġree": 2799,
      "ĠADV": 2800,
      "Ġacesso": 2801,
      "ĠTambe": 2802,
      "ĠOUTRO": 2803,
      "tenc": 2804,
      "'s": 2805,
      "Ġouvi": 2806,
      "ĠLUI": 2807,
      "Ġartigos": 2808,
      "lin": 2809,
      "Ġ2005": 2810,
      "Ġhabeas": 2811,
      "ue": 2812,
      "78": 2813,
      "98": 2814,
      "lue": 2815,
      "lores": 2816,
      "Ġens": 2817,
      "Ġpore": 2818,
      "uso": 2819,
      "Ġperde": 2820,
      "riedade": 2821,
      "Ġmulher": 2822,
      "Ġmedida": 2823,
      ".âĢĿ": 2824,
      "Ġproblemas": 2825,
      "Ġmeta": 2826,
      "Ġsuficie": 2827,
      "Ġdeixar": 2828,
      "ĠGre": 2829,
      "Ġregime": 2830,
      "ĠPU": 2831,
      "Ġ&": 2832,
      "Ġade": 2833,
      "Ġrecursos": 2834,
      "radas": 2835,
      "Ġobra": 2836,
      "Ġhipo": 2837,
      "nando": 2838,
      "Ġet": 2839,
      "cando": 2840,
      "ĠQuer": 2841,
      "Ġgente": 2842,
      "Geral": 2843,
      "ĠEdu": 2844,
      "Ġdeli": 2845,
      "tadas": 2846,
      "ĠSA": 2847,
      "Ġlista": 2848,
      "44": 2849,
      "FF": 2850,
      "talha": 2851,
      "Ġrecebi": 2852,
      "pido": 2853,
      "sol": 2854,
      "ĠXX": 2855,
      "URA": 2856,
      "zado": 2857,
      "our": 2858,
      "melha": 2859,
      "ĠIta": 2860,
      "nicos": 2861,
      "Ġcontrole": 2862,
      "curso": 2863,
      "PRE": 2864,
      "Ġop": 2865,
      "ĠCel": 2866,
      "MENTAL": 2867,
      "Ġteor": 2868,
      "Ġsucesso": 2869,
      "igu": 2870,
      "tidos": 2871,
      "dy": 2872,
      "Ġinfraco": 2873,
      "Ġfase": 2874,
      "Ġlin": 2875,
      "Ġcos": 2876,
      "Ġpens": 2877,
      "tribui": 2878,
      "Ġbi": 2879,
      "Ġjustifica": 2880,
      "ĠTV": 2881,
      "Ġrecebeu": 2882,
      "Ġpapel": 2883,
      "leo": 2884,
      "recer": 2885,
      "33": 2886,
      "terior": 2887,
      "Ġtive": 2888,
      "Ġsex": 2889,
      "Ġcapital": 2890,
      "Ġproduto": 2891,
      "ft": 2892,
      "xima": 2893,
      "nsta": 2894,
      "Ġfro": 2895,
      "cima": 2896,
      "Ġpaciente": 2897,
      "ĠPrec": 2898,
      "2014": 2899,
      "Ġtera": 2900,
      "ĠSecretaria": 2901,
      "Ġresta": 2902,
      "DOR": 2903,
      "Ġdeles": 2904,
      "valia": 2905,
      "nciado": 2906,
      "Ġdirec": 2907,
      "96": 2908,
      "Ġderro": 2909,
      "NA": 2910,
      "fu": 2911,
      "gico": 2912,
      "Ġdela": 2913,
      "Ġalu": 2914,
      "Ġconjunto": 2915,
      "ios": 2916,
      "Ġalte": 2917,
      "Ġincluindo": 2918,
      "Ġjudic": 2919,
      "ĠOla": 2920,
      "ĠQua": 2921,
      "ĠAure": 2922,
      "Ġportanto": 2923,
      "vin": 2924,
      "ĠCOR": 2925,
      "Ġatual": 2926,
      "ĠREGIMENTAL": 2927,
      "ndas": 2928,
      "dac": 2929,
      "cola": 2930,
      "Ġclube": 2931,
      "Ġhouve": 2932,
      "ĠJohn": 2933,
      "triz": 2934,
      "gido": 2935,
      "Ġdireitos": 2936,
      "heres": 2937,
      "ĠBri": 2938,
      "Ġvir": 2939,
      "Ġforte": 2940,
      "Ġalema": 2941,
      "Ġconstruc": 2942,
      "RIB": 2943,
      "Ġofere": 2944,
      "orge": 2945,
      "ngua": 2946,
      "Ġofensa": 2947,
      "Ġindepende": 2948,
      "ĠMunici": 2949,
      "Ġaparece": 2950,
      "Ġ2018": 2951,
      "turas": 2952,
      "ĠMais": 2953,
      "trac": 2954,
      "Ġeleic": 2955,
      "ntidade": 2956,
      "tence": 2957,
      "redo": 2958,
      "reas": 2959,
      "Ġnenhum": 2960,
      "ĠRO": 2961,
      "Ġreper": 2962,
      "quista": 2963,
      "pou": 2964,
      "ĠDr": 2965,
      "Ġamor": 2966,
      "ĠPai": 2967,
      "Ġesque": 2968,
      "Ġcargo": 2969,
      "Ġpreciso": 2970,
      "LO": 2971,
      "Ġprev": 2972,
      "Ġesses": 2973,
      "dentes": 2974,
      "Ġretor": 2975,
      "Ġsessa": 2976,
      "tero": 2977,
      "emos": 2978,
      "Ġrefle": 2979,
      "Ġamigo": 2980,
      "tegory": 2981,
      "tiu": 2982,
      "arda": 2983,
      "Ġag": 2984,
      "99": 2985,
      "Ġcabec": 2986,
      "Ġcuida": 2987,
      "Ġportugue": 2988,
      "Ġparticipac": 2989,
      "PE": 2990,
      "Ġreli": 2991,
      "vie": 2992,
      "ULO": 2993,
      "giu": 2994,
      "Ġsubstitu": 2995,
      "PRIMEIRA": 2996,
      "nicas": 2997,
      "Ġlemb": 2998,
      "Ġafas": 2999,
      "OLI": 3000,
      "Ġpossa": 3001,
      "Ġseis": 3002,
      "Ġmembros": 3003,
      "Ġcumpri": 3004,
      "inos": 3005,
      "ĠAR": 3006,
      "teza": 3007,
      "Ġvotos": 3008,
      "ular": 3009,
      "Ġrespeito": 3010,
      "icardo": 3011,
      "cies": 3012,
      "ĠAus": 3013,
      "hor": 3014,
      "Ġadmi": 3015,
      "Ġmudanc": 3016,
      "tenta": 3017,
      "nga": 3018,
      "Ġigu": 3019,
      "Ġmaterial": 3020,
      "ĠNorte": 3021,
      "amos": 3022,
      "Ġrespec": 3023,
      "Ġmeus": 3024,
      "cisa": 3025,
      "Ġ_________": 3026,
      "bus": 3027,
      "ĠMinistra": 3028,
      "ĠAn": 3029,
      "ĠAinda": 3030,
      "bur": 3031,
      "Ġgene": 3032,
      "Ġdeveria": 3033,
      "Ġmedia": 3034,
      "58": 3035,
      "minado": 3036,
      "feitos": 3037,
      "ces": 3038,
      "48": 3039,
      "Ġblo": 3040,
      "tel": 3041,
      "ĠJU": 3042,
      "Ġ2004": 3043,
      "Ġliberdade": 3044,
      "ĠRicardo": 3045,
      "47": 3046,
      "Ġambie": 3047,
      "Ġquis": 3048,
      "ick": 3049,
      "ĠPoli": 3050,
      "uro": 3051,
      "reta": 3052,
      "bel": 3053,
      "ĠLis": 3054,
      "Ġessas": 3055,
      "iram": 3056,
      "Ġtribu": 3057,
      "ĠDurante": 3058,
      "Ġembargos": 3059,
      "Ġrelaciona": 3060,
      "ĠAt": 3061,
      "iana": 3062,
      "Ġexame": 3063,
      "tric": 3064,
      "postos": 3065,
      "Ġagravada": 3066,
      "Ġur": 3067,
      "ruz": 3068,
      "Ġentendimento": 3069,
      "ĠWa": 3070,
      "Ġestrutura": 3071,
      "emin": 3072,
      "imento": 3073,
      "versi": 3074,
      "Ġjogos": 3075,
      "Ġconhecimento": 3076,
      "ĠHu": 3077,
      "Ġefeito": 3078,
      "Ġimpu": 3079,
      "Ġmaneira": 3080,
      "ginas": 3081,
      "Ġchegar": 3082,
      "Ġterra": 3083,
      "ĠEspa": 3084,
      "nato": 3085,
      "my": 3086,
      "Ġafirmou": 3087,
      "Ġorganizac": 3088,
      "Ġmenor": 3089,
      "2015": 3090,
      "rcito": 3091,
      "inema": 3092,
      "Ġsho": 3093,
      "mado": 3094,
      "ĠBom": 3095,
      "Ġapare": 3096,
      "Ġresultado": 3097,
      "ĠMendes": 3098,
      "Ġcola": 3099,
      "wn": 3100,
      "ĠJul": 3101,
      "Ġrequis": 3102,
      "ĠNas": 3103,
      "Ġjunto": 3104,
      "ven": 3105,
      "portu": 3106,
      "ms": 3107,
      "ĠAca": 3108,
      "ĠInstitu": 3109,
      "ĠRoma": 3110,
      "ĠAh": 3111,
      "Pa": 3112,
      "ĠLocalidades": 3113,
      "Ġener": 3114,
      "Ġexecuc": 3115,
      "Ġfatos": 3116,
      "Ġidade": 3117,
      "Ġidenti": 3118,
      "ĠIMP": 3119,
      "ĠOliveira": 3120,
      "ĠAlgu": 3121,
      "Ġdenu": 3122,
      "ĠPaul": 3123,
      "nel": 3124,
      "ĠMundial": 3125,
      "ĠPra": 3126,
      "TOS": 3127,
      "ffo": 3128,
      "ĠSenhora": 3129,
      "tiona": 3130,
      "Ġconsta": 3131,
      "ĠOnde": 3132,
      "Ġqualidade": 3133,
      "Ġregula": 3134,
      "Ġexpressa": 3135,
      "cula": 3136,
      "ers": 3137,
      "Ġdor": 3138,
      "Ġservi": 3139,
      "Ġapoio": 3140,
      "sem": 3141,
      "tur": 3142,
      "Ġmercado": 3143,
      "Ġnatureza": 3144,
      "Ġreti": 3145,
      "Ġassocia": 3146,
      "jei": 3147,
      "rida": 3148,
      "vul": 3149,
      "Ġnovamente": 3150,
      "et": 3151,
      "Sa": 3152,
      "46": 3153,
      "Ġobras": 3154,
      "ĠAqui": 3155,
      "97": 3156,
      "ĠMuito": 3157,
      "Ġcentro": 3158,
      "Ġjulgado": 3159,
      "die": 3160,
      "Ġedu": 3161,
      "ĠPrece": 3162,
      "Ġdestru": 3163,
      "Ġpassado": 3164,
      "Ġora": 3165,
      "ĠEuropa": 3166,
      "pree": 3167,
      "2011": 3168,
      "hes": 3169,
      "ĠDF": 3170,
      "reto": 3171,
      "Ġsair": 3172,
      "RAC": 3173,
      "MO": 3174,
      "nhou": 3175,
      "Ġfilha": 3176,
      "Ġmarca": 3177,
      "ĠIgreja": 3178,
      "UA": 3179,
      "Ġcaminho": 3180,
      "Ġ50": 3181,
      "Ġhomens": 3182,
      "damente": 3183,
      "Ġideia": 3184,
      "bes": 3185,
      "guesa": 3186,
      "ĠBibl": 3187,
      "AGTE": 3188,
      "ticamente": 3189,
      "ĠTre": 3190,
      "ĠTURMAAG": 3191,
      "Ar": 3192,
      "Ġuna": 3193,
      "iras": 3194,
      "Ġacer": 3195,
      "Ġcompanh": 3196,
      "Ġepiso": 3197,
      "tural": 3198,
      "Ìģ!": 3199,
      "Ġajudar": 3200,
      "Ġpodemos": 3201,
      "ney": 3202,
      "ĠSilva": 3203,
      "postas": 3204,
      "55": 3205,
      "Ġestes": 3206,
      "Ġacus": 3207,
      "Ġporta": 3208,
      "til": 3209,
      "Ġprincipalmente": 3210,
      "ĠDemo": 3211,
      "Ġoperac": 3212,
      "culpe": 3213,
      "Ġplano": 3214,
      "Ġbil": 3215,
      "ME": 3216,
      "STITUCIONAL": 3217,
      "ĠPas": 3218,
      "Ġluta": 3219,
      "nhar": 3220,
      "rina": 3221,
      "ill": 3222,
      "Ġmanifesta": 3223,
      "Ġequipa": 3224,
      "LIO": 3225,
      "Ġles": 3226,
      "boa": 3227,
      "ficas": 3228,
      "Ġprovas": 3229,
      "Ġpagamento": 3230,
      "Ġresi": 3231,
      "ĠAL": 3232,
      "bas": 3233,
      "rido": 3234,
      "Ġminutos": 3235,
      "Ġpovo": 3236,
      "Ġeventu": 3237,
      "ĠLista": 3238,
      "KI": 3239,
      "Ġestavam": 3240,
      "Ġdou": 3241,
      "Ġincide": 3242,
      "Ġnesse": 3243,
      "ĠESTADO": 3244,
      "voluc": 3245,
      "ĠRoberto": 3246,
      "Ġclaro": 3247,
      "Ġterrito": 3248,
      "minal": 3249,
      "Ġfilhos": 3250,
      "Ġusar": 3251,
      "Ġfreque": 3252,
      "ffoli": 3253,
      "ĠHen": 3254,
      "ork": 3255,
      "essos": 3256,
      "Ġcomu": 3257,
      "Ġ2019": 3258,
      "ĠRelato": 3259,
      "ĠToffoli": 3260,
      "ĠCasa": 3261,
      "gan": 3262,
      "ĠDIAS": 3263,
      "Ġmulheres": 3264,
      "rista": 3265,
      "Ġmodelo": 3266,
      "Ġproce": 3267,
      "Ġame": 3268,
      "Ġobjetivo": 3269,
      "Ġelas": 3270,
      "ntura": 3271,
      "tindo": 3272,
      "Ġavalia": 3273,
      "Ġanda": 3274,
      ".:": 3275,
      "Ġan": 3276,
      "Ġescrito": 3277,
      "Ġaumento": 3278,
      "Ġreali": 3279,
      "ĠPorto": 3280,
      "Ġamigos": 3281,
      "zinho": 3282,
      "Ġautori": 3283,
      "ĠQual": 3284,
      "Ġdevem": 3285,
      "Ġrealmente": 3286,
      "unha": 3287,
      "ĠPE": 3288,
      "lou": 3289,
      "Ġnovos": 3290,
      "Ġcomigo": 3291,
      "Ġacima": 3292,
      "ĠFrancisco": 3293,
      "ĠPedro": 3294,
      "III": 3295,
      "Ġmilitar": 3296,
      "pp": 3297,
      "curador": 3298,
      "ok": 3299,
      "Ġorie": 3300,
      "Ġusua": 3301,
      "ĠComp": 3302,
      "zada": 3303,
      "As": 3304,
      "Ġâ": 3305,
      "Ġrepercussa": 3306,
      "ted": 3307,
      "Ġatin": 3308,
      "missi": 3309,
      "Ġsuperior": 3310,
      "vale": 3311,
      "ĠZa": 3312,
      "Ġalcanc": 3313,
      "Ġperto": 3314,
      "ĠTenho": 3315,
      "gente": 3316,
      "Ġtermo": 3317,
      "ĠPenal": 3318,
      "Ġ40": 3319,
      "Ġdepende": 3320,
      "ĠAlema": 3321,
      "ĠImpe": 3322,
      "cente": 3323,
      "ĠTrabal": 3324,
      "lie": 3325,
      "bras": 3326,
      "Ġinteresse": 3327,
      "ĠExe": 3328,
      "ĠTalvez": 3329,
      "tino": 3330,
      "quela": 3331,
      "Ġdisponi": 3332,
      "ĠBAR": 3333,
      "ĠHer": 3334,
      "Ġrede": 3335,
      "ĠUN": 3336,
      "Ġprimeiros": 3337,
      "Ġimedia": 3338,
      "len": 3339,
      "ÌĦ": 3340,
      "ong": 3341,
      "ĠCal": 3342,
      "ual": 3343,
      "Ġcita": 3344,
      "Ġprofer": 3345,
      "Ġfoto": 3346,
      "BILI": 3347,
      "Ġenvia": 3348,
      "nero": 3349,
      "Ġx": 3350,
      "((": 3351,
      "Ġon": 3352,
      "Ġcontrato": 3353,
      "Ġvin": 3354,
      "Ġvisa": 3355,
      "ĠPorque": 3356,
      "Ġnegou": 3357,
      "AI": 3358,
      "ps": 3359,
      "Ġdiscussa": 3360,
      "RU": 3361,
      "LE": 3362,
      "hia": 3363,
      "Ġparticipa": 3364,
      "ĠTerra": 3365,
      "Ġpal": 3366,
      "Ġningue": 3367,
      "ĠAN": 3368,
      "ĠTRIB": 3369,
      "198": 3370,
      "90": 3371,
      "ĠVol": 3372,
      "lusive": 3373,
      "Ġvoltar": 3374,
      "REI": 3375,
      "Ġcriac": 3376,
      "Ġcomum": 3377,
      "ntivo": 3378,
      "ĠPAULO": 3379,
      "ĠPoder": 3380,
      "32": 3381,
      "94": 3382,
      "inhos": 3383,
      "ĠSantos": 3384,
      "Ġ31": 3385,
      "ĠLUIZ": 3386,
      "Ġluz": 3387,
      "ĠBro": 3388,
      "Ġvito": 3389,
      "ĠLU": 3390,
      "ARE": 3391,
      "Ġcerteza": 3392,
      "ĠNi": 3393,
      "ĠDei": 3394,
      "Ġconteu": 3395,
      "ĠNesse": 3396,
      "Ġestuda": 3397,
      "iou": 3398,
      "Ġrecla": 3399,
      "Ġdesig": 3400,
      "Ġnecessidade": 3401,
      "Ġescu": 3402,
      "deo": 3403,
      "Ġanal": 3404,
      "Ġzo": 3405,
      "Ġdifi": 3406,
      "Ġause": 3407,
      "ack": 3408,
      "Ġevide": 3409,
      "Ġdeno": 3410,
      "respo": 3411,
      "Ġ|": 3412,
      "Ġconsiderado": 3413,
      "Ġinflue": 3414,
      "Ġcaus": 3415,
      "Ġlivre": 3416,
      "ĠUS": 3417,
      "vanc": 3418,
      "Ġdiversas": 3419,
      "zi": 3420,
      "ficado": 3421,
      "ĠCara": 3422,
      "Ġmanter": 3423,
      "Ġnoti": 3424,
      "77": 3425,
      "ute": 3426,
      "Ġinstituic": 3427,
      "Ġinteressa": 3428,
      "Ġfeita": 3429,
      "Ġconhecida": 3430,
      "ĠLui": 3431,
      "bert": 3432,
      "ĠPrecedentes": 3433,
      "quei": 3434,
      "ĠTOFF": 3435,
      "ĠLew": 3436,
      "ĠAI": 3437,
      "ĠTOFFOLI": 3438,
      "Ġmensa": 3439,
      "rmen": 3440,
      "ciac": 3441,
      "Ġrio": 3442,
      "Ġcompetic": 3443,
      "Ġmovimento": 3444,
      "tividade": 3445,
      "terra": 3446,
      "Ġrele": 3447,
      "Ġdiversos": 3448,
      "ĠMello": 3449,
      "Ġprofessor": 3450,
      "Ġformac": 3451,
      "Ġelementos": 3452,
      "log": 3453,
      "Ġmaiores": 3454,
      "Ġenergia": 3455,
      "Ġinfraconstitucional": 3456,
      "31": 3457,
      "Ġcober": 3458,
      "STF": 3459,
      "Ġsup": 3460,
      "resso": 3461,
      "Ġbrin": 3462,
      "Ġtrata": 3463,
      "Ġsociedade": 3464,
      "Ġextre": 3465,
      "tulos": 3466,
      "pone": 3467,
      "mericana": 3468,
      "ror": 3469,
      "Ġapos": 3470,
      "jas": 3471,
      "lita": 3472,
      "Ġbranc": 3473,
      "Ġencontrar": 3474,
      "Ġaconteceu": 3475,
      "45": 3476,
      "Ġacabou": 3477,
      "han": 3478,
      "Ġenfre": 3479,
      "useu": 3480,
      "pacidade": 3481,
      "ĠGlo": 3482,
      "didas": 3483,
      "Ġadvo": 3484,
      "ĠContra": 3485,
      "Ġ279": 3486,
      "Ġreforma": 3487,
      "nie": 3488,
      "Ġconstrui": 3489,
      "EGUNDA": 3490,
      "Ġbastante": 3491,
      "ABE": 3492,
      "ĠGilmar": 3493,
      "QU": 3494,
      "Ġpequeno": 3495,
      "Ġnormas": 3496,
      "ĠGeo": 3497,
      "Ġpartes": 3498,
      "Ġcultura": 3499,
      "Ġdisposi": 3500,
      "ĠConselho": 3501,
      "Ġdetermina": 3502,
      "Ġtransforma": 3503,
      "tei": 3504,
      "cnica": 3505,
      "xame": 3506,
      "Ġbusca": 3507,
      "ĠMARCO": 3508,
      "Ġ2003": 3509,
      "Ġgrupos": 3510,
      "gno": 3511,
      "ĠCelso": 3512,
      "ĠWeber": 3513,
      "Ġfinanc": 3514,
      "Ġposterior": 3515,
      "ĠInternacional": 3516,
      "ĠCivil": 3517,
      "Ġtreina": 3518,
      "quim": 3519,
      "Ġconclui": 3520,
      "URADOR": 3521,
      "Ġ--": 3522,
      "ĠPal": 3523,
      "ĠTodos": 3524,
      "76": 3525,
      "iki": 3526,
      "Ġviolac": 3527,
      "minou": 3528,
      "ĠCONTRATA": 3529,
      "Ġaproxi": 3530,
      "frica": 3531,
      "Ġcarro": 3532,
      "Ġhos": 3533,
      "ntac": 3534,
      "ĠAURE": 3535,
      "cados": 3536,
      "Ġdeixou": 3537,
      "ĠCORP": 3538,
      "ĠDou": 3539,
      "Ġalta": 3540,
      "Ġchamada": 3541,
      "Ġinciso": 3542,
      "Ġnovas": 3543,
      "Ġconseguiu": 3544,
      "Ġtemp": 3545,
      "we": 3546,
      "ĠInc": 3547,
      "HO": 3548,
      "atro": 3549,
      "Ġfundamentos": 3550,
      "Ġrecu": 3551,
      "ĠFux": 3552,
      "Ġatividades": 3553,
      "ach": 3554,
      "SS": 3555,
      "Ġprofissional": 3556,
      "Ġaquele": 3557,
      "Ġsin": 3558,
      "Ġremo": 3559,
      "Ġfecha": 3560,
      "Ġ*": 3561,
      "ĠDireito": 3562,
      "Ġpassar": 3563,
      "Ġgol": 3564,
      "ĠProcesso": 3565,
      "ĠRIO": 3566,
      "pesar": 3567,
      "grafo": 3568,
      "Ġjui": 3569,
      "Ġvotac": 3570,
      "Ġris": 3571,
      "segu": 3572,
      "ĠFA": 3573,
      "95": 3574,
      "Ġevi": 3575,
      "Ġdiretor": 3576,
      "40": 3577,
      "Ġministro": 3578,
      "wski": 3579,
      "Ġsepara": 3580,
      "Ġbu": 3581,
      "Ġsite": 3582,
      "ĠReino": 3583,
      "ĠWal": 3584,
      "Ġteste": 3585,
      "Ġdivul": 3586,
      "Ġtime": 3587,
      "Ġserem": 3588,
      "putado": 3589,
      "Ġmonta": 3590,
      "ĠMor": 3591,
      "Ġinclusive": 3592,
      "Ġdivi": 3593,
      "Ġsejam": 3594,
      "ABEAS": 3595,
      "ĠDOS": 3596,
      "ĠMer": 3597,
      "Ġlide": 3598,
      "ĠAra": 3599,
      "ĠMal": 3600,
      "Ġfeliz": 3601,
      "Ġresol": 3602,
      "ĠCORPUS": 3603,
      "didos": 3604,
      "ĠVai": 3605,
      "vidas": 3606,
      "bos": 3607,
      "Ġnenhuma": 3608,
      "Ġ2002": 3609,
      "Ġdeixa": 3610,
      "category": 3611,
      "Ġconsu": 3612,
      "Ġpote": 3613,
      "ĠLisboa": 3614,
      "esar": 3615,
      "Ġmetros": 3616,
      "Ġampla": 3617,
      "Ġconfigu": 3618,
      "Ġnatural": 3619,
      "Ġ2020": 3620,
      "Ġorde": 3621,
      "Ġmanu": 3622,
      "hu": 3623,
      "Ġira": 3624,
      "Ġevento": 3625,
      "OSA": 3626,
      "Ġmediante": 3627,
      "Ġocupa": 3628,
      "Ġatividade": 3629,
      "Ġpossibilidade": 3630,
      "DES": 3631,
      "turo": 3632,
      "ron": 3633,
      "line": 3634,
      "Ġital": 3635,
      "ĠEra": 3636,
      "Ġ2001": 3637,
      "ĠNew": 3638,
      "ser": 3639,
      "ĠOi": 3640,
      "mble": 3641,
      "Ġcris": 3642,
      "Ġtecno": 3643,
      "gular": 3644,
      "Ġcircunsta": 3645,
      "68": 3646,
      "Ġvisita": 3647,
      "BILIDADE": 3648,
      "Ġcontar": 3649,
      "ĠIng": 3650,
      "Ġveio": 3651,
      "ĠBru": 3652,
      "MAR": 3653,
      "Ġchega": 3654,
      "ntor": 3655,
      "urso": 3656,
      "roga": 3657,
      "yo": 3658,
      "vera": 3659,
      "Ġfale": 3660,
      "Ġcanto": 3661,
      "ise": 3662,
      "Ġterceiro": 3663,
      "Ġfiz": 3664,
      "ĠVale": 3665,
      "Ġgre": 3666,
      "Ġoportu": 3667,
      "Ġpolic": 3668,
      "Ġsofre": 3669,
      "Ġvalores": 3670,
      "ĠInstituto": 3671,
      "Ġcho": 3672,
      "Ġarte": 3673,
      "Ġnormal": 3674,
      "ĠPlena": 3675,
      "ADV": 3676,
      "ĠFU": 3677,
      "ICA": 3678,
      "Ġacompanha": 3679,
      "radores": 3680,
      "meros": 3681,
      "Ġgas": 3682,
      "Ġamericano": 3683,
      "ĠGru": 3684,
      "ĠColo": 3685,
      "oa": 3686,
      "Ġtalvez": 3687,
      "Ġcondu": 3688,
      "2010": 3689,
      "Ġpreve": 3690,
      "tto": 3691,
      "Ġcienti": 3692,
      "jui": 3693,
      "Ġconstitui": 3694,
      "judica": 3695,
      "ĠFutebol": 3696,
      "Ġagravante": 3697,
      "ĠFina": 3698,
      "tua": 3699,
      "est": 3700,
      "ĠLI": 3701,
      "cea": 3702,
      "idada": 3703,
      "Ġvolu": 3704,
      "Ġino": 3705,
      "Ġpalavra": 3706,
      "Ġflores": 3707,
      "Ġile": 3708,
      "zou": 3709,
      "Ġapresentar": 3710,
      "ĠSO": 3711,
      "ultura": 3712,
      "ĠQUE": 3713,
      "Ġcidades": 3714,
      "Ġexte": 3715,
      "Ġcompor": 3716,
      "gadores": 3717,
      "Ġinterpretac": 3718,
      "ĠSenhores": 3719,
      "Ġ[": 3720,
      "ĠXI": 3721,
      "Ġrecorrente": 3722,
      "Ġusado": 3723,
      "Ġentrar": 3724,
      "int": 3725,
      "Ġcuja": 3726,
      "sicas": 3727,
      "iclo": 3728,
      "MS": 3729,
      "Ġigual": 3730,
      "terna": 3731,
      "nhos": 3732,
      "Ġmin": 3733,
      "CE": 3734,
      "Ġbrita": 3735,
      "Ġmoder": 3736,
      "ustria": 3737,
      "Ġfundo": 3738,
      "Ġregistro": 3739,
      "Ġnessa": 3740,
      "Ġbair": 3741,
      "Ġquarto": 3742,
      "rcio": 3743,
      "Ġprepara": 3744,
      "Ġsentenc": 3745,
      "ĠSubs": 3746,
      "essu": 3747,
      "Ġacaba": 3748,
      "43": 3749,
      "ĠGeral": 3750,
      "Ġpertence": 3751,
      "ĠApesar": 3752,
      "ward": 3753,
      "ĠGal": 3754,
      "ĠPri": 3755,
      "Ġexplo": 3756,
      "Ġ37": 3757,
      "Ġun": 3758,
      "BA": 3759,
      "Ġreduz": 3760,
      "Ġcujo": 3761,
      "ĠParis": 3762,
      "Ġdista": 3763,
      "ĠGar": 3764,
      "Ġassina": 3765,
      "ĠChar": 3766,
      "posa": 3767,
      "ĠARE": 3768,
      "Ġprocessu": 3769,
      "ssi": 3770,
      "Ġdefini": 3771,
      "nhas": 3772,
      "ĠAlemanha": 3773,
      "Ġ=": 3774,
      "Ġcorrespo": 3775,
      "Ġrepe": 3776,
      "Ġaero": 3777,
      "ku": 3778,
      "Ġbio": 3779,
      "Ġbaixo": 3780,
      "gios": 3781,
      "Ġpartida": 3782,
      "ĠSau": 3783,
      "ncer": 3784,
      "Ġprovi": 3785,
      "Ġexige": 3786,
      "ĠVeja": 3787,
      "tador": 3788,
      "ĠVal": 3789,
      "ĠEdital": 3790,
      "mon": 3791,
      "ĠVI": 3792,
      "Ġvisto": 3793,
      "Ġpros": 3794,
      "Ġencontro": 3795,
      "Ġlevar": 3796,
      "Ġpresenc": 3797,
      "grac": 3798,
      "Ġtais": 3799,
      "ĠFUX": 3800,
      "inente": 3801,
      "91": 3802,
      "Ġavanc": 3803,
      "Ġdescobri": 3804,
      "UNAL": 3805,
      "Ġjovem": 3806,
      "Ġcerta": 3807,
      "roso": 3808,
      "Ġfederal": 3809,
      "ĠOrdem": 3810,
      "hel": 3811,
      "67": 3812,
      "ĠBas": 3813,
      "Ġhaver": 3814,
      "ĠMc": 3815,
      "Ġexerci": 3816,
      "ĠKo": 3817,
      "taram": 3818,
      "ĠBen": 3819,
      "Ġcena": 3820,
      "verno": 3821,
      "ntina": 3822,
      "Ġexperie": 3823,
      "BERTO": 3824,
      "ĠDra": 3825,
      "ĠClaro": 3826,
      "ixas": 3827,
      "vens": 3828,
      "ĠQui": 3829,
      "ĠSanto": 3830,
      "Ġrecorrido": 3831,
      "RES": 3832,
      "Ġestac": 3833,
      "ĠAi": 3834,
      "Ġocas": 3835,
      "ĠAO": 3836,
      "Ġseguimento": 3837,
      "gura": 3838,
      "cnico": 3839,
      "ĠBoa": 3840,
      "2016": 3841,
      "rique": 3842,
      "Ġcriar": 3843,
      "ltimos": 3844,
      "leiros": 3845,
      "leno": 3846,
      "Ġlocalizada": 3847,
      "tese": 3848,
      "Ġassiste": 3849,
      "Ġalto": 3850,
      "ĠZe": 3851,
      "Ġinstrumento": 3852,
      "metros": 3853,
      "Ġcapacidade": 3854,
      "Ġconfor": 3855,
      "Ġinti": 3856,
      "ingle": 3857,
      "--": 3858,
      "Ġinternacional": 3859,
      "ĠIV": 3860,
      "Ġdemanda": 3861,
      "Ġsemelha": 3862,
      "Ġescolh": 3863,
      "ĠKe": 3864,
      "ĠLocalidade": 3865,
      "ĠMEN": 3866,
      "tus": 3867,
      "Ġapose": 3868,
      "Ġq": 3869,
      "ĠNor": 3870,
      "Ġexclusi": 3871,
      "Ġves": 3872,
      "asp": 3873,
      "ĠRodri": 3874,
      "Ġinterna": 3875,
      "Por": 3876,
      "ĠAb": 3877,
      "nciou": 3878,
      "Ġorigina": 3879,
      "Ġautoridade": 3880,
      "Ġocorreu": 3881,
      "Ġmelhores": 3882,
      "Ġlocais": 3883,
      "ricos": 3884,
      "Ġdaqui": 3885,
      "Ġapesar": 3886,
      "Ġfalando": 3887,
      "Ġlice": 3888,
      "Ġsent": 3889,
      "DB": 3890,
      "Ġmembro": 3891,
      "Ġpais": 3892,
      "Ġviu": 3893,
      "blicos": 3894,
      "Ġtelevisa": 3895,
      "ĠJogos": 3896,
      "Ġsab": 3897,
      "ĠRei": 3898,
      "tualmente": 3899,
      "Rela": 3900,
      "Ġrevista": 3901,
      "ĠAP": 3902,
      "Ġimpro": 3903,
      "RITO": 3904,
      "Ġvale": 3905,
      "GO": 3906,
      "Ġilha": 3907,
      "Ġalegac": 3908,
      "Ġestilo": 3909,
      "litar": 3910,
      "Ġdemonstra": 3911,
      "Ġimpug": 3912,
      "ĠBarb": 3913,
      "Ġabertura": 3914,
      "Ġopin": 3915,
      "Ġconquista": 3916,
      "mbar": 3917,
      "gro": 3918,
      "SE": 3919,
      "Ġsuficiente": 3920,
      "ĠLou": 3921,
      "estiv": 3922,
      "Ġcategoria": 3923,
      "Ġcampea": 3924,
      "ĠĠĠĠĠĠĠĠĠĠĠĠĠĠĠĠ": 3925,
      "adas": 3926,
      "Ġpropo": 3927,
      "leza": 3928,
      "ANDO": 3929,
      "ĠFiguei": 3930,
      "Ġcampanha": 3931,
      "ĠTRIBUNAL": 3932,
      "ĠExce": 3933,
      "ARDO": 3934,
      "Ġrealizada": 3935,
      "ĠEUA": 3936,
      "udo": 3937,
      "Ġgri": 3938,
      "fls": 3939,
      "ĠAna": 3940,
      "Ġdiferente": 3941,
      "HA": 3942,
      "Ġpersonagem": 3943,
      "dre": 3944,
      "Ġgi": 3945,
      "Ġfundamento": 3946,
      "ĠTE": 3947,
      "Ġjogador": 3948,
      "Ġtrabalhar": 3949,
      "ĠLewando": 3950,
      "dado": 3951,
      "Ġpartido": 3952,
      "ĠBibliografia": 3953,
      "Ġatenc": 3954,
      "MI": 3955,
      "Ġ1999": 3956,
      "Ġreexame": 3957,
      "Ġdecorre": 3958,
      "ĠLewandowski": 3959,
      "bis": 3960,
      "Ġsoluc": 3961,
      "Ġesteja": 3962,
      "tte": 3963,
      "60": 3964,
      "Ġtentar": 3965,
      "Ġdific": 3966,
      "tec": 3967,
      "Ġ1913": 3968,
      "ĠTrans": 3969,
      "Ġadqui": 3970,
      "STA": 3971,
      "pero": 3972,
      "jos": 3973,
      "Ġsinto": 3974,
      "ĠNossa": 3975,
      "ĠTor": 3976,
      "Ġfrance": 3977,
      "Ġprocedi": 3978,
      "Ġdeciso": 3979,
      "Ġdiante": 3980,
      "istir": 3981,
      "ĠDesculpe": 3982,
      "Ġindo": 3983,
      "Ġconve": 3984,
      "Ġviole": 3985,
      "Ġambos": 3986,
      "iar": 3987,
      "brica": 3988,
      "bio": 3989,
      "ntamente": 3990,
      "ĠDesde": 3991,
      "cip": 3992,
      "Ġganhou": 3993,
      "RMEN": 3994,
      "Ġreun": 3995,
      "ĠATA": 3996,
      "Ġdra": 3997,
      "ĠAssocia": 3998,
      "Ġmorreu": 3999,
      "Ġdocumentos": 4000,
      "Ġlicitante": 4001,
      "dura": 4002,
      "Ġameac": 4003,
      "Ġefeitos": 4004,
      "Ġpalavras": 4005,
      "Ġprestac": 4006,
      "plica": 4007,
      "DF": 4008,
      "tantivo": 4009,
      "Ġestadual": 4010,
      "lico": 4011,
      "telo": 4012,
      "mbu": 4013,
      "ĠAta": 4014,
      "estival": 4015,
      "Ġafe": 4016,
      "jar": 4017,
      "Ġsociais": 4018,
      "Ġparcial": 4019,
      "65": 4020,
      "Ġquesto": 4021,
      "Ġvice": 4022,
      "EIRO": 4023,
      "ĠParece": 4024,
      "Ġcap": 4025,
      "Ġprodutos": 4026,
      "ht": 4027,
      "ĠChina": 4028,
      "SEGUNDA": 4029,
      "ura": 4030,
      "Ġfix": 4031,
      "itas": 4032,
      "Ġcomunicac": 4033,
      "ĠSub": 4034,
      "chi": 4035,
      "Ġdescri": 4036,
      "AGDO": 4037,
      "Ġadic": 4038,
      "ell": 4039,
      "Ġantiga": 4040,
      "Ġmono": 4041,
      "mal": 4042,
      "Ġcurso": 4043,
      "Ġculpa": 4044,
      "Ġregistra": 4045,
      "vid": 4046,
      "Ġconseque": 4047,
      "ĠCong": 4048,
      "DENTE": 4049,
      "Ġalia": 4050,
      "fil": 4051,
      "ĠPelo": 4052,
      "Ġfilmes": 4053,
      "ĠFigueiredo": 4054,
      "ĠMus": 4055,
      "ENA": 4056,
      "Ġbenefi": 4057,
      "Ġvivo": 4058,
      "Ġespanho": 4059,
      "ngue": 4060,
      "Ġintro": 4061,
      "\"),": 4062,
      "ĠSha": 4063,
      "autenticar": 4064,
      "Ġprevisto": 4065,
      "Ġimpres": 4066,
      "rope": 4067,
      "autenticarDocumento": 4068,
      "Ġeta": 4069,
      "ker": 4070,
      "Ġpopular": 4071,
      "Ġexpe": 4072,
      "Ġdiferenc": 4073,
      "Ġservido": 4074,
      "ĠMundo": 4075,
      "ĠJapa": 4076,
      "Ġopera": 4077,
      "Ġinfer": 4078,
      "Ġcarta": 4079,
      "ĠRece": 4080,
      "ĠMonte": 4081,
      "Ġfamos": 4082,
      "49": 4083,
      "cadas": 4084,
      "ntando": 4085,
      "ĠĠĠ": 4086,
      "ĠTemos": 4087,
      "ĠCie": 4088,
      "fin": 4089,
      "Ġapresentac": 4090,
      "bato": 4091,
      "Ġfuturo": 4092,
      "ĠEstamos": 4093,
      "ĠYork": 4094,
      "ĠOO": 4095,
      "Ġetc": 4096,
      "Ġcomunidade": 4097,
      "ĠProc": 4098,
      "ĠFinanc": 4099,
      "Ġveja": 4100,
      "ndado": 4101,
      "Ġconhece": 4102,
      "dicia": 4103,
      "verso": 4104,
      "Ġcrite": 4105,
      "iva": 4106,
      "ĠAC": 4107,
      "ardo": 4108,
      "ndem": 4109,
      "den": 4110,
      "true": 4111,
      "pare": 4112,
      "nita": 4113,
      "Ġfemin": 4114,
      "Ġregras": 4115,
      "ĠTrata": 4116,
      "ĠLE": 4117,
      "Ġprocessos": 4118,
      "Ġeconomia": 4119,
      "70": 4120,
      "Ġpublicac": 4121,
      "riam": 4122,
      "Ġ35": 4123,
      "risto": 4124,
      "Ġamo": 4125,
      "ramente": 4126,
      "Ġlivros": 4127,
      "ĠSabe": 4128,
      "Ġlibe": 4129,
      "Ġdanc": 4130,
      "Ġim": 4131,
      "Ġidio": 4132,
      "cedentes": 4133,
      "ntada": 4134,
      "Ġordina": 4135,
      "Ġdecidiu": 4136,
      "Ġmedo": 4137,
      "ky": 4138,
      "Ġatos": 4139,
      "Ġcivil": 4140,
      "Ġ1990": 4141,
      "pai": 4142,
      "Ġimportantes": 4143,
      "Ġfontes": 4144,
      "Ġdizendo": 4145,
      "Ġreu": 4146,
      "Ġresponsabilidade": 4147,
      "Ġtraz": 4148,
      "Ġsustenta": 4149,
      "ĠSAN": 4150,
      "SB": 4151,
      "ĠJes": 4152,
      "ĠEspanha": 4153,
      "Ġespera": 4154,
      "Ġcima": 4155,
      "ed": 4156,
      "Ġpropor": 4157,
      "ĠYou": 4158,
      "tz": 4159,
      "perar": 4160,
      "logo": 4161,
      "Ġcinema": 4162,
      "ĠFernando": 4163,
      "Ġinve": 4164,
      "Ġoito": 4165,
      "sio": 4166,
      "lados": 4167,
      "todo": 4168,
      "solu": 4169,
      "Ġdireta": 4170,
      "Ġpublicado": 4171,
      "Ġgeralmente": 4172,
      "Ġinfa": 4173,
      "Ġimagem": 4174,
      "ĠQuero": 4175,
      "Ġabaixo": 4176,
      "Ġabs": 4177,
      "Ġconfli": 4178,
      "loc": 4179,
      "lamento": 4180,
      "ĠIsto": 4181,
      "ĠCosta": 4182,
      "Ġparticipou": 4183,
      "ang": 4184,
      "ĠMil": 4185,
      "MINIST": 4186,
      "Ġ1998": 4187,
      "Ġdisco": 4188,
      "Ġmilita": 4189,
      "Ġconformidade": 4190,
      "Ġpequena": 4191,
      "Ġesposa": 4192,
      "all": 4193,
      "id": 4194,
      "ĠLea": 4195,
      "Ġresposta": 4196,
      "Ġlevou": 4197,
      "ĠCI": 4198,
      "ĠCruz": 4199,
      "EMB": 4200,
      "Ġquantidade": 4201,
      "gional": 4202,
      "Ġantigo": 4203,
      "olo": 4204,
      "gus": 4205,
      "dap": 4206,
      "eta": 4207,
      "2006": 4208,
      "Ġrealizado": 4209,
      "SU": 4210,
      "mbra": 4211,
      "FA": 4212,
      "vidos": 4213,
      "Ġmis": 4214,
      "....": 4215,
      "Ġtornar": 4216,
      "Ġ60": 4217,
      "Ġdesempe": 4218,
      "Ġexposto": 4219,
      "Ġseguir": 4220,
      "Ġdistrito": 4221,
      "ĠEspere": 4222,
      "eiras": 4223,
      "FI": 4224,
      "ĠJoaquim": 4225,
      "Ġinconstitucional": 4226,
      "Decisa": 4227,
      "doria": 4228,
      "ĠXV": 4229,
      "Ġfaze": 4230,
      "mem": 4231,
      "FEN": 4232,
      "Ġespecialmente": 4233,
      "Ġinvestigac": 4234,
      "Ġarre": 4235,
      "Ìĥ.": 4236,
      "Ġjustificadamente": 4237,
      "Ìĥ,": 4238,
      "CL": 4239,
      "Ġcorac": 4240,
      "Ġcru": 4241,
      "Ġtivesse": 4242,
      "93": 4243,
      "Ġinterposto": 4244,
      "ĠCE": 4245,
      "ĠCome": 4246,
      "Ġ33": 4247,
      "ãĤ": 4248,
      "Ġtradic": 4249,
      "mbora": 4250,
      "Ġestudo": 4251,
      "lan": 4252,
      "Ġnotas": 4253,
      "Ġconstante": 4254,
      "ĠMunicipal": 4255,
      "ORA": 4256,
      "Ġalterac": 4257,
      "Ġcusto": 4258,
      "ĠPARA": 4259,
      "Ġdoenc": 4260,
      "Ġmotivo": 4261,
      "Ġy": 4262,
      "ĠBrasileiro": 4263,
      "ĠAde": 4264,
      "Ġrequisitos": 4265,
      "75": 4266,
      "ung": 4267,
      "nora": 4268,
      "Ġcriado": 4269,
      "Ġjeito": 4270,
      "ndendo": 4271,
      "nciamento": 4272,
      "Ġmodi": 4273,
      "leta": 4274,
      "ĠSan": 4275,
      "Ġparticular": 4276,
      "Ġdificul": 4277,
      "ght": 4278,
      "ncipe": 4279,
      "Ġestadu": 4280,
      "ĠNunca": 4281,
      "gramas": 4282,
      "Ġsorte": 4283,
      "Ġtinham": 4284,
      "mbito": 4285,
      "ĠGE": 4286,
      "corre": 4287,
      "partamento": 4288,
      "Ìģ...": 4289,
      "BLICO": 4290,
      "Ġminhas": 4291,
      "EXTRA": 4292,
      "teiro": 4293,
      "Ġenca": 4294,
      "Ġnossos": 4295,
      "ndente": 4296,
      "nexo": 4297,
      "Ġparce": 4298,
      "Ġvei": 4299,
      "ĠMelhor": 4300,
      "Ġdado": 4301,
      "Ġpreside": 4302,
      "nime": 4303,
      "Ġshow": 4304,
      "ntino": 4305,
      "ĠAlexa": 4306,
      "Ġrisco": 4307,
      "ĠSouza": 4308,
      "ĠHi": 4309,
      "ĠMartin": 4310,
      "Ġconhec": 4311,
      "tude": 4312,
      "Ġfazem": 4313,
      "Ġensino": 4314,
      "Ġcolocar": 4315,
      "Ġestudos": 4316,
      "licar": 4317,
      "Ġmanha": 4318,
      "Ġentrega": 4319,
      "deia": 4320,
      "64": 4321,
      "MENTA": 4322,
      "ĠMos": 4323,
      "SC": 4324,
      "Ġcompara": 4325,
      "Ġquarta": 4326,
      "biliza": 4327,
      "Ġsabia": 4328,
      "Ġ188": 4329,
      "ĠMinha": 4330,
      "Ġrevela": 4331,
      "ua": 4332,
      "ĠFunda": 4333,
      "Ġlou": 4334,
      "Ġatualmente": 4335,
      "kk": 4336,
      "La": 4337,
      "Ġpratica": 4338,
      "Ġanimais": 4339,
      "ther": 4340,
      "alo": 4341,
      "Ġlitera": 4342,
      "Ġmerece": 4343,
      "Ġconcessa": 4344,
      "ĠROBERTO": 4345,
      "Ġirre": 4346,
      "ĠWor": 4347,
      "Ġnave": 4348,
      "Ġouro": 4349,
      "nus": 4350,
      "Ġcomando": 4351,
      "nec": 4352,
      "xiste": 4353,
      "vidade": 4354,
      "ĠMEL": 4355,
      "Ġassas": 4356,
      "nista": 4357,
      "Ġlegisla": 4358,
      "Ġsubstitui": 4359,
      "Ġaceita": 4360,
      "fra": 4361,
      "Ġtama": 4362,
      "ĠManu": 4363,
      "Ġdesses": 4364,
      "xas": 4365,
      "PROCED": 4366,
      "EXTRATO": 4367,
      "Ġmusical": 4368,
      "Ġcontribuic": 4369,
      "xico": 4370,
      "Ġmundial": 4371,
      "Ġespi": 4372,
      "Ġprima": 4373,
      "neio": 4374,
      "ĠVic": 4375,
      "Ġdimin": 4376,
      "fl": 4377,
      "Ġterceira": 4378,
      "tim": 4379,
      "nizac": 4380,
      "ficada": 4381,
      "Ġconvida": 4382,
      "SIDENTE": 4383,
      "lhar": 4384,
      "ĠWillia": 4385,
      "ĠLond": 4386,
      "Ġabando": 4387,
      "2009": 4388,
      "Ġinterior": 4389,
      "dim": 4390,
      "Ġdescre": 4391,
      "sse": 4392,
      "Ġnot": 4393,
      "ĠIr": 4394,
      "tista": 4395,
      "Ġcompree": 4396,
      "Ġfundamenta": 4397,
      "Ġentrada": 4398,
      "Ġolha": 4399,
      "Ġseguida": 4400,
      "ugu": 4401,
      "Ġcrimes": 4402,
      "ĠVila": 4403,
      "ĠCata": 4404,
      "Ġhis": 4405,
      "Ġcentral": 4406,
      "Ġrepu": 4407,
      "Ġdivisa": 4408,
      "Ġassunto": 4409,
      "ĠArge": 4410,
      "Ġilegal": 4411,
      "Ġrealizac": 4412,
      "ren": 4413,
      "Ġreceber": 4414,
      "ĠBarbosa": 4415,
      "ĠCandido": 4416,
      "ĠGene": 4417,
      "nciona": 4418,
      "deste": 4419,
      "ĠPartido": 4420,
      "Ġliminar": 4421,
      "tribuic": 4422,
      "lizar": 4423,
      "Ġdevida": 4424,
      "Ġposi": 4425,
      "Ġescreveu": 4426,
      "Ġsobrevi": 4427,
      "Ġfonte": 4428,
      "Ġataque": 4429,
      "STRU": 4430,
      "Ġliga": 4431,
      "Ġeurope": 4432,
      "Ġdocumento": 4433,
      "Ġ38": 4434,
      "gimento": 4435,
      "ICO": 4436,
      "Ġbater": 4437,
      "ĠCN": 4438,
      "ficial": 4439,
      "licita": 4440,
      "MULA": 4441,
      "ventu": 4442,
      "Ġdel": 4443,
      "culdade": 4444,
      "ĠAndre": 4445,
      "rato": 4446,
      "creto": 4447,
      "cc": 4448,
      "ĠEmbora": 4449,
      "Ġacontece": 4450,
      "ĠSch": 4451,
      "42": 4452,
      "Ġnomes": 4453,
      "Ġacide": 4454,
      "ham": 4455,
      "ĠPresentes": 4456,
      "ĠEr": 4457,
      "Ġaquela": 4458,
      "Ġmic": 4459,
      "Ġgrau": 4460,
      "dense": 4461,
      "Ġexplica": 4462,
      "Ġ70": 4463,
      "ĠFl": 4464,
      "Ġlar": 4465,
      "Ġcasamento": 4466,
      "Ġesquer": 4467,
      "Ġolhos": 4468,
      "Ġconsidera": 4469,
      "culino": 4470,
      "Ġvoltou": 4471,
      "Car": 4472,
      "Ġ1988": 4473,
      "ich": 4474,
      "gais": 4475,
      "nimidade": 4476,
      "Ġaspec": 4477,
      "Ġprejui": 4478,
      "ĠPala": 4479,
      "bado": 4480,
      "Ġcontri": 4481,
      "fos": 4482,
      "essi": 4483,
      "ndu": 4484,
      "Ġlegi": 4485,
      "Ġgarantia": 4486,
      "ĠServ": 4487,
      "Ġmilha": 4488,
      "jeto": 4489,
      "Ġvelho": 4490,
      "Ġconsiderada": 4491,
      "como": 4492,
      "Ġ1996": 4493,
      "tadores": 4494,
      "Ġchu": 4495,
      "Ġunanimidade": 4496,
      "porto": 4497,
      "Ġlonge": 4498,
      "nomia": 4499,
      "lei": 4500,
      "Ġconstitucionais": 4501,
      "vamente": 4502,
      "sicos": 4503,
      "Ġconversa": 4504,
      "Ġpegar": 4505,
      "Ġ32": 4506,
      "ulta": 4507,
      "Ġnasceu": 4508,
      "ĠJack": 4509,
      "Ġeducac": 4510,
      "icidade": 4511,
      "zu": 4512,
      "Ġtrabalhos": 4513,
      "ĠChi": 4514,
      "ot": 4515,
      "gri": 4516,
      "Ġselec": 4517,
      "Ġeliminac": 4518,
      "Ġmeda": 4519,
      "ĠPeter": 4520,
      "cimentos": 4521,
      "Ġhomena": 4522,
      "Ġigreja": 4523,
      "Ġbairro": 4524,
      "rvo": 4525,
      "Ġusando": 4526,
      "dge": 4527,
      "ĠGrupo": 4528,
      "ssia": 4529,
      "ĠLiv": 4530,
      "Ġsecreta": 4531,
      "Ġbilho": 4532,
      "Ġtelefo": 4533,
      "ĠNada": 4534,
      "EGA": 4535,
      "ĠART": 4536,
      "Ġiso": 4537,
      "cle": 4538,
      "ĠAnge": 4539,
      "garam": 4540,
      "pica": 4541,
      "ĠBio": 4542,
      "ĠFlo": 4543,
      "nsidade": 4544,
      "Ġjudicial": 4545,
      "Ġclasse": 4546,
      "Ġligac": 4547,
      "Ġchefe": 4548,
      "lige": 4549,
      "tional": 4550,
      "Ġgosto": 4551,
      "irmar": 4552,
      "ĠINSTRU": 4553,
      "fas": 4554,
      "ĠCEL": 4555,
      "Ġaltura": 4556,
      "ĠSubstantivo": 4557,
      "ĠJudicia": 4558,
      "trimo": 4559,
      "Ġementa": 4560,
      "Ġmuita": 4561,
      "lipe": 4562,
      "nismo": 4563,
      "CIAL": 4564,
      "Ġbebe": 4565,
      "Ġacorda": 4566,
      "ĠFla": 4567,
      "vora": 4568,
      "ĠCompa": 4569,
      "ĠGIL": 4570,
      "riste": 4571,
      "ĠED": 4572,
      "VAS": 4573,
      "Ġreflexa": 4574,
      "Me": 4575,
      "Ġquali": 4576,
      "41": 4577,
      "quina": 4578,
      "Ġdemocra": 4579,
      "ĠDil": 4580,
      "cro": 4581,
      "forme": 4582,
      "versity": 4583,
      "ntem": 4584,
      "centes": 4585,
      "ĠTro": 4586,
      "ĠCongresso": 4587,
      "ĠTrabalho": 4588,
      "RJ": 4589,
      "ĠApe": 4590,
      "Ġconcurso": 4591,
      "ãĥ": 4592,
      "gante": 4593,
      "Ġgesta": 4594,
      "ĠFran": 4595,
      "Ġ1997": 4596,
      "Ġarmas": 4597,
      "Ġcontinua": 4598,
      "Ġprevista": 4599,
      "hei": 4600,
      "rer": 4601,
      "Ġ102": 4602,
      "bida": 4603,
      "Ġhumanos": 4604,
      "ĠMENDES": 4605,
      "ĠJesus": 4606,
      "Ġface": 4607,
      "ricas": 4608,
      "Ġator": 4609,
      "Ġgaroto": 4610,
      "Ġvira": 4611,
      "ĠCorre": 4612,
      "tais": 4613,
      "59": 4614,
      "Ġfronte": 4615,
      "rupc": 4616,
      "Ġconfia": 4617,
      "Ġtermina": 4618,
      "ĠMara": 4619,
      "Ġcapita": 4620,
      "Ġcaute": 4621,
      "Ġobrigado": 4622,
      "Ġmissa": 4623,
      "ĠExcele": 4624,
      "ficos": 4625,
      "ĠUnido": 4626,
      "ĠLondres": 4627,
      "ĠBranc": 4628,
      "orro": 4629,
      "Ġconfirma": 4630,
      "Ġlimites": 4631,
      "rsia": 4632,
      "Ġglo": 4633,
      "Ġconclusa": 4634,
      "Ġreside": 4635,
      "ĠBARRO": 4636,
      "Ġcontribui": 4637,
      "ĠEnquanto": 4638,
      "Ġjuiz": 4639,
      "ĠEurope": 4640,
      "Ġfogo": 4641,
      "Ġcidada": 4642,
      "Ġabsolu": 4643,
      "Ġterc": 4644,
      "ĠMinas": 4645,
      "Ġjuntos": 4646,
      "Ġganha": 4647,
      "Ġadap": 4648,
      "Ġince": 4649,
      "ĠExtra": 4650,
      "RS": 4651,
      "Ġcategory": 4652,
      "ĠChris": 4653,
      "Ġ?": 4654,
      "Ġpresentes": 4655,
      "Ġmassa": 4656,
      "nstru": 4657,
      "ĠOk": 4658,
      "ntil": 4659,
      "Ġprocessual": 4660,
      "Ġeventos": 4661,
      "Ġresultados": 4662,
      "ĠSocial": 4663,
      "Ġnotcategory": 4664,
      "Ġprovo": 4665,
      "gna": 4666,
      "Ġmedidas": 4667,
      "laterra": 4668,
      "Ġpermite": 4669,
      "ĠCri": 4670,
      "ĠEscola": 4671,
      "ONSTITUCIONAL": 4672,
      "Ġvizinha": 4673,
      "Ġtentando": 4674,
      "forc": 4675,
      "Ġservidores": 4676,
      "sito": 4677,
      "Ġcombi": 4678,
      "Ġalterna": 4679,
      "ĠDavid": 4680,
      "Ġconvo": 4681,
      "lva": 4682,
      "cara": 4683,
      "EC": 4684,
      "ndeira": 4685,
      "ĠCarta": 4686,
      "ĠGILMAR": 4687,
      "Ġprove": 4688,
      "Ġcrise": 4689,
      "Ġurba": 4690,
      "ĠSER": 4691,
      "teu": 4692,
      "Ġenge": 4693,
      "madamente": 4694,
      "americano": 4695,
      "Ġsta": 4696,
      "Po": 4697,
      "Ġexpres": 4698,
      "ĠSei": 4699,
      "ĠPROCES": 4700,
      "Ġ)": 4701,
      "Ġgeo": 4702,
      "veram": 4703,
      "Ġconseguir": 4704,
      "lon": 4705,
      "Ġtratamento": 4706,
      "ire": 4707,
      "Ġcele": 4708,
      "Ġentra": 4709,
      "Ġatuac": 4710,
      "Ġatribui": 4711,
      "Ġvanta": 4712,
      "Ġhon": 4713,
      "Ġproi": 4714,
      "NTE": 4715,
      "ĠAsse": 4716,
      "Ġ48": 4717,
      "istema": 4718,
      "Ġfesta": 4719,
      "ĠTURMAEXTRATO": 4720,
      "Ġpreso": 4721,
      "ĠReal": 4722,
      "53": 4723,
      "micos": 4724,
      "arti": 4725,
      "Ġambiente": 4726,
      "Ġerrado": 4727,
      "ĠFede": 4728,
      "Ġperda": 4729,
      "Ġcostu": 4730,
      "ĠMilitar": 4731,
      "Ġindu": 4732,
      "brar": 4733,
      "ĠINSTRUMENTO": 4734,
      "ĠBiografia": 4735,
      "Ġutilizado": 4736,
      "ĠMELLO": 4737,
      "Ġressal": 4738,
      "gam": 4739,
      "Ġentender": 4740,
      "Ġevitar": 4741,
      "Ġadministrac": 4742,
      "Ġmudar": 4743,
      "ulos": 4744,
      "Ġsistemas": 4745,
      "Ġlicitac": 4746,
      "Ġros": 4747,
      "Ra": 4748,
      "Ġfiscal": 4749,
      "ĠBel": 4750,
      "Ġposto": 4751,
      "Ġpressu": 4752,
      "ĠComissa": 4753,
      "Ġportuguesa": 4754,
      "Ġtrou": 4755,
      "Ġpossu": 4756,
      "Ġexpa": 4757,
      "ossa": 4758,
      "Ġ80": 4759,
      "ltra": 4760,
      "92": 4761,
      "Ġmemo": 4762,
      "ĠInglaterra": 4763,
      "ĠCentro": 4764,
      "Ġcomenta": 4765,
      "nces": 4766,
      "Ġmovi": 4767,
      "ladas": 4768,
      "Ġinu": 4769,
      "Ġcro": 4770,
      "nciar": 4771,
      "Ġrus": 4772,
      "Ġerro": 4773,
      "ĠFolha": 4774,
      "Ġconsigo": 4775,
      "Ġcontrove": 4776,
      "celo": 4777,
      "Ġdomin": 4778,
      "neo": 4779,
      "tta": 4780,
      "Ġ1980": 4781,
      "Ġimagens": 4782,
      "Ġveloc": 4783,
      "Ġimpre": 4784,
      "ĠSol": 4785,
      "org": 4786,
      "Ġprofu": 4787,
      "Le": 4788,
      "hael": 4789,
      "Ġedifi": 4790,
      "tch": 4791,
      "Ġmanutenc": 4792,
      "Ġexistem": 4793,
      "Ġrepro": 4794,
      "Ġpriva": 4795,
      "Ġcrimin": 4796,
      "Ġcrista": 4797,
      "Ġquinta": 4798,
      "REC": 4799,
      "Ġafro": 4800,
      "ðŁ": 4801,
      "Ġinicialmente": 4802,
      "ĠDeve": 4803,
      "Ġmilitares": 4804,
      "Ġprojetos": 4805,
      "Ġsetor": 4806,
      "lubes": 4807,
      "2007": 4808,
      "Os": 4809,
      "zul": 4810,
      "Ġvila": 4811,
      "Ġpensar": 4812,
      "Ġnegar": 4813,
      "ĠMuseu": 4814,
      "reia": 4815,
      "ĠProf": 4816,
      "WS": 4817,
      "teca": 4818,
      "Ġmudou": 4819,
      "tinho": 4820,
      "ĠCentral": 4821,
      "demia": 4822,
      "Ġobrigac": 4823,
      "teral": 4824,
      "ĠRelatora": 4825,
      "ĠRib": 4826,
      "Ġpronu": 4827,
      "Ġcomanda": 4828,
      "Ġmetade": 4829,
      "Ġfins": 4830,
      "Ġformal": 4831,
      "ĠSete": 4832,
      "Ġcontexto": 4833,
      "Ġimpossi": 4834,
      "ĠEN": 4835,
      "Ġtomar": 4836,
      "ĠClube": 4837,
      "ji": 4838,
      "micas": 4839,
      "ulas": 4840,
      "ĠIX": 4841,
      "Ġcrescimento": 4842,
      "Ġflu": 4843,
      "Ġentrevista": 4844,
      "ĠMesmo": 4845,
      "ington": 4846,
      "So": 4847,
      "riamente": 4848,
      "nior": 4849,
      "Ġsemanas": 4850,
      "ĠConc": 4851,
      "Ġdisputa": 4852,
      "Ġquadro": 4853,
      "lando": 4854,
      "Ġemba": 4855,
      "Ġregio": 4856,
      "ntiva": 4857,
      "Ġobser": 4858,
      "Ġmeca": 4859,
      "Ġprotec": 4860,
      "ĠRecor": 4861,
      "Ġ1995": 4862,
      "ash": 4863,
      "cesa": 4864,
      "tter": 4865,
      "Ġposteriormente": 4866,
      "ĠJorge": 4867,
      "ĠCELSO": 4868,
      "MG": 4869,
      "ĠComun": 4870,
      "Ġfui": 4871,
      "Ġtamanho": 4872,
      "Ġparticipar": 4873,
      "Ġferro": 4874,
      "Ġaqueles": 4875,
      "ĠBARROSO": 4876,
      "saram": 4877,
      "Ġ01": 4878,
      "ĠDilma": 4879,
      "Ġple": 4880,
      "Ġinvia": 4881,
      "ĠPesso": 4882,
      "Ġentrou": 4883,
      "Ġzona": 4884,
      "Ġproprie": 4885,
      "Ġpodia": 4886,
      "Ġmensagem": 4887,
      "Ġrua": 4888,
      "ĠDIST": 4889,
      "Ġbrasileiros": 4890,
      "Ġclassificac": 4891,
      "vador": 4892,
      "Ġcapaz": 4893,
      "Ġincor": 4894,
      "inou": 4895,
      "Ġarquite": 4896,
      "ĠBarroso": 4897,
      "Ġ1994": 4898,
      "stria": 4899,
      "ĠCONSTITU": 4900,
      "Ġbatalha": 4901,
      "ĠEduardo": 4902,
      "Secreta": 4903,
      "iliar": 4904,
      "Ġrelatoria": 4905,
      "52": 4906,
      "titude": 4907,
      "ĠLiga": 4908,
      "Ġtaxa": 4909,
      "Ġcanal": 4910,
      "Ġopc": 4911,
      "Ġrealidade": 4912,
      "Ġteoria": 4913,
      "Ġr": 4914,
      "Ġinaugu": 4915,
      "Ġsubme": 4916,
      "Ġfla": 4917,
      "Ġobte": 4918,
      "ex": 4919,
      "trou": 4920,
      "Ġdene": 4921,
      "Ġdepo": 4922,
      "nsac": 4923,
      "ĠEstadual": 4924,
      "ĠOlha": 4925,
      "ĠCont": 4926,
      "mber": 4927,
      "Ġind": 4928,
      "Ġsexta": 4929,
      "ntia": 4930,
      "Ġpersonagens": 4931,
      "ĠWik": 4932,
      "ĠRIC": 4933,
      "itou": 4934,
      "isar": 4935,
      "ĠCAR": 4936,
      "nito": 4937,
      "ĠNem": 4938,
      "Ġreserva": 4939,
      "Ġtempera": 4940,
      "Ġquad": 4941,
      "Ġestrang": 4942,
      "Ġcolabo": 4943,
      "Ġautoma": 4944,
      "Ġitem": 4945,
      "Ġtenham": 4946,
      "TRO": 4947,
      "Ġconduta": 4948,
      "ntade": 4949,
      "cem": 4950,
      "Ġviagem": 4951,
      "bido": 4952,
      "Ġreconhecimento": 4953,
      "Ġformas": 4954,
      "Ġcomercial": 4955,
      "Ġexatamente": 4956,
      "ĠDistrito": 4957,
      "Ġreno": 4958,
      "Ġtempos": 4959,
      "Ġdessas": 4960,
      "Ġlocalizado": 4961,
      "Ġgostaria": 4962,
      ")\"": 4963,
      "Ġquiser": 4964,
      "79": 4965,
      "ĠCarreira": 4966,
      "Ġeventual": 4967,
      "Ġrequer": 4968,
      "Ġplaneta": 4969,
      "Ġtransporte": 4970,
      "Ġlicenc": 4971,
      "miu": 4972,
      "Ġaproximadamente": 4973,
      "ĠSho": 4974,
      "Ġextensa": 4975,
      "ndos": 4976,
      "rente": 4977,
      "mericanos": 4978,
      "Pro": 4979,
      "cto": 4980,
      "Ġprofesso": 4981,
      "Ġhaja": 4982,
      "lias": 4983,
      "ĠSera": 4984,
      "Ġjogar": 4985,
      "Ġseque": 4986,
      "ĠEstu": 4987,
      "Ġdedica": 4988,
      "teis": 4989,
      "guel": 4990,
      "bic": 4991,
      "Ġpadra": 4992,
      "Ġinstalac": 4993,
      "mios": 4994,
      "Ġcenso": 4995,
      "ĠUNIA": 4996,
      "ood": 4997,
      "ting": 4998,
      "Ba": 4999,
      "Ġguarda": 5000,
      "Ġcantora": 5001,
      "feitura": 5002,
      "ĠServic": 5003,
      "ĠTh": 5004,
      "Ġmorto": 5005,
      "Ġnomeado": 5006,
      "putados": 5007,
      "ĠROSA": 5008,
      "berta": 5009,
      "Ġconsegui": 5010,
      "ĠPEN": 5011,
      "Ġperder": 5012,
      "ĠCole": 5013,
      "Ġassegu": 5014,
      "WSKI": 5015,
      "ĠRos": 5016,
      "zz": 5017,
      "bilidades": 5018,
      "mbia": 5019,
      "Ġtese": 5020,
      "Ġdiretamente": 5021,
      "Ġargumentos": 5022,
      "ĠOR": 5023,
      "ĠRegia": 5024,
      "TER": 5025,
      "Ġfize": 5026,
      "Ġcarre": 5027,
      "nados": 5028,
      "tidas": 5029,
      "tres": 5030,
      "Ġartista": 5031,
      "Ġpaz": 5032,
      "dicos": 5033,
      "Ġrel": 5034,
      "Ġcompanhia": 5035,
      "ware": 5036,
      "pace": 5037,
      "ĠLEW": 5038,
      "Ġconver": 5039,
      "âĢĺ": 5040,
      "Ġ90": 5041,
      "2008": 5042,
      "ĠRICARDO": 5043,
      "tismo": 5044,
      "Ġretra": 5045,
      "gs": 5046,
      "Ġdisposto": 5047,
      "Ġacredita": 5048,
      "presidente": 5049,
      "ĠPosso": 5050,
      "ĠWE": 5051,
      "Mo": 5052,
      "Ġbaixa": 5053,
      "ĠHoje": 5054,
      "Ġanteriores": 5055,
      "ĠAssociac": 5056,
      "Ġdiscip": 5057,
      "ĠLEWANDO": 5058,
      "finic": 5059,
      "VIDO": 5060,
      "eri": 5061,
      "Ġacres": 5062,
      "dados": 5063,
      "STIC": 5064,
      "ĠLEWANDOWSKI": 5065,
      "ĠHarry": 5066,
      "Ġesforc": 5067,
      "Ġfaixa": 5068,
      "Ġtiveram": 5069,
      "BLICA": 5070,
      "ĠVir": 5071,
      "orc": 5072,
      "neta": 5073,
      "Ġsof": 5074,
      "ĠTho": 5075,
      "ĠVenha": 5076,
      "ĠAlguns": 5077,
      "ĠAntes": 5078,
      "ÌĮ": 5079,
      "...)": 5080,
      "61": 5081,
      "ĠSh": 5082,
      "PROCURADOR": 5083,
      "Ġpressa": 5084,
      "the": 5085,
      "ĠEmenta": 5086,
      "Ġchance": 5087,
      "Ġvoz": 5088,
      "dada": 5089,
      "Ġrejei": 5090,
      "Ġcac": 5091,
      "Ġredor": 5092,
      "melho": 5093,
      "ĠTele": 5094,
      "ĠInforma": 5095,
      "Ġpilo": 5096,
      "madas": 5097,
      "ndro": 5098,
      "Ġ1970": 5099,
      "Ġcriada": 5100,
      "Ġinconstitucionalidade": 5101,
      "ense": 5102,
      "Ġtorno": 5103,
      "Ġparar": 5104,
      "Ġ93": 5105,
      "ĠPOR": 5106,
      "trica": 5107,
      "Ġpagar": 5108,
      "74": 5109,
      "Ġcorri": 5110,
      "Ġconsegue": 5111,
      "Ġpropriedade": 5112,
      "Ġouvir": 5113,
      "prios": 5114,
      "ĠLin": 5115,
      "Ġcompu": 5116,
      "Ġdeputado": 5117,
      "Ġunidade": 5118,
      "Ġsolo": 5119,
      "Ro": 5120,
      "Em": 5121,
      "ĠCLA": 5122,
      "ĠÐ": 5123,
      "Ġjovens": 5124,
      "ĠFilho": 5125,
      "nciais": 5126,
      "Ġtriste": 5127,
      "Ġ1992": 5128,
      "Ġcontato": 5129,
      "ĠJames": 5130,
      "ĠContrato": 5131,
      "Ġtrouxe": 5132,
      "Ġvontade": 5133,
      "dal": 5134,
      "AGRAVO": 5135,
      "ĠSEC": 5136,
      "Ġcombate": 5137,
      "69": 5138,
      "ĠINF": 5139,
      "Ġperdeu": 5140,
      "riou": 5141,
      "ĠForma": 5142,
      "Ġestreia": 5143,
      "ĠGeorge": 5144,
      "Ġmotor": 5145,
      "ĠWar": 5146,
      "Ġ1993": 5147,
      "ĠMax": 5148,
      "ĠPaulista": 5149,
      "ĠPare": 5150,
      "Ġqueda": 5151,
      "ĠFI": 5152,
      "Ġprofissionais": 5153,
      "Ġdro": 5154,
      "Ġjogadores": 5155,
      "Ġsec": 5156,
      "Ġjurisdicional": 5157,
      "ĠParana": 5158,
      "Ġunidades": 5159,
      "ele": 5160,
      "Ġconsiste": 5161,
      "ĠFal": 5162,
      "volu": 5163,
      "Ġoeste": 5164,
      "Ġopinia": 5165,
      "ĠJUSTIC": 5166,
      "Ġbloque": 5167,
      "ĠFinal": 5168,
      "Ġinternet": 5169,
      "Ġtotalmente": 5170,
      "Ġprimeiras": 5171,
      "Ġprovavelmente": 5172,
      "ĠHenrique": 5173,
      "Ġsimplesmente": 5174,
      "Ġdando": 5175,
      "ĠISB": 5176,
      "ĠNatal": 5177,
      "Ġemi": 5178,
      "ĠVida": 5179,
      "ĠWorld": 5180,
      "Ġcaval": 5181,
      "Ġcumprimento": 5182,
      "Ġfam": 5183,
      "Ġacu": 5184,
      "Eu": 5185,
      "Ġparecer": 5186,
      "Ġprogramas": 5187,
      "Ġganhar": 5188,
      "IDADE": 5189,
      "ĠISBN": 5190,
      "ĠTri": 5191,
      "Ġbis": 5192,
      "Li": 5193,
      "Ġprece": 5194,
      "Ġapu": 5195,
      "Ġprocura": 5196,
      "ĠLEI": 5197,
      "Ġvizinhanc": 5198,
      "usta": 5199,
      "Ġanunciou": 5200,
      "PA": 5201,
      "Ġtecnologia": 5202,
      "Ġderi": 5203,
      "lizado": 5204,
      "Ġestrate": 5205,
      "Ġatriz": 5206,
      "Ġvc": 5207,
      "nios": 5208,
      "gicos": 5209,
      "Ġescolha": 5210,
      "Ġreais": 5211,
      "nez": 5212,
      "ĠImp": 5213,
      "ĠPes": 5214,
      "Ġia": 5215,
      "Ġaposenta": 5216,
      "Ġlonga": 5217,
      "fera": 5218,
      "ĠNota": 5219,
      "%.": 5220,
      "Ġreduc": 5221,
      "gares": 5222,
      "ĠDISTRITO": 5223,
      "Ġimpetra": 5224,
      "nima": 5225,
      "Ġtornando": 5226,
      "Ġdistribuic": 5227,
      "Ġengenh": 5228,
      "van": 5229,
      "Ġprefeito": 5230,
      "Ġmatar": 5231,
      "ĠSuprema": 5232,
      "usse": 5233,
      "63": 5234,
      "oc": 5235,
      "ceria": 5236,
      "ĠExiste": 5237,
      "Ġcandidato": 5238,
      "Ġdispositivo": 5239,
      "Ġobriga": 5240,
      "TOR": 5241,
      "ntais": 5242,
      "Ġvelocidade": 5243,
      "Ġprovido": 5244,
      "Ġmeni": 5245,
      "Ġintenc": 5246,
      "Ġtrec": 5247,
      "Ġsomos": 5248,
      "\").": 5249,
      "ficou": 5250,
      "iado": 5251,
      "Ġbol": 5252,
      "ĠMO": 5253,
      "ĠAustra": 5254,
      "ĠAtualmente": 5255,
      "dindo": 5256,
      "ĠPrecisa": 5257,
      "Ġreunia": 5258,
      "Ġequipes": 5259,
      "ple": 5260,
      "ĠAGDO": 5261,
      "Ġagente": 5262,
      "Ġmostrar": 5263,
      "Ġcobertos": 5264,
      "51": 5265,
      "Ġdespro": 5266,
      "73": 5267,
      "mpi": 5268,
      "Ġcompra": 5269,
      "Ġindicac": 5270,
      "istos": 5271,
      "ĠVin": 5272,
      "ĠCF": 5273,
      "ville": 5274,
      "HABEAS": 5275,
      "Ġgovernador": 5276,
      "Ġtitu": 5277,
      "ĠLima": 5278,
      "reo": 5279,
      "\":": 5280,
      "Ġtipos": 5281,
      "Ġhabili": 5282,
      "Ġnar": 5283,
      "Ġrecebimento": 5284,
      "ĠGRAN": 5285,
      "Ġdiga": 5286,
      "ye": 5287,
      "ĠBor": 5288,
      "Ġdebate": 5289,
      "Ġquilo": 5290,
      "ĠIsa": 5291,
      "Ġmulta": 5292,
      "ĠDani": 5293,
      "Ġresiste": 5294,
      "Ġfinalmente": 5295,
      "ĠPetro": 5296,
      "plos": 5297,
      "berg": 5298,
      "pri": 5299,
      "ĠBur": 5300,
      "Ġmandato": 5301,
      "cedente": 5302,
      "metro": 5303,
      "Ġhumano": 5304,
      "nic": 5305,
      "Ġfede": 5306,
      "ĠDar": 5307,
      "Ġher": 5308,
      "Ġfixa": 5309,
      "Pe": 5310,
      "Ġinspira": 5311,
      "Ġadvogado": 5312,
      "ĠTeori": 5313,
      "Ġregular": 5314,
      "ĠREP": 5315,
      "Ġemisso": 5316,
      "Ġavaliac": 5317,
      "Ġcam": 5318,
      "Ġhero": 5319,
      "zados": 5320,
      "Ġfun": 5321,
      "ĠEnte": 5322,
      "ĠEsco": 5323,
      "Ġagu": 5324,
      "Ġmanifestac": 5325,
      "ĠGerais": 5326,
      "Ġbre": 5327,
      "Ġpior": 5328,
      "ian": 5329,
      "Ġconvenc": 5330,
      "volvimento": 5331,
      "ĠSUL": 5332,
      "burgo": 5333,
      "Ġescrita": 5334,
      "ĠQuanto": 5335,
      "ĠLEG": 5336,
      "Ġae": 5337,
      "Ġalunos": 5338,
      "Ġcontradito": 5339,
      "?!": 5340,
      "Ġgarota": 5341,
      "Ġprotes": 5342,
      "Ġmotiva": 5343,
      "dita": 5344,
      "ntico": 5345,
      "ĠSenado": 5346,
      "mite": 5347,
      "Ġsinal": 5348,
      "ĠRede": 5349,
      "Ġmicro": 5350,
      "ĠSEG": 5351,
      "ĠAssemble": 5352,
      "cionado": 5353,
      "ĠAlexand": 5354,
      "porta": 5355,
      "Ġplena": 5356,
      "Ġtroca": 5357,
      "Ġ02": 5358,
      "fal": 5359,
      "Ġorientac": 5360,
      "ĠEcono": 5361,
      "ĠGRANDE": 5362,
      "polis": 5363,
      "TV": 5364,
      "Ġcafe": 5365,
      "pensa": 5366,
      "rena": 5367,
      "??": 5368,
      "Ġtradicional": 5369,
      "Ġinstruc": 5370,
      "Ġutilizac": 5371,
      "72": 5372,
      "Ġcou": 5373,
      "ĠNeste": 5374,
      "ĠDemografia": 5375,
      "Sub": 5376,
      "ĠAugus": 5377,
      "lizada": 5378,
      "ĠMichael": 5379,
      "Ġcontinuar": 5380,
      "tti": 5381,
      "Ġuns": 5382,
      "Ġtestem": 5383,
      "ploma": 5384,
      "Ġinimi": 5385,
      "con": 5386,
      "jor": 5387,
      "ndice": 5388,
      "gadas": 5389,
      "Ġdistribui": 5390,
      "',": 5391,
      "osos": 5392,
      "Ġsubsta": 5393,
      "Ġimagina": 5394,
      "Ġamanha": 5395,
      "TIVO": 5396,
      "Ġdestaque": 5397,
      "Ġoportunidade": 5398,
      "Ġapresentou": 5399,
      "Ġaus": 5400,
      "ĠFestival": 5401,
      "Ġilus": 5402,
      "Ġesteve": 5403,
      "ĠArgentina": 5404,
      "dmissi": 5405,
      "ĠAss": 5406,
      "LAC": 5407,
      "Ġapar": 5408,
      "UC": 5409,
      "quem": 5410,
      "Ġgrac": 5411,
      "ĠCapita": 5412,
      "Ġsenho": 5413,
      "ĠCidade": 5414,
      "ĠComple": 5415,
      "Ġprocedimento": 5416,
      "ĠCaso": 5417,
      "Ġ+": 5418,
      "bela": 5419,
      "Ġrac": 5420,
      "Al": 5421,
      "Ġ1991": 5422,
      "Ġhum": 5423,
      "Ġpedir": 5424,
      "Ġfizeram": 5425,
      "illa": 5426,
      "ĠEducac": 5427,
      "Ġ2021": 5428,
      "ĠSIL": 5429,
      "Ġindireta": 5430,
      "Ġargumento": 5431,
      "ĠForc": 5432,
      "Ġquei": 5433,
      "Ġresto": 5434,
      "cki": 5435,
      "ZA": 5436,
      "ford": 5437,
      "minada": 5438,
      "Ġprome": 5439,
      "bera": 5440,
      "Ġimprensa": 5441,
      "Ġconceito": 5442,
      "Ġinteresses": 5443,
      "misso": 5444,
      "rincesa": 5445,
      "pt": 5446,
      "Ġaprove": 5447,
      "Ġz": 5448,
      "aa": 5449,
      "%,": 5450,
      "Ġgerac": 5451,
      "Ġinfe": 5452,
      "Ġaprecia": 5453,
      "ĠManuel": 5454,
      "Ġartistas": 5455,
      "tinc": 5456,
      "ĠTru": 5457,
      "ĠDel": 5458,
      "ĠCali": 5459,
      "ĠRELATO": 5460,
      "Ġtirar": 5461,
      "ĠArqui": 5462,
      "guas": 5463,
      "Ġpers": 5464,
      "Ġdelas": 5465,
      "Ġanteriormente": 5466,
      "ãģ": 5467,
      "Ġsexo": 5468,
      "Ġcoorde": 5469,
      "ĠLegis": 5470,
      "Ġadministrativa": 5471,
      "Ġvenceu": 5472,
      "ĠSelec": 5473,
      "ĠDez": 5474,
      "Da": 5475,
      "TIVA": 5476,
      "ĠÂ«": 5477,
      "GA": 5478,
      "TAC": 5479,
      "Ġ58": 5480,
      "ĠRic": 5481,
      "Ġassassi": 5482,
      "Ġtentativa": 5483,
      "Ġocasia": 5484,
      "Ġusada": 5485,
      "nsor": 5486,
      "Ġtraduz": 5487,
      "cante": 5488,
      "Ġplaneja": 5489,
      "Ġestabelec": 5490,
      "tificac": 5491,
      "Ġadia": 5492,
      "Ġficando": 5493,
      "Ġmarido": 5494,
      "ĠMarc": 5495,
      "ĠAnti": 5496,
      "espe": 5497,
      "gida": 5498,
      "Ġcaixa": 5499,
      "ĠFaze": 5500,
      "SIBILIDADE": 5501,
      "Ġdaquele": 5502,
      "Ne": 5503,
      "Ġfundamental": 5504,
      "ĠGeografia": 5505,
      "ervac": 5506,
      "pela": 5507,
      "Ġsatis": 5508,
      "VE": 5509,
      "Ġdesce": 5510,
      "Ġrealizar": 5511,
      "Ġviver": 5512,
      "Ġterminou": 5513,
      "sticos": 5514,
      "put": 5515,
      "62": 5516,
      "Ġetapa": 5517,
      "Ġmandado": 5518,
      "Ġultra": 5519,
      "ĠCristo": 5520,
      "Ġconhecer": 5521,
      "ĠAbri": 5522,
      "ĠNove": 5523,
      "ĠCPC": 5524,
      "Ġimpor": 5525,
      "torial": 5526,
      "Ġrepresentante": 5527,
      "Pres": 5528,
      "portes": 5529,
      "Â»": 5530,
      "Ġguitar": 5531,
      "ĠObrigada": 5532,
      "ĠXXX": 5533,
      "PO": 5534,
      "Ġ45": 5535,
      "ĠMul": 5536,
      "xos": 5537,
      "Ġfundamentac": 5538,
      "Ġsele": 5539,
      "Ġconduz": 5540,
      "lla": 5541,
      "Ġcampeonato": 5542,
      "ĠCaro": 5543,
      "ĠMG": 5544,
      "Ġdomi": 5545,
      "Ġrevisa": 5546,
      "ĠFerreira": 5547,
      "Ġescla": 5548,
      "Ġexis": 5549,
      "ĠME": 5550,
      "ĠGlobo": 5551,
      "pedia": 5552,
      "Ġacusado": 5553,
      "Ġvive": 5554,
      "Ġadjudica": 5555,
      "procurador": 5556,
      "2005": 5557,
      "Ġdada": 5558,
      "ĠCris": 5559,
      "Ġ00": 5560,
      "ĠCOMP": 5561,
      "Ġati": 5562,
      "ntaram": 5563,
      "mail": 5564,
      "Ġcorte": 5565,
      "Ġhomo": 5566,
      "quac": 5567,
      "Ġacompa": 5568,
      "Ġtransfer": 5569,
      "ĠProcurador": 5570,
      "rimento": 5571,
      "ĠESP": 5572,
      "Ġimo": 5573,
      "ĠAmerica": 5574,
      "ĠRecurso": 5575,
      "final": 5576,
      "Ġiria": 5577,
      "king": 5578,
      "marca": 5579,
      "Ð¸": 5580,
      "Ġdevidamente": 5581,
      "ĠRobert": 5582,
      "ĠOrie": 5583,
      "Ġlegais": 5584,
      "ĠPore": 5585,
      "Ġacredito": 5586,
      "Ġcriminal": 5587,
      "Ġpaga": 5588,
      "Ġaberto": 5589,
      "ĠZavas": 5590,
      "UNI": 5591,
      "BC": 5592,
      "Ġpubl": 5593,
      "base": 5594,
      "mpicos": 5595,
      "ĠUn": 5596,
      "Ð°": 5597,
      "Ġ1989": 5598,
      "Ġvejo": 5599,
      "gui": 5600,
      "71": 5601,
      "ĠADI": 5602,
      "Ġrestau": 5603,
      "vados": 5604,
      "ĠRJ": 5605,
      "od": 5606,
      "ardim": 5607,
      "ĠExecu": 5608,
      "ĠRS": 5609,
      "ĠGi": 5610,
      "ĠTim": 5611,
      "ĠOutros": 5612,
      "ĠCONTRATADA": 5613,
      "QUI": 5614,
      "Ġesquerda": 5615,
      "tive": 5616,
      "Ġcondenac": 5617,
      "nsito": 5618,
      "ĠFrank": 5619,
      "definic": 5620,
      "Ġmorrer": 5621,
      "Ġestas": 5622,
      "ĠSistema": 5623,
      "ĠGoverno": 5624,
      "way": 5625,
      "Ġescolas": 5626,
      "Ġaponta": 5627,
      "ĠZavascki": 5628,
      "Ġbanco": 5629,
      "ĠVas": 5630,
      "Ġmara": 5631,
      "gicas": 5632,
      "OA": 5633,
      "Ġincri": 5634,
      "Ġleste": 5635,
      "Te": 5636,
      "Ġ68": 5637,
      "rinho": 5638,
      "ĠAnexo": 5639,
      "gle": 5640,
      "ĠJui": 5641,
      "ĠXIX": 5642,
      "cular": 5643,
      "Ġrelator": 5644,
      "mida": 5645,
      "Ġvindo": 5646,
      "Ġlugares": 5647,
      "Ġpasso": 5648,
      "tuais": 5649,
      "Ġdisti": 5650,
      "Ġcomposic": 5651,
      "Ġclima": 5652,
      "Ġpoucos": 5653,
      "Ġincorpo": 5654,
      "DEN": 5655,
      "Ġintroduz": 5656,
      "Ġgols": 5657,
      "Qu": 5658,
      "ĠCanada": 5659,
      "ĠBal": 5660,
      "Ġvera": 5661,
      "deiro": 5662,
      "dd": 5663,
      "Ġcomprar": 5664,
      "gentes": 5665,
      "Ġjulgada": 5666,
      "ORI": 5667,
      "ĠSin": 5668,
      "ĠDeixe": 5669,
      "ĠWilliam": 5670,
      "To": 5671,
      "Ġproto": 5672,
      "Ġimpac": 5673,
      "Tra": 5674,
      "SON": 5675,
      "ĠAcademia": 5676,
      "ĠMAN": 5677,
      "Ġnamo": 5678,
      "Ġpaul": 5679,
      "uri": 5680,
      "USE": 5681,
      "guesia": 5682,
      "Ġcontas": 5683,
      "Ġenga": 5684,
      "Ġleis": 5685,
      "Ġequipamentos": 5686,
      "ĠSessa": 5687,
      "Ġreuni": 5688,
      "Ġjulgar": 5689,
      "Ġgoverna": 5690,
      "Ġservidor": 5691,
      "taforma": 5692,
      "ĠBol": 5693,
      "Ġcolu": 5694,
      "Ġpretensa": 5695,
      "Ġcriou": 5696,
      "gen": 5697,
      "Ġconcent": 5698,
      "Ġconflito": 5699,
      "Ġrapa": 5700,
      "Ġpasse": 5701,
      "Ġquestiona": 5702,
      "\";": 5703,
      "ĠCli": 5704,
      "Ġpassando": 5705,
      "Ġacusac": 5706,
      "icamente": 5707,
      "Ġjuntamente": 5708,
      "ĠParque": 5709,
      "Ġsentir": 5710,
      "ĠCD": 5711,
      "uta": 5712,
      "ĠClas": 5713,
      "Ġespecia": 5714,
      "ĠTodas": 5715,
      "lido": 5716,
      "Ġacontecendo": 5717,
      "Ġvenda": 5718,
      "mune": 5719,
      "Ġprocessa": 5720,
      "Ġdrama": 5721,
      "Ġsom": 5722,
      "cidental": 5723,
      "Ġterras": 5724,
      "Ġexposic": 5725,
      "Ġequivale": 5726,
      "del": 5727,
      "Ġcautelar": 5728,
      "ĠGui": 5729,
      "tsu": 5730,
      "Ġfru": 5731,
      "Ġ1960": 5732,
      "Ġpotencial": 5733,
      "ĠSobre": 5734,
      "Ġsolicita": 5735,
      "Ġgravac": 5736,
      "lack": 5737,
      "taria": 5738,
      "ĠAlgue": 5739,
      "Ġtex": 5740,
      "Ġimple": 5741,
      "Ġgrave": 5742,
      "Ġfeitas": 5743,
      "ĠMiguel": 5744,
      "ĠPereira": 5745,
      "Ġpropostas": 5746,
      "Ġefica": 5747,
      "Ġ500": 5748,
      "Ġquerida": 5749,
      "mendo": 5750,
      "Ġdesempenho": 5751,
      "orizo": 5752,
      "ĠJulho": 5753,
      "Ġdecre": 5754,
      "ĠNovo": 5755,
      "vios": 5756,
      "Ġmenciona": 5757,
      "nciada": 5758,
      "nexa": 5759,
      "pado": 5760,
      "VIL": 5761,
      "ĠIra": 5762,
      "ĠArti": 5763,
      "Ġoposic": 5764,
      "premo": 5765,
      "ĠAli": 5766,
      "Ġtransmi": 5767,
      "Ġentendo": 5768,
      "ĠCria": 5769,
      "ĠOlhe": 5770,
      "Ġhumana": 5771,
      "Ġnele": 5772,
      "Ġboca": 5773,
      "Ġpossuem": 5774,
      "ĠPT": 5775,
      "PL": 5776,
      "Ġfornece": 5777,
      "nidense": 5778,
      "radora": 5779,
      "Ġdefinic": 5780,
      "Ġautoridades": 5781,
      "Ġpediu": 5782,
      "Ġelabo": 5783,
      "Ġpassagem": 5784,
      "ĠLau": 5785,
      "Ġadministrativo": 5786,
      "ĠLula": 5787,
      "Ġlingua": 5788,
      "ĠLeo": 5789,
      "Ġruim": 5790,
      "Ġcasas": 5791,
      "Ġdeba": 5792,
      "Ġcompletamente": 5793,
      "Ġajus": 5794,
      "Ġsangue": 5795,
      "Ġlinhas": 5796,
      "ĠKi": 5797,
      "ĠApenas": 5798,
      "Ġnisso": 5799,
      "Ġcelu": 5800,
      "ĠCol": 5801,
      "ĠMan": 5802,
      "orrida": 5803,
      "ĠRegional": 5804,
      "Ġpergunta": 5805,
      "tela": 5806,
      "vindo": 5807,
      "questiona": 5808,
      "ĠFac": 5809,
      "Ġemprego": 5810,
      "Ġescrever": 5811,
      "Ġtorneio": 5812,
      "ĠSinto": 5813,
      "ĠPleno": 5814,
      "Ġempa": 5815,
      "chu": 5816,
      "bor": 5817,
      "estade": 5818,
      "ĠMaio": 5819,
      "Ġimi": 5820,
      "dicina": 5821,
      "ĠPrimeiro": 5822,
      "ĠBahia": 5823,
      "Ġsingle": 5824,
      "gby": 5825,
      "ĠDomin": 5826,
      "ĠRua": 5827,
      "siona": 5828,
      "ĠDecreto": 5829,
      "eld": 5830,
      "ĠMI": 5831,
      "Ġbru": 5832,
      "ĠATAAG": 5833,
      "Ġmunicipal": 5834,
      "Ġfirma": 5835,
      "Ġmanifes": 5836,
      "Ġacerca": 5837,
      "Ġtratar": 5838,
      "ĠTom": 5839,
      "ÌĤ!": 5840,
      "ĠBanco": 5841,
      "lida": 5842,
      "lea": 5843,
      "Ġsuperfi": 5844,
      "Ġciclo": 5845,
      "Ha": 5846,
      "ĠYa": 5847,
      "Ġobter": 5848,
      "Ġimpo": 5849,
      "Ġescra": 5850,
      "bara": 5851,
      "Ġinexiste": 5852,
      "Ġofer": 5853,
      "ĠPh": 5854,
      "Ġcomportamento": 5855,
      "Ġmatema": 5856,
      "Ġ1986": 5857,
      "Ġcai": 5858,
      "Ġcomida": 5859,
      "VIMENTO": 5860,
      "Pu": 5861,
      "Ġpesquis": 5862,
      "Ġavia": 5863,
      "ĠAUSE": 5864,
      "ĠLar": 5865,
      "Do": 5866,
      "Ġpolicial": 5867,
      "Ġmagis": 5868,
      "timas": 5869,
      "tions": 5870,
      "gne": 5871,
      "ĠPENAL": 5872,
      "Ġextrema": 5873,
      "Ġdeixe": 5874,
      "tens": 5875,
      "ioteca": 5876,
      "Ġvas": 5877,
      "Ġemer": 5878,
      "ĠKu": 5879,
      "clo": 5880,
      "Ġdesconhe": 5881,
      "ĠAmb": 5882,
      "ĠIna": 5883,
      "Ġescritor": 5884,
      "presa": 5885,
      "FE": 5886,
      "hard": 5887,
      "Ġafronta": 5888,
      "ĠCultura": 5889,
      "Ġacresce": 5890,
      "Ġbaseado": 5891,
      "Ġmateriais": 5892,
      "Ġdupla": 5893,
      "Ġimediatamente": 5894,
      "Ġdirigido": 5895,
      "Ġoficiais": 5896,
      "mil": 5897,
      "Ġmulti": 5898,
      "calizac": 5899,
      "Ġfotos": 5900,
      "Ġtaqui": 5901,
      "ĠCro": 5902,
      "RIOR": 5903,
      "ĠAlme": 5904,
      "Ġdevo": 5905,
      "yer": 5906,
      "Ġindividu": 5907,
      "Ġcob": 5908,
      "Ġwiki": 5909,
      "Ġreclamac": 5910,
      "Ġrelatados": 5911,
      "Ġsemi": 5912,
      "pidamente": 5913,
      "varam": 5914,
      "ĠEstra": 5915,
      "Ġnao": 5916,
      "Ġamiga": 5917,
      "ĠSerra": 5918,
      "lip": 5919,
      "Ġredes": 5920,
      "Ġclubes": 5921,
      "Ġ03": 5922,
      "Ġpudes": 5923,
      "duos": 5924,
      "Ġpsico": 5925,
      "ficados": 5926,
      "ĠConstitui": 5927,
      "Ġencar": 5928,
      "Ġefetu": 5929,
      "Ġdomingo": 5930,
      "Ġrecomenda": 5931,
      "Ġpoderes": 5932,
      "Ġfronteira": 5933,
      "Ġchamar": 5934,
      "Ġperante": 5935,
      "Ġterri": 5936,
      "Ġmora": 5937,
      "\"?": 5938,
      "gma": 5939,
      "erto": 5940,
      "Ġadequa": 5941,
      "Ġbrac": 5942,
      "Ġensina": 5943,
      "Ġapreciac": 5944,
      "2002": 5945,
      "Ġtende": 5946,
      "Ġestados": 5947,
      "Ġtaquigra": 5948,
      "Ġcomparti": 5949,
      "Ġdiploma": 5950,
      "ĠCONSTITUCIONAL": 5951,
      "Ġferra": 5952,
      "Ġbenefic": 5953,
      "ĠLegisla": 5954,
      "ĠSala": 5955,
      "Ġ34": 5956,
      "Ġdensidade": 5957,
      "ĠPREC": 5958,
      "Ġmant": 5959,
      "RIN": 5960,
      "Ġmortos": 5961,
      "Ġpreventiva": 5962,
      "Ġdisposic": 5963,
      "ĠNingue": 5964,
      "quadra": 5965,
      "landa": 5966,
      "lub": 5967,
      "Ġmesmos": 5968,
      "ĠSara": 5969,
      "Ġvenc": 5970,
      "ĠStu": 5971,
      "ĠFerna": 5972,
      "tine": 5973,
      "hen": 5974,
      "ĠAbril": 5975,
      "Ġproferida": 5976,
      "turais": 5977,
      "ĠMATE": 5978,
      "Lo": 5979,
      "Ġsuspensa": 5980,
      "Ġentende": 5981,
      "Ġrepresentac": 5982,
      "ĠLiber": 5983,
      "Ġabra": 5984,
      "Ġteatro": 5985,
      "Ġfar": 5986,
      "ELO": 5987,
      "sonal": 5988,
      "ficamente": 5989,
      "Ġposse": 5990,
      "cam": 5991,
      "Ġtoma": 5992,
      "PRESIDENTE": 5993,
      "Ġacusa": 5994,
      "Ġprogres": 5995,
      "Ġconcreto": 5996,
      "ĠTRA": 5997,
      "Ġpaci": 5998,
      "Ġgarantir": 5999,
      "ĠDaniel": 6000,
      "ĠMetro": 6001,
      "ĠPER": 6002,
      "Ġestimada": 6003,
      "mm": 6004,
      "Ġindustria": 6005,
      "Ġpeix": 6006,
      "Ġfrac": 6007,
      "Ġhomenagem": 6008,
      "tago": 6009,
      "Ġquo": 6010,
      "Ġdeco": 6011,
      "Ġdiscutidos": 6012,
      "ĠZA": 6013,
      "Ġindependente": 6014,
      "dias": 6015,
      "ĠRock": 6016,
      "Ġsubstituic": 6017,
      "Ġ78": 6018,
      "Ġdireto": 6019,
      "tudo": 6020,
      "ĠJean": 6021,
      "QUE": 6022,
      "ĠCIVIL": 6023,
      "ĠFundac": 6024,
      "Ġaposentadoria": 6025,
      "Ho": 6026,
      "Ġsegre": 6027,
      "imo": 6028,
      "Ġesperar": 6029,
      "Ġ44": 6030,
      "ĠArt": 6031,
      "ĠSetembro": 6032,
      "Ġcapi": 6033,
      "Ġaumenta": 6034,
      "Ġdetal": 6035,
      "udio": 6036,
      "tral": 6037,
      "ndidos": 6038,
      "Ġacidente": 6039,
      "Ġvul": 6040,
      "Ġitaliano": 6041,
      "Ġparla": 6042,
      "ĠLogo": 6043,
      "ĠDEC": 6044,
      "ĠSILVA": 6045,
      "ĠOutubro": 6046,
      "rmula": 6047,
      "Ġrever": 6048,
      "Ġleve": 6049,
      "Ġnul": 6050,
      "ĠSpe": 6051,
      "ĠOFEN": 6052,
      "ĠHol": 6053,
      "ĠSec": 6054,
      "guai": 6055,
      "Ġatua": 6056,
      "Ġbreve": 6057,
      "Ġbranco": 6058,
      "hip": 6059,
      "Ġcolec": 6060,
      "Ġbens": 6061,
      "Ġcontratac": 6062,
      "Ġexti": 6063,
      "Ġcomissa": 6064,
      "Ġfeminino": 6065,
      "ĠAward": 6066,
      "ĠCunha": 6067,
      "Ġavo": 6068,
      "Ġachar": 6069,
      "Ġestara": 6070,
      "lanc": 6071,
      "bres": 6072,
      "mith": 6073,
      "ilha": 6074,
      "ĠBA": 6075,
      "ntica": 6076,
      "ĠEspi": 6077,
      "ĠPossui": 6078,
      "Ġinferior": 6079,
      "Ġdelito": 6080,
      "gie": 6081,
      "Ġmetro": 6082,
      "mpora": 6083,
      "Ġsuc": 6084,
      "rioca": 6085,
      "Ġtemas": 6086,
      "Ġapelo": 6087,
      "at": 6088,
      "mbi": 6089,
      "Ġinternacionais": 6090,
      "Ġtopo": 6091,
      "Ġcompleta": 6092,
      "ĠNotas": 6093,
      "ling": 6094,
      "Ġsaiu": 6095,
      "Ġexcele": 6096,
      "Ġrapidamente": 6097,
      "Ġdireita": 6098,
      "Con": 6099,
      "Ġmata": 6100,
      "Ġras": 6101,
      "Ġacontecer": 6102,
      "Ġreleva": 6103,
      "ĠAe": 6104,
      "ĠHuma": 6105,
      "ĠAgosto": 6106,
      "Ġcantor": 6107,
      "ĠSeus": 6108,
      "PS": 6109,
      "REITO": 6110,
      "ĠUr": 6111,
      "ĠCONTRATANTE": 6112,
      "Ġcaptura": 6113,
      "Ġaborda": 6114,
      "ĠTemer": 6115,
      "nibus": 6116,
      "Ġinser": 6117,
      "valho": 6118,
      "quistou": 6119,
      "Ġcabi": 6120,
      "Ġestiver": 6121,
      "vamos": 6122,
      "Ġguer": 6123,
      "ĠOFENSA": 6124,
      "Ġinsu": 6125,
      "polita": 6126,
      "Ġdeseja": 6127,
      "adores": 6128,
      "DOS": 6129,
      "Ġler": 6130,
      "Ġcultural": 6131,
      "GADO": 6132,
      "Ġperigos": 6133,
      "rit": 6134,
      "ĠTEORI": 6135,
      "VASC": 6136,
      "ilian": 6137,
      "Ġint": 6138,
      "ĠZAVASC": 6139,
      "Ġconsul": 6140,
      "Ġmanti": 6141,
      "MDB": 6142,
      "tici": 6143,
      "Ġremune": 6144,
      "Ġpadro": 6145,
      "letas": 6146,
      "ĠDAS": 6147,
      "Ġassociac": 6148,
      "osofia": 6149,
      "PIO": 6150,
      "Ġdrogas": 6151,
      "ĠIncide": 6152,
      "Ġespanhol": 6153,
      "Ġgravado": 6154,
      "Ġreprese": 6155,
      "Ġnaquele": 6156,
      "Ġfundada": 6157,
      "Ġcance": 6158,
      "Ġexterior": 6159,
      "Ġasce": 6160,
      "MB": 6161,
      "Ġiniciou": 6162,
      "TEN": 6163,
      "ĠGuil": 6164,
      "ĠInd": 6165,
      "IB": 6166,
      "ĠMS": 6167,
      "ĠCondado": 6168,
      "Ġmotivos": 6169,
      "Ġfabrica": 6170,
      "colo": 6171,
      "Ġpertencente": 6172,
      "Ġacordam": 6173,
      "Ġanalisa": 6174,
      "ĠZAVASCKI": 6175,
      "))": 6176,
      "rnia": 6177,
      "ĠAusente": 6178,
      "ĠAla": 6179,
      "port": 6180,
      "dicar": 6181,
      "queles": 6182,
      "Ġdai": 6183,
      "pto": 6184,
      "Ġapresentado": 6185,
      "mann": 6186,
      "queira": 6187,
      "Ġproviso": 6188,
      "tificado": 6189,
      "zas": 6190,
      "ĠMari": 6191,
      "Ġsimi": 6192,
      "Ġfigura": 6193,
      "Ġ1985": 6194,
      "ntaria": 6195,
      "lite": 6196,
      "ĠJAN": 6197,
      "Ġtelefone": 6198,
      "ĠGO": 6199,
      "Ġaquilo": 6200,
      "Ġ1987": 6201,
      "ĠInterna": 6202,
      "Ġ36": 6203,
      "ime": 6204,
      "Ġprevistas": 6205,
      "ides": 6206,
      "Ġpronto": 6207,
      "rel": 6208,
      "bilizar": 6209,
      "ĠAy": 6210,
      "Ġlegalidade": 6211,
      "Ġindefer": 6212,
      "iedade": 6213,
      "ĠLos": 6214,
      "Ġdevia": 6215,
      "ĠDef": 6216,
      "Ġmaravil": 6217,
      "Ġcorrida": 6218,
      "Ġbanca": 6219,
      "ĠMaior": 6220,
      "Ġexperi": 6221,
      "Ġterre": 6222,
      "ines": 6223,
      "ĠCre": 6224,
      "Ġconvers": 6225,
      "Ġaniversa": 6226,
      "venida": 6227,
      "ĠDivisa": 6228,
      "Ġquerem": 6229,
      "Ġnossas": 6230,
      "ĠAntonio": 6231,
      "ĠAlmeida": 6232,
      "ĠAtla": 6233,
      "Ġcorresponde": 6234,
      "wer": 6235,
      "Ġdestrui": 6236,
      "nores": 6237,
      "Ġcato": 6238,
      "Ġacolh": 6239,
      "Ġassinatura": 6240,
      "ĠIP": 6241,
      "Ġjornalista": 6242,
      "ĠMate": 6243,
      "Ġboas": 6244,
      "CIO": 6245,
      "Ġconsig": 6246,
      "Ġvenha": 6247,
      "áħ": 6248,
      "666": 6249,
      "Ġarts": 6250,
      "MINISTRA": 6251,
      "pico": 6252,
      "Ġamericana": 6253,
      "ĠBan": 6254,
      "Ġdeterminar": 6255,
      "Ġsemelhante": 6256,
      "RELATORA": 6257,
      "ĠEMB": 6258,
      "ĠSus": 6259,
      "Ġpreocupe": 6260,
      "Ġcorrec": 6261,
      "1993": 6262,
      "Ġdanos": 6263,
      "USULA": 6264,
      "Ġestranho": 6265,
      "Ġficara": 6266,
      "Supremo": 6267,
      "áĦ": 6268,
      "Ġseriam": 6269,
      "Ġ:(((": 6270,
      "Ġatendimento": 6271,
      "ĠBatalha": 6272,
      "ĠUnited": 6273,
      "sg": 6274,
      "ĠJunho": 6275,
      "Ġplataforma": 6276,
      "ĠAcre": 6277,
      "Ġreferido": 6278,
      "Ġandar": 6279,
      "pecta": 6280,
      "lulas": 6281,
      "lculo": 6282,
      "Ġprecedentes": 6283,
      "OSSIBILIDADE": 6284,
      "fim": 6285,
      "ndic": 6286,
      "Ġverso": 6287,
      "cnicas": 6288,
      "Ġdescul": 6289,
      "Ġintegral": 6290,
      "OC": 6291,
      "Ġpodendo": 6292,
      "ĠAero": 6293,
      "Ġbra": 6294,
      "goeiro": 6295,
      "Ġense": 6296,
      "Ġlembra": 6297,
      "eria": 6298,
      "Ġdeus": 6299,
      "Ġpretende": 6300,
      "Ġmonocra": 6301,
      "Ġfigu": 6302,
      "Ġextremo": 6303,
      "Ġcaput": 6304,
      "ĠSy": 6305,
      "nna": 6306,
      "ĠBus": 6307,
      "ĠConhe": 6308,
      "mera": 6309,
      "cina": 6310,
      "km": 6311,
      "Ð¾": 6312,
      "Ġtributa": 6313,
      "dez": 6314,
      "Ġfas": 6315,
      "ony": 6316,
      "ĠInde": 6317,
      "Ġraio": 6318,
      "Ġfir": 6319,
      "Ġperfei": 6320,
      "sado": 6321,
      "Ġcent": 6322,
      "Ġconvi": 6323,
      "ĠAno": 6324,
      "Ġvolume": 6325,
      "mentares": 6326,
      "ĠPreciso": 6327,
      "Ġmeia": 6328,
      "Ġtropas": 6329,
      "ĠEva": 6330,
      "Ġredac": 6331,
      "Ġpequenos": 6332,
      "Ġrecebido": 6333,
      "Ġcorrupc": 6334,
      "Ġformato": 6335,
      "ĠBob": 6336,
      "tacar": 6337,
      "Ġdormir": 6338,
      "Ġprefere": 6339,
      "Ġbola": 6340,
      "culas": 6341,
      "ĠJer": 6342,
      "ĠMon": 6343,
      "ivo": 6344,
      "ftware": 6345,
      "ĠFederac": 6346,
      "Ġconstantes": 6347,
      "ĠSino": 6348,
      "Ġ59": 6349,
      "Ġpaulista": 6350,
      "ĠCul": 6351,
      "ĠTar": 6352,
      "Ġreforc": 6353,
      "Ġreme": 6354,
      "Ġteo": 6355,
      "ĠEnc": 6356,
      "Ġreto": 6357,
      "ĠAuse": 6358,
      "wood": 6359,
      "Ġpeso": 6360,
      "Ġaudie": 6361,
      "cin": 6362,
      "uela": 6363,
      "Ġhabilitac": 6364,
      "OSE": 6365,
      "Ġpesa": 6366,
      "ĠEletro": 6367,
      "Ġofi": 6368,
      "Ġvide": 6369,
      "2003": 6370,
      "Ġelenco": 6371,
      "Ġconfro": 6372,
      "Ġnormalmente": 6373,
      "tory": 6374,
      "SUAL": 6375,
      "ila": 6376,
      "ĠCharles": 6377,
      "Ġdeterminado": 6378,
      "teroide": 6379,
      "Ġconcorre": 6380,
      "Bo": 6381,
      "Ġdeclarou": 6382,
      "Para": 6383,
      "ĠInic": 6384,
      "Ġconquistou": 6385,
      "Ġincluem": 6386,
      "ĠCatarina": 6387,
      "Ġdestino": 6388,
      "Ġdispositivos": 6389,
      "ENTES": 6390,
      "Ġaplicada": 6391,
      "Ġplanos": 6392,
      "GU": 6393,
      "ntei": 6394,
      "Ġprequestiona": 6395,
      "Ġcandidatos": 6396,
      "Ġacabar": 6397,
      "Ġreac": 6398,
      "Ġpreenc": 6399,
      "Ġverdadeiro": 6400,
      "2004": 6401,
      "Ġ>": 6402,
      "bem": 6403,
      "ĠPel": 6404,
      "ĠArte": 6405,
      "cep": 6406,
      "ĠEstati": 6407,
      "ĠVie": 6408,
      "Ġestaria": 6409,
      "80": 6410,
      "ĠSp": 6411,
      "ĠPortuguesa": 6412,
      "deos": 6413,
      "ĠVossa": 6414,
      "ĠCastro": 6415,
      "nadores": 6416,
      "ĠStar": 6417,
      "Ġinterro": 6418,
      "PR": 6419,
      "Ġsubsi": 6420,
      "Ġaper": 6421,
      "ĠEstre": 6422,
      "ĠSEGU": 6423,
      "Ġprescric": 6424,
      "ĠVar": 6425,
      "ĠSto": 6426,
      "ĠMy": 6427,
      "ĠSeguranc": 6428,
      "Ġtrabalhou": 6429,
      "ĠEnge": 6430,
      "Ġdina": 6431,
      "ĠTribu": 6432,
      "bete": 6433,
      "ficiente": 6434,
      "ntese": 6435,
      "pul": 6436,
      "REIRA": 6437,
      "ĠJANEIRO": 6438,
      "ĠEspecial": 6439,
      "ĠMusic": 6440,
      "Ġestreou": 6441,
      "Ġlimite": 6442,
      "wit": 6443,
      "ĠRT": 6444,
      "pias": 6445,
      "ĠSco": 6446,
      "Ġcuidado": 6447,
      "idar": 6448,
      "Ġpassaram": 6449,
      "Ġpermitir": 6450,
      "Ġcoro": 6451,
      "nadas": 6452,
      "ĠCou": 6453,
      "Ġaerona": 6454,
      "Mar": 6455,
      "Ġgar": 6456,
      "lau": 6457,
      "Ġdecidir": 6458,
      "Ġdime": 6459,
      "ĠDesen": 6460,
      "Ġpublicada": 6461,
      "Ġpoe": 6462,
      "nome": 6463,
      "Ġatraso": 6464,
      "Ġabrir": 6465,
      "Ġdesca": 6466,
      "ones": 6467,
      "Ġmedalha": 6468,
      "Ġpequenas": 6469,
      "Ġserve": 6470,
      "Ġsalvar": 6471,
      "Ġapoia": 6472,
      "Ġautores": 6473,
      "Ġpris": 6474,
      "penho": 6475,
      "Ġescala": 6476,
      "cimo": 6477,
      "pical": 6478,
      "ĠNovembro": 6479,
      "cy": 6480,
      "lim": 6481,
      "Ġsozinho": 6482,
      "ĠEntretanto": 6483,
      "Ġtare": 6484,
      "ĠCampos": 6485,
      "Ġolhar": 6486,
      "Ġentidade": 6487,
      "Ġ000": 6488,
      "Ġfeitos": 6489,
      "Ġencer": 6490,
      "ĠIma": 6491,
      "Ġreligi": 6492,
      "nambu": 6493,
      "ĠFami": 6494,
      "áĥ": 6495,
      "ĠOB": 6496,
      "mino": 6497,
      "Fa": 6498,
      "MAC": 6499,
      "ganizac": 6500,
      "Ġrenda": 6501,
      "Ġverifica": 6502,
      "Vistos": 6503,
      "grou": 6504,
      "Ġ05": 6505,
      "Ġinvas": 6506,
      "Ġmadeira": 6507,
      "Ġdeixando": 6508,
      "zos": 6509,
      "df": 6510,
      "Ġintitu": 6511,
      "Ġnavio": 6512,
      "ĠDesta": 6513,
      "Ġloja": 6514,
      "ximos": 6515,
      "mentais": 6516,
      "idado": 6517,
      "Ġreconhecida": 6518,
      "Ġespec": 6519,
      "Ġcomposto": 6520,
      "Ġ1984": 6521,
      "Ġgal": 6522,
      "ĠDois": 6523,
      "Ġvocal": 6524,
      "Ġazul": 6525,
      "vistas": 6526,
      "Ġdizem": 6527,
      "Ġiniciativa": 6528,
      "ĠSue": 6529,
      "Ġromance": 6530,
      "HE": 6531,
      "Ġartes": 6532,
      "Ġnegociac": 6533,
      "Ġjustic": 6534,
      "yu": 6535,
      "Ġinse": 6536,
      "ĠPapa": 6537,
      "Ġparticipantes": 6538,
      "bine": 6539,
      "Ġcomposta": 6540,
      "Ġdesti": 6541,
      "Ġunivers": 6542,
      "Ġoriginalmente": 6543,
      "cleo": 6544,
      "ĠBre": 6545,
      "Ġorc": 6546,
      "ĠFaculdade": 6547,
      "Ġestrela": 6548,
      "ĠPrinci": 6549,
      "Ġterror": 6550,
      "hou": 6551,
      "ĠHABEAS": 6552,
      "ares": 6553,
      "Ġjapo": 6554,
      "ĠAtle": 6555,
      "EXA": 6556,
      "Ġ04": 6557,
      "ĠJim": 6558,
      "tiba": 6559,
      "Ġprotago": 6560,
      "Ġestadunidense": 6561,
      "ĠÎ": 6562,
      "ĠFazenda": 6563,
      "cunda": 6564,
      "Ġcama": 6565,
      "Ġsujei": 6566,
      "ĠGua": 6567,
      "Ġtrazer": 6568,
      "ĠWEBER": 6569,
      "Ġexcep": 6570,
      "Ġadul": 6571,
      "tente": 6572,
      "Ġbibl": 6573,
      "Ġdescobrir": 6574,
      "Ġadoles": 6575,
      "Ġobteve": 6576,
      "Ġcontou": 6577,
      "vando": 6578,
      "ĠAlegre": 6579,
      "Ġope": 6580,
      "ĠPROCURADOR": 6581,
      "ĠCada": 6582,
      "Ġvantagem": 6583,
      "Ġexclusivamente": 6584,
      "ĠNac": 6585,
      "essar": 6586,
      "Ġrock": 6587,
      "ĠDor": 6588,
      "Ġretorno": 6589,
      "ĠDan": 6590,
      "ĠConf": 6591,
      "Ġperfeito": 6592,
      "ĠNEGA": 6593,
      "Ġprodutor": 6594,
      "Ġturne": 6595,
      "ĠDezembro": 6596,
      "Ġrespectivamente": 6597,
      "ĠSalvador": 6598,
      "Ġnulidade": 6599,
      "Ġ1982": 6600,
      "pper": 6601,
      "ĠNesta": 6602,
      "ĠReco": 6603,
      "tha": 6604,
      "ĠAssembleia": 6605,
      "Ġ\"\"": 6606,
      "trina": 6607,
      "Ġhistoria": 6608,
      "Com": 6609,
      "Ġhaviam": 6610,
      "Ġarru": 6611,
      "Ġpensei": 6612,
      "ĠDECI": 6613,
      "Ġprecisamos": 6614,
      "Ġamplia": 6615,
      "ĠAuto": 6616,
      "ĠPAR": 6617,
      "zio": 6618,
      "ĠINFRAC": 6619,
      "Ġindividual": 6620,
      "Ġsegue": 6621,
      "ĠSar": 6622,
      "Ġespeciais": 6623,
      "ixos": 6624,
      "lam": 6625,
      "Ġmenores": 6626,
      "ĠDepartamento": 6627,
      "Ġapresentada": 6628,
      "Ġoli": 6629,
      "Ġment": 6630,
      "Ġantigos": 6631,
      "Ġpensando": 6632,
      "Ġomissa": 6633,
      "zia": 6634,
      "Ġindis": 6635,
      "Ġimperador": 6636,
      "Ġgala": 6637,
      "nimos": 6638,
      "ĠMou": 6639,
      "Ġtrecho": 6640,
      "mido": 6641,
      "bin": 6642,
      "Ġidiota": 6643,
      "ĠConde": 6644,
      "ĠDemocra": 6645,
      "Ġpersonal": 6646,
      "ĠSempre": 6647,
      "ĠLilian": 6648,
      "Ġconscie": 6649,
      "Ġproduzido": 6650,
      "Ġpatrimo": 6651,
      "Ġobjetos": 6652,
      "nses": 6653,
      "ĠAlves": 6654,
      "ceram": 6655,
      "paga": 6656,
      "Ġdespe": 6657,
      "Ġimpetrante": 6658,
      "ĠCle": 6659,
      "Ġexpecta": 6660,
      "Ġhonra": 6661,
      "duto": 6662,
      "feic": 6663,
      "teses": 6664,
      "ĠSENHORA": 6665,
      "Ġadquiri": 6666,
      "Ġagrade": 6667,
      "ĠMichel": 6668,
      "ĠKen": 6669,
      "Ġcoloca": 6670,
      "gin": 6671,
      "Ġpersegu": 6672,
      "nezuela": 6673,
      "ĠNico": 6674,
      "Ġtribunal": 6675,
      "ĠTeatro": 6676,
      "rvore": 6677,
      "Ġtentou": 6678,
      "ĠNel": 6679,
      "Ġfantas": 6680,
      "Ġmeios": 6681,
      "Ġfrancesa": 6682,
      "ĠIlha": 6683,
      "ĠPopula": 6684,
      "Ġvige": 6685,
      "Ġguar": 6686,
      "Ġestrelas": 6687,
      "sta": 6688,
      "ĠPROVIMENTO": 6689,
      "Ġcargos": 6690,
      "Ġenorme": 6691,
      "pra": 6692,
      "RETA": 6693,
      "Ġchegando": 6694,
      "Ġaux": 6695,
      "doso": 6696,
      "Ġdito": 6697,
      "ĠBernar": 6698,
      "ĠGeneral": 6699,
      "togra": 6700,
      "far": 6701,
      "ceae": 6702,
      "Ġingles": 6703,
      "Ġsubi": 6704,
      "Ġleitura": 6705,
      "Ġjurisdic": 6706,
      "ĠRodrigues": 6707,
      "Ġparque": 6708,
      "trin": 6709,
      "ĠAda": 6710,
      "ditos": 6711,
      "Ġparceria": 6712,
      "Ġtempora": 6713,
      "ĠVera": 6714,
      "ĠFar": 6715,
      "tein": 6716,
      "irst": 6717,
      "Ġsegundos": 6718,
      "ĠADMINISTRA": 6719,
      "Ġverdadeira": 6720,
      "ĠOri": 6721,
      "grado": 6722,
      "ĠPortanto": 6723,
      "Ġdestina": 6724,
      "Ġcomemo": 6725,
      "ĠAmazo": 6726,
      "ĠEllen": 6727,
      "Ġambas": 6728,
      "ings": 6729,
      "Ġcin": 6730,
      "ashington": 6731,
      "ĠPrac": 6732,
      "Ġutilizada": 6733,
      "Ġ08": 6734,
      "ndou": 6735,
      "hat": 6736,
      "Ġprevisa": 6737,
      "ĠMINISTRA": 6738,
      "ĠMac": 6739,
      "PAC": 6740,
      "Ġderrota": 6741,
      "Ġpregoeiro": 6742,
      "Ġcores": 6743,
      "ĠClub": 6744,
      "Ġreferida": 6745,
      "Ġexpor": 6746,
      "kin": 6747,
      "Ġchave": 6748,
      "positor": 6749,
      "Ġoficialmente": 6750,
      "ndio": 6751,
      "Ġsonho": 6752,
      "Ġdecidido": 6753,
      "Ġcaiu": 6754,
      "Ġinca": 6755,
      "ĠSmith": 6756,
      "Ġtrabalhadores": 6757,
      "Ġpremia": 6758,
      "Ġastro": 6759,
      "ĠEleito": 6760,
      "PERIOR": 6761,
      "ĠBranco": 6762,
      "Ġvencedor": 6763,
      "Ġmex": 6764,
      "Ġcana": 6765,
      "ĠPolo": 6766,
      "Ġ1983": 6767,
      "ĠVel": 6768,
      "Ġdefer": 6769,
      "Ġvie": 6770,
      "Ġmole": 6771,
      "Ġrecursal": 6772,
      "Ġsusci": 6773,
      "ĠCho": 6774,
      "Ta": 6775,
      "Ġtemperatura": 6776,
      "Ġcasou": 6777,
      "Ġexcec": 6778,
      "param": 6779,
      "ĠFerro": 6780,
      "Ġpatro": 6781,
      "Ġcompone": 6782,
      "Ġsanc": 6783,
      "dovia": 6784,
      "Ġcostuma": 6785,
      "Ġpole": 6786,
      "Ġbei": 6787,
      "ĠLee": 6788,
      "Ġmasculino": 6789,
      "Ġimper": 6790,
      "Ġprom": 6791,
      "hal": 6792,
      "Ġ!": 6793,
      "ĠDon": 6794,
      "Ġativa": 6795,
      "Ġaprovac": 6796,
      "Ġjoga": 6797,
      "ĠBritto": 6798,
      "Ġ39": 6799,
      "bral": 6800,
      "Ġpoderiam": 6801,
      "Ġvalidade": 6802,
      "ĠDiga": 6803,
      "ĠLem": 6804,
      "Ġmente": 6805,
      "liminar": 6806,
      "ĠToda": 6807,
      "Ġruas": 6808,
      "Ġprecisam": 6809,
      "orque": 6810,
      "unes": 6811,
      "ĠRegis": 6812,
      "ĠCur": 6813,
      "ĠCarvalho": 6814,
      "Ġner": 6815,
      "Ġvaga": 6816,
      "Ġturno": 6817,
      "ĠConsta": 6818,
      "Ġfreguesia": 6819,
      "ĠRus": 6820,
      "Ġfazia": 6821,
      "brio": 6822,
      "borato": 6823,
      "Ġfinais": 6824,
      "ast": 6825,
      "nhia": 6826,
      "ĠDie": 6827,
      "ĠTempo": 6828,
      "mato": 6829,
      "ĠData": 6830,
      "RG": 6831,
      "Ġlinguagem": 6832,
      "Ġ1950": 6833,
      "Ġcach": 6834,
      "Ġsuger": 6835,
      "Relator": 6836,
      "Ġcompleto": 6837,
      "Ġhospital": 6838,
      "Ġmanteve": 6839,
      "lante": 6840,
      "ĠIsra": 6841,
      "Ġaspectos": 6842,
      "Ġadmissi": 6843,
      "mici": 6844,
      "Ġ(.)": 6845,
      "Ġataques": 6846,
      "Ġapareceu": 6847,
      "ĠMira": 6848,
      "Ġagentes": 6849,
      "Ġinadmissi": 6850,
      "Ġtraduc": 6851,
      "ĠConstitucional": 6852,
      "fonso": 6853,
      "dicas": 6854,
      "Ġnobre": 6855,
      "Ġformado": 6856,
      "Ġcontudo": 6857,
      "moc": 6858,
      "Ġprevis": 6859,
      "Ġtiver": 6860,
      "Ġed": 6861,
      "ĠRugby": 6862,
      "ĠON": 6863,
      "Ġcosta": 6864,
      "ĠBul": 6865,
      "nan": 6866,
      "ĠGer": 6867,
      "Ġprogramac": 6868,
      "Ġcount": 6869,
      "ters": 6870,
      "ord": 6871,
      "ii": 6872,
      "Ġpesquisas": 6873,
      "plas": 6874,
      "RECURSO": 6875,
      "89": 6876,
      "ĠPO": 6877,
      "Ġ1979": 6878,
      "Ġterem": 6879,
      "85": 6880,
      "Ġcomuns": 6881,
      "Ġfacil": 6882,
      "rgia": 6883,
      "ĠConse": 6884,
      "In": 6885,
      "crito": 6886,
      "Ġcondenado": 6887,
      "Ġdecreto": 6888,
      "ĠWikipedia": 6889,
      "RAIS": 6890,
      "Ġidentidade": 6891,
      "ĠGosta": 6892,
      "blicado": 6893,
      "UNICI": 6894,
      "Ġpoliciais": 6895,
      "Ġ85": 6896,
      "ĠCato": 6897,
      "Ġusados": 6898,
      "Ġfaixas": 6899,
      "Ġinjus": 6900,
      "lizou": 6901,
      "ĠDoutor": 6902,
      "ĠEsses": 6903,
      "Ġmistura": 6904,
      "ĠAf": 6905,
      "Ġpedra": 6906,
      "Ġfique": 6907,
      "ĠIorque": 6908,
      "ĠPS": 6909,
      "ĠFaz": 6910,
      "Ġparcialmente": 6911,
      "Ġ41": 6912,
      "ĠNorma": 6913,
      "Ġencerra": 6914,
      "ĠSUPRE": 6915,
      "Ġessencial": 6916,
      "Ġimpetrac": 6917,
      "ĠGri": 6918,
      "rosso": 6919,
      "Ġregistrado": 6920,
      "Ġdigital": 6921,
      "Ġhavendo": 6922,
      "Ġpassag": 6923,
      "Ġcelular": 6924,
      "parece": 6925,
      "ea": 6926,
      "Ġmoral": 6927,
      "Ġnacionais": 6928,
      "ĠPodemos": 6929,
      "osas": 6930,
      "Ġpartidos": 6931,
      "Ġfaria": 6932,
      "ĠCalifo": 6933,
      "Ġautoria": 6934,
      "Ġlevando": 6935,
      "ĠAlexandre": 6936,
      "Ġtrac": 6937,
      "Ġorga": 6938,
      "Ġgeneral": 6939,
      "Ġ$": 6940,
      "Ġacreditar": 6941,
      "Ġintegrantes": 6942,
      "ĠHis": 6943,
      "âĢĻ.": 6944,
      "Ġeleitoral": 6945,
      "Ġdaquela": 6946,
      "Ġcontinuou": 6947,
      "Ġplanta": 6948,
      "ĠEspero": 6949,
      "doro": 6950,
      "ĠDio": 6951,
      "ĠFUNDA": 6952,
      "deres": 6953,
      "Ġconhecidos": 6954,
      "Ġdocumentac": 6955,
      "diram": 6956,
      "ĠEnco": 6957,
      "ĠVan": 6958,
      "Ġestudantes": 6959,
      "Ġpromover": 6960,
      "Ġmelhorar": 6961,
      "Ġsoldados": 6962,
      "Ġcedo": 6963,
      "Ġ280": 6964,
      "Ġultrapas": 6965,
      "ĠSR": 6966,
      "Ġconstruir": 6967,
      "ĠHos": 6968,
      "siva": 6969,
      "Ġconsiderac": 6970,
      "Ġnaturais": 6971,
      "jou": 6972,
      "ĠMiss": 6973,
      "Ġsuporte": 6974,
      "Ġaumentar": 6975,
      "ĠGabri": 6976,
      "Ðµ": 6977,
      "Ġencontram": 6978,
      "Ġemissora": 6979,
      "Ġolho": 6980,
      "ĠOperac": 6981,
      "uais": 6982,
      "ĠEditora": 6983,
      "Ġinteira": 6984,
      "Ġvinte": 6985,
      "arte": 6986,
      "ISTE": 6987,
      "ĠRELATOR": 6988,
      "ĠNACIONAL": 6989,
      "ĠACO": 6990,
      "ogle": 6991,
      "Ġave": 6992,
      "Ġmusica": 6993,
      "Ġ150": 6994,
      "Ġeditor": 6995,
      "ĠOuro": 6996,
      "ĠCONSTITUIC": 6997,
      "ĠObs": 6998,
      "Ġespal": 6999,
      "Ġdevol": 7000,
      "gidos": 7001,
      "Ġresga": 7002,
      "Ġfrequentemente": 7003,
      "ĠPR": 7004,
      "Ġingres": 7005,
      "ttle": 7006,
      "Ġnac": 7007,
      "nei": 7008,
      "Ġdestes": 7009,
      "Ġconfere": 7010,
      "ragem": 7011,
      "iac": 7012,
      "ĠRodrigo": 7013,
      "RANC": 7014,
      "Ġpuni": 7015,
      "Ġrecorre": 7016,
      "ĠCastelo": 7017,
      "rez": 7018,
      "âĢĻ,": 7019,
      "Ġglobal": 7020,
      "ture": 7021,
      "chado": 7022,
      "Ġquerer": 7023,
      "Ġplantas": 7024,
      "nguas": 7025,
      "Vo": 7026,
      "lera": 7027,
      "Ġ1974": 7028,
      "ĠTraduc": 7029,
      "Ġbrilha": 7030,
      "Ġnegativa": 7031,
      "Ġtabela": 7032,
      "Ġarmaze": 7033,
      "ĠBill": 7034,
      "Ġpega": 7035,
      "Ġmoe": 7036,
      "Ġrelativa": 7037,
      "Ġcabelo": 7038,
      "ĠLy": 7039,
      "mons": 7040,
      "Ġfechado": 7041,
      "ĠFontes": 7042,
      "Ġvenci": 7043,
      "ĠGomes": 7044,
      "Ġreg": 7045,
      "Ġmesa": 7046,
      "lande": 7047,
      "ions": 7048,
      "ĠWashington": 7049,
      "ĠEdson": 7050,
      "Ġpressupostos": 7051,
      "Subprocurador": 7052,
      "rum": 7053,
      "Ġseguro": 7054,
      "nor": 7055,
      "Ġfeno": 7056,
      "nsas": 7057,
      "mulas": 7058,
      "Ġimpacto": 7059,
      "Ġestabelecido": 7060,
      "ĠFra": 7061,
      "Ġtreinador": 7062,
      "zadas": 7063,
      "Ġencontrado": 7064,
      "ĠOra": 7065,
      "Ġmetal": 7066,
      "Ġsexual": 7067,
      "ĠThomas": 7068,
      "Ġger": 7069,
      "blicou": 7070,
      "Ġinva": 7071,
      "87": 7072,
      "ĠVAL": 7073,
      "Ġcient": 7074,
      "Ġacade": 7075,
      "quisic": 7076,
      "rela": 7077,
      "ĠAnte": 7078,
      "GOS": 7079,
      "Ġfuncionamento": 7080,
      "ĠGos": 7081,
      "ĠINFRACONSTITUCIONAL": 7082,
      "bito": 7083,
      "Ġassumiu": 7084,
      "Ġestrada": 7085,
      "Ġbasta": 7086,
      "VD": 7087,
      "Ġnor": 7088,
      "pse": 7089,
      "ĠRibeiro": 7090,
      "Ġassus": 7091,
      "ish": 7092,
      "neros": 7093,
      "Ġmovimentos": 7094,
      "ĠINTER": 7095,
      "Ġlutar": 7096,
      "ĠCity": 7097,
      "LOS": 7098,
      "Ġcasal": 7099,
      "Ġcata": 7100,
      "Ġmine": 7101,
      "mic": 7102,
      "Ġconcre": 7103,
      "rian": 7104,
      "ĠSociedade": 7105,
      "Ġcomercia": 7106,
      "Ġ1975": 7107,
      "Ġdentre": 7108,
      "Ġportugues": 7109,
      "Ġalvo": 7110,
      "ĠVito": 7111,
      "Ġ46": 7112,
      "Ġalegada": 7113,
      "Ġrecente": 7114,
      "TDO": 7115,
      "Ġconsiderados": 7116,
      "ssimo": 7117,
      "Ġ42": 7118,
      "ĠJus": 7119,
      "phy": 7120,
      "ĠWikciona": 7121,
      "Ġesto": 7122,
      "Ġ1978": 7123,
      "versita": 7124,
      "meno": 7125,
      "ĠAir": 7126,
      "ĠPens": 7127,
      "ltimas": 7128,
      "neas": 7129,
      "Ġ06": 7130,
      "nela": 7131,
      "Ġproteger": 7132,
      "Ġ101": 7133,
      "Ġtela": 7134,
      "ĠEspera": 7135,
      "Ġpq": 7136,
      "Ġrestric": 7137,
      "Ġdiscurso": 7138,
      "Ġvendo": 7139,
      "vadas": 7140,
      "PLENA": 7141,
      "ĠTecno": 7142,
      "nias": 7143,
      "ĠSra": 7144,
      "Ġ1976": 7145,
      "NE": 7146,
      "book": 7147,
      "ĠIns": 7148,
      "Ġverde": 7149,
      "lbuns": 7150,
      "Ġpetro": 7151,
      "ĠOutro": 7152,
      "Relatora": 7153,
      "nson": 7154,
      "ĠPrograma": 7155,
      "ĠGoia": 7156,
      "Ġconsiderar": 7157,
      "ssico": 7158,
      "Ġ97": 7159,
      "pin": 7160,
      "ĠJor": 7161,
      "Ġgradu": 7162,
      "ĠSI": 7163,
      "Ġvege": 7164,
      "ĠAdo": 7165,
      "Ġpartidas": 7166,
      "ĠRichard": 7167,
      "dire": 7168,
      "sivo": 7169,
      "Ġtrabalhando": 7170,
      "PI": 7171,
      "Ġfls": 7172,
      "(.)": 7173,
      "Ġconsiderando": 7174,
      "xia": 7175,
      "Ġdete": 7176,
      "Ġcomputador": 7177,
      "ĠGracie": 7178,
      "Ġprobato": 7179,
      "Ġcoo": 7180,
      "ĠPois": 7181,
      "ĠNenh": 7182,
      "ĠSite": 7183,
      "Ġtransfere": 7184,
      "ĠInternet": 7185,
      "GC": 7186,
      "asse": 7187,
      "idae": 7188,
      "AM": 7189,
      "tuto": 7190,
      "ĠAlgumas": 7191,
      "Fo": 7192,
      "Ġpudesse": 7193,
      "Ġmencio": 7194,
      "FIC": 7195,
      "VER": 7196,
      "ĠUniversity": 7197,
      "Ġfalou": 7198,
      "Ġfara": 7199,
      "Ġrainha": 7200,
      "ries": 7201,
      "ROVIDO": 7202,
      "ĠHan": 7203,
      "Ġmapas": 7204,
      "Ġlocalidades": 7205,
      "Ġfavora": 7206,
      "Ġconfer": 7207,
      "ROS": 7208,
      "ĠMINAS": 7209,
      "ĠLava": 7210,
      "Ġili": 7211,
      "Ġjusti": 7212,
      "cons": 7213,
      "Ġresolver": 7214,
      "herme": 7215,
      "Ġpostu": 7216,
      "Ġpia": 7217,
      "Ġvencer": 7218,
      "itores": 7219,
      "ĠPertence": 7220,
      "Ġvendas": 7221,
      "Ġcarga": 7222,
      "ntudo": 7223,
      "Ġcente": 7224,
      "rindo": 7225,
      "Ġacab": 7226,
      "ĠLV": 7227,
      "Ġestivesse": 7228,
      "Ġconsumo": 7229,
      "Ġprequestionamento": 7230,
      "Ġ300": 7231,
      "Ġdiminui": 7232,
      "Ġbons": 7233,
      "ĠUF": 7234,
      "grante": 7235,
      "Ġprevide": 7236,
      "ĠPartici": 7237,
      "resa": 7238,
      "Ġminuto": 7239,
      "ĠEmp": 7240,
      "cionar": 7241,
      "ĠBraga": 7242,
      "ĠHomem": 7243,
      "Ġesperanc": 7244,
      "Ġdiminu": 7245,
      "ÌĨ": 7246,
      "ĠKar": 7247,
      "Ġesperando": 7248,
      "estas": 7249,
      "Ġimplica": 7250,
      "Ġproduzir": 7251,
      "Ġ1981": 7252,
      "heiros": 7253,
      "343": 7254,
      "Ġfortes": 7255,
      "Ġplu": 7256,
      "Ġcolocado": 7257,
      "ĠIsrael": 7258,
      "Ġmama": 7259,
      "Ġinvo": 7260,
      "Ġfamoso": 7261,
      "licos": 7262,
      "Carmen": 7263,
      "AMENTO": 7264,
      "grantes": 7265,
      "Ġtestes": 7266,
      "Ġontem": 7267,
      "Ġsobretudo": 7268,
      "Ġcomprome": 7269,
      "genas": 7270,
      "ĠArtes": 7271,
      "Ġvariac": 7272,
      "ĠTour": 7273,
      "ĠAlberto": 7274,
      "ĠBlack": 7275,
      "ĠJoe": 7276,
      "ncos": 7277,
      "Ġanimal": 7278,
      "gene": 7279,
      "Ġrobo": 7280,
      "Ġsor": 7281,
      "rativa": 7282,
      "Ġtransmissa": 7283,
      "mpeo": 7284,
      "Ġfossem": 7285,
      "Noti": 7286,
      "ĠDesenvolvimento": 7287,
      "Ġ49": 7288,
      "teria": 7289,
      "Ġprejudica": 7290,
      "ĠSC": 7291,
      "Ġexclui": 7292,
      "ĠCampo": 7293,
      "Ġproprieta": 7294,
      "Ġconserva": 7295,
      "Be": 7296,
      "Ġcomprimento": 7297,
      "Ġmestre": 7298,
      "ten": 7299,
      "Ġconheceu": 7300,
      "ĠUna": 7301,
      "Ġliteratura": 7302,
      "win": 7303,
      "teira": 7304,
      "Ġpapai": 7305,
      "ĠMestre": 7306,
      "Ġletra": 7307,
      "Ġ75": 7308,
      "dras": 7309,
      "ĠBlo": 7310,
      "ĠGover": 7311,
      "ĠMary": 7312,
      "ĠBelo": 7313,
      "Ġsuce": 7314,
      "ntados": 7315,
      "ĠOb": 7316,
      "gon": 7317,
      "Ġideias": 7318,
      "Ġelemento": 7319,
      "Ġpintura": 7320,
      "Ġtextos": 7321,
      "ĠComplementar": 7322,
      "ĠRegimento": 7323,
      "Ġpopulacional": 7324,
      "Ġpul": 7325,
      "mens": 7326,
      "field": 7327,
      "Ġfundado": 7328,
      "!\"": 7329,
      "ĠAugusto": 7330,
      "ĠAnt": 7331,
      "ĠSTJ": 7332,
      "Ġpreocupac": 7333,
      "ĠIsabel": 7334,
      "ĠEgi": 7335,
      "Ġrelacionados": 7336,
      "à¤": 7337,
      "Ġ54": 7338,
      "Ġvermelho": 7339,
      "mulo": 7340,
      "igh": 7341,
      "Ġcompositor": 7342,
      "RDA": 7343,
      "Ġ65": 7344,
      "Ġcategorias": 7345,
      "Ġsenador": 7346,
      "ĠCinema": 7347,
      "ÂŃ": 7348,
      "Ġinfor": 7349,
      "namento": 7350,
      "Ġatribuic": 7351,
      "quete": 7352,
      "giram": 7353,
      "eb": 7354,
      "Ġ1973": 7355,
      "Ġrazoa": 7356,
      "Ġimpla": 7357,
      "Ġmsg": 7358,
      "Ġrestri": 7359,
      "Ġcarne": 7360,
      "ĠPapai": 7361,
      "Ġcarros": 7362,
      "Ġintervenc": 7363,
      "Ġ1969": 7364,
      "ndy": 7365,
      "nstitucionais": 7366,
      "Ġespecificamente": 7367,
      "Ġmarcou": 7368,
      "?\"": 7369,
      "DECL": 7370,
      "naval": 7371,
      "ĠEstes": 7372,
      "Ġdeca": 7373,
      "Ġaprendi": 7374,
      "hy": 7375,
      "ight": 7376,
      "Ġficaram": 7377,
      "nn": 7378,
      "derou": 7379,
      "tantes": 7380,
      "Ġconsumi": 7381,
      "ntamento": 7382,
      "ĠTrump": 7383,
      "ĠBiodi": 7384,
      "rinhos": 7385,
      "isos": 7386,
      "wi": 7387,
      "sen": 7388,
      "Ġdecorrente": 7389,
      "ĠRed": 7390,
      "probato": 7391,
      "Ġlances": 7392,
      "jetivo": 7393,
      "lizmente": 7394,
      "ulac": 7395,
      "Ġjantar": 7396,
      "ĠDefesa": 7397,
      "Ġuniverso": 7398,
      "Ġreino": 7399,
      "Ġcontempora": 7400,
      "ĠFro": 7401,
      "Ġcerimo": 7402,
      "lagem": 7403,
      "Ġchamados": 7404,
      "Ġpontu": 7405,
      "dice": 7406,
      "ĠAngeles": 7407,
      "Ġenvio": 7408,
      "ĠExistem": 7409,
      "Ġchamou": 7410,
      "ĠBota": 7411,
      "ĠFevereiro": 7412,
      "Ġdetalhes": 7413,
      "gara": 7414,
      "ndidas": 7415,
      "gindo": 7416,
      "soluc": 7417,
      "Ġencontrou": 7418,
      "Ġmodelos": 7419,
      "Ġtrabalh": 7420,
      "Ġexpul": 7421,
      "Ġachei": 7422,
      "ĠDom": 7423,
      "Ġ47": 7424,
      "ĠEqui": 7425,
      "Ġporte": 7426,
      "Ġchegada": 7427,
      "ĠAge": 7428,
      "ĠLife": 7429,
      "Ġ09": 7430,
      "Ġautomaticamente": 7431,
      "giado": 7432,
      "fes": 7433,
      "mindo": 7434,
      "Ġcomerciais": 7435,
      "orizonte": 7436,
      "Ġpercentu": 7437,
      ",\"": 7438,
      "Ġnaquela": 7439,
      "ĠSui": 7440,
      "Ġcadeira": 7441,
      "ĠImpos": 7442,
      "Ġcompo": 7443,
      "ERC": 7444,
      "Ġautora": 7445,
      "ĠTerce": 7446,
      "Ġcomuna": 7447,
      "Ġletras": 7448,
      "ĠPernambu": 7449,
      "ngola": 7450,
      "Ġdita": 7451,
      "Ġ:((": 7452,
      "nds": 7453,
      "ĠAgR": 7454,
      "ĠâĻ": 7455,
      "Ġhab": 7456,
      "gros": 7457,
      "cte": 7458,
      "vento": 7459,
      "bec": 7460,
      "Î±": 7461,
      "idac": 7462,
      "Ġcalc": 7463,
      "ĠTermo": 7464,
      "Ġfirme": 7465,
      "ĠJOA": 7466,
      "ĠQUAL": 7467,
      "Ġrealizadas": 7468,
      "Ġprefer": 7469,
      "Ġconsol": 7470,
      "Ġinteiro": 7471,
      "Ġpetic": 7472,
      "ĠAlo": 7473,
      "conc": 7474,
      "Ġfundac": 7475,
      "Ġconfianc": 7476,
      "Ġrecorde": 7477,
      "ĠGERAIS": 7478,
      "Ġdetec": 7479,
      "Ġ07": 7480,
      "Ġsuficientes": 7481,
      "ĠEstava": 7482,
      "86": 7483,
      "ficadas": 7484,
      "TS": 7485,
      "Ġemenda": 7486,
      "pina": 7487,
      "Ġpiloto": 7488,
      "ĠStan": 7489,
      "Ġrecolh": 7490,
      "ĠConte": 7491,
      "ĠPark": 7492,
      "Ġtitular": 7493,
      "Ġsuposta": 7494,
      "ĠGonc": 7495,
      "Ġrealizou": 7496,
      "ĠDECLA": 7497,
      "Ġmons": 7498,
      "Ġanual": 7499,
      "mus": 7500,
      "Ġ1968": 7501,
      "ĠAmor": 7502,
      "Ġprincesa": 7503,
      "nente": 7504,
      "cta": 7505,
      "Ġquebra": 7506,
      "ĠForam": 7507,
      "Ġlideranc": 7508,
      "NO": 7509,
      "ĠCompanhia": 7510,
      "neja": 7511,
      "Ġjudiciais": 7512,
      "reau": 7513,
      "Ġ1964": 7514,
      "ĠTurmaDocumento": 7515,
      "Ġsequer": 7516,
      "cinco": 7517,
      "raram": 7518,
      "ĠContro": 7519,
      "mple": 7520,
      "tman": 7521,
      "Ġequili": 7522,
      "ĠLove": 7523,
      "Ġpista": 7524,
      "Ġautorizac": 7525,
      "ĠFER": 7526,
      "ngulo": 7527,
      "Agra": 7528,
      "Ġinterno": 7529,
      "Ġ1977": 7530,
      "Ġjuros": 7531,
      "ek": 7532,
      "VOGADO": 7533,
      "Ġpossam": 7534,
      ":âĢĺ": 7535,
      "Ġrefu": 7536,
      "ĠELE": 7537,
      "Ġhu": 7538,
      "Ġgolpe": 7539,
      "Ġ55": 7540,
      "prias": 7541,
      "pages": 7542,
      "ĠDIREITO": 7543,
      "Ġfixac": 7544,
      "rest": 7545,
      "Ġwi": 7546,
      "BS": 7547,
      "Ġdescoberta": 7548,
      "Ġespor": 7549,
      "ĠSouzaSecreta": 7550,
      "100": 7551,
      "ĠPetrobras": 7552,
      "ĠMarcelo": 7553,
      "ĠPan": 7554,
      "Ġadjudicata": 7555,
      "Ġarge": 7556,
      "todos": 7557,
      "corro": 7558,
      "ĠIMPOSSIBILIDADE": 7559,
      "Ġtocar": 7560,
      "ĠOutra": 7561,
      "irou": 7562,
      "NI": 7563,
      "questra": 7564,
      "Ġreligios": 7565,
      "ĠEssas": 7566,
      "Ġensa": 7567,
      "ĠTodo": 7568,
      "Ġpercebe": 7569,
      "Ġobjetivos": 7570,
      "ĠMag": 7571,
      "Ġ1972": 7572,
      "Ġocorrido": 7573,
      "sina": 7574,
      "ĠADMINISTRATIVO": 7575,
      "ĠElenco": 7576,
      "ĠEngenh": 7577,
      "Ġacumula": 7578,
      "neses": 7579,
      "ĠCra": 7580,
      "Ġpraticamente": 7581,
      "Ġreite": 7582,
      "deus": 7583,
      "Ġprefeitura": 7584,
      "cidas": 7585,
      "ĠBARB": 7586,
      "Ġrevo": 7587,
      "ĠAch": 7588,
      "Gra": 7589,
      "Ġcomunica": 7590,
      "ĠVerde": 7591,
      "Ġdesejo": 7592,
      "Ġinfra": 7593,
      "sificac": 7594,
      "Ġmodal": 7595,
      "ĠConstituinte": 7596,
      "Ġcomplexo": 7597,
      "gena": 7598,
      "Ġutilizados": 7599,
      "Ġinscric": 7600,
      "rebro": 7601,
      "Ġpobre": 7602,
      "Ġdesaf": 7603,
      "Ġfin": 7604,
      "Ġbateria": 7605,
      "Ġaberta": 7606,
      "Publicado": 7607,
      "ionado": 7608,
      "Ġlembro": 7609,
      "Ġsobrevive": 7610,
      "ceano": 7611,
      "Ġfrau": 7612,
      "ador": 7613,
      "Ġaprender": 7614,
      "Ġhidro": 7615,
      "nove": 7616,
      "ĠPress": 7617,
      "Ġassentou": 7618,
      "Ġmenino": 7619,
      "Ġverificar": 7620,
      "only": 7621,
      "Ġevoluc": 7622,
      "ĠSUPREMO": 7623,
      "Ġdomina": 7624,
      "Ġpecu": 7625,
      "Ġpreocupa": 7626,
      "Ġficam": 7627,
      "Ġpublicou": 7628,
      "ppe": 7629,
      "Ġnames": 7630,
      "ĠPROCESSUAL": 7631,
      "ĠMadri": 7632,
      "Ġpresos": 7633,
      "Ġobrigada": 7634,
      "Ġrecus": 7635,
      "Ġvelha": 7636,
      ".).": 7637,
      "Main": 7638,
      "Ġstable": 7639,
      "geral": 7640,
      "FL": 7641,
      "let": 7642,
      "fac": 7643,
      "Ġapresentados": 7644,
      "ĠGol": 7645,
      "iliares": 7646,
      "board": 7647,
      "Ġ1967": 7648,
      "Ġfinanceira": 7649,
      "Ġpun": 7650,
      "nald": 7651,
      "ĠOscar": 7652,
      "tizac": 7653,
      "ĠGuilherme": 7654,
      "Ġimpedi": 7655,
      "Ġresoluc": 7656,
      "RIC": 7657,
      "Ġigno": 7658,
      "alizar": 7659,
      "Ġvigor": 7660,
      "nts": 7661,
      "ĠNelson": 7662,
      "Ġreque": 7663,
      "Ġperspec": 7664,
      "graf": 7665,
      "Ġmenina": 7666,
      "Ġorgu": 7667,
      "Ġpromoc": 7668,
      "ĠCorpo": 7669,
      "ĠProfessor": 7670,
      "Ġmm": 7671,
      "ndar": 7672,
      "Ġformar": 7673,
      "Ġcondado": 7674,
      "lismo": 7675,
      "Ex": 7676,
      "Ġestabelecer": 7677,
      "Ġarran": 7678,
      "Ġreligia": 7679,
      "Ġumas": 7680,
      "mana": 7681,
      "ĠAlia": 7682,
      "Ġdescric": 7683,
      "vile": 7684,
      "Ġ1930": 7685,
      "Ġidentificac": 7686,
      "Ġ43": 7687,
      "Ġmuseu": 7688,
      "Ġbota": 7689,
      "Ġprofessores": 7690,
      "Ġabrac": 7691,
      "Ġstablepages": 7692,
      "ĠGusta": 7693,
      "Ġexplicar": 7694,
      "Ġinterposic": 7695,
      "Ġestima": 7696,
      "Ġchegaram": 7697,
      "Des": 7698,
      "Ġcem": 7699,
      "Ġdefender": 7700,
      "ĠInfa": 7701,
      "Ġ282": 7702,
      "ĠSam": 7703,
      "ĠSaint": 7704,
      "Ġconfigurac": 7705,
      "llo": 7706,
      "nismos": 7707,
      "Agravo": 7708,
      "wal": 7709,
      "ĠINC": 7710,
      "Ġmeados": 7711,
      "aminha": 7712,
      "data": 7713,
      "Ġmesmas": 7714,
      "Ġautomo": 7715,
      "ĠBos": 7716,
      "Ġatender": 7717,
      "Ġespecificac": 7718,
      "ĠScho": 7719,
      "Ġmens": 7720,
      "ricultura": 7721,
      "Ġartic": 7722,
      "Ġformada": 7723,
      "Ġescul": 7724,
      "wiki": 7725,
      "VEN": 7726,
      "ĠJato": 7727,
      "Ġgrego": 7728,
      "ndios": 7729,
      "MAN": 7730,
      "ĠProduc": 7731,
      "Ġreba": 7732,
      "ĠRafa": 7733,
      "Ġexpansa": 7734,
      "ĠFis": 7735,
      "date": 7736,
      "Ġcm": 7737,
      "Ġinterpo": 7738,
      "Ġrecentemente": 7739,
      "Ga": 7740,
      "Ġamos": 7741,
      "nesa": 7742,
      "Ġnamespace": 7743,
      "cuc": 7744,
      "Ġlegiti": 7745,
      "Ġcompati": 7746,
      "Ġbandeira": 7747,
      "Ġpele": 7748,
      "erta": 7749,
      "guem": 7750,
      "dical": 7751,
      "Ġcorrente": 7752,
      "cnicos": 7753,
      "Ġaula": 7754,
      "Ġengrac": 7755,
      "ntam": 7756,
      "Ġconselho": 7757,
      "Ġmol": 7758,
      "Ġocorrer": 7759,
      "cese": 7760,
      "ouro": 7761,
      "Ja": 7762,
      "Ġpresu": 7763,
      "meras": 7764,
      "ĠDisco": 7765,
      "eminino": 7766,
      "Ġpacientes": 7767,
      "Ġness": 7768,
      "estra": 7769,
      "rs": 7770,
      "quado": 7771,
      "VAL": 7772,
      "ĠBRA": 7773,
      "Ġderru": 7774,
      "Ce": 7775,
      "Ġquadra": 7776,
      "ĠUru": 7777,
      "thur": 7778,
      "ĠAcha": 7779,
      "Ġterminar": 7780,
      "ĠOficial": 7781,
      "Lei": 7782,
      "Ġproferido": 7783,
      "84": 7784,
      "Ġefetiva": 7785,
      "Ġemerge": 7786,
      "Ġatuais": 7787,
      "Ġencaminha": 7788,
      "ĠProjeto": 7789,
      "ball": 7790,
      "Ale": 7791,
      "Ġprac": 7792,
      "cita": 7793,
      "________________": 7794,
      "ĠTac": 7795,
      "ĠHel": 7796,
      "ĠContudo": 7797,
      "Ġpermaneceu": 7798,
      "ĠMis": 7799,
      "ĠBil": 7800,
      "Ġrealizados": 7801,
      "ĠBara": 7802,
      "Ġroupas": 7803,
      "Ġdiverge": 7804,
      "nciados": 7805,
      "Ġrusso": 7806,
      "Ġbaseada": 7807,
      "Ġbuscar": 7808,
      "Ġrespeita": 7809,
      "cl": 7810,
      "ĠAlex": 7811,
      "Ġrelativamente": 7812,
      "Ġeva": 7813,
      "Ġpassageiros": 7814,
      "cher": 7815,
      "RIOS": 7816,
      "Ġcursos": 7817,
      "ĠRecords": 7818,
      "Ġutilizar": 7819,
      "TIN": 7820,
      "Ġlance": 7821,
      "Ð½": 7822,
      "lix": 7823,
      "cato": 7824,
      "Ġnela": 7825,
      "Ġconcorda": 7826,
      "ĠCos": 7827,
      "Ġreconhecer": 7828,
      "ĠEuropeia": 7829,
      "Ġatuou": 7830,
      "ĠEmenda": 7831,
      "Ġconsi": 7832,
      "Ch": 7833,
      "ĠStates": 7834,
      "Ġitens": 7835,
      "Ġverbis": 7836,
      "onar": 7837,
      "Ġcompre": 7838,
      "Ġdroga": 7839,
      "Ġrodada": 7840,
      "Ġreclusa": 7841,
      "Ġlembrar": 7842,
      "BE": 7843,
      "Ġmusicais": 7844,
      "ĠHenry": 7845,
      "Ġcaminha": 7846,
      "Ġclara": 7847,
      "rismo": 7848,
      "Ġadiciona": 7849,
      "Ġimpedir": 7850,
      "jeito": 7851,
      "Ġdificuldades": 7852,
      "ĠAgravante": 7853,
      "duo": 7854,
      "Ġcustos": 7855,
      "Ġaspecto": 7856,
      "ĠBis": 7857,
      "Ġdiversa": 7858,
      "Ġquente": 7859,
      "fede": 7860,
      "Ġsecunda": 7861,
      "Ġvon": 7862,
      "Ġrenu": 7863,
      "mentas": 7864,
      "Ġverificac": 7865,
      "vy": 7866,
      "Ġtio": 7867,
      "Ġexpedic": 7868,
      "ind": 7869,
      "Ġextremamente": 7870,
      "Ġconsa": 7871,
      "Ġinteressante": 7872,
      "ĠEleitoral": 7873,
      "Ġcine": 7874,
      "mie": 7875,
      "Ġimpugnado": 7876,
      "Ġcontratado": 7877,
      "ĠJardim": 7878,
      "deio": 7879,
      "Ġdisciplina": 7880,
      "Ġbara": 7881,
      "ministro": 7882,
      "Ġhar": 7883,
      "Ġsofreu": 7884,
      "**": 7885,
      "ĠGRA": 7886,
      "ĠSousa": 7887,
      "Ġdemonstrac": 7888,
      "Ġassis": 7889,
      "burg": 7890,
      "Ġsate": 7891,
      "ĠWest": 7892,
      "!!!": 7893,
      "Ġfloresta": 7894,
      "rita": 7895,
      "Ġencontrada": 7896,
      "Ġmilhares": 7897,
      "Ġestudar": 7898,
      "Ġfaci": 7899,
      "UTA": 7900,
      "Ġitaliana": 7901,
      "Ġciru": 7902,
      "ÑĢ": 7903,
      "Ġedital": 7904,
      "viamente": 7905,
      "Ġcastelo": 7906,
      "Ġsabem": 7907,
      "diano": 7908,
      "Ġprevistos": 7909,
      "Ġquant": 7910,
      "Ġinsi": 7911,
      "ĠXVIII": 7912,
      "ĠPeru": 7913,
      "ĠOutras": 7914,
      "Ġtale": 7915,
      "Ġponte": 7916,
      "Ġ64": 7917,
      "ixada": 7918,
      "DADO": 7919,
      "Ġbor": 7920,
      "Ġpalco": 7921,
      "ĠAni": 7922,
      "Ġperio": 7923,
      "om": 7924,
      "Ġido": 7925,
      "Ġpassada": 7926,
      "ĠSur": 7927,
      "Ġconso": 7928,
      "Ġdiscutir": 7929,
      "tori": 7930,
      "Ġ1971": 7931,
      "well": 7932,
      "Ġ400": 7933,
      "Ġaproveita": 7934,
      "Ġforta": 7935,
      "ĠAyres": 7936,
      "Ġmomentos": 7937,
      "Ġprata": 7938,
      "cera": 7939,
      "VEIRA": 7940,
      "brado": 7941,
      "Ġsabemos": 7942,
      "Ġvoo": 7943,
      "ĠAba": 7944,
      "char": 7945,
      "ĠAfonso": 7946,
      "Ġanteci": 7947,
      "ĠEstac": 7948,
      "Ġges": 7949,
      "estre": 7950,
      "Ġequivalente": 7951,
      "Ġ\"(": 7952,
      "Ġdesper": 7953,
      "Ġabrange": 7954,
      "ĠCezar": 7955,
      "Ġinfraconstitucionais": 7956,
      "ĠPrecisamos": 7957,
      "Ġcampos": 7958,
      "Ġreferente": 7959,
      "Ġclientes": 7960,
      "Ġnegocia": 7961,
      "Ġvencido": 7962,
      "bir": 7963,
      "ĠMarques": 7964,
      "ĠBARBOSA": 7965,
      "Ġgere": 7966,
      "Ġalega": 7967,
      "gil": 7968,
      "Ġmerca": 7969,
      "Ġcair": 7970,
      "DEM": 7971,
      "ĠLinha": 7972,
      "Ġ1940": 7973,
      "ile": 7974,
      "PT": 7975,
      "Ġlinda": 7976,
      "zinhos": 7977,
      "Ġestatal": 7978,
      "Ġamar": 7979,
      "ĠRay": 7980,
      "ĠVia": 7981,
      "ĠMato": 7982,
      "ĠDVD": 7983,
      "Ġdevendo": 7984,
      "ĠContinu": 7985,
      "Ġprocessamento": 7986,
      "inental": 7987,
      "ĠHora": 7988,
      "ĠTy": 7989,
      "Ġsalvo": 7990,
      "Ġmostrou": 7991,
      "Ġdocumenta": 7992,
      "ming": 7993,
      "erre": 7994,
      "asa": 7995,
      "Ġdesenvolvido": 7996,
      "ingles": 7997,
      "Ġlhes": 7998,
      "Ġrosto": 7999,
      "mbolo": 8000,
      "ĠChamp": 8001,
      "Ġaltitude": 8002,
      "MENTE": 8003,
      "Ġconec": 8004,
      "ĠSuas": 8005,
      "Ġanunciado": 8006,
      "Ġcumprir": 8007,
      "Ġteriam": 8008,
      "lve": 8009,
      "ndra": 8010,
      "Ġpensamento": 8011,
      "ĠEscu": 8012,
      "Ġprivada": 8013,
      "ĠCoreia": 8014,
      "ĠCuidado": 8015,
      "Ġsurgiu": 8016,
      "Ġcuidar": 8017,
      "Ġimediata": 8018,
      "ĠAmi": 8019,
      "Ġsoftware": 8020,
      "Ġtira": 8021,
      "Ġexplos": 8022,
      "ĠMartins": 8023,
      "ĠExecutivo": 8024,
      "Ġtratado": 8025,
      "Ġpraia": 8026,
      "Ġelimina": 8027,
      "trico": 8028,
      "Ġinformou": 8029,
      "Ġnucle": 8030,
      "ĠMarcos": 8031,
      "Ġespero": 8032,
      "ela": 8033,
      "eu": 8034,
      "ĠGuar": 8035,
      "Ġafastar": 8036,
      "Ġlindo": 8037,
      "pesas": 8038,
      "Ġdesenvolver": 8039,
      "americana": 8040,
      "Ġoferta": 8041,
      "ĠXVI": 8042,
      "AP": 8043,
      "Ġobservac": 8044,
      "ĠAB": 8045,
      "bitos": 8046,
      "Ġdurac": 8047,
      "ĠLuis": 8048,
      "grada": 8049,
      "logias": 8050,
      "Ġby": 8051,
      "NIO": 8052,
      "Ġprocurando": 8053,
      "niente": 8054,
      "Ġdeterminada": 8055,
      "Ġdeslo": 8056,
      "rors": 8057,
      "Ġpenas": 8058,
      "Ġjapone": 8059,
      "Ġconcei": 8060,
      "lino": 8061,
      "Ġperigo": 8062,
      "ĠEp": 8063,
      "Ġobe": 8064,
      "lhado": 8065,
      "ĠLeague": 8066,
      "Ġmano": 8067,
      "ĠVista": 8068,
      "ĠDefe": 8069,
      "tendo": 8070,
      "ĠCy": 8071,
      "Ġemo": 8072,
      "rino": 8073,
      "ĠGabriel": 8074,
      "ÌĤ...": 8075,
      "ciente": 8076,
      "Ġane": 8077,
      "Ġsoma": 8078,
      "Ġentretanto": 8079,
      "ĠREPU": 8080,
      "orra": 8081,
      "Ġcombus": 8082,
      "ĠâĻª": 8083,
      "Ġcomba": 8084,
      "Ġparale": 8085,
      "Ġfolhas": 8086,
      "Ġpedidos": 8087,
      "trio": 8088,
      "Ġresponder": 8089,
      "ĠWo": 8090,
      "iclope": 8091,
      "ĠPalme": 8092,
      "ĠEC": 8093,
      "tava": 8094,
      "Ġcondenato": 8095,
      "Ġexistentes": 8096,
      "vara": 8097,
      "heiro": 8098,
      "Ġexcelente": 8099,
      "ĠLanc": 8100,
      "Ġpreliminar": 8101,
      "Ġcoluna": 8102,
      "ĠMaca": 8103,
      "ĠChile": 8104,
      "rabe": 8105,
      "Ġapelac": 8106,
      "Ġprocurar": 8107,
      "Ġcolaborac": 8108,
      "ĠSebas": 8109,
      "Ġporto": 8110,
      "zando": 8111,
      "Ġconsoa": 8112,
      "ĠInformac": 8113,
      ".âĢĻ": 8114,
      "ianos": 8115,
      "Ġplac": 8116,
      "ĠParai": 8117,
      "crita": 8118,
      "Ġprovide": 8119,
      "Ġdepartamento": 8120,
      "sur": 8121,
      "Ġcaro": 8122,
      "Ġhouver": 8123,
      "Ġrequisito": 8124,
      "ĠEdic": 8125,
      "plicac": 8126,
      "ĠPou": 8127,
      "Ġerros": 8128,
      "Ġala": 8129,
      "Ġ1945": 8130,
      "IZ": 8131,
      "ĠHil": 8132,
      "rich": 8133,
      "Ġdescoberto": 8134,
      "TES": 8135,
      "ĠRevoluc": 8136,
      "Ġ356": 8137,
      "Ġeduca": 8138,
      "Ġextinc": 8139,
      "Tu": 8140,
      "Ġtomou": 8141,
      "Jo": 8142,
      "Ġnavios": 8143,
      "Ġlago": 8144,
      "tan": 8145,
      "dad": 8146,
      "Ġbur": 8147,
      "Ġ1966": 8148,
      "ĠNGC": 8149,
      "Ġsobera": 8150,
      "Ġlesa": 8151,
      "rvores": 8152,
      "CU": 8153,
      "logos": 8154,
      "Ġ(...)": 8155,
      "Ġatuar": 8156,
      "tipo": 8157,
      "Ġaulas": 8158,
      "Ġatingiu": 8159,
      "Ġdevemos": 8160,
      "ester": 8161,
      "gy": 8162,
      "Ġpessoais": 8163,
      "Ġguitarra": 8164,
      "Ġmachu": 8165,
      "ĠBla": 8166,
      "ulado": 8167,
      "chau": 8168,
      "Ġocupac": 8169,
      "Ġescolhe": 8170,
      "ĠFlor": 8171,
      "Ġrepresentantes": 8172,
      "timos": 8173,
      "Ġperdido": 8174,
      "alizado": 8175,
      "Ġregistros": 8176,
      "Ġquerido": 8177,
      "ĠMuitos": 8178,
      "Ġcasar": 8179,
      "Ġfinalidade": 8180,
      "SEN": 8181,
      "Ġfuncional": 8182,
      "ĠPROCESSO": 8183,
      "RT": 8184,
      "sonaro": 8185,
      "ĠSEGURANC": 8186,
      "Ġcintura": 8187,
      "Ġtrilha": 8188,
      "ĠDECISA": 8189,
      "ĠPela": 8190,
      "ĠPhi": 8191,
      "Ġmoc": 8192,
      "Ġreporta": 8193,
      "OL": 8194,
      "uito": 8195,
      "ĠGlobal": 8196,
      "Ġviaja": 8197,
      "Ġeminente": 8198,
      "Ġfrances": 8199,
      "vena": 8200,
      "ĠNet": 8201,
      "ĠMur": 8202,
      "ĠCamp": 8203,
      "ĠPAULORELATOR": 8204,
      "ffe": 8205,
      "Ġaddf": 8206,
      "categorydate": 8207,
      "irstcategorydate": 8208,
      "Ġaddfirstcategorydate": 8209,
      "Ġserviu": 8210,
      "Ġcolocou": 8211,
      "Ġpape": 8212,
      "Ġdificuldade": 8213,
      "achment": 8214,
      "Ġadversa": 8215,
      "ĠES": 8216,
      "83": 8217,
      "Ġsuppres": 8218,
      "Ġdoce": 8219,
      "Ġdesfa": 8220,
      "Ġmac": 8221,
      "Ġjamais": 8222,
      "ĠMark": 8223,
      "ĠConce": 8224,
      "Ġintelige": 8225,
      "linac": 8226,
      "Ġadquirido": 8227,
      "Ġ99": 8228,
      "Art": 8229,
      "Ġentregue": 8230,
      "Ġsuppresser": 8231,
      "Ġsuppresserrors": 8232,
      "ĠOS": 8233,
      "Ġaviso": 8234,
      "vita": 8235,
      "ĠBandeira": 8236,
      "ĠINCI": 8237,
      "Ġbispo": 8238,
      "bidas": 8239,
      "ĠLucas": 8240,
      "Ġigualmente": 8241,
      "Ġneu": 8242,
      "Ġseg": 8243,
      "Ġdiagrama": 8244,
      "%).": 8245,
      "Ġatingir": 8246,
      "Ġnomeac": 8247,
      "xx": 8248,
      "Ġtestemun": 8249,
      "Ġvotar": 8250,
      "hians": 8251,
      "Ġcabo": 8252,
      "ĠPredefinic": 8253,
      "teriores": 8254,
      "Ġconversar": 8255,
      "ĠDeputados": 8256,
      "mante": 8257,
      "Ġreajus": 8258,
      "nch": 8259,
      "Ġfaculdade": 8260,
      "Ġadmissibilidade": 8261,
      "Ġjulga": 8262,
      "Ġeventualmente": 8263,
      "BAL": 8264,
      "jec": 8265,
      "Ġconcluiu": 8266,
      "Ġtreinamento": 8267,
      "ĠFin": 8268,
      "Ġagres": 8269,
      "Ġconcede": 8270,
      "Ġdeveriam": 8271,
      "ĠElas": 8272,
      "Ġprevale": 8273,
      "TAR": 8274,
      "ĠPhil": 8275,
      "Ġcontratos": 8276,
      "lista": 8277,
      "Ġsubse": 8278,
      "inze": 8279,
      "Ġprivile": 8280,
      "Ġassuntos": 8281,
      "tara": 8282,
      "ĠCorint": 8283,
      "Ġdescende": 8284,
      "Ġ84": 8285,
      "Ġ52": 8286,
      "Ġinque": 8287,
      "Ġ56": 8288,
      "Ġcalor": 8289,
      "non": 8290,
      "Ġordens": 8291,
      "ĠLopes": 8292,
      "desa": 8293,
      "Ġaceitar": 8294,
      "Lu": 8295,
      "Ġreconhecido": 8296,
      "Ġestaduais": 8297,
      "Ġuniversidade": 8298,
      "Ġdura": 8299,
      "cura": 8300,
      "ĠSebastia": 8301,
      "ĠFlores": 8302,
      "Ġatualizac": 8303,
      "rizac": 8304,
      "ĠYo": 8305,
      "ĠShe": 8306,
      "ĠProcuradoria": 8307,
      "Ġquaisquer": 8308,
      "Ġassumir": 8309,
      "nton": 8310,
      "ĠComec": 8311,
      "ĠMarinha": 8312,
      "gantes": 8313,
      "Ġconcer": 8314,
      "Ġcapazes": 8315,
      "ĠNessa": 8316,
      "âĢĶ": 8317,
      "dinho": 8318,
      "ĠLT": 8319,
      "ĠPeluso": 8320,
      "ĠLetras": 8321,
      "ĠESPE": 8322,
      "ĠAdemais": 8323,
      "Ġproduzida": 8324,
      "Ġservir": 8325,
      "ventude": 8326,
      "Ġdeputados": 8327,
      "Ġdesenho": 8328,
      "naldo": 8329,
      "ĠOrganizac": 8330,
      "Ġilhas": 8331,
      "1999": 8332,
      "ĠAwards": 8333,
      "Ġobservar": 8334,
      "ĠVice": 8335,
      "Ġlaborato": 8336,
      "Ġdeclarato": 8337,
      "ĠRocha": 8338,
      "Ġbron": 8339,
      "ĠLIV": 8340,
      "Ġfolha": 8341,
      "Is": 8342,
      "Ġgratu": 8343,
      "Ġrai": 8344,
      "Ġsurpresa": 8345,
      "Ġacor": 8346,
      "Ġprecisar": 8347,
      "pha": 8348,
      "ĠBiodiversity": 8349,
      "JE": 8350,
      "Ġaquisic": 8351,
      "Ġdesculpe": 8352,
      "Ġexcepcional": 8353,
      "ĠSimp": 8354,
      "ĠCategory": 8355,
      "Ġestri": 8356,
      "Ġmoradores": 8357,
      "Ġcomparac": 8358,
      "Ġcompeti": 8359,
      "cana": 8360,
      "pho": 8361,
      "Ġvincula": 8362,
      "ĠMUNICI": 8363,
      "ridades": 8364,
      "ĠVenezuela": 8365,
      "Ġrep": 8366,
      "Ġfome": 8367,
      "Ġlixo": 8368,
      "USA": 8369,
      "ĠGrac": 8370,
      "Ġnascimento": 8371,
      "tle": 8372,
      "ĠNOS": 8373,
      "nf": 8374,
      "Ġexistente": 8375,
      "ĠBureau": 8376,
      "Ġreduzir": 8377,
      "incide": 8378,
      "CIMENTO": 8379,
      "Ġå": 8380,
      "Ġpira": 8381,
      "rgio": 8382,
      "Ġrepublica": 8383,
      "ĠPraia": 8384,
      "Ġpersonalidade": 8385,
      "Ġtrem": 8386,
      "Ġpedac": 8387,
      "tragem": 8388,
      "ĠSteve": 8389,
      "ĠInterno": 8390,
      "ĠDevido": 8391,
      "Ġmotivac": 8392,
      "Ġgravidade": 8393,
      "Ġvagas": 8394,
      "Ġilegalidade": 8395,
      "bice": 8396,
      "ĠAbra": 8397,
      "Ġescolher": 8398,
      "Ġfle": 8399,
      "Ġdescar": 8400,
      "ĠTome": 8401,
      "ACH": 8402,
      "Ġprazer": 8403,
      "ĠTURMAHABEAS": 8404,
      "Ġdeficie": 8405,
      "ĠPernambuco": 8406,
      "Ġentendeu": 8407,
      "Ġoferecer": 8408,
      "tho": 8409,
      "bana": 8410,
      "nera": 8411,
      "Ġdoutrina": 8412,
      "ĠFlu": 8413,
      "esia": 8414,
      "ĠLua": 8415,
      "ĠDina": 8416,
      "ning": 8417,
      "ĠLago": 8418,
      "ĠArthur": 8419,
      "sh": 8420,
      "Ġalfa": 8421,
      "nsiva": 8422,
      "Ġantigas": 8423,
      "Ġprocede": 8424,
      "Ġcivis": 8425,
      "ĠRan": 8426,
      "Ġcliente": 8427,
      "ĠHal": 8428,
      "ĠGostaria": 8429,
      "Ġtranspor": 8430,
      "Ġdescrita": 8431,
      "ĠSai": 8432,
      "Ġsenhora": 8433,
      "ĠVara": 8434,
      "Ġjogou": 8435,
      "Ġconcedida": 8436,
      "Ġenfrentar": 8437,
      "Ġtomada": 8438,
      "Ġ1965": 8439,
      "Ġ1962": 8440,
      "Ġwww": 8441,
      "Ġdefende": 8442,
      "bele": 8443,
      "Ġnatal": 8444,
      "Ġagre": 8445,
      "Ġmau": 8446,
      "ĠPic": 8447,
      "Ġconti": 8448,
      "Ġenter": 8449,
      "Ġ53": 8450,
      "Ġbic": 8451,
      "Ġadora": 8452,
      "VOTO": 8453,
      "Ġtropical": 8454,
      "Ġespeta": 8455,
      "ĠInternational": 8456,
      "Ġrit": 8457,
      "Ġcolocac": 8458,
      "Ġfabr": 8459,
      "Ġcic": 8460,
      "ĠFica": 8461,
      "Ġcurta": 8462,
      "ĠDecisa": 8463,
      "Ġfrase": 8464,
      "Ġabsoluta": 8465,
      "'.": 8466,
      "ĠMike": 8467,
      "ĠCens": 8468,
      "mond": 8469,
      "Di": 8470,
      "Ġregres": 8471,
      "Ġavis": 8472,
      "Ġdespesas": 8473,
      "Ġfiscalizac": 8474,
      "Ġfilo": 8475,
      "ĠCorinthians": 8476,
      "Ġsuma": 8477,
      "lf": 8478,
      "tinha": 8479,
      "ARGOS": 8480,
      "INTE": 8481,
      "pulac": 8482,
      "ĠResul": 8483,
      "ĠMadeira": 8484,
      "Ġcomplica": 8485,
      "tencia": 8486,
      "ĠSovie": 8487,
      "PJ": 8488,
      "nham": 8489,
      "ĠHorizonte": 8490,
      "ĠFique": 8491,
      "ĠKing": 8492,
      "Ġveic": 8493,
      "poni": 8494,
      "ĠExtrato": 8495,
      "Ġperforma": 8496,
      "Ġpresi": 8497,
      "isse": 8498,
      "Ġpreci": 8499,
      "Ġhavera": 8500,
      "Ġfugir": 8501,
      "yle": 8502,
      "ĠMachado": 8503,
      "Ġdeterminac": 8504,
      "Ġarro": 8505,
      "ĠIC": 8506,
      "Ġopostos": 8507,
      "Ġintelec": 8508,
      "Ġoferece": 8509,
      "gonha": 8510,
      "ologia": 8511,
      "glo": 8512,
      "Ġflagrante": 8513,
      "ĠHospital": 8514,
      "Ġsinais": 8515,
      "Ġfatores": 8516,
      "Ġentidades": 8517,
      "ĠFace": 8518,
      "ĠJOSE": 8519,
      "ĠHou": 8520,
      "volta": 8521,
      "quinas": 8522,
      "Ġporquanto": 8523,
      "Ġcontendo": 8524,
      "EST": 8525,
      "ut": 8526,
      "Ġchi": 8527,
      "Ġinstrumentos": 8528,
      "Ġnovela": 8529,
      "Ġrepo": 8530,
      "Ġ57": 8531,
      "Ġquinto": 8532,
      "ĠBrown": 8533,
      "ĠRousse": 8534,
      "Ġindicado": 8535,
      "Ġimpressa": 8536,
      "lora": 8537,
      "VEL": 8538,
      "ĠYu": 8539,
      "rim": 8540,
      "Dia": 8541,
      "Ġcertame": 8542,
      "Ġsile": 8543,
      "ĠGas": 8544,
      "osamente": 8545,
      "gueira": 8546,
      "ĠPia": 8547,
      "Ġilu": 8548,
      "Ġdigo": 8549,
      "ĠShi": 8550,
      "Ġcenas": 8551,
      "ĠAos": 8552,
      "ĠRegistro": 8553,
      "Ġsonora": 8554,
      "ĠGro": 8555,
      "Ġferrovia": 8556,
      "Ġesgo": 8557,
      "Ġdivulgac": 8558,
      "Ġatletas": 8559,
      "Como": 8560,
      "Esta": 8561,
      "tain": 8562,
      "QUIM": 8563,
      "Ġsubstituir": 8564,
      "ĠCabo": 8565,
      "aco": 8566,
      "VES": 8567,
      "Ġfracas": 8568,
      "Ġrelacionamento": 8569,
      "Ġ95": 8570,
      "Ġigua": 8571,
      "Ġcomprovac": 8572,
      "Ġlava": 8573,
      "tts": 8574,
      "ĠRA": 8575,
      "ĠSUPERIOR": 8576,
      "Ġaeroporto": 8577,
      "Ġvisi": 8578,
      "ĠCap": 8579,
      "Ġcorrer": 8580,
      "trem": 8581,
      "Ġelo": 8582,
      "SIL": 8583,
      "Ġenvolve": 8584,
      "ĠRoy": 8585,
      "ĠMauri": 8586,
      "Ġtiro": 8587,
      "Ġimposto": 8588,
      "ĠGrosso": 8589,
      "ĠCarl": 8590,
      "ĠLouis": 8591,
      "Ġcavalo": 8592,
      "rade": 8593,
      "Gu": 8594,
      "Ġgelo": 8595,
      "Ġbonito": 8596,
      "Ġcoli": 8597,
      "ĠIndepende": 8598,
      "ĠFreder": 8599,
      "ĠDisney": 8600,
      "Ġ87": 8601,
      "cife": 8602,
      "Ġmoneta": 8603,
      "Ġnecessi": 8604,
      "Ġmagistrado": 8605,
      "Â§": 8606,
      "zza": 8607,
      "ssima": 8608,
      "82": 8609,
      "deu": 8610,
      "Ġcento": 8611,
      "lidos": 8612,
      "Ġpude": 8613,
      "Ġaquelas": 8614,
      "ĠVieira": 8615,
      "ring": 8616,
      "Ġfilosofia": 8617,
      "ĠSepu": 8618,
      "Ġsubsidia": 8619,
      "ĠEric": 8620,
      "Ġirregula": 8621,
      "blo": 8622,
      ").âĢľ": 8623,
      "Ġtempestade": 8624,
      "Ġamericanos": 8625,
      "ĠContas": 8626,
      "Ġ1963": 8627,
      "Ġpaco": 8628,
      "Ġempenho": 8629,
      "lveda": 8630,
      "ĠOLI": 8631,
      "Ġcurto": 8632,
      "bano": 8633,
      "Ġpopulares": 8634,
      "Ġapresentam": 8635,
      "Ġrigor": 8636,
      "ĠFrance": 8637,
      "unidade": 8638,
      "mpico": 8639,
      "Ġajudou": 8640,
      "Ġabre": 8641,
      "Ġremunerac": 8642,
      "Ġimpostos": 8643,
      "Ġalo": 8644,
      "Ġmargem": 8645,
      "Ġshows": 8646,
      ":!": 8647,
      ":\"": 8648,
      "ĠMem": 8649,
      "tum": 8650,
      "Ġimpetrado": 8651,
      "ende": 8652,
      "Ġsensi": 8653,
      "more": 8654,
      "relo": 8655,
      "single": 8656,
      "brac": 8657,
      "Ġbronze": 8658,
      "noma": 8659,
      "valo": 8660,
      "ĠPesquisa": 8661,
      "licou": 8662,
      "Ġdome": 8663,
      "Or": 8664,
      "ĠĠĠĠĠĠĠĠĠĠĠĠĠĠĠĠĠĠĠĠĠĠĠĠĠĠĠĠĠĠĠĠ": 8665,
      "Ġobjetiva": 8666,
      "mados": 8667,
      "Ġlocalizac": 8668,
      "Ġconsel": 8669,
      "Ġestive": 8670,
      "Ġescolhido": 8671,
      "ĠOn": 8672,
      "ãĢ": 8673,
      "Ġkg": 8674,
      "nistas": 8675,
      "Ġvincu": 8676,
      "ĠEgito": 8677,
      "Ġcarto": 8678,
      "celona": 8679,
      "Ġcobertura": 8680,
      "Ġpropriedades": 8681,
      "Ġafrica": 8682,
      "Ġpostos": 8683,
      "Ġequipamento": 8684,
      "pol": 8685,
      "Ġlevado": 8686,
      "ĠCuri": 8687,
      "ĠLatina": 8688,
      "Ġoriginais": 8689,
      "Ġfinanceiro": 8690,
      "Ġmoderna": 8691,
      "Ġportas": 8692,
      "bios": 8693,
      "Ġfundador": 8694,
      "Ġleite": 8695,
      "Ġpercentual": 8696,
      "ĠEsque": 8697,
      "ĠMada": 8698,
      "Ġcausas": 8699,
      "Ġregional": 8700,
      "Ġhorri": 8701,
      "Ġrespectivo": 8702,
      "ava": 8703,
      "Ġfran": 8704,
      "ĠRainha": 8705,
      "ĠCultural": 8706,
      "___": 8707,
      "ZO": 8708,
      "ĠJOAQUIM": 8709,
      "DAS": 8710,
      "Ġobservado": 8711,
      "Ġtoca": 8712,
      "Ġ51": 8713,
      "Ġpermanente": 8714,
      "ĠScott": 8715,
      "Ġparo": 8716,
      "Ġadotado": 8717,
      "Ġcadeia": 8718,
      "lizados": 8719,
      "Ġsupe": 8720,
      "urt": 8721,
      "comp": 8722,
      "Ġadicional": 8723,
      "Ġmorta": 8724,
      "ĠConside": 8725,
      "vier": 8726,
      "Ġrecorrida": 8727,
      "ĠBue": 8728,
      "Ġmostram": 8729,
      "Ġindependentemente": 8730,
      "Ġalcance": 8731,
      "Ġenviar": 8732,
      "lume": 8733,
      "Ġviola": 8734,
      "ndon": 8735,
      "vais": 8736,
      "ĠGERAL": 8737,
      "ĠLTDA": 8738,
      "Ġsovie": 8739,
      "umo": 8740,
      "Ġindividuais": 8741,
      "Ġcra": 8742,
      "ĠSeja": 8743,
      "wo": 8744,
      "ĠSANTA": 8745,
      "Ġdiscipli": 8746,
      "ĠBruno": 8747,
      "ĠMatt": 8748,
      "TTO": 8749,
      "Ġvidas": 8750,
      "Ġfrio": 8751,
      "Ġseres": 8752,
      "paganda": 8753,
      "Ġinstituto": 8754,
      "Ġparada": 8755,
      "Ġnomeada": 8756,
      "ĠAg": 8757,
      "DU": 8758,
      "Ġfutebolista": 8759,
      "Ġadaptac": 8760,
      "Ġarquitetura": 8761,
      "Ġarquiteto": 8762,
      "mine": 8763,
      "ĠRegi": 8764,
      "wan": 8765,
      "Ġusou": 8766,
      "ĠIsla": 8767,
      "Ġbeneficia": 8768,
      "ĠVII": 8769,
      "quido": 8770,
      "Ġestabelecidas": 8771,
      "Ġsituada": 8772,
      "Ġarque": 8773,
      "Ġdemonstrar": 8774,
      "Ġlatim": 8775,
      "Ġanalisar": 8776,
      "ĠAngola": 8777,
      "aste": 8778,
      "Ġcarbo": 8779,
      "ĠChefe": 8780,
      "Ġharmo": 8781,
      "Ġ-,": 8782,
      "Ġdestruir": 8783,
      "ĠAlto": 8784,
      "Ġfico": 8785,
      "aso": 8786,
      "ĠJornal": 8787,
      "Ġvirtude": 8788,
      "Ġalimentos": 8789,
      "ĠCRI": 8790,
      "Ġsalva": 8791,
      "ist": 8792,
      "uco": 8793,
      "Ġfoco": 8794,
      "Ġdefinido": 8795,
      "ĠCensus": 8796,
      "Ġcaras": 8797,
      "Ìĥ-": 8798,
      "Ġconsoante": 8799,
      "Ġrival": 8800,
      "Ġmantida": 8801,
      "ĠWill": 8802,
      "Ġabriu": 8803,
      "Ġcomponentes": 8804,
      "ĠCeara": 8805,
      "Ġorganiza": 8806,
      "smo": 8807,
      "Ġinvestimento": 8808,
      "picais": 8809,
      "Ġpede": 8810,
      "JU": 8811,
      "ĠRoger": 8812,
      "Ġcomandante": 8813,
      "ĠDuque": 8814,
      "ĠPRECED": 8815,
      "pur": 8816,
      "Ġfusa": 8817,
      "riz": 8818,
      "ĠDECLARAC": 8819,
      "ĠHabeas": 8820,
      "Ġperguntas": 8821,
      "Ġmini": 8822,
      "500": 8823,
      "Ġcombusti": 8824,
      "Ġcity": 8825,
      "ĠKel": 8826,
      "rense": 8827,
      "Ġrelevante": 8828,
      "Ġacompanhar": 8829,
      "ĠJuan": 8830,
      "Ġonda": 8831,
      "Ġesp": 8832,
      "Ġtradicionais": 8833,
      "Ġalma": 8834,
      "Ġselva": 8835,
      "inc": 8836,
      "Ġestando": 8837,
      "Ġbloqueio": 8838,
      "Ġmensagens": 8839,
      "Ġvisando": 8840,
      "Ġdescrito": 8841,
      "ĠVolta": 8842,
      "Ġsuces": 8843,
      "Ġespere": 8844,
      "Ġmantendo": 8845,
      "veja": 8846,
      "Ġ120": 8847,
      "inte": 8848,
      "Ġentor": 8849,
      "ĠMelo": 8850,
      "Ġcolh": 8851,
      "ĠPRESIDENTE": 8852,
      "Ġcorreta": 8853,
      "Ġpoeta": 8854,
      "neamente": 8855,
      "Ġverbete": 8856,
      "Ġconsenso": 8857,
      "ĠXXXV": 8858,
      "Ġformou": 8859,
      "Ġ1958": 8860,
      "Ġel": 8861,
      "Ġarquivos": 8862,
      "Ġinstau": 8863,
      "ĠRIST": 8864,
      "Arti": 8865,
      "Ġfirmou": 8866,
      "ĠMadrid": 8867,
      "Ġpossibili": 8868,
      "Ġexecutivo": 8869,
      "Ġroteiro": 8870,
      "Ġempregados": 8871,
      "tinos": 8872,
      "ĠSiqueira": 8873,
      "Ġcolegas": 8874,
      "Ġregularidade": 8875,
      "Ġ557": 8876,
      "Ġtido": 8877,
      "sais": 8878,
      "Ġdesli": 8879,
      "Ele": 8880,
      "Ġbeleza": 8881,
      "ĠJURI": 8882,
      "ep": 8883,
      "Ġpreceito": 8884,
      "Ġcomplementar": 8885,
      "ĠWh": 8886,
      "trato": 8887,
      "Ġprofessora": 8888,
      "estes": 8889,
      "Ġtone": 8890,
      "Ġdefinitivo": 8891,
      "gel": 8892,
      "ĠGrau": 8893,
      "Ġinvasa": 8894,
      "DIC": 8895,
      "ialmente": 8896,
      "lenda": 8897,
      "ĠJen": 8898,
      "ban": 8899,
      "ĠMoreira": 8900,
      "ĠAvenida": 8901,
      "ĠWeb": 8902,
      "Ġobrigato": 8903,
      "Ġbanh": 8904,
      "Ġadi": 8905,
      "Ġtorre": 8906,
      "ĠPonte": 8907,
      "Ġportugueses": 8908,
      "Ġsurpree": 8909,
      "bama": 8910,
      "usula": 8911,
      "Ġtornaram": 8912,
      "Ġsuge": 8913,
      "ĠMala": 8914,
      "zamento": 8915,
      "Ġliteral": 8916,
      "ssemos": 8917,
      "Ġvencedora": 8918,
      "Ġperspectiva": 8919,
      "Ġsedia": 8920,
      "Ġretirada": 8921,
      "gias": 8922,
      "Ġrios": 8923,
      "Ġ109": 8924,
      "udia": 8925,
      "rativo": 8926,
      "nside": 8927,
      "ana": 8928,
      "Ġsujeito": 8929,
      "Ġindustrial": 8930,
      "Ġesquema": 8931,
      "Ġdano": 8932,
      "81": 8933,
      "Ġlojas": 8934,
      "ĠUnivers": 8935,
      "zade": 8936,
      "ĠOLIVEIRA": 8937,
      "ĠLEGIS": 8938,
      "ĠComunicac": 8939,
      "NICO": 8940,
      "Ġtransformac": 8941,
      "Ġ1920": 8942,
      "ĠSpor": 8943,
      "ĠMama": 8944,
      "ĠExtraordina": 8945,
      "ĠÂ·": 8946,
      "Ġencontrados": 8947,
      "renc": 8948,
      "ĠConta": 8949,
      "Ġespiri": 8950,
      "ĠTecnologia": 8951,
      "ĠIB": 8952,
      "ĠAju": 8953,
      "Ġtrono": 8954,
      "Ġ1961": 8955,
      "Ġespacial": 8956,
      "Ġcriminosa": 8957,
      "Ġmonte": 8958,
      "Ġprocedimentos": 8959,
      "Ġrecentes": 8960,
      "ĠHei": 8961,
      "Ġvender": 8962,
      "Ġadequado": 8963,
      "Ġzero": 8964,
      "Ġcitado": 8965,
      "yclo": 8966,
      "Ġsemelhantes": 8967,
      "binete": 8968,
      "Ġ108": 8969,
      "Ġministros": 8970,
      "ulares": 8971,
      "chas": 8972,
      "Ġimpeachment": 8973,
      "1998": 8974,
      "ĠVis": 8975,
      "ĠAchei": 8976,
      "Ġlink": 8977,
      "Ġconcelho": 8978,
      "Ġdono": 8979,
      "xias": 8980,
      "Ġenquadra": 8981,
      "Ġseguindo": 8982,
      "Ġexemplos": 8983,
      "Î¿": 8984,
      "Ġexcesso": 8985,
      "paro": 8986,
      "ĠBarcelona": 8987,
      "mpete": 8988,
      "Ġpoucas": 8989,
      "Ġtesta": 8990,
      "ĠReis": 8991,
      "Ġcruz": 8992,
      "Ġcartas": 8993,
      "ĠMorte": 8994,
      "deb": 8995,
      "VIC": 8996,
      "Ġexpresso": 8997,
      "Ġlouco": 8998,
      "ĠPreto": 8999,
      "ĠSt": 9000,
      "ĠJackson": 9001,
      "ĠMora": 9002,
      "low": 9003,
      "Ġcodice": 9004,
      "mano": 9005,
      "Ġbaix": 9006,
      "%)": 9007,
      "Ġjornais": 9008,
      "Ġatrai": 9009,
      "Ġestabelecimento": 9010,
      "Ġexplorac": 9011,
      "Ġderam": 9012,
      "Ġinvestimentos": 9013,
      "Ġpeixe": 9014,
      "Ġretro": 9015,
      "Ġcontratar": 9016,
      "Ġaprovado": 9017,
      "Ġapree": 9018,
      "pen": 9019,
      "Ġcorrespondente": 9020,
      "nche": 9021,
      "Ġadequada": 9022,
      "ĠBig": 9023,
      "ĠIne": 9024,
      "2018": 9025,
      "Ġterreno": 9026,
      "varia": 9027,
      "Ġreconheceu": 9028,
      "Ġ`": 9029,
      "Ġmodificac": 9030,
      "Ġrespira": 9031,
      "caram": 9032,
      "ĠðŁ": 9033,
      "ĠCircu": 9034,
      "Ġmeramente": 9035,
      "Ġparlamentar": 9036,
      "Ġcostas": 9037,
      "ĠJoseph": 9038,
      "Ġprofunda": 9039,
      "Ġcontrolar": 9040,
      "ĠRISTF": 9041,
      "ĠCONC": 9042,
      "ĠCuritiba": 9043,
      "Ġprivativa": 9044,
      "Ġconcluir": 9045,
      "federac": 9046,
      "ATOR": 9047,
      "Ġcachorro": 9048,
      "mengo": 9049,
      "Ġprega": 9050,
      "Ġbrinca": 9051,
      "Ġsimilar": 9052,
      "Ġfiquei": 9053,
      "Ġvende": 9054,
      "Ġouviu": 9055,
      "CH": 9056,
      "FICAC": 9057,
      "ĠRousseff": 9058,
      "ĠLegal": 9059,
      "ĠStre": 9060,
      "ĠWol": 9061,
      "Ġdefinir": 9062,
      "sex": 9063,
      "Ġdestaca": 9064,
      "Ġmito": 9065,
      "Ġmarcado": 9066,
      "ao": 9067,
      "Ġcompreensa": 9068,
      "Ġconfigura": 9069,
      "Ġtru": 9070,
      "Ve": 9071,
      "tran": 9072,
      "ĠAbrac": 9073,
      "visi": 9074,
      "ĠAndrade": 9075,
      "Ġrapaz": 9076,
      "Ġmedica": 9077,
      "tty": 9078,
      "Ġrecuperac": 9079,
      "Ġmatou": 9080,
      "ily": 9081,
      "Ġconcentrac": 9082,
      "ĠPopular": 9083,
      "ligente": 9084,
      "bilizac": 9085,
      "Ġsupri": 9086,
      "Ġexterna": 9087,
      "Ġdemocracia": 9088,
      "Ġculturais": 9089,
      "Ġprivado": 9090,
      "ĠMace": 9091,
      "Ġestruturas": 9092,
      "ĠRac": 9093,
      "Ġroupa": 9094,
      "Va": 9095,
      "Ġpesquisadores": 9096,
      "rai": 9097,
      "Ġapropria": 9098,
      "Ġenvolvendo": 9099,
      "Ġaparecer": 9100,
      "Pre": 9101,
      "Ġdiminuic": 9102,
      "vias": 9103,
      "ĠExa": 9104,
      "Ġinfantil": 9105,
      "ĠRevista": 9106,
      "bli": 9107,
      "Ġretirar": 9108,
      "Ġestrangeiros": 9109,
      "Ġlicitantes": 9110,
      "Ġreceita": 9111,
      "Ġjulgados": 9112,
      "Ġbrasileiras": 9113,
      "Ġretornou": 9114,
      "Ġpositivo": 9115,
      "tical": 9116,
      "Ġentregar": 9117,
      "ĠHero": 9118,
      "ĠEngenharia": 9119,
      "Ġcansa": 9120,
      "Ġlenda": 9121,
      "ĠNic": 9122,
      "ĠHor": 9123,
      "........": 9124,
      "ĠInstru": 9125,
      "ximas": 9126,
      "Ġcozinha": 9127,
      "Ġconflitos": 9128,
      "Ġvolunta": 9129,
      "Ġsignificado": 9130,
      "Ġfuncionar": 9131,
      "MC": 9132,
      "ĠGustavo": 9133,
      "Ġfederais": 9134,
      "Ġcredi": 9135,
      "Ġafirmac": 9136,
      "Ġreinado": 9137,
      "KK": 9138,
      "voluciona": 9139,
      "ĠAS": 9140,
      "Ġinimigo": 9141,
      "Ġcorreto": 9142,
      "vs": 9143,
      "minense": 9144,
      "Ġconfusa": 9145,
      "ĠCB": 9146,
      "Ġaldeia": 9147,
      "uto": 9148,
      "ĠEstas": 9149,
      "ĠRecord": 9150,
      "Ġvariedade": 9151,
      "eni": 9152,
      "tedral": 9153,
      "ĠOcidental": 9154,
      "Ġfestival": 9155,
      "Ġprevidencia": 9156,
      "Ġ110": 9157,
      "ear": 9158,
      "eix": 9159,
      "Ġcompetente": 9160,
      "ĠSomos": 9161,
      "teriormente": 9162,
      "Ìģ:": 9163,
      "cano": 9164,
      "Ġpredo": 9165,
      "Ġbranca": 9166,
      "Ġ86": 9167,
      "Ġpenso": 9168,
      "Presidente": 9169,
      "ĠFOR": 9170,
      "mentou": 9171,
      "ĠNE": 9172,
      "ĠXa": 9173,
      "ariamente": 9174,
      ".]": 9175,
      "Ġproporcional": 9176,
      "terial": 9177,
      "grejas": 9178,
      "Ġexceto": 9179,
      "Ġentendi": 9180,
      "Ġobjec": 9181,
      "icago": 9182,
      "Ġfornecimento": 9183,
      "Ġbancos": 9184,
      "Ġdesaparece": 9185,
      "Ġmortes": 9186,
      "Ġconstitucionalidade": 9187,
      "Ġdiverso": 9188,
      "ĠExem": 9189,
      "ISTA": 9190,
      "citos": 9191,
      "Ġrecomendo": 9192,
      "raca": 9193,
      "ĠPalmeiras": 9194,
      "Ġperguntar": 9195,
      "Ġautoriza": 9196,
      "ĠTan": 9197,
      "Ġestabeleceu": 9198,
      "Ġ69": 9199,
      "ĠCNPJ": 9200,
      "ĠPrega": 9201,
      "mentado": 9202,
      "imbra": 9203,
      "Ġrodovia": 9204,
      "ĠBatista": 9205,
      "Ġcompartilha": 9206,
      "Ġespo": 9207,
      "ics": 9208,
      "tiza": 9209,
      "ĠTRABAL": 9210,
      "sei": 9211,
      "Ġcurios": 9212,
      "Ġinterromp": 9213,
      "ĠMonta": 9214,
      "Ġrui": 9215,
      "ĠChampions": 9216,
      "Ġperdendo": 9217,
      "Ġintitulado": 9218,
      "ĠLeonar": 9219,
      "Ġroda": 9220,
      "zy": 9221,
      "Ġchuva": 9222,
      "nhei": 9223,
      "ĠIl": 9224,
      "box": 9225,
      "Ġdecorrentes": 9226,
      "Ġengenheiro": 9227,
      "Ġmuc": 9228,
      "Ante": 9229,
      "ĠVictor": 9230,
      "ĠCampea": 9231,
      "ĠAlfre": 9232,
      "Ġ88": 9233,
      "Ġcasu": 9234,
      "Ġestabelecidos": 9235,
      "Ġdesfi": 9236,
      "Ġcritica": 9237,
      "Ġcresceu": 9238,
      "Ġmapa": 9239,
      "Fu": 9240,
      "chos": 9241,
      "Ġnascido": 9242,
      "USSA": 9243,
      "ĠAmerican": 9244,
      "Ġementado": 9245,
      "ĠTel": 9246,
      "ĠAll": 9247,
      "Ġaplicar": 9248,
      "ionou": 9249,
      "Ġmerda": 9250,
      "Ġimpul": 9251,
      "Ġdetalha": 9252,
      "Ġimpede": 9253,
      "niza": 9254,
      "Ġcontinuidade": 9255,
      "Ġ1943": 9256,
      "nidades": 9257,
      "Ġlic": 9258,
      "ĠDiz": 9259,
      "ĠQuinta": 9260,
      "Ġweb": 9261,
      "Ġlon": 9262,
      "ĠMay": 9263,
      "ĠGoogle": 9264,
      "Ġcantar": 9265,
[...]
