{
  "version": "1.0",
  "truncation": {
    "direction": "Right",
    "max_length": 1024,
    "strategy": "LongestFirst",
    "stride": 0
  },
  "padding": null,
  "added_tokens": [
    {
      "id": 0,
      "content": "[PAD]",
      "single_word": false,
      "lstrip": false,
      "rstrip": false,
      "normalized": false,
      "special": true
    },
    {
      "id": 1,
      "content": "[SEP]",
      "single_word": false,
      "lstrip": false,
      "rstrip": false,
      "normalized": false,
      "special": true
    },
    {
      "id": 2,
      "content": "[EOS]",
      "single_word": false,
      "lstrip": false,
      "rstrip": false,
      "normalized": false,
      "special": true
    },
    {
      "id": 3,
      "content": "[UNK]",
      "single_word": false,
      "lstrip": false,
      "rstrip": false,
      "normalized": false,
      "special": true
    }
  ],
  "normalizer": {
    "type": "Sequence",
    "normalizers": [
      {
        "type": "Strip",
        "strip_left": true,
        "strip_right": true
      },
      {
        "type": "NFC"
      }
    ]
  },
  "pre_tokenizer": {
    "type": "ByteLevel",
    "add_prefix_space": true,
    "trim_offsets": true,
    "use_regex": true
  },
  "post_processor": {
    "type": "Sequence",
    "processors": [
      {
        "type": "ByteLevel",
        "add_prefix_space": true,
        "trim_offsets": true,
        "use_regex": true
      },
      {
        "type": "TemplateProcessing",
        "single": [
          {
            "Sequence": {
              "id": "A",
              "type_id": 0
            }
          },
          {
            "SpecialToken": {
              "id": "[EOS]",
              "type_id": 0
            }
          }
        ],
        "pair": [
          {
            "Sequence": {
              "id": "A",
              "type_id": 0
            }
          },
          {
            "SpecialToken": {
              "id": "[SEP]",
              "type_id": 0
            }
          },
          {
            "Sequence": {
              "id": "B",
              "type_id": 0
            }
          },
          {
            "SpecialToken": {
              "id": "[EOS]",
              "type_id": 0
            }
          }
        ],
        "special_tokens": {
          "[EOS]": {
            "id": "[EOS]",
            "ids": [
              2
            ],
            "tokens": [
              "[EOS]"
            ]
          },
          "[SEP]": {
            "id": "[SEP]",
            "ids": [
              1
            ],
            "tokens": [
              "[SEP]"
            ]
          }
        }
      }
    ]
  },
  "decoder": {
    "type": "ByteLevel",
    "add_prefix_space": true,
    "trim_offsets": true,
    "use_regex": true
  },
  "model": {
    "type": "Unigram",
    "unk_id": 3,
    "vocab": [
      [
        "[PAD]",
        0.0
      ],
      [
        "[SEP]",
        0.0
      ],
      [
        "[EOS]",
        0.0
      ],
      [
        "[UNK]",
        0.0
      ],
      [
        "Ġ",
        -1.8523117141113516
      ],
      [
        "s",
        -3.249236362653928
      ],
      [
        "a",
        -3.2964825298380624
      ],
      [
        ",",
        -3.315198648199516
      ],
      [
        "o",
        -3.3986926731970506
      ],
      [
        "e",
        -3.5055608453891267
      ],
      [
        ".",
        -3.536344229770038
      ],
      [
        "Ġde",
        -3.6634360516114377
      ],
      [
        "r",
        -4.560097280480896
      ],
      [
        "-",
        -4.610273092800377
      ],
      [
        "u",
        -4.6109533571222485
      ],
      [
        "i",
        -4.626855540307023
      ],
      [
        "Ġdo",
        -4.631388239814239
      ],
      [
        "Ġque",
        -4.647663062709064
      ],
      [
        "Ġda",
        -4.816028443113552
      ],
      [
        "m",
        -4.850593195727022
      ],
      [
        "n",
        -4.911969918286786
      ],
      [
        "d",
        -5.101666448130111
      ],
      [
        "l",
        -5.171302288659369
      ],
      [
        "t",
        -5.183484552235736
      ],
      [
        "Ġem",
        -5.219976916220858
      ],
      [
        "A",
        -5.272821523757077
      ],
      [
        "\"",
        -5.284014525307317
      ],
      [
        "c",
        -5.294519921186357
      ],
      [
        ")",
        -5.339737690446
      ],
      [
        "(",
        -5.339858694341817
      ],
      [
        "O",
        -5.361811320585943
      ],
      [
        "Ġpara",
        -5.454486865672909
      ],
      [
        "Ġcom",
        -5.567787949017234
      ],
      [
        "p",
        -5.6151453283115345
      ],
      [
        "Ġno",
        -5.624748793916456
      ],
      [
        ":",
        -5.776616849079142
      ],
      [
        "Ġum",
        -5.8165033039277265
      ],
      [
        "ĠâĢĵ",
        -5.819129208943181
      ],
      [
        "/",
        -5.820511304901455
      ],
      [
        "ĠÃ©",
        -5.830499305685093
      ],
      [
        "Ġna",
        -5.83851092271847
      ],
      [
        "ĠnÃ£o",
        -5.910037806333145
      ],
      [
        "S",
        -5.9305552582605205
      ],
      [
        "g",
        -5.973647271841385
      ],
      [
        "Ġuma",
        -6.023830726623029
      ],
      [
        "E",
        -6.045750565814862
      ],
      [
        "b",
        -6.053569212909043
      ],
      [
        "Ġpor",
        -6.058561001625369
      ],
      [
        "1",
        -6.264113032223035
      ],
      [
        "v",
        -6.321695313513409
      ],
      [
        "I",
        -6.373984775088692
      ],
      [
        "f",
        -6.378867384202039
      ],
      [
        "Ġdos",
        -6.392731713150532
      ],
      [
        "P",
        -6.402474137283386
      ],
      [
        "Ã§Ã£o",
        -6.408812239075663
      ],
      [
        "R",
        -6.411348352340317
      ],
      [
        "ĠÃł",
        -6.419812778083898
      ],
      [
        "C",
        -6.421291644787715
      ],
      [
        "?",
        -6.422332833070847
      ],
      [
        "Ġcomo",
        -6.439006786606694
      ],
      [
        "3",
        -6.45412047278435
      ],
      [
        "2",
        -6.45708310339052
      ],
      [
        "h",
        -6.49052127871138
      ],
      [
        "6",
        -6.512237533435831
      ],
      [
        "7",
        -6.514009773705565
      ],
      [
        "4",
        -6.526819635588838
      ],
      [
        "ndo",
        -6.532599804312065
      ],
      [
        "5",
        -6.544330894267871
      ],
      [
        "Ġfoi",
        -6.568100420731314
      ],
      [
        "!",
        -6.628503751581347
      ],
      [
        "Ġmais",
        -6.636221484142887
      ],
      [
        "8",
        -6.666710725962147
      ],
      [
        "de",
        -6.682824329558876
      ],
      [
        "y",
        -6.730673331659538
      ],
      [
        "T",
        -6.756732837965096
      ],
      [
        ";",
        -6.764639174560159
      ],
      [
        "Ġpela",
        -6.783001697256434
      ],
      [
        "ĠDE",
        -6.798798284992852
      ],
      [
        "ĠnÂº",
        -6.806410002256941
      ],
      [
        "M",
        -6.835903149220027
      ],
      [
        "z",
        -6.844988531031323
      ],
      [
        "Ġpelo",
        -6.851651829952608
      ],
      [
        "9",
        -6.869001343354283
      ],
      [
        "Ġsua",
        -6.869753512612236
      ],
      [
        "D",
        -6.9038729940557495
      ],
      [
        "L",
        -6.911070058171475
      ],
      [
        "V",
        -6.92173876223154
      ],
      [
        "Ġser",
        -6.942448757527375
      ],
      [
        "ĠSr",
        -6.945640877835114
      ],
      [
        "Âº",
        -6.951292485220264
      ],
      [
        "................",
        -6.975829827899464
      ],
      [
        "Ġdas",
        -6.988664637776642
      ],
      [
        "in",
        -6.998213746923009
      ],
      [
        "Ġsobre",
        -7.018644804672666
      ],
      [
        "...",
        -7.043389002268011
      ],
      [
        "Ã©",
        -7.050264419312851
      ],
      [
        "N",
        -7.071042714670304
      ],
      [
        "Ã¡",
        -7.079437339986169
      ],
      [
        "Ġseu",
        -7.101969377001527
      ],
      [
        "B",
        -7.1034074280911845
      ],
      [
        "Ã£o",
        -7.112707126858645
      ],
      [
        "ĠâĢľ",
        -7.119187750811825
      ],
      [
        "k",
        -7.120418011146695
      ],
      [
        "F",
        -7.120658343110724
      ],
      [
        "mente",
        -7.136189563472275
      ],
      [
        "mos",
        -7.156154379484347
      ],
      [
        "dos",
        -7.1685017536067
      ],
      [
        "ĠestÃ¡",
        -7.174252304509013
      ],
      [
        "U",
        -7.176324782429283
      ],
      [
        "ĠPresidente",
        -7.178785734074761
      ],
      [
        "ĠNÃ£o",
        -7.205274911059492
      ],
      [
        "ĠEm",
        -7.208102770237645
      ],
      [
        "ĠtambÃ©m",
        -7.215455414507661
      ],
      [
        "ĠLei",
        -7.236768764285781
      ],
      [
        "li",
        -7.2460570055031965
      ],
      [
        "ÃŃ",
        -7.3048452150600784
      ],
      [
        "Ġ19",
        -7.31169370148926
      ],
      [
        "ĠDeputado",
        -7.316660746481576
      ],
      [
        "Ġtem",
        -7.318842930528076
      ],
      [
        "Ġmas",
        -7.322777932969057
      ],
      [
        "Ġnos",
        -7.349268294466199
      ],
      [
        "Ġart",
        -7.353094540756869
      ],
      [
        "G",
        -7.370134987924249
      ],
      [
        "Ġele",
        -7.41550749275572
      ],
      [
        "ram",
        -7.42818544082853
      ],
      [
        "ĠSR",
        -7.449414597828147
      ],
      [
        "Ã§Ãµes",
        -7.464454640167677
      ],
      [
        "ĠFederal",
        -7.478013481728027
      ],
      [
        "das",
        -7.47954819105372
      ],
      [
        "ĠsÃ£o",
        -7.486985786127574
      ],
      [
        "ĠÃī",
        -7.48840638226546
      ],
      [
        "Ġisso",
        -7.492696677041703
      ],
      [
        "ĠNÂº",
        -7.50775761957056
      ],
      [
        "x",
        -7.512789896264243
      ],
      [
        "Ġanos",
        -7.524298136384488
      ],
      [
        "ĠBrasil",
        -7.529659666087408
      ],
      [
        "ĠEstado",
        -7.530155333514514
      ],
      [
        "Ġin",
        -7.535306341599181
      ],
      [
        "ĠSenador",
        -7.543801017819783
      ],
      [
        "que",
        -7.569596172464388
      ],
      [
        "ĠEu",
        -7.57695564942691
      ],
      [
        "Ġentre",
        -7.582945911418438
      ],
      [
        "ter",
        -7.593863178178934
      ],
      [
        "ĠvocÃª",
        -7.595805562282488
      ],
      [
        "idade",
        -7.608499285105038
      ],
      [
        "Ġmuito",
        -7.612467574733779
      ],
      [
        "Ġcon",
        -7.618712565816718
      ],
      [
        "J",
        -7.64721173687704
      ],
      [
        "Ã³",
        -7.660830145387095
      ],
      [
        "era",
        -7.662329371711532
      ],
      [
        "ĠatÃ©",
        -7.670047237750062
      ],
      [
        "ĠNo",
        -7.673116391431135
      ],
      [
        "ĠjÃ¡",
        -7.676180979422298
      ],
      [
        "%",
        -7.685692728752903
      ],
      [
        "ĠComissÃ£o",
        -7.73212343323193
      ],
      [
        "ĠDe",
        -7.73706542489956
      ],
      [
        "Ġbem",
        -7.75401455884899
      ],
      [
        "j",
        -7.759340114161848
      ],
      [
        "Ġforma",
        -7.760256057169213
      ],
      [
        "min",
        -7.766178095351851
      ],
      [
        "Ġpode",
        -7.778044080970552
      ],
      [
        "ĠSe",
        -7.797263631418206
      ],
      [
        "w",
        -7.801941076282457
      ],
      [
        "vi",
        -7.80276340524374
      ],
      [
        "ria",
        -7.805715851558808
      ],
      [
        "ela",
        -7.809217520334064
      ],
      [
        "Ġquando",
        -7.811319193886108
      ],
      [
        "um",
        -7.812938573182089
      ],
      [
        "aÃ§Ã£o",
        -7.827547402397537
      ],
      [
        "ĠRe",
        -7.827995647963599
      ],
      [
        "Ġsem",
        -7.832413328272644
      ],
      [
        "Ġaqui",
        -7.837311865661746
      ],
      [
        "ĠNa",
        -7.839573396883857
      ],
      [
        "Ġ10",
        -7.840315182043151
      ],
      [
        "Ġmesmo",
        -7.844082705425784
      ],
      [
        "ver",
        -7.854323236238328
      ],
      [
        "ĠNacional",
        -7.854633882900224
      ],
      [
        "Ġco",
        -7.856959746267059
      ],
      [
        "Ġpro",
        -7.85735438812522
      ],
      [
        "ĠPor",
        -7.865995930195771
      ],
      [
        "Ġex",
        -7.880006067837725
      ],
      [
        "0",
        -7.882742213480428
      ],
      [
        "ĠÂ§",
        -7.895109385428626
      ],
      [
        "Ġtodos",
        -7.901552981015993
      ],
      [
        "Ġdia",
        -7.906668999172331
      ],
      [
        "Ġainda",
        -7.916627371134283
      ],
      [
        "ĠSÃ£o",
        -7.922359885825001
      ],
      [
        "Ġ18",
        -7.932004289802432
      ],
      [
        "Ġter",
        -7.961466789987336
      ],
      [
        "res",
        -7.961989555188126
      ],
      [
        "Ġseus",
        -7.965420960423973
      ],
      [
        "ĠOs",
        -7.968559016570342
      ],
      [
        "âĢĿ.",
        -7.973799006716714
      ],
      [
        "Ġcontra",
        -7.977603843162699
      ],
      [
        "cio",
        -7.979311162966251
      ],
      [
        "br",
        -7.980545683052192
      ],
      [
        "Ġparte",
        -7.985695449466053
      ],
      [
        "nte",
        -7.990781755013465
      ],
      [
        "Ġcidade",
        -7.995863554482547
      ],
      [
        "Ġforam",
        -8.00152345069902
      ],
      [
        "Ġesta",
        -8.007427161583108
      ],
      [
        "Ġfazer",
        -8.010008761106896
      ],
      [
        "tra",
        -8.012758932414133
      ],
      [
        "ĠPaulo",
        -8.01703771007417
      ],
      [
        "Ġcaso",
        -8.021348227032933
      ],
      [
        "tro",
        -8.021740293513076
      ],
      [
        "ĠhÃ¡",
        -8.022070644987112
      ],
      [
        "Ġano",
        -8.03823055953536
      ],
      [
        "ĠPL",
        -8.058626082342549
      ],
      [
        "ĠCom",
        -8.059133993902707
      ],
      [
        "ch",
        -8.066949722373575
      ],
      [
        "Ġtempo",
        -8.091600282788063
      ],
      [
        "Ġpre",
        -8.091651480426167
      ],
      [
        "Ãª",
        -8.096938125247297
      ],
      [
        "fi",
        -8.101729220235404
      ],
      [
        "Ġesse",
        -8.10354228623957
      ],
      [
        "ĠCon",
        -8.104696294926944
      ],
      [
        "Ġessa",
        -8.104905327459248
      ],
      [
        "PRESIDENTE",
        -8.105533353701874
      ],
      [
        "Ġseja",
        -8.109632952999975
      ],
      [
        "PROJETO",
        -8.111886937852596
      ],
      [
        "Ġvai",
        -8.117301685876345
      ],
      [
        "Ġmeu",
        -8.122170673681214
      ],
      [
        "tor",
        -8.126289384668581
      ],
      [
        "ĠLEI",
        -8.13078618472321
      ],
      [
        "Ġporque",
        -8.140830726928678
      ],
      [
        "ĠsÃ³",
        -8.142883324904005
      ],
      [
        "ĠÃłs",
        -8.147761331869749
      ],
      [
        "ĠEle",
        -8.14944983684092
      ],
      [
        "H",
        -8.150695493326998
      ],
      [
        "ĠMas",
        -8.15531859486149
      ],
      [
        "Ġprimeiro",
        -8.16274368880173
      ],
      [
        "ita",
        -8.165428141076228
      ],
      [
        "ĠDeputados",
        -8.173162985947117
      ],
      [
        "ĠAs",
        -8.184318233231789
      ],
      [
        "RELATOR",
        -8.192665403448627
      ],
      [
        "ĠGoverno",
        -8.195902534221297
      ],
      [
        "ĠMinistro",
        -8.200706857317053
      ],
      [
        "and",
        -8.210290051866465
      ],
      [
        "âĢĿ",
        -8.210666103548443
      ],
      [
        "iz",
        -8.211025102783571
      ],
      [
        "ĠConstituiÃ§Ã£o",
        -8.21121166296888
      ],
      [
        "Ġonde",
        -8.211491244682083
      ],
      [
        "per",
        -8.21329492462386
      ],
      [
        "ĠVocÃª",
        -8.214930604459884
      ],
      [
        "00",
        -8.21524804609299
      ],
      [
        "Ġ12",
        -8.219772503947375
      ],
      [
        "'",
        -8.223738910978412
      ],
      [
        "Ġpessoas",
        -8.224863674576868
      ],
      [
        "_",
        -8.225773873305222
      ],
      [
        "Ġnas",
        -8.226764023591077
      ],
      [
        "Ġvez",
        -8.231037274069898
      ],
      [
        "cia",
        -8.232013479788616
      ],
      [
        "Ġgrande",
        -8.234315865159552
      ],
      [
        "ES",
        -8.236239545454483
      ],
      [
        "19",
        -8.237878627666516
      ],
      [
        "Ġartigo",
        -8.238277207515704
      ],
      [
        "Ġoutros",
        -8.24414924229039
      ],
      [
        "ĠSenhor",
        -8.24636281247622
      ],
      [
        "ĠMa",
        -8.25456691239078
      ],
      [
        "Ġtrabalho",
        -8.254962678247699
      ],
      [
        "Ġ11",
        -8.255310701201646
      ],
      [
        "ĠestÃ£o",
        -8.25866503045567
      ],
      [
        "Ġapenas",
        -8.260518121370225
      ],
      [
        "ando",
        -8.270219056144711
      ],
      [
        "Ġoutras",
        -8.270828972730818
      ],
      [
        "ĠCÃ¢mara",
        -8.273412230331258
      ],
      [
        "tar",
        -8.274400754187662
      ],
      [
        "Ãº",
        -8.27454045225222
      ],
      [
        "ĠnÃ³s",
        -8.27608107012231
      ],
      [
        "ĠMo",
        -8.280447191062757
      ],
      [
        "Ġsendo",
        -8.284944025856703
      ],
      [
        "Âª",
        -8.28617522481766
      ],
      [
        "mento",
        -8.28695641273309
      ],
      [
        "ĠAl",
        -8.287984479710675
      ],
      [
        "ĠDo",
        -8.290949967994901
      ],
      [
        "ĠMar",
        -8.293697815565803
      ],
      [
        "Ġdois",
        -8.294756942934539
      ],
      [
        "Ġ15",
        -8.298457503847759
      ],
      [
        "ĠArt",
        -8.298842014712703
      ],
      [
        "antes",
        -8.299634483136357
      ],
      [
        "ĠIn",
        -8.304500049471583
      ],
      [
        "ĠRio",
        -8.30666574181496
      ],
      [
        "Ġlei",
        -8.31118847062685
      ],
      [
        "Ġordem",
        -8.3157545799918
      ],
      [
        "Ġnosso",
        -8.317536467626285
      ],
      [
        "Ġca",
        -8.319340432946452
      ],
      [
        "Ġeste",
        -8.32317740080878
      ],
      [
        "aÃ§Ãµes",
        -8.325569626808527
      ],
      [
        "ĠProjeto",
        -8.325641421547175
      ],
      [
        "Z",
        -8.328336608428
      ],
      [
        "rem",
        -8.32838111535003
      ],
      [
        "ĠII",
        -8.330495163025018
      ],
      [
        "ista",
        -8.332818662528213
      ],
      [
        "10",
        -8.343665581187086
      ],
      [
        "Ġnome",
        -8.34985778600106
      ],
      [
        "Ġminha",
        -8.350561146967232
      ],
      [
        "ina",
        -8.350782777101367
      ],
      [
        "Ġvi",
        -8.352822242456455
      ],
      [
        "Ġsuas",
        -8.354684936711068
      ],
      [
        "ĠCasa",
        -8.35677668146187
      ],
      [
        "Ġmaior",
        -8.359771439106611
      ],
      [
        "Ġhoje",
        -8.360289053642832
      ],
      [
        "qui",
        -8.363991909720324
      ],
      [
        "ĠserÃ¡",
        -8.368050660769825
      ],
      [
        "tiva",
        -8.368725275314866
      ],
      [
        "Ġtermos",
        -8.369761147433907
      ],
      [
        "Ġqual",
        -8.376917465647216
      ],
      [
        "Ġprocesso",
        -8.377218517434923
      ],
      [
        "ĠReferÃªncias",
        -8.37862765599943
      ],
      [
        "Ġmeio",
        -8.381453663086386
      ],
      [
        "ĠLi",
        -8.384205754879645
      ],
      [
        "Ġassim",
        -8.385286953963726
      ],
      [
        "Ġprojeto",
        -8.3886317769942
      ],
      [
        "ĠPara",
        -8.388652944657066
      ],
      [
        "ja",
        -8.388812632898597
      ],
      [
        "Ġte",
        -8.398571404367669
      ],
      [
        "Ġ16",
        -8.398973262090163
      ],
      [
        "ĠAn",
        -8.401683953764886
      ],
      [
        "ica",
        -8.40321627236418
      ],
      [
        "ĠDO",
        -8.405457068494682
      ],
      [
        "PSDB",
        -8.405929429366001
      ],
      [
        "ĠserviÃ§o",
        -8.406874879656248
      ],
      [
        "Ġdesta",
        -8.408427355872938
      ],
      [
        "ente",
        -8.409073318921372
      ],
      [
        "est",
        -8.412956478654909
      ],
      [
        "Ġ17",
        -8.417526872663808
      ],
      [
        "Ãµes",
        -8.420176241544036
      ],
      [
        "ĠSenado",
        -8.422679955230269
      ],
      [
        "Ġvida",
        -8.429335815933127
      ],
      [
        "Ġ13",
        -8.431852100303493
      ],
      [
        "Ġ14",
        -8.432980383384328
      ],
      [
        "Ãªncia",
        -8.436199065149706
      ],
      [
        "Ġdireito",
        -8.43635873405534
      ],
      [
        "Ġ20",
        -8.439071637728736
      ],
      [
        "tos",
        -8.447242509459372
      ],
      [
        "car",
        -8.44800583553501
      ],
      [
        "11",
        -8.45112658106236
      ],
      [
        "Ġprimeira",
        -8.453017092709018
      ],
      [
        "ĠMe",
        -8.458459027693216
      ],
      [
        "ĠComo",
        -8.459707359516546
      ],
      [
        "$",
        -8.460032736545791
      ],
      [
        "dia",
        -8.463375971474042
      ],
      [
        "Ġqualquer",
        -8.463793505709393
      ],
      [
        "ĠTribunal",
        -8.469137279873737
      ],
      [
        "ĠSem",
        -8.472272477399956
      ],
      [
        "Ġdeste",
        -8.47241754696887
      ],
      [
        "ĠâĢ¢",
        -8.477013853469504
      ],
      [
        "ĠVi",
        -8.482752883131635
      ],
      [
        "ĠJosÃ©",
        -8.483922531208236
      ],
      [
        "ing",
        -8.484237964239432
      ],
      [
        "ĠDA",
        -8.48699046339048
      ],
      [
        "tri",
        -8.489305795108173
      ],
      [
        "Ġpalavra",
        -8.490735794477299
      ],
      [
        "Ġdisse",
        -8.492036682782587
      ],
      [
        "ito",
        -8.494469600995497
      ],
      [
        "ĠPaÃŃs",
        -8.496469794311505
      ],
      [
        "Ġcada",
        -8.497430969901686
      ],
      [
        "Ġtodo",
        -8.49816779538768
      ],
      [
        "ĠDa",
        -8.498423355773935
      ],
      [
        "Ġacordo",
        -8.500297423141882
      ],
      [
        "MA",
        -8.502846199044624
      ],
      [
        "Ġsistema",
        -8.507472961970915
      ],
      [
        "Ġdepois",
        -8.50911725617929
      ],
      [
        "ĠpÃºblica",
        -8.509710128360405
      ],
      [
        "Ġseguinte",
        -8.510640913316273
      ],
      [
        "lado",
        -8.517835720954588
      ],
      [
        "man",
        -8.522328204889702
      ],
      [
        "sta",
        -8.523999315595544
      ],
      [
        "ĠPro",
        -8.527279309771961
      ],
      [
        "ĠMinistÃ©rio",
        -8.527921470473474
      ],
      [
        "Ġmelhor",
        -8.5309212928181
      ],
      [
        "ĠÃ¡rea",
        -8.53119757696967
      ],
      [
        "Ġprazo",
        -8.532634146399534
      ],
      [
        "RI",
        -8.535808545503826
      ],
      [
        "Ġdeve",
        -8.54354421917915
      ],
      [
        "nha",
        -8.544814403282569
      ],
      [
        "X",
        -8.545123024608488
      ],
      [
        "ĠCarlos",
        -8.545283800977982
      ],
      [
        "mar",
        -8.54691992220947
      ],
      [
        "ĠapÃ³s",
        -8.549385539253606
      ],
      [
        "ĠSim",
        -8.550965785397826
      ],
      [
        "09",
        -8.551845029886945
      ],
      [
        "cor",
        -8.552313911869
      ],
      [
        "ĠRelator",
        -8.557436917141763
      ],
      [
        "Ġagora",
        -8.558949836328484
      ],
      [
        "rÃ¡",
        -8.562686813506097
      ],
      [
        "Ġpresente",
        -8.562795828368285
      ],
      [
        "th",
        -8.563320735591912
      ],
      [
        "ĠW",
        -8.56558803317097
      ],
      [
        "tal",
        -8.569458243090862
      ],
      [
        "enta",
        -8.570386979772232
      ],
      [
        "ismo",
        -8.570725910912453
      ],
      [
        "ĠpÃºblico",
        -8.571150852058768
      ],
      [
        "ĠpolÃŃtica",
        -8.571468744874137
      ],
      [
        "ĠLe",
        -8.572367152327898
      ],
      [
        "Ġpo",
        -8.578592776036523
      ],
      [
        "ck",
        -8.581433468939235
      ],
      [
        "Ġimportante",
        -8.58224043067665
      ],
      [
        "con",
        -8.582794116202612
      ],
      [
        "Ġsob",
        -8.585051333056377
      ],
      [
        "Ġver",
        -8.585546531262047
      ],
      [
        "ten",
        -8.587628864820552
      ],
      [
        "Ã´",
        -8.588428762819985
      ],
      [
        "ĠLa",
        -8.58922051771847
      ],
      [
        "Ġper",
        -8.592809992023534
      ],
      [
        "ida",
        -8.593099765743421
      ],
      [
        "Bloco",
        -8.593409973379199
      ],
      [
        "ĠRepÃºblica",
        -8.593585929082195
      ],
      [
        "dor",
        -8.596540490364594
      ],
      [
        "Ġsegundo",
        -8.597925293795761
      ],
      [
        "tado",
        -8.598045878840699
      ],
      [
        "ĠPT",
        -8.599753121683339
      ],
      [
        "Ġmundo",
        -8.600478970362053
      ],
      [
        "durante",
        -8.605353879280552
      ],
      [
        "Ġdizer",
        -8.605656701841477
      ],
      [
        "15",
        -8.609020986439793
      ],
      [
        "fer",
        -8.609182457772498
      ],
      [
        "dores",
        -8.614464769842712
      ],
      [
        "Ã§o",
        -8.614976505902971
      ],
      [
        "Ġnossa",
        -8.621881993544463
      ],
      [
        "AL",
        -8.625196167096028
      ],
      [
        "ĠmatÃ©ria",
        -8.627590443115816
      ],
      [
        "Ġmil",
        -8.628169978080823
      ],
      [
        "TO",
        -8.62909301598066
      ],
      [
        "ĠCo",
        -8.630959277162066
      ],
      [
        "ido",
        -8.631172795606073
      ],
      [
        "ĠJustiÃ§a",
        -8.63299655230109
      ],
      [
        "Ġestava",
        -8.633814999414632
      ],
      [
        "Ġvoto",
        -8.63595329698761
      ],
      [
        "cer",
        -8.63793775230262
      ],
      [
        "eiro",
        -8.640362321462671
      ],
      [
        "DO",
        -8.64109167969973
      ],
      [
        "qu",
        -8.645252199770423
      ],
      [
        "Ġsido",
        -8.646060933261857
      ],
      [
        "Ã§a",
        -8.648289707739128
      ],
      [
        "com",
        -8.651954036584117
      ],
      [
        "dezembro",
        -8.655074037146086
      ],
      [
        "ĠBa",
        -8.655676161185603
      ],
      [
        "Ġrecursos",
        -8.657083741162358
      ],
      [
        "2009",
        -8.657828892227947
      ],
      [
        "lar",
        -8.659006652453995
      ],
      [
        "ĠAr",
        -8.659763125709203
      ],
      [
        "men",
        -8.661051745722357
      ],
      [
        "gen",
        -8.669322925345073
      ],
      [
        "ante",
        -8.66979677304896
      ],
      [
        "ĠVer",
        -8.670316198836014
      ],
      [
        "Y",
        -8.670324225046453
      ],
      [
        "Ġoutro",
        -8.671521710603127
      ],
      [
        "OS",
        -8.67334455415354
      ],
      [
        "ĠtrÃªs",
        -8.677431068785971
      ],
      [
        "Ġpartir",
        -8.677516123497732
      ],
      [
        "ĠEstados",
        -8.67795672371042
      ],
      [
        "nos",
        -8.678156947640323
      ],
      [
        "ico",
        -8.67980724476821
      ],
      [
        "ĠH",
        -8.682593736152949
      ],
      [
        "Q",
        -8.68557255805894
      ],
      [
        "orador",
        -8.68709715570304
      ],
      [
        "Ġ24",
        -8.687145422240059
      ],
      [
        "=",
        -8.687946093493741
      ],
      [
        "AS",
        -8.690450345515668
      ],
      [
        "ĠentÃ£o",
        -8.690947057792162
      ],
      [
        "ata",
        -8.690981671316056
      ],
      [
        "cha",
        -8.691376907203486
      ],
      [
        "PT",
        -8.692507561729128
      ],
      [
        "Ġfinal",
        -8.693969006954541
      ],
      [
        "12",
        -8.697200698505144
      ],
      [
        "ent",
        -8.69720107063505
      ],
      [
        "ula",
        -8.69779083933678
      ],
      [
        "decisÃ£o",
        -8.700904275141921
      ],
      [
        "eira",
        -8.701203203864305
      ],
      [
        "ĠnÃºmero",
        -8.703168488418108
      ],
      [
        "ÃĩÃĥO",
        -8.703934008065364
      ],
      [
        "ĠCa",
        -8.705457162505141
      ],
      [
        "Ġvalor",
        -8.706960919288317
      ],
      [
        "Ġmomento",
        -8.709112368268544
      ],
      [
        "@",
        -8.710265189129888
      ],
      [
        "DI",
        -8.710935728420605
      ],
      [
        "Ì",
        -8.711481343248067
      ],
      [
        "ĠK",
        -8.717926592190665
      ],
      [
        "revisÃ£o",
        -8.718075025764529
      ],
      [
        "Ġgoverno",
        -8.720146513623012
      ],
      [
        "Ġgrupo",
        -8.720470013027965
      ],
      [
        "Ġtudo",
        -8.721308002069751
      ],
      [
        "Ġdesde",
        -8.722649534445763
      ],
      [
        "Ġsub",
        -8.723847888273802
      ],
      [
        "20",
        -8.72464297414755
      ],
      [
        "ĠJoÃ£o",
        -8.72495008497764
      ],
      [
        "ĠfamÃŃlia",
        -8.730563310815278
      ],
      [
        "Ġato",
        -8.733645812336277
      ],
      [
        "Ġcasa",
        -8.73367427254734
      ],
      [
        "Ġdias",
        -8.73453507787553
      ],
      [
        "Ãģ",
        -8.73939382931256
      ],
      [
        "Ġnovo",
        -8.739719261702287
      ],
      [
        "ĠPR",
        -8.739734637456824
      ],
      [
        "art",
        -8.7427405988569
      ],
      [
        "ava",
        -8.742889754541327
      ],
      [
        "ĠPMDB",
        -8.743030586366185
      ],
      [
        "ira",
        -8.745945096307691
      ],
      [
        "ĠpaÃŃs",
        -8.748695957462905
      ],
      [
        "amento",
        -8.748765108760566
      ],
      [
        "ĠTe",
        -8.749391095164004
      ],
      [
        "ĠIsso",
        -8.749532411363173
      ],
      [
        "ĠUniÃ£o",
        -8.75332943400183
      ],
      [
        "ĠUm",
        -8.753676359552433
      ],
      [
        "Ġeles",
        -8.760708052600318
      ],
      [
        "ĠdÃ¡",
        -8.760855253175917
      ],
      [
        "tas",
        -8.761103905152737
      ],
      [
        "Ġproposta",
        -8.761250824470814
      ],
      [
        "Ġpoder",
        -8.761421324179214
      ],
      [
        "lha",
        -8.762432009827172
      ],
      [
        "ĠpopulaÃ§Ã£o",
        -8.764554686517696
      ],
      [
        "RA",
        -8.765340728738794
      ],
      [
        "mor",
        -8.76741592043356
      ],
      [
        "par",
        -8.767789832185452
      ],
      [
        "ÃĥO",
        -8.768788477776829
      ],
      [
        "rio",
        -8.76946694408067
      ],
      [
        "05",
        -8.770270663251882
      ],
      [
        "Ġsempre",
        -8.770741864371804
      ],
      [
        "ju",
        -8.771302807275744
      ],
      [
        "EL",
        -8.777415703266488
      ],
      [
        "Ġinciso",
        -8.778833224953395
      ],
      [
        "Ġconta",
        -8.780881531521803
      ],
      [
        "les",
        -8.780890613091893
      ],
      [
        "Ġpra",
        -8.781708105105304
      ],
      [
        "Ġbrasileiro",
        -8.781741093565866
      ],
      [
        "18",
        -8.783531789142765
      ],
      [
        "ĠDi",
        -8.784317970768441
      ],
      [
        "rado",
        -8.786810673954674
      ],
      [
        "Ġduas",
        -8.790171757034567
      ],
      [
        "ĠrelaÃ§Ã£o",
        -8.79072892308075
      ],
      [
        "Ġ30",
        -8.79354345080108
      ],
      [
        "Ġ:(",
        -8.794974788482289
      ],
      [
        "ĠJo",
        -8.796042455140345
      ],
      [
        "ĠlÃ¡",
        -8.796704065195845
      ],
      [
        "ĠEsta",
        -8.798630435948775
      ],
      [
        "Ġmenos",
        -8.799441009744285
      ],
      [
        "ĠmilhÃµes",
        -8.80158882438496
      ],
      [
        "Ġpouco",
        -8.801762497616451
      ],
      [
        "ĠâĢĶ",
        -8.802086931141709
      ],
      [
        "gue",
        -8.803303239614868
      ],
      [
        "Ġtinha",
        -8.804034072424727
      ],
      [
        "ĠEntÃ£o",
        -8.80473088533053
      ],
      [
        "Ġfato",
        -8.806246724617754
      ],
      [
        "Congresso",
        -8.807341535196608
      ],
      [
        "ĠFoi",
        -8.808256531697673
      ],
      [
        "03",
        -8.808378211622923
      ],
      [
        "lhe",
        -8.809029927496297
      ],
      [
        "âĢĵ",
        -8.812806252026062
      ],
      [
        "nesta",
        -8.814569165232198
      ],
      [
        "Ġinter",
        -8.815498009612385
      ],
      [
        "bra",
        -8.816584790231367
      ],
      [
        "ste",
        -8.817998452661842
      ],
      [
        "ĠvotaÃ§Ã£o",
        -8.818691844764075
      ],
      [
        "Ġ21",
        -8.82461052922761
      ],
      [
        "aprovaÃ§Ã£o",
        -8.82665085179387
      ],
      [
        "ĠJu",
        -8.826756717017208
      ],
      [
        "ĠSul",
        -8.826787369924709
      ],
      [
        "Ġbrasileira",
        -8.827167098078618
      ],
      [
        "Ġquanto",
        -8.827387520295686
      ],
      [
        "ĠPela",
        -8.829149959366566
      ],
      [
        "ntes",
        -8.832179464320063
      ],
      [
        "ĠTo",
        -8.835116797797054
      ],
      [
        "neste",
        -8.835174885325396
      ],
      [
        "Ġfim",
        -8.836696473756458
      ],
      [
        "Ġ23",
        -8.83864130774032
      ],
      [
        "ĠQue",
        -8.843332061200563
      ],
      [
        "K",
        -8.844280392464006
      ],
      [
        "Ġpelos",
        -8.845238247441678
      ],
      [
        "08",
        -8.84608031369318
      ],
      [
        "ĠperÃŃodo",
        -8.846514974009652
      ],
      [
        "Ġprograma",
        -8.849315235448712
      ],
      [
        "17",
        -8.850624923545594
      ],
      [
        "Ġ25",
        -8.851286280576762
      ],
      [
        "Ġbom",
        -8.853435592639066
      ],
      [
        "inha",
        -8.85402302262598
      ],
      [
        "can",
        -8.85507195699481
      ],
      [
        "Ġ22",
        -8.857794705494504
      ],
      [
        "ĠPoder",
        -8.858517913680066
      ],
      [
        "ĠFa",
        -8.861115763609213
      ],
      [
        "ĠÃºnico",
        -8.863526484879733
      ],
      [
        "ĠhistÃ³ria",
        -8.864530363436556
      ],
      [
        "02",
        -8.866418498675301
      ],
      [
        "pre",
        -8.866705525643628
      ],
      [
        "ati",
        -8.8672306934633
      ],
      [
        "Ġsu",
        -8.869202821681007
      ],
      [
        "ais",
        -8.869747550888926
      ],
      [
        "ĠinformaÃ§Ãµes",
        -8.870629168600225
      ],
      [
        "rei",
        -8.873410893295997
      ],
      [
        "07",
        -8.874141045635449
      ],
      [
        "ĠsaÃºde",
        -8.875363216199924
      ],
      [
        "DA",
        -8.875980671843198
      ],
      [
        "menta",
        -8.876045930010056
      ],
      [
        "Ġtodas",
        -8.876056628355153
      ],
      [
        "gar",
        -8.876922412982259
      ],
      [
        "TE",
        -8.878647586202376
      ],
      [
        "Ġfaz",
        -8.878862487490343
      ],
      [
        "Ġvezes",
        -8.878967929973058
      ],
      [
        "ĠPa",
        -8.880977557923686
      ],
      [
        "lin",
        -8.881045204055582
      ],
      [
        "ton",
        -8.88107082945157
      ],
      [
        "Ġsocial",
        -8.884987066268975
      ],
      [
        "Ġbase",
        -8.885547385565237
      ],
      [
        "Ã¢",
        -8.886296191936685
      ],
      [
        "ĠregiÃ£o",
        -8.887364980594926
      ],
      [
        "tes",
        -8.888371495692622
      ],
      [
        "los",
        -8.88966600482767
      ],
      [
        "Ġexemplo",
        -8.89323454615109
      ],
      [
        "for",
        -8.894025929480867
      ],
      [
        "ĠDr",
        -8.89411060330782
      ],
      [
        "16",
        -8.894233412734646
      ],
      [
        "Ġfez",
        -8.89612436061334
      ],
      [
        "ki",
        -8.897853518764695
      ],
      [
        "04",
        -8.899338829969162
      ],
      [
        "alÃ©m",
        -8.902707239908237
      ],
      [
        "Ġnacional",
        -8.902771270319835
      ],
      [
        "Ġmaio",
        -8.903516780711787
      ],
      [
        "ant",
        -8.903641079015568
      ],
      [
        "Ġempresa",
        -8.906015184066984
      ],
      [
        "Ġexternas",
        -8.906379939809684
      ],
      [
        "W",
        -8.906812881740723
      ],
      [
        "ĠtÃªm",
        -8.907927621470376
      ],
      [
        "ĠquestÃ£o",
        -8.909563851248702
      ],
      [
        "âĢĿ,",
        -8.909636032227654
      ],
      [
        "Ġdiz",
        -8.911629660373556
      ],
      [
        "Ġfor",
        -8.91166031830393
      ],
      [
        "ĠtÃ£o",
        -8.913533566980494
      ],
      [
        "ĠLuiz",
        -8.914722902530938
      ],
      [
        "LigaÃ§Ãµes",
        -8.914895241534857
      ],
      [
        "Ġlugar",
        -8.916758107905213
      ],
      [
        "che",
        -8.918455937701491
      ],
      [
        "Ġtendo",
        -8.918457297789931
      ],
      [
        "Ġpois",
        -8.921397351792603
      ],
      [
        "pen",
        -8.921428830061656
      ],
      [
        "Ġquero",
        -8.922802479478692
      ],
      [
        "ist",
        -8.923790118992562
      ],
      [
        "Ġrecurso",
        -8.924270039476534
      ],
      [
        "Ġcausa",
        -8.92523390557379
      ],
      [
        "Ġtoda",
        -8.927129737146883
      ],
      [
        "julho",
        -8.927274484423322
      ],
      [
        "ĠHa",
        -8.92987737430546
      ],
      [
        "Ġpa",
        -8.930557944376828
      ],
      [
        "Ġestado",
        -8.93117850698752
      ],
      [
        "ĠFi",
        -8.931672594486782
      ],
      [
        "ĠExÂª",
        -8.932466419505138
      ],
      [
        "Ġpovo",
        -8.932846570586662
      ],
      [
        "ĠGo",
        -8.933111374048552
      ],
      [
        "las",
        -8.933367231888155
      ],
      [
        "13",
        -8.933838624634099
      ],
      [
        "tur",
        -8.933879273776036
      ],
      [
        "Ġ2007",
        -8.933998157343154
      ],
      [
        "ber",
        -8.935410753946725
      ],
      [
        "Ã£",
        -8.936757660498053
      ],
      [
        "ESSÃĥO",
        -8.942811895641748
      ],
      [
        "sentido",
        -8.942818001007069
      ],
      [
        "Ġseria",
        -8.943495499986843
      ],
      [
        "06",
        -8.943527049846
      ],
      [
        "Ġalguns",
        -8.947584803229184
      ],
      [
        "setembro",
        -8.949389201457064
      ],
      [
        "ĠPre",
        -8.951996301324007
      ],
      [
        "ĠGa",
        -8.952100253952125
      ],
      [
        "inho",
        -8.953341892057303
      ],
      [
        "Ġnada",
        -8.95357400379866
      ],
      [
        "ĠCar",
        -8.954432441563375
      ],
      [
        "Ġnova",
        -8.956445251729388
      ],
      [
        "Ġ28",
        -8.958246086633958
      ],
      [
        "tua",
        -8.96110255257186
      ],
      [
        "Ġfavor",
        -8.962293698591543
      ],
      [
        "Ġtrata",
        -8.962732720398437
      ],
      [
        "Ġvou",
        -8.963281600175609
      ],
      [
        "Ġdata",
        -8.964154749591453
      ],
      [
        "fica",
        -8.96555866851874
      ],
      [
        "Ġnem",
        -8.966132077666044
      ],
      [
        "temos",
        -8.968046787632757
      ],
      [
        "Ã¡vel",
        -8.968136560397825
      ],
      [
        "30",
        -8.970690360796524
      ],
      [
        "nal",
        -8.974945994292602
      ],
      [
        "ler",
        -8.975752119091187
      ],
      [
        "Â°",
        -8.976115957505726
      ],
      [
        "Ġcoisa",
        -8.976170498532065
      ],
      [
        "dispÃµe",
        -8.978022125301969
      ],
      [
        "Ġfu",
        -8.978177458898708
      ],
      [
        "Ġsociedade",
        -8.983640304235852
      ],
      [
        "RE",
        -8.986307210376058
      ],
      [
        "Ġtipo",
        -8.986501949880054
      ],
      [
        "Ġpodem",
        -8.986508905670906
      ],
      [
        "ĠJa",
        -8.988034261419319
      ],
      [
        "Ġmesma",
        -8.990346113272514
      ],
      [
        "ry",
        -8.991006759624778
      ],
      [
        "Muito",
        -8.99151745602969
      ],
      [
        "junho",
        -8.992143241699514
      ],
      [
        "ĠEla",
        -8.993259548783469
      ],
      [
        "ĠBo",
        -8.99597254350363
      ],
      [
        "IS",
        -8.99658248055233
      ],
      [
        "Ġdisso",
        -8.99776857432414
      ],
      [
        "UTC",
        -8.999824368917608
      ],
      [
        "Ġtenho",
        -8.999825712634307
      ],
      [
        "izaÃ§Ã£o",
        -9.00001140268747
      ],
      [
        "Ġteve",
        -9.001096402486018
      ],
      [
        "ĠGrande",
        -9.00341923586845
      ],
      [
        "ĠVamos",
        -9.006115371910344
      ],
      [
        "ĠÃºltimo",
        -9.008195407043232
      ],
      [
        "Ġestou",
        -9.011422084880063
      ],
      [
        "Exa",
        -9.01326784048097
      ],
      [
        "Decreto",
        -9.014261295429051
      ],
      [
        "Ġ2008",
        -9.014600614872434
      ],
      [
        "ang",
        -9.014882449761132
      ],
      [
        "2015",
        -9.015066521576944
      ],
      [
        "tou",
        -9.016438605766943
      ],
      [
        "TA",
        -9.016957019877026
      ],
      [
        "ĠHo",
        -9.018114139777872
      ],
      [
        "Ġmedida",
        -9.019087713421834
      ],
      [
        "ĠEx",
        -9.019464115717588
      ],
      [
        "Ġcons",
        -9.019720834042229
      ],
      [
        "Ġ2009",
        -9.02076586096725
      ],
      [
        "Art",
        -9.021449662290086
      ],
      [
        "Ġ2006",
        -9.021853540740556
      ],
      [
        "Ġdesenvolvimento",
        -9.022613136411351
      ],
      [
        "lho",
        -9.025402398817633
      ],
      [
        "Ġquais",
        -9.03197929696191
      ],
      [
        "bar",
        -9.033314613817826
      ],
      [
        "Ġ26",
        -9.033575730770592
      ],
      [
        "ĠBe",
        -9.034534292333571
      ],
      [
        "essa",
        -9.037161774717408
      ],
      [
        "PMDB",
        -9.03717556175789
      ],
      [
        "tica",
        -9.037394128467874
      ],
      [
        "Ġoutra",
        -9.03814087457663
      ],
      [
        "tre",
        -9.03958028417037
      ],
      [
        "ĠSanta",
        -9.040291522801567
      ],
      [
        "Ġconstitucional",
        -9.046627939552597
      ],
      [
        "DE",
        -9.048863250505596
      ],
      [
        "ĠLu",
        -9.049388394418852
      ],
      [
        "Ġnum",
        -9.049807400464084
      ],
      [
        "000",
        -9.050467057489367
      ],
      [
        "ura",
        -9.050909954592749
      ],
      [
        "via",
        -9.050977316379711
      ],
      [
        "Ġsei",
        -9.051685970128036
      ],
      [
        "Ġestar",
        -9.0526936789658
      ],
      [
        "Ġsabe",
        -9.054504471011876
      ],
      [
        "Ã¡rio",
        -9.057618876277203
      ],
      [
        "Ġpessoa",
        -9.063334505900537
      ],
      [
        "ĠmarÃ§o",
        -9.065159645809496
      ],
      [
        "amente",
        -9.06531093616949
      ],
      [
        "uni",
        -9.065805898355253
      ],
      [
        "vam",
        -9.065954028278854
      ],
      [
        "Ġvamos",
        -9.066255031248255
      ],
      [
        "ĠJaneiro",
        -9.069187721624264
      ],
      [
        "ex",
        -9.070820935135854
      ],
      [
        "Ġagosto",
        -9.071160288369178
      ],
      [
        "Ġoutubro",
        -9.07143064844944
      ],
      [
        "cal",
        -9.073401416581952
      ],
      [
        "fl",
        -9.07403235481214
      ],
      [
        "ĠRE",
        -9.074503752912
      ],
      [
        "ĠMu",
        -9.07500676666428
      ],
      [
        "Ġtexto",
        -9.076668029001263
      ],
      [
        "tada",
        -9.081671950770506
      ],
      [
        "ĠFe",
        -9.082155504203426
      ],
      [
        "ora",
        -9.083319824562306
      ],
      [
        "zar",
        -9.084385610702162
      ],
      [
        "...............",
        -9.086004039747516
      ],
      [
        "Ġ2011",
        -9.086570277211973
      ],
      [
        "Ġcor",
        -9.088549472188564
      ],
      [
        "ĠIII",
        -9.089792940419558
      ],
      [
        "ĠprÃ³prio",
        -9.09248214685426
      ],
      [
        "CI",
        -9.092499599922476
      ],
      [
        "50",
        -9.093792932762224
      ],
      [
        "iro",
        -9.093797043074067
      ],
      [
        "Ġhavia",
        -9.096005577707368
      ],
      [
        "ĠmunicÃŃpio",
        -9.097171183749628
      ],
      [
        "ral",
        -9.097680867702625
      ],
      [
        "tion",
        -9.09818199827005
      ],
      [
        "Ġdessa",
        -9.099419946407332
      ],
      [
        "Ġdis",
        -9.099754062997553
      ],
      [
        "Ġ2010",
        -9.102116117618031
      ],
      [
        "ĠEduardo",
        -9.102469141981224
      ],
      [
        "ĠSt",
        -9.103731052782264
      ],
      [
        "Ġabril",
        -9.104695373660192
      ],
      [
        "ĠTem",
        -9.105425376346938
      ],
      [
        "ras",
        -9.105761114745237
      ],
      [
        "ĠtÃ©cnica",
        -9.106829697862535
      ],
      [
        "ĠNO",
        -9.107587097364018
      ],
      [
        "Ġsemana",
        -9.111970279804558
      ],
      [
        "Ġprincipal",
        -9.112679119211377
      ],
      [
        "Ġjaneiro",
        -9.11383776103958
      ],
      [
        "Ġdesse",
        -9.113946323307204
      ],
      [
        "2013",
        -9.115493659390989
      ],
      [
        "Ġpe",
        -9.11593110863197
      ],
      [
        "habitantes",
        -9.115993256896568
      ],
      [
        "Ġempresas",
        -9.117079474628852
      ],
      [
        "gua",
        -9.118556365879169
      ],
      [
        "://",
        -9.119622746623865
      ],
      [
        "ĠEste",
        -9.12108869694586
      ],
      [
        "cional",
        -9.123482426476956
      ],
      [
        "Ġsim",
        -9.12434054621552
      ],
      [
        "cas",
        -9.124841531738127
      ],
      [
        "ĠGu",
        -9.12520978441564
      ],
      [
        "Ġnovembro",
        -9.125299167114298
      ],
      [
        "14",
        -9.127494326913917
      ],
      [
        "Ġpresidente",
        -9.127661444014096
      ],
      [
        "NE",
        -9.128174456254625
      ],
      [
        "ĠPARECER",
        -9.128435580135417
      ],
      [
        "por",
        -9.129225093447658
      ],
      [
        "Ġ2005",
        -9.1295979650456
      ],
      [
        "Ġvolta",
        -9.129847722520427
      ],
      [
        "ĠtÃŃtulo",
        -9.129999331626822
      ],
      [
        "nÃ§a",
        -9.132410405184842
      ],
      [
        "Ġpai",
        -9.13329589612746
      ],
      [
        "ĠcondiÃ§Ãµes",
        -9.13330148100403
      ],
      [
        "ĠproduÃ§Ã£o",
        -9.133823035108538
      ],
      [
        "val",
        -9.136419871198672
      ],
      [
        "ĠPi",
        -9.13708584819009
      ],
      [
        "nia",
        -9.139286755032842
      ],
      [
        "chi",
        -9.139409971216637
      ],
      [
        "ĠsituaÃ§Ã£o",
        -9.139466044708678
      ],
      [
        "MunicÃŃpio",
        -9.14010624834622
      ],
      [
        "Ġ27",
        -9.141705972911646
      ],
      [
        "Ã",
        -9.14405324722311
      ],
      [
        "ĠseguranÃ§a",
        -9.144237272432797
      ],
      [
        "Ġprecisa",
        -9.145231714314482
      ],
      [
        "NÃ³s",
        -9.14526320566458
      ],
      [
        "ĠSala",
        -9.146287754921785
      ],
      [
        "sÃ£o",
        -9.147510128559402
      ],
      [
        "ĠMi",
        -9.147779378229089
      ],
      [
        "ĠÃ¡gua",
        -9.150022763466742
      ],
      [
        "vol",
        -9.151586372577222
      ],
      [
        "rar",
        -9.151894189505065
      ],
      [
        "ind",
        -9.152467002164093
      ],
      [
        "ĠNe",
        -9.153899457421158
      ],
      [
        "pol",
        -9.154067918576809
      ],
      [
        "RO",
        -9.157319980445752
      ],
      [
        "Ġtenha",
        -9.158136986387158
      ],
      [
        "Ġfalar",
        -9.158393958536656
      ],
      [
        "ĠEstÃ¡",
        -9.15943655491006
      ],
      [
        "ĠMin",
        -9.161039398402837
      ],
      [
        "Ġvista",
        -9.161880502271092
      ],
      [
        "estamos",
        -9.162696743824013
      ],
      [
        "2011",
        -9.164239363985326
      ],
      [
        "missÃ£o",
        -9.16571145641472
      ],
      [
        "Ġtanto",
        -9.1683903286404
      ],
      [
        "ĠEssa",
        -9.168443017032065
      ],
      [
        "ite",
        -9.168616611977336
      ],
      [
        "PSB",
        -9.169954959849186
      ],
      [
        "Ġ29",
        -9.17101018568368
      ],
      [
        "ato",
        -9.171058373713793
      ],
      [
        "Ġfeito",
        -9.174189431149411
      ],
      [
        "ĠHe",
        -9.17429235441221
      ],
      [
        "ĠEmenda",
        -9.1765601518275
      ],
      [
        "port",
        -9.179075776054011
      ],
      [
        "aÃŃ",
        -9.17925639558906
      ],
      [
        "Regimento",
        -9.180121439347388
      ],
      [
        "ense",
        -9.180746787199308
      ],
      [
        "Ġpena",
        -9.18198110551387
      ],
      [
        "ĠEsse",
        -9.18396209299913
      ],
      [
        "tura",
        -9.18475104437625
      ],
      [
        "ĠeducaÃ§Ã£o",
        -9.1860257423424
      ],
      [
        "tivo",
        -9.188250693442503
      ],
      [
        "Ġbi",
        -9.191125351342246
      ],
      [
        "ĠinÃŃcio",
        -9.191897776697028
      ],
      [
        "Ġverdade",
        -9.192109989732106
      ],
      [
        "Ġenquanto",
        -9.193744201885876
      ],
      [
        "ele",
        -9.195701661334342
      ],
      [
        "Ġquatro",
        -9.196218145841588
      ],
      [
        "ĠUma",
        -9.19739485575193
      ],
      [
        "providÃªncias",
        -9.19748532559229
      ],
      [
        "Ġtra",
        -9.197623573951036
      ],
      [
        "Ġponto",
        -9.1977918992712
      ],
      [
        "ador",
        -9.19867741223558
      ],
      [
        "SP",
        -9.198948981181914
      ],
      [
        "pro",
        -9.200957859063736
      ],
      [
        "sessÃ£o",
        -9.201925401308657
      ],
      [
        "Ġobjetivo",
        -9.203646045027329
      ],
      [
        "Ġrespeito",
        -9.204257119611809
      ],
      [
        "bal",
        -9.2052089758094
      ],
      [
        "Ġfevereiro",
        -9.205883839531436
      ],
      [
        "ĠSu",
        -9.206628311144753
      ],
      [
        "Ġtrans",
        -9.208057126482872
      ],
      [
        "Ġlocal",
        -9.2083338671334
      ],
      [
        "feira",
        -9.208934989519078
      ],
      [
        "nado",
        -9.209775881646722
      ],
      [
        "log",
        -9.211835858309724
      ],
      [
        "Ġdentro",
        -9.212204116995078
      ],
      [
        "istas",
        -9.212532975357016
      ],
      [
        "Supremo",
        -9.213088021321887
      ],
      [
        "ÃŃn",
        -9.214052331712471
      ],
      [
        "ĠMaria",
        -9.21428446232941
      ],
      [
        "Ð",
        -9.21595744830872
      ],
      [
        "Ġ31",
        -9.216443733365203
      ],
      [
        "Deputada",
        -9.217594724197925
      ],
      [
        "NI",
        -9.21819128161268
      ],
      [
        "Ġmim",
        -9.218968795767152
      ],
      [
        "ĠBi",
        -9.222197764239768
      ],
      [
        "Ġdemais",
        -9.2224436377784
      ],
      [
        "ĠsÃ©rie",
        -9.22329457404464
      ],
      [
        "Ġhoras",
        -9.223935175973368
      ],
      [
        "Ġcargo",
        -9.224483690438763
      ],
      [
        "Ġfi",
        -9.226623412496194
      ],
      [
        "Ġapoio",
        -9.226789793698073
      ],
      [
        "ĠInterno",
        -9.227476812451354
      ],
      [
        "rada",
        -9.229676563500272
      ],
      [
        "ĠPresidÃªncia",
        -9.231239005789533
      ],
      [
        "ix",
        -9.233684983133386
      ],
      [
        "ĠÃĢ",
        -9.234647188852174
      ],
      [
        "Ġtotal",
        -9.240549184283958
      ],
      [
        "uro",
        -9.241719218897332
      ],
      [
        "criaÃ§Ã£o",
        -9.242822547337232
      ],
      [
        "ĠPÃºblico",
        -9.242917252483524
      ],
      [
        "vin",
        -9.243156353256806
      ],
      [
        "Ġ(\"",
        -9.24336660049402
      ],
      [
        "tico",
        -9.24462005915358
      ],
      [
        "ĠpossÃŃvel",
        -9.244801996757204
      ],
      [
        "Ġ2013",
        -9.24530894561112
      ],
      [
        "Ġfilme",
        -9.246269768165856
      ],
      [
        "ĠBrasÃŃlia",
        -9.24753206681262
      ],
      [
        "25",
        -9.249250545396094
      ],
      [
        "Ġparecer",
        -9.249534459809627
      ],
      [
        "PDT",
        -9.250581569545067
      ],
      [
        "Ġvota",
        -9.252248576259632
      ],
      [
        "ĠUnidos",
        -9.252283192524436
      ],
      [
        "Ġfalta",
        -9.253704769640471
      ],
      [
        "Ġconforme",
        -9.254460537833005
      ],
      [
        "Ġluta",
        -9.25493221062458
      ],
      [
        "ĠTurma",
        -9.256370432242823
      ],
      [
        "serviÃ§os",
        -9.256854117911091
      ],
      [
        "cial",
        -9.257648960269224
      ],
      [
        "Ġproblema",
        -9.257874222929605
      ],
      [
        "Ġnunca",
        -9.258562362062149
      ],
      [
        "Ġespecial",
        -9.25920794427632
      ],
      [
        "ĠConselho",
        -9.260080868873724
      ],
      [
        "Ġcar",
        -9.260307788119166
      ],
      [
        "ĠpaÃŃses",
        -9.262395854329464
      ],
      [
        "Ġjogo",
        -9.262436786083317
      ],
      [
        "CE",
        -9.262581763539922
      ],
      [
        "NA",
        -9.264163994825989
      ],
      [
        "Ġsou",
        -9.264700442821429
      ],
      [
        "Ġ2012",
        -9.265416848379273
      ],
      [
        "len",
        -9.267128058877462
      ],
      [
        "Ġalgo",
        -9.2690344390217
      ],
      [
        "Ġcerca",
        -9.26944333500134
      ],
      [
        "Ġ2004",
        -9.270044066233702
      ],
      [
        "98",
        -9.270155461017248
      ],
      [
        "ĠUniversidade",
        -9.270638564841326
      ],
      [
        "ĠQuando",
        -9.270905856435247
      ],
      [
        "ser",
        -9.271088430155292
      ],
      [
        "cos",
        -9.274516003852698
      ],
      [
        "ĠmÃºsica",
        -9.275579778024332
      ],
      [
        "q",
        -9.27659369770678
      ],
      [
        "ĠsÃ©culo",
        -9.27852745757051
      ],
      [
        "Ġobrigado",
        -9.278687291985657
      ],
      [
        "defesa",
        -9.280230264086356
      ],
      [
        "tÃ³rio",
        -9.28111547972633
      ],
      [
        "ĠSilva",
        -9.283928593877096
      ],
      [
        "tanto",
        -9.285525959342252
      ],
      [
        "Ġequipe",
        -9.28553606310965
      ],
      [
        "ĠEducaÃ§Ã£o",
        -9.28633290597491
      ],
      [
        "cho",
        -9.2892865342744
      ],
      [
        "devido",
        -9.289577324360677
      ],
      [
        "ĠPedro",
        -9.289797841837816
      ],
      [
        "CÃ³digo",
        -9.289907525000348
      ],
      [
        "40",
        -9.290903003043924
      ],
      [
        "ĠSocial",
        -9.29091550550537
      ],
      [
        "Ġfora",
        -9.291213640851923
      ],
      [
        "registro",
        -9.292547472295524
      ],
      [
        "Ġmembro",
        -9.29364995656318
      ],
      [
        "ĠatravÃ©s",
        -9.293693247168136
      ],
      [
        "Ġcinco",
        -9.293979863236377
      ],
      [
        "Ġregimental",
        -9.29445821825366
      ],
      [
        "ban",
        -9.295661391966414
      ],
      [
        "Ġkm",
        -9.299513547167155
      ],
      [
        "Ġsegunda",
        -9.29988709122234
      ],
      [
        "âĢĻ",
        -9.300002016675744
      ],
      [
        "ini",
        -9.301197569209414
      ],
      [
        "ĠGr",
        -9.302165188766022
      ],
      [
        "ĠOliveira",
        -9.302716482210675
      ],
      [
        "PlenÃ¡rio",
        -9.303078221207915
      ],
      [
        "Ġpedido",
        -9.303278996891478
      ],
      [
        "IN",
        -9.304465498896247
      ],
      [
        "ger",
        -9.304888459730208
      ],
      [
        "SE",
        -9.30838529586868
      ],
      [
        "Ġvo",
        -9.31000422697674
      ],
      [
        "Ġrealizada",
        -9.310884318169444
      ],
      [
        "Ġficar",
        -9.312318185963944
      ],
      [
        "ĠTotal",
        -9.313023054430612
      ],
      [
        "CO",
        -9.3140948312175
      ],
      [
        "Ġdireitos",
        -9.31430614497514
      ],
      [
        "ris",
        -9.315219877424193
      ],
      [
        "ĠFo",
        -9.315242442512703
      ],
      [
        "lia",
        -9.315432776852957
      ],
      [
        "Ġmorte",
        -9.31546594186812
      ],
      [
        "Ġpesquisa",
        -9.31570924288099
      ],
      [
        "iti",
        -9.316911869768097
      ],
      [
        "PE",
        -9.3172448137056
      ],
      [
        "bilidade",
        -9.317320770597435
      ],
      [
        "taÃ§Ã£o",
        -9.317448118796015
      ],
      [
        "Ġvem",
        -9.317532207230435
      ],
      [
        "ĠSra",
        -9.318513499432507
      ],
      [
        "posiÃ§Ã£o",
        -9.318888099449206
      ],
      [
        "ĠJÃ¡",
        -9.320085455828304
      ],
      [
        "US",
        -9.321089396140012
      ],
      [
        "ĠCi",
        -9.322821222287228
      ],
      [
        "Ġfazendo",
        -9.32300086652371
      ],
      [
        "ĠCl",
        -9.32306966274057
      ],
      [
        "Ġdeixa",
        -9.324732786020231
      ],
      [
        "ly",
        -9.325429253742596
      ],
      [
        "ĠprÃ³pria",
        -9.326649619874406
      ],
      [
        "2000",
        -9.326758650875536
      ],
      [
        "ĠSi",
        -9.3268887694696
      ],
      [
        "Ġobjeto",
        -9.327941133742206
      ],
      [
        "ĠKa",
        -9.3290386509142
      ],
      [
        "tÃ£o",
        -9.329381904794168
      ],
      [
        "Ġthe",
        -9.329502492174214
      ],
      [
        "Ãī",
        -9.3303032124176
      ],
      [
        "ĠforÃ§a",
        -9.330979299284238
      ],
      [
        "ĠrazÃ£o",
        -9.33110851087145
      ],
      [
        "ĠDia",
        -9.3325767670149
      ],
      [
        "vÃ¡rios",
        -9.335976923795853
      ],
      [
        "ĠDu",
        -9.33624808713207
      ],
      [
        "The",
        -9.3364077475727
      ],
      [
        "rim",
        -9.336763323623805
      ],
      [
        "ĠexercÃŃcio",
        -9.337529743242015
      ],
      [
        "Ġacesso",
        -9.337796580630007
      ],
      [
        "ĠSaÃºde",
        -9.339305940001152
      ],
      [
        "Ġmeses",
        -9.339634100682805
      ],
      [
        "origem",
        -9.339932955946336
      ],
      [
        "Executivo",
        -9.341367208198088
      ],
      [
        "2008",
        -9.341833442730351
      ],
      [
        "tÃ¡",
        -9.342627821460042
      ],
      [
        "var",
        -9.344132274248604
      ],
      [
        "uma",
        -9.34459109332908
      ],
      [
        "tan",
        -9.346749466241256
      ],
      [
        "bel",
        -9.347601335921665
      ],
      [
        "Ġmercado",
        -9.34803668631716
      ],
      [
        "Ġ2003",
        -9.348842358617008
      ],
      [
        "ĠÃ©poca",
        -9.349053539221613
      ],
      [
        "serÃ£o",
        -9.35381519279471
      ],
      [
        "Ġfilho",
        -9.353995423800114
      ],
      [
        "ĠSegundo",
        -9.355965035971757
      ],
      [
        "Ġmal",
        -9.35612077311413
      ],
      [
        "AlÃ©m",
        -9.357393743646954
      ],
      [
        "ĠPer",
        -9.35768380592179
      ],
      [
        "ĠPP",
        -9.357780513803656
      ],
      [
        "ĠFilho",
        -9.360423690408084
      ],
      [
        "iano",
        -9.360909780571466
      ],
      [
        "ĠAgora",
        -9.361239324653289
      ],
      [
        "Ġinclusive",
        -9.362482489194669
      ],
      [
        "Ġ2015",
        -9.362722547749176
      ],
      [
        "PTB",
        -9.362792306480392
      ],
      [
        "97",
        -9.363004542941187
      ],
      [
        "Ġdados",
        -9.36338079321582
      ],
      [
        "eram",
        -9.363559453313592
      ],
      [
        "2007",
        -9.364324225513784
      ],
      [
        "ento",
        -9.364389024093397
      ],
      [
        "Ġatividade",
        -9.365462963818636
      ],
      [
        "Ġgeral",
        -9.366416260245154
      ],
      [
        "ĠEM",
        -9.36852882968698
      ],
      [
        "Ġfosse",
        -9.370885386168386
      ],
      [
        "Ġcara",
        -9.371093974080209
      ],
      [
        "agem",
        -9.37127175445974
      ],
      [
        "Ġfala",
        -9.371630028819572
      ],
      [
        "nho",
        -9.372803083635835
      ],
      [
        "ano",
        -9.373217184054877
      ],
      [
        "radiodifusÃ£o",
        -9.376716329765722
      ],
      [
        "Ġpagamento",
        -9.377741647216748
      ],
      [
        "Ġquase",
        -9.37828329710333
      ],
      [
        "LA",
        -9.378306912526872
      ],
      [
        "Ġqualidade",
        -9.380168297727955
      ],
      [
        "nas",
        -9.380900811109935
      ],
      [
        "Ġlegal",
        -9.381499051625635
      ],
      [
        "Ġobra",
        -9.382039327231164
      ],
      [
        "Ġmar",
        -9.38331111598865
      ],
      [
        "ĠPA",
        -9.384621002306634
      ],
      [
        "STF",
        -9.385343873723349
      ],
      [
        "Ġpelas",
        -9.385949087949106
      ],
      [
        "Ġnecessidade",
        -9.387928741413685
      ],
      [
        "ĠDeus",
        -9.388163175723523
      ],
      [
        "cada",
        -9.389046647747952
      ],
      [
        "28",
        -9.390255373162294
      ],
      [
        "Ġalgumas",
        -9.390662927982966
      ],
      [
        "Ġcrime",
        -9.391585158901032
      ],
      [
        "ĠMan",
        -9.391854105026647
      ],
      [
        "2010",
        -9.393346977187909
      ],
      [
        "ĠMA",
        -9.397422694290578
      ],
      [
        "Ġminutos",
        -9.400168360779915
      ],
      [
        "Ġpoderia",
        -9.40104468599368
      ],
      [
        "Ġboa",
        -9.401497914353463
      ],
      [
        "ĠVI",
        -9.401962952035674
      ],
      [
        "Ġmaioria",
        -9.402338285137986
      ],
      [
        "entes",
        -9.402941300154383
      ],
      [
        "29",
        -9.404740363664702
      ],
      [
        "para",
        -9.40487441429316
      ],
      [
        "Ġ2014",
        -9.4058724852856
      ],
      [
        "95",
        -9.406508239144108
      ],
      [
        ".âĢĿ",
        -9.406941347317945
      ],
      [
        "bol",
        -9.408961103558148
      ],
      [
        "ĠpolÃŃtico",
        -9.411398274900574
      ],
      [
        "ĠCha",
        -9.411673008745192
      ],
      [
        "Ġinteresse",
        -9.412487726576291
      ],
      [
        "Ġesses",
        -9.412736650218957
      ],
      [
        "ĠCiÃªncia",
        -9.413018244794234
      ],
      [
        "Ġpartido",
        -9.413827561426263
      ],
      [
        "Ġdinheiro",
        -9.415198828286009
      ],
      [
        "Ġcerto",
        -9.416396820153498
      ],
      [
        "Ġmodo",
        -9.416910608450197
      ],
      [
        "Ġconhecido",
        -9.417931668739834
      ],
      [
        "Ġres",
        -9.418748400610454
      ],
      [
        "AÃĩÃĥO",
        -9.41886601455154
      ],
      [
        "ĠSua",
        -9.418977984854708
      ],
      [
        "Ġfr",
        -9.419708227796727
      ],
      [
        "Ġpossa",
        -9.422981081330551
      ],
      [
        "ĠVal",
        -9.42499831778802
      ],
      [
        "Ġrequerimento",
        -9.425671765587715
      ],
      [
        "Ġdele",
        -9.425925645266938
      ],
      [
        "ĠSE",
        -9.4265024060758
      ],
      [
        "tem",
        -9.427752374126838
      ],
      [
        "PR",
        -9.428084709702672
      ],
      [
        "aumento",
        -9.42813776659054
      ],
      [
        "Ġci",
        -9.428777392905836
      ],
      [
        "Ġ50",
        -9.429715056598443
      ],
      [
        "ĠHÃ¡",
        -9.43000627477449
      ],
      [
        "iga",
        -9.43016893656448
      ],
      [
        "Ġatual",
        -9.430806610971135
      ],
      [
        "ff",
        -9.431060123981812
      ],
      [
        "Ġpassa",
        -9.43134645441134
      ],
      [
        "Ġnesse",
        -9.43147420285991
      ],
      [
        "altera",
        -9.431811190684554
      ],
      [
        "nÃŃvel",
        -9.433778572393518
      ],
      [
        "99",
        -9.435058057426284
      ],
      [
        "Ġ2016",
        -9.435139509305548
      ],
      [
        "Ġemenda",
        -9.43543048128753
      ],
      [
        "Ġensino",
        -9.435770801958252
      ],
      [
        "Ġautor",
        -9.436166446489818
      ],
      [
        "Ġjunto",
        -9.43686826309677
      ],
      [
        "Ġdeixar",
        -9.437200879492924
      ],
      [
        "ĠNova",
        -9.43742475900875
      ],
      [
        "ĠCr",
        -9.437696303572974
      ],
      [
        "let",
        -9.43780863216604
      ],
      [
        "https",
        -9.43928934822698
      ],
      [
        "agravo",
        -9.439622219715451
      ],
      [
        "Ġnuma",
        -9.440094903093282
      ],
      [
        "Ġnorte",
        -9.440434667193
      ],
      [
        "til",
        -9.440580175921186
      ],
      [
        "88",
        -9.443066812467288
      ],
      [
        "45",
        -9.443323911212616
      ],
      [
        ");",
        -9.44370490032816
      ],
      [
        "ĠBu",
        -9.44438577055127
      ],
      [
        "Ġreforma",
        -9.445462091369356
      ],
      [
        "ĠprÃ¡tica",
        -9.446917660916313
      ],
      [
        "anÃ¡lise",
        -9.448203716270964
      ],
      [
        "ĠreuniÃ£o",
        -9.448247338126375
      ],
      [
        "ĠÃºltima",
        -9.449680076508864
      ],
      [
        "Ġcampo",
        -9.45072187485498
      ],
      [
        "ĠAssim",
        -9.451514361713254
      ],
      [
        "ago",
        -9.451547297527645
      ],
      [
        "ĠPrograma",
        -9.451797874911154
      ],
      [
        "ĠmÃ£e",
        -9.452842232581514
      ],
      [
        "Ġnoite",
        -9.453146061310074
      ],
      [
        "ĠLula",
        -9.454682549039571
      ],
      [
        "elo",
        -9.455227230112472
      ],
      [
        "tina",
        -9.455639557950098
      ],
      [
        "Ġmuitas",
        -9.45566061749704
      ],
      [
        "ĠParecer",
        -9.457648754998338
      ],
      [
        "ĠLÃŃder",
        -9.458727873511933
      ],
      [
        "somente",
        -9.45928725121326
      ],
      [
        "iva",
        -9.459933239550196
      ],
      [
        "redaÃ§Ã£o",
        -9.461137282984826
      ],
      [
        "entanto",
        -9.461877493048853
      ],
      [
        "96",
        -9.462851155891602
      ],
      [
        "Ġsuperior",
        -9.4639117750026
      ],
      [
        "ĠNi",
        -9.46427157782114
      ],
      [
        "ice",
        -9.464922527235448
      ],
      [
        "ĠLegislativo",
        -9.465648076581251
      ],
      [
        "ĠTi",
        -9.466426995336052
      ],
      [
        "dado",
        -9.467123255099269
      ],
      [
        "Ġregime",
        -9.46729440934672
      ],
      [
        "Ġhomem",
        -9.467677973756253
      ],
      [
        "ĠparticipaÃ§Ã£o",
        -9.468107543968296
      ],
      [
        "ĠPÃºblica",
        -9.468756288259735
      ],
      [
        "ĠBar",
        -9.46900967837339
      ],
      [
        "net",
        -9.470527200475995
      ],
      [
        "BA",
        -9.471085732241
      ],
      [
        "27",
        -9.472195456989454
      ],
      [
        "ĠThe",
        -9.47324825634358
      ],
      [
        "26",
        -9.473711531887998
      ],
      [
        "Ġqu",
        -9.475226890100048
      ],
      [
        "Ġproduto",
        -9.476890481872486
      ],
      [
        "Ġcontrole",
        -9.478061516923956
      ],
      [
        "Ġoficial",
        -9.478425556086018
      ],
      [
        "Ġtarde",
        -9.478957911075437
      ],
      [
        "ĠcrÃ©dito",
        -9.479634241578394
      ],
      [
        "Ġlongo",
        -9.4798002431198
      ],
      [
        "ĠPE",
        -9.47994906127662
      ],
      [
        "ĠFernando",
        -9.481453441566655
      ],
      [
        "OR",
        -9.481562279908276
      ],
      [
        "Ġsetor",
        -9.48439877982196
      ],
      [
        "Ġgra",
        -9.484883734105493
      ],
      [
        "Ġgrandes",
        -9.485671396581289
      ],
      [
        "2012",
        -9.486419045026778
      ],
      [
        "Ġ100",
        -9.487282574039902
      ],
      [
        "ĠSÃ³",
        -9.488229591070706
      ],
      [
        "ega",
        -9.488486590394052
      ],
      [
        "ĠAssociaÃ§Ã£o",
        -9.4901301603042
      ],
      [
        "ĠCOM",
        -9.492380614447836
      ],
      [
        "mas",
        -9.492660953740756
      ],
      [
        "ĠRoberto",
        -9.492784004443408
      ],
      [
        "ĠHi",
        -9.492927661788872
      ],
      [
        "ĠWi",
        -9.493012197872437
      ],
      [
        "ĠlegislaÃ§Ã£o",
        -9.493489412343356
      ],
      [
        "2016",
        -9.494817619428275
      ],
      [
        "ĠTrabalho",
        -9.49488483351185
      ],
      [
        "ĠDes",
        -9.49529905443172
      ],
      [
        "ĠPl",
        -9.49749829902755
      ],
      [
        "EIRA",
        -9.497865561256546
      ],
      [
        "Ġacho",
        -9.498135934690373
      ],
      [
        "tando",
        -9.498372064833593
      ],
      [
        "Ġjulgamento",
        -9.49921676744622
      ],
      [
        "Ġsaber",
        -9.50146201818822
      ],
      [
        "emos",
        -9.50193628653744
      ],
      [
        "Ġcontrato",
        -9.503165329028793
      ],
      [
        "Ġpreciso",
        -9.503946157207396
      ],
      [
        "ĠpublicaÃ§Ã£o",
        -9.504045477079096
      ],
      [
        "IO",
        -9.504594059103722
      ],
      [
        "IM",
        -9.506630838843286
      ],
      [
        "Ġfeita",
        -9.507188755580636
      ],
      [
        "passou",
        -9.50784350027013
      ],
      [
        "ĠMaia",
        -9.509164848745376
      ],
      [
        "Ġinc",
        -9.510234688803516
      ],
      [
        "Ġessas",
        -9.511932601953404
      ],
      [
        "Ġbrasileiros",
        -9.512117233437165
      ],
      [
        "Ġformula",
        -9.51421268274244
      ],
      [
        "ĠBem",
        -9.5144567492636
      ],
      [
        "Ġdez",
        -9.515231540641777
      ],
      [
        "relatÃ³rio",
        -9.515282009922792
      ],
      [
        "ĠextraordinÃ¡rio",
        -9.51730414539274
      ],
      [
        "Ġprova",
        -9.517557093191195
      ],
      [
        "vel",
        -9.51860198147655
      ],
      [
        "90",
        -9.519777846518252
      ],
      [
        "NT",
        -9.52005405001863
      ],
      [
        "46",
        -9.52171872758396
      ],
      [
        "vis",
        -9.522236970876572
      ],
      [
        "Ġconstante",
        -9.525551650835968
      ],
      [
        "24",
        -9.527120411583034
      ],
      [
        "Ġenergia",
        -9.527608595934469
      ],
      [
        "conjunto",
        -9.528006782576114
      ],
      [
        "realizaÃ§Ã£o",
        -9.528147660547235
      ],
      [
        "nico",
        -9.528239784052245
      ],
      [
        "mulheres",
        -9.5288965971451
      ],
      [
        "ĠconstruÃ§Ã£o",
        -9.529697495981688
      ],
      [
        "mÃŃnimo",
        -9.530723829469746
      ],
      [
        "ĠCor",
        -9.531617704107743
      ],
      [
        "ĠespÃ©cie",
        -9.532538290658136
      ],
      [
        "ĠPortugal",
        -9.53321799936504
      ],
      [
        "ong",
        -9.534119773032517
      ],
      [
        "Ġpossui",
        -9.535672807606876
      ],
      [
        "Ġhora",
        -9.535834614165571
      ],
      [
        "land",
        -9.53585448641581
      ],
      [
        "her",
        -9.535983989900576
      ],
      [
        "01",
        -9.538947487338357
      ],
      [
        "Ġmaneira",
        -9.53912906007846
      ],
      [
        "2014",
        -9.539214287680917
      ],
      [
        "ĠMarco",
        -9.539810989432896
      ],
      [
        "ĠcrianÃ§as",
        -9.539839584532409
      ],
      [
        "23",
        -9.54073418431928
      ],
      [
        "ĠÃ¡lbum",
        -9.540883652423878
      ],
      [
        "ĠdiscussÃ£o",
        -9.542163547966116
      ],
      [
        "poderÃ¡",
        -9.543628641593417
      ],
      [
        "vÃ¡rias",
        -9.543658787425198
      ],
      [
        "ĠSan",
        -9.543890242321549
      ],
      [
        "economia",
        -9.544089981369554
      ],
      [
        "ĠediÃ§Ã£o",
        -9.544470967704616
      ],
      [
        "Ġdebate",
        -9.544756235272873
      ],
      [
        "Ġparece",
        -9.544838732736409
      ],
      [
        "tec",
        -9.545070014939936
      ],
      [
        "ologia",
        -9.5452400493142
      ],
      [
        "ĠnecessÃ¡rio",
        -9.545992111800617
      ],
      [
        "Ġtal",
        -9.54612328581544
      ],
      [
        "ĠMinas",
        -9.546295023514094
      ],
      [
        "Partido",
        -9.546508935189973
      ],
      [
        "lan",
        -9.546942819993
      ],
      [
        "ĠBr",
        -9.547172925708823
      ],
      [
        "ĠMesa",
        -9.5478767752313
      ],
      [
        "Ġvir",
        -9.547987926593168
      ],
      [
        "Ġfrente",
        -9.548279520123284
      ],
      [
        "ĠDEM",
        -9.549519438847016
      ],
      [
        "Ġ54",
        -9.549970692428548
      ],
      [
        "Ġassunto",
        -9.550450077046976
      ],
      [
        "Ġprincipalmente",
        -9.550501087071051
      ],
      [
        "Ġchamado",
        -9.551100438518016
      ],
      [
        "possibilidade",
        -9.551819339424686
      ],
      [
        "legislativa",
        -9.553347166706054
      ],
      [
        "Ġpar",
        -9.55357018575942
      ],
      [
        "ĠEstou",
        -9.554124285465411
      ],
      [
        "â",
        -9.554243807019327
      ],
      [
        "Ġlinha",
        -9.554832174209135
      ],
      [
        "IA",
        -9.556117232533117
      ],
      [
        "ĠRi",
        -9.556422350119815
      ],
      [
        "Í",
        -9.5567151925532
      ],
      [
        "ĠDesenvolvimento",
        -9.557441631282057
      ],
      [
        "ĠTr",
        -9.557822337741534
      ],
      [
        "ĠespaÃ§o",
        -9.55811995575584
      ],
      [
        "Ġpapel",
        -9.55826173712688
      ],
      [
        "Ġfica",
        -9.559591779096037
      ],
      [
        "Ġforte",
        -9.559594967254895
      ],
      [
        "Ġmuitos",
        -9.56043698499926
      ],
      [
        "sim",
        -9.560481123861612
      ],
      [
        "Ġestrutura",
        -9.561648907403107
      ],
      [
        "ĠFrancisco",
        -9.562053447438728
      ],
      [
        "ĠNorte",
        -9.562060655986445
      ],
      [
        "ĠAb",
        -9.562379598634449
      ],
      [
        "ĠvÃ£o",
        -9.562735926825956
      ],
      [
        "Ġcorpo",
        -9.56304388824784
      ],
      [
        "\")",
        -9.563055221715771
      ],
      [
        "ĠCO",
        -9.564967719528738
      ],
      [
        "Ġ40",
        -9.565565140116444
      ],
      [
        "presenÃ§a",
        -9.567851325375246
      ],
      [
        "ĠDJ",
        -9.568227061646295
      ],
      [
        "reais",
        -9.568431894476436
      ],
      [
        "ĠPode",
        -9.571212960147037
      ],
      [
        "Ġreal",
        -9.571867150823753
      ],
      [
        "ĠSP",
        -9.572055460313797
      ],
      [
        "Ġcapital",
        -9.572096498034686
      ],
      [
        "Ġapresenta",
        -9.57227288845524
      ],
      [
        "Ġhouve",
        -9.572662088759508
      ],
      [
        "Ġ32",
        -9.572833083527833
      ],
      [
        "Ġ33",
        -9.57305447024993
      ],
      [
        "ĠIV",
        -9.573784834664377
      ],
      [
        "Ġproblemas",
        -9.57407368415428
      ],
      [
        "Ġterra",
        -9.57451457171559
      ],
      [
        "ĠAG",
        -9.575918312416404
      ],
      [
        "Ġbanda",
        -9.580554364210917
      ],
      [
        "atividades",
        -9.58059529380192
      ],
      [
        "ell",
        -9.581453813320037
      ],
      [
        "concessÃ£o",
        -9.581659444113564
      ],
      [
        "dÃ©cada",
        -9.581870932630167
      ],
      [
        "zada",
        -9.581937703143492
      ],
      [
        "#",
        -9.582501211738178
      ],
      [
        "MunicÃŃpios",
        -9.585133224248862
      ],
      [
        "Ġconhecimento",
        -9.585206726294414
      ],
      [
        "Ġlhe",
        -9.58535353769262
      ],
      [
        "Ġprofessor",
        -9.585643477931969
      ],
      [
        "Ġalguma",
        -9.586291437037744
      ],
      [
        "prÃ³ximo",
        -9.586910969485578
      ],
      [
        "aprovado",
        -9.587476988260066
      ],
      [
        "rin",
        -9.587705367438955
      ],
      [
        "Ġposso",
        -9.58813639571873
      ],
      [
        "sejam",
        -9.588635473659645
      ],
      [
        "cado",
        -9.58877562140766
      ],
      [
        "tel",
        -9.589052674327805
      ],
      [
        "execuÃ§Ã£o",
        -9.589388641564868
      ],
      [
        "zado",
        -9.589843993477196
      ],
      [
        "Ġencontra",
        -9.590818448677773
      ],
      [
        "Ġbusca",
        -9.591783006496916
      ],
      [
        "Ġembora",
        -9.594747424656385
      ],
      [
        "press",
        -9.594885231493688
      ],
      [
        "Ġcoisas",
        -9.594994632826362
      ],
      [
        "ĠRIC",
        -9.595164771940864
      ],
      [
        "responsabilidade",
        -9.597223409599954
      ],
      [
        "Ġlivro",
        -9.599088953309211
      ],
      [
        "Ġoportunidade",
        -9.599225694230066
      ],
      [
        "Ġpassado",
        -9.59939928732268
      ],
      [
        "Ġdeveria",
        -9.599541529627084
      ],
      [
        "COMISSÃĥO",
        -9.600809257099984
      ],
      [
        "Ġ2017",
        -9.600880644876224
      ],
      [
        "ĠCam",
        -9.60135605251609
      ],
      [
        "ment",
        -9.602886880756802
      ],
      [
        "ĠFl",
        -9.606830707862873
      ],
      [
        "ĠcompetÃªncia",
        -9.607621240504916
      ],
      [
        "Ġ:)",
        -9.60772790584391
      ],
      [
        "ĠfunÃ§Ã£o",
        -9.607771643899138
      ],
      [
        "FI",
        -9.607862060496087
      ],
      [
        "Ġalgum",
        -9.6098380812929
      ],
      [
        "ĠimportÃ¢ncia",
        -9.611028578354263
      ],
      [
        "Ã¡ria",
        -9.611139465528606
      ],
      [
        "dade",
        -9.61148499564091
      ],
      [
        "ĠmÃ©dia",
        -9.612460551875987
      ],
      [
        "ĠApÃ³s",
        -9.613448501741544
      ],
      [
        "Distrito",
        -9.613500008749714
      ],
      [
        "ĠSeu",
        -9.615283953905564
      ],
      [
        "enti",
        -9.61643818677306
      ],
      [
        "previsto",
        -9.61820896559545
      ],
      [
        "ĠAntonio",
        -9.618223109753142
      ],
      [
        "RECURSO",
        -9.618327611510985
      ],
      [
        "Defesa",
        -9.619827256223088
      ],
      [
        "ĠCivil",
        -9.621331630406374
      ],
      [
        "Ġmulher",
        -9.62172192234294
      ],
      [
        "Ġrepresenta",
        -9.62182375909554
      ],
      [
        "disposto",
        -9.621900440576264
      ],
      [
        "gado",
        -9.622201362217206
      ],
      [
        "ĠEst",
        -9.623496622494462
      ],
      [
        "ĠCol",
        -9.623542365440835
      ],
      [
        "&",
        -9.624210147598935
      ],
      [
        "22",
        -9.624549542970431
      ],
      [
        "Ġajuda",
        -9.625029254266018
      ],
      [
        "zer",
        -9.626976669434136
      ],
      [
        "*",
        -9.627574111619989
      ],
      [
        "portanto",
        -9.627603417607864
      ],
      [
        "Ġlista",
        -9.629092883085232
      ],
      [
        "):",
        -9.629121978877318
      ],
      [
        "Ģ",
        -9.630615989597882
      ],
      [
        "ĠBen",
        -9.630761752136156
      ],
      [
        "gan",
        -9.631600743824311
      ],
      [
        "cÃ³rdÃ£o",
        -9.632078527500257
      ],
      [
        "discussÃ£o",
        -9.632610056910613
      ],
      [
        "nada",
        -9.63354376789358
      ],
      [
        "sociais",
        -9.634300880004185
      ],
      [
        "ĠEMENDA",
        -9.634528702001932
      ],
      [
        "Ġtema",
        -9.63626681663936
      ],
      [
        "Presidente",
        -9.636818644844029
      ],
      [
        "Ġgente",
        -9.6382905839494
      ],
      [
        "Ġmodelo",
        -9.638642238373038
      ],
      [
        "Ġqueria",
        -9.638771271714935
      ],
      [
        "Ġescola",
        -9.639233297429776
      ],
      [
        "Geral",
        -9.640270907848484
      ],
      [
        "ĠTecnologia",
        -9.640978582319578
      ],
      [
        "Ġali",
        -9.641672512087316
      ],
      [
        "Â",
        -9.642472475275165
      ],
      [
        "Ġ1990",
        -9.644816315647567
      ],
      [
        "Ġpessoal",
        -9.64660747798338
      ],
      [
        "Ġ2020",
        -9.646862356115625
      ],
      [
        "ĠmudanÃ§a",
        -9.647175607277386
      ],
      [
        "Ġsolicita",
        -9.64791789164069
      ],
      [
        "risco",
        -9.648311451281474
      ],
      [
        "mÃªs",
        -9.64861485127441
      ],
      [
        "GO",
        -9.64862253423832
      ],
      [
        "laÃ§Ã£o",
        -9.649042914808293
      ],
      [
        "rÃ£o",
        -9.64978304924464
      ],
      [
        "Ġdar",
        -9.650496174325918
      ],
      [
        "ĠPrimeira",
        -9.653203892837178
      ],
      [
        "Ġbo",
        -9.65327085650282
      ],
      [
        "Ġ2002",
        -9.65403667354047
      ],
      [
        "exame",
        -9.654217600562934
      ],
      [
        "Â²",
        -9.654492006744858
      ],
      [
        "iniciativa",
        -9.654518055446228
      ],
      [
        "ĠSal",
        -9.654879867754898
      ],
      [
        "Ġlogo",
        -9.654941150096771
      ],
      [
        "Ġvia",
        -9.655195475419246
      ],
      [
        "Ġmarca",
        -9.655499263805538
      ],
      [
        "ĠComunicaÃ§Ã£o",
        -9.655572364530864
      ],
      [
        "DEM",
        -9.65588538699218
      ],
      [
        "podemos",
        -9.655976737410496
      ],
      [
        "ĠinglÃªs",
        -9.656905467484796
      ],
      [
        "ĠPar",
        -9.658188861457996
      ],
      [
        "ServiÃ§o",
        -9.658209143172568
      ],
      [
        "ĠVice",
        -9.659010540949993
      ],
      [
        "ĠBrasileiro",
        -9.659983545681069
      ],
      [
        "Ġnenhum",
        -9.660677280655143
      ],
      [
        "Ġentra",
        -9.660843343126787
      ],
      [
        "2005",
        -9.661208383818066
      ],
      [
        "Ġ2019",
        -9.661306737534304
      ],
      [
        "ias",
        -9.661427642378438
      ],
      [
        "Campeonato",
        -9.662015087899627
      ],
      [
        "Ġficou",
        -9.665107264295155
      ],
      [
        "prevista",
        -9.665857793919074
      ],
      [
        "nessa",
        -9.66684013644937
      ],
      [
        "ĠREQUERIMENTO",
        -9.666859245363536
      ],
      [
        "carreira",
        -9.6678897059318
      ],
      [
        "isto",
        -9.667897766623692
      ],
      [
        "ã",
        -9.668628153052223
      ],
      [
        "cionais",
        -9.669170160503086
      ],
      [
        "ĠpÃ¡gina",
        -9.66982493255452
      ],
      [
        "ĠCorte",
        -9.66989741991998
      ],
      [
        "Ã¡veis",
        -9.669978427484246
      ],
      [
        "membros",
        -9.670784257513754
      ],
      [
        "mÃ©rito",
        -9.67097629549542
      ],
      [
        "ĠObrigado",
        -9.671520098718196
      ],
      [
        "ley",
        -9.672361261071222
      ],
      [
        "ĠprincÃŃpio",
        -9.672778676859265
      ],
      [
        "Ġefeito",
        -9.674133202967717
      ],
      [
        "ĠGi",
        -9.676543656054909
      ],
      [
        "Ġprofissional",
        -9.676774487303271
      ],
      [
        "Ġtemporada",
        -9.678508850134582
      ],
      [
        "ĠInstituto",
        -9.67891283345132
      ],
      [
        "Ġexiste",
        -9.680407452324475
      ],
      [
        "gem",
        -9.681147552198563
      ],
      [
        "jurÃŃdica",
        -9.682509693655897
      ],
      [
        "bilhÃµes",
        -9.682933295920312
      ],
      [
        "ĠCan",
        -9.682991667095584
      ],
      [
        "discurso",
        -9.68325370485463
      ],
      [
        "Ġsenhor",
        -9.683386662299984
      ],
      [
        "ĠAmÃ©rica",
        -9.683660698028197
      ],
      [
        "Ġanterior",
        -9.685344595131507
      ],
      [
        "ĠExcelÃªncia",
        -9.686118750694604
      ],
      [
        "nica",
        -9.686415885131233
      ],
      [
        "80",
        -9.686480842032704
      ],
      [
        "ĠCosta",
        -9.687061856387908
      ],
      [
        "Ã¢mbito",
        -9.687956684339008
      ],
      [
        "TambÃ©m",
        -9.68832176214279
      ],
      [
        "Ġvigor",
        -9.6892587879296
      ],
      [
        "tornou",
        -9.6900367545807
      ],
      [
        "60",
        -9.690161113053826
      ],
      [
        "requer",
        -9.690760876511945
      ],
      [
        "obras",
        -9.690872685155984
      ],
      [
        "Ġ2000",
        -9.691467014770131
      ],
      [
        "2019",
        -9.691899569560958
      ],
      [
        "ĠCunha",
        -9.693241159597884
      ],
      [
        "Ġrei",
        -9.69352897459098
      ],
      [
        "ĠCh",
        -9.693645311144964
      ],
      [
        "Ġcampanha",
        -9.69364535475035
      ],
      [
        "posiÃ§Ãµes",
        -9.694030009064376
      ],
      [
        "mandato",
        -9.69419908300396
      ],
      [
        "Ġpauta",
        -9.694585633030382
      ],
      [
        "serem",
        -9.69531558075125
      ],
      [
        "ĠRel",
        -9.695405048601998
      ],
      [
        "ĠRequerimento",
        -9.695540725467794
      ],
      [
        "Ġchegar",
        -9.696094702640128
      ],
      [
        "Ġcerteza",
        -9.698556673264225
      ],
      [
        "comeÃ§ou",
        -9.69955271657013
      ],
      [
        "ĠquÃª",
        -9.70044301177492
      ],
      [
        "Ġtransporte",
        -9.70081903320069
      ],
      [
        "MENTO",
        -9.700867939288468
      ],
      [
        "Ġteria",
        -9.701036095314509
      ],
      [
        "tic",
        -9.701059883374809
      ],
      [
        "ĠCON",
        -9.701193498078531
      ],
      [
        "Ġtitular",
        -9.703191441693466
      ],
      [
        "Depois",
        -9.70328330236832
      ],
      [
        "Ġsuper",
        -9.703674482595703
      ],
      [
        "Ġprojetos",
        -9.705247424814722
      ],
      [
        "vida",
        -9.706260274234603
      ],
      [
        "ÃļLTI",
        -9.706641891949708
      ],
      [
        "Ġfederal",
        -9.707534758911049
      ],
      [
        "Ġhaver",
        -9.707601251788166
      ],
      [
        "Ġresultado",
        -9.707715271154717
      ],
      [
        "Ġalta",
        -9.707774239233764
      ],
      [
        "Ġoriginal",
        -9.707803910769131
      ],
      [
        "Ġcentro",
        -9.708671493343772
      ],
      [
        "Ġinfra",
        -9.70869664724917
      ],
      [
        "Ġsede",
        -9.70875423224197
      ],
      [
        "ĠGuerra",
        -9.708847950427325
      ],
      [
        "cap",
        -9.709039103429149
      ],
      [
        "valores",
        -9.70953959454634
      ],
      [
        "econÃ´mica",
        -9.71011899870012
      ],
      [
        "ĠaplicaÃ§Ã£o",
        -9.710967990142471
      ],
      [
        "ĠalguÃ©m",
        -9.711007004764909
      ],
      [
        "Ġ2001",
        -9.711630923655994
      ],
      [
        "Ã¼",
        -9.712757042437108
      ],
      [
        "Ġrealizado",
        -9.71325523276718
      ],
      [
        "Ã§",
        -9.713938320864612
      ],
      [
        "ĠterritÃ³rio",
        -9.714157357730816
      ],
      [
        "iana",
        -9.715127937631282
      ],
      [
        "Ġprincipais",
        -9.71571761765676
      ],
      [
        "enda",
        -9.715718431207566
      ],
      [
        "Ġaquele",
        -9.716151220039746
      ],
      [
        "ĠCopa",
        -9.716386474911
      ],
      [
        "Ġfo",
        -9.716503615716867
      ],
      [
        "ĠSecretaria",
        -9.717653407313982
      ],
      [
        "Ġsal",
        -9.718033569406025
      ],
      [
        "pÃ©",
        -9.718311575187256
      ],
      [
        "ego",
        -9.719574546767738
      ],
      [
        "ÃĩÃķES",
        -9.720944419867148
      ],
      [
        "ĠRos",
        -9.72114147001017
      ],
      [
        "Ġmovimento",
        -9.721460602863266
      ],
      [
        "ĠRu",
        -9.721916190630608
      ],
      [
        "CN",
        -9.723055470533852
      ],
      [
        "ilha",
        -9.723234393402356
      ],
      [
        "Ã³rgÃ£o",
        -9.723774676004307
      ],
      [
        "Î",
        -9.7239346655987
      ],
      [
        "CURSO",
        -9.724467268607793
      ],
      [
        "Ġclaro",
        -9.72507294194952
      ],
      [
        "ĠEspecial",
        -9.725575821572992
      ],
      [
        "nÃ£o",
        -9.725913898784066
      ],
      [
        "Ġrenda",
        -9.7263162157336
      ],
      [
        "comunicaÃ§Ã£o",
        -9.726811928511031
      ],
      [
        "Ġnobre",
        -9.726973297379354
      ],
      [
        "Ġautos",
        -9.727193273697184
      ],
      [
        "Ġocorre",
        -9.727517540975915
      ],
      [
        "Ġperde",
        -9.72757511754242
      ],
      [
        "2017",
        -9.728927195111623
      ],
      [
        "ĠinformaÃ§Ã£o",
        -9.728993405447303
      ],
      [
        "ĠTV",
        -9.729143302496594
      ],
      [
        "van",
        -9.729185092953642
      ],
      [
        "Ġideia",
        -9.730091926721624
      ],
      [
        "Ġconsiderado",
        -9.732504830864556
      ],
      [
        "Ġcrise",
        -9.732710818869664
      ],
      [
        "Ġauto",
        -9.733345660530636
      ],
      [
        "21",
        -9.734249736437905
      ],
      [
        "Ġnatureza",
        -9.73573047407985
      ],
      [
        "Ġrefere",
        -9.735797394555886
      ],
      [
        "deverÃ¡",
        -9.738323040655835
      ],
      [
        "Ġpontos",
        -9.738391016544654
      ],
      [
        "apreciaÃ§Ã£o",
        -9.739101044142208
      ],
      [
        "Ġturno",
        -9.740858348031743
      ],
      [
        "..............",
        -9.741134804021728
      ],
      [
        "Ġfase",
        -9.741135725052397
      ],
      [
        "culo",
        -9.741338293245358
      ],
      [
        "Ġins",
        -9.74306687873922
      ],
      [
        "ĠTra",
        -9.746703706700815
      ],
      [
        "Ġlivre",
        -9.747196039184496
      ],
      [
        "ĠatenÃ§Ã£o",
        -9.747332850860753
      ],
      [
        "ĠMIN",
        -9.747742307654152
      ],
      [
        "ĠQuero",
        -9.749521165236487
      ],
      [
        "provimento",
        -9.752338547363513
      ],
      [
        "ĠQuem",
        -9.75398583578888
      ],
      [
        "dora",
        -9.754095456510766
      ],
      [
        "Ordem",
        -9.754454444976169
      ],
      [
        "ĠRicardo",
        -9.754739277923196
      ],
      [
        "ĠEles",
        -9.75538314756176
      ],
      [
        "chegou",
        -9.756663475577303
      ],
      [
        "ĠPI",
        -9.756918342156712
      ],
      [
        "ĠPr",
        -9.757073299175074
      ],
      [
        "Ġ1998",
        -9.76056236195309
      ],
      [
        "70",
        -9.760673019430778
      ],
      [
        "plan",
        -9.76069657932803
      ],
      [
        "ĠSistema",
        -9.76167231915801
      ],
      [
        "Ġautoria",
        -9.76244729328428
      ],
      [
        "ĠAlves",
        -9.76253450033952
      ],
      [
        "essÃµes",
        -9.762666107488904
      ],
      [
        "Ġsucesso",
        -9.764175873337772
      ],
      [
        "ĠSanto",
        -9.76428540276567
      ],
      [
        "Ġdiferentes",
        -9.765365202015987
      ],
      [
        "Ġafirma",
        -9.76604909108577
      ],
      [
        "Ġcaput",
        -9.766205070286622
      ],
      [
        "ĠHenrique",
        -9.767315682184948
      ],
      [
        "existÃªncia",
        -9.76743506704782
      ],
      [
        "Ġ2018",
        -9.768520997153706
      ],
      [
        "ĠMINISTR",
        -9.769339667072636
      ],
      [
        "ĠAGRAV",
        -9.769357112089528
      ],
      [
        "Ġ60",
        -9.769400293329722
      ],
      [
        "Ġguerra",
        -9.769648491116568
      ],
      [
        "Ġrede",
        -9.7697271592222
      ],
      [
        "ĠSub",
        -9.771144060457832
      ],
      [
        "Ġrel",
        -9.771516113307474
      ],
      [
        "ĠOh",
        -9.773394442830964
      ],
      [
        "Ġpenal",
        -9.773461972628674
      ],
      [
        "ĠPereira",
        -9.773465779815457
      ],
      [
        "Ġcivil",
        -9.777497694361871
      ],
      [
        "Ġcriar",
        -9.77879019648446
      ],
      [
        "ĠSantos",
        -9.780216920756049
      ],
      [
        "Ġreco",
        -9.780606085900832
      ],
      [
        "idades",
        -9.78310562589258
      ],
      [
        "ĠÃºnica",
        -9.783605807575023
      ],
      [
        "Ġmenor",
        -9.7840228393914
      ],
      [
        "ĠformaÃ§Ã£o",
        -9.784034394156786
      ],
      [
        "ĠDias",
        -9.78411999188737
      ],
      [
        "remos",
        -9.784487195664235
      ],
      [
        "ĠEl",
        -9.78496021423823
      ],
      [
        "rica",
        -9.785247434105656
      ],
      [
        "acima",
        -9.785409626511743
      ],
      [
        "Cidadania",
        -9.785701318599962
      ],
      [
        "Ġseis",
        -9.786108961506503
      ],
      [
        "ara",
        -9.786525762393447
      ],
      [
        "dar",
        -9.787123225813232
      ],
      [
        "Ġfinanceira",
        -9.788269644480865
      ],
      [
        "REG",
        -9.788755361398998
      ],
      [
        "ĠDireito",
        -9.78998777946061
      ],
      [
        "ĠMais",
        -9.790000097652964
      ],
      [
        "PolÃŃcia",
        -9.790060067799145
      ],
      [
        "Ġfiscal",
        -9.790410963344408
      ],
      [
        "Ġref",
        -9.79093648790452
      ],
      [
        "Ġsol",
        -9.791118305847087
      ],
      [
        "cujo",
        -9.79176831073897
      ],
      [
        "Ãį",
        -9.793010602865396
      ],
      [
        "Ġinternacional",
        -9.793035416382017
      ],
      [
        "Ġplano",
        -9.79340235963438
      ],
      [
        "iri",
        -9.793567717639425
      ],
      [
        "Ã³rgÃ£os",
        -9.794377880031734
      ],
      [
        "ĥ",
        -9.794484109867172
      ],
      [
        "Ġvisita",
        -9.795308773952089
      ],
      [
        "Ĥ",
        -9.795784837668394
      ],
      [
        "pensado",
        -9.798833163588032
      ],
      [
        "Ġcomunidade",
        -9.79904283691257
      ],
      [
        "Ġchega",
        -9.799164865032
      ],
      [
        "trabalhadores",
        -9.800319539955716
      ],
      [
        "ĠGra",
        -9.800385806216036
      ],
      [
        "2006",
        -9.800512403872398
      ],
      [
        "Ġsignifica",
        -9.80052235524414
      ],
      [
        "gestÃ£o",
        -9.801586985866116
      ],
      [
        "bert",
        -9.801721139575324
      ],
      [
        "ĠPorto",
        -9.802708659346171
      ],
      [
        "Medida",
        -9.803850880970296
      ],
      [
        "Ġ35",
        -9.804994277741436
      ],
      [
        "Ġnota",
        -9.805315301925186
      ],
      [
        "ĠSou",
        -9.805913810951948
      ],
      [
        "ĠVa",
        -9.806240748769545
      ],
      [
        "ĠmÃ£o",
        -9.806840716842602
      ],
      [
        "ĠBl",
        -9.806871195592342
      ],
      [
        "ĠreferÃªncia",
        -9.807318604178016
      ],
      [
        "destaque",
        -9.8081489658881
      ],
      [
        "ting",
        -9.80876635439298
      ],
      [
        "tados",
        -9.809000435085544
      ],
      [
        "ĠCE",
        -9.809560426791798
      ],
      [
        "Ġpri",
        -9.80956982337123
      ],
      [
        "ĠDilma",
        -9.80974808796157
      ],
      [
        "mediante",
        -9.809935238613315
      ],
      [
        "Ġautoriza",
        -9.81148622811854
      ],
      [
        "ĠParlamentar",
        -9.811803819388189
      ],
      [
        "ĠposiÃ§Ã£o",
        -9.812753677941668
      ],
      [
        "ĠVou",
        -9.814241391641287
      ],
      [
        "Ġcaminho",
        -9.814893278431096
      ],
      [
        "realmente",
        -9.815119476762035
      ],
      [
        "dura",
        -9.815271731165272
      ],
      [
        "ĠirmÃ£o",
        -9.815367530375482
      ],
      [
        "ĠinstituiÃ§Ãµes",
        -9.815509382309008
      ],
      [
        "leg",
        -9.817404570663426
      ],
      [
        "recebeu",
        -9.818221120423416
      ],
      [
        "ĠHer",
        -9.818430054260665
      ],
      [
        "ĠBanco",
        -9.818446919896015
      ],
      [
        "ĠFu",
        -9.819556736973324
      ],
      [
        "Ġatendimento",
        -9.819929987928266
      ],
      [
        "PP",
        -9.820758692518812
      ],
      [
        "contrÃ¡rio",
        -9.820886315188597
      ],
      [
        "parÃ¡grafo",
        -9.822544959400425
      ],
      [
        "cuja",
        -9.823640227637595
      ],
      [
        "Ġpequeno",
        -9.823678337790898
      ],
      [
        "ĠPSD",
        -9.826594035475226
      ],
      [
        "ĠMato",
        -9.82738439160856
      ],
      [
        "ĠEra",
        -9.828030325883647
      ],
      [
        "ĠNesse",
        -9.82937435528044
      ],
      [
        "IDADE",
        -9.829517345934033
      ],
      [
        "ĠSol",
        -9.830435704863476
      ],
      [
        "Ġporta",
        -9.830692562477768
      ],
      [
        "ĠDis",
        -9.831739309005137
      ],
      [
        "category",
        -9.832189597581037
      ],
      [
        "ĠHistÃ³ria",
        -9.832350204618203
      ],
      [
        "Ġsul",
        -9.83235370278724
      ],
      [
        "Ġdesses",
        -9.83339840920724
      ],
      [
        "ĠEntre",
        -9.833650212638451
      ],
      [
        "eve",
        -9.83479244429104
      ],
      [
        "ĠMeu",
        -9.836031369603765
      ],
      [
        "gio",
        -9.836361097431466
      ],
      [
        "Ġclube",
        -9.836626394830205
      ],
      [
        "ĠNos",
        -9.836857265567
      ],
      [
        "Ġresposta",
        -9.837548273386158
      ],
      [
        "har",
        -9.83777069590912
      ],
      [
        "Ġmanter",
        -9.838511210814756
      ],
      [
        "Ġeleito",
        -9.83913155890714
      ],
      [
        "Ġcultura",
        -9.839267465640974
      ],
      [
        "ĠlanÃ§ado",
        -9.840369490206877
      ],
      [
        "critÃ©rio",
        -9.841095814928517
      ],
      [
        "ĠMarcelo",
        -9.842378317454928
      ],
      [
        "violÃªncia",
        -9.84291161465751
      ],
      [
        "ĠFundo",
        -9.844914515843522
      ],
      [
        "Gerais",
        -9.844954300583757
      ],
      [
        "ĠHu",
        -9.84517064724922
      ],
      [
        "tÃ³ria",
        -9.845363523941629
      ],
      [
        "Durante",
        -9.846331555021935
      ],
      [
        "Ġcapacidade",
        -9.84759284094128
      ],
      [
        "Ġmeta",
        -9.84807837038173
      ],
      [
        "Ġliberdade",
        -9.850150757435465
      ],
      [
        "lei",
        -9.85048351787312
      ],
      [
        "Ġreuni",
        -9.851633164363006
      ],
      [
        "preÃ§o",
        -9.852469643710885
      ],
      [
        "PAULO",
        -9.852473479883924
      ],
      [
        "Ġcriado",
        -9.852707049717717
      ],
      [
        "ĠRosa",
        -9.852891913535364
      ],
      [
        "ĠADV",
        -9.853160126606904
      ],
      [
        "ĠRÃ¡dio",
        -9.853564153866422
      ],
      [
        "Ġdela",
        -9.85396062871071
      ],
      [
        "Ġnovos",
        -9.854309851168304
      ],
      [
        "homens",
        -9.85592458137356
      ],
      [
        "ĠPRO",
        -9.856352364206376
      ],
      [
        "ĠBahia",
        -9.856858842948066
      ],
      [
        "ĠBR",
        -9.857106845280786
      ],
      [
        "Ġdisputa",
        -9.859199063996558
      ],
      [
        "Ġagr",
        -9.859426624638452
      ],
      [
        "ĠBrasileira",
        -9.85946282548326
      ],
      [
        "ty",
        -9.85996502384663
      ],
      [
        "Ġdiversos",
        -9.860796154793286
      ],
      [
        "Ġexecutar",
        -9.861462679239263
      ],
      [
        "ĠJorge",
        -9.86243002874365
      ],
      [
        "proteÃ§Ã£o",
        -9.86314361207019
      ],
      [
        "cido",
        -9.863180018401822
      ],
      [
        "ÃŃstica",
        -9.863225301421208
      ],
      [
        "ĠresponsÃ¡vel",
        -9.86440661738482
      ],
      [
        "Ġterceiro",
        -9.864439868571113
      ],
      [
        "Ġmaterial",
        -9.864627448605594
      ],
      [
        "Ġvotar",
        -9.864817065811463
      ],
      [
        "rico",
        -9.865751341456
      ],
      [
        "ĠLima",
        -9.8659314085773
      ],
      [
        "servidores",
        -9.86630982655596
      ],
      [
        "RS",
        -9.867924231329134
      ],
      [
        "ĠSENHOR",
        -9.86826549810687
      ],
      [
        "Ġincluindo",
        -9.868979694913063
      ],
      [
        "pressÃ£o",
        -9.86932992853747
      ],
      [
        "Ġchamada",
        -9.8696127982394
      ],
      [
        "Ġambiente",
        -9.869644610545782
      ],
      [
        "ĠAg",
        -9.869808154394928
      ],
      [
        "mentos",
        -9.870031377858352
      ],
      [
        "mir",
        -9.870084126606006
      ],
      [
        "ĠMundial",
        -9.870674939931115
      ],
      [
        "ProvisÃ³ria",
        -9.871959051789489
      ],
      [
        "maiores",
        -9.871990702087476
      ],
      [
        "Ġestudo",
        -9.872330595316653
      ],
      [
        "ĠAdministraÃ§Ã£o",
        -9.87373006414628
      ],
      [
        "wa",
        -9.874290557417714
      ],
      [
        "Ġhomenage",
        -9.87471256353047
      ],
      [
        "ssem",
        -9.874918500045368
      ],
      [
        "age",
        -9.8753005661198
      ],
      [
        "ĠBra",
        -9.87611215354334
      ],
      [
        "SOL",
        -9.8761309312195
      ],
      [
        "ĠKi",
        -9.876541104578404
      ],
      [
        "Ġapresentado",
        -9.877281034327638
      ],
      [
        "Ġquer",
        -9.878542317105024
      ],
      [
        "ĠGe",
        -9.878943247356377
      ],
      [
        "Ġtorna",
        -9.879334392367618
      ],
      [
        "Ġdiversas",
        -9.879634050269734
      ],
      [
        "devem",
        -9.880420955075214
      ],
      [
        "Ġmostra",
        -9.880747017063849
      ],
      [
        "Ġtrabalhos",
        -9.881252168993916
      ],
      [
        "Ġusar",
        -9.881536461325563
      ],
      [
        "org",
        -9.88217102043886
      ],
      [
        "Ġacha",
        -9.883187625105467
      ],
      [
        "Ainda",
        -9.883192309617534
      ],
      [
        "Ġprofissionais",
        -9.883505789818344
      ],
      [
        "Ġreceber",
        -9.883555176752235
      ],
      [
        "ĠInternacional",
        -9.88366991341116
      ],
      [
        "normas",
        -9.88373424556183
      ],
      [
        "ance",
        -9.8846821221612
      ],
      [
        "Ġamor",
        -9.885232635348093
      ],
      [
        "Of",
        -9.885336305263762
      ],
      [
        "Ġfiz",
        -9.885459950858552
      ],
      [
        "ĠâĢĺ",
        -9.885852583110417
      ],
      [
        "Ã¢ncia",
        -9.885907784209936
      ],
      [
        "tratamento",
        -9.886487859500976
      ],
      [
        "ĠMendes",
        -9.88691556122377
      ],
      [
        "produtos",
        -9.887116374953672
      ],
      [
        "Ġcabe",
        -9.887346765042366
      ],
      [
        "Ġamigo",
        -9.88758385088648
      ],
      [
        "ARDO",
        -9.888260416550947
      ],
      [
        "anti",
        -9.888731052115604
      ],
      [
        "ĠBA",
        -9.888934835175275
      ],
      [
        "Ġelas",
        -9.888962013185765
      ],
      [
        "ĠTudo",
        -9.890419380592949
      ],
      [
        "Ġcompra",
        -9.89094534705251
      ],
      [
        "gostaria",
        -9.891398949577203
      ],
      [
        "\",\"",
        -9.891489708689148
      ],
      [
        "ĠAta",
        -9.89158385744262
      ],
      [
        "onde",
        -9.892115956718104
      ],
      [
        "Ġartigos",
        -9.893896748364458
      ],
      [
        "Ġ1997",
        -9.894193220986256
      ],
      [
        "lÃ³gico",
        -9.894564650936124
      ],
      [
        "ģ",
        -9.8959364684142
      ],
      [
        "Ġautoridade",
        -9.8968675475981
      ],
      [
        "ĠeconÃ´mico",
        -9.89725221741218
      ],
      [
        "reduÃ§Ã£o",
        -9.898632671902554
      ],
      [
        "vendo",
        -9.899314295465343
      ],
      [
        "shi",
        -9.899573799469408
      ],
      [
        "Ġfins",
        -9.900658686342863
      ],
      [
        "PL",
        -9.90089878162986
      ],
      [
        "ĠLocal",
        -9.90144478334334
      ],
      [
        "ĠWe",
        -9.901865991127126
      ],
      [
        "Ġgarantia",
        -9.90370837740972
      ],
      [
        "PCdoB",
        -9.903996646720204
      ],
      [
        "RJ",
        -9.90462400164077
      ],
      [
        "Ġcumprimento",
        -9.90552442597044
      ],
      [
        "Ġdiretor",
        -9.905748989459273
      ],
      [
        "Ġcarro",
        -9.90616507383173
      ],
      [
        "medidas",
        -9.906702263627125
      ],
      [
        "Ġfundamental",
        -9.907436211417345
      ],
      [
        "2003",
        -9.907660405889992
      ],
      [
        "ĠVoss",
        -9.907747706761825
      ],
      [
        "Ġcorre",
        -9.9084552145795
      ],
      [
        "Ġfuturo",
        -9.90950300626741
      ],
      [
        "Ġevento",
        -9.9115104510417
      ],
      [
        "Ġ36",
        -9.91159270937787
      ],
      [
        "Lei",
        -9.912344215722918
      ],
      [
        "dig",
        -9.913616214591002
      ],
      [
        "ĠGovernador",
        -9.913713022858222
      ],
      [
        "Ġmuita",
        -9.91509698971575
      ],
      [
        "lidade",
        -9.916212041743233
      ],
      [
        "acrescenta",
        -9.917465414905545
      ],
      [
        "Ġcategoria",
        -9.917714946125448
      ],
      [
        "pronunciamento",
        -9.918041316065551
      ],
      [
        "Ġtaxa",
        -9.918330437710448
      ],
      [
        "Ġnenhuma",
        -9.918506072286313
      ],
      [
        "Ġnatural",
        -9.919225401000263
      ],
      [
        "Ġnego",
        -9.919441167798738
      ],
      [
        "Ġpassar",
        -9.919904136734356
      ],
      [
        "Ġapresentada",
        -9.920344472897536
      ],
      [
        "mont",
        -9.920490427326284
      ],
      [
        "fÃŃsica",
        -9.92077313076904
      ],
      [
        "ĠGen",
        -9.920948457835385
      ],
      [
        "Ġalto",
        -9.922939743669716
      ],
      [
        "Ġdispo",
        -9.922958145179354
      ],
      [
        "pur",
        -9.923264735511026
      ],
      [
        "Ġisto",
        -9.92629397204298
      ],
      [
        "Ġmilitar",
        -9.926532057001266
      ],
      [
        "ĠAcho",
        -9.926602351446617
      ],
      [
        "ĠAna",
        -9.927471680198453
      ],
      [
        "dÃºvida",
        -9.92785570030591
      ],
      [
        "ori",
        -9.92861019558371
      ],
      [
        "ung",
        -9.929155316581069
      ],
      [
        "tores",
        -9.929727299063082
      ],
      [
        "seguintes",
        -9.93025029060737
      ],
      [
        "Ġcontinua",
        -9.930964213366355
      ],
      [
        "ĠSuperior",
        -9.93105092194844
      ],
      [
        "substituiÃ§Ã£o",
        -9.932149097803158
      ],
      [
        "Ġdeles",
        -9.932680801448097
      ],
      [
        "Ġcrescimento",
        -9.93311113531506
      ],
      [
        "Ġinstrumento",
        -9.933813866201994
      ],
      [
        "RG",
        -9.934000627709231
      ],
      [
        "ĠCentro",
        -9.937204520657652
      ],
      [
        "Ġnovas",
        -9.938373355369912
      ],
      [
        "gia",
        -9.938536927057733
      ],
      [
        "pel",
        -9.939353171454243
      ],
      [
        "Ġapresentar",
        -9.939397218562592
      ],
      [
        "hipÃ³tese",
        -9.94027130921692
      ],
      [
        "Ġjornal",
        -9.940449779771315
      ],
      [
        "rito",
        -9.940779407938814
      ],
      [
        "Ġsonora",
        -9.9415467667136
      ],
      [
        "tido",
        -9.941724131832183
      ],
      [
        "gal",
        -9.942249542045795
      ],
      [
        "ĠPEC",
        -9.942600132367092
      ],
      [
        "Ġsimples",
        -9.944328767789678
      ],
      [
        "Ġnaquel",
        -9.944470753585788
      ],
      [
        "entidades",
        -9.945005204553343
      ],
      [
        "Ġcusto",
        -9.94541812462551
      ],
      [
        "ĠEXTRAORDINÃģRI",
        -9.945585619146236
      ],
      [
        "ĠVoto",
        -9.94567300475932
      ],
      [
        "ĠCal",
        -9.945736798009492
      ],
      [
        "ĠPmdbP",
        -9.947280250178377
      ],
      [
        "Ġajudar",
        -9.947845963341406
      ],
      [
        "Ġfundo",
        -9.948077051725605
      ],
      [
        "tecnologia",
        -9.948568822202567
      ],
      [
        "rios",
        -9.94882109632274
      ],
      [
        "Ãĵ",
        -9.948934827642203
      ],
      [
        "tia",
        -9.949152395470012
      ],
      [
        "Ġimposto",
        -9.949431220362172
      ],
      [
        "ĠAqui",
        -9.95032608986796
      ],
      [
        "ĠBel",
        -9.950341895911652
      ],
      [
        "GA",
        -9.950533467791704
      ],
      [
        "Ġdeixo",
        -9.951259748518762
      ],
      [
        "Ġmer",
        -9.95246898119815
      ],
      [
        "gente",
        -9.952729442399134
      ],
      [
        "audiÃªncia",
        -9.953162639152051
      ],
      [
        "RES",
        -9.95447363085056
      ],
      [
        "ĠvocÃªs",
        -9.956718382888392
      ],
      [
        "ĠIta",
        -9.956834928893006
      ],
      [
        "ĠCampos",
        -9.9580827385372
      ],
      [
        "Ġacaba",
        -9.95931182458547
      ],
      [
        "ĠTh",
        -9.960252357115907
      ],
      [
        "Ñ",
        -9.960656076924533
      ],
      [
        "Ġtribuna",
        -9.960814600561957
      ],
      [
        "ĠninguÃ©m",
        -9.960855591521009
      ],
      [
        "ĠBer",
        -9.961220790749808
      ],
      [
        "Ġconquista",
        -9.961673287918344
      ],
      [
        "Ġextra",
        -9.961771506610711
      ],
      [
        "Hoje",
        -9.962957580597278
      ],
      [
        "ĠRO",
        -9.963357966258574
      ],
      [
        "Ġdespes",
        -9.963603824945377
      ],
      [
        "ĠTodos",
        -9.96393711478547
      ],
      [
        "verÃ£o",
        -9.965489207197775
      ],
      [
        "vos",
        -9.966156922303352
      ],
      [
        "Ġconsegui",
        -9.966345907602692
      ],
      [
        "cida",
        -9.96656188854334
      ],
      [
        "ĠIgreja",
        -9.966921372009594
      ],
      [
        "Ġvisto",
        -9.967367318815151
      ],
      [
        "ĠLt",
        -9.967682088425995
      ],
      [
        "2004",
        -9.967804914453165
      ],
      [
        "Ġcria",
        -9.968412906358038
      ],
      [
        "CH",
        -9.968621166742665
      ],
      [
        "Ġdiante",
        -9.970354598754351
      ],
      [
        "ĠterÃ¡",
        -9.97090451116994
      ],
      [
        "lada",
        -9.971305433532324
      ],
      [
        "Ġfilhos",
        -9.97186173941311
      ],
      [
        "Ġ1999",
        -9.972012435473053
      ],
      [
        "Ġcontar",
        -9.972034682124583
      ],
      [
        "ĠadministraÃ§Ã£o",
        -9.972847619082314
      ],
      [
        "designado",
        -9.974330473718275
      ],
      [
        "ĠversÃ£o",
        -9.9748087793332
      ],
      [
        "Ġespecialmente",
        -9.97561305628641
      ],
      [
        "ĠFranÃ§a",
        -9.976291393256238
      ],
      [
        "Ġcombate",
        -9.977496684792252
      ],
      [
        "ĠAnex",
        -9.97760409301029
      ],
      [
        "ĠinstituiÃ§Ã£o",
        -9.978347843479812
      ],
      [
        "PFL",
        -9.978454612562937
      ],
      [
        "ĠSecretÃ¡rio",
        -9.97852486264112
      ],
      [
        "Ġestabelece",
        -9.97942325604004
      ],
      [
        "ĠCultura",
        -9.97989192465856
      ],
      [
        "ĠlÃŃngua",
        -9.980556907833048
      ],
      [
        "Ġnorma",
        -9.981196856168562
      ],
      [
        "by",
        -9.981245174945537
      ],
      [
        "Ġconhecida",
        -9.98150846979734
      ],
      [
        "juridicidade",
        -9.981721817302269
      ],
      [
        "stÃµes",
        -9.982615177114116
      ],
      [
        "Tenho",
        -9.983334238657685
      ],
      [
        "ĠMon",
        -9.983406021483214
      ],
      [
        "Ġfutebol",
        -9.983955085885706
      ],
      [
        "ĠSrÂª",
        -9.984445388105543
      ],
      [
        "ĠFEDERAL",
        -9.984611503578824
      ],
      [
        "AM",
        -9.98534057033602
      ],
      [
        "Ġimporta",
        -9.985884410314029
      ],
      [
        "Ġ37",
        -9.986075621701415
      ],
      [
        "ĠTemer",
        -9.986791985831378
      ],
      [
        "ĠRJ",
        -9.987961213067893
      ],
      [
        "NAL",
        -9.98950663192675
      ],
      [
        "ĠJÃºnior",
        -9.989748669805897
      ],
      [
        "URMA",
        -9.990055399280893
      ],
      [
        "Ġapre",
        -9.99007218639184
      ],
      [
        "ĠTerra",
        -9.99015032180751
      ],
      [
        "ĠSer",
        -9.991253913659197
      ],
      [
        "Ġtermo",
        -9.993174455096575
      ],
      [
        "ontem",
        -9.993224207718606
      ],
      [
        "ĠorganizaÃ§Ã£o",
        -9.993620956492046
      ],
      [
        "proposiÃ§Ã£o",
        -9.994186736208164
      ],
      [
        "Ġbastante",
        -9.994306835892562
      ],
      [
        "Ġrevista",
        -9.994391320764384
      ],
      [
        "bit",
        -9.995143133933
      ],
      [
        "Ġfilha",
        -9.995271844208991
      ],
      [
        "tenham",
        -9.995569235670818
      ],
      [
        "ĠBom",
        -9.995901086995964
      ],
      [
        "ĠRibeiro",
        -9.996979606912996
      ],
      [
        "Ġ55",
        -9.99698400970959
      ],
      [
        "Ġsair",
        -9.997163173947204
      ],
      [
        "ÃŃvel",
        -9.998215932735514
      ],
      [
        "Ġaprovada",
        -9.998751320155012
      ],
      [
        "comunitÃ¡ria",
        -9.998868439806236
      ],
      [
        "ham",
        -9.999140478775416
      ],
      [
        "Ġapro",
        -9.999200295306691
      ],
      [
        "Ġrecu",
        -9.999992689430597
      ],
      [
        "Ġpublicado",
        -10.000060203340448
      ],
      [
        "Ġvale",
        -10.000389838114884
      ],
      [
        "porÃ©",
        -10.000421275985614
      ],
      [
        "Ġrealidade",
        -10.001117086570586
      ],
      [
        "conteÃºdo",
        -10.001476657393347
      ],
      [
        "lida",
        -10.002155336914264
      ],
      [
        "Ġgarantir",
        -10.00247349969118
      ],
      [
        "ĠprÃ³xima",
        -10.002572213698713
      ],
      [
        "prisÃ£o",
        -10.002829042657597
      ],
      [
        "eza",
        -10.003097139045751
      ],
      [
        "afirmou",
        -10.003359362170505
      ],
      [
        "seguida",
        -10.003720376506784
      ],
      [
        "rÃ³",
        -10.004278055838087
      ],
      [
        "bancada",
        -10.004418363068766
      ],
      [
        "pÃºblicos",
        -10.00458646365574
      ],
      [
        "autorizaÃ§Ã£o",
        -10.006394445559078
      ],
      [
        "Ġpergunta",
        -10.006982614941002
      ],
      [
        "Ġ70",
        -10.007160205911736
      ],
      [
        "toria",
        -10.008030843995586
      ],
      [
        "Ġrecebe",
        -10.00829146904566
      ],
      [
        "Ġcurso",
        -10.0091091715759
      ],
      [
        "Ġnovamente",
        -10.009577876538726
      ],
      [
        "ĠDOS",
        -10.011320562182355
      ],
      [
        "han",
        -10.01151694611575
      ],
      [
        "tudo",
        -10.011892452624949
      ],
      [
        "Ġ53",
        -10.012463096090231
      ],
      [
        "Ġtrabalhar",
        -10.012548008755006
      ],
      [
        "jovens",
        -10.014387671819534
      ],
      [
        "aga",
        -10.01451231346868
      ],
      [
        "Ġclasse",
        -10.015921865686549
      ],
      [
        "ĠLÃºci",
        -10.016494208197336
      ],
      [
        "ĠJO",
        -10.01736554702412
      ],
      [
        "ĠSegunda",
        -10.017826451893797
      ],
      [
        "ÃŃcio",
        -10.017885002660744
      ],
      [
        "ĠTom",
        -10.018536743555376
      ],
      [
        "ĠJohn",
        -10.019008392253395
      ],
      [
        "ĠVale",
        -10.019202502621503
      ],
      [
        "atuaÃ§Ã£o",
        -10.01922831862754
      ],
      [
        "ĠRoma",
        -10.019342611563706
      ],
      [
        "Ġparticipar",
        -10.01934817633421
      ],
      [
        "âĢĳ",
        -10.020502927488646
      ],
      [
        "Ã¡rios",
        -10.021269051019416
      ],
      [
        "bia",
        -10.0218421226051
      ],
      [
        "ĠAprova",
        -10.022822063404858
      ],
      [
        "ĠInformÃ¡tica",
        -10.024052789583497
      ],
      [
        "ĠAtÃ©",
        -10.024132854155916
      ],
      [
        "GL",
        -10.024430959602189
      ],
      [
        "ĠeletrÃ´nico",
        -10.029536876142524
      ],
      [
        "Ġ34",
        -10.02969020401001
      ],
      [
        "ĠcondiÃ§Ã£o",
        -10.03147157876842
      ],
      [
        "Ġdispositivo",
        -10.032219677977515
      ],
      [
        "Ġpopular",
        -10.03272973103031
      ],
      [
        "Ġvoltar",
        -10.032885978821268
      ],
      [
        "emprego",
        -10.033522322278245
      ],
      [
        "Ġtraz",
        -10.0336059229158
      ],
      [
        "ĠTrata",
        -10.033894744854027
      ],
      [
        "ĠdireÃ§Ã£o",
        -10.034142553635515
      ],
      [
        "Ġmeus",
        -10.034192625514663
      ],
      [
        "SC",
        -10.034308386821516
      ],
      [
        "Ġ49",
        -10.034638331428294
      ],
      [
        "Ġcomum",
        -10.034649777815646
      ],
      [
        "uti",
        -10.035683441142345
      ],
      [
        "]",
        -10.035712687315884
      ],
      [
        "ĠtÃ©cnico",
        -10.035745733985848
      ],
      [
        "Ġlevar",
        -10.0378279167663
      ],
      [
        "ĠcomeÃ§a",
        -10.037837168979465
      ],
      [
        "Ġfedera",
        -10.040303983508403
      ],
      [
        "ĠUn",
        -10.04044805272248
      ],
      [
        "[",
        -10.041003507501207
      ],
      [
        "Ġaparece",
        -10.041005914109268
      ],
      [
        "HC",
        -10.042606088812516
      ],
      [
        "Ġganho",
        -10.04264851586821
      ],
      [
        "Ġsuficiente",
        -10.046441708404371
      ],
      [
        "ĠAL",
        -10.046878777103409
      ],
      [
        "aqueles",
        -10.04712827253077
      ],
      [
        "gada",
        -10.047384746694297
      ],
      [
        "dÃŃvida",
        -10.04829441793268
      ],
      [
        "ĠEuropa",
        -10.0483278396578
      ],
      [
        "Ġquadro",
        -10.048942577589395
      ],
      [
        "Ġbaixa",
        -10.049564337928224
      ],
      [
        "ali",
        -10.04995646294851
      ],
      [
        "ĠcabeÃ§a",
        -10.050177016278443
      ],
      [
        "AgR",
        -10.050673343518156
      ],
      [
        "indÃºstria",
        -10.05077945528993
      ],
      [
        "declaraÃ§Ã£o",
        -10.051848118180231
      ],
      [
        "ĠEdi",
        -10.05195346121065
      ],
      [
        "ĠComplementar",
        -10.05277901625384
      ],
      [
        "Ġoutorga",
        -10.053186029031687
      ],
      [
        "dez",
        -10.05395831780347
      ],
      [
        "entendimento",
        -10.054092840833077
      ],
      [
        "lÃ³gica",
        -10.054869233904128
      ],
      [
        "entidade",
        -10.05512328242218
      ],
      [
        "ĠEscola",
        -10.055966218285327
      ],
      [
        "å",
        -10.0561676895881
      ],
      [
        "Ġfaixa",
        -10.056286749814396
      ],
      [
        "razÃµes",
        -10.057260448751649
      ],
      [
        "Ġtais",
        -10.05733773845955
      ],
      [
        "entrada",
        -10.058097957622325
      ],
      [
        "prestaÃ§Ã£o",
        -10.05984671423576
      ],
      [
        "DEPUTADO",
        -10.061164982758443
      ],
      [
        "ĠmÃ©dico",
        -10.061461930236112
      ],
      [
        "Ġencontrar",
        -10.061538965701406
      ],
      [
        "comissÃ£o",
        -10.06188832019385
      ],
      [
        "Substitutivo",
        -10.062527698154028
      ],
      [
        "Ġve",
        -10.062909013623672
      ],
      [
        "AntÃ´nio",
        -10.062925402945943
      ],
      [
        "Ġministro",
        -10.063039475632504
      ],
      [
        "vÃŃtima",
        -10.064551725418807
      ],
      [
        "ĠPenal",
        -10.064848993985102
      ],
      [
        "Ġsite",
        -10.06521176708425
      ],
      [
        "Ġcolocar",
        -10.065346712889276
      ],
      [
        "ĠDep",
        -10.065467111330024
      ],
      [
        "ĠParanÃ¡",
        -10.065717881067688
      ],
      [
        "Ġ1996",
        -10.066073311254026
      ],
      [
        "Ġsete",
        -10.066163277756678
      ],
      [
        "ĠportuguÃªs",
        -10.06637337580348
      ],
      [
        "Certo",
        -10.066555426284172
      ],
      [
        "visÃ£o",
        -10.067678739256047
      ],
      [
        "Ġgrave",
        -10.067893264342649
      ],
      [
        "Portaria",
        -10.068185140942816
      ],
      [
        "GU",
        -10.069487617979451
      ],
      [
        "Ġentrar",
        -10.070662065451184
      ],
      [
        "+",
        -10.070759847280527
      ],
      [
        "Primeiro",
        -10.07123043043828
      ],
      [
        "Ptb",
        -10.07127925192728
      ],
      [
        "SÃ©rgi",
        -10.074519663525324
      ],
      [
        "conformidade",
        -10.074793998683086
      ],
      [
        "Ġfunciona",
        -10.075244074313137
      ],
      [
        "RelatÃ³rio",
        -10.075791082290875
      ],
      [
        "Ġouvi",
        -10.07582440419306
      ],
      [
        "SÃĥO",
        -10.076313256582967
      ],
      [
        "ĠvitÃ³ria",
        -10.077498585946936
      ],
      [
        "ĠTu",
        -10.077845078528052
      ],
      [
        "Ġaconteceu",
        -10.078424019219735
      ],
      [
        "locais",
        -10.0787439136137
      ],
      [
        "Ġindependente",
        -10.079252049363236
      ],
      [
        "Ġpermite",
        -10.079360096060377
      ],
      [
        "prejuÃŃz",
        -10.080300027915074
      ],
      [
        "2018",
        -10.08334317222295
      ],
      [
        "Ġacerca",
        -10.086383110350846
      ],
      [
        "ÃĬNCIA",
        -10.087525995458527
      ],
      [
        "Ġigual",
        -10.088515974476303
      ],
      [
        "aquela",
        -10.088773486993446
      ],
      [
        "Ł",
        -10.089051643426282
      ],
      [
        "Ġdisco",
        -10.08922135622654
      ],
      [
        "Ġparticular",
        -10.089667408098268
      ],
      [
        "Ġtornar",
        -10.089784454567528
      ],
      [
        "Ġdemanda",
        -10.090483748681931
      ],
      [
        "talvez",
        -10.090580474372423
      ],
      [
        "NTE",
        -10.091424627745049
      ],
      [
        "Ġbaixo",
        -10.091657171830205
      ],
      [
        "salÃ¡rio",
        -10.091846472563786
      ],
      [
        "Ġluz",
        -10.092006253147597
      ],
      [
        "Ġmedi",
        -10.092487880958616
      ],
      [
        "Ġenca",
        -10.092540666606272
      ],
      [
        "ĠMal",
        -10.092628804227523
      ],
      [
        "ngel",
        -10.092950510467888
      ],
      [
        "ĠtelevisÃ£o",
        -10.092997169380189
      ],
      [
        "veio",
        -10.093280236057987
      ],
      [
        "ĠapresentaÃ§Ã£o",
        -10.094045039350377
      ],
      [
        "eri",
        -10.0942832106347
      ],
      [
        "tividade",
        -10.094512184664875
      ],
      [
        "ciais",
        -10.094721618228984
      ],
      [
        "Ġrepresentante",
        -10.094965503215644
      ],
      [
        "vide",
        -10.095073596637272
      ],
      [
        "Ġliga",
        -10.09600820820852
      ],
      [
        "cisÃ£o",
        -10.096912561177858
      ],
      [
        "ĠEr",
        -10.097456161734408
      ],
      [
        "ĠCas",
        -10.097621609520012
      ],
      [
        "OfÃŃci",
        -10.098003408909172
      ],
      [
        "Ġtratar",
        -10.098137707289782
      ],
      [
        "cat",
        -10.099297379517973
      ],
      [
        "Ġcontinuar",
        -10.099715030064726
      ],
      [
        "gol",
        -10.099732002571576
      ],
      [
        "destinada",
        -10.099871240390645
      ],
      [
        "Ġabertura",
        -10.10271345345293
      ],
      [
        "ĠAcre",
        -10.10285170536033
      ],
      [
        "PRB",
        -10.10379441696568
      ],
      [
        "Ġusado",
        -10.103838800218533
      ],
      [
        "ĠexperiÃªncia",
        -10.104587125173188
      ],
      [
        "Ġdessas",
        -10.104771898540436
      ],
      [
        "ĠComunitÃ¡ri",
        -10.105101955290651
      ],
      [
        "ĠcarÃ¡ter",
        -10.105501982477293
      ],
      [
        "arÃ¡grafo",
        -10.106842264131682
      ],
      [
        "ĠdifÃŃcil",
        -10.107364351720474
      ],
      [
        "ĠvÃª",
        -10.108349908504904
      ],
      [
        "Ġantiga",
        -10.108615564869398
      ],
      [
        "Ġ38",
        -10.109865559175358
      ],
      [
        "ĠdistribuiÃ§Ã£o",
        -10.109949426445803
      ],
      [
        "Ġpais",
        -10.110333444353351
      ],
      [
        "Ġcomercial",
        -10.111261043429812
      ],
      [
        "Ġconfi",
        -10.11356803200004
      ],
      [
        "ĠPOR",
        -10.113816155558268
      ],
      [
        "Ġmulta",
        -10.11410235155753
      ],
      [
        "ĠTrans",
        -10.114336595853834
      ],
      [
        "soluÃ§Ã£o",
        -10.11437191458895
      ],
      [
        "Ġ43",
        -10.114677278378451
      ],
      [
        "MEN",
        -10.114743757397385
      ],
      [
        "ĠQuer",
        -10.115516170378864
      ],
      [
        "Ġdireta",
        -10.116012792110496
      ],
      [
        "QUE",
        -10.116519090483322
      ],
      [
        "manutenÃ§Ã£o",
        -10.116624873776283
      ],
      [
        "atrÃ¡s",
        -10.116717781257126
      ],
      [
        "estavam",
        -10.117485917585492
      ],
      [
        "lÃ¡",
        -10.117547689341755
      ],
      [
        "Ġarma",
        -10.117645081491125
      ],
      [
        "sul",
        -10.117778821712845
      ],
      [
        "Ġfonte",
        -10.118027489892029
      ],
      [
        "provisÃ³ria",
        -10.1183255521616
      ],
      [
        "uba",
        -10.119341085032127
      ],
      [
        "cimento",
        -10.121185516687143
      ],
      [
        "Ġaltera",
        -10.121484961818693
      ],
      [
        "MG",
        -10.122267403772218
      ],
      [
        "posto",
        -10.123054741622385
      ],
      [
        "ĠCentral",
        -10.124011181375677
      ],
      [
        "mÃ¡tica",
        -10.124260453378742
      ],
      [
        "ĠPrefeit",
        -10.124422249598064
      ],
      [
        "favorÃ¡vel",
        -10.125603598562112
      ],
      [
        "regiÃµes",
        -10.125873890994214
      ],
      [
        "ĠPROC",
        -10.126248130811902
      ],
      [
        "Ġsofre",
        -10.12635584586977
      ],
      [
        "ĠprÃ©",
        -10.126811199128069
      ],
      [
        "leiÃ§Ã£o",
        -10.128144373119875
      ],
      [
        "legais",
        -10.128302673859348
      ],
      [
        "ĠXX",
        -10.128525496617202
      ],
      [
        "Ġtomar",
        -10.128993957658246
      ],
      [
        "Ġ44",
        -10.12899774593294
      ],
      [
        "referido",
        -10.12910051969901
      ],
      [
        "|",
        -10.12937376508482
      ],
      [
        "Ġpequena",
        -10.13007447949258
      ],
      [
        "PSC",
        -10.131046067733433
      ],
      [
        "quer",
        -10.131229442150287
      ],
      [
        "Ġinstitui",
        -10.131360108281484
      ],
      [
        "Ġnormal",
        -10.132754827759731
      ],
      [
        "Ġred",
        -10.133246868047532
      ],
      [
        "Ġbens",
        -10.133477241909253
      ],
      [
        "apesar",
        -10.133589304086849
      ],
      [
        "cular",
        -10.134303351256204
      ],
      [
        "Ġcolega",
        -10.134359463848886
      ],
      [
        "Å",
        -10.13436745581222
      ],
      [
        "utilizaÃ§Ã£o",
        -10.134565487943505
      ],
      [
        "Ġjogos",
        -10.135921225100878
      ],
      [
        "ĠProcesso",
        -10.136065766508905
      ],
      [
        "Ġamigos",
        -10.136192442162026
      ],
      [
        "Apoio",
        -10.138610465796075
      ],
      [
        "ker",
        -10.138610810629688
      ],
      [
        "Celso",
        -10.139415066640888
      ],
      [
        "Ġdecreta",
        -10.139470527989722
      ],
      [
        "ĠGal",
        -10.140025364752468
      ],
      [
        "ĠQual",
        -10.140887075290555
      ],
      [
        "eleiÃ§Ãµes",
        -10.141166941999389
      ],
      [
        "efeitos",
        -10.142894175113716
      ],
      [
        "Ġtime",
        -10.143572183372529
      ],
      [
        "Ä",
        -10.143681482617756
      ],
      [
        "Ġchama",
        -10.143685543320077
      ],
      [
        "Ġnot",
        -10.143740734480556
      ],
      [
        "Ġpermitir",
        -10.14413092138109
      ],
      [
        "Ġ45",
        -10.14438406257058
      ],
      [
        "lla",
        -10.14461152244492
      ],
      [
        "ĠPlano",
        -10.144878221008318
      ],
      [
        "dizendo",
        -10.145396099483731
      ],
      [
        "fico",
        -10.145530028398818
      ],
      [
        "Ã©tica",
        -10.145799160384616
      ],
      [
        "Ġperda",
        -10.145959061498116
      ],
      [
        "Ġtramita",
        -10.146063365791235
      ],
      [
        "ĠPROPOSI",
        -10.146703165182226
      ],
      [
        "ĠSouza",
        -10.146855402917348
      ],
      [
        "Ġpasso",
        -10.147113365387716
      ],
      [
        "ausÃªncia",
        -10.148654725015012
      ],
      [
        "Ġperto",
        -10.14911144459282
      ],
      [
        "Ġdocumentos",
        -10.1491566235565
      ],
      [
        "±",
        -10.150296283809288
      ],
      [
        "militares",
        -10.151328620901396
      ],
      [
        "Ġmelhores",
        -10.15181323293609
      ],
      [
        "Ġreceita",
        -10.152386618215198
      ],
      [
        "«",
        -10.152673207333738
      ],
      [
        "ĠGomes",
        -10.15283829174106
      ],
      [
        "ĠConced",
        -10.152942992183952
      ],
      [
        "diretamente",
        -10.153010188804013
      ],
      [
        "Ġcapaz",
        -10.153125349695616
      ],
      [
        "Ġrevela",
        -10.153532082677518
      ],
      [
        "Ġ80",
        -10.154572298447736
      ],
      [
        "ĠGrosso",
        -10.155092231262811
      ],
      [
        "Ġinterior",
        -10.155458425761786
      ],
      [
        "ĠMunicipal",
        -10.155882356737148
      ],
      [
        "ĠoperaÃ§Ã£o",
        -10.156402533386077
      ],
      [
        "Ġfazem",
        -10.1565872834469
      ],
      [
        "Ķ",
        -10.156599541520707
      ],
      [
        "ĠMinistra",
        -10.156805514833366
      ],
      [
        "ĠcanÃ§Ã£o",
        -10.156830237238324
      ],
      [
        "ĠLopes",
        -10.157748846624504
      ],
      [
        "Estamos",
        -10.158067395380073
      ],
      [
        "Ġcento",
        -10.159814976032
      ],
      [
        "CARLOS",
        -10.1600215378929
      ],
      [
        "ĠMilitar",
        -10.160131464291569
      ],
      [
        "ĠRocha",
        -10.161006288494518
      ],
      [
        "ĠEsc",
        -10.161325430605771
      ],
      [
        "Ġconsiderada",
        -10.161729053703093
      ],
      [
        "ciado",
        -10.161848743753124
      ],
      [
        "inclusÃ£o",
        -10.162200111405916
      ],
      [
        "aÃ§a",
        -10.16319017982253
      ],
      [
        "Ġrealizar",
        -10.164002887300157
      ],
      [
        "Ġdiscutir",
        -10.164834327042266
      ],
      [
        "ĠvÃŃdeo",
        -10.165007346949228
      ],
      [
        "Ġadministrativa",
        -10.165514351784228
      ],
      [
        "ĠPal",
        -10.16647169505504
      ],
      [
        "Ġregra",
        -10.167427566031057
      ],
      [
        "INA",
        -10.167434515759512
      ],
      [
        "operaÃ§Ãµes",
        -10.167772901581625
      ],
      [
        "tivos",
        -10.168055109633531
      ],
      [
        "ĠInter",
        -10.168130925275731
      ],
      [
        "ĠlanÃ§amento",
        -10.168429897625794
      ],
      [
        "Ġoito",
        -10.170433302102044
      ],
      [
        "ĠLista",
        -10.170537102647517
      ],
      [
        "ĠChi",
        -10.170608347136838
      ],
      [
        "Ġcerta",
        -10.170953335795613
      ],
      [
        "ĠChe",
        -10.171811924732676
      ],
      [
        "ĠTri",
        -10.171933561944645
      ],
      [
        "ĠpeÃ§o",
        -10.172341193733326
      ],
      [
        "Ġfar",
        -10.17321125882986
      ],
      [
        "GERAL",
        -10.174126622618308
      ],
      [
        "alunos",
        -10.174451177480094
      ],
      [
        "iam",
        -10.174648228346198
      ],
      [
        "Ġderrota",
        -10.175243834320112
      ],
      [
        "Ġcompromisso",
        -10.175519505308651
      ],
      [
        "ĠGar",
        -10.175774093032306
      ],
      [
        "Ġdecidi",
        -10.17609551750941
      ],
      [
        "Pausa",
        -10.176853981348154
      ],
      [
        "ĠorÃ§amentÃ¡ria",
        -10.177862191332308
      ],
      [
        "Ġlocalizado",
        -10.178076759282945
      ],
      [
        "ĠPorque",
        -10.178317477792357
      ],
      [
        "Ġseguir",
        -10.17882624230482
      ],
      [
        "Ġmetros",
        -10.179294577453527
      ],
      [
        "daquele",
        -10.179753477541988
      ],
      [
        "Ġtentar",
        -10.179858752917385
      ],
      [
        "ĠCatarina",
        -10.17999103098762
      ],
      [
        "Ġacabou",
        -10.180009734837911
      ],
      [
        "Ġdiferente",
        -10.18034778275774
      ],
      [
        "ĠAp",
        -10.181222537021718
      ],
      [
        "ĠmÃ©dio",
        -10.182037437110951
      ],
      [
        "Ġjovem",
        -10.182327274431463
      ],
      [
        "Ġopera",
        -10.182898669403146
      ],
      [
        "xclusividade",
        -10.182928179348435
      ],
      [
        "Ã¡reas",
        -10.18335718015566
      ],
      [
        "Ġvenda",
        -10.184164472508478
      ],
      [
        "Ã´nica",
        -10.18419556990782
      ],
      [
        "Ġrelativa",
        -10.184402795259311
      ],
      [
        "tenÃ§Ã£o",
        -10.184493543237842
      ],
      [
        "ĠVeja",
        -10.184907317857403
      ],
      [
        "exposto",
        -10.185823855255812
      ],
      [
        "Ġquarto",
        -10.187334011172355
      ],
      [
        "Ãºmula",
        -10.188240617586374
      ],
      [
        "Ġpropriedade",
        -10.188400170572196
      ],
      [
        "Con",
        -10.189046183128578
      ],
      [
        "Ġconseguiu",
        -10.19003444873447
      ],
      [
        "Apesar",
        -10.19049148891511
      ],
      [
        "esforÃ§o",
        -10.19058722756069
      ],
      [
        "cus",
        -10.191272465144843
      ],
      [
        "ĠdiferenÃ§a",
        -10.19184138345945
      ],
      [
        "Ġtroca",
        -10.193058611112638
      ],
      [
        "americana",
        -10.193535476848895
      ],
      [
        "Ġinterna",
        -10.193707242539638
      ],
      [
        "ĠProfessor",
        -10.19374794127782
      ],
      [
        "Ġescolas",
        -10.194395939453342
      ],
      [
        "Ġaprova",
        -10.19444028904002
      ],
      [
        "ĠReal",
        -10.194493572604223
      ],
      [
        "ĠLUIZ",
        -10.19510499402966
      ],
      [
        "Ġviola",
        -10.195191516837104
      ],
      [
        "tiveram",
        -10.195545734093592
      ],
      [
        "estabelecimento",
        -10.195735707208131
      ],
      [
        "Ġcompleta",
        -10.196166102821106
      ],
      [
        "Ġpropor",
        -10.196887579471484
      ],
      [
        "Ġfinanciamento",
        -10.196959434707193
      ],
      [
        "Ġimprensa",
        -10.197212137806728
      ],
      [
        "Ġquantidade",
        -10.19729014747766
      ],
      [
        "ĠDiretor",
        -10.198239748934784
      ],
      [
        "ĠCidade",
        -10.199673630094011
      ],
      [
        "Ġ42",
        -10.199738689192005
      ],
      [
        "Ġ1991",
        -10.199953924294254
      ],
      [
        "ĠCONSTITUIÃĩÃĥO",
        -10.200164500338213
      ],
      [
        "usada",
        -10.201654575087993
      ],
      [
        "plenÃ¡rio",
        -10.202124933620915
      ],
      [
        "ĠSabe",
        -10.202385894135974
      ],
      [
        "zinho",
        -10.202489254158817
      ],
      [
        "Ġquarta",
        -10.202621020270168
      ],
      [
        "falando",
        -10.202735128590732
      ],
      [
        "Ġatua",
        -10.202994667980676
      ],
      [
        "ĠZa",
        -10.20356869736853
      ],
      [
        "Ġentrega",
        -10.20454464652552
      ],
      [
        "ĠTemo",
        -10.204545378705172
      ],
      [
        "uplente",
        -10.205392845698055
      ],
      [
        "grafia",
        -10.205636620018538
      ],
      [
        "ĠAma",
        -10.205880215051335
      ],
      [
        "motivo",
        -10.205958349539031
      ],
      [
        "ĠFica",
        -10.206010325788393
      ],
      [
        "Ġ52",
        -10.206276467900896
      ],
      [
        "Ġestudos",
        -10.206278773729624
      ],
      [
        "Ġpagar",
        -10.206545426310967
      ],
      [
        "PPS",
        -10.206613012592458
      ],
      [
        "ejeiÃ§Ã£o",
        -10.2066961591948
      ],
      [
        "Ġlimite",
        -10.206739971897756
      ],
      [
        "ĠLou",
        -10.20681857686033
      ],
      [
        "Ġservi",
        -10.20795144286261
      ],
      [
        "Ġhonra",
        -10.20825944361522
      ],
      [
        "privada",
        -10.208846360968508
      ],
      [
        "ĠMaranhÃ£o",
        -10.209427450358966
      ],
      [
        "Ġlocalizada",
        -10.210306528921176
      ],
      [
        "ĠAlmeida",
        -10.210727437212055
      ],
      [
        "ĠmÃ¡",
        -10.211661679437771
      ],
      [
        "DF",
        -10.212303162943147
      ],
      [
        "ich",
        -10.212311935201464
      ],
      [
        "benefÃŃcio",
        -10.212379775464637
      ],
      [
        "Ġfixa",
        -10.212388751498676
      ],
      [
        "ĠParÃ¡",
        -10.21262299983572
      ],
      [
        "ĠPelo",
        -10.213763263566442
      ],
      [
        "ĠFA",
        -10.213798528682938
      ],
      [
        "Ġcre",
        -10.21394873324624
      ],
      [
        "burg",
        -10.214530974320708
      ],
      [
        "tida",
        -10.214833807262268
      ],
      [
        "Ġcomigo",
        -10.214870451479204
      ],
      [
        "nÂº",
        -10.214919224452212
      ],
      [
        "ĠcrianÃ§a",
        -10.215780176024367
      ],
      [
        "Ġexatamente",
        -10.21669785581773
      ],
      [
        "ĠUSP",
        -10.21671011089285
      ],
      [
        "OSÃī",
        -10.217190752970405
      ],
      [
        "ĠAh",
        -10.217779025993812
      ],
      [
        "ari",
        -10.219339127208858
      ],
      [
        "ativo",
        -10.219387404566938
      ],
      [
        "Ġescrito",
        -10.2194355603241
      ],
      [
        "Ġ1995",
        -10.219472320391128
      ],
      [
        "ĠRodrigues",
        -10.219862961938162
      ],
      [
        "ĠToda",
        -10.220475256041802
      ],
      [
        "constitucionai",
        -10.221230613945028
      ],
      [
        "Ġpior",
        -10.221359338294004
      ],
      [
        "Ġinicial",
        -10.221399277089096
      ],
      [
        "Ġganha",
        -10.221430379153077
      ],
      [
        "Ġunidades",
        -10.22194700499606
      ],
      [
        "Ġsur",
        -10.222065822691004
      ],
      [
        "atriz",
        -10.22278846867807
      ],
      [
        "mÃ¡ximo",
        -10.223059903559548
      ],
      [
        "ĠGrupo",
        -10.223751245290398
      ],
      [
        "Ġassumi",
        -10.22400060401336
      ],
      [
        "Ġinforma",
        -10.225059903582286
      ],
      [
        "side",
        -10.226008431906878
      ],
      [
        "existente",
        -10.227683053007013
      ],
      [
        "Ġhaja",
        -10.227717195485113
      ],
      [
        "Ġ119",
        -10.227982554099134
      ],
      [
        "ĠSU",
        -10.228128408502696
      ],
      [
        "ĠCarvalho",
        -10.22833065370241
      ],
      [
        "NR",
        -10.229454256779093
      ],
      [
        "Ġpermiti",
        -10.229486854213016
      ],
      [
        "line",
        -10.22987554874826
      ],
      [
        "Ġ58",
        -10.230993328377542
      ],
      [
        "Ġutilizado",
        -10.231712953777256
      ],
      [
        "ambos",
        -10.232149573652332
      ],
      [
        "RegiÃ£o",
        -10.232469022722947
      ],
      [
        "julgado",
        -10.232524029686688
      ],
      [
        "ĠKo",
        -10.232881873738709
      ],
      [
        "Ġacontece",
        -10.233152634361629
      ],
      [
        "Ġ48",
        -10.233399066719308
      ],
      [
        "ĠOnde",
        -10.233611793762822
      ],
      [
        "LideranÃ§a",
        -10.23404271016734
      ],
      [
        "ĠPri",
        -10.23434989278305
      ],
      [
        "bairro",
        -10.234708628282236
      ],
      [
        "criada",
        -10.23519554265804
      ],
      [
        "corrupÃ§Ã£o",
        -10.235435451776343
      ],
      [
        "hy",
        -10.235583217885887
      ],
      [
        "ĠcontribuiÃ§Ã£o",
        -10.236440524472853
      ],
      [
        "ĠMinha",
        -10.238313027983589
      ],
      [
        "chefe",
        -10.239153352472268
      ],
      [
        "Ġ64",
        -10.239795029515104
      ],
      [
        ".............",
        -10.239873536588208
      ],
      [
        "lizaÃ§Ã£o",
        -10.24026901662478
      ],
      [
        "ĠSuper",
        -10.240522069726447
      ],
      [
        "ĠAP",
        -10.241518700636606
      ],
      [
        "Ġresultados",
        -10.242614698241294
      ],
      [
        "ĠDaniel",
        -10.24318322081653
      ],
      [
        "Ġmundial",
        -10.243614815486058
      ],
      [
        "ĠgÃªnero",
        -10.244892584244818
      ],
      [
        "Ġantigo",
        -10.24515718538089
      ],
      [
        "ĠLEGISLATIV",
        -10.245617191691322
      ],
      [
        "ĠhistÃ³rico",
        -10.2461678155534
      ],
      [
        "ĠPubli",
        -10.246427655384624
      ],
      [
        "Ġaberto",
        -10.246787275930814
      ],
      [
        "Ġhumano",
        -10.247065487411248
      ],
      [
        "Ġestadual",
        -10.24713911133163
      ],
      [
        "missÃµes",
        -10.24814027878364
      ],
      [
        "Ġencontro",
        -10.248426360602592
      ],
      [
        "regras",
        -10.24941741955472
      ],
      [
        "irÃ¡",
        -10.249857126446283
      ],
      [
        "Ġdada",
        -10.25001375791912
      ],
      [
        "somos",
        -10.250025153175043
      ],
      [
        "ĠBoa",
        -10.250282910315274
      ],
      [
        "distrito",
        -10.250834878402634
      ],
      [
        "ĠReino",
        -10.251188076642665
      ],
      [
        "ĠRIO",
        -10.251402221765012
      ],
      [
        "Ġvivo",
        -10.251668568101016
      ],
      [
        "Ġevitar",
        -10.25174049878905
      ],
      [
        "Ġdeputado",
        -10.252569925556616
      ],
      [
        "ĠAli",
        -10.25276638792378
      ],
      [
        "icamente",
        -10.254285492351766
      ],
      [
        "ĠpolÃŃcia",
        -10.254500410216751
      ],
      [
        "Ġconv",
        -10.256988303249882
      ],
      [
        "ĠjurÃŃdico",
        -10.257192067150688
      ],
      [
        "ĠTer",
        -10.257402306535626
      ],
      [
        "bon",
        -10.25741470507799
      ],
      [
        "ĠNordeste",
        -10.257656670707725
      ],
      [
        "atualmente",
        -10.258640150046135
      ],
      [
        "AmazÃ´nia",
        -10.258948348222235
      ],
      [
        "Ġfigura",
        -10.259186402133
      ],
      [
        "ĠAugusto",
        -10.25953694703808
      ],
      [
        "Estadual",
        -10.25991066951455
      ],
      [
        "Talvez",
        -10.260324668075338
      ],
      [
        "Ġdocumento",
        -10.26056085725455
      ],
      [
        "ĠNew",
        -10.260720095137309
      ],
      [
        "requisitos",
        -10.261214277228786
      ],
      [
        "impacto",
        -10.261609263101295
      ],
      [
        "ĠMac",
        -10.262321785296452
      ],
      [
        "Figueiredo",
        -10.26336265745316
      ],
      [
        "Fazenda",
        -10.263902780700809
      ],
      [
        "ĠFamÃŃlia",
        -10.26429777806747
      ],
      [
        "Ġmerece",
        -10.264538045478368
      ],
      [
        "ĠWikipÃ©dia",
        -10.265119323360576
      ],
      [
        "ĠUS",
        -10.265140799337567
      ],
      [
        "ĠDECRET",
        -10.265306846216555
      ],
      [
        "Ġ41",
        -10.265609839396184
      ],
      [
        "essÃ£o",
        -10.265939743768106
      ],
      [
        "JudiciÃ¡ri",
        -10.266014434375812
      ],
      [
        "ĠQUE",
        -10.266363368593192
      ],
      [
        "Ġjudicial",
        -10.266472713784234
      ],
      [
        "ĠNelson",
        -10.26652495600572
      ],
      [
        "mil",
        -10.26740867895544
      ],
      [
        "ĠBal",
        -10.267442326836411
      ],
      [
        "Ġestabelecer",
        -10.268340621060164
      ],
      [
        "publicada",
        -10.268476060101248
      ],
      [
        "ĠSeguranÃ§a",
        -10.26893620238767
      ],
      [
        "Ġorienta",
        -10.269119809340635
      ],
      [
        "Teixeira",
        -10.269206333645952
      ],
      [
        "Ġespera",
        -10.27012298861169
      ],
      [
        "Ġgosta",
        -10.270493228100348
      ],
      [
        "Ġgrau",
        -10.270539970041016
      ],
      [
        "Ġ01",
        -10.271643341330106
      ],
      [
        "ĠRS",
        -10.271921832234062
      ],
      [
        "ĠAndrÃ©",
        -10.272335059482868
      ],
      [
        "ĠcidadÃ£o",
        -10.272358169035453
      ],
      [
        "Ġ39",
        -10.27362929168239
      ],
      [
        "DiscussÃ£o",
        -10.275146546141649
      ],
      [
        "Ġshow",
        -10.275304094820315
      ],
      [
        "Ġprocura",
        -10.27544148852923
      ],
      [
        "Ġcentral",
        -10.275874344840275
      ],
      [
        "ĠepisÃ³dio",
        -10.276728033558893
      ],
      [
        "Ġcri",
        -10.277227808397823
      ],
      [
        "ĠFun",
        -10.277912348902694
      ],
      [
        "candidato",
        -10.278585593112334
      ],
      [
        "pÃµe",
        -10.278702753282491
      ],
      [
        "Ġfac",
        -10.280801408733922
      ],
      [
        "raÃ§a",
        -10.281498156671145
      ],
      [
        "levou",
        -10.282650455471268
      ],
      [
        "vemos",
        -10.282784906099469
      ],
      [
        "preÃ§os",
        -10.283132340825857
      ],
      [
        "ĠSI",
        -10.28391700759079
      ],
      [
        "Ġespecifica",
        -10.28423785042522
      ],
      [
        "Ġanimais",
        -10.284417860633775
      ],
      [
        "ĠFutebol",
        -10.284574864535664
      ],
      [
        "Ġ1988",
        -10.285004821719738
      ],
      [
        "ĠNA",
        -10.285144729337478
      ],
      [
        "paciente",
        -10.285273697192126
      ],
      [
        "ĠDesde",
        -10.285573275400967
      ],
      [
        "Ġsala",
        -10.28628718531926
      ],
      [
        "Ġinvestiga",
        -10.286436819866651
      ],
      [
        "ĠChina",
        -10.286856240336466
      ],
      [
        "abaixo",
        -10.2873171454426
      ],
      [
        "Ġestilo",
        -10.289037186764691
      ],
      [
        "nacionais",
        -10.289051639684397
      ],
      [
        "ĠOlÃ¡",
        -10.28950133095362
      ],
      [
        "Ã¢nia",
        -10.28954939717512
      ],
      [
        "Ġmudar",
        -10.289791556458836
      ],
      [
        "ĠMO",
        -10.289936793668216
      ],
      [
        "ĠSÃ¡",
        -10.290232210970888
      ],
      [
        "Ġpratica",
        -10.290257684748171
      ],
      [
        "NÃ£o",
        -10.290940604863492
      ],
      [
        "Ġface",
        -10.292097311713285
      ],
      [
        "possam",
        -10.292216680906028
      ],
      [
        "deira",
        -10.292367928925572
      ],
      [
        "licitante",
        -10.29338771998646
      ],
      [
        "ĠAlberto",
        -10.293996826777787
      ],
      [
        "ÃŃdo",
        -10.294901408751214
      ],
      [
        "avaliaÃ§Ã£o",
        -10.29560234269797
      ],
      [
        "ĠNossa",
        -10.295607200738647
      ],
      [
        "á",
        -10.295840103172305
      ],
      [
        "tava",
        -10.296888882371173
      ],
      [
        "ĠciÃªncia",
        -10.297829819953126
      ],
      [
        "ĠZe",
        -10.298953604581756
      ],
      [
        "ĠPolÃŃtica",
        -10.299347690649656
      ],
      [
        "errado",
        -10.299915046699557
      ],
      [
        "Ġleva",
        -10.300165341894768
      ],
      [
        "Ġentrevista",
        -10.300274593238742
      ],
      [
        "rais",
        -10.301284821113502
      ],
      [
        "ney",
        -10.301770527503416
      ],
      [
        "ĠMG",
        -10.301804429970533
      ],
      [
        "ĠLuÃŃs",
        -10.301823337825349
      ],
      [
        "ĠMundo",
        -10.30251369668885
      ],
      [
        "ĠameaÃ§a",
        -10.302776337786248
      ],
      [
        "ĠAlemanha",
        -10.303475467971532
      ],
      [
        "Ġmesa",
        -10.303883017641075
      ],
      [
        "ĠAC",
        -10.304025454454436
      ],
      [
        "Ġfui",
        -10.304685489418734
      ],
      [
        "omissÃµes",
        -10.304964777320686
      ],
      [
        "ĠRequer",
        -10.3052811147412
      ],
      [
        "Ġoferece",
        -10.305558576518882
      ],
      [
        "Ġestes",
        -10.306585500777617
      ],
      [
        "vor",
        -10.306610433910118
      ],
      [
        "Ġacidente",
        -10.306637155561294
      ],
      [
        "ÃŃstico",
        -10.30679606587304
      ],
      [
        "oeste",
        -10.306807766334286
      ],
      [
        "Ġconseguir",
        -10.307557824155175
      ],
      [
        "tÃ¡rio",
        -10.307577635557092
      ],
      [
        "Ġrece",
        -10.308085241068516
      ],
      [
        "EMENTA",
        -10.308515471313475
      ],
      [
        "Ġdisciplina",
        -10.309019699402452
      ],
      [
        "Ġinicia",
        -10.309034552893436
      ],
      [
        "bus",
        -10.30910205129391
      ],
      [
        "Ġdemocracia",
        -10.309286682377495
      ],
      [
        "del",
        -10.310086762112263
      ],
      [
        "ĠCer",
        -10.310127571798049
      ],
      [
        "Ġvice",
        -10.310758094202496
      ],
      [
        "ĠGeral",
        -10.311045873742826
      ],
      [
        "Ġparticipa",
        -10.311102772272465
      ],
      [
        "Ġenfrenta",
        -10.311250862326458
      ],
      [
        "Ġpretende",
        -10.311835719114857
      ],
      [
        "relaÃ§Ãµes",
        -10.311886212678338
      ],
      [
        "tivesse",
        -10.312014908035891
      ],
      [
        "ĠFer",
        -10.312193992889824
      ],
      [
        "Ġlido",
        -10.31236422876497
      ],
      [
        "riam",
        -10.3123756167853
      ],
      [
        "Ġpedir",
        -10.312472127926942
      ],
      [
        "Ġrural",
        -10.312923363084554
      ],
      [
        "EUA",
        -10.313315023178822
      ],
      [
        "Ġexplorar",
        -10.313808933019782
      ],
      [
        "ĠfunÃ§Ãµes",
        -10.3138240319241
      ],
      [
        "Ġatender",
        -10.31383296733524
      ],
      [
        "Ġambiental",
        -10.314115240090546
      ],
      [
        "PSL",
        -10.314194178890885
      ],
      [
        "ĠmanhÃ£",
        -10.3143342092162
      ],
      [
        "ĠJesus",
        -10.315362618291216
      ],
      [
        "Ġefetiva",
        -10.315725617176774
      ],
      [
        "STA",
        -10.315931327566831
      ],
      [
        "atos",
        -10.31666952739903
      ],
      [
        "ĠART",
        -10.316770565403283
      ],
      [
        "ĠDepu",
        -10.316839723679688
      ],
      [
        "ĠMil",
        -10.316885293889348
      ],
      [
        "Geraldo",
        -10.317408476922555
      ],
      [
        "Ġfesta",
        -10.318044353515804
      ],
      [
        "PrevidÃªncia",
        -10.318045413881404
      ],
      [
        "Ġdaquel",
        -10.3186598129013
      ],
      [
        "ling",
        -10.31925755578303
      ],
      [
        "FundaÃ§Ã£o",
        -10.31929225263059
      ],
      [
        "Ġjornalista",
        -10.319694047189802
      ],
      [
        "deficiÃªncia",
        -10.319726327208976
      ],
      [
        "Ġcur",
        -10.32024212831904
      ],
      [
        "Ġespe",
        -10.320415371649098
      ],
      [
        "Ï",
        -10.32064845264608
      ],
      [
        "fronteira",
        -10.320823984606918
      ],
      [
        "ĠAto",
        -10.321298410853396
      ],
      [
        "ĠAlexandre",
        -10.322315811888313
      ],
      [
        "geraÃ§Ã£o",
        -10.322752838232573
      ],
      [
        "virtud",
        -10.323351582878557
      ],
      [
        "Ġimagem",
        -10.323531384377548
      ],
      [
        "tÃ¡ria",
        -10.323654749915065
      ],
      [
        "Ġtorno",
        -10.323909814721937
      ],
      [
        "decreto",
        -10.32433935415836
      ],
      [
        "CearÃ¡",
        -10.324692694841298
      ],
      [
        "Ġpaga",
        -10.324874221244384
      ],
      [
        "Ġunidade",
        -10.32511949418392
      ],
      [
        "ÃŃndice",
        -10.325147076099432
      ],
      [
        "ĠArthur",
        -10.32587637979792
      ],
      [
        "nais",
        -10.326803924425809
      ],
      [
        "ĠSerra",
        -10.326928792095384
      ],
      [
        "ĠRede",
        -10.327020973109311
      ],
      [
        "Ġpalavras",
        -10.327113452584854
      ],
      [
        "Ġinvestimento",
        -10.327464763619949
      ],
      [
        "TER",
        -10.327586010049334
      ],
      [
        "apresentou",
        -10.32772322868635
      ],
      [
        "Ġzona",
        -10.32798108565079
      ],
      [
        "Ġconcurso",
        -10.328135470796326
      ],
      [
        "Ġ62",
        -10.328581130490706
      ],
      [
        "ĠrÃ¡pido",
        -10.32860995591384
      ],
      [
        "imagens",
        -10.328855845357516
      ],
      [
        "nunciou",
        -10.328942055181876
      ],
      [
        "SRA",
        -10.329155197705523
      ],
      [
        "CIA",
        -10.32953682506821
      ],
      [
        "lizado",
        -10.329928082735504
      ],
      [
        "trecho",
        -10.33001305161889
      ],
      [
        "alteraÃ§Ã£o",
        -10.330245956901944
      ],
      [
        "ĠLisboa",
        -10.33041919254418
      ],
      [
        "Ġprocedimento",
        -10.330445273779556
      ],
      [
        "Departamento",
        -10.332219317352989
      ],
      [
        "pÃºblicas",
        -10.332788455713745
      ],
      [
        "Ġdetermina",
        -10.335568825380502
      ],
      [
        "ĠDom",
        -10.336088856818586
      ],
      [
        "conflito",
        -10.3364619100333
      ],
      [
        "evoluÃ§Ã£o",
        -10.336712187247077
      ],
      [
        "ĠLegislativa",
        -10.33829746468235
      ],
      [
        "Ġexpressa",
        -10.339212343493946
      ],
      [
        "exigÃªncia",
        -10.339693836313112
      ],
      [
        "mann",
        -10.339971229360128
      ],
      [
        "Ġpobre",
        -10.340527063119929
      ],
      [
        "ĠVai",
        -10.34159513270134
      ],
      [
        "Ġigreja",
        -10.342248509590064
      ],
      [
        "Ġpromover",
        -10.34228167093088
      ],
      [
        "advogado",
        -10.342845757682298
      ],
      [
        "ĠMichel",
        -10.343202028690644
      ],
      [
        "Ġconceito",
        -10.34324968215101
      ],
      [
        "Ġsai",
        -10.343266473052385
      ],
      [
        "ĠopiniÃ£o",
        -10.343371414312449
      ],
      [
        "ĠPan",
        -10.34359272798877
      ],
      [
        "ĠDESPACH",
        -10.34387931032126
      ],
      [
        "2020",
        -10.344341668497984
      ],
      [
        "hon",
        -10.345502999174332
      ],
      [
        "lis",
        -10.345521060699308
      ],
      [
        "Ġetc",
        -10.346319164545644
      ],
      [
        "relativo",
        -10.346526502772532
      ],
      [
        "ĠWal",
        -10.347849257759558
      ],
      [
        "referida",
        -10.34798163004842
      ],
      [
        "Ġentender",
        -10.34817272131623
      ],
      [
        "ĠMarcos",
        -10.348289177538266
      ],
      [
        "Ġfinanceiro",
        -10.34906732142974
      ],
      [
        "Ġguarda",
        -10.3494142885063
      ],
      [
        "Ī",
        -10.3495870147001
      ],
      [
        "leitura",
        -10.35172660711244
      ],
      [
        "ĠpeÃ§a",
        -10.351944099860702
      ],
      [
        "Ġanti",
        -10.353308205001143
      ],
      [
        "retorno",
        -10.353361823012134
      ],
      [
        "urgÃªncia",
        -10.353415115379557
      ],
      [
        "ĠVista",
        -10.353669773621911
      ],
      [
        "Ġrenova",
        -10.354080971283432
      ],
      [
        "Ġconsegue",
        -10.354652892663974
      ],
      [
        "ĠCur",
        -10.354870219607344
      ],
      [
        "mal",
        -10.355230800911531
      ],
      [
        "ĠorientaÃ§Ã£o",
        -10.35537194374234
      ],
      [
        "ĠAgrav",
        -10.355398780346246
      ],
      [
        "ĠPp",
        -10.355656293036894
      ],
      [
        "½",
        -10.356212979559537
      ],
      [
        "havend",
        -10.356367333653518
      ],
      [
        "PÃ¡gina",
        -10.356406757428651
      ],
      [
        "Ġamericano",
        -10.357082428932324
      ],
      [
        "ĠParis",
        -10.358003263527966
      ],
      [
        "doenÃ§a",
        -10.359127609367816
      ],
      [
        "ĠUr",
        -10.359489289368245
      ],
      [
        "juros",
        -10.359637032377815
      ],
      [
        "www",
        -10.360375821702466
      ],
      [
        "ResoluÃ§Ã£o",
        -10.360604808017944
      ],
      [
        "Ġbanco",
        -10.36065232471602
      ],
      [
        "privado",
        -10.360866389283668
      ],
      [
        "ĠjustiÃ§a",
        -10.361675070531604
      ],
      [
        "Ġataque",
        -10.361933675648691
      ],
      [
        "ĠOUTR",
        -10.362672829909682
      ],
      [
        "ĠdenÃºncia",
        -10.363722514754096
      ],
      [
        "substitutivo",
        -10.363946377630056
      ],
      [
        "ĠRodrigo",
        -10.364158361947403
      ],
      [
        "ĠQuanto",
        -10.364382914649685
      ],
      [
        "Jogos",
        -10.364431241405054
      ],
      [
        "quilo",
        -10.364719821666254
      ],
      [
        "Ġfeliz",
        -10.364972416721509
      ],
      [
        "benefÃŃcios",
        -10.365203681254002
      ],
      [
        "ocorreu",
        -10.365357984162875
      ],
      [
        "¾",
        -10.36537144409621
      ],
      [
        "estaÃ§Ã£o",
        -10.36560186240071
      ],
      [
        "ĠSobre",
        -10.365763860783128
      ],
      [
        "ĠsaÃŃd",
        -10.36637635248614
      ],
      [
        "humanos",
        -10.366399108375216
      ],
      [
        "bin",
        -10.36708694015214
      ],
      [
        "Moreira",
        -10.36719730946118
      ],
      [
        "gli",
        -10.367337684477524
      ],
      [
        "ĠGer",
        -10.368215538448704
      ],
      [
        "ĠcomeÃ§ar",
        -10.368588196754844
      ],
      [
        "Ġ1994",
        -10.369230638572168
      ],
      [
        "vontade",
        -10.36980906885491
      ],
      [
        "Ġcarga",
        -10.370632509988868
      ],
      [
        "ADA",
        -10.37083642416636
      ],
      [
        "ĠAM",
        -10.37110536216044
      ],
      [
        "assistÃªncia",
        -10.371881032962117
      ],
      [
        "Ġrua",
        -10.371962858915692
      ],
      [
        "ĠRei",
        -10.37262910207177
      ],
      [
        "Ġpreso",
        -10.373261092808283
      ],
      [
        "fiscalizaÃ§Ã£o",
        -10.373452817822445
      ],
      [
        "parceria",
        -10.374084384503188
      ],
      [
        "Ġ90",
        -10.374601617667262
      ],
      [
        "amanhÃ£",
        -10.37500353941716
      ],
      [
        "rÃ¡pida",
        -10.3754896007957
      ],
      [
        "PrÃªmio",
        -10.376101430028411
      ],
      [
        "Ġconstitui",
        -10.376829499242676
      ],
      [
        "Ġouvir",
        -10.37755777224135
      ],
      [
        "gor",
        -10.3776533908719
      ],
      [
        "Ġcontas",
        -10.377707770748534
      ],
      [
        "Ġpermanece",
        -10.377859951369569
      ],
      [
        "PpP",
        -10.378055125650658
      ],
      [
        "instalaÃ§Ã£o",
        -10.378839851231836
      ],
      [
        "ficado",
        -10.379398069334885
      ],
      [
        "assi",
        -10.379437098669497
      ],
      [
        "Proposta",
        -10.38000423991253
      ],
      [
        "ĠBor",
        -10.380188241954718
      ],
      [
        "Ġcuidado",
        -10.380669589686258
      ],
      [
        "Ġcoloca",
        -10.380779084113174
      ],
      [
        "investimentos",
        -10.381523266781974
      ],
      [
        "ENTE",
        -10.381646690177806
      ],
      [
        "ĠPARA",
        -10.382466008065393
      ],
      [
        "ĠForÃ§a",
        -10.383226686145475
      ],
      [
        "Ġjuiz",
        -10.383881415554336
      ],
      [
        "ĠNada",
        -10.384768160323514
      ],
      [
        "mulo",
        -10.384839194401414
      ],
      [
        "Ġquinta",
        -10.385549403725504
      ],
      [
        "Ġhumana",
        -10.386232529977208
      ],
      [
        "Ġtrabalhador",
        -10.38624604321137
      ],
      [
        "atu",
        -10.386514709419568
      ],
      [
        "ĠNeste",
        -10.387417906882575
      ],
      [
        "ĠCruz",
        -10.3881545331379
      ],
      [
        "Ġerro",
        -10.388164379684646
      ],
      [
        "emendas",
        -10.388333509489843
      ],
      [
        "Ġaplica",
        -10.389011089139268
      ],
      [
        "Ġcorpus",
        -10.39002669282619
      ],
      [
        "preciaÃ§Ã£o",
        -10.39007494531031
      ],
      [
        "FederaÃ§Ã£o",
        -10.390186533482218
      ],
      [
        "Ġdefende",
        -10.391075342281969
      ],
      [
        "Ġregistrado",
        -10.391104689355489
      ],
      [
        "ĠAltera",
        -10.39131584273773
      ],
      [
        "precisamos",
        -10.392509490171078
      ],
      [
        "Ġalega",
        -10.393151342594845
      ],
      [
        "dida",
        -10.393598284726185
      ],
      [
        "Ġatingi",
        -10.393733499748532
      ],
      [
        "prÃªmio",
        -10.393751491668567
      ],
      [
        "Ġreserva",
        -10.393899531186117
      ],
      [
        "Ġcompanhia",
        -10.394651106819596
      ],
      [
        "Ġrealiza",
        -10.39497162318158
      ],
      [
        "Ġmedo",
        -10.395236674421252
      ],
      [
        "avanÃ§o",
        -10.395441982704966
      ],
      [
        "americano",
        -10.395792602347688
      ],
      [
        "campeÃ£o",
        -10.395822051245371
      ],
      [
        "ĠCapi",
        -10.396153836574015
      ],
      [
        "Ġresulta",
        -10.396346002684984
      ],
      [
        "Ġreclama",
        -10.396436347080964
      ],
      [
        "existem",
        -10.396725423863192
      ],
      [
        "expressÃ£o",
        -10.397390765999877
      ],
      [
        "Amazonas",
        -10.397485471531242
      ],
      [
        "retirada",
        -10.398279154864207
      ],
      [
        "definiÃ§Ã£o",
        -10.398448353336772
      ],
      [
        "etapa",
        -10.39906507215844
      ],
      [
        "ĠfaÃ§a",
        -10.3991883224763
      ],
      [
        "ĠParlamento",
        -10.399496215684692
      ],
      [
        "ĠSin",
        -10.399499969078004
      ],
      [
        "ĠSai",
        -10.399506247483684
      ],
      [
        "apensado",
        -10.399553356500162
      ],
      [
        "ation",
        -10.39971129508404
      ],
      [
        "ĠfaÃ§o",
        -10.399958347799888
      ],
      [
        "consumo",
        -10.400214182711313
      ],
      [
        "gravada",
        -10.400872511869665
      ],
      [
        "equipamentos",
        -10.401292512283565
      ],
      [
        "ĠNeto",
        -10.401897040761163
      ],
      [
        "tinho",
        -10.402136804513114
      ],
      [
        "ĠlÃŃder",
        -10.40277963864207
      ],
      [
        "Ġpartida",
        -10.403100927783486
      ],
      [
        "Ġgosto",
        -10.403514738848674
      ],
      [
        "Ġvoz",
        -10.403595096255303
      ],
      [
        "tais",
        -10.403685151273788
      ],
      [
        "elementos",
        -10.4040443598413
      ],
      [
        "ĠJU",
        -10.404159126434326
      ],
      [
        "Ġconhece",
        -10.40422862249562
      ],
      [
        "Barbosa",
        -10.404590570612507
      ],
      [
        "Ġrespectiva",
        -10.405259154536678
      ],
      [
        "Ġjogador",
        -10.405721159821251
      ],
      [
        "agentes",
        -10.405887480430442
      ],
      [
        "Ġoferta",
        -10.40622624122576
      ],
      [
        "Ġeventos",
        -10.406397907160024
      ],
      [
        "Ġtermina",
        -10.407251314591234
      ],
      [
        "Ġexporta",
        -10.407598597623505
      ],
      [
        "ĠHar",
        -10.40801528379075
      ],
      [
        "contexto",
        -10.408399488774206
      ],
      [
        "ĠVila",
        -10.40852370329187
      ],
      [
        "Ġescolha",
        -10.408708874240414
      ],
      [
        "ĠMeio",
        -10.408907512322596
      ],
      [
        "Ġdispor",
        -10.408977937990766
      ],
      [
        "·",
        -10.4092883074882
      ],
      [
        "empresÃ¡rio",
        -10.411130038426222
      ],
      [
        "ĠRegional",
        -10.411202566581556
      ],
      [
        "Ġvelho",
        -10.41123129861068
      ],
      [
        "Ġinternacionais",
        -10.411392306283132
      ],
      [
        "Ġgera",
        -10.411404871630603
      ],
      [
        "ocalidades",
        -10.411532063286923
      ],
      [
        "all",
        -10.411600990239366
      ],
      [
        "Mar",
        -10.411744429588378
      ],
      [
        "Ġbe",
        -10.411885152730134
      ],
      [
        "Ġtinham",
        -10.41326352323417
      ],
      [
        "Ġdaqui",
        -10.413639562193444
      ],
      [
        "desempenho",
        -10.413723084787902
      ],
      [
        "Ġesti",
        -10.413744885092504
      ],
      [
        "ther",
        -10.414555249077551
      ],
      [
        "Ġ1993",
        -10.41473497730782
      ],
      [
        "the",
        -10.415101575719929
      ],
      [
        "ĠDeve",
        -10.415405599237562
      ],
      [
        "Ġplanta",
        -10.41574929299778
      ],
      [
        "http",
        -10.415813489727093
      ],
      [
        "Ġesposa",
        -10.416114231151816
      ],
      [
        "Ġcima",
        -10.416151070648285
      ],
      [
        "Ġvinte",
        -10.41647846095148
      ],
      [
        "Ġeleitoral",
        -10.416943020988242
      ],
      [
        "Ġsexta",
        -10.416964730608838
      ],
      [
        "Ġcarta",
        -10.41726974899806
      ],
      [
        "Ġadequa",
        -10.417280557554372
      ],
      [
        "tentativa",
        -10.418020226887196
      ],
      [
        "ĠIN",
        -10.41928120926216
      ],
      [
        "ĠTim",
        -10.420131292019212
      ],
      [
        "ĠCap",
        -10.420489970401222
      ],
      [
        "ĠjurisprudÃªncia",
        -10.420624255772148
      ],
      [
        "veÃŃculos",
        -10.420913936462863
      ],
      [
        "ĠalÃŃnea",
        -10.420916122136736
      ],
      [
        "RelaÃ§Ãµes",
        -10.421437429451148
      ],
      [
        "Ġhabita",
        -10.421867466948768
      ],
      [
        "Ġcomando",
        -10.42259981046201
      ],
      [
        "Ġfogo",
        -10.42293196583995
      ],
      [
        "AgÃªncia",
        -10.422959495726538
      ],
      [
        "Ġresto",
        -10.423565968631232
      ],
      [
        "ĠalcanÃ§",
        -10.424312399425352
      ],
      [
        "ĠMagalhÃ£es",
        -10.425119165463425
      ],
      [
        "Ġvive",
        -10.425165426881172
      ],
      [
        "Ġampla",
        -10.425524751901788
      ],
      [
        "reconhecimento",
        -10.42584249742124
      ],
      [
        "MAN",
        -10.426200276636724
      ],
      [
        "endente",
        -10.426478260622147
      ],
      [
        "ĠIsto",
        -10.426510152226824
      ],
      [
        "2002",
        -10.42693414973774
      ],
      [
        "Ġquebra",
        -10.426972881838209
      ],
      [
        "Ġprodutor",
        -10.428197544363188
      ],
      [
        "Ĵ",
        -10.428347479579106
      ],
      [
        "onda",
        -10.429068431228828
      ],
      [
        "ĠusuÃ¡rio",
        -10.429146780493648
      ],
      [
        "PRIMEIR",
        -10.429429907117736
      ],
      [
        "convidado",
        -10.430423849312255
      ],
      [
        "Ġposto",
        -10.430525222271765
      ],
      [
        "Ġdado",
        -10.431343826218422
      ],
      [
        "ĠSam",
        -10.431840838375658
      ],
      [
        "elli",
        -10.431989707599824
      ],
      [
        "Ġcorte",
        -10.432501815943995
      ],
      [
        "ð",
        -10.432754287177088
      ],
      [
        "Ġinclui",
        -10.433157498560927
      ],
      [
        "Ġven",
        -10.433243782442316
      ],
      [
        "ĠCarreira",
        -10.433672850244715
      ],
      [
        "francÃªs",
        -10.434106289068598
      ],
      [
        "rena",
        -10.434140523508454
      ],
      [
        "ĠMARCO",
        -10.43422848017546
      ],
      [
        "ĠTal",
        -10.435061830364644
      ],
      [
        "ĠClaro",
        -10.435088111340416
      ],
      [
        "Ġrelator",
        -10.4360544313786
      ],
      [
        "ĠlicenÃ§a",
        -10.43618048638772
      ],
      [
        "presidente",
        -10.436401682446496
      ],
      [
        "ĠJan",
        -10.437458862916834
      ],
      [
        "ĠExterior",
        -10.43767518470224
      ],
      [
        "apelo",
        -10.438172741130062
      ],
      [
        "decisÃµes",
        -10.439929896419873
      ],
      [
        "necessÃ¡ria",
        -10.440040903529042
      ],
      [
        "metade",
        -10.441583806521844
      ],
      [
        "Ġaumenta",
        -10.441659062385046
      ],
      [
        "Ġassinatura",
        -10.442015605375955
      ],
      [
        "administrativo",
        -10.44252896183711
      ],
      [
        "Ġposse",
        -10.442803527226989
      ],
      [
        "ĠPER",
        -10.4434021389433
      ],
      [
        "ĠCPI",
        -10.443478879201663
      ],
      [
        "provÃŃncia",
        -10.44431118003211
      ],
      [
        "ĠFolha",
        -10.444651856497265
      ],
      [
        "ĠFerreira",
        -10.445334296729545
      ],
      [
        "Ġ200",
        -10.44588631217436
      ],
      [
        "Ġjunta",
        -10.44644973479782
      ],
      [
        "Enquanto",
        -10.446511181056252
      ],
      [
        "ĠClube",
        -10.44653106401137
      ],
      [
        "Ġexterior",
        -10.446766006963376
      ],
      [
        "Ġnove",
        -10.44678049046814
      ],
      [
        "Ġinstru",
        -10.446997108211791
      ],
      [
        "gula",
        -10.447079985606925
      ],
      [
        "ĠConstitucional",
        -10.447290042662342
      ],
      [
        "indicaÃ§Ã£o",
        -10.44793145138501
      ],
      [
        "Ġindi",
        -10.448371743470718
      ],
      [
        "Ġcursos",
        -10.44959896064625
      ],
      [
        "Ġencaminh",
        -10.449737507659808
      ],
      [
        "Ġseguro",
        -10.449795876486528
      ],
      [
        "ĠrÃ¡dio",
        -10.449879358467584
      ],
      [
        "............",
        -10.450189201737292
      ],
      [
        "Ġcontato",
        -10.450324801405914
      ],
      [
        "finalidade",
        -10.45100398285116
      ],
      [
        "ĠSO",
        -10.45105113024079
      ],
      [
        "ĠelÃ©trica",
        -10.451129511997578
      ],
      [
        "licitaÃ§Ã£o",
        -10.45135651975744
      ],
      [
        "ĠcompetiÃ§Ã£o",
        -10.451754717426608
      ],
      [
        "Ġconsidera",
        -10.452611726921026
      ],
      [
        "Ġcinema",
        -10.4527860683906
      ],
      [
        "incidÃªncia",
        -10.452893939002768
      ],
      [
        "Ġchance",
        -10.453358439538466
      ],
      [
        "Ġaceita",
        -10.454128740197786
      ],
      [
        "Ġcultural",
        -10.454581450743635
      ],
      [
        "ĠOrÃ§ament",
        -10.454842658320365
      ],
      [
        "Ġ1992",
        -10.455834767703644
      ],
      [
        "Ġlivros",
        -10.456541955346523
      ],
      [
        "Ġregistrar",
        -10.45702363611373
      ],
      [
        "Ġterceira",
        -10.457251186603068
      ],
      [
        "ella",
        -10.45830607182062
      ],
      [
        "funcionamento",
        -10.45883830200655
      ],
      [
        "ESTADO",
        -10.459183544353348
      ],
      [
        "Outra",
        -10.459634006559
      ],
      [
        "ĠMello",
        -10.460332899023326
      ],
      [
        "onclusÃ£o",
        -10.460532198721452
      ],
      [
        "votos",
        -10.460797122597349
      ],
      [
        "MÃ£o",
        -10.460826665183587
      ],
      [
        "exploraÃ§Ã£o",
        -10.4614071755723
      ],
      [
        "Ġatende",
        -10.461690693091672
      ],
      [
        "ĠEspanha",
        -10.462534383177424
      ],
      [
        "vado",
        -10.462987240624749
      ],
      [
        "Ġentende",
        -10.463005900482372
      ],
      [
        "Ġimediata",
        -10.463244625343028
      ],
      [
        "Ġpersonagem",
        -10.463257106314977
      ],
      [
        "Ġinteiro",
        -10.463276191589236
      ],
      [
        "ĠMer",
        -10.463412715259766
      ],
      [
        "Ġveja",
        -10.464447307402905
      ],
      [
        "ĠConstitui",
        -10.465683486661256
      ],
      [
        "ĠPaul",
        -10.465836101700946
      ],
      [
        "Embora",
        -10.466348327913469
      ],
      [
        "tributÃ¡ria",
        -10.466388420117568
      ],
      [
        "ĠEli",
        -10.466545685547365
      ],
      [
        "Ġsenti",
        -10.466651054923744
      ],
      [
        "policiais",
        -10.467645076933811
      ],
      [
        "ĠdistÃ¢ncia",
        -10.46775838676693
      ],
      [
        "fundamento",
        -10.468405076641078
      ],
      [
        "Ġsabia",
        -10.468648192542608
      ],
      [
        "Ġprefeito",
        -10.468812669842626
      ],
      [
        "Ġjoga",
        -10.46990479148029
      ],
      [
        "comÃ©rcio",
        -10.470285383446994
      ],
      [
        "Ġitem",
        -10.470428520247903
      ],
      [
        "ĠespÃ©cies",
        -10.470471409122224
      ],
      [
        "Ġpermanente",
        -10.47051372315541
      ],
      [
        "Ġproduzir",
        -10.471230150151262
      ],
      [
        "ĠVida",
        -10.47137164233133
      ],
      [
        "Ġcal",
        -10.47167372419815
      ],
      [
        "trinta",
        -10.471895534732669
      ],
      [
        "cir",
        -10.472637510729632
      ],
      [
        "Ġquiser",
        -10.473292161969304
      ],
      [
        "Ġindividual",
        -10.473455574124817
      ],
      [
        "lex",
        -10.47354930366674
      ],
      [
        "geralmente",
        -10.473711198429374
      ],
      [
        "Ġadolescente",
        -10.476484108522513
      ],
      [
        "ĠDan",
        -10.476718024419943
      ],
      [
        "lizar",
        -10.477149806668912
      ],
      [
        "ĠYork",
        -10.477166405659489
      ],
      [
        "ĠMc",
        -10.47732291325624
      ],
      [
        "ĠMartins",
        -10.47741171379626
      ],
      [
        "tive",
        -10.47741938471529
      ],
      [
        "Ġpaz",
        -10.478058076447812
      ],
      [
        "Ġdiminui",
        -10.478683181704318
      ],
      [
        "ĠMuseu",
        -10.47916175574701
      ],
      [
        "ligaÃ§Ã£o",
        -10.479880310006
      ],
      [
        "Ġpensar",
        -10.480080459375502
      ],
      [
        "mantid",
        -10.480938643116852
      ],
      [
        "Parlamentare",
        -10.4813680821727
      ],
      [
        "Couto",
        -10.4826751854647
      ],
      [
        "fizeram",
        -10.483123177656514
      ],
      [
        "ĠfÃ¡cil",
        -10.48321558109189
      ],
      [
        "ĠParte",
        -10.48356896459552
      ],
      [
        "Ġimplica",
        -10.483659281527917
      ],
      [
        "Bibliografia",
        -10.483862740192649
      ],
      [
        "ric",
        -10.484674034829624
      ],
      [
        "domÃŃnio",
        -10.485340298968485
      ],
      [
        "Ġaquilo",
        -10.485662504150692
      ],
      [
        "Ġconversa",
        -10.485972498337809
      ],
      [
        "Pernambuco",
        -10.486351738637262
      ],
      [
        "ordinÃ¡ria",
        -10.48684263852455
      ],
      [
        "ĠAntes",
        -10.486911625414844
      ],
      [
        "usando",
        -10.487160933447736
      ],
      [
        "ĠMelhor",
        -10.488628947946246
      ],
      [
        "ĠprÃ©vi",
        -10.488832755894949
      ],
      [
        "Ġ1913",
        -10.490042331691813
      ],
      [
        "Ġenorme",
        -10.490748687944157
      ],
      [
        "ĠAgricultura",
        -10.491270137022434
      ],
      [
        "Ġlonga",
        -10.491469342712652
      ],
      [
        "estudantes",
        -10.491480636516696
      ],
      [
        "consumidor",
        -10.49214183165376
      ],
      [
        "ĠNÃĥO",
        -10.492193082333506
      ],
      [
        "esteja",
        -10.492554404136037
      ],
      [
        "terminou",
        -10.492743048496903
      ],
      [
        "Ġinsti",
        -10.493151990734912
      ],
      [
        "professores",
        -10.493780182567544
      ],
      [
        "Ġobservado",
        -10.493844318966351
      ],
      [
        "ĠcrÃŃtica",
        -10.49400820803588
      ],
      [
        "bÃ¡sica",
        -10.494667941617188
      ],
      [
        "morreu",
        -10.494915753399216
      ],
      [
        "Vieira",
        -10.495365139627449
      ],
      [
        "Ġfamiliar",
        -10.4954418483189
      ],
      [
        "Ġtele",
        -10.495942898650918
      ],
      [
        "Ġpensa",
        -10.496502704028662
      ],
      [
        "ĠParece",
        -10.49657923670694
      ],
      [
        "Ġdemonstra",
        -10.49662573198296
      ],
      [
        "Ġclara",
        -10.497828358378994
      ],
      [
        "petrÃ³leo",
        -10.498089106768536
      ],
      [
        "nanimidade",
        -10.498653963680676
      ],
      [
        "trÃ¢nsito",
        -10.498943089869758
      ],
      [
        "ick",
        -10.499048471928417
      ],
      [
        "Ġlimita",
        -10.499149885056934
      ],
      [
        "aposentadoria",
        -10.50018586084455
      ],
      [
        "Ġjeito",
        -10.500260604060989
      ],
      [
        "iauÃŃ",
        -10.501314136059277
      ],
      [
        "companheiro",
        -10.502535973561042
      ],
      [
        "patrimÃ´nio",
        -10.5026302515679
      ],
      [
        "ĠMonte",
        -10.5027038622948
      ],
      [
        "Ġsenador",
        -10.503047664463054
      ],
      [
        "Ĩ",
        -10.503435318356386
      ],
      [
        "Ġindica",
        -10.503830850639854
      ],
      [
        "ĠNovo",
        -10.504140898992308
      ],
      [
        "arney",
        -10.504440563358276
      ],
      [
        "¸",
        -10.505225677861375
      ],
      [
        "escrita",
        -10.505361865879896
      ],
      [
        "postos",
        -10.505655423381691
      ],
      [
        "recebido",
        -10.506158221626215
      ],
      [
        "Ġinferior",
        -10.506172270887008
      ],
      [
        "Ġalternativa",
        -10.506503190810404
      ],
      [
        "Ġmensagem",
        -10.506652165868468
      ],
      [
        "Ġanteriores",
        -10.507385694265883
      ],
      [
        "ÃŃveis",
        -10.50753699703422
      ],
      [
        "Ġrapid",
        -10.508105139883728
      ],
      [
        "Ġofens",
        -10.508385833874904
      ],
      [
        "ĠMachado",
        -10.508465692903812
      ],
      [
        "bot",
        -10.509085650556276
      ],
      [
        "Ġpatr",
        -10.509586471449428
      ],
      [
        "ĠAurÃ©li",
        -10.510763544735848
      ],
      [
        "Ġintegral",
        -10.510825964163196
      ],
      [
        "Ġreferente",
        -10.511259536766962
      ],
      [
        "2001",
        -10.511631245135808
      ],
      [
        "Ġvolume",
        -10.511651895832872
      ],
      [
        "transferÃªncia",
        -10.51168258958947
      ],
      [
        "ocumentaÃ§Ã£o",
        -10.512738896309342
      ],
      [
        "ĠcoraÃ§Ã£o",
        -10.512889657595558
      ],
      [
        "Ġhabe",
        -10.51329258617744
      ],
      [
        "Ġpreocupa",
        -10.513346313070985
      ],
      [
        "µ",
        -10.513373683951086
      ],
      [
        "Ġdesen",
        -10.514293470776428
      ],
      [
        "passando",
        -10.514722569429226
      ],
      [
        "Ãģfrica",
        -10.514735581118137
      ],
      [
        "âĢĵâĢĵâĢĵâĢĵâĢĵ",
        -10.514748302113308
      ],
      [
        "Ġaberta",
        -10.5151486791389
      ],
      [
        "tte",
        -10.515912174700317
      ],
      [
        "Ġacompanh",
        -10.516160892659844
      ],
      [
        "investigaÃ§Ã£o",
        -10.516236070715596
      ],
      [
        "erra",
        -10.516238126563389
      ],
      [
        "camp",
        -10.516602604031082
      ],
      [
        "ĠGO",
        -10.516696994495488
      ],
      [
        "ĠCultural",
        -10.516745377690784
      ],
      [
        "»",
        -10.517277309709566
      ],
      [
        "Com",
        -10.517314396720678
      ],
      [
        "horÃ¡rio",
        -10.518590317704277
      ],
      [
        "ĠEdita",
        -10.518834123591276
      ],
      [
        "redor",
        -10.518955654387357
      ],
      [
        "produtores",
        -10.519106888946576
      ],
      [
        "Ġmostrar",
        -10.519121940714864
      ],
      [
        "ĠWilliam",
        -10.519379613101886
      ],
      [
        "Rodrigo",
        -10.52003078055928
      ],
      [
        "PLS",
        -10.520157898466325
      ],
      [
        "ĠPare",
        -10.520808398050622
      ],
      [
        "Ġaltura",
        -10.521244487872169
      ],
      [
        "desafio",
        -10.521835249145628
      ],
      [
        "Į",
        -10.522066045338724
      ],
      [
        "Candido",
        -10.522129598001694
      ],
      [
        "Ġolhos",
        -10.52217889265378
      ],
      [
        "ĠItÃ¡lia",
        -10.522255228826449
      ],
      [
        "ļ",
        -10.522302454968823
      ],
      [
        "ĠJapÃ£o",
        -10.522671138580447
      ],
      [
        "funcionÃ¡rios",
        -10.522918370349858
      ],
      [
        "Renan",
        -10.523111578620512
      ],
      [
        "cÃ³pia",
        -10.523157060859925
      ],
      [
        "tomada",
        -10.523806222392755
      ],
      [
        "ĠEspÃŃrit",
        -10.52480046080329
      ],
      [
        "ĠPaim",
        -10.524909937963647
      ],
      [
[...]
