{
  "version": "1.0",
  "truncation": {
    "direction": "Right",
    "max_length": 2048,
    "strategy": "LongestFirst",
    "stride": 0
  },
  "padding": null,
  "added_tokens": [
    {
      "id": 0,
      "content": "[PAD]",
      "single_word": false,
      "lstrip": false,
      "rstrip": false,
      "normalized": false,
      "special": true
    },
    {
      "id": 1,
      "content": "[SEP]",
      "single_word": false,
      "lstrip": false,
      "rstrip": false,
      "normalized": false,
      "special": true
    },
    {
      "id": 2,
      "content": "[EOS]",
      "single_word": false,
      "lstrip": false,
      "rstrip": false,
      "normalized": false,
      "special": true
    },
    {
      "id": 3,
      "content": "[UNK]",
      "single_word": false,
      "lstrip": false,
      "rstrip": false,
      "normalized": false,
      "special": true
    }
  ],
  "normalizer": {
    "type": "Sequence",
    "normalizers": [
      {
        "type": "Strip",
        "strip_left": true,
        "strip_right": true
      },
      {
        "type": "NFKD"
      }
    ]
  },
  "pre_tokenizer": {
    "type": "ByteLevel",
    "add_prefix_space": true,
    "trim_offsets": true,
    "use_regex": true
  },
  "post_processor": {
    "type": "Sequence",
    "processors": [
      {
        "type": "ByteLevel",
        "add_prefix_space": true,
        "trim_offsets": true,
        "use_regex": true
      },
      {
        "type": "TemplateProcessing",
        "single": [
          {
            "Sequence": {
              "id": "A",
              "type_id": 0
            }
          },
          {
            "SpecialToken": {
              "id": "[EOS]",
              "type_id": 0
            }
          }
        ],
        "pair": [
          {
            "Sequence": {
              "id": "A",
              "type_id": 0
            }
          },
          {
            "SpecialToken": {
              "id": "[SEP]",
              "type_id": 0
            }
          },
          {
            "Sequence": {
              "id": "B",
              "type_id": 0
            }
          },
          {
            "SpecialToken": {
              "id": "[EOS]",
              "type_id": 0
            }
          }
        ],
        "special_tokens": {
          "[EOS]": {
            "id": "[EOS]",
            "ids": [
              2
            ],
            "tokens": [
              "[EOS]"
            ]
          },
          "[SEP]": {
            "id": "[SEP]",
            "ids": [
              1
            ],
            "tokens": [
              "[SEP]"
            ]
          }
        }
      }
    ]
  },
  "decoder": {
    "type": "ByteLevel",
    "add_prefix_space": true,
    "trim_offsets": true,
    "use_regex": true
  },
  "model": {
    "type": "BPE",
    "dropout": null,
    "unk_token": null,
    "continuing_subword_prefix": null,
    "end_of_word_suffix": null,
    "fuse_unk": false,
    "byte_fallback": false,
    "ignore_merges": false,
    "vocab": {
      "[PAD]": 0,
      "[SEP]": 1,
      "[EOS]": 2,
      "[UNK]": 3,
      "!": 4,
      "\"": 5,
      "#": 6,
      "$": 7,
      "%": 8,
      "&": 9,
      "'": 10,
      "(": 11,
      ")": 12,
      "*": 13,
      "+": 14,
      ",": 15,
      "-": 16,
      ".": 17,
      "/": 18,
      "0": 19,
      "1": 20,
      "2": 21,
      "3": 22,
      "4": 23,
      "5": 24,
      "6": 25,
      "7": 26,
      "8": 27,
      "9": 28,
      ":": 29,
      ";": 30,
      "<": 31,
      "=": 32,
      ">": 33,
      "?": 34,
      "@": 35,
      "A": 36,
      "B": 37,
      "C": 38,
      "D": 39,
      "E": 40,
      "F": 41,
      "G": 42,
      "H": 43,
      "I": 44,
      "J": 45,
      "K": 46,
      "L": 47,
      "M": 48,
      "N": 49,
      "O": 50,
      "P": 51,
      "Q": 52,
      "R": 53,
      "S": 54,
      "T": 55,
      "U": 56,
      "V": 57,
      "W": 58,
      "X": 59,
      "Y": 60,
      "Z": 61,
      "[": 62,
      "\\": 63,
      "]": 64,
      "^": 65,
      "_": 66,
      "`": 67,
      "a": 68,
      "b": 69,
      "c": 70,
      "d": 71,
      "e": 72,
      "f": 73,
      "g": 74,
      "h": 75,
      "i": 76,
      "j": 77,
      "k": 78,
      "l": 79,
      "m": 80,
      "n": 81,
      "o": 82,
      "p": 83,
      "q": 84,
      "r": 85,
      "s": 86,
      "t": 87,
      "u": 88,
      "v": 89,
      "w": 90,
      "x": 91,
      "y": 92,
      "z": 93,
      "{": 94,
      "|": 95,
      "}": 96,
      "~": 97,
      "¡": 98,
      "¢": 99,
      "£": 100,
      "¤": 101,
      "¥": 102,
      "¦": 103,
      "§": 104,
      "¨": 105,
      "©": 106,
      "ª": 107,
      "«": 108,
      "¬": 109,
      "®": 110,
      "¯": 111,
      "°": 112,
      "±": 113,
      "²": 114,
      "³": 115,
      "´": 116,
      "µ": 117,
      "¶": 118,
      "·": 119,
      "¸": 120,
      "¹": 121,
      "º": 122,
      "»": 123,
      "¼": 124,
      "½": 125,
      "¾": 126,
      "¿": 127,
      "À": 128,
      "Á": 129,
      "Â": 130,
      "Ã": 131,
      "Ä": 132,
      "Å": 133,
      "Æ": 134,
      "Ç": 135,
      "È": 136,
      "É": 137,
      "Ê": 138,
      "Ë": 139,
      "Ì": 140,
      "Í": 141,
      "Î": 142,
      "Ï": 143,
      "Ð": 144,
      "Ñ": 145,
      "Ò": 146,
      "Ó": 147,
      "Ô": 148,
      "Õ": 149,
      "Ö": 150,
      "×": 151,
      "Ø": 152,
      "Ù": 153,
      "Ú": 154,
      "Û": 155,
      "Ü": 156,
      "Ý": 157,
      "Þ": 158,
      "ß": 159,
      "à": 160,
      "á": 161,
      "â": 162,
      "ã": 163,
      "ä": 164,
      "å": 165,
      "æ": 166,
      "ç": 167,
      "è": 168,
      "é": 169,
      "ê": 170,
      "ë": 171,
      "ì": 172,
      "í": 173,
      "î": 174,
      "ï": 175,
      "ð": 176,
      "ñ": 177,
      "ò": 178,
      "ó": 179,
      "ô": 180,
      "õ": 181,
      "ö": 182,
      "÷": 183,
      "ø": 184,
      "ù": 185,
      "ú": 186,
      "û": 187,
      "ü": 188,
      "ý": 189,
      "þ": 190,
      "ÿ": 191,
      "Ā": 192,
      "ā": 193,
      "Ă": 194,
      "ă": 195,
      "Ą": 196,
      "ą": 197,
      "Ć": 198,
      "ć": 199,
      "Ĉ": 200,
      "ĉ": 201,
      "Ċ": 202,
      "ċ": 203,
      "Č": 204,
      "č": 205,
      "Ď": 206,
      "ď": 207,
      "Đ": 208,
      "đ": 209,
      "Ē": 210,
      "ē": 211,
      "Ĕ": 212,
      "ĕ": 213,
      "Ė": 214,
      "ė": 215,
      "Ę": 216,
      "ę": 217,
      "Ě": 218,
      "ě": 219,
      "Ĝ": 220,
      "ĝ": 221,
      "Ğ": 222,
      "ğ": 223,
      "Ġ": 224,
      "ġ": 225,
      "Ģ": 226,
      "ģ": 227,
      "Ĥ": 228,
      "ĥ": 229,
      "Ħ": 230,
      "ħ": 231,
      "Ĩ": 232,
      "ĩ": 233,
      "Ī": 234,
      "ī": 235,
      "Ĭ": 236,
      "ĭ": 237,
      "Į": 238,
      "į": 239,
      "İ": 240,
      "ı": 241,
      "Ĳ": 242,
      "ĳ": 243,
      "Ĵ": 244,
      "ĵ": 245,
      "Ķ": 246,
      "ķ": 247,
      "ĸ": 248,
      "Ĺ": 249,
      "ĺ": 250,
      "Ļ": 251,
      "ļ": 252,
      "Ľ": 253,
      "ľ": 254,
      "Ŀ": 255,
      "ŀ": 256,
      "Ł": 257,
      "ł": 258,
      "Ń": 259,
      "Ġd": 260,
      "Ġa": 261,
      "Ġe": 262,
      "Ìģ": 263,
      "ra": 264,
      "Ġde": 265,
      "Ġp": 266,
      "os": 267,
      "re": 268,
      "nt": 269,
      "Ìĥ": 270,
      "Ġc": 271,
      "..": 272,
      "ta": 273,
      "ri": 274,
      "Ġs": 275,
      "na": 276,
      "do": 277,
      "qu": 278,
      "Ġo": 279,
      "is": 280,
      "es": 281,
      "Ì§": 282,
      "er": 283,
      "da": 284,
      "ma": 285,
      "Ġco": 286,
      "me": 287,
      "ic": 288,
      "or": 289,
      "ia": 290,
      "ro": 291,
      "Ġqu": 292,
      "de": 293,
      "te": 294,
      "ĠP": 295,
      "to": 296,
      "in": 297,
      "la": 298,
      "Ġf": 299,
      "Ġdo": 300,
      "Ġn": 301,
      "Ġque": 302,
      "Ġda": 303,
      "ĠS": 304,
      "....": 305,
      "ĠC": 306,
      "ĠA": 307,
      "nc": 308,
      "ti": 309,
      "nte": 310,
      "ĠE": 311,
      "Ġpa": 312,
      "Ġse": 313,
      "le": 314,
      "Ġre": 315,
      "as": 316,
      "Ġu": 317,
      "ĠD": 318,
      "Ġcom": 319,
      "Ġv": 320,
      "io": 321,
      "Ġna": 322,
      "ÌĤ": 323,
      "ar": 324,
      "al": 325,
      "Ġes": 326,
      "ĠM": 327,
      "res": 328,
      "Ġem": 329,
      "Ġno": 330,
      "Ġm": 331,
      "âĢ": 332,
      "ns": 333,
      "Ġ1": 334,
      "lo": 335,
      "ac": 336,
      "ĠR": 337,
      "ida": 338,
      "nto": 339,
      "tu": 340,
      "ĠO": 341,
      "Ġma": 342,
      "Ġ2": 343,
      "Ġ(": 344,
      "ha": 345,
      "........": 346,
      "ve": 347,
      "Ġpara": 348,
      "so": 349,
      "Ġt": 350,
      "ĠN": 351,
      "ĠâĢ": 352,
      "sa": 353,
      "ndo": 354,
      "pe": 355,
      "li": 356,
      "ho": 357,
      "ĠL": 358,
      "Ġpro": 359,
      "ria": 360,
      "gu": 361,
      "Ġpe": 362,
      "va": 363,
      "Ġin": 364,
      "ĠF": 365,
      "ei": 366,
      "dos": 367,
      "se": 368,
      "Ġb": 369,
      "ica": 370,
      "Ġi": 371,
      "ĠB": 372,
      "ĠT": 373,
      "co": 374,
      "ce": 375,
      "no": 376,
      "Ġte": 377,
      "ga": 378,
      "ĠCo": 379,
      "il": 380,
      "ncia": 381,
      "Ġme": 382,
      "em": 383,
      "mento": 384,
      "po": 385,
      "ĠâĢĵ": 386,
      "us": 387,
      "ĠI": 388,
      "Ġum": 389,
      "nta": 390,
      "Ġpor": 391,
      "go": 392,
      "mo": 393,
      "Ġso": 394,
      "Ġpo": 395,
      "ca": 396,
      "ĠV": 397,
      "Ġas": 398,
      "ras": 399,
      "di": 400,
      "Ġsu": 401,
      "00": 402,
      "Ġuma": 403,
      "vo": 404,
      "ĠG": 405,
      "Ġ\"": 406,
      "Ġos": 407,
      "Ġex": 408,
      "Ġou": 409,
      "Ġca": 410,
      "Ġj": 411,
      "cu": 412,
      "Ġesta": 413,
      "idade": 414,
      "nal": 415,
      "ĠJ": 416,
      "mente": 417,
      "un": 418,
      "mp": 419,
      "mb": 420,
      "rio": 421,
      "ci": 422,
      "Ġfo": 423,
      "Ġdos": 424,
      "mos": 425,
      "en": 426,
      "Ġdes": 427,
      "Ġdi": 428,
      "ÌĢ": 429,
      "ĠDe": 430,
      "gra": 431,
      "ĠEs": 432,
      "pu": 433,
      "ui": 434,
      "Ġao": 435,
      "................": 436,
      "ide": 437,
      "ni": 438,
      "mi": 439,
      "tos": 440,
      "que": 441,
      "Ġfa": 442,
      "ĠRe": 443,
      "ge": 444,
      "ul": 445,
      "01": 446,
      "ĠSe": 447,
      "Ġta": 448,
      "he": 449,
      "ntes": 450,
      "du": 451,
      "tado": 452,
      "Ġcomo": 453,
      "ico": 454,
      "pa": 455,
      "fe": 456,
      "Ġvo": 457,
      "tra": 458,
      "ver": 459,
      "Ġtra": 460,
      "Ġcon": 461,
      "ĠPa": 462,
      "cio": 463,
      "Ġsa": 464,
      "za": 465,
      "cia": 466,
      "das": 467,
      "Ġ19": 468,
      "Ġar": 469,
      "ram": 470,
      "vi": 471,
      "ne": 472,
      "ros": 473,
      "ral": 474,
      "Ġpre": 475,
      "Ġdis": 476,
      "Ġcons": 477,
      "Ġ-": 478,
      "ĠDE": 479,
      "nde": 480,
      "Ġser": 481,
      "Ġto": 482,
      "Ġap": 483,
      "Ġfoi": 484,
      "ĠH": 485,
      "lu": 486,
      "ru": 487,
      "orma": 488,
      "si": 489,
      "Ġ3": 490,
      "dor": 491,
      "be": 492,
      "Ġdas": 493,
      "Ġmais": 494,
      "titu": 495,
      "Ġnos": 496,
      "ĠU": 497,
      "ĠNo": 498,
      "an": 499,
      "gi": 500,
      "ment": 501,
      "des": 502,
      "TO": 503,
      "Ġcont": 504,
      "tro": 505,
      "ira": 506,
      "Ġpela": 507,
      "je": 508,
      "bl": 509,
      "Ġal": 510,
      "Ġpar": 511,
      "ici": 512,
      "ĠCa": 513,
      "Ġle": 514,
      "ĠSa": 515,
      "ĠNa": 516,
      "ĠMa": 517,
      "bre": 518,
      "rac": 519,
      "reside": 520,
      "EN": 521,
      "ista": 522,
      "Ġmo": 523,
      "RA": 524,
      "esso": 525,
      "Ġ200": 526,
      "Ġpri": 527,
      "Ġac": 528,
      "qui": 529,
      "isa": 530,
      "ou": 531,
      "ĠDepu": 532,
      "Ġter": 533,
      "nos": 534,
      "Ġres": 535,
      "ES": 536,
      "pos": 537,
      "ĠPR": 538,
      "ir": 539,
      "Ġve": 540,
      "Ġpelo": 541,
      "Ġele": 542,
      "Ġsi": 543,
      "Ġtem": 544,
      "Ġsua": 545,
      "Ġper": 546,
      "Ġ201": 547,
      "nas": 548,
      "tor": 549,
      "...": 550,
      "Ġqua": 551,
      "Ġva": 552,
      "el": 553,
      "ja": 554,
      "residente": 555,
      "ita": 556,
      "Ġsobre": 557,
      "Ġfi": 558,
      "Ġau": 559,
      "Ġ4": 560,
      "ĠSr": 561,
      "ito": 562,
      "Ġent": 563,
      "Ġ5": 564,
      "ĠCom": 565,
      "dic": 566,
      "ba": 567,
      "ter": 568,
      "Ġli": 569,
      "iste": 570,
      "nda": 571,
      "rese": 572,
      "Ġho": 573,
      "Ġsegu": 574,
      "min": 575,
      "iro": 576,
      "Ġob": 577,
      "Ġha": 578,
      "tar": 579,
      "tiv": 580,
      "vel": 581,
      "tic": 582,
      "Ġpu": 583,
      "Ġpos": 584,
      "Ġpode": 585,
      "dia": 586,
      "âĢĿ": 587,
      "mbe": 588,
      "der": 589,
      "bu": 590,
      "Ġla": 591,
      "ĠPro": 592,
      "ĠâĢľ": 593,
      "ede": 594,
      "Ġh": 595,
      "tiva": 596,
      "Ġseu": 597,
      "................................": 598,
      "nti": 599,
      "fere": 600,
      "Ġg": 601,
      "tivo": 602,
      "Ġimp": 603,
      "lac": 604,
      "xa": 605,
      "tri": 606,
      "tas": 607,
      "ali": 608,
      "nter": 609,
      "ĠSena": 610,
      "nsa": 611,
      "ĠPresidente": 612,
      "ĠBras": 613,
      "tica": 614,
      "dade": 615,
      "bal": 616,
      "los": 617,
      "les": 618,
      "isso": 619,
      "Ġtambe": 620,
      "ber": 621,
      "ĠLei": 622,
      "Ġmas": 623,
      "ĠQ": 624,
      "),": 625,
      "Ġate": 626,
      "tac": 627,
      "inha": 628,
      "tura": 629,
      "issa": 630,
      "Ġen": 631,
      "tados": 632,
      "Ġeu": 633,
      "Ġgra": 634,
      "ĠEm": 635,
      "Ġmui": 636,
      "bo": 637,
      "Ġvi": 638,
      "eiro": 639,
      "Ġdia": 640,
      "Ġmes": 641,
      "201": 642,
      "ĠPe": 643,
      "gia": 644,
      "ero": 645,
      "RI": 646,
      "fic": 647,
      "ĠW": 648,
      "Ġ6": 649,
      "ĠSu": 650,
      "Ġfaz": 651,
      "ĠRE": 652,
      "rios": 653,
      "Ġra": 654,
      "ional": 655,
      "rar": 656,
      "ĠMin": 657,
      "ĠDeputado": 658,
      "zac": 659,
      "Ġlo": 660,
      "por": 661,
      ").": 662,
      "las": 663,
      "ĠFede": 664,
      "Ġart": 665,
      "Ġor": 666,
      "mentos": 667,
      "ncias": 668,
      "lia": 669,
      "TE": 670,
      "ĠPor": 671,
      "Ġcas": 672,
      "Ġne": 673,
      "\",": 674,
      "Ġentre": 675,
      "Ġins": 676,
      "ranc": 677,
      "lar": 678,
      "ĠAs": 679,
      "200": 680,
      "gos": 681,
      "mas": 682,
      "ĠRo": 683,
      "Ġcontra": 684,
      "ĠAr": 685,
      "ĠCons": 686,
      "nia": 687,
      "TA": 688,
      "Ġespe": 689,
      "Ġl": 690,
      "tes": 691,
      "ĠQu": 692,
      "gis": 693,
      "cre": 694,
      "ur": 695,
      "nha": 696,
      "ĠEu": 697,
      "ile": 698,
      "Ġti": 699,
      "Ġdire": 700,
      "ris": 701,
      "ĠPo": 702,
      "ĠGo": 703,
      "EI": 704,
      "gem": 705,
      "Ġforma": 706,
      "zo": 707,
      "essa": 708,
      "ĠFederal": 709,
      "ĠSR": 710,
      "dores": 711,
      "blica": 712,
      "fica": 713,
      "cional": 714,
      "pre": 715,
      "Ġja": 716,
      "forma": 717,
      "Ġisso": 718,
      "AR": 719,
      "Ġ7": 720,
      "Ġconc": 721,
      "esta": 722,
      "cial": 723,
      "Ġvoce": 724,
      "Ġanos": 725,
      "dio": 726,
      "DO": 727,
      "Ġdu": 728,
      "cor": 729,
      "DB": 730,
      "iso": 731,
      "tal": 732,
      "LA": 733,
      "Ġba": 734,
      "Ġinte": 735,
      "Ġnu": 736,
      "Ġout": 737,
      "ĠBrasil": 738,
      "Ġmu": 739,
      "Ġpas": 740,
      "Ġju": 741,
      "ie": 742,
      "Ġtrabal": 743,
      "Ġ8": 744,
      "Ġpra": 745,
      "Ġenc": 746,
      "idades": 747,
      "Ġcri": 748,
      "jeto": 749,
      "bi": 750,
      "ĠEstado": 751,
      "ĠSo": 752,
      "Ġcor": 753,
      "Ġqual": 754,
      "ĠPRO": 755,
      "ĠAl": 756,
      "Ġce": 757,
      "Ġfor": 758,
      "Ġprime": 759,
      "Ġaos": 760,
      "Ġver": 761,
      "via": 762,
      "Ġinc": 763,
      "__": 764,
      "fi": 765,
      "Ġ9": 766,
      "nd": 767,
      "Ġ:": 768,
      "IC": 769,
      "eira": 770,
      "isto": 771,
      "IS": 772,
      "Ġfu": 773,
      "mina": 774,
      "IN": 775,
      "pres": 776,
      "ĠLi": 777,
      "OS": 778,
      "sos": 779,
      "ER": 780,
      "duc": 781,
      "rias": 782,
      "Ġge": 783,
      "rie": 784,
      "ID": 785,
      "ribu": 786,
      "ino": 787,
      "Ġmuito": 788,
      "ĠMe": 789,
      "iona": 790,
      "cer": 791,
      "Ġpesso": 792,
      "Ġga": 793,
      "hor": 794,
      "Ġapro": 795,
      "ĠK": 796,
      "gar": 797,
      "Ġcar": 798,
      "Ġfe": 799,
      "rado": 800,
      "tituic": 801,
      "ĠCO": 802,
      "ĠCar": 803,
      "nu": 804,
      "nci": 805,
      "Ġnas": 806,
      "rem": 807,
      "inda": 808,
      "menta": 809,
      "pi": 810,
      "nho": 811,
      "Ġbo": 812,
      "cur": 813,
      "im": 814,
      "bri": 815,
      "ĠEx": 816,
      "ĠLe": 817,
      "tou": 818,
      "Ġ199": 819,
      "vol": 820,
      "IA": 821,
      "Ġdeve": 822,
      "ĠComissa": 823,
      "mpe": 824,
      "Ġinter": 825,
      "ĠVo": 826,
      "ĠÂ": 827,
      "ĠNac": 828,
      "\".": 829,
      "Ġad": 830,
      "Ġauto": 831,
      "verno": 832,
      "Ġbem": 833,
      "su": 834,
      "Ġ10": 835,
      "ĠMar": 836,
      "ĠMo": 837,
      "vic": 838,
      "gac": 839,
      "Ġaqui": 840,
      "esa": 841,
      "pac": 842,
      "19": 843,
      "tru": 844,
      "ng": 845,
      "ĠPara": 846,
      "ĠSenador": 847,
      "Ġsub": 848,
      "Ġalgu": 849,
      "Ġcomp": 850,
      "tin": 851,
      "ves": 852,
      "unici": 853,
      "Ġtu": 854,
      "Ġvez": 855,
      "Ġquando": 856,
      "ĠJo": 857,
      "ĠOs": 858,
      "ilho": 859,
      "Ġdese": 860,
      "ulo": 861,
      "ĠEsta": 862,
      "Ġsem": 863,
      "ju": 864,
      "cisa": 865,
      "Ġdiz": 866,
      "Ġapo": 867,
      "bil": 868,
      "lha": 869,
      "Ġlu": 870,
      "ĠNacional": 871,
      "ses": 872,
      "Ġcu": 873,
      "ĠÂ§": 874,
      "Ġ18": 875,
      "Ġbras": 876,
      "icac": 877,
      "idas": 878,
      "dem": 879,
      "fo": 880,
      "ix": 881,
      "resenta": 882,
      "Ġtrans": 883,
      "bro": 884,
      "ntos": 885,
      "ĠTo": 886,
      "Ġpoli": 887,
      "Ġseus": 888,
      "Ġtodos": 889,
      "Ġbrasile": 890,
      "MEN": 891,
      "gado": 892,
      "hos": 893,
      "quer": 894,
      "Ġdef": 895,
      "Ġpres": 896,
      "mbro": 897,
      "Ġmesmo": 898,
      "cie": 899,
      "Ìģ,": 900,
      "ase": 901,
      "Ġseja": 902,
      "Ġainda": 903,
      "Ġtempo": 904,
      "ĠPS": 905,
      "ĠTe": 906,
      "Ġape": 907,
      "for": 908,
      "ĠFo": 909,
      "ciona": 910,
      "rada": 911,
      "ETO": 912,
      "Ìģ-": 913,
      "rito": 914,
      "Ġcer": 915,
      "Ġarti": 916,
      "ĠBa": 917,
      "Ġpai": 918,
      "Ġparti": 919,
      "ĠII": 920,
      "sim": 921,
      "ĠCas": 922,
      "âĢĿ.": 923,
      "rior": 924,
      "Ġgo": 925,
      "rica": 926,
      "Ġ11": 927,
      "orte": 928,
      "sas": 929,
      "Ġera": 930,
      "ula": 931,
      "ntro": 932,
      "Ġrela": 933,
      "Ġro": 934,
      "ene": 935,
      "icos": 936,
      "Ġ0": 937,
      "Ġaco": 938,
      "aliza": 939,
      "ENTE": 940,
      "Ġjo": 941,
      "ĠVa": 942,
      "orta": 943,
      "AL": 944,
      "ine": 945,
      "Ġmar": 946,
      "vimento": 947,
      "TI": 948,
      "ose": 949,
      "AN": 950,
      "Ġrece": 951,
      "ĠPre": 952,
      "unda": 953,
      "Ġforam": 954,
      "Ġesse": 955,
      "ĠEle": 956,
      "nce": 957,
      "Ġ20": 958,
      "Ġprinci": 959,
      "ĠPL": 960,
      "Ġeste": 961,
      "ĠPaulo": 962,
      "Ġano": 963,
      "eito": 964,
      "ĠPar": 965,
      "tre": 966,
      "nico": 967,
      "vac": 968,
      "Ġfazer": 969,
      "Ġrep": 970,
      "cimento": 971,
      "indo": 972,
      "ĠBo": 973,
      "Ġsera": 974,
      "ĠTra": 975,
      "EC": 976,
      "gue": 977,
      "bilidade": 978,
      "Ġrecur": 979,
      "cesso": 980,
      "ĠMinis": 981,
      "ESID": 982,
      "Ġcha": 983,
      "Ġela": 984,
      "usa": 985,
      "Ġcome": 986,
      "nio": 987,
      "Ġservic": 988,
      "OR": 989,
      "ĠDi": 990,
      "ch": 991,
      "ial": 992,
      "xi": 993,
      "mar": 994,
      "Ġprodu": 995,
      "Ġdesta": 996,
      "ĠFa": 997,
      "fa": 998,
      "ĠDo": 999,
      "este": 1000,
      "visa": 1001,
      "RO": 1002,
      "Ġtor": 1003,
      "ior": 1004,
      "Ġessa": 1005,
      "ĠDeputados": 1006,
      "ĠPRESID": 1007,
      "20": 1008,
      "Ġmi": 1009,
      "mara": 1010,
      "tico": 1011,
      "ĠRa": 1012,
      "dica": 1013,
      "Ġpassa": 1014,
      "ĠMas": 1015,
      "ĠLo": 1016,
      "DE": 1017,
      "cal": 1018,
      "JETO": 1019,
      "Ġsegui": 1020,
      "SO": 1021,
      "SA": 1022,
      "pal": 1023,
      "rante": 1024,
      "ĠPROJETO": 1025,
      "IO": 1026,
      "Ġparte": 1027,
      "DA": 1028,
      "MA": 1029,
      "ias": 1030,
      "ze": 1031,
      "Ġ15": 1032,
      "inu": 1033,
      "Ġche": 1034,
      "Ġporque": 1035,
      "icas": 1036,
      "mes": 1037,
      "erra": 1038,
      "Ġconhe": 1039,
      "ecu": 1040,
      "Ġempres": 1041,
      "rea": 1042,
      "ĠLEI": 1043,
      "Ġvai": 1044,
      "ĠIn": 1045,
      "ina": 1046,
      "Ġimporta": 1047,
      "ĠDa": 1048,
      "ĠPRESIDENTE": 1049,
      "Ġjul": 1050,
      "val": 1051,
      "Ġcidade": 1052,
      "qua": 1053,
      "Ġ12": 1054,
      "nca": 1055,
      "ĠUni": 1056,
      "LATO": 1057,
      "cono": 1058,
      "plo": 1059,
      "ĠDes": 1060,
      "Ġmeu": 1061,
      "Ġtre": 1062,
      "gora": 1063,
      "nica": 1064,
      "Ġ.": 1065,
      "tivos": 1066,
      "Ġlei": 1067,
      "corre": 1068,
      "MDB": 1069,
      "veis": 1070,
      "istas": 1071,
      "uma": 1072,
      "liza": 1073,
      "Ġonde": 1074,
      "Ġprof": 1075,
      "um": 1076,
      "Ġatu": 1077,
      "lus": 1078,
      "Ġmate": 1079,
      "ces": 1080,
      "pio": 1081,
      "ĠJa": 1082,
      "ais": 1083,
      "Ġmaio": 1084,
      "Ġmel": 1085,
      "Ġdez": 1086,
      "Ġfil": 1087,
      "ing": 1088,
      "Ġsuas": 1089,
      "posic": 1090,
      "ĠSen": 1091,
      "ĠVoce": 1092,
      "Ġval": 1093,
      "ĠConstituic": 1094,
      "Ġpessoas": 1095,
      ".)": 1096,
      "ĠPT": 1097,
      "ndi": 1098,
      "ĠSenado": 1099,
      "Ġprese": 1100,
      "Ġoutros": 1101,
      "tada": 1102,
      "ĠLa": 1103,
      "ĠArt": 1104,
      "ĠGe": 1105,
      "har": 1106,
      "ĠGoverno": 1107,
      "Ġinforma": 1108,
      "Ġcria": 1109,
      "pois": 1110,
      "gal": 1111,
      "ĠRELATO": 1112,
      "Ġpla": 1113,
      "Ġale": 1114,
      "ĠPu": 1115,
      "gua": 1116,
      "Ġgrande": 1117,
      "Ġenco": 1118,
      "has": 1119,
      "vide": 1120,
      "ĠAle": 1121,
      "Ġoutras": 1122,
      "ĠX": 1123,
      "ixa": 1124,
      "ĠDO": 1125,
      "Ġapenas": 1126,
      "Ġnome": 1127,
      "tici": 1128,
      "blico": 1129,
      "cla": 1130,
      "Ġpopu": 1131,
      "Ġpala": 1132,
      "âĢĵ": 1133,
      "Ġdois": 1134,
      "ice": 1135,
      "Ġartigo": 1136,
      "Ġsendo": 1137,
      "Ġesco": 1138,
      "ĠRela": 1139,
      "rece": 1140,
      "Ġtrabalho": 1141,
      "ĠZ": 1142,
      "istra": 1143,
      "Ġ16": 1144,
      "zar": 1145,
      "ĠTribu": 1146,
      "Ġenta": 1147,
      "ĠJu": 1148,
      "ĠRefere": 1149,
      "ĠRio": 1150,
      "ĠHa": 1151,
      "ĠTa": 1152,
      "fia": 1153,
      "Ġordem": 1154,
      "Ġir": 1155,
      "Ġ17": 1156,
      "Ġ13": 1157,
      "posta": 1158,
      "AC": 1159,
      "jo": 1160,
      "dro": 1161,
      "on": 1162,
      "ntar": 1163,
      "Ġprimeiro": 1164,
      "ĠCe": 1165,
      "Ġaf": 1166,
      "cus": 1167,
      "Ġcomun": 1168,
      "lica": 1169,
      "grama": 1170,
      "ado": 1171,
      "Ġpalav": 1172,
      "Ġacor": 1173,
      "Ġ14": 1174,
      "istema": 1175,
      "feri": 1176,
      "Ġcaso": 1177,
      "ĠIs": 1178,
      "bele": 1179,
      "rei": 1180,
      "Ġfunc": 1181,
      "logia": 1182,
      "lti": 1183,
      "gisla": 1184,
      "ticas": 1185,
      "Ġdesen": 1186,
      "cri": 1187,
      "Ġobri": 1188,
      "Ġhoje": 1189,
      "Ġtermos": 1190,
      "ĠMinistro": 1191,
      "rador": 1192,
      "ĠDA": 1193,
      "Ġequi": 1194,
      "Ġci": 1195,
      "ĠCasa": 1196,
      "ig": 1197,
      "dida": 1198,
      "son": 1199,
      "vida": 1200,
      "ministra": 1201,
      "tamente": 1202,
      "rais": 1203,
      "ciac": 1204,
      "Ġconstitu": 1205,
      "Ġvol": 1206,
      "ĠLu": 1207,
      "Ġmaior": 1208,
      "aneiro": 1209,
      "Ġab": 1210,
      "Ġconse": 1211,
      "ĠJose": 1212,
      "____": 1213,
      "esse": 1214,
      "Ġrespe": 1215,
      "Ġminha": 1216,
      "mentar": 1217,
      "ĠPai": 1218,
      "UR": 1219,
      "Ġassim": 1220,
      "ĠJus": 1221,
      "ĠMunici": 1222,
      "nar": 1223,
      "Ġpartici": 1224,
      "11": 1225,
      "Ġ................................": 1226,
      "cos": 1227,
      "ĠComo": 1228,
      "ĠRELATOR": 1229,
      "ĠGra": 1230,
      "ntu": 1231,
      "Ġhisto": 1232,
      "pita": 1233,
      "ĠInter": 1234,
      "ducac": 1235,
      "Ġatra": 1236,
      "Ġmil": 1237,
      "reira": 1238,
      "ĠHo": 1239,
      "Ġestu": 1240,
      "vas": 1241,
      "Ġconta": 1242,
      "ĠMi": 1243,
      "mpre": 1244,
      "Ġfunda": 1245,
      "Ġprojeto": 1246,
      "Ġconside": 1247,
      "loco": 1248,
      "ficac": 1249,
      "rimento": 1250,
      "tera": 1251,
      "per": 1252,
      "nado": 1253,
      "Ġestava": 1254,
      "cido": 1255,
      "almente": 1256,
      "ble": 1257,
      "Ġdesenvol": 1258,
      "Ġmul": 1259,
      "lusi": 1260,
      "ĠSem": 1261,
      "Ġori": 1262,
      "ĠNe": 1263,
      "Ġinic": 1264,
      "ĠOr": 1265,
      "tivas": 1266,
      "Ġreco": 1267,
      "Ġautori": 1268,
      "EL": 1269,
      "Ġide": 1270,
      "taria": 1271,
      "ĠDis": 1272,
      "Ġfina": 1273,
      "hi": 1274,
      "vido": 1275,
      "ĠProjeto": 1276,
      "Ġvida": 1277,
      "Ġqualquer": 1278,
      "dido": 1279,
      "ĠRepu": 1280,
      "ĠTribunal": 1281,
      "NC": 1282,
      "Ġrespo": 1283,
      "Ġdireito": 1284,
      "ĠSegu": 1285,
      "ardo": 1286,
      "Ġ198": 1287,
      "ĠâĢ¢": 1288,
      "tros": 1289,
      "lis": 1290,
      "Ġecono": 1291,
      "vers": 1292,
      "eita": 1293,
      "Ġcada": 1294,
      "recer": 1295,
      "car": 1296,
      "Ġfinal": 1297,
      "Ġdisse": 1298,
      "resso": 1299,
      "embro": 1300,
      "ĠCon": 1301,
      "ĠBe": 1302,
      "Ġpossi": 1303,
      "Ġestabele": 1304,
      "Ġencont": 1305,
      "10": 1306,
      "cussa": 1307,
      "Ġperi": 1308,
      "tt": 1309,
      "RE": 1310,
      "lui": 1311,
      "ĠGu": 1312,
      "Ġdepois": 1313,
      "Ìģ.": 1314,
      "men": 1315,
      "cas": 1316,
      "mpan": 1317,
      "ĠMiniste": 1318,
      "Ġinformac": 1319,
      "dito": 1320,
      "Ġcompe": 1321,
      "Ġagra": 1322,
      "Ġpalavra": 1323,
      "vos": 1324,
      "ĠJoa": 1325,
      "ĠCarlos": 1326,
      "Ġmeio": 1327,
      "cessa": 1328,
      "Ġdeste": 1329,
      "Ġtodo": 1330,
      "gio": 1331,
      "vesti": 1332,
      "ki": 1333,
      "AS": 1334,
      "ĠTem": 1335,
      "Ġsubs": 1336,
      "ĠAu": 1337,
      "cado": 1338,
      "xo": 1339,
      "ĠGa": 1340,
      "menda": 1341,
      "Ġfac": 1342,
      "Ġprec": 1343,
      "mia": 1344,
      "Ġapresenta": 1345,
      "MENTO": 1346,
      "gas": 1347,
      "eiros": 1348,
      "dina": 1349,
      "vado": 1350,
      "Ġpes": 1351,
      "PS": 1352,
      "tante": 1353,
      "cul": 1354,
      "Ġagora": 1355,
      "Ġinf": 1356,
      "Ġpou": 1357,
      "Ġprimeira": 1358,
      "Ġacordo": 1359,
      "ĠEstados": 1360,
      "iros": 1361,
      "cra": 1362,
      "rou": 1363,
      "Ġhome": 1364,
      "Ġprocesso": 1365,
      "alizac": 1366,
      "Ġsol": 1367,
      "ceu": 1368,
      "ĠCh": 1369,
      "pro": 1370,
      "lio": 1371,
      "mais": 1372,
      "Ġcolo": 1373,
      "SP": 1374,
      "th": 1375,
      "par": 1376,
      "Ġnosso": 1377,
      "ntac": 1378,
      "Ġcomec": 1379,
      "Ġregis": 1380,
      "berto": 1381,
      "Ġregi": 1382,
      "Ġrelac": 1383,
      "ando": 1384,
      "Ġof": 1385,
      "itos": 1386,
      "Ġfal": 1387,
      "Ġpelos": 1388,
      "Ġrealiza": 1389,
      "ismo": 1390,
      "Ġdurante": 1391,
      "ĠVer": 1392,
      "ĠSi": 1393,
      "Ġmundo": 1394,
      "Ġprincipal": 1395,
      "Ġ24": 1396,
      "tido": 1397,
      "Ġempre": 1398,
      "osa": 1399,
      "Ġdizer": 1400,
      "Ġeles": 1401,
      "Ġprazo": 1402,
      "Ġesti": 1403,
      "Ġtrata": 1404,
      "Ġtinha": 1405,
      "ĠFranc": 1406,
      "var": 1407,
      "Ġali": 1408,
      "iss": 1409,
      "Ġuti": 1410,
      "ĠJustic": 1411,
      "ĠPMDB": 1412,
      "mental": 1413,
      "Ġrecursos": 1414,
      "Ġsistema": 1415,
      "sar": 1416,
      "Ġsob": 1417,
      "gula": 1418,
      "Ġapre": 1419,
      "IL": 1420,
      "Ġmunici": 1421,
      "Ġsau": 1422,
      "Ġsete": 1423,
      "culo": 1424,
      "lena": 1425,
      "Ġante": 1426,
      "ĠSim": 1427,
      "12": 1428,
      "ona": 1429,
      "Ġsido": 1430,
      "II": 1431,
      "uiz": 1432,
      "Ġdias": 1433,
      "Ġlanc": 1434,
      "nse": 1435,
      "Ġfica": 1436,
      "ĠPri": 1437,
      "Ġag": 1438,
      "Ġquem": 1439,
      "rente": 1440,
      "mero": 1441,
      "sica": 1442,
      "rando": 1443,
      "Ġinvesti": 1444,
      "Ġabri": 1445,
      "ĠOu": 1446,
      "amento": 1447,
      "Ġdezembro": 1448,
      "Ġgu": 1449,
      "Ġexter": 1450,
      "nso": 1451,
      "ĠFer": 1452,
      "ĠSenhor": 1453,
      "tina": 1454,
      "ser": 1455,
      "tores": 1456,
      "Ġdemo": 1457,
      "ĠAG": 1458,
      "gens": 1459,
      "vil": 1460,
      "Ġaca": 1461,
      "Ġproble": 1462,
      "Ġdecisa": 1463,
      "Ġantes": 1464,
      "cha": 1465,
      "UT": 1466,
      "ĠCOM": 1467,
      "Ġsegundo": 1468,
      "ĠPA": 1469,
      "Ġ22": 1470,
      "gani": 1471,
      "bita": 1472,
      "Ġexecu": 1473,
      "09": 1474,
      "Ġnova": 1475,
      "ĠCON": 1476,
      "PT": 1477,
      "Ġempresa": 1478,
      "ton": 1479,
      "Ġtudo": 1480,
      "Ġcul": 1481,
      "Ġcondic": 1482,
      "Ġmor": 1483,
      "Ġgru": 1484,
      "gada": 1485,
      "heiro": 1486,
      "Ġconte": 1487,
      "Ġpartir": 1488,
      "Ġsitu": 1489,
      "Ġchama": 1490,
      "Ġpopulac": 1491,
      "ĠRelator": 1492,
      "Ġente": 1493,
      "Ġexiste": 1494,
      "inho": 1495,
      "ente": 1496,
      "Ġaque": 1497,
      "Ġsenti": 1498,
      "Ġrefere": 1499,
      "Ġamb": 1500,
      "13": 1501,
      "Ġ30": 1502,
      "Ġmelhor": 1503,
      "Ġfami": 1504,
      "tir": 1505,
      "Ġrevisa": 1506,
      "merica": 1507,
      "rui": 1508,
      "pes": 1509,
      "15": 1510,
      "Ġbe": 1511,
      "ÌĪ": 1512,
      "Ġativ": 1513,
      "Ġoutro": 1514,
      "vam": 1515,
      "dri": 1516,
      "Ġprecisa": 1517,
      "Ġdesde": 1518,
      "Ġbase": 1519,
      "gamento": 1520,
      "Ġliv": 1521,
      "Ġmos": 1522,
      "tanto": 1523,
      "dis": 1524,
      "bP": 1525,
      "Ġespecial": 1526,
      "luc": 1527,
      "Ġdifere": 1528,
      ".(": 1529,
      "Ġindi": 1530,
      "duz": 1531,
      "Ġ197": 1532,
      "ini": 1533,
      "dar": 1534,
      "Ġrepresenta": 1535,
      "ĠFi": 1536,
      "Ġcla": 1537,
      "posto": 1538,
      "VO": 1539,
      "Ġ25": 1540,
      "mula": 1541,
      "her": 1542,
      "Ġseguinte": 1543,
      "US": 1544,
      "ĠBar": 1545,
      "Ġdiver": 1546,
      "ins": 1547,
      "ĠCong": 1548,
      "ite": 1549,
      "pios": 1550,
      "nco": 1551,
      "ĠFu": 1552,
      "Ġjus": 1553,
      "ĠComun": 1554,
      "ĠIsso": 1555,
      "Ġnorma": 1556,
      "Ġinteres": 1557,
      "Ġmilho": 1558,
      "ck": 1559,
      "Ġapa": 1560,
      "ĠIN": 1561,
      "ĠUnia": 1562,
      "Ġ23": 1563,
      "Ġato": 1564,
      "gou": 1565,
      "Ġcre": 1566,
      "Ġvotac": 1567,
      "gre": 1568,
      "Ġri": 1569,
      "UN": 1570,
      "Ġcomple": 1571,
      "tando": 1572,
      "creto": 1573,
      "lic": 1574,
      "iu": 1575,
      "Ġsempre": 1576,
      "Ġnove": 1577,
      "fre": 1578,
      "odo": 1579,
      "Ġexer": 1580,
      "Ġnovo": 1581,
      "Ġresponsa": 1582,
      "nder": 1583,
      "nidade": 1584,
      "Ġ:(": 1585,
      "ada": 1586,
      "Ġtrabalha": 1587,
      "mpo": 1588,
      "ĠY": 1589,
      "nhe": 1590,
      "Ġado": 1591,
      "ĠâĢĶ": 1592,
      "ĠVe": 1593,
      "ĠMA": 1594,
      "Ġaconte": 1595,
      "Ġduas": 1596,
      "Ġexem": 1597,
      "ĠDu": 1598,
      "vada": 1599,
      "ĠPer": 1600,
      "mou": 1601,
      "Ġadministra": 1602,
      "unho": 1603,
      "perac": 1604,
      "elho": 1605,
      "nstitu": 1606,
      "xto": 1607,
      "Ġmenos": 1608,
      "Ġ2009": 1609,
      "Ġsus": 1610,
      "ĠEnta": 1611,
      "Ġconf": 1612,
      "Ġvalor": 1613,
      "Ġcompa": 1614,
      "Ġobje": 1615,
      "ĠFoi": 1616,
      "dades": 1617,
      "nge": 1618,
      "gor": 1619,
      "Ġexa": 1620,
      "pera": 1621,
      "Ġdispo": 1622,
      "ĠUm": 1623,
      "Ġseria": 1624,
      "cada": 1625,
      "Ġven": 1626,
      "man": 1627,
      "ĠCongresso": 1628,
      "Ġconfor": 1629,
      "viso": 1630,
      "vio": 1631,
      "Ġru": 1632,
      "Ġusa": 1633,
      "ĠQue": 1634,
      "Ġgoverno": 1635,
      "lizac": 1636,
      "TU": 1637,
      "Ġbrasileiro": 1638,
      "Ġorador": 1639,
      "Ġassu": 1640,
      "Ġverdade": 1641,
      "Ġmomento": 1642,
      "cno": 1643,
      "grafia": 1644,
      "Ġaprovac": 1645,
      "cionais": 1646,
      "ĠExa": 1647,
      "Ġjuri": 1648,
      "Ġextra": 1649,
      "Ġimpe": 1650,
      "Ġcontinu": 1651,
      "Ġfim": 1652,
      "pende": 1653,
      "Ġ2007": 1654,
      "ĠAma": 1655,
      "ĠSul": 1656,
      "Ġresul": 1657,
      "âĢĿ,": 1658,
      "ĠVi": 1659,
      "ndes": 1660,
      "ON": 1661,
      "Ġdeix": 1662,
      "gina": 1663,
      "TRA": 1664,
      "irma": 1665,
      "Ġtodas": 1666,
      "ĠSES": 1667,
      "EG": 1668,
      "ĠPSDB": 1669,
      "2009": 1670,
      "ĠOli": 1671,
      "Ġtenha": 1672,
      "Ġ28": 1673,
      "Ġ@": 1674,
      "Ġnecessa": 1675,
      "Ġvia": 1676,
      "Ġpresente": 1677,
      "Ġnossa": 1678,
      "ĠCor": 1679,
      "lho": 1680,
      "Ġk": 1681,
      "ĠPela": 1682,
      "Ġnesta": 1683,
      "Ġquanto": 1684,
      "Ġ196": 1685,
      "Ġaju": 1686,
      "RIO": 1687,
      "fei": 1688,
      "Ġestra": 1689,
      "Ġ21": 1690,
      "ĠAd": 1691,
      "mica": 1692,
      "idada": 1693,
      "nuncia": 1694,
      "ntas": 1695,
      "Ġhabita": 1696,
      "Ġcole": 1697,
      "Ġaprese": 1698,
      "ĠSanta": 1699,
      "ĠPreside": 1700,
      "creta": 1701,
      "Ġpermi": 1702,
      "ntou": 1703,
      "quanto": 1704,
      "QU": 1705,
      "rial": 1706,
      "Ġdeter": 1707,
      "Ġtribu": 1708,
      "Ġintegra": 1709,
      "Ġvezes": 1710,
      "03": 1711,
      "Ġ27": 1712,
      "ĠSer": 1713,
      "ciais": 1714,
      "Ġini": 1715,
      "Ġcur": 1716,
      "rido": 1717,
      "ĠAnto": 1718,
      "remos": 1719,
      "enh": 1720,
      "tia": 1721,
      "Ġquero": 1722,
      "Ġregia": 1723,
      "cide": 1724,
      "Ġimportante": 1725,
      "sou": 1726,
      "duardo": 1727,
      "Ġcasa": 1728,
      "ĠMui": 1729,
      "truc": 1730,
      "Ġneste": 1731,
      "ĠDia": 1732,
      "18": 1733,
      "rga": 1734,
      "Ġfez": 1735,
      "dir": 1736,
      "ĠMu": 1737,
      "feito": 1738,
      "Ġexi": 1739,
      "Ġnada": 1740,
      "Ġsocial": 1741,
      "Ġcontro": 1742,
      "ticos": 1743,
      "Ġ2008": 1744,
      "Ġprograma": 1745,
      "Ġexternas": 1746,
      "Ġdesco": 1747,
      "Ġpoder": 1748,
      "ĠLigac": 1749,
      "Ġmin": 1750,
      "endo": 1751,
      "ess": 1752,
      "Ġquesta": 1753,
      "cele": 1754,
      "pensa": 1755,
      "rados": 1756,
      "Ġnacional": 1757,
      "Ġass": 1758,
      "Ġtendo": 1759,
      "reiro": 1760,
      "ciedade": 1761,
      "Ġocorre": 1762,
      "Ġpois": 1763,
      "Ġprev": 1764,
      "vor": 1765,
      "ka": 1766,
      "quis": 1767,
      "Ġgos": 1768,
      "Ġlugar": 1769,
      "Ġvoto": 1770,
      "verna": 1771,
      "PR": 1772,
      "ĠCA": 1773,
      "Ġgara": 1774,
      "Ġenca": 1775,
      "gosto": 1776,
      "Ġjulho": 1777,
      "Ġinciso": 1778,
      "ĠSrs": 1779,
      "ĠMIN": 1780,
      "gni": 1781,
      "05": 1782,
      "mpos": 1783,
      "Ġsituac": 1784,
      "tubro": 1785,
      "Ġreun": 1786,
      "cida": 1787,
      "ĠRegi": 1788,
      "ionais": 1789,
      "Ġ26": 1790,
      "Ġmer": 1791,
      "versidade": 1792,
      "cho": 1793,
      "ĠSub": 1794,
      "ĠPAR": 1795,
      "âĢĵâĢĵ": 1796,
      "mentac": 1797,
      "inco": 1798,
      "Ġinicia": 1799,
      "Ġ2011": 1800,
      "Ġconsegu": 1801,
      "Ġalguns": 1802,
      "Ġtal": 1803,
      "Ġ2006": 1804,
      "Ar": 1805,
      "Ġinsta": 1806,
      "nou": 1807,
      "Ġsetembro": 1808,
      "Ġtemos": 1809,
      "cios": 1810,
      "dac": 1811,
      "Ġdar": 1812,
      "ĠSil": 1813,
      "ĠRu": 1814,
      "Ġvou": 1815,
      "ol": 1816,
      "Ġdisso": 1817,
      "Ġexpe": 1818,
      "07": 1819,
      "bui": 1820,
      "Ġrecurso": 1821,
      "UL": 1822,
      "Ġuni": 1823,
      "HO": 1824,
      "ĠCi": 1825,
      "Ġtoda": 1826,
      "fico": 1827,
      "ĠHe": 1828,
      "Ġfala": 1829,
      "Ġnem": 1830,
      "trui": 1831,
      "Ġpodem": 1832,
      "06": 1833,
      "Ġeve": 1834,
      "Ġbene": 1835,
      "querimento": 1836,
      "Ġhi": 1837,
      "Ġsentido": 1838,
      "ps": 1839,
      "nac": 1840,
      "Ġdata": 1841,
      "Ġorgani": 1842,
      "ke": 1843,
      "Ġ2010": 1844,
      "bra": 1845,
      "Ġlocal": 1846,
      "Ġami": 1847,
      "Ġpelas": 1848,
      "ridade": 1849,
      "Ġcorre": 1850,
      "ĠSESSA": 1851,
      "17": 1852,
      "ĠLuiz": 1853,
      "ĠLegisla": 1854,
      "mpanha": 1855,
      "Ġexemplo": 1856,
      "ilia": 1857,
      "ĠDire": 1858,
      "Ġfis": 1859,
      "Ġterc": 1860,
      "Ġregula": 1861,
      "Ġpouco": 1862,
      "Ġteve": 1863,
      "Ġjunho": 1864,
      "bol": 1865,
      "nando": 1866,
      "fici": 1867,
      "Ġtenho": 1868,
      "08": 1869,
      "Ġexc": 1870,
      "Ġcump": 1871,
      "tural": 1872,
      "Ġfato": 1873,
      "Ġdecla": 1874,
      "ĠVamos": 1875,
      "Ġ...": 1876,
      "hia": 1877,
      "CUR": 1878,
      "pc": 1879,
      "Ġpovo": 1880,
      "Ġleva": 1881,
      "Ġestou": 1882,
      "Ġfede": 1883,
      "Ġcoisa": 1884,
      "Ġjor": 1885,
      "Ġproposta": 1886,
      "Ġvio": 1887,
      "Ġdocu": 1888,
      "Ġgrupo": 1889,
      "ĠParla": 1890,
      "ĠRes": 1891,
      "Ġdistri": 1892,
      "Ġconstitucional": 1893,
      "ĠPoder": 1894,
      "UTC": 1895,
      "ty": 1896,
      "Ġinde": 1897,
      "Ġuso": 1898,
      "fusa": 1899,
      "missa": 1900,
      "ntal": 1901,
      "Ġtele": 1902,
      "lares": 1903,
      "Â°": 1904,
      "Ġhuma": 1905,
      "Ġdesenvolvimento": 1906,
      "16": 1907,
      "Ġmarc": 1908,
      "Ġvis": 1909,
      "Ġquais": 1910,
      "Ġeducac": 1911,
      "Ġcompro": 1912,
      "Ġtro": 1913,
      "Ġminu": 1914,
      "ficial": 1915,
      "zes": 1916,
      "Ġtotal": 1917,
      "Ġdetermina": 1918,
      "ĠBrasile": 1919,
      "bate": 1920,
      "Ġ2005": 1921,
      "Ġ29": 1922,
      "Ġvamos": 1923,
      "pital": 1924,
      "porte": 1925,
      "ĠApo": 1926,
      "ĠGrande": 1927,
      "ĠPla": 1928,
      "ques": 1929,
      "Ġbrasileira": 1930,
      "iras": 1931,
      "ĠDecreto": 1932,
      "Ġprote": 1933,
      "ĠTur": 1934,
      "dra": 1935,
      "ntre": 1936,
      "Ġespeci": 1937,
      "titui": 1938,
      "tulo": 1939,
      "ts": 1940,
      "Ġamp": 1941,
      "ncial": 1942,
      "Ġcausa": 1943,
      "ĠFe": 1944,
      "ĠEduardo": 1945,
      "IM": 1946,
      "04": 1947,
      "Ġfinanc": 1948,
      "resce": 1949,
      "Ġprofiss": 1950,
      "CURSO": 1951,
      "Ġquer": 1952,
      "ĠJaneiro": 1953,
      "ĠEspe": 1954,
      "Ġ2013": 1955,
      "Ġbom": 1956,
      "ĠEla": 1957,
      "Ġgeral": 1958,
      "EIRA": 1959,
      "Ġempresas": 1960,
      "Ġagosto": 1961,
      "Ġoutubro": 1962,
      "ly": 1963,
      "Ġprovide": 1964,
      "Ġinclu": 1965,
      "Ġsema": 1966,
      "ncio": 1967,
      "Ġpossa": 1968,
      "ĠSala": 1969,
      "Ġtri": 1970,
      "Ġoutra": 1971,
      "ixo": 1972,
      "lada": 1973,
      "Ġobser": 1974,
      "//": 1975,
      "bora": 1976,
      "Ġnenh": 1977,
      "ĠEM": 1978,
      "Ġproduc": 1979,
      "Pa": 1980,
      "tem": 1981,
      "Ġclas": 1982,
      "ĠIII": 1983,
      "Ġfavor": 1984,
      "riam": 1985,
      "Ġmanda": 1986,
      "cnologia": 1987,
      "Ġanti": 1988,
      "................................................................": 1989,
      "Ġsociedade": 1990,
      "vereiro": 1991,
      "Ġlado": 1992,
      "ran": 1993,
      "ĠTu": 1994,
      "Ġhavia": 1995,
      "Ġlimi": 1996,
      "Ġreconhe": 1997,
      "ĠSupre": 1998,
      "am": 1999,
      "ECER": 2000,
      "ende": 2001,
      "RIA": 2002,
      "mane": 2003,
      "ĠAL": 2004,
      "Ġconce": 2005,
      "VA": 2006,
      "Ġservi": 2007,
      "minha": 2008,
      "digo": 2009,
      "Ġinterna": 2010,
      "ĠTrabal": 2011,
      "Ġpodera": 2012,
      "Ġabril": 2013,
      "Ġsei": 2014,
      "Ġqui": 2015,
      "Co": 2016,
      "perior": 2017,
      "Ġpessoa": 2018,
      "Ġur": 2019,
      "Ġasse": 2020,
      "Ġefe": 2021,
      "Ġbri": 2022,
      "Ġjaneiro": 2023,
      ".\"": 2024,
      "oso": 2025,
      "lita": 2026,
      "nes": 2027,
      "lado": 2028,
      "Ġhabitantes": 2029,
      "Ġestado": 2030,
      "ry": 2031,
      "02": 2032,
      "Ġpubl": 2033,
      "cnica": 2034,
      "://": 2035,
      "tamento": 2036,
      "Ġloc": 2037,
      "ĠMaria": 2038,
      "rida": 2039,
      "ĠMuito": 2040,
      "undia": 2041,
      "pas": 2042,
      "Ġlegisla": 2043,
      "Ġcrianc": 2044,
      "Ġpromo": 2045,
      "diodi": 2046,
      "Ġocu": 2047,
      "Ġnovembro": 2048,
      "Exa": 2049,
      "Ġneces": 2050,
      "ner": 2051,
      "nif": 2052,
      "Ġban": 2053,
      "14": 2054,
      "Ġfunciona": 2055,
      "Ġdessa": 2056,
      "ĠPARECER": 2057,
      "licac": 2058,
      "com": 2059,
      "Ġpresidente": 2060,
      "ĠEX": 2061,
      "ĠPrime": 2062,
      "tida": 2063,
      "Ġsou": 2064,
      "Ġutiliza": 2065,
      "ĠEste": 2066,
      "Ġsabe": 2067,
      "Ġmesma": 2068,
      "ndimento": 2069,
      "quisa": 2070,
      "ordina": 2071,
      "Ġ2012": 2072,
      "ib": 2073,
      "Ġing": 2074,
      "Ġlon": 2075,
      "Ġgarant": 2076,
      "Ġdesse": 2077,
      "Ġforc": 2078,
      "Ġseguranc": 2079,
      "Ġdele": 2080,
      "Ġcabe": 2081,
      "Ġni": 2082,
      "ĠUma": 2083,
      "Ġ2015": 2084,
      "bar": 2085,
      "Ġbas": 2086,
      "Ġ194": 2087,
      "riedade": 2088,
      "Ġestar": 2089,
      "mada": 2090,
      "Ġconju": 2091,
      "Ġestamos": 2092,
      "ĠSau": 2093,
      "Ġrecebe": 2094,
      "Ġfre": 2095,
      "Ġani": 2096,
      "RAL": 2097,
      "Ġsigni": 2098,
      "veira": 2099,
      "ĠNos": 2100,
      "nada": 2101,
      "inheiro": 2102,
      "Ġhtt": 2103,
      "versa": 2104,
      "Ġade": 2105,
      "Ġfic": 2106,
      "Ġsolici": 2107,
      "Ġmelho": 2108,
      "Ġsim": 2109,
      "tria": 2110,
      "199": 2111,
      "venc": 2112,
      "CO": 2113,
      "Ġcompete": 2114,
      "Ġtanto": 2115,
      "Ġmostra": 2116,
      "jetos": 2117,
      "sociac": 2118,
      "diodifusa": 2119,
      "dual": 2120,
      "ĠPoli": 2121,
      "Ġsala": 2122,
      "grafo": 2123,
      "Ġreal": 2124,
      "tivamente": 2125,
      "Ġalgo": 2126,
      "INA": 2127,
      "ĠSou": 2128,
      "Ġcie": 2129,
      "ff": 2130,
      "ĠWi": 2131,
      "Ġens": 2132,
      "ĠRegimento": 2133,
      "Ġdemais": 2134,
      "didas": 2135,
      "Ġquatro": 2136,
      "vis": 2137,
      "ĠPortu": 2138,
      "Ġdesa": 2139,
      "Ġ2004": 2140,
      "IDA": 2141,
      "mbo": 2142,
      "Ġtipo": 2143,
      "Ġcara": 2144,
      "Ġposic": 2145,
      "Ġdeixa": 2146,
      "ĠMac": 2147,
      "Ġenquanto": 2148,
      "Ġnum": 2149,
      "000": 2150,
      "lise": 2151,
      "die": 2152,
      "Ġhoras": 2153,
      "vem": 2154,
      "Ġvolta": 2155,
      "Ġsal": 2156,
      "Ġinstituic": 2157,
      "2015": 2158,
      "Ġima": 2159,
      "Ġambie": 2160,
      "ntado": 2161,
      "ntemente": 2162,
      "Ġhou": 2163,
      "Ġ(\"": 2164,
      "Ġassi": 2165,
      "Ġana": 2166,
      "ĠBrasi": 2167,
      "Ġsessa": 2168,
      "Ġfevereiro": 2169,
      "Ġproduz": 2170,
      "wa": 2171,
      "Ġina": 2172,
      "Ġbus": 2173,
      "Ġtexto": 2174,
      "ĠExecu": 2175,
      "cede": 2176,
      "sui": 2177,
      "ERI": 2178,
      "Ġdentro": 2179,
      "mor": 2180,
      "tora": 2181,
      "tebol": 2182,
      "DT": 2183,
      "Ġaplica": 2184,
      "Ġrespeito": 2185,
      "litar": 2186,
      "PMDB": 2187,
      "Ġcus": 2188,
      "ĠAD": 2189,
      "Ġreg": 2190,
      "Ġman": 2191,
      "liz": 2192,
      "Ġtar": 2193,
      "Bloco": 2194,
      "Ġvem": 2195,
      "icou": 2196,
      "ĠAN": 2197,
      "Ġata": 2198,
      "prio": 2199,
      "Ġcomer": 2200,
      "ÌĤ-": 2201,
      "Ġfalar": 2202,
      "pec": 2203,
      "nais": 2204,
      "Ġdireitos": 2205,
      "mu": 2206,
      "gados": 2207,
      "Ġpeque": 2208,
      "Ġatri": 2209,
      "ĠEducac": 2210,
      "Ġhora": 2211,
      "ĠInterno": 2212,
      "Ġer": 2213,
      "rico": 2214,
      "osta": 2215,
      "Ġponto": 2216,
      "Ġcriac": 2217,
      "ĠSupremo": 2218,
      "Ġapoio": 2219,
      "OL": 2220,
      "HA": 2221,
      "trutura": 2222,
      "ndida": 2223,
      "Ġsignifica": 2224,
      "midade": 2225,
      "Ġmim": 2226,
      "ĠUnidos": 2227,
      "tio": 2228,
      "portu": 2229,
      "ĠAnd": 2230,
      "posi": 2231,
      "Ġfora": 2232,
      "ĠAo": 2233,
      "enc": 2234,
      "Ġtur": 2235,
      "ple": 2236,
      "isco": 2237,
      "Ġmanif": 2238,
      "mpa": 2239,
      "lhe": 2240,
      "POS": 2241,
      "CE": 2242,
      "Ġmedida": 2243,
      "Ġanu": 2244,
      "Ġproblema": 2245,
      "Ġrelato": 2246,
      "mico": 2247,
      "Ġconforme": 2248,
      "Ġ2003": 2249,
      "Ġmuda": 2250,
      "Ġnunca": 2251,
      "osse": 2252,
      "curso": 2253,
      "ĠQuando": 2254,
      "Ġfeito": 2255,
      "gica": 2256,
      "________": 2257,
      "Ġpublica": 2258,
      "Ġcinco": 2259,
      "ĠTi": 2260,
      "lusive": 2261,
      "ĠPP": 2262,
      "zer": 2263,
      "pria": 2264,
      "ĠJor": 2265,
      "tifica": 2266,
      "Ġalte": 2267,
      "Ġ2014": 2268,
      "Ġdados": 2269,
      "30": 2270,
      "Re": 2271,
      "pais": 2272,
      "Ġpermane": 2273,
      "vendo": 2274,
      "25": 2275,
      "Ġthe": 2276,
      "ĠRO": 2277,
      "ĠExcele": 2278,
      "GE": 2279,
      "Ġexp": 2280,
      "Ġama": 2281,
      "Ġesses": 2282,
      "ĠVice": 2283,
      "TRO": 2284,
      "Art": 2285,
      "tenc": 2286,
      "Ġ/": 2287,
      "ĠTurma": 2288,
      "ĠCha": 2289,
      "Ġ195": 2290,
      "reas": 2291,
      "Ġsur": 2292,
      "Ġfilme": 2293,
      "teri": 2294,
      "cac": 2295,
      "ĠSilva": 2296,
      "Ġlegal": 2297,
      "ĠPlena": 2298,
      "Ġder": 2299,
      "iais": 2300,
      "blicos": 2301,
      "Ġ2016": 2302,
      "Ġacesso": 2303,
      "Ġkm": 2304,
      "Ġdiscu": 2305,
      "Ġedi": 2306,
      "Ġdevera": 2307,
      "Ġexerci": 2308,
      "ara": 2309,
      "ĠNO": 2310,
      "emo": 2311,
      "Ġatrave": 2312,
      "ĠSocial": 2313,
      "Ġenvol": 2314,
      "ĠSras": 2315,
      "enda": 2316,
      "ĠThe": 2317,
      "Ġinclui": 2318,
      "Ġestre": 2319,
      "tam": 2320,
      "gir": 2321,
      "mple": 2322,
      "ĠRic": 2323,
      "ĠBu": 2324,
      "ĠUniversidade": 2325,
      "2013": 2326,
      "Ġnego": 2327,
      "Ġdesig": 2328,
      "ĠCla": 2329,
      "ntra": 2330,
      "ocu": 2331,
      "mba": 2332,
      "PL": 2333,
      "ĠOliveira": 2334,
      "crito": 2335,
      "gues": 2336,
      "Ġ,": 2337,
      "Ġregimental": 2338,
      "Ġpec": 2339,
      "Ġmercado": 2340,
      "âĢĻ": 2341,
      "ĠCie": 2342,
      "ĠCu": 2343,
      "tion": 2344,
      "Ġdestina": 2345,
      "Ġextraordina": 2346,
      "ĠTotal": 2347,
      "pressa": 2348,
      "undial": 2349,
      "Ġinco": 2350,
      "Ġsegunda": 2351,
      "ĠSU": 2352,
      "nimo": 2353,
      "mpeona": 2354,
      "Ġcerca": 2355,
      "Ġedic": 2356,
      ".,": 2357,
      "ĠPedro": 2358,
      "ĠSenho": 2359,
      "Ġvista": 2360,
      "Ġai": 2361,
      "Ġseguintes": 2362,
      "Ġpi": 2363,
      "lbu": 2364,
      "Ġparecer": 2365,
      "Ġfazendo": 2366,
      "poca": 2367,
      "buic": 2368,
      "ximo": 2369,
      "mer": 2370,
      "Ġdefesa": 2371,
      "culos": 2372,
      "Ġcate": 2373,
      "vou": 2374,
      "Ġconsu": 2375,
      "Ġmuitos": 2376,
      "Ġraza": 2377,
      "Ġpesquisa": 2378,
      "Ġacre": 2379,
      "Ġreferi": 2380,
      "\")": 2381,
      "unha": 2382,
      "Ġexclusi": 2383,
      "Ġobrigado": 2384,
      "Ġimpos": 2385,
      "feira": 2386,
      "Ġmeses": 2387,
      "ĠConselho": 2388,
      "Ġexplo": 2389,
      "Ġlocaliza": 2390,
      "Ġorigem": 2391,
      "Ġtenta": 2392,
      "Ġoficial": 2393,
      "NCIA": 2394,
      "Ġrespec": 2395,
      "pel": 2396,
      "tadas": 2397,
      "ĠDeputada": 2398,
      "2011": 2399,
      "ĠObri": 2400,
      "Ġatividades": 2401,
      "TF": 2402,
      "ls": 2403,
      "Ġeleito": 2404,
      "mbros": 2405,
      "ĠSP": 2406,
      "ĠSal": 2407,
      "Ġtema": 2408,
      "Ġoportu": 2409,
      "sico": 2410,
      "STI": 2411,
      "Ġalgumas": 2412,
      "ĠComunicac": 2413,
      "Ġage": 2414,
      "Ġencontra": 2415,
      "ĠSegundo": 2416,
      "ĠAgora": 2417,
      "Ġlegis": 2418,
      "Ġgrandes": 2419,
      "Ġessas": 2420,
      "Ġinclusive": 2421,
      "ĠPi": 2422,
      "ĠPode": 2423,
      "ĠBloco": 2424,
      "Ġportu": 2425,
      "NA": 2426,
      "Ġvalo": 2427,
      "sona": 2428,
      "ĠEmenda": 2429,
      "21": 2430,
      "emos": 2431,
      "dre": 2432,
      "dico": 2433,
      "ĠEssa": 2434,
      "sia": 2435,
      "Ġregistra": 2436,
      "entes": 2437,
      "ĠEMEN": 2438,
      "Ġfosse": 2439,
      "66": 2440,
      "bili": 2441,
      "jus": 2442,
      "rus": 2443,
      "Ġradiodifusa": 2444,
      "vista": 2445,
      "ido": 2446,
      "Ġques": 2447,
      "Ġpena": 2448,
      "heres": 2449,
      "Ġparece": 2450,
      "ds": 2451,
      "ĠExecutivo": 2452,
      "Ġpreocu": 2453,
      "Ġnecess": 2454,
      "Ġquase": 2455,
      "ĠFilho": 2456,
      "mir": 2457,
      "Ġw": 2458,
      "riores": 2459,
      "Ġofere": 2460,
      "Ġsimp": 2461,
      "Ġener": 2462,
      "ĠDef": 2463,
      "ĠDesen": 2464,
      "ĠBi": 2465,
      "Ġanterior": 2466,
      "stica": 2467,
      "orde": 2468,
      "Ġnuma": 2469,
      "Ġjornal": 2470,
      "Ġminutos": 2471,
      "Ġquar": 2472,
      "ĠDr": 2473,
      "29": 2474,
      "uro": 2475,
      ".âĢĿ": 2476,
      "ĠHen": 2477,
      "ĠKa": 2478,
      "ĠMari": 2479,
      "Ġfilho": 2480,
      "vul": 2481,
      "sol": 2482,
      "Ġespac": 2483,
      "TADO": 2484,
      "ĠInstitu": 2485,
      "mpeonato": 2486,
      "ĠDeus": 2487,
      "ĠCer": 2488,
      "ĠEd": 2489,
      "ĠBra": 2490,
      "vez": 2491,
      "Ġtive": 2492,
      "Ġ100": 2493,
      "STITU": 2494,
      "Ġchega": 2495,
      "ĠDEM": 2496,
      ");": 2497,
      "Ġparticipac": 2498,
      "Ġindica": 2499,
      "Ġdiscussa": 2500,
      "ĠFor": 2501,
      "iac": 2502,
      "Ġaber": 2503,
      "rcio": 2504,
      "Ġfalta": 2505,
      "Ġreti": 2506,
      "Ġficar": 2507,
      "Ġeram": 2508,
      "uta": 2509,
      "Ġpossui": 2510,
      "Ġcres": 2511,
      "Ġdevido": 2512,
      "ĠInforma": 2513,
      "Ġmaioria": 2514,
      "Ġboa": 2515,
      "mentares": 2516,
      "turas": 2517,
      "terior": 2518,
      "isas": 2519,
      "ÌĤ?": 2520,
      "Ġjogo": 2521,
      "ĠCOMIS": 2522,
      "Ġpublicac": 2523,
      "Ġref": 2524,
      "34": 2525,
      "ĠEsse": 2526,
      "Ġirma": 2527,
      "Ġaba": 2528,
      "veu": 2529,
      "Ġlici": 2530,
      "rique": 2531,
      "Ġdinheiro": 2532,
      "28": 2533,
      "Ġfavo": 2534,
      "reza": 2535,
      "Ġlhe": 2536,
      "Ġqualidade": 2537,
      "Ġ50": 2538,
      "ĠPas": 2539,
      "Ġrec": 2540,
      "Ġbar": 2541,
      "blicas": 2542,
      "volvimento": 2543,
      "ĠAme": 2544,
      "Ġtera": 2545,
      "ĠCul": 2546,
      "Ġreunia": 2547,
      "nsi": 2548,
      "Ġmuitas": 2549,
      "lec": 2550,
      "Ġdeci": 2551,
      "DI": 2552,
      "ĠQua": 2553,
      "ya": 2554,
      "Ġmen": 2555,
      "xe": 2556,
      "tima": 2557,
      "putado": 2558,
      "Ġbrasileiros": 2559,
      "ĠSEN": 2560,
      "ll": 2561,
      "Ġvota": 2562,
      "ircu": 2563,
      "ĠAg": 2564,
      "Ġprocu": 2565,
      "Ġcargo": 2566,
      "essor": 2567,
      "PSDB": 2568,
      "Ġnorte": 2569,
      "Ġhttps": 2570,
      "Ġigu": 2571,
      "Ġcasos": 2572,
      "Ġreforma": 2573,
      "):": 2574,
      "ĠEuro": 2575,
      "ĠSra": 2576,
      "Ġperce": 2577,
      "36": 2578,
      "ĠIta": 2579,
      "............": 2580,
      "ĠPE": 2581,
      "Ġpoderia": 2582,
      "Ġsemana": 2583,
      "media": 2584,
      "doB": 2585,
      "bia": 2586,
      "Ġprova": 2587,
      "ĠLU": 2588,
      "ĠAssim": 2589,
      "Ġtitu": 2590,
      "dios": 2591,
      "ĠLula": 2592,
      "rista": 2593,
      "tis": 2594,
      "Ġredac": 2595,
      "Ġsejam": 2596,
      "ĠAssociac": 2597,
      "PE": 2598,
      "Ġeleic": 2599,
      "Ġlegislac": 2600,
      "Ġconstruc": 2601,
      "Ġdiri": 2602,
      "Ġ2017": 2603,
      "Ġentanto": 2604,
      "35": 2605,
      "Ġpedido": 2606,
      "Ġaumento": 2607,
      "pP": 2608,
      "cais": 2609,
      "ĠEn": 2610,
      "ĠTV": 2611,
      "lina": 2612,
      "ĠAR": 2613,
      "Ġmodo": 2614,
      "ĠDistri": 2615,
      "Ġhomem": 2616,
      "Ġmode": 2617,
      "Ġobjetivo": 2618,
      "Ġoperac": 2619,
      "ĠWil": 2620,
      "leo": 2621,
      "cil": 2622,
      "Ġpensa": 2623,
      "24": 2624,
      "ĠRodri": 2625,
      "ĠMic": 2626,
      "ĠDJ": 2627,
      "Ġ2000": 2628,
      "racteri": 2629,
      "lbum": 2630,
      "Ġdaque": 2631,
      "ko": 2632,
      "ĠFernando": 2633,
      "BA": 2634,
      "Ġmembros": 2635,
      "zado": 2636,
      "27": 2637,
      "Ġagravo": 2638,
      "tc": 2639,
      "Ġsomente": 2640,
      "ĠAte": 2641,
      "ndia": 2642,
      "cidos": 2643,
      "37": 2644,
      "Ġcandida": 2645,
      "nato": 2646,
      "Ġvir": 2647,
      "ĠRoberto": 2648,
      "ltima": 2649,
      "ĠVal": 2650,
      "Ġrecu": 2651,
      "ĠLegislativo": 2652,
      "ltimo": 2653,
      "Ġencaminha": 2654,
      "Ġtarde": 2655,
      "Ġregistro": 2656,
      "ĠNova": 2657,
      "Ġmorte": 2658,
      "Ġrealizac": 2659,
      "feitos": 2660,
      "Ġacho": 2661,
      "Ġjoga": 2662,
      "26": 2663,
      "Ġdeli": 2664,
      "Ġrea": 2665,
      "Ġrei": 2666,
      "net": 2667,
      "ĠPSB": 2668,
      "39": 2669,
      "Ġpassou": 2670,
      "Ġensino": 2671,
      "Ġobras": 2672,
      "ĠGeral": 2673,
      "limina": 2674,
      "PU": 2675,
      "ĠMan": 2676,
      "Ġajuda": 2677,
      "ĠPrograma": 2678,
      "Ġatual": 2679,
      "Ġconstrui": 2680,
      "Ġorie": 2681,
      "teza": 2682,
      "Ġorc": 2683,
      "Ġch": 2684,
      "ficar": 2685,
      "Ġprop": 2686,
      "ny": 2687,
      "Ġmedidas": 2688,
      "sta": 2689,
      "ĠJe": 2690,
      "minho": 2691,
      "ĠBem": 2692,
      "ĠSol": 2693,
      "ĠIV": 2694,
      "titutivo": 2695,
      "ĠHisto": 2696,
      "ion": 2697,
      "Ġ2019": 2698,
      "ges": 2699,
      "ĠMaia": 2700,
      "ĠParecer": 2701,
      "mis": 2702,
      "ĠTrans": 2703,
      "ricul": 2704,
      "dicac": 2705,
      "2000": 2706,
      "Ġnoite": 2707,
      "Ġobjeto": 2708,
      "Ġine": 2709,
      "DINA": 2710,
      "ney": 2711,
      "Ġmembro": 2712,
      "Ġcontrole": 2713,
      "ntral": 2714,
      "ĠAmazo": 2715,
      "ĠTrabalho": 2716,
      "Ġfra": 2717,
      "ICA": 2718,
      "2008": 2719,
      "Ġproblemas": 2720,
      "Ġpagamento": 2721,
      "Ġformula": 2722,
      "mun": 2723,
      "Ġ54": 2724,
      "ssi": 2725,
      "Ġvisa": 2726,
      "The": 2727,
      "ĠPortugal": 2728,
      "Ġatin": 2729,
      "dou": 2730,
      "Ġcoisas": 2731,
      "Ġenergia": 2732,
      "Ġacer": 2733,
      "Ġliber": 2734,
      "ĠMarco": 2735,
      "Ġdeu": 2736,
      "Ġmulheres": 2737,
      "ĠFac": 2738,
      "Ġsetor": 2739,
      "Ġaval": 2740,
      "ĠEntre": 2741,
      "PI": 2742,
      "ados": 2743,
      "Ġproces": 2744,
      "Ġsimples": 2745,
      "vanc": 2746,
      "Ġcli": 2747,
      "Ġinstru": 2748,
      "38": 2749,
      "DEM": 2750,
      "Ġlin": 2751,
      "manda": 2752,
      "ĠLocal": 2753,
      "Ġcerto": 2754,
      "Ġcontribu": 2755,
      "Ġtes": 2756,
      "Ge": 2757,
      "BL": 2758,
      "Ġafirma": 2759,
      "ĠTer": 2760,
      "hel": 2761,
      "IZ": 2762,
      "ĠAdministra": 2763,
      "Ġlongo": 2764,
      "mio": 2765,
      "lube": 2766,
      "ĠMinas": 2767,
      "ĠSua": 2768,
      "Ġsaber": 2769,
      "2007": 2770,
      "ginal": 2771,
      "Ġop": 2772,
      "Ġdeixar": 2773,
      "vernador": 2774,
      "Ġterrito": 2775,
      "Ġrelaciona": 2776,
      "Ġ31": 2777,
      "Ġprincipalmente": 2778,
      "Ġequipe": 2779,
      "ĠEstou": 2780,
      "dora": 2781,
      "ĠAgra": 2782,
      "Ġgente": 2783,
      "nora": 2784,
      "xima": 2785,
      "Ġdivul": 2786,
      "Ġpreciso": 2787,
      "Ġcidada": 2788,
      "ĠInterna": 2789,
      "ĠDesenvolvimento": 2790,
      "naldo": 2791,
      "Ġsen": 2792,
      "Ġjunto": 2793,
      "Ġdemocra": 2794,
      "ĠMen": 2795,
      "ÌĤ.": 2796,
      "Ma": 2797,
      "tras": 2798,
      "ĠFrancisco": 2799,
      "nicos": 2800,
      "ĠNorte": 2801,
      "Ġprete": 2802,
      "Ġarqui": 2803,
      "Ġouvi": 2804,
      "Ġsuper": 2805,
      "diu": 2806,
      "cola": 2807,
      "IV": 2808,
      "greja": 2809,
      "Ġsai": 2810,
      "Ġ2020": 2811,
      "sal": 2812,
      "Ġrequerimento": 2813,
      "Ġdisposi": 2814,
      "ĠSecreta": 2815,
      "Ġmanifes": 2816,
      "ĠMAR": 2817,
      "Ġcal": 2818,
      "Ġaplicac": 2819,
      "amos": 2820,
      "ĠMesa": 2821,
      "GO": 2822,
      "Ġprojetos": 2823,
      "Ġpresenc": 2824,
      "Ġjulgamento": 2825,
      "45": 2826,
      "Ġcircu": 2827,
      "sticas": 2828,
      "Ġcapac": 2829,
      "Ġdecorre": 2830,
      "ĠCAR": 2831,
      "Ġentra": 2832,
      "2010": 2833,
      "Ġhouve": 2834,
      "Ġ2002": 2835,
      "vante": 2836,
      "pri": 2837,
      "Ġfrente": 2838,
      "Ġ:)": 2839,
      "Ġ................................................": 2840,
      "ĠMel": 2841,
      "Ġpapel": 2842,
      "deira": 2843,
      "lh": 2844,
      "Ġindivi": 2845,
      "ĠEles": 2846,
      "Ġconcessa": 2847,
      "Ġforne": 2848,
      "Ġ35": 2849,
      "pia": 2850,
      "stico": 2851,
      "igo": 2852,
      "mericano": 2853,
      "gico": 2854,
      "Ġbenefi": 2855,
      "Ġposso": 2856,
      "Ġdemons": 2857,
      "ĠAc": 2858,
      "ingue": 2859,
      "cendo": 2860,
      "Ġalguma": 2861,
      "Ġgas": 2862,
      "ĠBer": 2863,
      "lores": 2864,
      "BER": 2865,
      "Ġembora": 2866,
      "Ġesca": 2867,
      "Ġparticipa": 2868,
      "Ġluta": 2869,
      "diante": 2870,
      "Ġeconomia": 2871,
      "vidade": 2872,
      "ĠRIC": 2873,
      "ĠFre": 2874,
      "Ġreais": 2875,
      "Ġobra": 2876,
      "Ġconde": 2877,
      "Ġproce": 2878,
      "ĠREQU": 2879,
      "Ġviole": 2880,
      "ĠChe": 2881,
      "nciamento": 2882,
      "22": 2883,
      "Ġorganizac": 2884,
      "Ġconhecido": 2885,
      "cito": 2886,
      "Ġregime": 2887,
      "Ġatividade": 2888,
      "Ġreve": 2889,
      "98": 2890,
      "Ġmorre": 2891,
      "ĠNA": 2892,
      "ĠAntonio": 2893,
      "ĠPDT": 2894,
      "Ġocupa": 2895,
      "Ġfei": 2896,
      "rda": 2897,
      "mendas": 2898,
      "Ġcorpo": 2899,
      "nis": 2900,
      "Ġequipa": 2901,
      "timo": 2902,
      "vin": 2903,
      "Ġconsta": 2904,
      "cric": 2905,
      "Ġportanto": 2906,
      "Ġpodemos": 2907,
      "ĠNor": 2908,
      "ĠPartido": 2909,
      "Ġobriga": 2910,
      "ĠAlex": 2911,
      "Ġcaracteri": 2912,
      "Ġnesse": 2913,
      "Ġarma": 2914,
      "forc": 2915,
      "Ġparce": 2916,
      "Ġmal": 2917,
      "Ìģ?": 2918,
      "RAVO": 2919,
      "Ġcrime": 2920,
      "Ġeletro": 2921,
      "Ġ'": 2922,
      "Ġreno": 2923,
      "nea": 2924,
      "Ġalca": 2925,
      "ĠPos": 2926,
      "Ġcultura": 2927,
      "ĠSE": 2928,
      "ĠServic": 2929,
      "guei": 2930,
      "Ġmaneira": 2931,
      "Ġ1990": 2932,
      "Ġconcor": 2933,
      "lusa": 2934,
      "Ġacompanha": 2935,
      "Ġbusca": 2936,
      "ĠDefesa": 2937,
      "Ġprodutos": 2938,
      "celo": 2939,
      "Ġexecuc": 2940,
      "altera": 2941,
      "Ġrealizada": 2942,
      "Ġdefini": 2943,
      "ĠAra": 2944,
      "ĠQU": 2945,
      "ĠAna": 2946,
      "velmente": 2947,
      "bas": 2948,
      "Ġbanca": 2949,
      "Ġrecebi": 2950,
      "ger": 2951,
      "Ġclassi": 2952,
      "Ġrele": 2953,
      "Ġconjunto": 2954,
      "gen": 2955,
      "ĠEMENDA": 2956,
      "Ġmulher": 2957,
      "ue": 2958,
      "ĠVale": 2959,
      "Ġlegislativa": 2960,
      "Ġpartido": 2961,
      "gory": 2962,
      "rina": 2963,
      "Ġdefin": 2964,
      "Ġcomunicac": 2965,
      "Ġcampo": 2966,
      "Ġand": 2967,
      "Ġqueria": 2968,
      "Ġinteresse": 2969,
      "cretaria": 2970,
      "Ġ2001": 2971,
      "ĠSan": 2972,
      "ERIMENTO": 2973,
      "ĠTecnologia": 2974,
      "ĠDistrito": 2975,
      "ĠGil": 2976,
      "Ġpessoal": 2977,
      "Ġnecessidade": 2978,
      "tureza": 2979,
      "ĠCivil": 2980,
      "mando": 2981,
      "Ġsociais": 2982,
      "Ġlivro": 2983,
      "radas": 2984,
      "TIMA": 2985,
      "Ġris": 2986,
      "Ġmudanc": 2987,
      "pla": 2988,
      "uto": 2989,
      "Ġalgum": 2990,
      "Ġlogo": 2991,
      "ĠMes": 2992,
      "Ġpassado": 2993,
      "Ġacu": 2994,
      "ĠEcono": 2995,
      "itar": 2996,
      "CIO": 2997,
      "Ġsuperior": 2998,
      "AM": 2999,
      "Ġ2018": 3000,
      "Ġveri": 3001,
      "Ġescola": 3002,
      "Ġingle": 3003,
      "Ġcapital": 3004,
      "sua": 3005,
      "vidas": 3006,
      "ĠWiki": 3007,
      "cima": 3008,
      "cou": 3009,
      "Ġlemb": 3010,
      "ĠDemo": 3011,
      "Ġmeta": 3012,
      "Ġhe": 3013,
      "ĠPrimeira": 3014,
      "postas": 3015,
      "Ġavanc": 3016,
      "78": 3017,
      "Ġemenda": 3018,
      "Ġcompan": 3019,
      "Ġoutor": 3020,
      "Ġficou": 3021,
      "Ġfranc": 3022,
      "dy": 3023,
      "ĠES": 3024,
      "48": 3025,
      "Ġenfre": 3026,
      "ĠCal": 3027,
      "ĠSenadores": 3028,
      "Ġinfra": 3029,
      "ĠREQUERIMENTO": 3030,
      "ĠRib": 3031,
      "nicas": 3032,
      "Ġpergu": 3033,
      "Ġjuris": 3034,
      "ĠAn": 3035,
      "2012": 3036,
      "ise": 3037,
      "ws": 3038,
      "Ġescre": 3039,
      "ĠCOMISSA": 3040,
      "ĠObrigado": 3041,
      "Ġsex": 3042,
      "Ġpropo": 3043,
      "dbP": 3044,
      "NAL": 3045,
      "Ġpontos": 3046,
      "Do": 3047,
      "vados": 3048,
      "ĠCidada": 3049,
      "99": 3050,
      "respo": 3051,
      "2016": 3052,
      "tidos": 3053,
      "Ġtorna": 3054,
      "Ġplane": 3055,
      "tto": 3056,
      "âĢĵâĢĵâĢĵâĢĵ": 3057,
      "Ġbilho": 3058,
      "Ġtornou": 3059,
      "redo": 3060,
      "gh": 3061,
      "VI": 3062,
      "Ġpronuncia": 3063,
      "ĠNu": 3064,
      "Ġdisposto": 3065,
      "Ġautos": 3066,
      "ĠEXTRA": 3067,
      "mbito": 3068,
      "Ġproposic": 3069,
      "iar": 3070,
      "ĠCosta": 3071,
      "ph": 3072,
      "ios": 3073,
      "bio": 3074,
      "lhos": 3075,
      "Ġestuda": 3076,
      "lhas": 3077,
      "ĠInstituto": 3078,
      "ĠCunha": 3079,
      "tual": 3080,
      "Ġdispu": 3081,
      "Ġexce": 3082,
      "IB": 3083,
      "CdoB": 3084,
      "Ġnenhum": 3085,
      "Ġvalores": 3086,
      "Ġalterac": 3087,
      "Ġvotos": 3088,
      "Ġproduto": 3089,
      "art": 3090,
      "ĠPROPOS": 3091,
      "Ġinfe": 3092,
      "nidades": 3093,
      "ĠTambe": 3094,
      "put": 3095,
      "Ġinterpre": 3096,
      "Ġbanda": 3097,
      "Ġnormas": 3098,
      "che": 3099,
      "Ġformac": 3100,
      "Ġcumpri": 3101,
      "Ġcerteza": 3102,
      "tificac": 3103,
      "ĠVI": 3104,
      "ĠMINIS": 3105,
      "Ġacha": 3106,
      "Ġconhecimento": 3107,
      "Ġserem": 3108,
      "Ġtrabalhos": 3109,
      "Ġidenti": 3110,
      "Ġinicial": 3111,
      "irmou": 3112,
      "Ġalgue": 3113,
      "ĠCorte": 3114,
      "bou": 3115,
      "Ġseis": 3116,
      "Ġoriginal": 3117,
      "ĠNas": 3118,
      "cias": 3119,
      "ĠDil": 3120,
      "nel": 3121,
      "ĠWal": 3122,
      "ĠBrasileiro": 3123,
      "Ġcatego": 3124,
      "Ġfeita": 3125,
      "Ġsin": 3126,
      "ys": 3127,
      "Apensa": 3128,
      "Se": 3129,
      "ĠCris": 3130,
      "Ġartigos": 3131,
      "ĠMara": 3132,
      "Ġprincipais": 3133,
      "ĠFE": 3134,
      "Ġperde": 3135,
      "Ġ................................................................": 3136,
      "cnico": 3137,
      "Ġvigor": 3138,
      "Ġ40": 3139,
      "Ġlinha": 3140,
      "LTIMA": 3141,
      "Ġfederal": 3142,
      "Ġ1998": 3143,
      "Ġsul": 3144,
      "ĠPortanto": 3145,
      "Ġatenc": 3146,
      "Ġdisponi": 3147,
      "ĠDias": 3148,
      "2014": 3149,
      "ĠDepois": 3150,
      "quia": 3151,
      "Ġfro": 3152,
      "Ġdevem": 3153,
      "50": 3154,
      "gramas": 3155,
      "Ġdor": 3156,
      "ĠQuero": 3157,
      "Ġmante": 3158,
      "Ġplena": 3159,
      "Ġdepende": 3160,
      "ĠInte": 3161,
      "Ġvin": 3162,
      "Ġapose": 3163,
      "Ġindepende": 3164,
      "ĠLeo": 3165,
      "Ġpratica": 3166,
      "Ġapreciac": 3167,
      "23": 3168,
      "gente": 3169,
      "Ġsepa": 3170,
      "Ġisto": 3171,
      "blio": 3172,
      "Ġautoriza": 3173,
      "ĠSTF": 3174,
      "ĠTor": 3175,
      "fra": 3176,
      "Ġlista": 3177,
      "Ġdific": 3178,
      "Ġjudic": 3179,
      "Ġidade": 3180,
      "Ġvence": 3181,
      "ard": 3182,
      "ĠCE": 3183,
      "heiros": 3184,
      "ĠQuem": 3185,
      "didos": 3186,
      "ĠAP": 3187,
      "ĠHu": 3188,
      "ĠPTB": 3189,
      "Ġreali": 3190,
      "arda": 3191,
      "Ġsede": 3192,
      "ossa": 3193,
      "ĠGuerra": 3194,
      "Ġnossos": 3195,
      "Ġdiferentes": 3196,
      "ĠSantos": 3197,
      "ĠTal": 3198,
      "Ġnovos": 3199,
      "erva": 3200,
      "Ġaprovado": 3201,
      "Ġcos": 3202,
      "Ġconqu": 3203,
      "cula": 3204,
      "Ġresol": 3205,
      "amenta": 3206,
      "Ġresultado": 3207,
      "Ġrede": 3208,
      "ĠRECURSO": 3209,
      "Ġnatureza": 3210,
      "ĠSO": 3211,
      "Ġversa": 3212,
      "Ġdemonstra": 3213,
      "Ġteria": 3214,
      "pida": 3215,
      "ĠCri": 3216,
      "Ġcontribuic": 3217,
      "dicional": 3218,
      "ĠTen": 3219,
      "sem": 3220,
      "De": 3221,
      "Ġdebate": 3222,
      "istro": 3223,
      "Ġsenhor": 3224,
      "Ġprofissional": 3225,
      "ĠRicardo": 3226,
      "Ġep": 3227,
      "Ġvei": 3228,
      "88": 3229,
      "Ġdesses": 3230,
      "Ġpare": 3231,
      "ĠSecretaria": 3232,
      "ĠProf": 3233,
      "Ġrenda": 3234,
      "Ġcac": 3235,
      "ADO": 3236,
      "ĠOh": 3237,
      "tle": 3238,
      "Ġargu": 3239,
      "vale": 3240,
      "Ġchegou": 3241,
      "Ġacaba": 3242,
      "ĠAlves": 3243,
      "Ġautoria": 3244,
      "SE": 3245,
      "ĠHenrique": 3246,
      "Ġhipo": 3247,
      "ĠComple": 3248,
      "eiras": 3249,
      "ĠLEG": 3250,
      "ĠAGRAVO": 3251,
      "Ġcaput": 3252,
      "tenta": 3253,
      "pira": 3254,
      "bras": 3255,
      "Ġdec": 3256,
      "br": 3257,
      "Ġbi": 3258,
      "ntem": 3259,
      "ULO": 3260,
      "ad": 3261,
      "RAN": 3262,
      "Ġnota": 3263,
      "Ġescri": 3264,
      "ĠApro": 3265,
      "deste": 3266,
      "Ġretor": 3267,
      "tividade": 3268,
      "ical": 3269,
      "Ġ#": 3270,
      "Ġmanu": 3271,
      "Ġclaro": 3272,
      "Ġrecebeu": 3273,
      "Ġcuida": 3274,
      "ĠPereira": 3275,
      "ĠOrdem": 3276,
      "dita": 3277,
      "bus": 3278,
      "nciona": 3279,
      "ĠEspecial": 3280,
      "Ġterra": 3281,
      "Ġchamado": 3282,
      "Ġpolic": 3283,
      "Ġtransforma": 3284,
      "ror": 3285,
      "Ġcanc": 3286,
      "Ġpenal": 3287,
      "ĠPSD": 3288,
      "Ġcontrato": 3289,
      "Ġprovimento": 3290,
      "Ġreduz": 3291,
      "Ġhomena": 3292,
      "Ġdirec": 3293,
      "65": 3294,
      "FL": 3295,
      "ĠCONSTITU": 3296,
      "ĠCopa": 3297,
      "Ġcarreira": 3298,
      "III": 3299,
      "Geral": 3300,
      "vens": 3301,
      "Ġrazo": 3302,
      "ĠCidadania": 3303,
      "Ġturno": 3304,
      "ĠPres": 3305,
      "ficiente": 3306,
      "ĠCampeonato": 3307,
      "Ġcontri": 3308,
      "Ġforte": 3309,
      "ĠDEC": 3310,
      "Ġexpressa": 3311,
      "Ġcidades": 3312,
      "ack": 3313,
      "Ġbio": 3314,
      "Ġacima": 3315,
      "Ġdificul": 3316,
      "Ġmento": 3317,
      "CIA": 3318,
      "Ġpore": 3319,
      "Ġtemporada": 3320,
      "Ġresponsabilidade": 3321,
      "Ġtrabalhadores": 3322,
      "dispo": 3323,
      "Ġmenor": 3324,
      "ĠMais": 3325,
      "Ġdeles": 3326,
      "Ġcola": 3327,
      "95": 3328,
      "ĠSA": 3329,
      "ler": 3330,
      "rismo": 3331,
      "Ġcaminho": 3332,
      "Ġdiscurso": 3333,
      "Ġcrite": 3334,
      "Ġtermina": 3335,
      "ura": 3336,
      "Ġhos": 3337,
      "ĠPesso": 3338,
      "ntidade": 3339,
      "nexo": 3340,
      "lin": 3341,
      "ĠDilma": 3342,
      "Ġmeus": 3343,
      "ĠWe": 3344,
      "Ġpauta": 3345,
      "Ġfavora": 3346,
      "Ġimedia": 3347,
      "33": 3348,
      "Ġcrise": 3349,
      "versi": 3350,
      "Ġrealmente": 3351,
      "tindo": 3352,
      "ICAC": 3353,
      "ĠVou": 3354,
      "discussa": 3355,
      "ĠSanto": 3356,
      "ĠBio": 3357,
      "Ġfutebol": 3358,
      "Ca": 3359,
      "ley": 3360,
      "Ġprocedi": 3361,
      "lue": 3362,
      "ĠRJ": 3363,
      "ĠPU": 3364,
      "Ġinternacional": 3365,
      "ÌĤ,": 3366,
      "Ġ37": 3367,
      "ĠZe": 3368,
      "Ġestrutura": 3369,
      "ĠSte": 3370,
      "lias": 3371,
      "Ġpacie": 3372,
      "MENTA": 3373,
      "Ġince": 3374,
      "Ġoportunidade": 3375,
      "Ġtransporte": 3376,
      "Ġassunto": 3377,
      "hn": 3378,
      "97": 3379,
      "Ġgesta": 3380,
      "Ġigual": 3381,
      "cidas": 3382,
      "Ġplano": 3383,
      "ROS": 3384,
      "Ġmarca": 3385,
      "ĠBA": 3386,
      "Ġescrito": 3387,
      "Ġelas": 3388,
      "Ġelimina": 3389,
      "Ġple": 3390,
      "ual": 3391,
      "terna": 3392,
      "Ġpens": 3393,
      "Ġprotec": 3394,
      "rita": 3395,
      "ĠPra": 3396,
      "IDADE": 3397,
      "Ġnessa": 3398,
      "Ġesque": 3399,
      "ĠSistema": 3400,
      "trimo": 3401,
      "ĠRequerimento": 3402,
      "zi": 3403,
      "Ġfreque": 3404,
      "Ġassiste": 3405,
      "nomina": 3406,
      "Ġreli": 3407,
      "Ġcriar": 3408,
      "Ġadmi": 3409,
      "Ġresta": 3410,
      "47": 3411,
      "Ġarre": 3412,
      "ĠProviso": 3413,
      "Ġmaiores": 3414,
      "ĠDECURSO": 3415,
      "ĠXX": 3416,
      "Ġfale": 3417,
      "ticu": 3418,
      "ĠSenadora": 3419,
      "Ġanal": 3420,
      "Ġcompre": 3421,
      "ĠDES": 3422,
      "Ġpersona": 3423,
      "stria": 3424,
      "melha": 3425,
      "esar": 3426,
      "Ġrequis": 3427,
      "ĠCata": 3428,
      "ilha": 3429,
      "Ġinstitu": 3430,
      "2005": 3431,
      "Ġnovas": 3432,
      "ltimos": 3433,
      "ĠMarcelo": 3434,
      "ĠConc": 3435,
      "talha": 3436,
      "Ġiniciativa": 3437,
      "ww": 3438,
      "milia": 3439,
      "ĠSeu": 3440,
      "Ġroma": 3441,
      "minal": 3442,
      "Ġocor": 3443,
      "ĠBanco": 3444,
      "Ġmandato": 3445,
      "Ġrou": 3446,
      "ĠĠ": 3447,
      "Ġsucesso": 3448,
      "Ġconclui": 3449,
      "Ġdeclarac": 3450,
      "46": 3451,
      "tude": 3452,
      "cimentos": 3453,
      "ĠFA": 3454,
      "Ġ1997": 3455,
      "ricultura": 3456,
      "Ġcontribui": 3457,
      "Ġrio": 3458,
      "Ġdeveria": 3459,
      "ĠGerais": 3460,
      "Ġcomunita": 3461,
      "PA": 3462,
      "Ġprofessor": 3463,
      "calizac": 3464,
      "Ġpropor": 3465,
      "ĠPorto": 3466,
      "Ġmediante": 3467,
      "oo": 3468,
      "ĠBahia": 3469,
      "ĠEl": 3470,
      "Ġpossibilidade": 3471,
      "Ġassegu": 3472,
      "ĠEra": 3473,
      "90": 3474,
      "Ġdiversos": 3475,
      "by": 3476,
      "Ġevi": 3477,
      "TIVO": 3478,
      "ĠLima": 3479,
      "ĠCel": 3480,
      "ĠDurante": 3481,
      "oro": 3482,
      "Ġame": 3483,
      "ficas": 3484,
      "mac": 3485,
      "ĠJorge": 3486,
      "jui": 3487,
      "ĠAdministrac": 3488,
      "Ġrecor": 3489,
      "dovia": 3490,
      "ĠMer": 3491,
      "ld": 3492,
      "Ġ................": 3493,
      "Ġguerra": 3494,
      "Ġinteressa": 3495,
      "Ġexame": 3496,
      "Ġhomens": 3497,
      "Ġatendimento": 3498,
      "Ġincluindo": 3499,
      "Ġreduc": 3500,
      "tino": 3501,
      "Ġcorrespo": 3502,
      "Ġreque": 3503,
      "Ġobrigato": 3504,
      "EM": 3505,
      "Ġservidores": 3506,
      "Ġcoloca": 3507,
      "ĠOR": 3508,
      "ĠMal": 3509,
      "ĠFaz": 3510,
      "Ġefeitos": 3511,
      "rupc": 3512,
      "Ġon": 3513,
      "Ġnenhuma": 3514,
      "dicidade": 3515,
      "ĠMundial": 3516,
      "tbP": 3517,
      "ĠMedida": 3518,
      "socia": 3519,
      "Ġmodelo": 3520,
      "ICO": 3521,
      "riamente": 3522,
      "Ġextre": 3523,
      "Ġproviso": 3524,
      "Ġexecutar": 3525,
      "tei": 3526,
      "\",\"": 3527,
      "cta": 3528,
      "Ġdiversas": 3529,
      "ĠPAULO": 3530,
      "2019": 3531,
      "Ġfase": 3532,
      "Ġfutu": 3533,
      "Ġusua": 3534,
      "bera": 3535,
      "Ġadequa": 3536,
      "ks": 3537,
      "Ġsuple": 3538,
      "rescenta": 3539,
      "Ġprofissionais": 3540,
      "ĠFla": 3541,
      "Ġgene": 3542,
      "Ġchegar": 3543,
      "ĠBor": 3544,
      "ĠCan": 3545,
      "ĠâĢĺ": 3546,
      "ĠInternacional": 3547,
      "ĠMendes": 3548,
      "Ġcapa": 3549,
      "Ġnega": 3550,
      "ĠBrasileira": 3551,
      "Ġgaro": 3552,
      "ĠFina": 3553,
      "ĠConce": 3554,
      "Ġprepa": 3555,
      "Ġembar": 3556,
      "Ġassina": 3557,
      "ĠAndre": 3558,
      "Ġnaque": 3559,
      "Ġgostaria": 3560,
      "Ġparla": 3561,
      "ruz": 3562,
      "Ġalcanc": 3563,
      "Ġuna": 3564,
      "zinha": 3565,
      "ĠMINISTRO": 3566,
      "Ġaero": 3567,
      "Ġmensa": 3568,
      "nior": 3569,
      "DES": 3570,
      "Ġautor": 3571,
      "Ġconstitucionalidade": 3572,
      "Ġrefle": 3573,
      "No": 3574,
      "CU": 3575,
      "Ġcapacidade": 3576,
      "Ġlice": 3577,
      "Ġfins": 3578,
      "Ġaqueles": 3579,
      "ĠTudo": 3580,
      "ĠFEDE": 3581,
      "nstitucional": 3582,
      "Ġora": 3583,
      "uco": 3584,
      "ĠNesse": 3585,
      "gido": 3586,
      "Ġ1999": 3587,
      "Ġfilhos": 3588,
      "Ġreprese": 3589,
      "Ġsubme": 3590,
      "Ġsenho": 3591,
      "tiu": 3592,
      "ĠParana": 3593,
      "ĠGre": 3594,
      "Ġefeito": 3595,
      "ĠJul": 3596,
      "tua": 3597,
      "ĠAinda": 3598,
      "mble": 3599,
      "Ġ60": 3600,
      "ĠSRA": 3601,
      "ĠSubs": 3602,
      "Ġ45": 3603,
      "96": 3604,
      "gus": 3605,
      "Ġsoluc": 3606,
      "ĠAmb": 3607,
      "40": 3608,
      "Ġdoenc": 3609,
      "ISLA": 3610,
      "Ġmanter": 3611,
      "2017": 3612,
      "Ġaltera": 3613,
      "ĠSesso": 3614,
      "ndic": 3615,
      "Ġprogramas": 3616,
      "Ġexige": 3617,
      "85": 3618,
      "Ġsubstituic": 3619,
      "Ġmus": 3620,
      "Ġentidades": 3621,
      "Ġimportantes": 3622,
      "Ġconstante": 3623,
      "Ġpote": 3624,
      "ĠAta": 3625,
      "emin": 3626,
      "Ġliberdade": 3627,
      "ĠADV": 3628,
      "Ġdela": 3629,
      "ĠPm": 3630,
      "Ġfiz": 3631,
      "Ġaudie": 3632,
      "ĠComisso": 3633,
      "ĠAC": 3634,
      "VIS": 3635,
      "giu": 3636,
      "ĠAcho": 3637,
      "Ġlide": 3638,
      "ĠLEGISLA": 3639,
      "til": 3640,
      "bel": 3641,
      "Es": 3642,
      "Ġaquele": 3643,
      "RADO": 3644,
      "Ġamigo": 3645,
      "Ġjustifica": 3646,
      "Ġsuj": 3647,
      "Ġadministrac": 3648,
      "ĠSAN": 3649,
      "Ġamor": 3650,
      "ĠPEC": 3651,
      "Ġvotar": 3652,
      "Ġcele": 3653,
      "ĠFundo": 3654,
      "mentais": 3655,
      "Ġlivre": 3656,
      "segu": 3657,
      "Ġmaterial": 3658,
      "gno": 3659,
      "duais": 3660,
      "Ġmovimento": 3661,
      "ĠAss": 3662,
      "au": 3663,
      "Ġbenefic": 3664,
      "ĠQui": 3665,
      "Ġapresentac": 3666,
      "ĠHar": 3667,
      "ĠDEPU": 3668,
      "Ġevide": 3669,
      "Ġcrescimento": 3670,
      "Ġpaga": 3671,
      "Ġconve": 3672,
      "Ġdifi": 3673,
      "voluc": 3674,
      "Ġatos": 3675,
      "ORDINA": 3676,
      "ĠWa": 3677,
      "mpea": 3678,
      "Ġvito": 3679,
      "tel": 3680,
      "Ġmilita": 3681,
      "ĠWikipe": 3682,
      "ntivo": 3683,
      "Ġrestri": 3684,
      "!!": 3685,
      "Ġautorizac": 3686,
      "vera": 3687,
      "ĠCampos": 3688,
      "ĠEXTRAORDINA": 3689,
      "ARDO": 3690,
      "IR": 3691,
      "Ġ33": 3692,
      "Ġcivil": 3693,
      "it": 3694,
      "ĠRosa": 3695,
      "Ġtais": 3696,
      "SS": 3697,
      "gular": 3698,
      "Ġ01": 3699,
      "ĠPmdbP": 3700,
      "Ġestavam": 3701,
      "tur": 3702,
      "cip": 3703,
      "Ġause": 3704,
      "ĠLt": 3705,
      "Ġevento": 3706,
      "uri": 3707,
      "Ġfundamental": 3708,
      "pou": 3709,
      "Ġcampanha": 3710,
      "Ġenvia": 3711,
      "Ġmilitar": 3712,
      "Ġpresentes": 3713,
      "Ġmuita": 3714,
      "Ġconsumi": 3715,
      "ĠChina": 3716,
      "ven": 3717,
      "rcito": 3718,
      "ĠAde": 3719,
      "tinho": 3720,
      "Ġ36": 3721,
      "tivesse": 3722,
      "ĠGlo": 3723,
      "Ġsof": 3724,
      "Ġningue": 3725,
      "our": 3726,
      "ĠPARA": 3727,
      "Ġzo": 3728,
      "Ġprestac": 3729,
      "Ġanda": 3730,
      "Ġopin": 3731,
      "ĠTodos": 3732,
      "DU": 3733,
      "oria": 3734,
      "Ġconvo": 3735,
      "ventu": 3736,
      "grac": 3737,
      "Ġrisco": 3738,
      "ĠRos": 3739,
      "Ġderro": 3740,
      "eni": 3741,
      "Ġtratamento": 3742,
      "seu": 3743,
      "Ġatuac": 3744,
      "Ġvisita": 3745,
      "ĠLui": 3746,
      "Ġfamilia": 3747,
      "Ġdiante": 3748,
      "Ġcentro": 3749,
      "EIRO": 3750,
      "ngua": 3751,
      "Ġafas": 3752,
      "rizac": 3753,
      "Ġaparece": 3754,
      "Ġ38": 3755,
      "Ġnatural": 3756,
      "ĠTUR": 3757,
      "hes": 3758,
      "Ġsonora": 3759,
      "Ġespecialmente": 3760,
      "ĠMeu": 3761,
      "Ġ&": 3762,
      "eix": 3763,
      "pare": 3764,
      "HOR": 3765,
      "tero": 3766,
      "bli": 3767,
      "Ġcorresponde": 3768,
      "bres": 3769,
      "vidos": 3770,
      "ĠEdi": 3771,
      "Ġpreve": 3772,
      "iana": 3773,
      "Ġemendas": 3774,
      "Ġmissa": 3775,
      "2006": 3776,
      "ĠInc": 3777,
      "mado": 3778,
      "Na": 3779,
      "ĠQual": 3780,
      "ĠAca": 3781,
      "ĠVossa": 3782,
      "iano": 3783,
      "Ġfer": 3784,
      "ĠFunda": 3785,
      "ĠFEDERAL": 3786,
      "ĠLtda": 3787,
      "Ġcombate": 3788,
      "Ġcontar": 3789,
      "ĠTemer": 3790,
      "Ro": 3791,
      "zada": 3792,
      "Ġpreside": 3793,
      "rin": 3794,
      "misso": 3795,
      "Ġcomum": 3796,
      "Ġcabec": 3797,
      "ĠTURMA": 3798,
      "vadas": 3799,
      "Ġmonta": 3800,
      "aco": 3801,
      "ĠPal": 3802,
      "micos": 3803,
      "Ġexperie": 3804,
      "solu": 3805,
      "Ġfinanceira": 3806,
      "Ġconteu": 3807,
      "IX": 3808,
      "Ġdimin": 3809,
      "Ġpronunciamento": 3810,
      "ustri": 3811,
      "ĠCome": 3812,
      "Ġimpla": 3813,
      "ĠCultura": 3814,
      "ĠDOS": 3815,
      "ĠRibeiro": 3816,
      "ĠCONTRA": 3817,
      "ĠAlexan": 3818,
      "riais": 3819,
      "ĠSta": 3820,
      "Ġeventu": 3821,
      "quac": 3822,
      "ĠSuperior": 3823,
      "trica": 3824,
      "PP": 3825,
      "75": 3826,
      "ĠHoje": 3827,
      "cies": 3828,
      "Ġcurso": 3829,
      "Ġsofre": 3830,
      "Ġdeba": 3831,
      "ĠCentro": 3832,
      "Ġino": 3833,
      "Ġconvida": 3834,
      "Ġambiente": 3835,
      "pido": 3836,
      "sicas": 3837,
      "Ġpartida": 3838,
      "Ġsab": 3839,
      "Ġdessas": 3840,
      "Ġtitular": 3841,
      "Ġvolu": 3842,
      "ĠRel": 3843,
      "rec": 3844,
      "ren": 3845,
      "Ġprisa": 3846,
      "ĠSENHOR": 3847,
      "Ġbastante": 3848,
      "ĠKo": 3849,
      "Ġnovamente": 3850,
      "ĠTenho": 3851,
      "Ġapresentar": 3852,
      "tulos": 3853,
      "Ġusar": 3854,
      "Ġindu": 3855,
      "Ġ55": 3856,
      "Ġ................................................................................................": 3857,
      "Ġaspec": 3858,
      "Ġmilha": 3859,
      "Ġcienti": 3860,
      "'s": 3861,
      "Ġajudar": 3862,
      "Ġdestaque": 3863,
      "Ġadvo": 3864,
      "Ġmic": 3865,
      "Ġtermo": 3866,
      "Ġ32": 3867,
      "ĠBen": 3868,
      "Ġmoder": 3869,
      "Ġamplia": 3870,
      "Ġcomunidade": 3871,
      "Ġescla": 3872,
      "ĠVoto": 3873,
      "Ġles": 3874,
      "Ġtecnologia": 3875,
      "ĠDani": 3876,
      "metros": 3877,
      "ĠParlamentar": 3878,
      "Ġideia": 3879,
      "ĠIgreja": 3880,
      "Ġjovens": 3881,
      "Ġcob": 3882,
      "Ġincide": 3883,
      "Ġinstalac": 3884,
      "ĠSegunda": 3885,
      "cente": 3886,
      "Ġquis": 3887,
      "Ġhon": 3888,
      "ĠDireito": 3889,
      "ĠMonte": 3890,
      "fu": 3891,
      "Ġ1996": 3892,
      "ĠâĢĵ,": 3893,
      "ressa": 3894,
      "CA": 3895,
      "tence": 3896,
      "ficado": 3897,
      "Ġconstitui": 3898,
      "Ġexte": 3899,
      "âĢĲ": 3900,
      "CI": 3901,
      "inema": 3902,
      "Ġprofesso": 3903,
      "Ġepiso": 3904,
      "Ġalema": 3905,
      "ĠPOR": 3906,
      "Ġfundo": 3907,
      "Ìĥ,": 3908,
      "BE": 3909,
      "ĠImpe": 3910,
      "Ġresposta": 3911,
      "Ġfuturo": 3912,
      "Ġsente": 3913,
      "land": 3914,
      "Ġespa": 3915,
      "ĠGO": 3916,
      "Ġquesto": 3917,
      "Ġcumprimento": 3918,
      "Presidente": 3919,
      "ssimo": 3920,
      "guas": 3921,
      "Ġtelefo": 3922,
      "Ġafirmou": 3923,
      "TOS": 3924,
      "eitos": 3925,
      "ĠTO": 3926,
      "Ġcuja": 3927,
      "Ġfatos": 3928,
      "Ġclube": 3929,
      "arte": 3930,
      "ĠRoma": 3931,
      "Ġentende": 3932,
      "gan": 3933,
      "68": 3934,
      "pp": 3935,
      "Ġrealidade": 3936,
      "Ġmente": 3937,
      "Ġjuridicidade": 3938,
      "ncer": 3939,
      "lhi": 3940,
      "ĠAlgu": 3941,
      "rude": 3942,
      "ĠContra": 3943,
      "gais": 3944,
      "et": 3945,
      "Ġalta": 3946,
      "Ġdenu": 3947,
      "Ġflores": 3948,
      "ĠAqui": 3949,
      "ĠTre": 3950,
      "ĠREG": 3951,
      "Ġinstitui": 3952,
      "Ġregras": 3953,
      "Ġmora": 3954,
      "ĠMartin": 3955,
      "Ġprejui": 3956,
      "Ġagrade": 3957,
      "ĠBru": 3958,
      "Ġportugue": 3959,
      "LOS": 3960,
      "ĠHer": 3961,
      "Ġpassar": 3962,
      "Ġcompor": 3963,
      "ĠPaul": 3964,
      "Ġgarantir": 3965,
      "Ġprimeiros": 3966,
      "ĠGros": 3967,
      "nsito": 3968,
      "--": 3969,
      "ĠEuropa": 3970,
      "Ġpequeno": 3971,
      "Ġgrupos": 3972,
      "Ġdro": 3973,
      "ach": 3974,
      "Ġjogos": 3975,
      "Ġmodi": 3976,
      "Ġdenomina": 3977,
      "Ġobrigac": 3978,
      "MS": 3979,
      "partamento": 3980,
      "Ġnobre": 3981,
      "32": 3982,
      "Ġdeixou": 3983,
      "rgio": 3984,
      "Ġimpor": 3985,
      "Ġporta": 3986,
      "ĠTerra": 3987,
      "Ġarts": 3988,
      "nciou": 3989,
      "lmente": 3990,
      "Ġimpre": 3991,
      "Ġgol": 3992,
      "Sa": 3993,
      "Ġdesignado": 3994,
      "lizar": 3995,
      "Ġsair": 3996,
      "Ġfiscal": 3997,
      "ĠJUS": 3998,
      "ĠUS": 3999,
      "Ġlibe": 4000,
      "Ġesteja": 4001,
      "Ġafe": 4002,
      "portes": 4003,
      "Ġcoorde": 4004,
      "ĠDEPUTADO": 4005,
      "lP": 4006,
      "xas": 4007,
      "nsta": 4008,
      "Ġinflue": 4009,
      "pus": 4010,
      "gura": 4011,
      "ĠSar": 4012,
      "Ġfecha": 4013,
      "ell": 4014,
      "vie": 4015,
      "Ġdefici": 4016,
      "ĠFis": 4017,
      "Ġestes": 4018,
      "ĠBol": 4019,
      "ĠRS": 4020,
      "Ġtributa": 4021,
      "Ġcargos": 4022,
      "Ġressal": 4023,
      "ĠRelato": 4024,
      "ĠAM": 4025,
      "Ġaconteceu": 4026,
      "Ġtenham": 4027,
      "ĠTemos": 4028,
      "ginas": 4029,
      "ĠOb": 4030,
      "TADA": 4031,
      "ĠPenal": 4032,
      "ĠOrc": 4033,
      "LO": 4034,
      "ĠComplementar": 4035,
      "Ġdesempe": 4036,
      "ĠMinistros": 4037,
      "BI": 4038,
      "ĠEi": 4039,
      "Ġchamada": 4040,
      "Ġrepe": 4041,
      "ĠDIA": 4042,
      "ĠJun": 4043,
      "ĠJohn": 4044,
      "ntia": 4045,
      "ĠGovernador": 4046,
      "TES": 4047,
      "lou": 4048,
      "SON": 4049,
      "ĠGeo": 4050,
      "nador": 4051,
      "Ġis": 4052,
      "dado": 4053,
      "Ġtrabalhar": 4054,
      "rope": 4055,
      "Ġcober": 4056,
      "Ġconsiderado": 4057,
      "ham": 4058,
      "ĠJOS": 4059,
      "Ġposi": 4060,
      "ĠFlo": 4061,
      "ĠReg": 4062,
      "Ġlocais": 4063,
      "ele": 4064,
      "Ġdistribuic": 4065,
      "77": 4066,
      "Ġsho": 4067,
      "Ġcujo": 4068,
      "ĠColo": 4069,
      "Ġencer": 4070,
      "Ġ48": 4071,
      "tadores": 4072,
      "cedentes": 4073,
      "aram": 4074,
      "ntor": 4075,
      "Ġacerca": 4076,
      "nizac": 4077,
      "44": 4078,
      "Ġtrami": 4079,
      "2003": 4080,
      "Ġamigos": 4081,
      "Ġlevar": 4082,
      "pero": 4083,
      "ĠAnexo": 4084,
      "biliza": 4085,
      "Ġseguida": 4086,
      "Ġmenciona": 4087,
      "Ġcento": 4088,
      "ĠComunita": 4089,
      "Ġgoverna": 4090,
      "gios": 4091,
      "ĠZa": 4092,
      "Ġtelevisa": 4093,
      "Ġnoti": 4094,
      "ĠLis": 4095,
      "Ġtratar": 4096,
      "Ġtreina": 4097,
      "ĠGru": 4098,
      "iou": 4099,
      "ĠBom": 4100,
      "tegory": 4101,
      "lidade": 4102,
      "ĠPortaria": 4103,
      "ĠNi": 4104,
      "ĠCerto": 4105,
      "Ġan": 4106,
      "postos": 4107,
      "ntados": 4108,
      "ĠBri": 4109,
      "ĠPs": 4110,
      "REG": 4111,
      "Ġcusto": 4112,
      "Ġestudo": 4113,
      "ĠApre": 4114,
      "Ġelabo": 4115,
      "ĠMato": 4116,
      "31": 4117,
      "ĠSenhores": 4118,
      "tti": 4119,
      "Ġconformidade": 4120,
      "Ġfun": 4121,
      "jas": 4122,
      "Ġpartes": 4123,
      "erta": 4124,
      "Ġsuspe": 4125,
      "Ġbre": 4126,
      "nero": 4127,
      "ĠCN": 4128,
      "ĠGar": 4129,
      "Ġabsolu": 4130,
      "GL": 4131,
      "Ġgre": 4132,
      "guesa": 4133,
      "zinho": 4134,
      "zou": 4135,
      "UA": 4136,
      "unos": 4137,
      "meros": 4138,
      "lito": 4139,
      "Ġcena": 4140,
      "dicos": 4141,
      "Ġimo": 4142,
      "istemas": 4143,
      "ĠAPR": 4144,
      "Ġdete": 4145,
      "ima": 4146,
      "ELO": 4147,
      "reta": 4148,
      "Ġestabelece": 4149,
      "ticular": 4150,
      "Ġcrimes": 4151,
      "Ġreside": 4152,
      "Ġesforc": 4153,
      "Ġmanutenc": 4154,
      "ĠConstitu": 4155,
      "Ġordina": 4156,
      "Ġcita": 4157,
      "Ġprocessos": 4158,
      "Ġvisto": 4159,
      "Ġocas": 4160,
      "Ġbens": 4161,
      "istos": 4162,
      "Ġterceiro": 4163,
      "Ġcomu": 4164,
      "adas": 4165,
      "mericana": 4166,
      "Ġteste": 4167,
      "wn": 4168,
      "lub": 4169,
      "Ġdocumentos": 4170,
      "Lei": 4171,
      "Ġtraz": 4172,
      "Ġpopular": 4173,
      "Ġtalvez": 4174,
      "cados": 4175,
      "Ġpalavras": 4176,
      "ĠMG": 4177,
      "Ġopera": 4178,
      "ĠSEG": 4179,
      "Ġprevisto": 4180,
      "Ġreceber": 4181,
      "ĠTele": 4182,
      "ĠTrata": 4183,
      "hs": 4184,
      "Ġinvestigac": 4185,
      "quei": 4186,
      "gando": 4187,
      "veram": 4188,
      "ĠPROC": 4189,
      "Ġencontro": 4190,
      "Ġimpac": 4191,
      "ĠPetro": 4192,
      "Ġproferi": 4193,
      "ĠLou": 4194,
      "Ġcategoria": 4195,
      "EX": 4196,
      "Ġentendimento": 4197,
      "Ġirre": 4198,
      "Ġfoto": 4199,
      "ĠAlema": 4200,
      "Ġapu": 4201,
      "Ġadqui": 4202,
      "ĠOfi": 4203,
      "judica": 4204,
      "ĠAssu": 4205,
      "cidade": 4206,
      "ĠPER": 4207,
      "Ġdisposic": 4208,
      "Ġescolas": 4209,
      "55": 4210,
      "Of": 4211,
      "Ġrealizado": 4212,
      "Ġabertura": 4213,
      "Ġ*": 4214,
      "dicia": 4215,
      "Ġgerac": 4216,
      "94": 4217,
      "ĠMor": 4218,
      "ĠCentral": 4219,
      "fer": 4220,
      "vid": 4221,
      "Ġencontrar": 4222,
      "Ġira": 4223,
      "ĠAlme": 4224,
      "gna": 4225,
      "uni": 4226,
      "Ġveio": 4227,
      "ĠBiblio": 4228,
      "Ġautoridade": 4229,
      "ĠAugus": 4230,
      "Ġentidade": 4231,
      "Ġinti": 4232,
      "lipe": 4233,
      "Ġalia": 4234,
      "67": 4235,
      "ĠPorque": 4236,
      "ĠSenhora": 4237,
      "ban": 4238,
      "Ġx": 4239,
      "Ġdefen": 4240,
      "RJ": 4241,
      "Ġind": 4242,
      "mbra": 4243,
      "ĠOla": 4244,
      "ĠEspa": 4245,
      "Ġinclusa": 4246,
      "ĠNel": 4247,
      "Ġvoltar": 4248,
      "Ġorde": 4249,
      "Ġbranc": 4250,
      "ĠPROPOSIC": 4251,
      "erge": 4252,
      "Ġfilha": 4253,
      "valho": 4254,
      "lie": 4255,
      "nita": 4256,
      "Ġglo": 4257,
      "ST": 4258,
      "hado": 4259,
      "ĠProcesso": 4260,
      "Ġoito": 4261,
      "Ġmelhores": 4262,
      "ĠJOSE": 4263,
      "bert": 4264,
      "Ġurba": 4265,
      "Ġmanifestac": 4266,
      "ĠSouza": 4267,
      "boa": 4268,
      "inos": 4269,
      "2004": 4270,
      "Ġblo": 4271,
      "Ġregio": 4272,
      "ĠDJe": 4273,
      "ĠLocalidades": 4274,
      "ĠVir": 4275,
      "ĠCelso": 4276,
      "ĠApoio": 4277,
      "Ġaprovada": 4278,
      "Ġperto": 4279,
      "Ġemprego": 4280,
      "Ġgarantia": 4281,
      "aca": 4282,
      "ĠBas": 4283,
      "Ġinfa": 4284,
      "Ġ1991": 4285,
      "Ġdizendo": 4286,
      "NO": 4287,
      "Ġcolocar": 4288,
      "ĠAp": 4289,
      "ĠJes": 4290,
      "ĠGomes": 4291,
      "ĠRICD": 4292,
      "Ġ[": 4293,
      "logo": 4294,
      "Ġabs": 4295,
      "Ġeta": 4296,
      "Ġtribuna": 4297,
      "ervac": 4298,
      "Ġestudos": 4299,
      "pesar": 4300,
      "Ġinstrumento": 4301,
      "vamente": 4302,
      "ĠMunicipal": 4303,
      "ĠGrosso": 4304,
      "ĠLopes": 4305,
      "Ġmovi": 4306,
      "Ġacide": 4307,
      "terra": 4308,
      "sio": 4309,
      "Ġutilizac": 4310,
      "BERTO": 4311,
      "Ġmeca": 4312,
      "Ġprio": 4313,
      "ĠUN": 4314,
      "Ġalto": 4315,
      "iam": 4316,
      "Ġacontece": 4317,
      "ĠMinistra": 4318,
      "Ġhumanos": 4319,
      "Ġameac": 4320,
      "centes": 4321,
      "ĠPrimeiro": 4322,
      "...)": 4323,
      "Ġapesar": 4324,
      "Ġfazem": 4325,
      "Ġmilitares": 4326,
      "Ġganha": 4327,
      "ĠRocha": 4328,
      "RAS": 4329,
      "rer": 4330,
      "ntina": 4331,
      "ĠSubstitutivo": 4332,
      "Ġtaxa": 4333,
      "Ġabor": 4334,
      "sc": 4335,
      "lei": 4336,
      "Ġ1995": 4337,
      "pone": 4338,
      "Ġunani": 4339,
      "tais": 4340,
      "Ġmundial": 4341,
      "jeic": 4342,
      "ĠAsse": 4343,
      "Ġdiretor": 4344,
      "Ġcondu": 4345,
      "my": 4346,
      "riza": 4347,
      "Ġvale": 4348,
      "Ġconsegui": 4349,
      "itas": 4350,
      "Ġentrar": 4351,
      "ntamente": 4352,
      "Ġdista": 4353,
      "Ġaprove": 4354,
      "Ġposterior": 4355,
      "nan": 4356,
      "Ġconseguiu": 4357,
      "ms": 4358,
      "ladas": 4359,
      "Ġindicac": 4360,
      "van": 4361,
      "Ġmetros": 4362,
      "Ġresultados": 4363,
      "Ġgi": 4364,
      "Ġconsul": 4365,
      "Ġ70": 4366,
      "ĠCatarina": 4367,
      "Ġacabou": 4368,
      "Ġmicro": 4369,
      "ĠParlamentares": 4370,
      "ĠSerra": 4371,
      "Ġnossas": 4372,
      "Ġavaliac": 4373,
      "Ġganho": 4374,
      "Ġdado": 4375,
      "Ġconhecida": 4376,
      "ĠLista": 4377,
      "len": 4378,
      "Ġjovem": 4379,
      "ĠLide": 4380,
      "Pausa": 4381,
      "Ġquali": 4382,
      "ĠDou": 4383,
      "frica": 4384,
      "hei": 4385,
      "Ġcompetic": 4386,
      "Ġacei": 4387,
      "Ġalunos": 4388,
      "tuto": 4389,
      "Ġarte": 4390,
      "ron": 4391,
      "Ġfalando": 4392,
      "Ġexclusividade": 4393,
      "ĠVeja": 4394,
      "ĠIM": 4395,
      "talia": 4396,
      "Ġaquela": 4397,
      "ork": 4398,
      "Ġunidades": 4399,
      "Ġinvestimentos": 4400,
      "Ġurge": 4401,
      "ĠJO": 4402,
      "Ġdiferenc": 4403,
      "Ġofe": 4404,
      "ill": 4405,
      "Ġimple": 4406,
      "Ġinse": 4407,
      "Ġoutorga": 4408,
      "Ġexpor": 4409,
      "ĠRegis": 4410,
      "deo": 4411,
      "Ġampla": 4412,
      "nciais": 4413,
      "Ġdaqui": 4414,
      "ĠDep": 4415,
      "ĠIng": 4416,
      "tudo": 4417,
      "sado": 4418,
      "mune": 4419,
      "Ġsuge": 4420,
      "ĠAi": 4421,
      "Ġremo": 4422,
      "ĠLUIZ": 4423,
      "ĠVol": 4424,
      "Ġconfia": 4425,
      "mon": 4426,
      "Ġespera": 4427,
      "ĠAcre": 4428,
      "Ġsupe": 4429,
      "urso": 4430,
      "Ġimprensa": 4431,
      "ĠMP": 4432,
      "Ġatribuic": 4433,
      "ĠCONSTITUIC": 4434,
      "doso": 4435,
      "ĠEstamos": 4436,
      "Ġcombi": 4437,
      "Ġanuncia": 4438,
      "ĠAb": 4439,
      "tiona": 4440,
      "Ġrevista": 4441,
      "Ġcho": 4442,
      "ĠCARLOS": 4443,
      "Ġpatrimo": 4444,
      "ED": 4445,
      "Ġdiscutir": 4446,
      "Ġcoo": 4447,
      "ĠAmbie": 4448,
      "RETO": 4449,
      "Ġz": 4450,
      "Ġdada": 4451,
      "idac": 4452,
      "Ġcau": 4453,
      "Ġ119": 4454,
      "Ġilus": 4455,
      "Ġcontas": 4456,
      "jos": 4457,
      "Ġrequisitos": 4458,
      "ĠMaranha": 4459,
      "ington": 4460,
      "Ġapare": 4461,
      "Ġsite": 4462,
      "ĠDESP": 4463,
      "mete": 4464,
      "leza": 4465,
      "Ġestrate": 4466,
      "ĠAlmeida": 4467,
      "ĠApesar": 4468,
      "Ġescu": 4469,
      "87": 4470,
      "Ġbancada": 4471,
      "dura": 4472,
      "lados": 4473,
      "Ġ34": 4474,
      "ĠProcu": 4475,
      "sse": 4476,
      "ntil": 4477,
      "Ġluz": 4478,
      "Ġapensa": 4479,
      "gro": 4480,
      "rino": 4481,
      "ĠFiguei": 4482,
      "ĠHuma": 4483,
      "deres": 4484,
      "ĠUSP": 4485,
      "Ġcomigo": 4486,
      "ĠRei": 4487,
      "ĠMEN": 4488,
      "Ġtornar": 4489,
      "Ġâ": 4490,
      "Ġexatamente": 4491,
      "dici": 4492,
      "Ġparticipar": 4493,
      "iclo": 4494,
      "ĠART": 4495,
      "ĠAla": 4496,
      "Ġcomissa": 4497,
      "ĠCont": 4498,
      "Ġespecifica": 4499,
      "ĠRodrigues": 4500,
      "hur": 4501,
      "91": 4502,
      "dim": 4503,
      "tta": 4504,
      "beas": 4505,
      "Ġcia": 4506,
      "ĠCP": 4507,
      "Ġalterna": 4508,
      "ĠEr": 4509,
      "%.": 4510,
      "minou": 4511,
      "Ġrodovia": 4512,
      "Ġmotivo": 4513,
      "ĠPes": 4514,
      "Ġbeneficia": 4515,
      "Ġdiferente": 4516,
      "RU": 4517,
      "Ġcarta": 4518,
      "ĠMO": 4519,
      "Ġnes": 4520,
      "yo": 4521,
      "Ġdireta": 4522,
      "ĠPapa": 4523,
      "han": 4524,
      "tese": 4525,
      "Ġhaver": 4526,
      "Ġhaja": 4527,
      "Ġquilo": 4528,
      "%,": 4529,
      "Ġparticular": 4530,
      "bine": 4531,
      "Ġconseque": 4532,
      "Ġsustenta": 4533,
      "Ġconsidera": 4534,
      "Ġbaixo": 4535,
      "ĠFami": 4536,
      "ĠRodrigo": 4537,
      "Ġves": 4538,
      "ĠAh": 4539,
      "Ġpertence": 4540,
      "estrutura": 4541,
      "prude": 4542,
      "Ġpais": 4543,
      "Ġsubstitu": 4544,
      "Ġpermissa": 4545,
      "Ġdistribui": 4546,
      "namb": 4547,
      "ĠNew": 4548,
      "ĠOnde": 4549,
      "porto": 4550,
      "Ġ80": 4551,
      "ĠFica": 4552,
      "Apensado": 4553,
      "lon": 4554,
      "ĠPrevide": 4555,
      "Ġdevida": 4556,
      "enos": 4557,
      "Ġsuficiente": 4558,
      "nhos": 4559,
      "ĠLideranc": 4560,
      "ĠCarvalho": 4561,
      "atro": 4562,
      "Ġorientac": 4563,
      "Ġcarro": 4564,
      "sibilidade": 4565,
      "ok": 4566,
      "tador": 4567,
      "Ġassocia": 4568,
      "cadas": 4569,
      "Ġfronte": 4570,
      "Ġpros": 4571,
      "minar": 4572,
      "ndido": 4573,
      "nardo": 4574,
      "ÌĦ": 4575,
      "Ġvaria": 4576,
      "Ġcapita": 4577,
      "Ġrejeic": 4578,
      "Ġfixa": 4579,
      "Ag": 4580,
      "ĠRegia": 4581,
      "ers": 4582,
      "Ġremune": 4583,
      "Ġbair": 4584,
      "ĠAge": 4585,
      "Ġalu": 4586,
      "Ġdivi": 4587,
      "Ġobs": 4588,
      "ULA": 4589,
      "ĠConcedo": 4590,
      "((": 4591,
      "ĠAugusto": 4592,
      "enha": 4593,
      "Ġpropostas": 4594,
      "Ġtradic": 4595,
      "ĠRECE": 4596,
      "Ġestadual": 4597,
      "Ġpublicado": 4598,
      "TON": 4599,
      "ĠEscola": 4600,
      "Ġdiscip": 4601,
      "ĠTeix": 4602,
      "Ġontem": 4603,
      "Ġobserva": 4604,
      "cua": 4605,
      "Ġaproxi": 4606,
      "Ġlegais": 4607,
      "ĠJudicia": 4608,
      "zio": 4609,
      "Ġcorrupc": 4610,
      "ĠNordeste": 4611,
      "ridos": 4612,
      "line": 4613,
      "Ġentrega": 4614,
      "ramente": 4615,
      "Ġestrang": 4616,
      "Ġdigi": 4617,
      "ĠPia": 4618,
      "Ġvive": 4619,
      "Ġseguir": 4620,
      "Ġministro": 4621,
      "ĠEstadual": 4622,
      "quim": 4623,
      "Ġambos": 4624,
      "ĠChar": 4625,
      "cante": 4626,
      "ĠMarcos": 4627,
      "Ġpossam": 4628,
      "Ġinterior": 4629,
      "Ġsomos": 4630,
      "Ġsemelha": 4631,
      "Ġextrema": 4632,
      "ĠRIO": 4633,
      "nie": 4634,
      "istir": 4635,
      "ĠFigueiredo": 4636,
      "Ġaprova": 4637,
      "Ġocorreu": 4638,
      "Ġ47": 4639,
      "2018": 4640,
      "ĠBR": 4641,
      "Ġautoridades": 4642,
      "Ġconquista": 4643,
      "ĠCruz": 4644,
      "ĠNelson": 4645,
      "cc": 4646,
      "Ġtoma": 4647,
      "Ġconhece": 4648,
      "ĠSeguranc": 4649,
      "tualmente": 4650,
      "Ġaprecia": 4651,
      "pul": 4652,
      "Ġpartidos": 4653,
      "ĠFinanc": 4654,
      "ticamente": 4655,
      "uldade": 4656,
      "ĠSEC": 4657,
      "ME": 4658,
      "GU": 4659,
      "tres": 4660,
      "ĠRi": 4661,
      "Ġrecla": 4662,
      "Ġgeo": 4663,
      "ixas": 4664,
      "radora": 4665,
      "ĠTeixeira": 4666,
      "toria": 4667,
      "Ġdepo": 4668,
      "ĠTri": 4669,
      "Ġfui": 4670,
      "Ġdispositivo": 4671,
      "ĠVan": 4672,
      "jamento": 4673,
      "erto": 4674,
      "ĠReino": 4675,
      "Ġcontinua": 4676,
      "ĠDra": 4677,
      "Ġperda": 4678,
      "Ġhomenagem": 4679,
      "Ġenfrenta": 4680,
      "Ġdra": 4681,
      "Ġconvi": 4682,
      "ĠAO": 4683,
      "Ġcriado": 4684,
      "ĠTalvez": 4685,
      "Ġreleva": 4686,
      "Ġclasse": 4687,
      "culpe": 4688,
      "ĠDECRETO": 4689,
      "Ġgrave": 4690,
      "86": 4691,
      "ĠGui": 4692,
      "Ìģ!": 4693,
      "ntais": 4694,
      "nomia": 4695,
      "Ġcerta": 4696,
      "Ġpagar": 4697,
      "ĠDesde": 4698,
      "Ġ90": 4699,
      "Ġespi": 4700,
      "Ġlicitac": 4701,
      "Ġmemo": 4702,
      "ECIA": 4703,
      "Ġpetro": 4704,
      "Ġ1988": 4705,
      "mpi": 4706,
      "Ġanimais": 4707,
      "ted": 4708,
      "ĠDei": 4709,
      "ĠSera": 4710,
      "ĠFutebol": 4711,
      "RITO": 4712,
      "Ġestac": 4713,
      "ĠArge": 4714,
      "licar": 4715,
      "ĠJU": 4716,
      "ĠPelo": 4717,
      "TIC": 4718,
      "Ġtentar": 4719,
      "tista": 4720,
      "ĠAlberto": 4721,
      "Ġtado": 4722,
      "Ġentrada": 4723,
      "Ġprevista": 4724,
      "Ġrac": 4725,
      "lando": 4726,
      "ĠRELATORA": 4727,
      "Ġrecorre": 4728,
      "RIB": 4729,
      "Ġleis": 4730,
      "Ġdou": 4731,
      "Ġ02": 4732,
      "Ġjurisprude": 4733,
      "Ġelementos": 4734,
      "posa": 4735,
      "Ġquarto": 4736,
      "Ġatende": 4737,
      "Ġprove": 4738,
      "fim": 4739,
      "Ġfederais": 4740,
      "ĠGoia": 4741,
      "ĠBan": 4742,
      "Ġ49": 4743,
      "ĠReso": 4744,
      "Ġevitar": 4745,
      "Ġabaixo": 4746,
      "Ġequipamentos": 4747,
      "Ġdelibe": 4748,
      "ĠPpP": 4749,
      "Ġrealizar": 4750,
      "gadas": 4751,
      "ispo": 4752,
      "Ġfabri": 4753,
      "Ġope": 4754,
      "Ġbate": 4755,
      "Pro": 4756,
      "Ġcru": 4757,
      "NR": 4758,
      "ĠGrupo": 4759,
      "Ġatualmente": 4760,
      "Ġjui": 4761,
      "Ġmanha": 4762,
      "Ġorigina": 4763,
      "Ġjudicial": 4764,
      "Ġproprie": 4765,
      "Ġbaixa": 4766,
      "reitos": 4767,
      "lige": 4768,
      "usse": 4769,
      "Ġdocumento": 4770,
      "LIO": 4771,
      "Ġprovo": 4772,
      "oa": 4773,
      "xx": 4774,
      "Ġprovas": 4775,
      "AgR": 4776,
      "Ġfemin": 4777,
      "Ġusado": 4778,
      "Ġpermite": 4779,
      "Ġfontes": 4780,
      "ua": 4781,
      "Ġlegi": 4782,
      "ĠRelac": 4783,
      "Ġamericano": 4784,
      "Ġaposentado": 4785,
      "micas": 4786,
      "Ġexpres": 4787,
      "ĠEMENDAS": 4788,
      "ĠAlemanha": 4789,
      "Ġcontinuar": 4790,
      "Ġexpa": 4791,
      "ĠSuper": 4792,
      "ĠSessa": 4793,
      "ĠCristo": 4794,
      "TIN": 4795,
      "ĠAure": 4796,
      "FA": 4797,
      "Ġquadro": 4798,
      "ĠBoa": 4799,
      "Ġintro": 4800,
      "Ġadic": 4801,
      "Ġile": 4802,
      "Ġfeliz": 4803,
      "nhar": 4804,
      "ĠOUT": 4805,
      "ĠMundo": 4806,
      "Ġitalia": 4807,
      "Ġexposto": 4808,
      "mem": 4809,
      "Ġcomemo": 4810,
      "Ġproje": 4811,
      "ĠLisboa": 4812,
      "Ġrural": 4813,
      "ĠArti": 4814,
      "taram": 4815,
      "Ġrepu": 4816,
      "Ġvice": 4817,
      "ĠIna": 4818,
      "ĠJesus": 4819,
      "Ġdiretamente": 4820,
      "ĠDiscussa": 4821,
      "Ġinteresses": 4822,
      "Ġcanto": 4823,
      "ĠAlexandre": 4824,
      "Ġdispositivos": 4825,
      "ĠCaval": 4826,
      "Ġsinto": 4827,
      "bos": 4828,
      "Ġprovi": 4829,
      "Ġface": 4830,
      "MG": 4831,
      "ĠOrgani": 4832,
      "ĠMinha": 4833,
      "Ġdeficie": 4834,
      "ĠAssemble": 4835,
      "ĠPCdoB": 4836,
      "Ġassas": 4837,
      "Mar": 4838,
      "guel": 4839,
      "ntura": 4840,
      "Ġdeciso": 4841,
      "Ġpermitir": 4842,
      "ĠPlano": 4843,
      "64": 4844,
      "ĠCorre": 4845,
      "ĠBarb": 4846,
      "fas": 4847,
      "Ġadoles": 4848,
      "ĠRede": 4849,
      "dap": 4850,
      "Ġimagem": 4851,
      "GA": 4852,
      "Ġexplorar": 4853,
      "icidade": 4854,
      "FF": 4855,
      "Ġpreocupac": 4856,
      "iki": 4857,
      "ĠMilitar": 4858,
      "Ġdefende": 4859,
      "ĠArthur": 4860,
      "________________": 4861,
      "Ġtime": 4862,
      "ĠFazenda": 4863,
      "93": 4864,
      "Ġmoda": 4865,
      "Ġtomar": 4866,
      "ĠQUE": 4867,
      "ĠBene": 4868,
      "Ġquarta": 4869,
      "Ġquantidade": 4870,
      "cro": 4871,
      "Ġ1993": 4872,
      "tidas": 4873,
      "ĠGE": 4874,
      "ĠFundac": 4875,
      "Ġmerece": 4876,
      "ĠDireitos": 4877,
      "Ġapresentou": 4878,
      "TAC": 4879,
      "deia": 4880,
      "RAC": 4881,
      "Ġrepresentante": 4882,
      "ĠHi": 4883,
      "Ġdemanda": 4884,
      "ĠCeara": 4885,
      "Ġcompra": 4886,
      "tizac": 4887,
      "ldo": 4888,
      "Ġunivers": 4889,
      "jar": 4890,
      "Ġimagens": 4891,
      "Ġbu": 4892,
      "fac": 4893,
      "ficie": 4894,
      "Ġopinia": 4895,
      "Ġprevide": 4896,
      "Ġdemocracia": 4897,
      "ĠDaniel": 4898,
      "ugu": 4899,
      "Ġsistemas": 4900,
      "ĠLiv": 4901,
      "Ġiso": 4902,
      "Ġarmas": 4903,
      "ĠResoluc": 4904,
      "Ps": 4905,
      "ĠNossa": 4906,
      "ficos": 4907,
      "Ġestabelecer": 4908,
      "Ġ--": 4909,
      "ĠBro": 4910,
      "Ġdando": 4911,
      "inhos": 4912,
      "Ġlocalizada": 4913,
      "ĠParece": 4914,
      "Ġlevou": 4915,
      "Ġetc": 4916,
      "Ġparcial": 4917,
      "ĠDESPAC": 4918,
      "ĠXV": 4919,
      "ĠIns": 4920,
      "Ġeventos": 4921,
      "rir": 4922,
      "Ġcoro": 4923,
      "tca": 4924,
      "ĠLO": 4925,
      "Ġjustic": 4926,
      "todo": 4927,
      "Ġemerge": 4928,
      "Ġconfi": 4929,
      "Ġambiental": 4930,
      "Ġvinte": 4931,
      "Ġconversa": 4932,
      "cle": 4933,
      "TIVA": 4934,
      "we": 4935,
      "Ġexistem": 4936,
      "Ġviu": 4937,
      "ĠMul": 4938,
      "ĠProposic": 4939,
      "Ġregra": 4940,
      "ĠSobre": 4941,
      "Ġae": 4942,
      "ĠAco": 4943,
      "Ġ00": 4944,
      "Ġconsiderac": 4945,
      "ĠAnge": 4946,
      "Ġfonte": 4947,
      "MARA": 4948,
      "Ġfiscalizac": 4949,
      "ĠVista": 4950,
      "ĠDIS": 4951,
      "Ġhavendo": 4952,
      "forme": 4953,
      "Ġmeios": 4954,
      "LE": 4955,
      "Ġamanha": 4956,
      "cando": 4957,
      "Ġtivesse": 4958,
      "mite": 4959,
      "ĠSch": 4960,
      "ploma": 4961,
      "Ġ|": 4962,
      "60": 4963,
      "Ġpaciente": 4964,
      "RS": 4965,
      "ncar": 4966,
      "Ġpequena": 4967,
      "Ġterras": 4968,
      "alo": 4969,
      "icita": 4970,
      "eta": 4971,
      "Ġtemp": 4972,
      "Ġunidade": 4973,
      "ANDO": 4974,
      "GERAL": 4975,
      "Ġjuros": 4976,
      "bur": 4977,
      "Ġrevo": 4978,
      "Ġcresce": 4979,
      "Ġfize": 4980,
      "tcategory": 4981,
      "und": 4982,
      "Ġpretende": 4983,
      "Ġdade": 4984,
      "Ġatender": 4985,
      "ficada": 4986,
      "Ġ58": 4987,
      "ex": 4988,
      ")(": 4989,
      "Ġincor": 4990,
      "den": 4991,
      "Ġ1994": 4992,
      "ĠMaio": 4993,
      "ĠSER": 4994,
      "Ġdescobri": 4995,
      "ntade": 4996,
      "Ġchu": 4997,
      "mal": 4998,
      "Ġlimites": 4999
    },
    "merges": [
      "Ġ d",
      "Ġ a",
      "Ġ e",
      "Ì ģ",
      "r a",
      "Ġd e",
      "Ġ p",
      "o s",
      "r e",
      "n t",
      "Ì ĥ",
      "Ġ c",
      ". .",
      "t a",
      "r i",
      "Ġ s",
      "n a",
      "d o",
      "q u",
      "Ġ o",
      "i s",
      "e s",
      "Ì §",
      "e r",
      "d a",
      "m a",
      "Ġc o",
      "m e",
      "i c",
      "o r",
      "i a",
      "r o",
      "Ġ qu",
      "d e",
      "t e",
      "Ġ P",
      "t o",
      "i n",
      "l a",
      "Ġ f",
      "Ġd o",
      "Ġ n",
      "Ġqu e",
      "Ġd a",
      "Ġ S",
      ".. ..",
      "Ġ C",
      "Ġ A",
      "n c",
      "t i",
      "nt e",
      "Ġ E",
      "Ġp a",
      "Ġs e",
      "l e",
      "Ġ re",
      "a s",
      "Ġ u",
      "Ġ D",
      "Ġco m",
      "Ġ v",
      "i o",
      "Ġ na",
      "Ì Ĥ",
      "a r",
      "a l",
      "Ġe s",
      "Ġ M",
      "re s",
      "Ġe m",
      "Ġn o",
      "Ġ m",
      "â Ģ",
      "n s",
      "Ġ 1",
      "l o",
      "a c",
      "Ġ R",
      "i da",
      "nt o",
      "t u",
      "Ġ O",
      "Ġ ma",
      "Ġ 2",
      "Ġ (",
      "h a",
      ".... ....",
      "v e",
      "Ġpa ra",
      "s o",
      "Ġ t",
      "Ġ N",
      "Ġ âĢ",
      "s a",
      "n do",
      "p e",
      "l i",
      "h o",
      "Ġ L",
      "Ġp ro",
      "ri a",
      "g u",
      "Ġp e",
      "v a",
      "Ġ in",
      "Ġ F",
      "e i",
      "d os",
      "s e",
      "Ġ b",
      "ic a",
      "Ġ i",
      "Ġ B",
      "Ġ T",
      "c o",
      "c e",
      "n o",
      "Ġ te",
      "g a",
      "ĠC o",
      "i l",
      "nc ia",
      "Ġ me",
      "e m",
      "me nto",
      "p o",
      "ĠâĢ ĵ",
      "u s",
      "Ġ I",
      "Ġu m",
      "nt a",
      "Ġp or",
      "g o",
      "m o",
      "Ġs o",
      "Ġp o",
      "c a",
      "Ġ V",
      "Ġa s",
      "ra s",
      "d i",
      "Ġs u",
      "0 0",
      "Ġu ma",
      "v o",
      "Ġ G",
      "Ġ \"",
      "Ġ os",
      "Ġe x",
      "Ġo u",
      "Ġc a",
      "Ġ j",
      "c u",
      "Ġes ta",
      "ida de",
      "na l",
      "Ġ J",
      "me nte",
      "u n",
      "m p",
      "m b",
      "ri o",
      "c i",
      "Ġf o",
      "Ġd os",
      "m os",
      "e n",
      "Ġde s",
      "Ġd i",
      "Ì Ģ",
      "ĠD e",
      "g ra",
      "ĠE s",
      "p u",
      "u i",
      "Ġa o",
      "........ ........",
      "i de",
      "n i",
      "m i",
      "t os",
      "qu e",
      "Ġf a",
      "ĠR e",
      "g e",
      "u l",
      "0 1",
      "ĠS e",
      "Ġ ta",
      "h e",
      "nt es",
      "d u",
      "ta do",
      "Ġcom o",
      "ic o",
      "p a",
      "f e",
      "Ġv o",
      "t ra",
      "v er",
      "Ġt ra",
      "Ġco n",
      "ĠP a",
      "c io",
      "Ġs a",
      "z a",
      "c ia",
      "da s",
      "Ġ1 9",
      "Ġa r",
      "ra m",
      "v i",
      "n e",
      "r os",
      "ra l",
      "Ġp re",
      "Ġd is",
      "Ġco ns",
      "Ġ -",
      "ĠD E",
      "n de",
      "Ġs er",
      "Ġ to",
      "Ġa p",
      "Ġfo i",
      "Ġ H",
      "l u",
      "r u",
      "or ma",
      "s i",
      "Ġ 3",
      "do r",
      "b e",
      "Ġda s",
      "Ġma is",
      "ti tu",
      "Ġn os",
      "Ġ U",
      "ĠN o",
      "a n",
      "g i",
      "me nt",
      "d es",
      "T O",
      "Ġco nt",
      "t ro",
      "i ra",
      "Ġpe la",
      "j e",
      "b l",
      "Ġa l",
      "Ġpa r",
      "ic i",
      "ĠC a",
      "Ġ le",
      "ĠS a",
      "ĠN a",
      "ĠM a",
      "b re",
      "ra c",
      "res ide",
      "E N",
      "is ta",
      "Ġm o",
      "R A",
      "es so",
      "Ġ2 00",
      "Ġp ri",
      "Ġa c",
      "qu i",
      "is a",
      "o u",
      "ĠDe pu",
      "Ġt er",
      "n os",
      "Ġre s",
      "E S",
      "p os",
      "ĠP R",
      "i r",
      "Ġv e",
      "Ġpe lo",
      "Ġe le",
      "Ġs i",
      "Ġte m",
      "Ġsu a",
      "Ġp er",
      "Ġ2 01",
      "na s",
      "t or",
      ".. .",
      "Ġqu a",
      "Ġv a",
      "e l",
      "j a",
      "reside nte",
      "i ta",
      "Ġso bre",
      "Ġf i",
      "Ġa u",
      "Ġ 4",
      "ĠS r",
      "i to",
      "Ġe nt",
      "Ġ 5",
      "ĠCo m",
      "d ic",
      "b a",
      "t er",
      "Ġ li",
      "is te",
      "n da",
      "res e",
      "Ġ ho",
      "Ġse gu",
      "m in",
      "i ro",
      "Ġo b",
      "Ġ ha",
      "ta r",
      "ti v",
      "ve l",
      "t ic",
      "Ġp u",
      "Ġp os",
      "Ġpo de",
      "d ia",
      "âĢ Ŀ",
      "mb e",
      "d er",
      "b u",
      "Ġ la",
      "ĠP ro",
      "ĠâĢ ľ",
      "e de",
      "Ġ h",
      "ti va",
      "Ġse u",
      "................ ................",
      "nt i",
      "fe re",
      "Ġ g",
      "ti vo",
      "Ġi mp",
      "la c",
      "x a",
      "t ri",
      "ta s",
      "al i",
      "nt er",
      "ĠSe na",
      "ns a",
      "ĠP residente",
      "ĠB ras",
      "t ica",
      "da de",
      "b al",
      "l os",
      "l es",
      "is so",
      "Ġta mbe",
      "b er",
      "ĠL ei",
      "Ġma s",
      "Ġ Q",
      ") ,",
      "Ġa te",
      "ta c",
      "in ha",
      "tu ra",
      "is sa",
      "Ġe n",
      "ta dos",
      "Ġe u",
      "Ġ gra",
      "ĠE m",
      "Ġm ui",
      "b o",
      "Ġv i",
      "ei ro",
      "Ġd ia",
      "Ġm es",
      "2 01",
      "ĠP e",
      "g ia",
      "er o",
      "R I",
      "f ic",
      "Ġ W",
      "Ġ 6",
      "ĠS u",
      "Ġfa z",
      "ĠR E",
      "ri os",
      "Ġ ra",
      "io nal",
      "ra r",
      "ĠM in",
      "ĠDepu tado",
      "z ac",
      "Ġ lo",
      "p or",
      ") .",
      "la s",
      "ĠF ede",
      "Ġar t",
      "Ġo r",
      "ment os",
      "ncia s",
      "l ia",
      "T E",
      "ĠP or",
      "Ġc as",
      "Ġn e",
      "\" ,",
      "Ġent re",
      "Ġin s",
      "ra nc",
      "la r",
      "ĠA s",
      "2 00",
      "g os",
      "ma s",
      "ĠR o",
      "Ġcont ra",
      "ĠA r",
      "ĠCo ns",
      "n ia",
      "T A",
      "Ġes pe",
      "Ġ l",
      "t es",
      "ĠQ u",
      "g is",
      "c re",
      "u r",
      "n ha",
      "ĠE u",
      "i le",
      "Ġ ti",
      "Ġdi re",
      "ri s",
      "ĠP o",
      "ĠG o",
      "E I",
      "g em",
      "Ġf orma",
      "z o",
      "es sa",
      "ĠFede ral",
      "ĠS R",
      "do res",
      "bl ica",
      "f ica",
      "cio nal",
      "p re",
      "Ġj a",
      "f orma",
      "Ġ isso",
      "A R",
      "Ġ 7",
      "Ġco nc",
      "es ta",
      "cia l",
      "Ġvo ce",
      "Ġa nos",
      "d io",
      "D O",
      "Ġd u",
      "c or",
      "D B",
      "is o",
      "ta l",
      "L A",
      "Ġb a",
      "Ġi nte",
      "Ġn u",
      "Ġou t",
      "ĠBras il",
      "Ġm u",
      "Ġpa s",
      "Ġj u",
      "i e",
      "Ġtra bal",
      "Ġ 8",
      "Ġp ra",
      "Ġe nc",
      "ida des",
      "Ġc ri",
      "je to",
      "b i",
      "ĠEs tado",
      "ĠS o",
      "Ġco r",
      "Ġqu al",
      "ĠPR O",
      "ĠA l",
      "Ġc e",
      "Ġf or",
      "Ġpri me",
      "Ġa os",
      "Ġv er",
      "v ia",
      "Ġin c",
      "_ _",
      "f i",
      "Ġ 9",
      "n d",
      "Ġ :",
      "I C",
      "ei ra",
      "is to",
      "I S",
      "Ġf u",
      "mi na",
      "I N",
      "p res",
      "ĠL i",
      "O S",
      "s os",
      "E R",
      "du c",
      "ri as",
      "Ġ ge",
      "ri e",
      "I D",
      "ri bu",
      "in o",
      "Ġmui to",
      "ĠM e",
      "io na",
      "c er",
      "Ġp esso",
      "Ġ ga",
      "h or",
      "Ġap ro",
      "Ġ K",
      "g ar",
      "Ġc ar",
      "Ġf e",
      "ra do",
      "titu ic",
      "ĠC O",
      "ĠC ar",
      "n u",
      "nc i",
      "Ġna s",
      "re m",
      "in da",
      "me nta",
      "p i",
      "n ho",
      "Ġb o",
      "cu r",
      "i m",
      "b ri",
      "ĠE x",
      "ĠL e",
      "to u",
      "Ġ19 9",
      "vo l",
      "I A",
      "Ġde ve",
      "ĠCom issa",
      "m pe",
      "Ġi nter",
      "ĠV o",
      "Ġ Â",
      "ĠN ac",
      "\" .",
      "Ġa d",
      "Ġau to",
      "ver no",
      "Ġb em",
      "s u",
      "Ġ1 0",
      "ĠM ar",
      "ĠM o",
      "v ic",
      "g ac",
      "Ġa qui",
      "es a",
      "p ac",
      "1 9",
      "t ru",
      "n g",
      "ĠPa ra",
      "ĠSena dor",
      "Ġsu b",
      "Ġal gu",
      "Ġcom p",
      "t in",
      "v es",
      "un ici",
      "Ġ tu",
      "Ġve z",
      "Ġqua ndo",
      "ĠJ o",
      "ĠO s",
      "il ho",
      "Ġde se",
      "u lo",
      "ĠEs ta",
      "Ġse m",
      "j u",
      "c isa",
      "Ġdi z",
      "Ġa po",
      "b il",
      "l ha",
      "Ġ lu",
      "ĠNac ional",
      "s es",
      "Ġc u",
      "ĠÂ §",
      "Ġ1 8",
      "Ġb ras",
      "ic ac",
      "ida s",
      "de m",
      "f o",
      "i x",
      "rese nta",
      "Ġtra ns",
      "b ro",
      "nt os",
      "ĠT o",
      "Ġpo li",
      "Ġse us",
      "Ġto dos",
      "Ġbras ile",
      "M EN",
      "ga do",
      "h os",
      "qu er",
      "Ġde f",
      "Ġp res",
      "mb ro",
      "Ġmes mo",
      "ci e",
      "Ìģ ,",
      "as e",
      "Ġse ja",
      "Ġa inda",
      "Ġtem po",
      "ĠP S",
      "ĠT e",
      "Ġa pe",
      "f or",
      "ĠF o",
      "cio na",
      "ra da",
      "E TO",
      "Ìģ -",
      "ri to",
      "Ġc er",
      "Ġar ti",
      "ĠB a",
      "Ġpa i",
      "Ġpar ti",
      "ĠI I",
      "si m",
      "ĠC as",
      "âĢĿ .",
      "ri or",
      "Ġ go",
      "ri ca",
      "Ġ1 1",
      "or te",
      "s as",
      "Ġe ra",
      "u la",
      "nt ro",
      "Ġre la",
      "Ġ ro",
      "en e",
      "ic os",
      "Ġ 0",
      "Ġa co",
      "ali za",
      "EN TE",
      "Ġj o",
      "ĠV a",
      "or ta",
      "A L",
      "in e",
      "Ġma r",
      "vi mento",
      "T I",
      "os e",
      "A N",
      "Ġre ce",
      "ĠP re",
      "un da",
      "Ġfo ram",
      "Ġes se",
      "ĠE le",
      "nc e",
      "Ġ2 0",
      "Ġpri nci",
      "ĠP L",
      "Ġes te",
      "ĠPa ulo",
      "Ġa no",
      "ei to",
      "ĠP ar",
      "t re",
      "n ico",
      "v ac",
      "Ġfaz er",
      "Ġre p",
      "ci mento",
      "in do",
      "ĠB o",
      "Ġse ra",
      "ĠT ra",
      "E C",
      "gu e",
      "bil idade",
      "Ġre cur",
      "c esso",
      "ĠMin is",
      "ES ID",
      "Ġc ha",
      "Ġe la",
      "u sa",
      "Ġco me",
      "n io",
      "Ġser vic",
      "O R",
      "ĠD i",
      "c h",
      "ia l",
      "x i",
      "ma r",
      "Ġpro du",
      "Ġdes ta",
      "ĠF a",
      "f a",
      "ĠD o",
      "es te",
      "v isa",
      "R O",
      "Ġt or",
      "i or",
      "Ġes sa",
      "ĠDepu tados",
      "ĠPR ESID",
      "2 0",
      "Ġm i",
      "ma ra",
      "t ico",
      "ĠR a",
      "d ica",
      "Ġpas sa",
      "ĠM as",
      "ĠL o",
      "D E",
      "c al",
      "J ETO",
      "Ġsegu i",
      "S O",
      "S A",
      "p al",
      "ra nte",
      "ĠPRO JETO",
      "I O",
      "Ġpar te",
      "D A",
      "M A",
      "ia s",
      "z e",
      "Ġ1 5",
      "in u",
      "Ġc he",
      "Ġpor que",
      "ic as",
      "m es",
      "er ra",
      "Ġcon he",
      "e cu",
      "Ġem pres",
      "re a",
      "ĠL EI",
      "Ġva i",
      "ĠI n",
      "i na",
      "Ġimp orta",
      "ĠD a",
      "ĠPRESID ENTE",
      "Ġj ul",
      "v al",
      "Ġc idade",
      "qu a",
      "Ġ1 2",
      "nc a",
      "ĠU ni",
      "LA TO",
      "co no",
      "p lo",
      "ĠD es",
      "Ġme u",
      "Ġt re",
      "go ra",
      "n ica",
      "Ġ .",
      "tiv os",
      "Ġle i",
      "cor re",
      "M DB",
      "ve is",
      "ista s",
      "u ma",
      "li za",
      "Ġo nde",
      "Ġpro f",
      "u m",
      "Ġa tu",
      "l us",
      "Ġma te",
      "c es",
      "p io",
      "ĠJ a",
      "a is",
      "Ġma io",
      "Ġme l",
      "Ġde z",
      "Ġf il",
      "in g",
      "Ġsu as",
      "pos ic",
      "ĠS en",
      "ĠVo ce",
      "Ġv al",
      "ĠCons tituic",
      "Ġpesso as",
      ". )",
      "ĠP T",
      "n di",
      "ĠSena do",
      "Ġp rese",
      "Ġout ros",
      "ta da",
      "ĠL a",
      "ĠAr t",
      "ĠG e",
      "h ar",
      "ĠGo verno",
      "Ġin forma",
      "Ġc ria",
      "po is",
      "g al",
      "ĠRE LATO",
      "Ġp la",
      "Ġa le",
      "ĠP u",
      "gu a",
      "Ġgra nde",
      "Ġenc o",
      "h as",
      "v ide",
      "ĠA le",
      "Ġout ras",
      "Ġ X",
      "i xa",
      "ĠD O",
      "Ġape nas",
      "Ġno me",
      "t ici",
      "bl ico",
      "c la",
      "Ġpo pu",
      "Ġpa la",
      "âĢ ĵ",
      "Ġdo is",
      "ic e",
      "Ġarti go",
      "Ġse ndo",
      "Ġes co",
      "ĠRe la",
      "re ce",
      "Ġtrabal ho",
      "Ġ Z",
      "is tra",
      "Ġ1 6",
      "z ar",
      "ĠT ribu",
      "Ġe nta",
      "ĠJ u",
      "ĠRe fere",
      "ĠR io",
      "ĠH a",
      "ĠT a",
      "f ia",
      "Ġor dem",
      "Ġi r",
      "Ġ1 7",
      "Ġ1 3",
      "pos ta",
      "A C",
      "j o",
      "d ro",
      "o n",
      "nt ar",
      "Ġprime iro",
      "ĠC e",
      "Ġa f",
      "c us",
      "Ġcom un",
      "l ica",
      "gra ma",
      "a do",
      "Ġpala v",
      "Ġac or",
      "Ġ1 4",
      "iste ma",
      "fe ri",
      "Ġcas o",
      "ĠI s",
      "be le",
      "re i",
      "Ġfu nc",
      "lo gia",
      "l ti",
      "gis la",
      "tic as",
      "Ġdese n",
      "c ri",
      "Ġob ri",
      "Ġho je",
      "Ġter mos",
      "ĠMinis tro",
      "ra dor",
      "ĠD A",
      "Ġe qui",
      "Ġc i",
      "ĠCas a",
      "i g",
      "d ida",
      "so n",
      "v ida",
      "min istra",
      "ta mente",
      "ra is",
      "cia c",
      "Ġcons titu",
      "Ġvo l",
      "ĠL u",
      "Ġma ior",
      "an eiro",
      "Ġa b",
      "Ġcons e",
      "ĠJ ose",
      "__ __",
      "es se",
      "Ġres pe",
      "Ġm inha",
      "ment ar",
      "ĠPa i",
      "U R",
      "Ġas sim",
      "ĠJ us",
      "ĠM unici",
      "na r",
      "Ġpar tici",
      "1 1",
      "Ġ ................................",
      "c os",
      "ĠCo mo",
      "ĠRELATO R",
      "ĠG ra",
      "nt u",
      "Ġh isto",
      "p ita",
      "ĠI nter",
      "duc ac",
      "Ġa tra",
      "Ġm il",
      "re ira",
      "ĠH o",
      "Ġes tu",
      "v as",
      "Ġco nta",
      "ĠM i",
      "mp re",
      "Ġf unda",
      "Ġpro jeto",
      "Ġcons ide",
      "lo co",
      "fic ac",
      "ri mento",
      "te ra",
      "p er",
      "na do",
      "Ġesta va",
      "ci do",
      "al mente",
      "b le",
      "Ġdesen vol",
      "Ġm ul",
      "lus i",
      "ĠS em",
      "Ġo ri",
      "ĠN e",
      "Ġin ic",
      "ĠO r",
      "tiv as",
      "Ġre co",
      "Ġauto ri",
      "E L",
      "Ġi de",
      "ta ria",
      "ĠD is",
      "Ġfi na",
      "h i",
      "vi do",
      "ĠPro jeto",
      "Ġv ida",
      "Ġqual quer",
      "di do",
      "ĠRe pu",
      "ĠTribu nal",
      "N C",
      "Ġres po",
      "Ġdire ito",
      "ĠSe gu",
      "ar do",
      "Ġ19 8",
      "ĠâĢ ¢",
      "t ros",
      "l is",
      "Ġe cono",
      "ver s",
      "ei ta",
      "Ġca da",
      "re cer",
      "c ar",
      "Ġfi nal",
      "Ġdis se",
      "res so",
      "em bro",
      "ĠCo n",
      "ĠB e",
      "Ġpos si",
      "Ġesta bele",
      "Ġenco nt",
      "1 0",
      "cus sa",
      "Ġpe ri",
      "t t",
      "R E",
      "l ui",
      "ĠG u",
      "Ġde pois",
      "Ìģ .",
      "me n",
      "c as",
      "mp an",
      "ĠMin iste",
      "Ġinforma c",
      "di to",
      "Ġcom pe",
      "Ġa gra",
      "Ġpalav ra",
      "v os",
      "ĠJo a",
      "ĠCar los",
      "Ġme io",
      "c essa",
      "Ġdes te",
      "Ġto do",
      "g io",
      "ves ti",
      "k i",
      "A S",
      "ĠT em",
      "Ġsub s",
      "ĠA u",
      "ca do",
      "x o",
      "ĠG a",
      "me nda",
      "Ġf ac",
      "Ġpre c",
      "m ia",
      "Ġap resenta",
      "MEN TO",
      "g as",
      "ei ros",
      "di na",
      "va do",
      "Ġp es",
      "P S",
      "ta nte",
      "cu l",
      "Ġa gora",
      "Ġin f",
      "Ġpo u",
      "Ġprime ira",
      "Ġacor do",
      "ĠEs tados",
      "i ros",
      "c ra",
      "ro u",
      "Ġho me",
      "Ġpro cesso",
      "ali zac",
      "Ġso l",
      "ce u",
      "ĠC h",
      "p ro",
      "l io",
      "ma is",
      "Ġco lo",
      "S P",
      "t h",
      "p ar",
      "Ġnos so",
      "nt ac",
      "Ġcome c",
      "Ġre gis",
      "ber to",
      "Ġre gi",
      "Ġre lac",
      "a ndo",
      "Ġo f",
      "i tos",
      "Ġf al",
      "Ġpe los",
      "Ġre aliza",
      "is mo",
      "Ġdu rante",
      "ĠV er",
      "ĠS i",
      "Ġmu ndo",
      "Ġprinci pal",
      "Ġ2 4",
      "ti do",
      "Ġem pre",
      "os a",
      "Ġdiz er",
      "Ġe les",
      "Ġpra zo",
      "Ġes ti",
      "Ġtra ta",
      "Ġt inha",
      "ĠF ranc",
      "v ar",
      "Ġa li",
      "is s",
      "Ġu ti",
      "ĠJus tic",
      "ĠP MDB",
      "ment al",
      "Ġrecur sos",
      "Ġs istema",
      "s ar",
      "Ġso b",
      "gu la",
      "Ġap re",
      "I L",
      "Ġm unici",
      "Ġsa u",
      "Ġse te",
      "cu lo",
      "le na",
      "Ġa nte",
      "ĠS im",
      "1 2",
      "o na",
      "Ġsi do",
      "I I",
      "ui z",
      "Ġdia s",
      "Ġla nc",
      "ns e",
      "Ġf ica",
      "ĠP ri",
      "Ġa g",
      "Ġque m",
      "re nte",
      "m ero",
      "s ica",
      "ra ndo",
      "Ġin vesti",
      "Ġa bri",
      "ĠO u",
      "a mento",
      "Ġdez embro",
      "Ġ gu",
      "Ġex ter",
      "ns o",
      "ĠF er",
      "ĠSen hor",
      "ti na",
      "s er",
      "to res",
      "Ġde mo",
      "ĠA G",
      "ge ns",
      "v il",
      "Ġa ca",
      "Ġpro ble",
      "Ġde cisa",
      "Ġa ntes",
      "c ha",
      "U T",
      "ĠCO M",
      "Ġsegu ndo",
      "ĠP A",
      "Ġ2 2",
      "ga ni",
      "b ita",
      "Ġex ecu",
      "0 9",
      "Ġno va",
      "ĠCO N",
      "P T",
      "Ġempres a",
      "to n",
      "Ġtu do",
      "Ġc ul",
      "Ġcon dic",
      "Ġm or",
      "Ġg ru",
      "ga da",
      "h eiro",
      "Ġco nte",
      "Ġparti r",
      "Ġsi tu",
      "Ġcha ma",
      "Ġpopu lac",
      "ĠRela tor",
      "Ġe nte",
      "Ġex iste",
      "in ho",
      "e nte",
      "Ġa que",
      "Ġse nti",
      "Ġre fere",
      "Ġa mb",
      "1 3",
      "Ġ3 0",
      "Ġmel hor",
      "Ġfa mi",
      "ti r",
      "Ġre visa",
      "me rica",
      "r ui",
      "p es",
      "1 5",
      "Ġb e",
      "Ì Ī",
      "Ġa tiv",
      "Ġou tro",
      "va m",
      "d ri",
      "Ġpre cisa",
      "Ġdes de",
      "Ġb ase",
      "ga mento",
      "Ġli v",
      "Ġm os",
      "ta nto",
      "d is",
      "b P",
      "Ġespe cial",
      "lu c",
      "Ġdi fere",
      ". (",
      "Ġin di",
      "du z",
      "Ġ19 7",
      "in i",
      "da r",
      "Ġrep resenta",
      "ĠF i",
      "Ġc la",
      "pos to",
      "V O",
      "Ġ2 5",
      "m ula",
      "h er",
      "Ġsegui nte",
      "U S",
      "ĠB ar",
      "Ġdi ver",
      "in s",
      "ĠCo ng",
      "i te",
      "pi os",
      "nc o",
      "ĠF u",
      "Ġj us",
      "ĠCom un",
      "ĠIs so",
      "Ġn orma",
      "Ġinte res",
      "Ġm ilho",
      "c k",
      "Ġa pa",
      "ĠI N",
      "ĠU nia",
      "Ġ2 3",
      "Ġa to",
      "go u",
      "Ġc re",
      "Ġvo tac",
      "g re",
      "Ġ ri",
      "U N",
      "Ġcomp le",
      "ta ndo",
      "cre to",
      "l ic",
      "i u",
      "Ġse mpre",
      "Ġno ve",
      "f re",
      "o do",
      "Ġex er",
      "Ġno vo",
      "Ġrespo nsa",
      "n der",
      "n idade",
      "Ġ: (",
      "a da",
      "Ġtrabal ha",
      "m po",
      "Ġ Y",
      "n he",
      "Ġa do",
      "ĠâĢ Ķ",
      "ĠV e",
      "ĠM A",
      "Ġaco nte",
      "Ġdu as",
      "Ġex em",
      "ĠD u",
      "va da",
      "ĠP er",
      "mo u",
      "Ġad ministra",
      "un ho",
      "pe rac",
      "el ho",
      "ns titu",
      "x to",
      "Ġme nos",
      "Ġ200 9",
      "Ġs us",
      "ĠE nta",
      "Ġcon f",
      "Ġval or",
      "Ġcom pa",
      "Ġob je",
      "ĠFo i",
      "da des",
      "n ge",
      "g or",
      "Ġex a",
      "pe ra",
      "Ġdis po",
      "ĠU m",
      "Ġse ria",
      "ca da",
      "Ġv en",
      "ma n",
      "ĠCong resso",
      "Ġcon for",
      "v iso",
      "v io",
      "Ġ ru",
      "Ġu sa",
      "ĠQu e",
      "Ġgo verno",
      "li zac",
      "T U",
      "Ġbrasile iro",
      "Ġo rador",
      "Ġas su",
      "Ġver dade",
      "Ġmo mento",
      "c no",
      "gra fia",
      "Ġapro vac",
      "ciona is",
      "ĠE xa",
      "Ġju ri",
      "Ġex tra",
      "Ġi mpe",
      "Ġcont inu",
      "Ġfi m",
      "pe nde",
      "Ġ200 7",
      "ĠA ma",
      "ĠS ul",
      "Ġres ul",
      "âĢĿ ,",
      "ĠV i",
      "n des",
      "O N",
      "Ġde ix",
      "gi na",
      "T RA",
      "ir ma",
      "Ġto das",
      "ĠS ES",
      "E G",
      "ĠPS DB",
      "200 9",
      "ĠO li",
      "Ġte nha",
      "Ġ2 8",
      "Ġ @",
      "Ġne cessa",
      "Ġv ia",
      "Ġprese nte",
      "Ġnos sa",
      "ĠC or",
      "l ho",
      "Ġ k",
      "ĠPe la",
      "Ġn esta",
      "Ġqua nto",
      "Ġ19 6",
      "Ġa ju",
      "RI O",
      "f ei",
      "Ġes tra",
      "Ġ2 1",
      "ĠA d",
      "m ica",
      "ida da",
      "nu ncia",
      "nt as",
      "Ġha bita",
      "Ġco le",
      "Ġap rese",
      "ĠSa nta",
      "ĠP reside",
      "cre ta",
      "Ġper mi",
      "nto u",
      "qua nto",
      "Q U",
      "ri al",
      "Ġde ter",
      "Ġt ribu",
      "Ġinte gra",
      "Ġvez es",
      "0 3",
      "Ġ2 7",
      "ĠS er",
      "cia is",
      "Ġin i",
      "Ġc ur",
      "ri do",
      "ĠA nto",
      "re mos",
      "en h",
      "t ia",
      "Ġqu ero",
      "Ġre gia",
      "ci de",
      "Ġimporta nte",
      "so u",
      "du ardo",
      "Ġcas a",
      "ĠM ui",
      "tru c",
      "Ġn este",
      "ĠD ia",
      "1 8",
      "r ga",
      "Ġfe z",
      "di r",
      "ĠM u",
      "f eito",
      "Ġex i",
      "Ġna da",
      "Ġso cial",
      "Ġcont ro",
      "tic os",
      "Ġ200 8",
      "Ġpro grama",
      "Ġexter nas",
      "Ġdes co",
      "Ġpo der",
      "ĠLi gac",
      "Ġm in",
      "e ndo",
      "es s",
      "Ġqu esta",
      "ce le",
      "pe nsa",
      "ra dos",
      "Ġna cional",
      "Ġas s",
      "Ġte ndo",
      "re iro",
      "cie dade",
      "Ġo corre",
      "Ġpo is",
      "Ġpre v",
      "v or",
      "k a",
      "qu is",
      "Ġg os",
      "Ġlu gar",
      "Ġvo to",
      "ver na",
      "P R",
      "ĠC A",
      "Ġga ra",
      "Ġenc a",
      "gos to",
      "Ġjul ho",
      "Ġinc iso",
      "ĠSr s",
      "ĠM IN",
      "g ni",
      "0 5",
      "mp os",
      "Ġsitu ac",
      "tu bro",
      "Ġre un",
      "c ida",
      "ĠRe gi",
      "iona is",
      "Ġ2 6",
      "Ġm er",
      "vers idade",
      "c ho",
      "ĠSu b",
      "ĠP AR",
      "âĢĵ âĢĵ",
      "ment ac",
      "in co",
      "Ġinic ia",
      "Ġ201 1",
      "Ġconse gu",
      "Ġalgu ns",
      "Ġta l",
      "Ġ200 6",
      "A r",
      "Ġins ta",
      "no u",
      "Ġsete mbro",
      "Ġte mos",
      "ci os",
      "da c",
      "Ġda r",
      "ĠS il",
      "ĠR u",
      "Ġvo u",
      "o l",
      "Ġdis so",
      "Ġex pe",
      "0 7",
      "b ui",
      "Ġrecur so",
      "U L",
      "Ġu ni",
      "H O",
      "ĠC i",
      "Ġto da",
      "f ico",
      "ĠH e",
      "Ġfa la",
      "Ġn em",
      "t rui",
      "Ġpode m",
      "0 6",
      "Ġe ve",
      "Ġb ene",
      "que rimento",
      "Ġh i",
      "Ġsenti do",
      "p s",
      "na c",
      "Ġda ta",
      "Ġor gani",
      "k e",
      "Ġ201 0",
      "b ra",
      "Ġlo cal",
      "Ġa mi",
      "Ġpela s",
      "ri dade",
      "Ġcor re",
      "ĠSES SA",
      "1 7",
      "ĠL uiz",
      "ĠLe gisla",
      "mpan ha",
      "Ġexem plo",
      "il ia",
      "ĠDi re",
      "Ġf is",
      "Ġter c",
      "Ġre gula",
      "Ġpou co",
      "Ġte ve",
      "Ġj unho",
      "bo l",
      "na ndo",
      "f ici",
      "Ġte nho",
      "0 8",
      "Ġex c",
      "Ġcu mp",
      "tu ral",
      "Ġfa to",
      "Ġde cla",
      "ĠVa mos",
      "Ġ ...",
      "h ia",
      "C UR",
      "p c",
      "Ġpo vo",
      "Ġle va",
      "Ġes tou",
      "Ġf ede",
      "Ġco isa",
      "Ġj or",
      "Ġpro posta",
      "Ġv io",
      "Ġdo cu",
      "Ġgru po",
      "ĠPar la",
      "ĠR es",
      "Ġdis tri",
      "Ġconstitu cional",
      "ĠPo der",
      "UT C",
      "t y",
      "Ġin de",
      "Ġu so",
      "f usa",
      "m issa",
      "nt al",
      "Ġte le",
      "la res",
      "Â °",
      "Ġh uma",
      "Ġdesenvol vimento",
      "1 6",
      "Ġmar c",
      "Ġv is",
      "Ġqua is",
      "Ġe ducac",
      "Ġcomp ro",
      "Ġt ro",
      "Ġm inu",
      "fic ial",
      "z es",
      "Ġto tal",
      "Ġdeter mina",
      "ĠBras ile",
      "ba te",
      "Ġ200 5",
      "Ġ2 9",
      "Ġva mos",
      "pita l",
      "por te",
      "ĠA po",
      "ĠGra nde",
      "ĠP la",
      "qu es",
      "Ġbrasile ira",
      "i ras",
      "ĠDe creto",
      "Ġpro te",
      "ĠT ur",
      "d ra",
      "nt re",
      "Ġespe ci",
      "titu i",
      "tu lo",
      "t s",
      "Ġa mp",
      "ncia l",
      "Ġca usa",
      "ĠF e",
      "ĠE duardo",
      "I M",
      "0 4",
      "Ġfina nc",
      "res ce",
      "Ġprof iss",
      "CUR SO",
      "Ġqu er",
      "ĠJ aneiro",
      "ĠEs pe",
      "Ġ201 3",
      "Ġbo m",
      "ĠE la",
      "Ġge ral",
      "EI RA",
      "Ġempres as",
      "Ġa gosto",
      "Ġou tubro",
      "l y",
      "Ġpro vide",
      "Ġinc lu",
      "Ġse ma",
      "nc io",
      "Ġpos sa",
      "ĠSa la",
      "Ġt ri",
      "Ġou tra",
      "ix o",
      "la da",
      "Ġob ser",
      "/ /",
      "bo ra",
      "Ġn enh",
      "ĠE M",
      "Ġpro duc",
      "P a",
      "te m",
      "Ġc las",
      "ĠII I",
      "Ġfa vor",
      "ria m",
      "Ġma nda",
      "cno logia",
      "Ġa nti",
      "................................ ................................",
      "Ġso ciedade",
      "ve reiro",
      "Ġla do",
      "ra n",
      "ĠT u",
      "Ġha via",
      "Ġli mi",
      "Ġreco nhe",
      "ĠSu pre",
      "a m",
      "EC ER",
      "en de",
      "RI A",
      "ma ne",
      "ĠA L",
      "Ġconc e",
      "V A",
      "Ġser vi",
      "min ha",
      "di go",
      "Ġinter na",
      "ĠTra bal",
      "Ġpode ra",
      "Ġabri l",
      "Ġse i",
      "Ġqu i",
      "C o",
      "pe rior",
      "Ġpesso a",
      "Ġu r",
      "Ġas se",
      "Ġe fe",
      "Ġb ri",
      "Ġj aneiro",
      ". \"",
      "os o",
      "li ta",
      "n es",
      "la do",
      "Ġhabita ntes",
      "Ġesta do",
      "r y",
      "0 2",
      "Ġpu bl",
      "c nica",
      ": //",
      "ta mento",
      "Ġlo c",
      "ĠMa ria",
      "ri da",
      "ĠMui to",
      "un dia",
      "p as",
      "Ġle gisla",
      "Ġcria nc",
      "Ġpro mo",
      "dio di",
      "Ġo cu",
      "Ġnove mbro",
      "E xa",
      "Ġne ces",
      "n er",
      "ni f",
      "Ġb an",
      "1 4",
      "Ġfunc iona",
      "Ġdes sa",
      "ĠPAR ECER",
      "l icac",
      "co m",
      "Ġp residente",
      "ĠE X",
      "ĠPri me",
      "ti da",
      "Ġso u",
      "Ġuti liza",
      "ĠEs te",
      "Ġsa be",
      "Ġmes ma",
      "ndi mento",
      "qu isa",
      "or dina",
      "Ġ201 2",
      "i b",
      "Ġin g",
      "Ġlo n",
      "Ġgara nt",
      "Ġdes se",
      "Ġfor c",
      "Ġsegu ranc",
      "Ġde le",
      "Ġca be",
      "Ġn i",
      "ĠU ma",
      "Ġ201 5",
      "b ar",
      "Ġb as",
      "Ġ19 4",
      "rie dade",
      "Ġesta r",
      "ma da",
      "Ġcon ju",
      "Ġesta mos",
      "ĠSa u",
      "Ġrece be",
      "Ġf re",
      "Ġa ni",
      "RA L",
      "Ġsi gni",
      "ve ira",
      "ĠN os",
      "na da",
      "in heiro",
      "Ġh tt",
      "ver sa",
      "Ġa de",
      "Ġf ic",
      "Ġsol ici",
      "Ġmel ho",
      "Ġsi m",
      "t ria",
      "19 9",
      "ve nc",
      "C O",
      "Ġcompe te",
      "Ġta nto",
      "Ġmos tra",
      "je tos",
      "so ciac",
      "diodi fusa",
      "du al",
      "ĠPo li",
      "Ġsa la",
      "gra fo",
      "Ġre al",
      "tiva mente",
      "Ġal go",
      "IN A",
      "ĠS ou",
      "Ġc ie",
      "f f",
      "ĠW i",
      "Ġe ns",
      "ĠRegi mento",
      "Ġde mais",
      "d idas",
      "Ġqua tro",
      "v is",
      "ĠPor tu",
      "Ġde sa",
      "Ġ200 4",
      "ID A",
      "mb o",
      "Ġti po",
      "Ġca ra",
      "Ġpos ic",
      "Ġde ixa",
      "ĠM ac",
      "Ġen quanto",
      "Ġnu m",
      "00 0",
      "lis e",
      "di e",
      "Ġho ras",
      "ve m",
      "Ġvol ta",
      "Ġs al",
      "Ġins tituic",
      "201 5",
      "Ġi ma",
      "Ġamb ie",
      "nta do",
      "nte mente",
      "Ġho u",
      "Ġ( \"",
      "Ġas si",
      "Ġa na",
      "ĠBras i",
      "Ġs essa",
      "Ġfe vereiro",
      "Ġprodu z",
      "w a",
      "Ġi na",
      "Ġb us",
      "Ġte xto",
      "ĠEx ecu",
      "ce de",
      "s ui",
      "E RI",
      "Ġde ntro",
      "m or",
      "to ra",
      "te bol",
      "D T",
      "Ġap lica",
      "Ġrespe ito",
      "li tar",
      "P MDB",
      "Ġc us",
      "ĠA D",
      "Ġre g",
      "Ġma n",
      "li z",
      "Ġta r",
      "B loco",
      "Ġv em",
      "ico u",
      "ĠA N",
      "Ġa ta",
      "p rio",
      "Ġcom er",
      "ÌĤ -",
      "Ġfa lar",
      "pe c",
      "na is",
      "Ġdire itos",
      "m u",
      "ga dos",
      "Ġpe que",
      "Ġa tri",
      "ĠE ducac",
      "Ġho ra",
      "ĠInter no",
      "Ġe r",
      "ri co",
      "os ta",
      "Ġpo nto",
      "Ġcri ac",
      "ĠSupre mo",
      "Ġapo io",
      "O L",
      "H A",
      "tru tura",
      "nd ida",
      "Ġsigni fica",
      "m idade",
      "Ġm im",
      "ĠUni dos",
      "ti o",
      "por tu",
      "ĠA nd",
      "pos i",
      "Ġfo ra",
      "ĠA o",
      "e nc",
      "Ġtu r",
      "p le",
      "is co",
      "Ġma nif",
      "mp a",
      "l he",
      "P OS",
      "C E",
      "Ġme dida",
      "Ġa nu",
      "Ġproble ma",
      "Ġrela to",
      "m ico",
      "Ġconfor me",
      "Ġ200 3",
      "Ġmu da",
      "Ġnu nca",
      "os se",
      "cur so",
      "ĠQu ando",
      "Ġf eito",
      "g ica",
      "____ ____",
      "Ġpu blica",
      "Ġc inco",
      "ĠT i",
      "lusi ve",
      "ĠP P",
      "z er",
      "p ria",
      "ĠJ or",
      "ti fica",
      "Ġal te",
      "Ġ201 4",
      "Ġda dos",
      "3 0",
      "R e",
      "pa is",
      "Ġper mane",
      "ve ndo",
      "2 5",
      "Ġt he",
      "ĠR O",
      "ĠEx cele",
      "G E",
      "Ġex p",
      "Ġa ma",
      "Ġes ses",
      "ĠV ice",
      "T RO",
      "Ar t",
      "te nc",
      "Ġ /",
      "ĠTur ma",
      "ĠC ha",
      "Ġ19 5",
      "re as",
      "Ġsu r",
      "Ġfil me",
      "te ri",
      "c ac",
      "ĠSil va",
      "Ġle gal",
      "ĠP lena",
      "Ġde r",
      "ia is",
      "bl icos",
      "Ġ201 6",
      "Ġac esso",
      "Ġk m",
      "Ġdis cu",
      "Ġe di",
      "Ġdeve ra",
      "Ġexer ci",
      "a ra",
      "ĠN O",
      "em o",
      "Ġatra ve",
      "ĠSo cial",
      "Ġen vol",
      "ĠS ras",
      "en da",
      "ĠT he",
      "Ġinc lui",
      "Ġes tre",
      "ta m",
      "gi r",
      "mp le",
      "ĠR ic",
      "ĠB u",
      "ĠUni versidade",
      "201 3",
      "Ġne go",
      "Ġdes ig",
      "ĠC la",
      "nt ra",
      "o cu",
      "mb a",
      "P L",
      "ĠOli veira",
      "c rito",
      "gu es",
      "Ġ ,",
      "Ġregi mental",
      "Ġpe c",
      "Ġmer cado",
      "âĢ Ļ",
      "ĠC ie",
      "ĠC u",
      "ti on",
      "Ġdes tina",
      "Ġextra ordina",
      "ĠTo tal",
      "pres sa",
      "undia l",
      "Ġin co",
      "Ġsegu nda",
      "ĠS U",
      "ni mo",
      "mpe ona",
      "Ġcer ca",
      "Ġe dic",
      ". ,",
      "ĠPe dro",
      "ĠSen ho",
      "Ġv ista",
      "Ġa i",
      "Ġsegui ntes",
      "Ġp i",
      "l bu",
      "Ġpa recer",
      "Ġfaz endo",
      "po ca",
      "bu ic",
      "xi mo",
      "m er",
      "Ġdef esa",
      "cu los",
      "Ġca te",
      "vo u",
      "Ġcons u",
      "Ġmui tos",
      "Ġra za",
      "Ġpes quisa",
      "Ġac re",
      "Ġre feri",
      "\" )",
      "un ha",
      "Ġexc lusi",
      "Ġobri gado",
      "Ġimp os",
      "f eira",
      "Ġmes es",
      "ĠCons elho",
      "Ġex plo",
      "Ġloc aliza",
      "Ġori gem",
      "Ġte nta",
      "Ġo ficial",
      "NC IA",
      "Ġrespe c",
      "pe l",
      "ta das",
      "ĠDepu tada",
      "201 1",
      "ĠO bri",
      "Ġativ idades",
      "T F",
      "l s",
      "Ġele ito",
      "mb ros",
      "ĠS P",
      "ĠS al",
      "Ġte ma",
      "Ġo portu",
      "s ico",
      "S TI",
      "Ġalgu mas",
      "ĠComun icac",
      "Ġa ge",
      "Ġencont ra",
      "ĠSegu ndo",
      "ĠA gora",
      "Ġle gis",
      "Ġgra ndes",
      "Ġes sas",
      "Ġinc lusive",
      "ĠP i",
      "ĠPo de",
      "ĠB loco",
      "Ġpor tu",
      "N A",
      "Ġval o",
      "so na",
      "ĠE menda",
      "2 1",
      "em os",
      "d re",
      "d ico",
      "ĠEs sa",
      "s ia",
      "Ġregis tra",
      "e ntes",
      "ĠE MEN",
      "Ġf osse",
      "6 6",
      "bi li",
      "j us",
      "r us",
      "Ġra diodifusa",
      "v ista",
      "i do",
      "Ġqu es",
      "Ġpe na",
      "he res",
      "Ġpa rece",
      "d s",
      "ĠExecu tivo",
      "Ġpre ocu",
      "Ġneces s",
      "Ġqu ase",
      "ĠF ilho",
      "mi r",
      "Ġ w",
      "rio res",
      "Ġo fere",
      "Ġsi mp",
      "Ġen er",
      "ĠDe f",
      "ĠDes en",
      "ĠB i",
      "Ġante rior",
      "s tica",
      "or de",
      "Ġnu ma",
      "Ġjor nal",
      "Ġminu tos",
      "Ġqu ar",
      "ĠD r",
      "2 9",
      "u ro",
      ". âĢĿ",
      "ĠH en",
      "ĠK a",
      "ĠMa ri",
      "Ġf ilho",
      "v ul",
      "so l",
      "Ġes pac",
      "TA DO",
      "ĠI nstitu",
      "mpeona to",
      "ĠDe us",
      "ĠC er",
      "ĠE d",
      "ĠB ra",
      "ve z",
      "Ġti ve",
      "Ġ1 00",
      "STI TU",
      "Ġche ga",
      "ĠDE M",
      ") ;",
      "Ġpartici pac",
      "Ġin dica",
      "Ġdis cussa",
      "ĠF or",
      "ia c",
      "Ġa ber",
      "r cio",
      "Ġfal ta",
      "Ġre ti",
      "Ġfic ar",
      "Ġe ram",
      "u ta",
      "Ġpos sui",
      "Ġc res",
      "Ġde vido",
      "ĠIn forma",
      "Ġmaio ria",
      "Ġbo a",
      "menta res",
      "tu ras",
      "te rior",
      "is as",
      "ÌĤ ?",
      "Ġjo go",
      "ĠCOM IS",
      "Ġpubl icac",
      "Ġre f",
      "3 4",
      "ĠEs se",
      "Ġir ma",
      "Ġa ba",
      "ve u",
      "Ġl ici",
      "ri que",
      "Ġd inheiro",
      "2 8",
      "Ġfa vo",
      "re za",
      "Ġl he",
      "Ġqual idade",
      "Ġ5 0",
      "ĠP as",
      "Ġre c",
      "Ġb ar",
      "bl icas",
      "vol vimento",
      "ĠA me",
      "Ġte ra",
      "ĠC ul",
      "Ġreun ia",
      "ns i",
      "Ġmui tas",
      "le c",
      "Ġde ci",
      "D I",
      "ĠQu a",
      "y a",
      "Ġme n",
      "x e",
      "ti ma",
      "pu tado",
      "Ġbrasile iros",
      "ĠS EN",
      "l l",
      "Ġvo ta",
      "ir cu",
      "ĠA g",
      "Ġpro cu",
      "Ġcar go",
      "ess or",
      "PS DB",
      "Ġn orte",
      "Ġhtt ps",
      "Ġi gu",
      "Ġcas os",
      "Ġre forma",
      ") :",
      "ĠEu ro",
      "ĠS ra",
      "Ġper ce",
      "3 6",
      "ĠI ta",
      "........ ....",
      "ĠP E",
      "Ġpode ria",
      "Ġsema na",
      "me dia",
      "do B",
      "b ia",
      "Ġpro va",
      "ĠL U",
      "ĠAs sim",
      "Ġ titu",
      "di os",
      "ĠL ula",
      "ris ta",
      "t is",
      "Ġre dac",
      "Ġseja m",
      "ĠAs sociac",
      "P E",
      "Ġele ic",
      "Ġlegis lac",
      "Ġcons truc",
      "Ġdi ri",
      "Ġ201 7",
      "Ġenta nto",
      "3 5",
      "Ġpe dido",
      "Ġau mento",
      "p P",
      "ca is",
      "ĠE n",
      "ĠT V",
      "li na",
      "ĠA R",
      "Ġmo do",
      "ĠDis tri",
      "Ġhome m",
      "Ġmo de",
      "Ġobje tivo",
      "Ġo perac",
      "ĠW il",
      "le o",
      "c il",
      "Ġpe nsa",
      "2 4",
      "ĠRo dri",
      "ĠM ic",
      "ĠD J",
      "Ġ200 0",
      "rac teri",
      "lbu m",
      "Ġda que",
      "k o",
      "ĠFer nando",
      "B A",
      "Ġme mbros",
      "za do",
      "2 7",
      "Ġagra vo",
      "t c",
      "Ġso mente",
      "ĠA te",
      "n dia",
      "ci dos",
      "3 7",
      "Ġca ndida",
      "na to",
      "Ġv ir",
      "ĠRo berto",
      "lti ma",
      "ĠV al",
      "Ġre cu",
      "ĠLegisla tivo",
      "lti mo",
      "Ġenca minha",
      "Ġtar de",
      "Ġregis tro",
      "ĠNo va",
      "Ġm orte",
      "Ġre alizac",
      "fei tos",
      "Ġac ho",
      "Ġjo ga",
      "2 6",
      "Ġde li",
      "Ġre a",
      "Ġre i",
      "ne t",
      "ĠPS B",
      "3 9",
      "Ġpas sou",
      "Ġens ino",
      "Ġob ras",
      "ĠGe ral",
      "li mina",
      "P U",
      "ĠM an",
      "Ġaju da",
      "ĠPro grama",
      "Ġatu al",
      "Ġcons trui",
      "Ġo rie",
      "te za",
      "Ġor c",
      "Ġc h",
      "fic ar",
      "Ġpro p",
      "n y",
      "Ġme didas",
      "s ta",
      "ĠJ e",
      "min ho",
      "ĠB em",
      "ĠSo l",
      "ĠI V",
      "titu tivo",
      "ĠH isto",
      "io n",
      "Ġ201 9",
      "g es",
      "ĠMa ia",
      "ĠPa recer",
      "m is",
      "ĠTra ns",
      "ri cul",
      "dic ac",
      "200 0",
      "Ġno ite",
      "Ġob jeto",
      "Ġin e",
      "D INA",
      "ne y",
      "Ġme mbro",
      "Ġcontro le",
      "nt ral",
      "ĠAma zo",
      "ĠTrabal ho",
      "Ġf ra",
      "IC A",
      "200 8",
      "Ġproble mas",
      "Ġpa gamento",
      "Ġfor mula",
      "m un",
      "Ġ5 4",
      "s si",
      "Ġv isa",
      "T he",
      "ĠPortu gal",
      "Ġa tin",
      "do u",
      "Ġco isas",
      "Ġener gia",
      "Ġac er",
      "Ġli ber",
      "ĠMar co",
      "Ġde u",
      "Ġmul heres",
      "ĠF ac",
      "Ġse tor",
      "Ġa val",
      "ĠE ntre",
      "P I",
      "a dos",
      "Ġpro ces",
      "Ġsimp les",
      "va nc",
      "Ġc li",
      "Ġins tru",
      "3 8",
      "DE M",
      "Ġl in",
      "ma nda",
      "ĠLo cal",
      "Ġcer to",
      "Ġcont ribu",
      "Ġt es",
      "G e",
      "B L",
      "Ġaf irma",
      "ĠT er",
      "he l",
      "I Z",
      "ĠAd ministra",
      "Ġlon go",
      "m io",
      "lu be",
      "ĠMi nas",
      "ĠSu a",
      "Ġsa ber",
      "200 7",
      "gi nal",
      "Ġo p",
      "Ġdeix ar",
      "verna dor",
      "Ġter rito",
      "Ġrela ciona",
      "Ġ3 1",
      "Ġprincipal mente",
      "Ġequi pe",
      "ĠEs tou",
      "do ra",
      "ĠA gra",
      "Ġge nte",
      "no ra",
      "xi ma",
      "Ġdi vul",
      "Ġprec iso",
      "Ġc idada",
      "ĠInter na",
      "ĠDesen volvimento",
      "nal do",
      "Ġse n",
      "Ġju nto",
      "Ġdemo cra",
      "ĠM en",
      "ÌĤ .",
      "M a",
      "t ras",
      "ĠFranc isco",
      "n icos",
      "ĠN orte",
      "Ġpre te",
      "Ġar qui",
      "Ġou vi",
      "Ġsu per",
      "di u",
      "co la",
      "I V",
      "gre ja",
      "Ġsa i",
      "Ġ20 20",
      "s al",
      "Ġre querimento",
      "Ġdis posi",
      "ĠSe creta",
      "Ġmanif es",
      "ĠM AR",
      "Ġc al",
      "Ġap licac",
      "a mos",
      "ĠM esa",
      "G O",
      "Ġpro jetos",
      "Ġprese nc",
      "Ġjul gamento",
      "4 5",
      "Ġc ircu",
      "s ticas",
      "Ġca pac",
      "Ġde corre",
      "ĠC AR",
      "Ġent ra",
      "201 0",
      "Ġhou ve",
      "Ġ200 2",
      "va nte",
      "p ri",
      "Ġf rente",
      "Ġ: )",
      "Ġ................................ ................",
      "ĠM el",
      "Ġpa pel",
      "de ira",
      "l h",
      "Ġindi vi",
      "ĠE les",
      "Ġconc essa",
      "Ġfor ne",
      "Ġ3 5",
      "p ia",
      "s tico",
      "i go",
      "merica no",
      "g ico",
      "Ġbene fi",
      "Ġpos so",
      "Ġdemo ns",
      "ĠA c",
      "in gue",
      "ce ndo",
      "Ġalgu ma",
      "Ġg as",
      "ĠB er",
      "lo res",
      "B ER",
      "Ġem bora",
      "Ġes ca",
      "Ġpartici pa",
      "Ġlu ta",
      "dia nte",
      "Ġecono mia",
      "v idade",
      "ĠR IC",
      "ĠF re",
      "Ġre ais",
      "Ġob ra",
      "Ġcon de",
      "Ġpro ce",
      "ĠRE QU",
      "Ġvio le",
      "ĠC he",
      "ncia mento",
      "2 2",
      "Ġorgani zac",
      "Ġconhe cido",
      "ci to",
      "Ġregi me",
      "Ġativ idade",
      "Ġre ve",
      "9 8",
      "Ġmor re",
      "ĠN A",
      "ĠAnto nio",
      "ĠP DT",
      "Ġocu pa",
      "Ġf ei",
      "r da",
      "men das",
      "Ġcor po",
      "n is",
      "Ġequi pa",
      "ti mo",
      "v in",
      "Ġcons ta",
      "cri c",
      "Ġpor tanto",
      "Ġpode mos",
      "ĠN or",
      "ĠPar tido",
      "Ġobri ga",
      "ĠAle x",
      "Ġca racteri",
      "Ġn esse",
      "Ġar ma",
      "for c",
      "Ġpar ce",
      "Ġma l",
      "Ìģ ?",
      "RA VO",
      "Ġcri me",
      "Ġele tro",
      "Ġ '",
      "Ġre no",
      "ne a",
      "Ġal ca",
      "ĠP os",
      "Ġcul tura",
      "ĠS E",
      "ĠSer vic",
      "gu ei",
      "Ġman eira",
      "Ġ199 0",
      "Ġconc or",
      "lu sa",
      "Ġaco mpanha",
      "Ġbus ca",
      "ĠDef esa",
      "Ġprodu tos",
      "ce lo",
      "Ġexecu c",
      "al tera",
      "Ġrealiza da",
      "Ġdef ini",
      "ĠA ra",
      "ĠQ U",
      "ĠA na",
      "vel mente",
      "b as",
      "Ġba nca",
      "Ġrece bi",
      "g er",
      "Ġclas si",
      "Ġre le",
      "Ġconju nto",
      "g en",
      "ĠEMEN DA",
      "Ġmul her",
      "u e",
      "ĠVa le",
      "Ġlegisla tiva",
      "Ġparti do",
      "gor y",
      "ri na",
      "Ġdef in",
      "Ġcomun icac",
      "Ġca mpo",
      "Ġa nd",
      "Ġque ria",
      "Ġinteres se",
      "cre taria",
      "Ġ200 1",
      "ĠS an",
      "ERI MENTO",
      "ĠTe cnologia",
      "ĠDistri to",
      "ĠG il",
      "Ġpesso al",
      "Ġnecess idade",
      "tu reza",
      "ĠCi vil",
      "ma ndo",
      "Ġso ciais",
      "Ġliv ro",
      "ra das",
      "TI MA",
      "Ġ ris",
      "Ġmuda nc",
      "p la",
      "u to",
      "Ġalgu m",
      "Ġlo go",
      "ĠM es",
      "Ġpassa do",
      "Ġa cu",
      "ĠE cono",
      "ita r",
      "C IO",
      "Ġsu perior",
      "A M",
      "Ġ201 8",
      "Ġve ri",
      "Ġesco la",
      "Ġing le",
      "Ġca pital",
      "su a",
      "v idas",
      "ĠWi ki",
      "ci ma",
      "co u",
      "Ġle mb",
      "ĠD emo",
      "Ġme ta",
      "Ġ he",
      "ĠPrime ira",
      "pos tas",
      "Ġa vanc",
      "7 8",
      "Ġe menda",
      "Ġcompa n",
      "Ġou tor",
      "Ġf icou",
      "Ġf ranc",
      "d y",
      "ĠE S",
      "4 8",
      "Ġen fre",
      "ĠC al",
      "ĠSena dores",
      "Ġinf ra",
      "ĠREQU ERIMENTO",
      "ĠR ib",
      "n icas",
      "Ġper gu",
      "Ġju ris",
      "ĠA n",
      "201 2",
      "is e",
      "w s",
      "Ġes cre",
      "ĠCOMIS SA",
      "ĠObri gado",
      "Ġse x",
      "Ġpro po",
      "d bP",
      "N AL",
      "Ġpo ntos",
      "D o",
      "va dos",
      "ĠC idada",
      "9 9",
      "res po",
      "201 6",
      "ti dos",
      "Ġtor na",
      "Ġpla ne",
      "t to",
      "âĢĵâĢĵ âĢĵâĢĵ",
      "Ġb ilho",
      "Ġtor nou",
      "re do",
      "g h",
      "V I",
      "Ġpro nuncia",
      "ĠN u",
      "Ġdis posto",
      "Ġau tos",
      "ĠEX TRA",
      "mb ito",
      "Ġpro posic",
      "ia r",
      "ĠC osta",
      "p h",
      "i os",
      "b io",
      "l hos",
      "Ġestu da",
      "l has",
      "ĠInstitu to",
      "ĠC unha",
      "tu al",
      "Ġdis pu",
      "Ġex ce",
      "I B",
      "C doB",
      "Ġnenh um",
      "Ġvalo res",
      "Ġalte rac",
      "Ġvo tos",
      "Ġprodu to",
      "ar t",
      "ĠPRO POS",
      "Ġin fe",
      "n idades",
      "ĠTa mbe",
      "pu t",
      "Ġinter pre",
      "Ġban da",
      "Ġnorma s",
      "c he",
      "Ġforma c",
      "Ġcump ri",
      "Ġcer teza",
      "ti ficac",
      "ĠV I",
      "ĠMIN IS",
      "Ġac ha",
      "Ġconhe cimento",
      "Ġse rem",
      "Ġtrabal hos",
      "Ġide nti",
      "Ġinic ial",
      "ir mou",
      "Ġalgu e",
      "ĠC orte",
      "b ou",
      "Ġse is",
      "Ġori ginal",
      "ĠN as",
      "cia s",
      "ĠD il",
      "ne l",
      "ĠW al",
      "ĠBrasile iro",
      "Ġcate go",
      "Ġf eita",
      "Ġs in",
      "y s",
      "A pensa",
      "S e",
      "ĠC ris",
      "Ġarti gos",
      "ĠMa ra",
      "Ġprinci pais",
      "ĠF E",
      "Ġper de",
      "Ġ................................ ................................",
      "c nico",
      "Ġvi gor",
      "Ġ4 0",
      "Ġl inha",
      "L TIMA",
      "Ġfede ral",
      "Ġ199 8",
      "Ġsu l",
      "ĠPor tanto",
      "Ġate nc",
      "Ġdispo ni",
      "ĠD ias",
      "201 4",
      "ĠDe pois",
      "qu ia",
      "Ġf ro",
      "Ġdeve m",
      "5 0",
      "gra mas",
      "Ġd or",
      "ĠQu ero",
      "Ġma nte",
      "Ġp lena",
      "Ġde pende",
      "ĠI nte",
      "Ġv in",
      "Ġap ose",
      "Ġinde pende",
      "ĠLe o",
      "Ġpra tica",
      "Ġapre ciac",
      "2 3",
      "ge nte",
      "Ġse pa",
      "Ġ isto",
      "bl io",
      "Ġautori za",
      "ĠS TF",
      "ĠT or",
      "f ra",
      "Ġl ista",
      "Ġdi fic",
      "Ġju dic",
      "Ġ idade",
      "Ġve nce",
      "ar d",
      "ĠC E",
      "h eiros",
      "ĠQu em",
      "di dos",
      "ĠA P",
      "ĠH u",
      "ĠPT B",
      "Ġre ali",
      "ar da",
      "Ġse de",
      "os sa",
      "ĠGu erra",
      "Ġnos sos",
      "Ġdifere ntes",
      "ĠSa ntos",
      "ĠT al",
      "Ġno vos",
      "er va",
      "Ġapro vado",
      "Ġc os",
      "Ġcon qu",
      "cu la",
      "Ġre sol",
      "a menta",
      "Ġresul tado",
      "Ġre de",
      "ĠRE CURSO",
      "Ġna tureza",
      "ĠS O",
      "Ġver sa",
      "Ġdemons tra",
      "Ġte ria",
      "p ida",
      "ĠC ri",
      "Ġcontribu ic",
      "dic ional",
      "ĠT en",
      "se m",
      "D e",
      "Ġde bate",
      "is tro",
      "Ġsen hor",
      "Ġprofiss ional",
      "ĠRic ardo",
      "Ġe p",
      "Ġv ei",
      "8 8",
      "Ġdes ses",
      "Ġpa re",
      "ĠSe cretaria",
      "ĠPro f",
      "Ġre nda",
      "Ġc ac",
      "A DO",
      "ĠO h",
      "t le",
      "Ġar gu",
      "va le",
      "Ġche gou",
      "Ġaca ba",
      "ĠAl ves",
      "Ġauto ria",
      "S E",
      "ĠHen rique",
      "Ġhi po",
      "ĠCo mple",
      "ei ras",
      "ĠL EG",
      "ĠAG RAVO",
      "Ġca put",
      "te nta",
      "p ira",
      "b ras",
      "Ġde c",
      "b r",
      "Ġb i",
      "nte m",
      "UL O",
      "a d",
      "RA N",
      "Ġno ta",
      "Ġes cri",
      "ĠA pro",
      "des te",
      "Ġre tor",
      "tiv idade",
      "ic al",
      "Ġ #",
      "Ġma nu",
      "Ġcla ro",
      "Ġrecebe u",
      "Ġcu ida",
      "ĠPe reira",
      "ĠOr dem",
      "di ta",
      "b us",
      "nc iona",
      "ĠEspe cial",
      "Ġter ra",
      "Ġchama do",
      "Ġpo lic",
      "Ġtrans forma",
      "r or",
      "Ġca nc",
      "Ġpe nal",
      "ĠPS D",
      "Ġcontra to",
      "Ġpro vimento",
      "Ġre duz",
      "Ġhome na",
      "Ġdire c",
      "6 5",
      "F L",
      "ĠCON STITU",
      "ĠCo pa",
      "Ġcar reira",
      "II I",
      "Ge ral",
      "ve ns",
      "Ġra zo",
      "ĠCidada nia",
      "Ġtur no",
      "ĠP res",
      "fici ente",
      "ĠCa mpeonato",
      "Ġcont ri",
      "Ġfor te",
      "ĠDE C",
      "Ġex pressa",
      "Ġc idades",
      "ac k",
      "Ġb io",
      "Ġa cima",
      "Ġdific ul",
      "Ġme nto",
      "C IA",
      "Ġpo re",
      "Ġtempo rada",
      "Ġresponsa bilidade",
      "Ġtrabalha dores",
      "dis po",
      "Ġmen or",
      "ĠMa is",
      "Ġde les",
      "Ġco la",
      "9 5",
      "ĠS A",
      "l er",
      "ris mo",
      "Ġca minho",
      "Ġdis curso",
      "Ġcri te",
      "Ġter mina",
      "u ra",
      "Ġh os",
      "ĠP esso",
      "nt idade",
      "ne xo",
      "l in",
      "ĠDil ma",
      "Ġme us",
      "ĠW e",
      "Ġpa uta",
      "Ġfavo ra",
      "Ġi media",
      "3 3",
      "Ġcri se",
      "ver si",
      "Ġre almente",
      "tin do",
      "IC AC",
      "ĠV ou",
      "dis cussa",
      "ĠSa nto",
      "ĠB io",
      "Ġfu tebol",
      "C a",
      "le y",
      "Ġproce di",
      "lu e",
      "ĠR J",
      "ĠP U",
      "Ġinterna cional",
      "ÌĤ ,",
      "Ġ3 7",
      "ĠZ e",
      "Ġes trutura",
      "ĠS te",
      "lia s",
      "Ġpa cie",
      "MEN TA",
      "Ġin ce",
      "Ġoportu nidade",
      "Ġtrans porte",
      "Ġassu nto",
      "h n",
      "9 7",
      "Ġg esta",
      "Ġigu al",
      "c idas",
      "Ġpla no",
      "R OS",
      "Ġmar ca",
      "ĠB A",
      "Ġes crito",
      "Ġe las",
      "Ġe limina",
      "Ġp le",
      "u al",
      "ter na",
      "Ġpe ns",
      "Ġprote c",
      "ri ta",
      "ĠP ra",
      "IDA DE",
      "Ġn essa",
      "Ġes que",
      "ĠS istema",
      "tri mo",
      "ĠRe querimento",
      "z i",
      "Ġfre que",
      "Ġass iste",
      "no mina",
      "Ġre li",
      "Ġcri ar",
      "Ġad mi",
      "Ġres ta",
      "4 7",
      "Ġar re",
      "ĠPro viso",
      "Ġmaio res",
      "ĠDE CURSO",
      "ĠX X",
      "Ġfa le",
      "tic u",
      "ĠSenado ra",
      "Ġa nal",
      "Ġcom pre",
      "ĠDE S",
      "Ġper sona",
      "s tria",
      "me lha",
      "es ar",
      "Ġre quis",
      "ĠCa ta",
      "il ha",
      "Ġins titu",
      "200 5",
      "Ġno vas",
      "lti mos",
      "ĠMar celo",
      "ĠCo nc",
      "tal ha",
      "Ġinicia tiva",
      "w w",
      "m ilia",
      "ĠSe u",
      "Ġro ma",
      "mi nal",
      "Ġo cor",
      "ĠBa nco",
      "Ġmanda to",
      "Ġro u",
      "Ġ Ġ",
      "Ġsu cesso",
      "Ġconc lui",
      "Ġdecla rac",
      "4 6",
      "tu de",
      "ci mentos",
      "ĠF A",
      "Ġ199 7",
      "ricul tura",
      "Ġcontri bui",
      "Ġ rio",
      "Ġdeve ria",
      "ĠGe rais",
      "Ġcomun ita",
      "P A",
      "Ġprof essor",
      "c alizac",
      "Ġpro por",
      "ĠPor to",
      "Ġme diante",
      "o o",
      "ĠBa hia",
      "ĠE l",
      "Ġpossi bilidade",
      "Ġasse gu",
      "ĠE ra",
      "9 0",
      "Ġdiver sos",
      "b y",
      "Ġe vi",
      "TI VO",
      "ĠLi ma",
      "ĠC el",
      "ĠDu rante",
      "or o",
      "Ġa me",
      "fic as",
      "ma c",
      "ĠJor ge",
      "j ui",
      "ĠAdministra c",
      "Ġre cor",
      "do via",
      "ĠM er",
      "l d",
      "Ġ ................",
      "Ġgu erra",
      "Ġinteres sa",
      "Ġexa me",
      "Ġhome ns",
      "Ġate ndimento",
      "Ġinclu indo",
      "Ġre duc",
      "t ino",
      "Ġcor respo",
      "Ġre que",
      "Ġobriga to",
      "E M",
      "Ġservi dores",
      "Ġcolo ca",
      "ĠO R",
      "ĠM al",
      "ĠFa z",
      "Ġe feitos",
      "ru pc",
      "Ġo n",
      "Ġnenh uma",
      "dic idade",
      "ĠM undial",
      "t bP",
      "ĠMe dida",
      "so cia",
      "Ġmode lo",
      "IC O",
      "ria mente",
      "Ġex tre",
      "Ġpro viso",
      "Ġexecu tar",
      "te i",
      "\", \"",
      "c ta",
      "Ġdiver sas",
      "ĠPA ULO",
      "201 9",
      "Ġf ase",
      "Ġfu tu",
      "Ġu sua",
      "be ra",
      "Ġade qua",
      "k s",
      "Ġsu ple",
      "resce nta",
      "Ġprofiss ionais",
      "ĠF la",
      "Ġg ene",
      "Ġche gar",
      "ĠB or",
      "ĠC an",
      "ĠâĢ ĺ",
      "ĠInterna cional",
      "ĠMen des",
      "Ġca pa",
      "Ġne ga",
      "ĠBrasile ira",
      "Ġga ro",
      "ĠF ina",
      "ĠCo nce",
      "Ġpre pa",
      "Ġem bar",
      "Ġassi na",
      "ĠAnd re",
      "Ġna que",
      "Ġgos taria",
      "Ġpar la",
      "ru z",
      "Ġalca nc",
      "Ġu na",
      "z inha",
      "ĠMINIS TRO",
      "Ġa ero",
      "Ġme nsa",
      "ni or",
      "D ES",
      "Ġau tor",
      "Ġconstitucional idade",
      "Ġref le",
      "N o",
      "C U",
      "Ġcapac idade",
      "Ġl ice",
      "Ġf ins",
      "Ġaque les",
      "ĠTu do",
      "ĠFE DE",
      "nstitu cional",
      "Ġo ra",
      "u co",
      "ĠN esse",
      "gi do",
      "Ġ199 9",
      "Ġfil hos",
      "Ġrep rese",
      "Ġsub me",
      "Ġse nho",
      "ti u",
      "ĠPara na",
      "ĠG re",
      "Ġe feito",
      "ĠJ ul",
      "tu a",
      "ĠA inda",
      "mb le",
      "Ġ6 0",
      "ĠS RA",
      "ĠSub s",
      "Ġ4 5",
      "9 6",
      "gu s",
      "Ġso luc",
      "ĠA mb",
      "4 0",
      "Ġdo enc",
      "IS LA",
      "Ġma nter",
      "201 7",
      "Ġal tera",
      "ĠS esso",
      "n dic",
      "Ġpro gramas",
      "Ġexi ge",
      "8 5",
      "Ġsubs tituic",
      "Ġm us",
      "Ġent idades",
      "Ġimporta ntes",
      "Ġcons tante",
      "Ġpo te",
      "ĠA ta",
      "em in",
      "Ġliber dade",
      "ĠAD V",
      "Ġde la",
      "ĠP m",
      "Ġfi z",
      "Ġau die",
      "ĠCom isso",
      "ĠA C",
      "V IS",
      "gi u",
      "ĠA cho",
      "Ġli de",
      "ĠLEG ISLA",
      "ti l",
      "be l",
      "E s",
      "Ġaque le",
      "RA DO",
      "Ġami go",
      "Ġjus tifica",
      "Ġsu j",
      "Ġadministra c",
      "ĠS AN",
      "Ġa mor",
      "ĠP EC",
      "Ġvo tar",
      "Ġce le",
      "ĠFu ndo",
      "menta is",
      "Ġliv re",
      "se gu",
      "Ġmate rial",
      "g no",
      "du ais",
      "Ġmo vimento",
      "ĠAs s",
      "a u",
      "Ġbene fic",
      "ĠQ ui",
      "Ġaprese ntac",
      "ĠH ar",
      "ĠDE PU",
      "Ġe vide",
      "Ġcres cimento",
      "Ġpa ga",
      "Ġcon ve",
      "Ġdi fi",
      "vo luc",
      "Ġa tos",
      "OR DINA",
      "ĠW a",
      "mpe a",
      "Ġv ito",
      "te l",
      "Ġmi lita",
      "ĠWiki pe",
      "nti vo",
      "Ġres tri",
      "! !",
      "Ġautori zac",
      "ve ra",
      "ĠCa mpos",
      "ĠEXTRA ORDINA",
      "AR DO",
      "I R",
      "Ġ3 3",
      "Ġci vil",
      "i t",
      "ĠR osa",
      "Ġta is",
      "S S",
      "gu lar",
      "Ġ 01",
      "ĠPm dbP",
      "Ġestava m",
      "tu r",
      "ci p",
      "Ġau se",
      "ĠL t",
      "Ġeve nto",
      "u ri",
      "Ġfunda mental",
      "po u",
      "Ġca mpanha",
      "Ġen via",
      "Ġmi litar",
      "Ġprese ntes",
      "Ġmui ta",
      "Ġconsu mi",
      "ĠCh ina",
      "ve n",
      "r cito",
      "ĠA de",
      "tin ho",
      "Ġ3 6",
      "tiv esse",
      "ĠG lo",
      "Ġso f",
      "Ġn ingue",
      "ou r",
      "ĠPA RA",
      "Ġ zo",
      "Ġpres tac",
      "Ġa nda",
      "Ġop in",
      "ĠTo dos",
      "D U",
      "o ria",
      "Ġcon vo",
      "ve ntu",
      "gra c",
      "Ġris co",
      "ĠR os",
      "Ġder ro",
      "en i",
      "Ġtrata mento",
      "se u",
      "Ġatu ac",
      "Ġvis ita",
      "ĠL ui",
      "Ġfa milia",
      "Ġdia nte",
      "Ġce ntro",
      "EI RO",
      "n gua",
      "Ġaf as",
      "ri zac",
      "Ġapa rece",
      "Ġ3 8",
      "Ġna tural",
      "ĠT UR",
      "h es",
      "Ġso nora",
      "Ġespecial mente",
      "ĠMe u",
      "Ġ &",
      "ei x",
      "pa re",
      "H OR",
      "ter o",
      "b li",
      "Ġcorrespo nde",
      "b res",
      "vi dos",
      "ĠE di",
      "Ġpre ve",
      "ia na",
      "Ġe mendas",
      "Ġm issa",
      "200 6",
      "ĠI nc",
      "ma do",
      "N a",
      "ĠQu al",
      "ĠA ca",
      "ĠV ossa",
      "ia no",
      "Ġf er",
      "ĠF unda",
      "ĠFEDE RAL",
      "ĠLt da",
      "Ġcom bate",
      "Ġcont ar",
      "ĠTem er",
      "R o",
      "za da",
      "Ġp reside",
      "ri n",
      "m isso",
      "Ġcom um",
      "Ġcabe c",
      "ĠTUR MA",
      "va das",
      "Ġmo nta",
      "ac o",
      "ĠP al",
      "m icos",
      "Ġexpe rie",
      "so lu",
      "Ġfinanc eira",
      "Ġconte u",
      "I X",
      "Ġdi min",
      "Ġpronuncia mento",
      "us tri",
      "ĠCo me",
      "Ġimp la",
      "ĠCul tura",
      "ĠD OS",
      "ĠRib eiro",
      "ĠCON TRA",
      "ĠAlex an",
      "ria is",
      "ĠS ta",
      "Ġeve ntu",
      "qu ac",
      "ĠSu perior",
      "tri ca",
      "P P",
      "7 5",
      "ĠHo je",
      "ci es",
      "Ġcur so",
      "Ġso fre",
      "Ġde ba",
      "ĠCe ntro",
      "Ġin o",
      "Ġcon vida",
      "Ġambie nte",
      "pi do",
      "s icas",
      "Ġparti da",
      "Ġsa b",
      "Ġdes sas",
      "Ġtitu lar",
      "Ġvo lu",
      "ĠRe l",
      "re c",
      "re n",
      "Ġpri sa",
      "ĠSEN HOR",
      "Ġbas tante",
      "ĠK o",
      "Ġnova mente",
      "ĠTen ho",
      "Ġaprese ntar",
      "tu los",
      "Ġu sar",
      "Ġin du",
      "Ġ5 5",
      "Ġ................................ ................................................................",
      "Ġas pec",
      "Ġmil ha",
      "Ġcie nti",
      "' s",
      "Ġaju dar",
      "Ġdesta que",
      "Ġad vo",
      "Ġm ic",
      "Ġter mo",
      "Ġ3 2",
      "ĠB en",
      "Ġmo der",
      "Ġamp lia",
      "Ġcomun idade",
      "Ġes cla",
      "ĠVo to",
      "Ġ les",
      "Ġte cnologia",
      "ĠDa ni",
      "me tros",
      "ĠParla mentar",
      "Ġide ia",
      "ĠI greja",
      "Ġjo vens",
      "Ġco b",
      "Ġin cide",
      "Ġinsta lac",
      "ĠSegu nda",
      "ce nte",
      "Ġqu is",
      "Ġho n",
      "ĠDire ito",
      "ĠMo nte",
      "f u",
      "Ġ199 6",
      "ĠâĢĵ ,",
      "res sa",
      "C A",
      "te nce",
      "fica do",
      "Ġconstitu i",
      "Ġex te",
      "âĢ Ĳ",
      "C I",
      "ine ma",
      "Ġprof esso",
      "Ġep iso",
      "Ġale ma",
      "ĠP OR",
      "Ġfu ndo",
      "Ìĥ ,",
      "B E",
      "ĠI mpe",
      "Ġres posta",
      "Ġfutu ro",
      "Ġse nte",
      "la nd",
      "Ġes pa",
      "ĠG O",
      "Ġques to",
      "Ġcump rimento",
      "P residente",
      "ssi mo",
      "gu as",
      "Ġtele fo",
      "Ġaf irmou",
      "TO S",
      "ei tos",
      "ĠT O",
      "Ġcu ja",
      "Ġfa tos",
      "Ġc lube",
      "ar te",
      "ĠRo ma",
      "Ġente nde",
      "ga n",
      "6 8",
      "p p",
      "Ġreal idade",
      "Ġme nte",
      "Ġjuri dicidade",
      "nc er",
      "l hi",
      "ĠAl gu",
      "ru de",
      "ĠCo ntra",
      "ga is",
      "e t",
      "Ġal ta",
      "Ġde nu",
      "Ġf lores",
      "ĠA qui",
      "ĠT re",
      "ĠRE G",
      "Ġins titui",
      "Ġreg ras",
      "Ġmo ra",
      "ĠMar tin",
      "Ġpre jui",
      "Ġagra de",
      "ĠB ru",
      "Ġportu gue",
      "L OS",
      "ĠH er",
      "Ġpas sar",
      "Ġcom por",
      "ĠPa ul",
      "Ġgarant ir",
      "Ġprime iros",
      "ĠG ros",
      "ns ito",
      "- -",
      "ĠEuro pa",
      "Ġpeque no",
      "Ġgru pos",
      "Ġd ro",
      "ac h",
      "Ġjo gos",
      "Ġmo di",
      "Ġde nomina",
      "Ġobri gac",
      "M S",
      "par tamento",
      "Ġno bre",
      "3 2",
      "Ġdeix ou",
      "r gio",
      "Ġimp or",
      "Ġpor ta",
      "ĠT erra",
      "Ġart s",
      "ncio u",
      "l mente",
      "Ġimp re",
      "Ġgo l",
      "S a",
      "Ġdesig nado",
      "li zar",
      "Ġsa ir",
      "Ġfis cal",
      "ĠJ US",
      "ĠU S",
      "Ġli be",
      "Ġeste ja",
      "Ġa fe",
      "por tes",
      "Ġco orde",
      "ĠDEPU TADO",
      "l P",
      "x as",
      "ns ta",
      "Ġinf lue",
      "p us",
      "gu ra",
      "ĠS ar",
      "Ġfe cha",
      "el l",
      "vi e",
      "Ġdef ici",
      "ĠF is",
      "Ġes tes",
      "ĠBo l",
      "ĠR S",
      "Ġtribu ta",
      "Ġcar gos",
      "Ġres sal",
      "ĠRela to",
      "ĠA M",
      "Ġaconte ceu",
      "Ġtenha m",
      "ĠTem os",
      "gi nas",
      "ĠO b",
      "TA DA",
      "ĠPe nal",
      "ĠOr c",
      "L O",
      "ĠComple mentar",
      "Ġdese mpe",
      "ĠMinis tros",
      "B I",
      "ĠE i",
      "Ġchama da",
      "Ġre pe",
      "ĠD IA",
      "ĠJ un",
      "ĠJo hn",
      "nt ia",
      "ĠGo vernador",
      "T ES",
      "lo u",
      "SO N",
      "ĠGe o",
      "na dor",
      "Ġ is",
      "da do",
      "Ġtrabal har",
      "ro pe",
      "Ġco ber",
      "Ġconside rado",
      "ha m",
      "ĠJ OS",
      "Ġpos i",
      "ĠF lo",
      "ĠRe g",
      "Ġlo cais",
      "e le",
      "Ġdistri buic",
      "7 7",
      "Ġs ho",
      "Ġcu jo",
      "ĠCo lo",
      "Ġenc er",
      "Ġ4 8",
      "tado res",
      "cede ntes",
      "a ram",
      "nt or",
      "Ġacer ca",
      "ni zac",
      "4 4",
      "Ġtra mi",
      "200 3",
      "Ġami gos",
      "Ġle var",
      "p ero",
      "ĠA nexo",
      "bi liza",
      "Ġsegu ida",
      "Ġme nciona",
      "Ġce nto",
      "ĠComun ita",
      "Ġgo verna",
      "gi os",
      "ĠZ a",
      "Ġtele visa",
      "Ġno ti",
      "ĠL is",
      "Ġtra tar",
      "Ġtre ina",
      "ĠG ru",
      "io u",
      "ĠBo m",
      "te gory",
      "l idade",
      "ĠPor taria",
      "ĠN i",
      "ĠCer to",
      "Ġa n",
      "pos tos",
      "nta dos",
      "ĠB ri",
      "ĠP s",
      "RE G",
      "Ġcus to",
      "Ġestu do",
      "ĠA pre",
      "Ġela bo",
      "ĠMa to",
      "3 1",
      "ĠSenho res",
      "t ti",
      "Ġconfor midade",
      "Ġf un",
      "j as",
      "Ġpar tes",
      "er ta",
      "Ġsus pe",
      "Ġb re",
      "n ero",
      "ĠC N",
      "ĠG ar",
      "Ġab solu",
      "G L",
      "Ġg re",
      "gu esa",
      "z inho",
      "z ou",
      "U A",
      "un os",
      "mer os",
      "li to",
      "Ġce na",
      "dic os",
      "Ġi mo",
      "iste mas",
      "ĠA PR",
      "Ġde te",
      "i ma",
      "EL O",
      "re ta",
      "Ġestabele ce",
      "ticu lar",
      "Ġcri mes",
      "Ġres ide",
      "Ġes forc",
      "Ġmanu tenc",
      "ĠCons titu",
      "Ġor dina",
      "Ġc ita",
      "Ġproces sos",
      "Ġv isto",
      "Ġo cas",
      "Ġbe ns",
      "is tos",
      "Ġterc eiro",
      "Ġcom u",
      "a das",
      "merica na",
      "Ġt este",
      "w n",
      "lu b",
      "Ġdocu mentos",
      "L ei",
      "Ġtra z",
      "Ġpopu lar",
      "Ġtal vez",
      "ca dos",
      "Ġpalav ras",
      "ĠM G",
      "Ġo pera",
      "ĠS EG",
      "Ġprev isto",
      "Ġrece ber",
      "ĠTe le",
      "ĠTra ta",
      "h s",
      "Ġinvesti gac",
      "qu ei",
      "ga ndo",
      "ve ram",
      "ĠPRO C",
      "Ġenco ntro",
      "Ġimp ac",
      "ĠPe tro",
      "Ġpro feri",
      "ĠL ou",
      "Ġcatego ria",
      "E X",
      "Ġente ndimento",
      "Ġir re",
      "Ġfo to",
      "ĠAle ma",
      "Ġa pu",
      "Ġad qui",
      "ĠO fi",
      "ju dica",
      "ĠAs su",
      "c idade",
      "ĠP ER",
      "Ġdis posic",
      "Ġesco las",
      "5 5",
      "O f",
      "Ġrealiza do",
      "Ġaber tura",
      "Ġ *",
      "dic ia",
      "Ġge rac",
      "9 4",
      "ĠM or",
      "ĠCe ntral",
      "f er",
      "vi d",
      "Ġencont rar",
      "Ġi ra",
      "ĠAl me",
      "g na",
      "un i",
      "Ġve io",
      "ĠBi blio",
      "Ġautori dade",
      "ĠAu gus",
      "Ġent idade",
      "Ġi nti",
      "li pe",
      "Ġal ia",
      "6 7",
      "ĠPor que",
      "ĠSenho ra",
      "b an",
      "Ġ x",
      "Ġdef en",
      "R J",
      "Ġin d",
      "mb ra",
      "ĠO la",
      "ĠEs pa",
      "Ġinclu sa",
      "ĠN el",
      "Ġvol tar",
      "Ġor de",
      "Ġb ranc",
      "ĠPROPOS IC",
      "er ge",
      "Ġfil ha",
      "val ho",
      "li e",
      "ni ta",
      "Ġg lo",
      "S T",
      "ha do",
      "ĠPro cesso",
      "Ġo ito",
      "Ġmelho res",
      "ĠJOS E",
      "ber t",
      "Ġur ba",
      "Ġmanifes tac",
      "ĠSou za",
      "bo a",
      "in os",
      "200 4",
      "Ġb lo",
      "Ġre gio",
      "ĠDJ e",
      "ĠLocal idades",
      "ĠV ir",
      "ĠCel so",
      "ĠApo io",
      "Ġapro vada",
      "Ġper to",
      "Ġempre go",
      "Ġgarant ia",
      "ac a",
      "ĠB as",
      "Ġin fa",
      "Ġ199 1",
      "Ġdiz endo",
      "N O",
      "Ġcolo car",
      "ĠA p",
      "ĠJ es",
      "ĠGo mes",
      "ĠRIC D",
      "Ġ [",
      "lo go",
      "Ġab s",
      "Ġe ta",
      "Ġtribu na",
      "er vac",
      "Ġestu dos",
      "pes ar",
      "Ġinstru mento",
      "va mente",
      "ĠMunici pal",
      "ĠGros so",
      "ĠLo pes",
      "Ġmo vi",
      "Ġa cide",
      "ter ra",
      "s io",
      "Ġuti lizac",
      "BER TO",
      "Ġme ca",
      "Ġp rio",
      "ĠU N",
      "Ġal to",
      "ia m",
      "Ġaconte ce",
      "ĠMinis tra",
      "Ġhuma nos",
      "Ġame ac",
      "ce ntes",
      "ĠPrime iro",
      "... )",
      "Ġap esar",
      "Ġfaz em",
      "Ġmilita res",
      "Ġga nha",
      "ĠRo cha",
      "RA S",
      "re r",
      "nti na",
      "ĠSubs titutivo",
      "Ġta xa",
      "Ġab or",
      "s c",
      "le i",
      "Ġ199 5",
      "po ne",
      "Ġuna ni",
      "ta is",
      "Ġm undial",
      "je ic",
      "ĠAs se",
      "Ġdire tor",
      "Ġcon du",
      "m y",
      "ri za",
      "Ġva le",
      "Ġconsegu i",
      "ita s",
      "Ġent rar",
      "nta mente",
      "Ġdis ta",
      "Ġapro ve",
      "Ġpos terior",
      "na n",
      "Ġconsegu iu",
      "m s",
      "la das",
      "Ġin dicac",
      "va n",
      "Ġme tros",
      "Ġresul tados",
      "Ġ gi",
      "Ġcons ul",
      "Ġ7 0",
      "ĠCata rina",
      "Ġaca bou",
      "Ġmic ro",
      "ĠParla mentares",
      "ĠS erra",
      "Ġnos sas",
      "Ġaval iac",
      "Ġga nho",
      "Ġda do",
      "Ġconhe cida",
      "ĠL ista",
      "le n",
      "Ġjo vem",
      "ĠL ide",
      "Pa usa",
      "Ġqu ali",
      "ĠD ou",
      "f rica",
      "h ei",
      "Ġcompe tic",
      "Ġac ei",
      "Ġal unos",
      "tu to",
      "Ġar te",
      "ro n",
      "Ġfala ndo",
      "Ġexclusi vidade",
      "ĠVe ja",
      "ĠI M",
      "ta lia",
      "Ġaque la",
      "or k",
      "Ġu nidades",
      "Ġinvesti mentos",
      "Ġur ge",
      "ĠJ O",
      "Ġdifere nc",
      "Ġo fe",
      "il l",
      "Ġimp le",
      "Ġin se",
      "Ġoutor ga",
      "Ġex por",
      "ĠRe gis",
      "de o",
      "Ġamp la",
      "ncia is",
      "Ġda qui",
      "ĠDe p",
      "ĠI ng",
      "tu do",
      "sa do",
      "mun e",
      "Ġsu ge",
      "ĠA i",
      "Ġre mo",
      "ĠLU IZ",
      "ĠVo l",
      "Ġcon fia",
      "mo n",
      "Ġespe ra",
      "ĠA cre",
      "Ġsu pe",
      "ur so",
      "Ġimpre nsa",
      "ĠM P",
      "Ġatri buic",
      "ĠCONSTITU IC",
      "dos o",
      "ĠEsta mos",
      "Ġcom bi",
      "Ġa nuncia",
      "ĠA b",
      "ti ona",
      "Ġre vista",
      "Ġc ho",
      "ĠCAR LOS",
      "Ġpa trimo",
      "E D",
      "Ġdiscu tir",
      "Ġco o",
      "ĠAmb ie",
      "R ETO",
      "Ġ z",
      "Ġda da",
      "ida c",
      "Ġca u",
      "Ġ1 19",
      "Ġi lus",
      "Ġcont as",
      "j os",
      "Ġrequis itos",
      "ĠMara nha",
      "ing ton",
      "Ġapa re",
      "Ġsi te",
      "ĠDE SP",
      "me te",
      "le za",
      "Ġestra te",
      "ĠAlme ida",
      "ĠA pesar",
      "Ġes cu",
      "8 7",
      "Ġbanca da",
      "du ra",
      "la dos",
      "Ġ3 4",
      "ĠPro cu",
      "s se",
      "nt il",
      "Ġlu z",
      "Ġape nsa",
      "g ro",
      "ri no",
      "ĠFi guei",
      "ĠH uma",
      "de res",
      "ĠU SP",
      "Ġcom igo",
      "ĠR ei",
      "ĠM EN",
      "Ġtor nar",
      "Ġ â",
      "Ġexa tamente",
      "d ici",
      "Ġpartici par",
      "ic lo",
      "ĠAR T",
      "ĠA la",
      "Ġcom issa",
      "ĠCo nt",
      "Ġespeci fica",
      "ĠRodri gues",
      "h ur",
      "9 1",
      "di m",
      "t ta",
      "be as",
      "Ġc ia",
      "ĠC P",
      "Ġal terna",
      "ĠE r",
      "% .",
      "min ou",
      "Ġro dovia",
      "Ġmo tivo",
      "ĠP es",
      "Ġbenefic ia",
      "Ġdifere nte",
      "R U",
      "Ġcar ta",
      "ĠM O",
      "Ġn es",
      "y o",
      "Ġdire ta",
      "ĠPa pa",
      "ha n",
      "tes e",
      "Ġha ver",
      "Ġha ja",
      "Ġqui lo",
      "% ,",
      "Ġpar ticular",
      "b ine",
      "Ġconse que",
      "Ġsus tenta",
      "Ġconside ra",
      "Ġba ixo",
      "ĠFa mi",
      "ĠRodri go",
      "Ġv es",
      "ĠA h",
      "Ġper tence",
      "es trutura",
      "p rude",
      "Ġpa is",
      "Ġsubs titu",
      "Ġper missa",
      "Ġdistri bui",
      "na mb",
      "ĠNe w",
      "ĠO nde",
      "por to",
      "Ġ8 0",
      "ĠF ica",
      "Apensa do",
      "lo n",
      "ĠPre vide",
      "Ġde vida",
      "en os",
      "Ġsu ficiente",
      "n hos",
      "ĠLide ranc",
      "ĠCar valho",
      "a tro",
      "Ġorie ntac",
      "Ġcar ro",
      "si bilidade",
      "o k",
      "tado r",
      "Ġas socia",
      "ca das",
      "Ġfro nte",
      "Ġp ros",
      "mina r",
      "ndi do",
      "nar do",
      "Ì Ħ",
      "Ġva ria",
      "Ġca pita",
      "Ġre jeic",
      "Ġfi xa",
      "A g",
      "ĠRe gia",
      "er s",
      "Ġre mune",
      "Ġba ir",
      "ĠA ge",
      "Ġa lu",
      "Ġdi vi",
      "Ġob s",
      "U LA",
      "ĠConce do",
      "( (",
      "ĠAugus to",
      "en ha",
      "Ġpro postas",
      "Ġtra dic",
      "ĠRE CE",
      "Ġesta dual",
      "Ġpublica do",
      "TO N",
      "ĠEs cola",
      "Ġdis cip",
      "ĠT eix",
      "Ġo ntem",
      "Ġobser va",
      "cu a",
      "Ġapro xi",
      "Ġle gais",
      "ĠJu dicia",
      "z io",
      "Ġcor rupc",
      "ĠNor deste",
      "ri dos",
      "l ine",
      "Ġentre ga",
      "ra mente",
      "Ġestra ng",
      "Ġdi gi",
      "ĠP ia",
      "Ġvi ve",
      "Ġsegu ir",
      "Ġmin istro",
      "ĠEsta dual",
      "qui m",
      "Ġamb os",
      "ĠC har",
      "ca nte",
      "ĠMar cos",
      "Ġpossa m",
      "Ġinte rior",
      "Ġso mos",
      "Ġse melha",
      "Ġextre ma",
      "ĠR IO",
      "ni e",
      "is tir",
      "ĠFiguei redo",
      "Ġapro va",
      "Ġocorre u",
      "Ġ4 7",
      "201 8",
      "ĠB R",
      "Ġautori dades",
      "Ġconqu ista",
      "ĠC ruz",
      "ĠNel son",
      "c c",
      "Ġto ma",
      "Ġconhe ce",
      "ĠSegu ranc",
      "tu almente",
      "Ġapre cia",
      "pu l",
      "Ġparti dos",
      "ĠFina nc",
      "tica mente",
      "ul dade",
      "ĠS EC",
      "M E",
      "G U",
      "t res",
      "ĠR i",
      "Ġre cla",
      "Ġge o",
      "ix as",
      "rado ra",
      "ĠTeix eira",
      "to ria",
      "Ġde po",
      "ĠT ri",
      "Ġf ui",
      "Ġdisposi tivo",
      "ĠV an",
      "ja mento",
      "er to",
      "ĠRe ino",
      "Ġcontinu a",
      "ĠD ra",
      "Ġper da",
      "Ġhomena gem",
      "Ġenfre nta",
      "Ġd ra",
      "Ġcon vi",
      "ĠA O",
      "Ġcria do",
      "ĠTal vez",
      "Ġrele va",
      "Ġclas se",
      "cul pe",
      "ĠDEC RETO",
      "Ġgra ve",
      "8 6",
      "ĠG ui",
      "Ìģ !",
      "nta is",
      "no mia",
      "Ġcer ta",
      "Ġpa gar",
      "ĠDes de",
      "Ġ9 0",
      "Ġes pi",
      "Ġlici tac",
      "Ġme mo",
      "EC IA",
      "Ġpe tro",
      "Ġ198 8",
      "mp i",
      "Ġani mais",
      "te d",
      "ĠD ei",
      "ĠSe ra",
      "ĠFu tebol",
      "RI TO",
      "Ġesta c",
      "ĠAr ge",
      "lic ar",
      "ĠJ U",
      "ĠPe lo",
      "T IC",
      "Ġte ntar",
      "t ista",
      "ĠAl berto",
      "Ġta do",
      "Ġent rada",
      "Ġprev ista",
      "Ġ rac",
      "la ndo",
      "ĠRELATO RA",
      "Ġre corre",
      "RI B",
      "Ġle is",
      "Ġdo u",
      "Ġ0 2",
      "Ġjuris prude",
      "Ġele mentos",
      "pos a",
      "Ġquar to",
      "Ġate nde",
      "Ġpro ve",
      "fi m",
      "Ġfede rais",
      "ĠGo ia",
      "ĠB an",
      "Ġ4 9",
      "ĠRes o",
      "Ġevi tar",
      "Ġaba ixo",
      "Ġequipa mentos",
      "Ġdeli be",
      "ĠP pP",
      "Ġreali zar",
      "ga das",
      "is po",
      "Ġfa bri",
      "Ġo pe",
      "Ġba te",
      "P ro",
      "Ġc ru",
      "N R",
      "ĠGru po",
      "Ġatu almente",
      "Ġj ui",
      "Ġma nha",
      "Ġori gina",
      "Ġjudic ial",
      "Ġprop rie",
      "Ġba ixa",
      "rei tos",
      "li ge",
      "us se",
      "Ġdocu mento",
      "L IO",
      "Ġpro vo",
      "o a",
      "x x",
      "Ġpro vas",
      "Ag R",
      "Ġf emin",
      "Ġusa do",
      "Ġpermi te",
      "Ġfo ntes",
      "u a",
      "Ġle gi",
      "ĠRe lac",
      "Ġa mericano",
      "Ġapose ntado",
      "m icas",
      "Ġex pres",
      "ĠEMENDA S",
      "ĠAlema nha",
      "Ġcontinu ar",
      "Ġex pa",
      "ĠSu per",
      "ĠS essa",
      "ĠCris to",
      "T IN",
      "ĠAu re",
      "F A",
      "Ġqua dro",
      "ĠBo a",
      "Ġi ntro",
      "Ġa dic",
      "Ġi le",
      "Ġfe liz",
      "n har",
      "ĠO UT",
      "ĠMu ndo",
      "Ġi talia",
      "Ġex posto",
      "me m",
      "Ġcome mo",
      "Ġpro je",
      "ĠLis boa",
      "Ġru ral",
      "ĠAr ti",
      "ta ram",
      "Ġre pu",
      "Ġv ice",
      "ĠI na",
      "ĠJes us",
      "Ġdire tamente",
      "ĠDis cussa",
      "Ġinteres ses",
      "Ġca nto",
      "ĠAlexan dre",
      "Ġdisposi tivos",
      "ĠCa val",
      "Ġsi nto",
      "b os",
      "Ġpro vi",
      "Ġfac e",
      "M G",
      "ĠOr gani",
      "ĠM inha",
      "Ġdefici e",
      "ĠAsse mble",
      "ĠP CdoB",
      "Ġas sas",
      "M ar",
      "gu el",
      "ntu ra",
      "Ġdec iso",
      "Ġpermi tir",
      "ĠPla no",
      "6 4",
      "ĠCor re",
      "ĠBar b",
      "f as",
      "Ġado les",
      "ĠRe de",
      "da p",
      "Ġima gem",
      "G A",
      "Ġexplo rar",
      "ic idade",
      "F F",
      "Ġpreocu pac",
      "i ki",
      "ĠMi litar",
      "Ġdef ende",
      "ĠArt hur",
      "________ ________",
      "Ġti me",
      "ĠFaz enda",
      "9 3",
      "Ġmo da",
      "Ġto mar",
      "ĠQU E",
      "ĠB ene",
      "Ġquar ta",
      "Ġqua ntidade",
      "c ro",
      "Ġ199 3",
      "ti das",
      "ĠG E",
      "ĠFunda c",
      "Ġme rece",
      "ĠDi reitos",
      "Ġaprese ntou",
      "TA C",
      "de ia",
      "RA C",
      "Ġrepresenta nte",
      "ĠH i",
      "Ġde manda",
      "ĠCe ara",
      "Ġcomp ra",
      "ti zac",
      "l do",
      "Ġuni vers",
      "j ar",
      "Ġima gens",
      "Ġb u",
      "f ac",
      "fici e",
      "Ġopin ia",
      "Ġpre vide",
      "Ġdemocra cia",
      "ĠDani el",
      "u gu",
      "Ġs istemas",
      "ĠLi v",
      "Ġ iso",
      "Ġar mas",
      "ĠReso luc",
      "P s",
      "ĠNos sa",
      "fic os",
      "Ġestabele cer",
      "Ġ- -",
      "ĠB ro",
      "Ġda ndo",
      "in hos",
      "Ġlocaliza da",
      "ĠPa rece",
      "Ġle vou",
      "Ġe tc",
      "Ġpar cial",
      "ĠDESP AC",
      "ĠX V",
      "ĠI ns",
      "Ġeve ntos",
      "ri r",
      "Ġco ro",
      "t ca",
      "ĠL O",
      "Ġjus tic",
      "to do",
      "Ġem erge",
      "Ġcon fi",
      "Ġambie ntal",
      "Ġvi nte",
      "Ġcon versa",
      "c le",
      "TI VA",
      "w e",
      "Ġexiste m",
      "Ġvi u",
      "ĠM ul",
      "ĠPro posic",
      "Ġre gra",
      "ĠSo bre",
      "Ġa e",
      "ĠA co",
      "Ġ 00",
      "Ġconside rac",
      "ĠA nge",
      "Ġfo nte",
      "MA RA",
      "Ġfis calizac",
      "ĠV ista",
      "ĠD IS",
      "Ġha vendo",
      "for me",
      "Ġme ios",
      "L E",
      "Ġama nha",
      "ca ndo",
      "Ġ tivesse",
      "mi te",
      "ĠS ch",
      "plo ma",
      "Ġ |",
      "6 0",
      "Ġpacie nte",
      "R S",
      "nc ar",
      "Ġpeque na",
      "Ġter ras",
      "al o",
      "ici ta",
      "e ta",
      "Ġte mp",
      "Ġu nidade",
      "AN DO",
      "GE RAL",
      "Ġju ros",
      "bu r",
      "Ġre vo",
      "Ġc resce",
      "Ġfi ze",
      "tca tegory",
      "un d",
      "Ġprete nde",
      "Ġda de",
      "Ġate nder",
      "fica da",
      "Ġ5 8",
      "e x",
      ") (",
      "Ġin cor",
      "de n",
      "Ġ199 4",
      "ĠMa io",
      "ĠS ER",
      "Ġdesco bri",
      "nta de",
      "Ġch u",
      "ma l",
      "Ġlimi tes"
    ]
  }
}