{
  "version": "1.0",
  "truncation": {
    "direction": "Right",
    "max_length": 1024,
    "strategy": "LongestFirst",
    "stride": 0
  },
  "padding": null,
  "added_tokens": [
    {
      "id": 0,
      "content": "[PAD]",
      "single_word": false,
      "lstrip": false,
      "rstrip": false,
      "normalized": false,
      "special": true
    },
    {
      "id": 1,
      "content": "[SEP]",
      "single_word": false,
      "lstrip": false,
      "rstrip": false,
      "normalized": false,
      "special": true
    },
    {
      "id": 2,
      "content": "[EOS]",
      "single_word": false,
      "lstrip": false,
      "rstrip": false,
      "normalized": false,
      "special": true
    },
    {
      "id": 3,
      "content": "[UNK]",
      "single_word": false,
      "lstrip": false,
      "rstrip": false,
      "normalized": false,
      "special": true
    }
  ],
  "normalizer": {
    "type": "Sequence",
    "normalizers": [
      {
        "type": "Strip",
        "strip_left": true,
        "strip_right": true
      },
      {
        "type": "NFD"
      }
    ]
  },
  "pre_tokenizer": {
    "type": "ByteLevel",
    "add_prefix_space": true,
    "trim_offsets": true,
    "use_regex": true
  },
  "post_processor": {
    "type": "Sequence",
    "processors": [
      {
        "type": "ByteLevel",
        "add_prefix_space": true,
        "trim_offsets": true,
        "use_regex": true
      },
      {
        "type": "TemplateProcessing",
        "single": [
          {
            "Sequence": {
              "id": "A",
              "type_id": 0
            }
          },
          {
            "SpecialToken": {
              "id": "[EOS]",
              "type_id": 0
            }
          }
        ],
        "pair": [
          {
            "Sequence": {
              "id": "A",
              "type_id": 0
            }
          },
          {
            "SpecialToken": {
              "id": "[SEP]",
              "type_id": 0
            }
          },
          {
            "Sequence": {
              "id": "B",
              "type_id": 0
            }
          },
          {
            "SpecialToken": {
              "id": "[EOS]",
              "type_id": 0
            }
          }
        ],
        "special_tokens": {
          "[EOS]": {
            "id": "[EOS]",
            "ids": [
              2
            ],
            "tokens": [
              "[EOS]"
            ]
          },
          "[SEP]": {
            "id": "[SEP]",
            "ids": [
              1
            ],
            "tokens": [
              "[SEP]"
            ]
          }
        }
      }
    ]
  },
  "decoder": {
    "type": "ByteLevel",
    "add_prefix_space": true,
    "trim_offsets": true,
    "use_regex": true
  },
  "model": {
    "type": "Unigram",
    "unk_id": 3,
    "vocab": [
      [
        "[PAD]",
        0.0
      ],
      [
        "[SEP]",
        0.0
      ],
      [
        "[EOS]",
        0.0
      ],
      [
        "[UNK]",
        0.0
      ],
      [
        "Ġ",
        -2.104770027510053
      ],
      [
        "Ì",
        -2.797513937375762
      ],
      [
        "a",
        -2.9659112173282693
      ],
      [
        "o",
        -3.0394041940455594
      ],
      [
        "s",
        -3.3425592494618677
      ],
      [
        "e",
        -3.4788008516208926
      ],
      [
        ",",
        -3.4985530313859527
      ],
      [
        "ģ",
        -3.5918497593180447
      ],
      [
        ".",
        -3.7210779571770978
      ],
      [
        "Ġde",
        -3.849268515064384
      ],
      [
        "ĥ",
        -3.897906609507426
      ],
      [
        "§",
        -4.337205574414149
      ],
      [
        "d",
        -4.397167113988729
      ],
      [
        "u",
        -4.73545695981452
      ],
      [
        "r",
        -4.757393090520939
      ],
      [
        "m",
        -4.805487862939291
      ],
      [
        "Ġdo",
        -4.8215198552192255
      ],
      [
        "Ġque",
        -4.824780295376129
      ],
      [
        "-",
        -4.833722817516225
      ],
      [
        "i",
        -5.004911747610514
      ],
      [
        "n",
        -5.014972269386643
      ],
      [
        "c",
        -5.190502940054142
      ],
      [
        "ÌĤ",
        -5.213933646440971
      ],
      [
        "Ġna",
        -5.346938970367582
      ],
      [
        "A",
        -5.370310691274501
      ],
      [
        "O",
        -5.383511996056807
      ],
      [
        "Ġem",
        -5.407216118005216
      ],
      [
        "l",
        -5.4252450754770045
      ],
      [
        "\"",
        -5.468639721858658
      ],
      [
        "t",
        -5.476576470371228
      ],
      [
        "(",
        -5.523602422028862
      ],
      [
        ")",
        -5.5250555698865575
      ],
      [
        "Ġpara",
        -5.619149595274539
      ],
      [
        "Ġcom",
        -5.740476307847608
      ],
      [
        "Ġno",
        -5.746367864596213
      ],
      [
        ":",
        -5.961323517826488
      ],
      [
        "Ġum",
        -5.970980205832721
      ],
      [
        "ĠâĢĵ",
        -5.9999865022228995
      ],
      [
        "/",
        -6.003792407522274
      ],
      [
        "p",
        -6.07229731796663
      ],
      [
        "E",
        -6.093436398915983
      ],
      [
        "Ġuma",
        -6.223401300546145
      ],
      [
        "Ġpor",
        -6.230961798839438
      ],
      [
        "ncia",
        -6.291007383896817
      ],
      [
        "S",
        -6.350283210283813
      ],
      [
        "ÌĢ",
        -6.352827580984057
      ],
      [
        "rio",
        -6.445201403097878
      ],
      [
        "g",
        -6.4481184236148135
      ],
      [
        "1",
        -6.454911300294004
      ],
      [
        "ria",
        -6.499766875229966
      ],
      [
        "C",
        -6.53252239672582
      ],
      [
        "Ġdos",
        -6.532979888541279
      ],
      [
        "b",
        -6.557692024215315
      ],
      [
        "2",
        -6.625962687460243
      ],
      [
        "Ġcomo",
        -6.65526887552493
      ],
      [
        "v",
        -6.684730791529043
      ],
      [
        "?",
        -6.692541610746844
      ],
      [
        "3",
        -6.729435661605919
      ],
      [
        "Ġesta",
        -6.733957372715073
      ],
      [
        "f",
        -6.74159325465482
      ],
      [
        "6",
        -6.7507077906886455
      ],
      [
        "Ġfoi",
        -6.751347029595099
      ],
      [
        "7",
        -6.76000689538049
      ],
      [
        "I",
        -6.774329795794623
      ],
      [
        "5",
        -6.8113531091405175
      ],
      [
        "Ġmais",
        -6.821223874175214
      ],
      [
        "ndo",
        -6.825137032285941
      ],
      [
        "h",
        -6.825461156967014
      ],
      [
        "4",
        -6.831352729513094
      ],
      [
        "!",
        -6.835722117826267
      ],
      [
        "Ġdas",
        -6.868700701283924
      ],
      [
        "8",
        -6.873787868257519
      ],
      [
        "R",
        -6.933431916030678
      ],
      [
        "ti",
        -6.936936093853344
      ],
      [
        "ĠNa",
        -6.939099516742212
      ],
      [
        ";",
        -6.957071847824183
      ],
      [
        "Ġpela",
        -6.969285734978154
      ],
      [
        "ĠDE",
        -6.972042908538009
      ],
      [
        "ĠnÂº",
        -6.987613206959356
      ],
      [
        "z",
        -7.036431063594895
      ],
      [
        "Ġpelo",
        -7.038546503717651
      ],
      [
        "y",
        -7.047858672578691
      ],
      [
        "Ġsua",
        -7.058804454856297
      ],
      [
        "Ġser",
        -7.0844090358137155
      ],
      [
        "ĠSr",
        -7.116314407793356
      ],
      [
        "Âº",
        -7.1349168296882475
      ],
      [
        "ri",
        -7.148327103431994
      ],
      [
        "de",
        -7.155811886752943
      ],
      [
        "................",
        -7.165234382773571
      ],
      [
        "N",
        -7.19362996030077
      ],
      [
        "9",
        -7.203063537483139
      ],
      [
        "D",
        -7.203576145240918
      ],
      [
        "Ġsobre",
        -7.212177292950637
      ],
      [
        "...",
        -7.245144683970855
      ],
      [
        "U",
        -7.251713068399516
      ],
      [
        "P",
        -7.2595196006562
      ],
      [
        "V",
        -7.261391712142155
      ],
      [
        "k",
        -7.278243577080463
      ],
      [
        "Ġseu",
        -7.287876495461015
      ],
      [
        "L",
        -7.296370485636103
      ],
      [
        "T",
        -7.300489296945345
      ],
      [
        "ĠâĢľ",
        -7.301687529295014
      ],
      [
        "B",
        -7.306225139299199
      ],
      [
        "vel",
        -7.307942515684841
      ],
      [
        "ĠPresidente",
        -7.3580454585249235
      ],
      [
        "dos",
        -7.359809692677771
      ],
      [
        "li",
        -7.394251164365688
      ],
      [
        "Ġtambe",
        -7.395350525901648
      ],
      [
        "ĠEm",
        -7.400738091776033
      ],
      [
        "ĠLei",
        -7.417906328884953
      ],
      [
        "M",
        -7.4186775476319315
      ],
      [
        "mente",
        -7.420033748503382
      ],
      [
        "Ġ19",
        -7.477603819655794
      ],
      [
        "Ġtem",
        -7.497957421055464
      ],
      [
        "mos",
        -7.498367730719931
      ],
      [
        "ĠCa",
        -7.499719784501208
      ],
      [
        "Ġmas",
        -7.4998536564119025
      ],
      [
        "ĠDeputado",
        -7.50150191710288
      ],
      [
        "Ġnos",
        -7.505174157189982
      ],
      [
        "Ġte",
        -7.536412448713985
      ],
      [
        "Ġpro",
        -7.542337015215878
      ],
      [
        "Ġele",
        -7.544751033049227
      ],
      [
        "tica",
        -7.569754808334805
      ],
      [
        "cio",
        -7.580101999691456
      ],
      [
        "F",
        -7.581224816785744
      ],
      [
        "ĠSR",
        -7.627176053768524
      ],
      [
        "ĠSa",
        -7.627336873335704
      ],
      [
        "Ġart",
        -7.6352499673277805
      ],
      [
        "ĠNo",
        -7.654197393744436
      ],
      [
        "G",
        -7.6542285941605535
      ],
      [
        "Ġpu",
        -7.654329932280994
      ],
      [
        "ĠFederal",
        -7.661243031378714
      ],
      [
        "Ġisso",
        -7.6759345494863265
      ],
      [
        "rios",
        -7.676054935305833
      ],
      [
        "Ġvoce",
        -7.679843696610813
      ],
      [
        "ncias",
        -7.680831790272963
      ],
      [
        "ĠNÂº",
        -7.690957794718116
      ],
      [
        "Ġanos",
        -7.705738894791809
      ],
      [
        "ĠBrasil",
        -7.714803181298768
      ],
      [
        "ĠEstado",
        -7.716888016771277
      ],
      [
        "ĠSenador",
        -7.721849865129462
      ],
      [
        "ram",
        -7.735262199634917
      ],
      [
        "j",
        -7.7411654806622465
      ],
      [
        "x",
        -7.764579932318675
      ],
      [
        "ĠEu",
        -7.776993453345648
      ],
      [
        "cia",
        -7.77797582792107
      ],
      [
        "Ġentre",
        -7.792658555925213
      ],
      [
        "Ġate",
        -7.797262220227141
      ],
      [
        "Ġmuito",
        -7.798753909431069
      ],
      [
        "idade",
        -7.806732341458259
      ],
      [
        "que",
        -7.825314839489483
      ],
      [
        "Ġja",
        -7.829069314546736
      ],
      [
        "das",
        -7.830469834639453
      ],
      [
        "lia",
        -7.831544976321592
      ],
      [
        "ĠSe",
        -7.8452909682587855
      ],
      [
        "%",
        -7.869797377466002
      ],
      [
        "blica",
        -7.876725118895282
      ],
      [
        "ĠComissa",
        -7.915241838379327
      ],
      [
        "w",
        -7.930772181475916
      ],
      [
        "ter",
        -7.9352853522514675
      ],
      [
        "Ġbem",
        -7.937851581503063
      ],
      [
        "era",
        -7.940808767286892
      ],
      [
        "ci",
        -7.952683060791904
      ],
      [
        "ĠDe",
        -7.972335249073124
      ],
      [
        "Ġforma",
        -7.980667385307223
      ],
      [
        "Ġpode",
        -7.981941664624754
      ],
      [
        "Ġcontra",
        -7.985220185736038
      ],
      [
        "Ġquando",
        -7.9945765481493964
      ],
      [
        "0",
        -7.996484049376328
      ],
      [
        "Ġin",
        -8.007588737188165
      ],
      [
        "dia",
        -8.011332362103396
      ],
      [
        "Ġco",
        -8.012492632791758
      ],
      [
        "Ġaqui",
        -8.022540967110977
      ],
      [
        "Ġmesmo",
        -8.027360518843565
      ],
      [
        "Ġsem",
        -8.03562940799311
      ],
      [
        "Ġdia",
        -8.037578013358573
      ],
      [
        "ĠNacional",
        -8.037809284251434
      ],
      [
        "Ġ10",
        -8.040092861522576
      ],
      [
        "Ġpoli",
        -8.042555777835448
      ],
      [
        "nte",
        -8.060870794896843
      ],
      [
        "Ġha",
        -8.067145667983018
      ],
      [
        "Ġpre",
        -8.067147637883036
      ],
      [
        "ĠÂ§",
        -8.078582347543838
      ],
      [
        "Ġva",
        -8.084584239352873
      ],
      [
        "Ġtodos",
        -8.0882284356827
      ],
      [
        "Ġpai",
        -8.093951299213888
      ],
      [
        "Ġainda",
        -8.09984666070016
      ],
      [
        "Ġ18",
        -8.09985600632451
      ],
      [
        "Ġter",
        -8.102218678748129
      ],
      [
        "J",
        -8.122802700856333
      ],
      [
        "ĠPor",
        -8.128229096591793
      ],
      [
        "dio",
        -8.134562152222609
      ],
      [
        "ĠOs",
        -8.138341975269379
      ],
      [
        "vi",
        -8.140229237375497
      ],
      [
        "Ġseus",
        -8.14129789525236
      ],
      [
        "âĢĿ.",
        -8.15239396108802
      ],
      [
        "ĠMa",
        -8.157105616595413
      ],
      [
        "Ġcidade",
        -8.160085053709887
      ],
      [
        "Ìģ-",
        -8.168328080558629
      ],
      [
        "Ġparte",
        -8.169017989098531
      ],
      [
        "ĠRe",
        -8.17288300813806
      ],
      [
        "Ġforam",
        -8.184906715035664
      ],
      [
        "Ġano",
        -8.189232918364436
      ],
      [
        "Ġfazer",
        -8.193851240981042
      ],
      [
        "gu",
        -8.198555663686673
      ],
      [
        "ĠPaulo",
        -8.198694042991207
      ],
      [
        "Ġcaso",
        -8.203459581879178
      ],
      [
        "rias",
        -8.225136358473547
      ],
      [
        "ES",
        -8.231269389506291
      ],
      [
        "Ġservic",
        -8.233893613025717
      ],
      [
        "Ġex",
        -8.236814199352773
      ],
      [
        "ĠPL",
        -8.237713340536564
      ],
      [
        "fi",
        -8.241046185699771
      ],
      [
        "Ġesse",
        -8.24203113824872
      ],
      [
        "ĠCom",
        -8.247679167791103
      ],
      [
        "Ġvi",
        -8.253173232593289
      ],
      [
        "Ġessa",
        -8.264800709680173
      ],
      [
        "nia",
        -8.26903612460203
      ],
      [
        "Ġseja",
        -8.27600792552462
      ],
      [
        "ĠCo",
        -8.278911749034577
      ],
      [
        "'",
        -8.286421339572648
      ],
      [
        "min",
        -8.28737712746798
      ],
      [
        "Ġtempo",
        -8.28988810298753
      ],
      [
        "ĠPara",
        -8.290374043386326
      ],
      [
        "ĠPROJETO",
        -8.296297270769173
      ],
      [
        "Ġcon",
        -8.303399941878165
      ],
      [
        "pio",
        -8.3038703866517
      ],
      [
        "ĠEsta",
        -8.306421382117907
      ],
      [
        "Ġporque",
        -8.30749338381672
      ],
      [
        "Ġmeu",
        -8.308276770435398
      ],
      [
        "Ġvai",
        -8.311553128231534
      ],
      [
        "H",
        -8.312592293005437
      ],
      [
        "ĠLEI",
        -8.314081789353136
      ],
      [
        "mara",
        -8.327644082256056
      ],
      [
        "ĠAs",
        -8.332980314301983
      ],
      [
        "nico",
        -8.335494784821456
      ],
      [
        "ĠPRESIDENTE",
        -8.338927804795201
      ],
      [
        "Ġprimeiro",
        -8.346016556138938
      ],
      [
        "veis",
        -8.346569990680528
      ],
      [
        "ĠMas",
        -8.348932922178202
      ],
      [
        "ĠDeputados",
        -8.348943025444758
      ],
      [
        "ĠEle",
        -8.351389027449688
      ],
      [
        "Ġela",
        -8.36388435679718
      ],
      [
        "Ġ12",
        -8.367120892514215
      ],
      [
        "fica",
        -8.36713967086101
      ],
      [
        "Ġpa",
        -8.368961393432498
      ],
      [
        "ita",
        -8.370473500275313
      ],
      [
        "tra",
        -8.371782391413538
      ],
      [
        "Ġonde",
        -8.379143129739662
      ],
      [
        "ĠGoverno",
        -8.379171859359625
      ],
      [
        "ĠMinistro",
        -8.382919839932033
      ],
      [
        "ĠLi",
        -8.38899395022101
      ],
      [
        "ĠVoce",
        -8.390178216390385
      ],
      [
        "ĠConstituic",
        -8.39054563503173
      ],
      [
        "ĠDo",
        -8.391498827257825
      ],
      [
        "amento",
        -8.391578037689426
      ],
      [
        "Ġ11",
        -8.391691226791524
      ],
      [
        "Ġsera",
        -8.392227668097533
      ],
      [
        "der",
        -8.40482625445328
      ],
      [
        "ĠMe",
        -8.405252902731968
      ],
      [
        "Ġpessoas",
        -8.406714113331256
      ],
      [
        "Ġvez",
        -8.418167452406092
      ],
      [
        "Ġgrande",
        -8.41875437790577
      ],
      [
        "Ġartigo",
        -8.424644708104845
      ],
      [
        "Ġoutros",
        -8.425289406437876
      ],
      [
        "tro",
        -8.429365652228404
      ],
      [
        "ĠTe",
        -8.430180493528324
      ],
      [
        "gi",
        -8.433257701471334
      ],
      [
        "Ġtrabalho",
        -8.44319757189874
      ],
      [
        "Ġapenas",
        -8.443794321377219
      ],
      [
        "nio",
        -8.447817485134344
      ],
      [
        "âĢĿ",
        -8.448612807606981
      ],
      [
        "00",
        -8.448694046270456
      ],
      [
        "Ġ15",
        -8.448862401781579
      ],
      [
        "19",
        -8.449476843049247
      ],
      [
        "Ġoutras",
        -8.452576217921523
      ],
      [
        "blico",
        -8.453629016334334
      ],
      [
        "res",
        -8.456965789260796
      ],
      [
        "ĠHa",
        -8.459487832908009
      ],
      [
        "ĠJa",
        -8.460513303527575
      ],
      [
        "ver",
        -8.463590662904945
      ],
      [
        "ĠRELATOR",
        -8.464041123038776
      ],
      [
        "Ġsendo",
        -8.467846817029615
      ],
      [
        "ch",
        -8.468422076578472
      ],
      [
        "Âª",
        -8.469644283549496
      ],
      [
        "Ġdois",
        -8.470043950792862
      ],
      [
        "sta",
        -8.470211336313117
      ],
      [
        "Ġeste",
        -8.473616899118651
      ],
      [
        "ĠArt",
        -8.473837022727276
      ],
      [
        "mento",
        -8.478487512036311
      ],
      [
        "Ġlei",
        -8.481208971500754
      ],
      [
        "ĠMo",
        -8.482001800743276
      ],
      [
        "tico",
        -8.486586618262212
      ],
      [
        "ĠRefere",
        -8.489055940623272
      ],
      [
        "Ġapo",
        -8.49243099819049
      ],
      [
        "ĠRio",
        -8.495290002964788
      ],
      [
        "Ġordem",
        -8.499029917881565
      ],
      [
        "Ġnosso",
        -8.502202207075301
      ],
      [
        "Ġfi",
        -8.502972550559445
      ],
      [
        "ĠProjeto",
        -8.508916847597693
      ],
      [
        "Ġpo",
        -8.511558087495585
      ],
      [
        "ĠII",
        -8.513179582937633
      ],
      [
        "Ġsuas",
        -8.524833757852461
      ],
      [
        "bi",
        -8.525123909734992
      ],
      [
        "tar",
        -8.531566089545821
      ],
      [
        "um",
        -8.531608552037667
      ],
      [
        "Ġminha",
        -8.536142280984569
      ],
      [
        "ĠCasa",
        -8.539328378932348
      ],
      [
        "man",
        -8.539795118455247
      ],
      [
        "Ġmaior",
        -8.540957187076682
      ],
      [
        "ĠPai",
        -8.541367771591233
      ],
      [
        "Ġhoje",
        -8.543536588168845
      ],
      [
        "Ġtermos",
        -8.55204589995887
      ],
      [
        "Ġ16",
        -8.555210676037623
      ],
      [
        "Ġprocesso",
        -8.56046583017509
      ],
      [
        "ĠRa",
        -8.561010622968414
      ],
      [
        "ando",
        -8.562427573360129
      ],
      [
        "Ġassim",
        -8.563992978721235
      ],
      [
        "Ġmeio",
        -8.564245869470481
      ],
      [
        "Ġpra",
        -8.568179544172095
      ],
      [
        "ĠDO",
        -8.571162112282268
      ],
      [
        "ira",
        -8.572303639453464
      ],
      [
        "tor",
        -8.572549000592954
      ],
      [
        "Ġ17",
        -8.5729146715421
      ],
      [
        "Ġprojeto",
        -8.575030751007953
      ],
      [
        "ĠJose",
        -8.575088554427639
      ],
      [
        "Ġqual",
        -8.577501621071194
      ],
      [
        "Ġ20",
        -8.579313076142915
      ],
      [
        "ĠLa",
        -8.582719889026318
      ],
      [
        "Ġ13",
        -8.584347061577201
      ],
      [
        "10",
        -8.586362208052885
      ],
      [
        "ĠAl",
        -8.586722398605481
      ],
      [
        "ĠPu",
        -8.587768818448687
      ],
      [
        "PSDB",
        -8.5892431732349
      ],
      [
        "Ġ14",
        -8.596043221490959
      ],
      [
        "ĠBa",
        -8.596105713694413
      ],
      [
        "ĠCon",
        -8.598028517805929
      ],
      [
        "rito",
        -8.609688224460673
      ],
      [
        "iz",
        -8.611031313109907
      ],
      [
        "ĠDA",
        -8.616117950065728
      ],
      [
        "ĠSenado",
        -8.618215506406106
      ],
      [
        "Ġdesta",
        -8.618263812786681
      ],
      [
        "Ġfa",
        -8.618284472242244
      ],
      [
        "Ġdireito",
        -8.622821841029012
      ],
      [
        "ja",
        -8.625943542055637
      ],
      [
        "nica",
        -8.639547152002105
      ],
      [
        "Ġnome",
        -8.640313593552968
      ],
      [
        "Ġdisse",
        -8.641736962249038
      ],
      [
        "$",
        -8.64330816588771
      ],
      [
        "Ġsistema",
        -8.645664165926846
      ],
      [
        "DO",
        -8.645808396979207
      ],
      [
        "Ġqualquer",
        -8.647021162512502
      ],
      [
        "ĠTribunal",
        -8.652117334684652
      ],
      [
        "Ġseguinte",
        -8.652758166514698
      ],
      [
        "Ġdeste",
        -8.652774608133429
      ],
      [
        "Ġhisto",
        -8.65457391911744
      ],
      [
        "Ġprimeira",
        -8.655640511653525
      ],
      [
        "br",
        -8.659129376102799
      ],
      [
        "ĠJu",
        -8.659594312090166
      ],
      [
        "ĠâĢ¢",
        -8.660289282789678
      ],
      [
        "ĠSem",
        -8.662142290014827
      ],
      [
        "enta",
        -8.66313792894912
      ],
      [
        "ĠComo",
        -8.664181803081059
      ],
      [
        "ĠIn",
        -8.669625146251152
      ],
      [
        "Ġvoto",
        -8.673302328222606
      ],
      [
        "Ġpalavra",
        -8.67543482184417
      ],
      [
        "Ġtre",
        -8.676587952714717
      ],
      [
        "and",
        -8.676941721326115
      ],
      [
        "nha",
        -8.682777373493787
      ],
      [
        "Ġvida",
        -8.683491334000221
      ],
      [
        "Ġacordo",
        -8.683501879447313
      ],
      [
        "qui",
        -8.691939515578861
      ],
      [
        "Ġdepois",
        -8.692412085659772
      ],
      [
        "Ġcada",
        -8.693399019034015
      ],
      [
        "ĠMiniste",
        -8.696445353231143
      ],
      [
        "Ġinformac",
        -8.696612676977377
      ],
      [
        "ĠLe",
        -8.700220912900065
      ],
      [
        "Ġtodo",
        -8.701104391567641
      ],
      [
        "ĠRepu",
        -8.707716336848769
      ],
      [
        "ck",
        -8.714279475563496
      ],
      [
        "Ġprazo",
        -8.71596323534415
      ],
      [
        "ĠDi",
        -8.716487863733382
      ],
      [
        "Ġdeve",
        -8.718181490211302
      ],
      [
        "rem",
        -8.718485575921928
      ],
      [
        "Ġnas",
        -8.718530305037389
      ],
      [
        "Ġtra",
        -8.720206249345722
      ],
      [
        "11",
        -8.722003108237576
      ],
      [
        "th",
        -8.72323713774686
      ],
      [
        "ĠCarlos",
        -8.724213470607776
      ],
      [
        "ĠSim",
        -8.728177890830072
      ],
      [
        "ntes",
        -8.729828605790573
      ],
      [
        "ista",
        -8.730929324108512
      ],
      [
        "eira",
        -8.73545848671557
      ],
      [
        "09",
        -8.736827748570493
      ],
      [
        "sica",
        -8.73715258600992
      ],
      [
        "Ġmate",
        -8.737202229118267
      ],
      [
        "X",
        -8.739510762515842
      ],
      [
        "ĠPT",
        -8.740303467816943
      ],
      [
        "Ġagora",
        -8.742216977274609
      ],
      [
        "ĠRelator",
        -8.742468382011992
      ],
      [
        "ĠSenhor",
        -8.744719483408433
      ],
      [
        "ĠVi",
        -8.744793552167343
      ],
      [
        "Ġpresente",
        -8.74605456189578
      ],
      [
        "ĠPa",
        -8.755979888427488
      ],
      [
        "Ġcomec",
        -8.757763870964299
      ],
      [
        "per",
        -8.759771747002892
      ],
      [
        "tos",
        -8.7614673570222
      ],
      [
        "ĠDa",
        -8.764694301108195
      ],
      [
        "Ġsob",
        -8.766502276981019
      ],
      [
        "Ġrelac",
        -8.7693420140373
      ],
      [
        "Ġmelhor",
        -8.77016547878289
      ],
      [
        "Ġmil",
        -8.77429050038959
      ],
      [
        "Ġver",
        -8.775106901709734
      ],
      [
        "ente",
        -8.775443477492729
      ],
      [
        "Bloco",
        -8.776664685821466
      ],
      [
        "Ġsegundo",
        -8.781200946400476
      ],
      [
        "Ġmundo",
        -8.784099261942739
      ],
      [
        "Ġperi",
        -8.784528656845765
      ],
      [
        "lio",
        -8.788275521962598
      ],
      [
        "durante",
        -8.788610915888599
      ],
      [
        "Ġdizer",
        -8.7888306679081
      ],
      [
        "Ġsu",
        -8.799511853217538
      ],
      [
        "ing",
        -8.802769437796956
      ],
      [
        "ĠW",
        -8.803454581576817
      ],
      [
        "ĠJustic",
        -8.806572907925485
      ],
      [
        "Ġnossa",
        -8.807000676046965
      ],
      [
        "_",
        -8.80818428370994
      ],
      [
        "RIO",
        -8.810953691674255
      ],
      [
        "ĠMunici",
        -8.811899309367062
      ],
      [
        "com",
        -8.81535148717028
      ],
      [
        "eiro",
        -8.822304216716496
      ],
      [
        "ĠMi",
        -8.822568926858798
      ],
      [
        "Ġsido",
        -8.82411410944665
      ],
      [
        "ĠMar",
        -8.824481418935301
      ],
      [
        "ha",
        -8.827783484616067
      ],
      [
        "gua",
        -8.830741874566801
      ],
      [
        "Ġrecursos",
        -8.837854997867288
      ],
      [
        "Ġdezembro",
        -8.840614469187662
      ],
      [
        "via",
        -8.846134430736205
      ],
      [
        "Ġ24",
        -8.848015114999692
      ],
      [
        "Ġato",
        -8.848365628100556
      ],
      [
        "decisa",
        -8.85033094019267
      ],
      [
        "gra",
        -8.850533279306877
      ],
      [
        "ĠEstados",
        -8.85161267463333
      ],
      [
        "rga",
        -8.853156515525683
      ],
      [
        "Ġestava",
        -8.855996653768093
      ],
      [
        "Ġoutro",
        -8.858055948435133
      ],
      [
        "Ġpopulac",
        -8.86004363457382
      ],
      [
        "ĠVer",
        -8.861037300612178
      ],
      [
        "Ġpartir",
        -8.86161313879494
      ],
      [
        "Y",
        -8.863907707648364
      ],
      [
        "Ġlanc",
        -8.864986368550642
      ],
      [
        "ĠJoa",
        -8.866398163062462
      ],
      [
        "ĠLu",
        -8.866571664174902
      ],
      [
        "cie",
        -8.866937278925208
      ],
      [
        "Ġtudo",
        -8.867121701165686
      ],
      [
        "Z",
        -8.86746496462292
      ],
      [
        "=",
        -8.869357971566648
      ],
      [
        "culo",
        -8.870367662499042
      ],
      [
        "orador",
        -8.870613481514463
      ],
      [
        "Ġfinal",
        -8.872489343295003
      ],
      [
        "Ġfami",
        -8.874917640553337
      ],
      [
        "men",
        -8.875685359891353
      ],
      [
        "Ġfato",
        -8.876018730273804
      ],
      [
        "TE",
        -8.876147560748592
      ],
      [
        "mero",
        -8.879408664590747
      ],
      [
        "Ġrevisa",
        -8.880400160583568
      ],
      [
        "cer",
        -8.88770522372656
      ],
      [
        "2009",
        -8.891715769183742
      ],
      [
        "Ġmomento",
        -8.892400796959976
      ],
      [
        "ĠPMDB",
        -8.892726300892296
      ],
      [
        "@",
        -8.893540618471807
      ],
      [
        "15",
        -8.89504818353102
      ],
      [
        "Ġempresa",
        -8.89513576947425
      ],
      [
        "Ġvalor",
        -8.896645339268698
      ],
      [
        "ĠAn",
        -8.897176009835563
      ],
      [
        "ĠFa",
        -8.900747670866107
      ],
      [
        "Ġdesde",
        -8.901720552417421
      ],
      [
        "Ġgrupo",
        -8.901838876523732
      ],
      [
        "Ġcondic",
        -8.902400132361393
      ],
      [
        "Ġgoverno",
        -8.903420676960828
      ],
      [
        "ĠSu",
        -8.90651033704111
      ],
      [
        "ÌĪ",
        -8.908165492702029
      ],
      [
        "Ġantes",
        -8.909326041820126
      ],
      [
        "tado",
        -8.911744544318534
      ],
      [
        "PT",
        -8.916368909117315
      ],
      [
        "Ġdias",
        -8.916918640873941
      ],
      [
        "Ġcasa",
        -8.917059057231839
      ],
      [
        "dito",
        -8.918493606572028
      ],
      [
        "AS",
        -8.920242888884697
      ],
      [
        "ĠUm",
        -8.92185112261563
      ],
      [
        "ĠTa",
        -8.923577671663118
      ],
      [
        "tiva",
        -8.9240724936747
      ],
      [
        "Ġnovo",
        -8.926230715239127
      ],
      [
        "bra",
        -8.928899080486305
      ],
      [
        "ĠPe",
        -8.929330319013351
      ],
      [
        "ĠAr",
        -8.929485990437747
      ],
      [
        "Ġpe",
        -8.930448824699937
      ],
      [
        "rac",
        -8.931434120633046
      ],
      [
        "car",
        -8.932076426339625
      ],
      [
        "ĠIsso",
        -8.932776352398164
      ],
      [
        "Ġmilho",
        -8.933967035192492
      ],
      [
        "12",
        -8.934387587664682
      ],
      [
        "ĠUnia",
        -8.935700767863844
      ],
      [
        "Ġeles",
        -8.935854034692163
      ],
      [
        "20",
        -8.938998509394946
      ],
      [
        "Ġ30",
        -8.93917187220116
      ],
      [
        "Ġproposta",
        -8.944579765283233
      ],
      [
        "Ġve",
        -8.9493525150624
      ],
      [
        "Ġconta",
        -8.949741222104356
      ],
      [
        "Ġsempre",
        -8.951693138588004
      ],
      [
        "TO",
        -8.956144404112964
      ],
      [
        "05",
        -8.95810570537161
      ],
      [
        "Ġ21",
        -8.958995110886343
      ],
      [
        "Ġinciso",
        -8.961429064117523
      ],
      [
        "Ġmarc",
        -8.964728594344605
      ],
      [
        "Ġba",
        -8.964976499231131
      ],
      [
        "votac",
        -8.965612530120888
      ],
      [
        "ĠPro",
        -8.966388990112122
      ],
      [
        "ĠJo",
        -8.96716947754437
      ],
      [
        "Ġbrasileiro",
        -8.968201498807472
      ],
      [
        "OS",
        -8.971450910650454
      ],
      [
        "Ġ:(",
        -8.972663177299546
      ],
      [
        "Ġduas",
        -8.9735463952678
      ],
      [
        "lha",
        -8.974773005843886
      ],
      [
        "pios",
        -8.976854363277196
      ],
      [
        "ticas",
        -8.976859290761297
      ],
      [
        "ĠâĢĶ",
        -8.980608940195115
      ],
      [
        "ina",
        -8.981021533322755
      ],
      [
        "ĠPo",
        -8.981711826884252
      ],
      [
        "Ġmenos",
        -8.982690637788634
      ],
      [
        "lhe",
        -8.984383124807078
      ],
      [
        "ĠEnta",
        -8.984777016394508
      ],
      [
        "Ġpouco",
        -8.985034946091682
      ],
      [
        "vida",
        -8.986179169303236
      ],
      [
        "mica",
        -8.986543359010415
      ],
      [
        "ste",
        -8.987591341695305
      ],
      [
        "Ġsau",
        -8.989375802843089
      ],
      [
        "ĠFoi",
        -8.99054137023016
      ],
      [
        "Congresso",
        -8.990786386752065
      ],
      [
        "Ġali",
        -8.993165833220607
      ],
      [
        "ava",
        -8.993435561158917
      ],
      [
        "mar",
        -8.995948374098928
      ],
      [
        "Ġale",
        -8.997346919675765
      ],
      [
        "ĠPre",
        -8.997951362295382
      ],
      [
        "Ġenta",
        -8.99800650115166
      ],
      [
        "fer",
        -8.998662918450995
      ],
      [
        "03",
        -8.999740062419416
      ],
      [
        "par",
        -9.00096675000659
      ],
      [
        "Ġ23",
        -9.002467959147086
      ],
      [
        "ĠQue",
        -9.003583520137685
      ],
      [
        "Ġtinha",
        -9.003744296259024
      ],
      [
        "Ġ25",
        -9.005072345775888
      ],
      [
        "Ġpelos",
        -9.00660600352896
      ],
      [
        "Ġquanto",
        -9.006852090618146
      ],
      [
        "ĠK",
        -9.007893875212517
      ],
      [
        "dica",
        -9.009372158976614
      ],
      [
        "ismo",
        -9.00944995388619
      ],
      [
        "ĠPela",
        -9.0106078866707
      ],
      [
        "ĠSul",
        -9.012390846917285
      ],
      [
        "ante",
        -9.013469679609225
      ],
      [
        "neste",
        -9.014275515024046
      ],
      [
        "aprovac",
        -9.01689037664119
      ],
      [
        "Ġnesta",
        -9.020397407272574
      ],
      [
        "18",
        -9.020442403137118
      ],
      [
        "Ġ22",
        -9.0230815312531
      ],
      [
        "ry",
        -9.026150115514836
      ],
      [
        "Ġfim",
        -9.02799912164062
      ],
      [
        "pre",
        -9.031468240838803
      ],
      [
        "lho",
        -9.0330979251084
      ],
      [
        "08",
        -9.033450391548255
      ],
      [
        "Ġimportante",
        -9.035199418738484
      ],
      [
        "Ġdar",
        -9.036149997887264
      ],
      [
        "lar",
        -9.045326586311942
      ],
      [
        "âĢĵ",
        -9.04561003671409
      ],
      [
        "Ġsub",
        -9.050769465710491
      ],
      [
        "lin",
        -9.052236449131676
      ],
      [
        "Ġbom",
        -9.053933885082005
      ],
      [
        "gar",
        -9.054941882940234
      ],
      [
        "Ġbase",
        -9.055815464957252
      ],
      [
        "Ġtodas",
        -9.056213211407586
      ],
      [
        "07",
        -9.057597665518536
      ],
      [
        "Ġfaz",
        -9.060476549462786
      ],
      [
        "Ġvezes",
        -9.062151300455836
      ],
      [
        "ĠPoder",
        -9.063766493348204
      ],
      [
        "Ġdata",
        -9.065433356290423
      ],
      [
        "K",
        -9.06663890990285
      ],
      [
        "RE",
        -9.066730494751342
      ],
      [
        "Ġregia",
        -9.06795298250888
      ],
      [
        "Ġsocial",
        -9.068230933349374
      ],
      [
        "ĠDr",
        -9.074481300772415
      ],
      [
        "Ġexemplo",
        -9.07650997808427
      ],
      [
        "los",
        -9.07658263471594
      ],
      [
        "ĠGo",
        -9.077031403723904
      ],
      [
        "âĢĿ,",
        -9.07788370096238
      ],
      [
        "tal",
        -9.077988593885893
      ],
      [
        "17",
        -9.078047638022712
      ],
      [
        "Ġfez",
        -9.079379431416813
      ],
      [
        "Ġfor",
        -9.081313907280986
      ],
      [
        "Ġmaio",
        -9.085292322737825
      ],
      [
        "rica",
        -9.085312374331822
      ],
      [
        "ĠMA",
        -9.086370914022174
      ],
      [
        "Q",
        -9.087274143557304
      ],
      [
        "Ġ2007",
        -9.087410683257064
      ],
      [
        "ton",
        -9.088864921504143
      ],
      [
        "Ġexternas",
        -9.089258048183998
      ],
      [
        "ate",
        -9.089972401906907
      ],
      [
        "ĠLuiz",
        -9.091451954177025
      ],
      [
        "Ligac",
        -9.093047411454988
      ],
      [
        "Ġnecessa",
        -9.09593862817972
      ],
      [
        "Ġcausa",
        -9.0978858061465
      ],
      [
        "W",
        -9.09880161986342
      ],
      [
        "Ġdiz",
        -9.10000911053166
      ],
      [
        "ĠTi",
        -9.100937542064342
      ],
      [
        "ĠBo",
        -9.101153406321895
      ],
      [
        "RA",
        -9.101182313951725
      ],
      [
        "art",
        -9.101433210449567
      ],
      [
        "ĠFe",
        -9.101699444659088
      ],
      [
        "discussa",
        -9.101868856499594
      ],
      [
        "Ġtendo",
        -9.102646856094466
      ],
      [
        "rado",
        -9.103602842249144
      ],
      [
        "Ġpois",
        -9.10460898199075
      ],
      [
        "Ġlugar",
        -9.106121368515746
      ],
      [
        "ĠBi",
        -9.106822109908803
      ],
      [
        "Ġpoder",
        -9.10833805553878
      ],
      [
        "Ġmunici",
        -9.109504008460094
      ],
      [
        "menta",
        -9.11076506363252
      ],
      [
        "Ġrecurso",
        -9.110776734095362
      ],
      [
        "digo",
        -9.11085509755252
      ],
      [
        "Ġ28",
        -9.111853552931771
      ],
      [
        "Ġjulho",
        -9.11364823813907
      ],
      [
        "Ġtoda",
        -9.113745127859737
      ],
      [
        "ĠPR",
        -9.114133737145098
      ],
      [
        "ĠSt",
        -9.114347842120411
      ],
      [
        "ĠGa",
        -9.115401047932524
      ],
      [
        "ĠExÂª",
        -9.115666495306352
      ],
      [
        "ĠBe",
        -9.11587905592499
      ],
      [
        "Ġsituac",
        -9.11799451511537
      ],
      [
        "Ġquero",
        -9.119778417407591
      ],
      [
        "Ġnacional",
        -9.12121307294217
      ],
      [
        "Ġpossi",
        -9.122453337255736
      ],
      [
        "ĠSESS",
        -9.1235781332397
      ],
      [
        "tri",
        -9.123879813446807
      ],
      [
        "ĠMu",
        -9.124351387200702
      ],
      [
        "16",
        -9.124550413705451
      ],
      [
        "06",
        -9.128045316670343
      ],
      [
        "fico",
        -9.128129375844804
      ],
      [
        "nos",
        -9.129473123615677
      ],
      [
        "che",
        -9.129963627399755
      ],
      [
        "Ġsentido",
        -9.130797254171457
      ],
      [
        "Ġalguns",
        -9.130860246779372
      ],
      [
        "Ġ2009",
        -9.135395332774598
      ],
      [
        "Ġsetembro",
        -9.135705741310188
      ],
      [
        "ndi",
        -9.136817565040609
      ],
      [
        "Ġseria",
        -9.137502873888671
      ],
      [
        "Ġnova",
        -9.13811366759032
      ],
      [
        "Ġpovo",
        -9.139353403976855
      ],
      [
        "NA",
        -9.140054205743771
      ],
      [
        "Ġtrata",
        -9.142517273609132
      ],
      [
        "Ġnada",
        -9.143568619144018
      ],
      [
        "Ġvou",
        -9.144935870252596
      ],
      [
        "Ġper",
        -9.148221778868455
      ],
      [
        "Ġtemos",
        -9.148651016474812
      ],
      [
        "ito",
        -9.1499193733867
      ],
      [
        "TA",
        -9.150678683861225
      ],
      [
        "Ġecono",
        -9.1517195069959
      ],
      [
        "Ġfavor",
        -9.153699591254776
      ],
      [
        "dores",
        -9.15622794486884
      ],
      [
        "ador",
        -9.15662926178834
      ],
      [
        "Ġmedida",
        -9.157150065972422
      ],
      [
        "tac",
        -9.1584293639275
      ],
      [
        "Â°",
        -9.159387038997544
      ],
      [
        "Ġcoisa",
        -9.162661085217392
      ],
      [
        "Ġ2008",
        -9.165032811676392
      ],
      [
        "Ġpodem",
        -9.165107962104676
      ],
      [
        "Ġsociedade",
        -9.166915756193928
      ],
      [
        "Ġmesma",
        -9.173640892268034
      ],
      [
        "cios",
        -9.174813792392458
      ],
      [
        "junho",
        -9.175593438104338
      ],
      [
        "ĠEla",
        -9.17902865514722
      ],
      [
        "Ġteve",
        -9.179212703182476
      ],
      [
        "Ġdisso",
        -9.180957589036938
      ],
      [
        "Ġespe",
        -9.182797625814064
      ],
      [
        "Ġtipo",
        -9.183001533099889
      ],
      [
        "UTC",
        -9.18309527773491
      ],
      [
        "Ġtenho",
        -9.183368697618617
      ],
      [
        "Ġ2006",
        -9.18394105513744
      ],
      [
        "Ġnem",
        -9.184083866461416
      ],
      [
        "ĠMuito",
        -9.185961320795146
      ],
      [
        "Ġ26",
        -9.18622210628162
      ],
      [
        "ĠGrande",
        -9.18667838065156
      ],
      [
        "pen",
        -9.187521904741171
      ],
      [
        "inho",
        -9.188858081544469
      ],
      [
        "ĠVamos",
        -9.189647536512274
      ],
      [
        "13",
        -9.190412890395809
      ],
      [
        "questa",
        -9.192925625881632
      ],
      [
        "Ġbrasileira",
        -9.194149581759634
      ],
      [
        "grafo",
        -9.194264986326669
      ],
      [
        "Ġestou",
        -9.194493749656958
      ],
      [
        "tulo",
        -9.195194624392238
      ],
      [
        "ĠSanta",
        -9.19556233967631
      ],
      [
        "ite",
        -9.195584617151676
      ],
      [
        "rei",
        -9.196036627600211
      ],
      [
        "Ġprograma",
        -9.198259226947805
      ],
      [
        "tes",
        -9.198295173398288
      ],
      [
        "cha",
        -9.19893803534362
      ],
      [
        "Exa",
        -9.201799632148813
      ],
      [
        "ĠSi",
        -9.201830275814505
      ],
      [
        "Ġcre",
        -9.2052994575979
      ],
      [
        "ĠFi",
        -9.20550688637214
      ],
      [
        "Ġdesenvolvimento",
        -9.20585786594428
      ],
      [
        "30",
        -9.209456458277856
      ],
      [
        "ĠDecreto",
        -9.210437506055106
      ],
      [
        "nal",
        -9.217148924765876
      ],
      [
        "ĠTo",
        -9.217308362589868
      ],
      [
        "Ġsabe",
        -9.21904958209465
      ],
      [
        "Ġimporta",
        -9.219917330904886
      ],
      [
        "Ġtanto",
        -9.220467975716906
      ],
      [
        "Ġconstitucional",
        -9.220574773568458
      ],
      [
        "IS",
        -9.221455777929645
      ],
      [
        "Ġcor",
        -9.222121133090232
      ],
      [
        "gen",
        -9.222147074068705
      ],
      [
        "Ġoutra",
        -9.224679331979218
      ],
      [
        "Ġ2011",
        -9.226280905580298
      ],
      [
        "tion",
        -9.226498629444755
      ],
      [
        "ĠCi",
        -9.228041012578837
      ],
      [
        "Ġsei",
        -9.232184137103912
      ],
      [
        "ĠHo",
        -9.23263392938334
      ],
      [
        "ional",
        -9.233154045277718
      ],
      [
        "tre",
        -9.233601281803494
      ],
      [
        "RI",
        -9.233813736196453
      ],
      [
        "000",
        -9.235822422329122
      ],
      [
        "ĠPoli",
        -9.237059986145802
      ],
      [
        "Ġrefere",
        -9.243415417471248
      ],
      [
        "con",
        -9.24562743664884
      ],
      [
        "ĠEste",
        -9.24596316762982
      ],
      [
        "...............",
        -9.246024828506147
      ],
      [
        "04",
        -9.246500271394815
      ],
      [
        "2015",
        -9.248917668987264
      ],
      [
        "Ġvei",
        -9.24953504290252
      ],
      [
        "Ġ2010",
        -9.250254458447992
      ],
      [
        "Ġvamos",
        -9.250369475032858
      ],
      [
        "Ġpessoa",
        -9.251514395374723
      ],
      [
        "Art",
        -9.251901041870385
      ],
      [
        "ĠJaneiro",
        -9.25241829554654
      ],
      [
        "Ġagosto",
        -9.254432269810025
      ],
      [
        "Ġoutubro",
        -9.254706077662057
      ],
      [
        "AL",
        -9.25490810454032
      ],
      [
        "Ġprovide",
        -9.256106274404592
      ],
      [
        "ĠHe",
        -9.257798456501003
      ],
      [
        "Ġtexto",
        -9.259902550580772
      ],
      [
        "PMDB",
        -9.2671872288989
      ],
      [
        "Ġfeito",
        -9.268350334737448
      ],
      [
        "Ġlado",
        -9.268606985699863
      ],
      [
        "ĠSala",
        -9.270465993746908
      ],
      [
        "ximo",
        -9.271251428380843
      ],
      [
        "Ġexiste",
        -9.271561470863125
      ],
      [
        "ĠIII",
        -9.271851386349486
      ],
      [
        "Ġestado",
        -9.272707543934862
      ],
      [
        "Ġproduc",
        -9.273957524476003
      ],
      [
        "ĠFo",
        -9.274330331678678
      ],
      [
        "ĠEduardo",
        -9.275198020332658
      ],
      [
        "ĠCA",
        -9.276539488768732
      ],
      [
        "cnica",
        -9.27784369045078
      ],
      [
        "Ġhavia",
        -9.279847384236223
      ],
      [
        "EL",
        -9.282715845835831
      ],
      [
        "ĠNO",
        -9.284968814990885
      ],
      [
        "Ġ2005",
        -9.28597559210503
      ],
      [
        "RIA",
        -9.286179350061644
      ],
      [
        "RO",
        -9.28664785924424
      ],
      [
        "Ġdessa",
        -9.287785903941383
      ],
      [
        "Ġrec",
        -9.287806861437934
      ],
      [
        "Ġabril",
        -9.287988438862294
      ],
      [
        "ĠDia",
        -9.289030846009169
      ],
      [
        "ber",
        -9.29070796015245
      ],
      [
        "Ġcara",
        -9.291784718702631
      ],
      [
        "ĠTem",
        -9.291887774506394
      ],
      [
        "Ġficar",
        -9.294485231336104
      ],
      [
        "Ġini",
        -9.29484709928152
      ],
      [
        "Ġprincipal",
        -9.29615084102827
      ],
      [
        "Ġjaneiro",
        -9.29711717187474
      ],
      [
        "Ġdesse",
        -9.297860058186316
      ],
      [
        "Ġ27",
        -9.298165255207564
      ],
      [
        "Ġpresidente",
        -9.298969515805227
      ],
      [
        "Ġhabitantes",
        -9.299807259480875
      ],
      [
        "bel",
        -9.300566574011954
      ],
      [
        "ĠVa",
        -9.300802114872448
      ],
      [
        "://",
        -9.302821338662216
      ],
      [
        "ĠPreside",
        -9.303094034256516
      ],
      [
        "02",
        -9.30335717549186
      ],
      [
        "seguranc",
        -9.305218624020895
      ],
      [
        "Ġempresas",
        -9.305711732682402
      ],
      [
        "Ġjuri",
        -9.305741402003823
      ],
      [
        "Ġcrianc",
        -9.306050016291968
      ],
      [
        "Ġsemana",
        -9.30607841524048
      ],
      [
        "MA",
        -9.308159867193645
      ],
      [
        "Ġnovembro",
        -9.308574591190428
      ],
      [
        "amos",
        -9.310554428498907
      ],
      [
        "ĠPARECER",
        -9.31171100942023
      ],
      [
        "14",
        -9.315170398671402
      ],
      [
        "chi",
        -9.31551363518615
      ],
      [
        "vam",
        -9.316280974948594
      ],
      [
        "Ġeducac",
        -9.317162590194732
      ],
      [
        "Ġvolta",
        -9.317393819407874
      ],
      [
        "Ġ29",
        -9.320342207300335
      ],
      [
        "ticos",
        -9.32113092704178
      ],
      [
        "Ġforc",
        -9.322837573468044
      ],
      [
        "ral",
        -9.32317597728957
      ],
      [
        "Ġge",
        -9.32584724302746
      ],
      [
        "Ġfalar",
        -9.329675371478787
      ],
      [
        "xi",
        -9.331188737430724
      ],
      [
        "Ġnum",
        -9.33366874811204
      ],
      [
        "ĠPE",
        -9.334165681462746
      ],
      [
        "Ġtenha",
        -9.336310289697744
      ],
      [
        "Ġexerci",
        -9.336327129759423
      ],
      [
        "Ġatrave",
        -9.336590720275524
      ],
      [
        "Ġsim",
        -9.340248055417836
      ],
      [
        "50",
        -9.34064829576641
      ],
      [
        "Ġfunc",
        -9.341145572953844
      ],
      [
        "est",
        -9.342435908385744
      ],
      [
        "ĠNe",
        -9.34255986838944
      ],
      [
        "ĠVe",
        -9.34321743177392
      ],
      [
        "zar",
        -9.344059879178907
      ],
      [
        "Ġpec",
        -9.344608726071954
      ],
      [
        "Ġestamos",
        -9.344615981923384
      ],
      [
        "ĠPi",
        -9.34676640036464
      ],
      [
        "ex",
        -9.34677621249592
      ],
      [
        "ĠGu",
        -9.347795574994358
      ],
      [
        "2013",
        -9.34827176262328
      ],
      [
        "bar",
        -9.349484403597334
      ],
      [
        "Ġprec",
        -9.350365652289325
      ],
      [
        "ĠEssa",
        -9.35171363207012
      ],
      [
        "Ġpodera",
        -9.356328341887028
      ],
      [
        "Ġpena",
        -9.358092222606484
      ],
      [
        "lise",
        -9.358994881771066
      ],
      [
        "prio",
        -9.359495593229902
      ],
      [
        "DE",
        -9.35957140766381
      ],
      [
        "ĠEmenda",
        -9.35966330258551
      ],
      [
        "qua",
        -9.360286132617126
      ],
      [
        "ĠAle",
        -9.360911731443526
      ],
      [
        "les",
        -9.36243663216695
      ],
      [
        "bri",
        -9.362647986982571
      ],
      [
        "Regimento",
        -9.363026380117246
      ],
      [
        "Ġestar",
        -9.36322594379128
      ],
      [
        "ĠSau",
        -9.363653448215162
      ],
      [
        "ĠEsse",
        -9.365069407781352
      ],
      [
        "gina",
        -9.366070158529949
      ],
      [
        "ner",
        -9.37009638962372
      ],
      [
        "Ġcargo",
        -9.371300430665295
      ],
      [
        "ĠFranc",
        -9.372221181603004
      ],
      [
        "Ġverdade",
        -9.374701866488133
      ],
      [
        "Ġ2013",
        -9.374934709575896
      ],
      [
        "ato",
        -9.374976499167168
      ],
      [
        "ang",
        -9.375857134019348
      ],
      [
        "ini",
        -9.376091234523743
      ],
      [
        "Ġquatro",
        -9.37626312311698
      ],
      [
        "Ġenquanto",
        -9.377018261788711
      ],
      [
        "Ġvista",
        -9.377125710390404
      ],
      [
        "Ġ31",
        -9.37750478760234
      ],
      [
        "bal",
        -9.379267426359956
      ],
      [
        "ĠMin",
        -9.380024698036909
      ],
      [
        "Ġrespeito",
        -9.38139672688979
      ],
      [
        "Ġponto",
        -9.383549048203346
      ],
      [
        "mina",
        -9.383621989070576
      ],
      [
        "Ġinstituic",
        -9.38494362991132
      ],
      [
        "mico",
        -9.386143406328689
      ],
      [
        "SP",
        -9.38626842177268
      ],
      [
        "Ġobjetivo",
        -9.386892572383978
      ],
      [
        "DI",
        -9.386938575357464
      ],
      [
        "ĠH",
        -9.387239704746191
      ],
      [
        "Ġdis",
        -9.388295866187336
      ],
      [
        "Ġfevereiro",
        -9.389126434357085
      ],
      [
        "nho",
        -9.390107468870498
      ],
      [
        "feira",
        -9.390963440974687
      ],
      [
        "Ġsessa",
        -9.39245128224834
      ],
      [
        "ent",
        -9.394318840569898
      ],
      [
        "Ġdentro",
        -9.39523811524565
      ],
      [
        "2011",
        -9.39664320406623
      ],
      [
        "ĠEx",
        -9.397174753106324
      ],
      [
        "Ġquais",
        -9.398703111711932
      ],
      [
        "Ġprecisa",
        -9.39872197521869
      ],
      [
        "Ġlocal",
        -9.39882919448496
      ],
      [
        "Ġdemais",
        -9.400047614884096
      ],
      [
        "gica",
        -9.400740511623884
      ],
      [
        "Deputada",
        -9.401141815743998
      ],
      [
        "ĠBrasi",
        -9.40195282634098
      ],
      [
        "Ġmim",
        -9.401956362563908
      ],
      [
        "Ġhora",
        -9.402271250485049
      ],
      [
        "Ġproblema",
        -9.40256049518216
      ],
      [
        "por",
        -9.402734249303832
      ],
      [
        "dico",
        -9.403794686534653
      ],
      [
        "ĠUma",
        -9.404001750295464
      ],
      [
        "tur",
        -9.40609199870361
      ],
      [
        "Ġsala",
        -9.407542260243387
      ],
      [
        "Ġalgo",
        -9.408218150169052
      ],
      [
        "Ġinteresse",
        -9.408390322589977
      ],
      [
        "ĠKa",
        -9.409574201295138
      ],
      [
        "ĠInterno",
        -9.410791015462038
      ],
      [
        "Ġapoio",
        -9.410855715550229
      ],
      [
        "ciona",
        -9.411202532837002
      ],
      [
        "Ġ2012",
        -9.411252685314174
      ],
      [
        "Ġ(\"",
        -9.412324501423637
      ],
      [
        "ĠMaria",
        -9.414807166497823
      ],
      [
        "ĠEducac",
        -9.414878375542962
      ],
      [
        "Ġhoras",
        -9.415581836872198
      ],
      [
        "ĠNi",
        -9.417153538636978
      ],
      [
        "ĠSupremo",
        -9.419139264768646
      ],
      [
        "ele",
        -9.422213671096406
      ],
      [
        "Ġcriac",
        -9.423238244992126
      ],
      [
        "ist",
        -9.4243537105368
      ],
      [
        "ĠCha",
        -9.426432378919053
      ],
      [
        "Ġparecer",
        -9.42690428708945
      ],
      [
        "rico",
        -9.426944611756356
      ],
      [
        "tivo",
        -9.428736950871768
      ],
      [
        "Ġtotal",
        -9.428917497557023
      ],
      [
        "aram",
        -9.430171999096224
      ],
      [
        "Ġ2004",
        -9.43044865860282
      ],
      [
        "pri",
        -9.431891240843171
      ],
      [
        "cada",
        -9.43210612526734
      ],
      [
        "ĠUnidos",
        -9.434275109830011
      ],
      [
        "cho",
        -9.435302261763658
      ],
      [
        "Ġfalta",
        -9.437072835001086
      ],
      [
        "Ġconforme",
        -9.437705583208386
      ],
      [
        "Ġfilme",
        -9.43812231802512
      ],
      [
        "nas",
        -9.438401707473544
      ],
      [
        "ĠEn",
        -9.439387512595667
      ],
      [
        "ĠTurma",
        -9.439661588320671
      ],
      [
        "Ġnunca",
        -9.441837798199357
      ],
      [
        "ĠConselho",
        -9.443356168813011
      ],
      [
        "tura",
        -9.444921980198275
      ],
      [
        "Ġacesso",
        -9.444936273058332
      ],
      [
        "Ġjogo",
        -9.448894150416676
      ],
      [
        "Ġcerca",
        -9.449105123369277
      ],
      [
        "tua",
        -9.449354957783209
      ],
      [
        "Ġespecial",
        -9.450426414664811
      ],
      [
        "nimo",
        -9.450446778103796
      ],
      [
        "ĠQuando",
        -9.451386874370888
      ],
      [
        "Ġdeixa",
        -9.452425167765586
      ],
      [
        "Ġsou",
        -9.452609871582068
      ],
      [
        "tada",
        -9.452692305376342
      ],
      [
        "ĠUniversidade",
        -9.453926895274568
      ],
      [
        "cre",
        -9.454356230429346
      ],
      [
        "poca",
        -9.455354436771175
      ],
      [
        "gue",
        -9.455367109380967
      ],
      [
        "reas",
        -9.455619495931536
      ],
      [
        "Ġcri",
        -9.46111356756682
      ],
      [
        "Ġobrigado",
        -9.46195116293971
      ],
      [
        "Ġrelato",
        -9.463844535824316
      ],
      [
        "Ġaco",
        -9.464084283044777
      ],
      [
        "istas",
        -9.465712605386454
      ],
      [
        "ĠSilva",
        -9.465850832229018
      ],
      [
        "tima",
        -9.465931036176652
      ],
      [
        "inha",
        -9.466384833340165
      ],
      [
        "her",
        -9.467184481130328
      ],
      [
        "Ġdados",
        -9.46778339936642
      ],
      [
        "cil",
        -9.468720306430903
      ],
      [
        "Ġequipe",
        -9.468823132895
      ],
      [
        "Ġcinco",
        -9.468837199898864
      ],
      [
        "ĠPlena",
        -9.469384248239182
      ],
      [
        "Ġprinci",
        -9.471276314670703
      ],
      [
        "las",
        -9.471571634908566
      ],
      [
        "ĠPedro",
        -9.471686122544952
      ],
      [
        "adas",
        -9.472453097494771
      ],
      [
        "mer",
        -9.474590417591228
      ],
      [
        "rcio",
        -9.476470175933938
      ],
      [
        "Ġregimental",
        -9.477733126305784
      ],
      [
        "Ġ2015",
        -9.47831710007866
      ],
      [
        "Ġdefesa",
        -9.480288548814109
      ],
      [
        "Ġvota",
        -9.480860566118432
      ],
      [
        "Ġkm",
        -9.481115838934866
      ],
      [
        "Ġmercado",
        -9.482970593048568
      ],
      [
        "Ġsegunda",
        -9.483138747251942
      ],
      [
        "âĢĻ",
        -9.483277445390046
      ],
      [
        "25",
        -9.485205126481054
      ],
      [
        "ĠOliveira",
        -9.485991992538352
      ],
      [
        "Ġpedido",
        -9.486415472882888
      ],
      [
        "98",
        -9.48641964258266
      ],
      [
        "Ġfac",
        -9.487135353287988
      ],
      [
        "cula",
        -9.489467538827466
      ],
      [
        "Ġdireitos",
        -9.489949545958767
      ],
      [
        "Ġfora",
        -9.49010964380304
      ],
      [
        "Ġluta",
        -9.491356150376898
      ],
      [
        "ĠCar",
        -9.491484809446671
      ],
      [
        "Ġrealizada",
        -9.493841977004404
      ],
      [
        "ense",
        -9.49486478345054
      ],
      [
        "devido",
        -9.495157512584168
      ],
      [
        "vol",
        -9.49607889171089
      ],
      [
        "ĠTotal",
        -9.496173263405016
      ],
      [
        "PE",
        -9.496219731163215
      ],
      [
        "dade",
        -9.49684503918112
      ],
      [
        "Ġextraordina",
        -9.497792243100957
      ],
      [
        "Ġpesquisa",
        -9.498235242387516
      ],
      [
        "pro",
        -9.498373293842858
      ],
      [
        "cas",
        -9.499075722088016
      ],
      [
        "ten",
        -9.500013262078172
      ],
      [
        "Ġmorte",
        -9.500075140136897
      ],
      [
        "ki",
        -9.500685669603932
      ],
      [
        "ĠRE",
        -9.501806444685332
      ],
      [
        "Ġedic",
        -9.502038692607552
      ],
      [
        "DA",
        -9.503549606908424
      ],
      [
        "Ġfo",
        -9.50606300705788
      ],
      [
        "Ġ2003",
        -9.506106301970192
      ],
      [
        "Ġfazendo",
        -9.506426345137362
      ],
      [
        "ĠBar",
        -9.506751795139108
      ],
      [
        "Ġgra",
        -9.508732958081392
      ],
      [
        "Ġvem",
        -9.509391873145706
      ],
      [
        "Ġobjeto",
        -9.51110172206209
      ],
      [
        "Ġdele",
        -9.512825778742656
      ],
      [
        "Ġraza",
        -9.51316116905833
      ],
      [
        "ĠRu",
        -9.513955316923788
      ],
      [
        "val",
        -9.51446893193448
      ],
      [
        "Ġfeita",
        -9.517184861193376
      ],
      [
        "Ġthe",
        -9.51773133456472
      ],
      [
        "ĠPP",
        -9.520008177510142
      ],
      [
        "Ġmeses",
        -9.52293175207188
      ],
      [
        "ela",
        -9.523827003586398
      ],
      [
        "vis",
        -9.524040942299925
      ],
      [
        "Executivo",
        -9.524645336956286
      ],
      [
        "Ġprova",
        -9.525239474757395
      ],
      [
        "Ġorigem",
        -9.526111088247076
      ],
      [
        "ĠSocial",
        -9.529797393808966
      ],
      [
        "Ġnota",
        -9.530094875163094
      ],
      [
        "ĠEM",
        -9.531009626974749
      ],
      [
        "CE",
        -9.531836375185629
      ],
      [
        "Ġposic",
        -9.532069543686244
      ],
      [
        "Ġpelas",
        -9.532439273954704
      ],
      [
        "Ġcrime",
        -9.534057747318652
      ],
      [
        "LA",
        -9.538154312028878
      ],
      [
        "rada",
        -9.53833022371763
      ],
      [
        "ĠSegundo",
        -9.539241922237256
      ],
      [
        "Ġfilho",
        -9.54046340394546
      ],
      [
        "97",
        -9.541348922697113
      ],
      [
        "ĠComunicac",
        -9.542007866468165
      ],
      [
        "Ġgeral",
        -9.542354691927796
      ],
      [
        "ĠFilho",
        -9.543520843228611
      ],
      [
        "IC",
        -9.544359470442744
      ],
      [
        "ĠAgora",
        -9.54439587787008
      ],
      [
        "Ġinclusive",
        -9.545399395575467
      ],
      [
        "PTB",
        -9.546413294454483
      ],
      [
        "ĠHi",
        -9.546719967516903
      ],
      [
        "Ġdispo",
        -9.54765237806576
      ],
      [
        "Ġ2014",
        -9.548055083075091
      ],
      [
        "Ġpossui",
        -9.548626736389224
      ],
      [
        "Ġpassa",
        -9.548895828594432
      ],
      [
        "Ġfunciona",
        -9.552718378097849
      ],
      [
        "Ġfosse",
        -9.554134814485804
      ],
      [
        "blicos",
        -9.554177582992946
      ],
      [
        "radiodifusa",
        -9.557537235572514
      ],
      [
        "Ġresponsa",
        -9.558796584903746
      ],
      [
        "Ġ50",
        -9.559633693535613
      ],
      [
        "amenta",
        -9.560387508130448
      ],
      [
        "2000",
        -9.560415903324474
      ],
      [
        "SE",
        -9.560672075721818
      ],
      [
        "Ġpagamento",
        -9.560993209855182
      ],
      [
        "Ġpartido",
        -9.561159296113754
      ],
      [
        "Ġquase",
        -9.561680889820678
      ],
      [
        "Ġatividades",
        -9.562061287486078
      ],
      [
        "Ġinter",
        -9.56208295106459
      ],
      [
        "Ġqualidade",
        -9.563193865833307
      ],
      [
        "The",
        -9.564066738128364
      ],
      [
        "Ġlegal",
        -9.565202893519748
      ],
      [
        "ĠThe",
        -9.567918522128757
      ],
      [
        "Ġmal",
        -9.569322389013236
      ],
      [
        "port",
        -9.569577197476368
      ],
      [
        "Ġemenda",
        -9.57003224064076
      ],
      [
        "LI",
        -9.5700427075192
      ],
      [
        "ĠTra",
        -9.570353041085204
      ],
      [
        "ĠDeus",
        -9.570974852602776
      ],
      [
        "Ġalgumas",
        -9.571114924271724
      ],
      [
        "Ġnecessidade",
        -9.571203016001595
      ],
      [
        "Ġpoderia",
        -9.571707664750422
      ],
      [
        "NCIA",
        -9.57190220461103
      ],
      [
        "2008",
        -9.57244891813361
      ],
      [
        "Ġ2016",
        -9.57360454889341
      ],
      [
        ".âĢĿ",
        -9.575019272829769
      ],
      [
        "ĠAc",
        -9.57951643371218
      ],
      [
        "Ġres",
        -9.579841573664185
      ],
      [
        "Ġminutos",
        -9.5824116023763
      ],
      [
        "Ġparticipac",
        -9.583297724017228
      ],
      [
        "Ġesses",
        -9.58544200216804
      ],
      [
        "Ġmaioria",
        -9.58755078253515
      ],
      [
        "ĠApo",
        -9.588258564730106
      ],
      [
        "for",
        -9.58991911762835
      ],
      [
        "timo",
        -9.590955186077997
      ],
      [
        "Ġlinha",
        -9.591693846045436
      ],
      [
        "__",
        -9.591995020936242
      ],
      [
        "bio",
        -9.593421190524358
      ],
      [
        "gio",
        -9.59342369789572
      ],
      [
        "ĠCOM",
        -9.593710414801224
      ],
      [
        "2007",
        -9.595255159917864
      ],
      [
        "Ð",
        -9.595634961263892
      ],
      [
        "ĠAme",
        -9.596648432410404
      ],
      [
        "Ġpublicac",
        -9.597884433478493
      ],
      [
        "Ġdinheiro",
        -9.598474366421534
      ],
      [
        "Ġcerto",
        -9.59955336288712
      ],
      [
        "Ġtrans",
        -9.600563779770466
      ],
      [
        "Ġmodo",
        -9.600574072573073
      ],
      [
        "vio",
        -9.601962715457072
      ],
      [
        "Ġtal",
        -9.602382690328266
      ],
      [
        "Ġpossa",
        -9.6033676990131
      ],
      [
        "ĠMan",
        -9.603370452329989
      ],
      [
        "Ġboa",
        -9.603844706013149
      ],
      [
        "Ġconhecido",
        -9.604590305426411
      ],
      [
        "ĠCie",
        -9.605055148535053
      ],
      [
        "Ġmar",
        -9.605070431112264
      ],
      [
        "ĠDu",
        -9.605929762972163
      ],
      [
        "fl",
        -9.606008382447524
      ],
      [
        "Ġdeixar",
        -9.60631292737349
      ],
      [
        "essa",
        -9.606448507759298
      ],
      [
        "ĠAG",
        -9.60685087372694
      ],
      [
        "lbum",
        -9.60746177343798
      ],
      [
        "Ġrequerimento",
        -9.608947767249866
      ],
      [
        "ais",
        -9.609052669789644
      ],
      [
        "Ġfala",
        -9.61233708495586
      ],
      [
        "Ġeram",
        -9.612976839743732
      ],
      [
        "ltimo",
        -9.613601986778482
      ],
      [
        "Ġirma",
        -9.613689339743836
      ],
      [
        "Ġnesse",
        -9.61392086143196
      ],
      [
        "Ġaumento",
        -9.61448073915897
      ],
      [
        ");",
        -9.614688521677907
      ],
      [
        "Ġfu",
        -9.615742312732015
      ],
      [
        "Ġocorre",
        -9.616112311039767
      ],
      [
        "agem",
        -9.61631697907543
      ],
      [
        "Ġproduto",
        -9.617003413224117
      ],
      [
        "tel",
        -9.617188271676095
      ],
      [
        "Ġensino",
        -9.619041187122528
      ],
      [
        "ano",
        -9.61992773800844
      ],
      [
        "https",
        -9.62132695647782
      ],
      [
        "28",
        -9.621429776455766
      ],
      [
        "bilidade",
        -9.621573476797124
      ],
      [
        "agravo",
        -9.622979625289512
      ],
      [
        "Ġjunto",
        -9.623465545015875
      ],
      [
        "ĠPrograma",
        -9.624489958426487
      ],
      [
        "ĠRi",
        -9.62493361426292
      ],
      [
        "2010",
        -9.62541353922251
      ],
      [
        "Ġreforma",
        -9.625721028159928
      ],
      [
        "Ġnorte",
        -9.626087598702084
      ],
      [
        "ĠGra",
        -9.62648414280072
      ],
      [
        "ĠNova",
        -9.628462867103211
      ],
      [
        "Ġpar",
        -9.629795182528367
      ],
      [
        "88",
        -9.62989545500101
      ],
      [
        "Ġredac",
        -9.630705381550218
      ],
      [
        "registro",
        -9.631639598407228
      ],
      [
        "Ġcampo",
        -9.631814906680637
      ],
      [
        "ĠHisto",
        -9.63289860042479
      ],
      [
        "ltima",
        -9.63380615491257
      ],
      [
        "29",
        -9.634276927581109
      ],
      [
        "ĠAssim",
        -9.634530889226031
      ],
      [
        "cal",
        -9.635546747434375
      ],
      [
        "Ġnoite",
        -9.636183070123868
      ],
      [
        "ĠParecer",
        -9.6363915993446
      ],
      [
        "eleic",
        -9.636529141753378
      ],
      [
        "Ġmuitas",
        -9.636876429997413
      ],
      [
        "Ġnuma",
        -9.637023817907767
      ],
      [
        "Ġtema",
        -9.637075399345676
      ],
      [
        "ĠBu",
        -9.63766598646895
      ],
      [
        "ĠLula",
        -9.637712122432117
      ],
      [
        "ĠSua",
        -9.640331423873356
      ],
      [
        "vin",
        -9.640672670230128
      ],
      [
        "PR",
        -9.641222404011796
      ],
      [
        "int",
        -9.642352351687006
      ],
      [
        "ĠAssociac",
        -9.642363701838663
      ],
      [
        "Ġingle",
        -9.642987990593603
      ],
      [
        "Ġlegislac",
        -9.643119854155508
      ],
      [
        "Ġconstruc",
        -9.64418060718432
      ],
      [
        "entanto",
        -9.644738612782652
      ],
      [
        "somente",
        -9.644911790523992
      ],
      [
        "uma",
        -9.646284584557511
      ],
      [
        "Ġsuperior",
        -9.647215185216009
      ],
      [
        "TI",
        -9.647375668353142
      ],
      [
        "Ġcompete",
        -9.648654149452272
      ],
      [
        "ĠLegislativo",
        -9.648907256687696
      ],
      [
        "Ġcontrato",
        -9.64907215184339
      ],
      [
        "Ġoperac",
        -9.649275755082844
      ],
      [
        "Ġatual",
        -9.649704560001874
      ],
      [
        "culos",
        -9.650397354873082
      ],
      [
        "Ġhomem",
        -9.65095341758869
      ],
      [
        "ĠPer",
        -9.651766485213749
      ],
      [
        "96",
        -9.654793612965175
      ],
      [
        "Ġ100",
        -9.655047859357298
      ],
      [
        "Ġ40",
        -9.656350668366134
      ],
      [
        "ende",
        -9.65662711198194
      ],
      [
        "ĠDJ",
        -9.657065110073583
      ],
      [
        "ĠSra",
        -9.65753720070312
      ],
      [
        "Ġgrandes",
        -9.658132400782677
      ],
      [
        "ff",
        -9.658902194392088
      ],
      [
        "US",
        -9.659405633333751
      ],
      [
        "Ġsai",
        -9.66106324582384
      ],
      [
        "Ġcontrole",
        -9.661326976131033
      ],
      [
        "Ġtarde",
        -9.661934211819364
      ],
      [
        "Ġoficial",
        -9.662034172912064
      ],
      [
        "stica",
        -9.663604300997402
      ],
      [
        "altera",
        -9.663791995994243
      ],
      [
        "Ġsetor",
        -9.66400121644689
      ],
      [
        "Ġlongo",
        -9.664574562508614
      ],
      [
        "ento",
        -9.664846814176371
      ],
      [
        "ĠFernando",
        -9.665161817974566
      ],
      [
        "Ġmembro",
        -9.666134828795528
      ],
      [
        "BA",
        -9.667751302791752
      ],
      [
        "lado",
        -9.672460877479562
      ],
      [
        "Ġrealizac",
        -9.67434156422784
      ],
      [
        "bil",
        -9.674756906595062
      ],
      [
        "pria",
        -9.675195046259663
      ],
      [
        "dic",
        -9.675325066277663
      ],
      [
        "Ġlhe",
        -9.675910650462386
      ],
      [
        "tina",
        -9.67675744002888
      ],
      [
        "ĠCor",
        -9.677154852190846
      ],
      [
        "ĠDEM",
        -9.677157397677146
      ],
      [
        "var",
        -9.677576408535684
      ],
      [
        "ĠPl",
        -9.677893241796136
      ],
      [
        "ĠTrabalho",
        -9.678155449122931
      ],
      [
        "ĠVI",
        -9.678566131053644
      ],
      [
        "ly",
        -9.680101312923066
      ],
      [
        "gia",
        -9.680128016026558
      ],
      [
        "ĠRoberto",
        -9.680287413520086
      ],
      [
        "Ġsaber",
        -9.680724937607163
      ],
      [
        "Ġessas",
        -9.681126948440292
      ],
      [
        "Ġacho",
        -9.682123178869238
      ],
      [
        "Ġorc",
        -9.682201302217845
      ],
      [
        "Ġjulgamento",
        -9.682511139014046
      ],
      [
        "til",
        -9.685389895123729
      ],
      [
        "45",
        -9.686234516931377
      ],
      [
        "Ġpreciso",
        -9.686900340016502
      ],
      [
        "ĠIta",
        -9.68797097043719
      ],
      [
        "Ġbrasileiros",
        -9.688782176300183
      ],
      [
        "ĠSE",
        -9.690364659827695
      ],
      [
        "ĠSP",
        -9.690772451808243
      ],
      [
        "27",
        -9.690877586488858
      ],
      [
        "ara",
        -9.6914332059434
      ],
      [
        "Ġpresenc",
        -9.691884507980758
      ],
      [
        "\")",
        -9.692300251680086
      ],
      [
        "Ġespac",
        -9.69241473590937
      ],
      [
        "ĠMaia",
        -9.69273257889827
      ],
      [
        "mula",
        -9.693409211482342
      ],
      [
        "99",
        -9.69395554843787
      ],
      [
        "ant",
        -9.69562640822497
      ],
      [
        "Ġmembros",
        -9.695963743369395
      ],
      [
        "Ġbenefi",
        -9.696606242037172
      ],
      [
        "passou",
        -9.697667228874153
      ],
      [
        "ĠBem",
        -9.700243867130078
      ],
      [
        "40",
        -9.700559338757046
      ],
      [
        "NI",
        -9.70385179422049
      ],
      [
        "35",
        -9.707318474075404
      ],
      [
        "Ġformula",
        -9.709905707655723
      ],
      [
        "ĠGe",
        -9.71030546978929
      ],
      [
        "Ġenergia",
        -9.710884595010732
      ],
      [
        "len",
        -9.711109531366054
      ],
      [
        "ĠSan",
        -9.711212344036303
      ],
      [
        "Ġobras",
        -9.712041591427685
      ],
      [
        "Ġmulheres",
        -9.713015788899012
      ],
      [
        "Ġterra",
        -9.71352419487232
      ],
      [
        "22",
        -9.713557476411063
      ],
      [
        "ĠPortugal",
        -9.714102532260249
      ],
      [
        "dora",
        -9.714594858304002
      ],
      [
        "Ġregime",
        -9.714620149124135
      ],
      [
        "devera",
        -9.715186198282666
      ],
      [
        "ÌĤ?",
        -9.71550003410583
      ],
      [
        "2012",
        -9.718255924805494
      ],
      [
        "pia",
        -9.72005644282856
      ],
      [
        "Ġmaneira",
        -9.722281250902924
      ],
      [
        "Ġmuitos",
        -9.72281762743857
      ],
      [
        "Ġeconomia",
        -9.724179313065354
      ],
      [
        "Ġassunto",
        -9.724410508023508
      ],
      [
        "lidade",
        -9.725156195865512
      ],
      [
        "gico",
        -9.726724393288706
      ],
      [
        "Ġcorpo",
        -9.727037457433603
      ],
      [
        "2016",
        -9.727811579106284
      ],
      [
        "izac",
        -9.728795122378504
      ],
      [
        "Ġdebate",
        -9.729408419575092
      ],
      [
        "ĠMinas",
        -9.730131374188908
      ],
      [
        "ĠZ",
        -9.73028696120618
      ],
      [
        "Ġ54",
        -9.730478222734083
      ],
      [
        "ĠPA",
        -9.730773337712964
      ],
      [
        "Ġauto",
        -9.730951910205835
      ],
      [
        "Í",
        -9.730984010099284
      ],
      [
        "Ġfrente",
        -9.73122188129664
      ],
      [
        "Ġinc",
        -9.731795902796572
      ],
      [
        "ĠMesa",
        -9.732791082427386
      ],
      [
        "Ġ32",
        -9.732796707785216
      ],
      [
        "ĠPSB",
        -9.732939004669298
      ],
      [
        "Ġrei",
        -9.73337304361902
      ],
      [
        "Ġprincipalmente",
        -9.733473179990158
      ],
      [
        "Ġchamado",
        -9.73407879212888
      ],
      [
        "ĠAnto",
        -9.736021574890664
      ],
      [
        "Ġestrutura",
        -9.73625164217951
      ],
      [
        "legislativa",
        -9.736385390276109
      ],
      [
        "ncio",
        -9.73765289708697
      ],
      [
        "ĠEstou",
        -9.737982314388685
      ],
      [
        "Ġconjunto",
        -9.737994673076724
      ],
      [
        "remos",
        -9.73951073716898
      ],
      [
        "Ġvo",
        -9.739859280778346
      ],
      [
        "ĠDesenvolvimento",
        -9.740708530928297
      ],
      [
        "Ġforte",
        -9.742332448710288
      ],
      [
        "Ġ2017",
        -9.742372534545932
      ],
      [
        "Ġpapel",
        -9.74290390439948
      ],
      [
        "46",
        -9.7438368672392
      ],
      [
        "Ġparece",
        -9.744968454641327
      ],
      [
        "ĠFrancisco",
        -9.745034238051334
      ],
      [
        "OR",
        -9.745082655915116
      ],
      [
        "ĠNorte",
        -9.745739340006589
      ],
      [
        "ty",
        -9.746889339860624
      ],
      [
        "Ġencontra",
        -9.747456348664766
      ],
      [
        "reais",
        -9.748768641641323
      ],
      [
        "Ġindi",
        -9.749386102525056
      ],
      [
        "stria",
        -9.752759221918746
      ],
      [
        "ĠPartido",
        -9.752824648482806
      ],
      [
        "Ġatividade",
        -9.753310198609276
      ],
      [
        "ĠIV",
        -9.754858427566289
      ],
      [
        "Ġproblemas",
        -9.754909817252836
      ],
      [
        "Ġgente",
        -9.75543010572514
      ],
      [
        "cla",
        -9.75652993535921
      ],
      [
        "Ġobra",
        -9.757560574277669
      ],
      [
        "Ġaplicac",
        -9.75800812015756
      ],
      [
        "Ġhouve",
        -9.758397400495143
      ],
      [
        "Ġbusca",
        -9.758834105004397
      ],
      [
        "Ġcapital",
        -9.759579082174726
      ],
      [
        "ger",
        -9.761472183798494
      ],
      [
        "rte",
        -9.76201060529114
      ],
      [
        "Ġautor",
        -9.76292731916111
      ],
      [
        "concessa",
        -9.763557683213886
      ],
      [
        "Ġbanda",
        -9.763631305119585
      ],
      [
        "90",
        -9.763724990208772
      ],
      [
        "Ġaprovado",
        -9.764967918527589
      ],
      [
        "q",
        -9.765248173582664
      ],
      [
        "#",
        -9.765776641080096
      ],
      [
        "cul",
        -9.767701496428616
      ],
      [
        "ĠSA",
        -9.76826156923602
      ],
      [
        "Ġmovimento",
        -9.768309408253186
      ],
      [
        "Ġconhecimento",
        -9.768430583864232
      ],
      [
        "land",
        -9.770055590295458
      ],
      [
        "bol",
        -9.7712714007296
      ],
      [
        "Ġajuda",
        -9.771466347028012
      ],
      [
        "Ġposso",
        -9.771481859637236
      ],
      [
        "2014",
        -9.77150014928412
      ],
      [
        "ĠFu",
        -9.77173056602778
      ],
      [
        "):",
        -9.772064411609575
      ],
      [
        "Ġcoisas",
        -9.772288156053898
      ],
      [
        "Ġreal",
        -9.772369539186863
      ],
      [
        "â",
        -9.77393164983142
      ],
      [
        "Ġprofessor",
        -9.77503953248914
      ],
      [
        "ler",
        -9.776281086502497
      ],
      [
        "01",
        -9.7772152536219
      ],
      [
        "Ġembora",
        -9.777441655703289
      ],
      [
        "Ġdez",
        -9.77769229728778
      ],
      [
        "Ġalgum",
        -9.778034448782812
      ],
      [
        "Ġ:)",
        -9.77817384571791
      ],
      [
        "ago",
        -9.779467173892696
      ],
      [
        "ngua",
        -9.77986130480109
      ],
      [
        "ĠSecreta",
        -9.780135485420836
      ],
      [
        "Ġoportunidade",
        -9.782505817597894
      ],
      [
        "Ġdeveria",
        -9.7828971174696
      ],
      [
        "Ġpassado",
        -9.783052610273758
      ],
      [
        "rus",
        -9.78379391400386
      ],
      [
        "Ġcusto",
        -9.784010916574632
      ],
      [
        "zado",
        -9.785008879655605
      ],
      [
        "iva",
        -9.785402001282849
      ],
      [
        "Ġlivro",
        -9.785468569077242
      ],
      [
        "lica",
        -9.786084940857728
      ],
      [
        "Ġorganizac",
        -9.786455231174616
      ],
      [
        "Ġalguma",
        -9.788014618117073
      ],
      [
        "portanto",
        -9.790152923615889
      ],
      [
        "Ġsuper",
        -9.790218994429512
      ],
      [
        "ĠPode",
        -9.790813467874177
      ],
      [
        "ĠCO",
        -9.7913735483783
      ],
      [
        "COMISSA",
        -9.793108056509586
      ],
      [
        "Ġinclui",
        -9.793758157738411
      ],
      [
        "responsabilidade",
        -9.794417926119818
      ],
      [
        "Ġeletro",
        -9.795824303355808
      ],
      [
        "Distrito",
        -9.796774299483625
      ],
      [
        "23",
        -9.796915555342297
      ],
      [
        "xima",
        -9.796995965527945
      ],
      [
        "ĠWi",
        -9.797420447838904
      ],
      [
        "ĠAntonio",
        -9.797540363003492
      ],
      [
        "Ġ2019",
        -9.797758116871488
      ],
      [
        "Ġcanc",
        -9.798599092584924
      ],
      [
        "ĠBra",
        -9.798927013652952
      ],
      [
        "nado",
        -9.800544016197096
      ],
      [
        "RECURSO",
        -9.801473965921971
      ],
      [
        "26",
        -9.801855110540204
      ],
      [
        "Defesa",
        -9.803103034955877
      ],
      [
        "ĠServic",
        -9.803358093765931
      ],
      [
        "blicas",
        -9.803422656942088
      ],
      [
        "let",
        -9.803989426052564
      ],
      [
        "ĠCivil",
        -9.804609794218456
      ],
      [
        "disposto",
        -9.804872299757449
      ],
      [
        "Ġ2000",
        -9.806173348659874
      ],
      [
        "Ġlista",
        -9.80655513313757
      ],
      [
        "ula",
        -9.806816852929297
      ],
      [
        "plan",
        -9.807306122120275
      ],
      [
        "Ġ2020",
        -9.807461050854087
      ],
      [
        "&",
        -9.807485576940854
      ],
      [
        "*",
        -9.810892101403637
      ],
      [
        "Ġmulher",
        -9.81117049124036
      ],
      [
        "ĠMarco",
        -9.811479317240067
      ],
      [
        "cola",
        -9.812589927860786
      ],
      [
        "Ġsenhor",
        -9.812882650204056
      ],
      [
        "Ġ2002",
        -9.816067159680152
      ],
      [
        "para",
        -9.816629913129464
      ],
      [
        "ĠAna",
        -9.81742788744215
      ],
      [
        "sociais",
        -9.817534156869549
      ],
      [
        "ĠEMENDA",
        -9.817804090974672
      ],
      [
        "ĠCri",
        -9.81814756527753
      ],
      [
        "Ġescola",
        -9.81833717021762
      ],
      [
        "Ġexecuc",
        -9.8199017472058
      ],
      [
        "Ġnego",
        -9.82004113000049
      ],
      [
        "ndia",
        -9.8203730357644
      ],
      [
        "Ġchegar",
        -9.821097366265104
      ],
      [
        "ell",
        -9.821239439906543
      ],
      [
        "tida",
        -9.821617508023492
      ],
      [
        "Ġcomunicac",
        -9.821682751852718
      ],
      [
        "Ġ1990",
        -9.821863421265236
      ],
      [
        "Ġcomunidade",
        -9.821952211642817
      ],
      [
        "Ġmodelo",
        -9.822207746233923
      ],
      [
        "ser",
        -9.82220836128678
      ],
      [
        "ĠTecnologia",
        -9.824264129284956
      ],
      [
        "Ġbe",
        -9.824644750340928
      ],
      [
        "Ġreuni",
        -9.824971425467597
      ],
      [
        "ĠVice",
        -9.826024929689863
      ],
      [
        "Ġcar",
        -9.826781682031532
      ],
      [
        "Ġdirec",
        -9.826820441430764
      ],
      [
        "nel",
        -9.82714041786844
      ],
      [
        "Ġpessoal",
        -9.827926162878269
      ],
      [
        "Ġefeito",
        -9.82812932234473
      ],
      [
        "Ġnenhum",
        -9.828888688449675
      ],
      [
        "Ġmudanc",
        -9.829293607260173
      ],
      [
        "bert",
        -9.830160769045794
      ],
      [
        "risco",
        -9.830369746115748
      ],
      [
        "isto",
        -9.832788496438264
      ],
      [
        "Ġavanc",
        -9.833469180710267
      ],
      [
        "AC",
        -9.834463273707357
      ],
      [
        "ban",
        -9.8359741407275
      ],
      [
        "ĠPrimeira",
        -9.83644000923645
      ],
      [
        "zada",
        -9.836443525354117
      ],
      [
        "IM",
        -9.837063984801215
      ],
      [
        "Â²",
        -9.837755760551303
      ],
      [
        "Ġentra",
        -9.838625826573171
      ],
      [
        "Ġespeci",
        -9.839131877335236
      ],
      [
        "Ġiniciativa",
        -9.839254184134967
      ],
      [
        "mas",
        -9.840084502686476
      ],
      [
        "Ìģ?",
        -9.84178733557971
      ],
      [
        "48",
        -9.841989339001634
      ],
      [
        "ĠBrasileiro",
        -9.842869490818654
      ],
      [
        "stico",
        -9.843104079359074
      ],
      [
        "nessa",
        -9.844346854920856
      ],
      [
        "ĠCorte",
        -9.84455940162268
      ],
      [
        "ĠPDT",
        -9.84501059012632
      ],
      [
        "Campeonato",
        -9.845290663106812
      ],
      [
        "Ġ33",
        -9.845830584565771
      ],
      [
        "CN",
        -9.846662391970668
      ],
      [
        "ĠExcele",
        -9.846825128542728
      ],
      [
        "podemos",
        -9.84744968732311
      ],
      [
        "Ġfinanceira",
        -9.848620137727734
      ],
      [
        "Ġficou",
        -9.849596946726766
      ],
      [
        "ĠREQUERIMENTO",
        -9.850134674703051
      ],
      [
        "prevista",
        -9.850312790589005
      ],
      [
        "Ġpropo",
        -9.850317662028145
      ],
      [
        "sejam",
        -9.850334802237084
      ],
      [
        "Ġterrito",
        -9.851428680207038
      ],
      [
        "ĠPar",
        -9.851592050127785
      ],
      [
        "sim",
        -9.85404306469723
      ],
      [
        "Ġcarreira",
        -9.854745498178149
      ],
      [
        "ĠObrigado",
        -9.854795566409075
      ],
      [
        "dispo",
        -9.854889227047677
      ],
      [
        "Ġsucesso",
        -9.855288649657028
      ],
      [
        "ĠRosa",
        -9.857487575782914
      ],
      [
        "ĠTV",
        -9.85758089473344
      ],
      [
        "sico",
        -9.859262224316938
      ],
      [
        "Ġexpressa",
        -9.859982548649471
      ],
      [
        "entes",
        -9.86050676416578
      ],
      [
        "ĠAte",
        -9.860762331025011
      ],
      [
        "Ġtemporada",
        -9.862484592050832
      ],
      [
        "mbito",
        -9.863052362024389
      ],
      [
        "Ġalgue",
        -9.86311660073338
      ],
      [
        "ĠInstituto",
        -9.863371126433174
      ],
      [
        "discurso",
        -9.866318914865833
      ],
      [
        "Ġbilho",
        -9.86700461669624
      ],
      [
        "95",
        -9.867362485066932
      ],
      [
        "Ġaquele",
        -9.868034388932571
      ],
      [
        "Ġquer",
        -9.868489241766284
      ],
      [
        "Ġanterior",
        -9.868893183570703
      ],
      [
        "Presidente",
        -9.8692704271566
      ],
      [
        "ĠCosta",
        -9.869823221015684
      ],
      [
        "Ġnobre",
        -9.870898300095837
      ],
      [
        "Ġtornou",
        -9.871433508936112
      ],
      [
        "idades",
        -9.872008184632804
      ],
      [
        "Ġvigor",
        -9.872621939837025
      ],
      [
        "Ġ2001",
        -9.874223950628194
      ],
      [
        "pol",
        -9.874501813333948
      ],
      [
        "Ġproposic",
        -9.874839769279813
      ],
      [
        "Ġmandato",
        -9.875361228322856
      ],
      [
        "Ġclube",
        -9.875446858523452
      ],
      [
        "Geral",
        -9.875638544429153
      ],
      [
        "ĠCunha",
        -9.875868193687586
      ],
      [
        "Ġpauta",
        -9.876503284364537
      ],
      [
        "Ġprojetos",
        -9.876834135622886
      ],
      [
        "Ġcampanha",
        -9.876896848518635
      ],
      [
        "ĠRequerimento",
        -9.87881513548334
      ],
      [
        "ĠGi",
        -9.879064945529851
      ],
      [
        "ĠTambe",
        -9.881001981598082
      ],
      [
        "Ġfederal",
        -9.881460484716763
      ],
      [
        "Ġcerteza",
        -9.88183199322893
      ],
      [
        "Ġteria",
        -9.881960512231528
      ],
      [
        "serem",
        -9.88400027464985
      ],
      [
        "Ġtransporte",
        -9.884080651807997
      ],
      [
        "sticas",
        -9.884841218847
      ],
      [
        "Ġvalores",
        -9.88515437276456
      ],
      [
        "ĠNA",
        -9.885381097119472
      ],
      [
        "Ġalterac",
        -9.8861305484962
      ],
      [
        "Ġtitular",
        -9.886275441683129
      ],
      [
        "Depois",
        -9.886571475870255
      ],
      [
        "Ġexame",
        -9.887022530239165
      ],
      [
        "DEM",
        -9.888926019870594
      ],
      [
        "possibilidade",
        -9.88935427848917
      ],
      [
        "cnico",
        -9.890439415211384
      ],
      [
        "lida",
        -9.89073023438638
      ],
      [
        "Ġcentro",
        -9.890776341788635
      ],
      [
        "Ġ60",
        -9.891374828535008
      ],
      [
        "Ġbo",
        -9.891997558953628
      ],
      [
        "ĠGuerra",
        -9.892107895918835
      ],
      [
        "Ġprofissional",
        -9.89230604946432
      ],
      [
        "2005",
        -9.89256684576032
      ],
      [
        "..............",
        -9.893109074659362
      ],
      [
        "ĠHu",
        -9.893591145110465
      ],
      [
        "Ġresultado",
        -9.894386466727909
      ],
      [
        "Ġfra",
        -9.89460538311226
      ],
      [
        "Ġrealizado",
        -9.89552323588434
      ],
      [
        "Ġsede",
        -9.897194830101002
      ],
      [
        "Ġhaver",
        -9.89844958134708
      ],
      [
        "MENTO",
        -9.898748784815227
      ],
      [
        "gal",
        -9.898789743983308
      ],
      [
        "ĠCopa",
        -9.898924776073198
      ],
      [
        "Ġprincipais",
        -9.898993289618586
      ],
      [
        "Ġacha",
        -9.899466504889784
      ],
      [
        "dios",
        -9.900274441471192
      ],
      [
        "apreciac",
        -9.900581800031407
      ],
      [
        "ĠBel",
        -9.900945462345598
      ],
      [
        "LTIMA",
        -9.901208411693398
      ],
      [
        "Ġatenc",
        -9.902245074071349
      ],
      [
        "ĠPortant",
        -9.903032978156116
      ],
      [
        "ĠSecretaria",
        -9.903038365455826
      ],
      [
        "Ġplena",
        -9.903041278534747
      ],
      [
        "á",
        -9.904564041718718
      ],
      [
        "iano",
        -9.907473362880728
      ],
      [
        "Ġdenu",
        -9.907882481246483
      ],
      [
        "Ġcaminho",
        -9.907925937033772
      ],
      [
        "Ġclaro",
        -9.908060682699174
      ],
      [
        "Ġrenda",
        -9.908641510465047
      ],
      [
        "lan",
        -9.908872747274488
      ],
      [
        "ley",
        -9.908905254038768
      ],
      [
        "ĠEspecial",
        -9.908925359162964
      ],
      [
        "Ġsul",
        -9.909193555062616
      ],
      [
        "GO",
        -9.910963226738067
      ],
      [
        "24",
        -9.912685521191746
      ],
      [
        "Ġideia",
        -9.913827067869375
      ],
      [
        "tando",
        -9.914144581547667
      ],
      [
        "Ġautos",
        -9.914717434924166
      ],
      [
        "21",
        -9.915053303645328
      ],
      [
        "Ġpontos",
        -9.916222290501654
      ],
      [
        "Ġconsiderado",
        -9.91648034780219
      ],
      [
        "Ġcrise",
        -9.917025396045306
      ],
      [
        "Ġ2018",
        -9.917717546158318
      ],
      [
        "trica",
        -9.917862428740063
      ],
      [
        "Ġnatureza",
        -9.919005620398424
      ],
      [
        "Ġestu",
        -9.922137321665868
      ],
      [
        "ĠEles",
        -9.922418660063755
      ],
      [
        "Ġconte",
        -9.923211821249648
      ],
      [
        "Ġformac",
        -9.923520415682487
      ],
      [
        "Ġturno",
        -9.924061510871253
      ],
      [
        "sito",
        -9.92540638960689
      ],
      [
        "2019",
        -9.925437502813743
      ],
      [
        "Ġrede",
        -9.927824762316302
      ],
      [
        "Ġhipo",
        -9.928217614823115
      ],
      [
        "Ġfase",
        -9.928324804834666
      ],
      [
        "ĠDireito",
        -9.92941382336406
      ],
      [
        "Ġ35",
        -9.929885068818004
      ],
      [
        "Ġlivre",
        -9.930426761594893
      ],
      [
        "Ġ1998",
        -9.932380320655971
      ],
      [
        "80",
        -9.93261747917665
      ],
      [
        "Ġporta",
        -9.93278993569798
      ],
      [
        "MI",
        -9.935046676670003
      ],
      [
        "Ġcontribuic",
        -9.935415026178974
      ],
      [
        "ĠSistema",
        -9.93551371823123
      ],
      [
        "provimento",
        -9.935687276085243
      ],
      [
        "ĠQuero",
        -9.937621795843192
      ],
      [
        "Ordem",
        -9.937728515208786
      ],
      [
        "ĠRicardo",
        -9.93799599480755
      ],
      [
        "ĠRel",
        -9.93816315562348
      ],
      [
        "chegou",
        -9.939986148578615
      ],
      [
        "Ġalta",
        -9.94038951722713
      ],
      [
        "ĠHenrique",
        -9.940463691516417
      ],
      [
        "ĠQuem",
        -9.940481642931555
      ],
      [
        "ĠAL",
        -9.941296284246215
      ],
      [
        "ĠAndre",
        -9.942346352828412
      ],
      [
        "Ġconstante",
        -9.944294280080973
      ],
      [
        "ĠAGRAV",
        -9.944457513643297
      ],
      [
        "reunia",
        -9.9453236812947
      ],
      [
        "Ġlogo",
        -9.945473860503808
      ],
      [
        "FI",
        -9.945716986781326
      ],
      [
        "ĠAlves",
        -9.945806175064568
      ],
      [
        "Ġdiferentes",
        -9.946477480189312
      ],
      [
        "60",
        -9.94699333044232
      ],
      [
        "Ġautoria",
        -9.9471442639396
      ],
      [
        "Ġcriar",
        -9.947859666466972
      ],
      [
        "ĠOh",
        -9.94879135451341
      ],
      [
        "Ġcaput",
        -9.94948934765916
      ],
      [
        "Ġpartida",
        -9.949579891585165
      ],
      [
        "ĠSanto",
        -9.950130416369268
      ],
      [
        "Ġcaracteri",
        -9.951870156108482
      ],
      [
        "49",
        -9.952165149965555
      ],
      [
        "ĠMINISTR",
        -9.952615094118595
      ],
      [
        "Ġguerra",
        -9.952936371444956
      ],
      [
        "cias",
        -9.953539094457618
      ],
      [
        "logo",
        -9.95386225552216
      ],
      [
        "Ġtaxa",
        -9.953896207355648
      ],
      [
        "Ġafirma",
        -9.955967991076394
      ],
      [
        "gado",
        -9.955987490141943
      ],
      [
        "ĠPereira",
        -9.95644841577394
      ],
      [
        "Ġcategoria",
        -9.95751273557941
      ],
      [
        "amente",
        -9.957922328200327
      ],
      [
        "ĠSantos",
        -9.960139442358292
      ],
      [
        "Ġvir",
        -9.96037549554092
      ],
      [
        "nada",
        -9.96045436688917
      ],
      [
        "ã",
        -9.961378815188308
      ],
      [
        "2017",
        -9.961717880510598
      ],
      [
        "Ġgesta",
        -9.962014888643088
      ],
      [
        "Ġseis",
        -9.962168116117605
      ],
      [
        "IN",
        -9.962819179756496
      ],
      [
        "Ġcidada",
        -9.963232254769448
      ],
      [
        "log",
        -9.963527949730558
      ],
      [
        "ĠME",
        -9.96408131579043
      ],
      [
        "Ġversa",
        -9.965483336011872
      ],
      [
        "Ġmenor",
        -9.965749442786088
      ],
      [
        "Ġpequeno",
        -9.966230019881811
      ],
      [
        "Ģ",
        -9.966544119750957
      ],
      [
        "pin",
        -9.966576396523797
      ],
      [
        "Ġvisita",
        -9.967339419212903
      ],
      [
        "Ġpenal",
        -9.967977195073058
      ],
      [
        "Ġfiscal",
        -9.968908513235135
      ],
      [
        "Cidadania",
        -9.969240421476252
      ],
      [
        "ĠMIN",
        -9.969299379746364
      ],
      [
        "ĠBen",
        -9.96962238132256
      ],
      [
        "Ġqueria",
        -9.969959851461669
      ],
      [
        "tem",
        -9.970087852560134
      ],
      [
        "ologia",
        -9.970913763348646
      ],
      [
        "CURSO",
        -9.971484036904426
      ],
      [
        "ĠLocal",
        -9.971703454317932
      ],
      [
        "ĠMais",
        -9.972772405870565
      ],
      [
        "ĠSTF",
        -9.97377745249367
      ],
      [
        "lic",
        -9.97472744943805
      ],
      [
        "cujo",
        -9.975068253143991
      ],
      [
        "Ġtorna",
        -9.975186761450331
      ],
      [
        "Ġinternacional",
        -9.976267843503676
      ],
      [
        "Ġusua",
        -9.97845112505084
      ],
      [
        "ĠDias",
        -9.980297012430936
      ],
      [
        "tido",
        -9.980760625883208
      ],
      [
        "ĠEra",
        -9.9810558841557
      ],
      [
        "ĠFor",
        -9.981068379763204
      ],
      [
        "Ġplano",
        -9.98149889291315
      ],
      [
        "acima",
        -9.982617971628638
      ],
      [
        "39",
        -9.982637596945326
      ],
      [
        "ĠPorto",
        -9.98324035634361
      ],
      [
        "trabalhadores",
        -9.98430439097189
      ],
      [
        "reta",
        -9.985208666749193
      ],
      [
        "ĠUn",
        -9.987451837197751
      ],
      [
        "Ġdestaque",
        -9.987693579643516
      ],
      [
        "Ġcrite",
        -9.989047666805424
      ],
      [
        "ĠSou",
        -9.989667417707484
      ],
      [
        "Medida",
        -9.989697624204643
      ],
      [
        "Ġconstitui",
        -9.9903315723529
      ],
      [
        "Ġfundo",
        -9.990614491017634
      ],
      [
        "Ġviole",
        -9.990773520797132
      ],
      [
        "PA",
        -9.99080990075261
      ],
      [
        "MS",
        -9.99138234005802
      ],
      [
        "Ġrel",
        -9.991770697931226
      ],
      [
        "ĠDilma",
        -9.99295317889428
      ],
      [
        "mediante",
        -9.99328674000195
      ],
      [
        "Ġprotec",
        -9.994775388945328
      ],
      [
        "ĠPSD",
        -9.995562165826898
      ],
      [
        "cuja",
        -9.996081568915557
      ],
      [
        "realmente",
        -9.998111872364722
      ],
      [
        "ĠFl",
        -9.998693143525392
      ],
      [
        "Ġapresenta",
        -9.999383952983871
      ],
      [
        "ting",
        -10.000327711712895
      ],
      [
        "pensado",
        -10.00046008746243
      ],
      [
        "ĠBanco",
        -10.001531687160089
      ],
      [
        "Of",
        -10.00218943001497
      ],
      [
        "Ġatendimento",
        -10.003205662317947
      ],
      [
        "ĠVou",
        -10.003393123556425
      ],
      [
        "Ġvisa",
        -10.00414116228895
      ],
      [
        "Ġexige",
        -10.004458603810408
      ],
      [
        "Ġsignifica",
        -10.00455486424256
      ],
      [
        "Ġcla",
        -10.004579363642698
      ],
      [
        "Ġpassar",
        -10.00528577127626
      ],
      [
        "ĠGre",
        -10.005973776986336
      ],
      [
        "ment",
        -10.006867498671935
      ],
      [
        "ĠMato",
        -10.008083256502724
      ],
      [
        "Ġpri",
        -10.009125736713326
      ],
      [
        "Ġcultura",
        -10.009750741122122
      ],
      [
        "Ġdesses",
        -10.00995612923332
      ],
      [
        "Ġindu",
        -10.011384313261354
      ],
      [
        "ĠNesse",
        -10.012494470640588
      ],
      [
        "ME",
        -10.015121820325776
      ],
      [
        "category",
        -10.015465017896162
      ],
      [
        "NC",
        -10.017035724354791
      ],
      [
        "recebeu",
        -10.017355013532717
      ],
      [
        "ĠBrasileira",
        -10.018489776926906
      ],
      [
        "van",
        -10.018965541104574
      ],
      [
        "Ġcontinua",
        -10.0190603810972
      ],
      [
        "Ġresposta",
        -10.020810116878373
      ],
      [
        "Ġvotar",
        -10.021148657955642
      ],
      [
        "gem",
        -10.021315189765504
      ],
      [
        "ĠProviso",
        -10.021492804905202
      ],
      [
        "Ġrazo",
        -10.021742424485868
      ],
      [
        "ĠSeu",
        -10.022521759313117
      ],
      [
        "nero",
        -10.0227544422996
      ],
      [
        "PP",
        -10.024397415403817
      ],
      [
        "ĠMeu",
        -10.024539385158912
      ],
      [
        "Ġnovos",
        -10.025147896590203
      ],
      [
        "ĠMarcelo",
        -10.025637416326475
      ],
      [
        "Ġescrito",
        -10.026060644946169
      ],
      [
        "tados",
        -10.026511779280812
      ],
      [
        "ĠFundo",
        -10.026716701285832
      ],
      [
        "Ġmarca",
        -10.028059543217116
      ],
      [
        "Gerais",
        -10.028077473692203
      ],
      [
        "70",
        -10.028269150566574
      ],
      [
        "Ġrecebe",
        -10.028614671330883
      ],
      [
        "Ġnoti",
        -10.028878857472122
      ],
      [
        "Ġeleito",
        -10.02929216200144
      ],
      [
        "Durante",
        -10.029600754035236
      ],
      [
        "tese",
        -10.03025660119225
      ],
      [
        "Ġcapacidade",
        -10.03085422575867
      ],
      [
        "2006",
        -10.0314639330159
      ],
      [
        "ĠEntre",
        -10.03267193216118
      ],
      [
        "Ġautoridade",
        -10.0328062374672
      ],
      [
        "Ġvia",
        -10.032812315316646
      ],
      [
        "Ġliberdade",
        -10.033426180064218
      ],
      [
        "Ġdeclarac",
        -10.033505227777006
      ],
      [
        "ĠVale",
        -10.033654115509531
      ],
      [
        "ĠEl",
        -10.036386907282717
      ],
      [
        "PAULO",
        -10.036446279634337
      ],
      [
        "Ġbi",
        -10.036487983263918
      ],
      [
        "Ġreceber",
        -10.037079677792203
      ],
      [
        "Ġcomunita",
        -10.038131529440586
      ],
      [
        "Ġdifi",
        -10.038510265243566
      ],
      [
        "ĠBA",
        -10.038732144060267
      ],
      [
        "Ġcriado",
        -10.039113742516498
      ],
      [
        "lei",
        -10.03984420837781
      ],
      [
        "gan",
        -10.04004528984566
      ],
      [
        "ĠBahia",
        -10.040116641688243
      ],
      [
        "RS",
        -10.040138674450166
      ],
      [
        "Ġtera",
        -10.04046081143312
      ],
      [
        "ĠComiss",
        -10.040538983728222
      ],
      [
        "Ĥ",
        -10.040605565991097
      ],
      [
        "Ġmanter",
        -10.041707527941046
      ],
      [
        "esta",
        -10.041843923873053
      ],
      [
        "Ġautoriza",
        -10.043032644368646
      ],
      [
        "Ġatra",
        -10.043943013221966
      ],
      [
        "ĠLima",
        -10.044289275796125
      ],
      [
        "Ġexecutar",
        -10.044639040945496
      ],
      [
        "Ġreduc",
        -10.044716224036204
      ],
      [
        "the",
        -10.044854319930224
      ],
      [
        "ĠJorge",
        -10.045692781668832
      ],
      [
        "ĠAdministrac",
        -10.04733859551227
      ],
      [
        "Ġterceiro",
        -10.047813326238774
      ],
      [
        "Ġdiversos",
        -10.048722943586684
      ],
      [
        "shi",
        -10.048819999551696
      ],
      [
        "Ġtrabalhos",
        -10.049031939609556
      ],
      [
        "Ġoriginal",
        -10.04915334095407
      ],
      [
        "tual",
        -10.049731993798089
      ],
      [
        "servidores",
        -10.04999165166032
      ],
      [
        "Ġdiretor",
        -10.050012778262603
      ],
      [
        "pido",
        -10.05005458523298
      ],
      [
        "Ġhomens",
        -10.050939391246049
      ],
      [
        "ĠSENHOR",
        -10.051541273370711
      ],
      [
        "Ġapresentado",
        -10.05191594701364
      ],
      [
        "Ġmaterial",
        -10.05228107446372
      ],
      [
        "Ġconstrui",
        -10.052576829385428
      ],
      [
        "Ġchamada",
        -10.052586413658696
      ],
      [
        "Ġdela",
        -10.052652566410886
      ],
      [
        "mentos",
        -10.05267971316104
      ],
      [
        "Ġincluindo",
        -10.052808344281896
      ],
      [
        "Ġambiente",
        -10.05292171209869
      ],
      [
        "ĠMundial",
        -10.053951286319531
      ],
      [
        "ĠWe",
        -10.054049939788356
      ],
      [
        "Ġmostra",
        -10.05462029786024
      ],
      [
        "SC",
        -10.055640416849307
      ],
      [
        "ĠRIC",
        -10.05578382758566
      ],
      [
        "doenc",
        -10.055954602704274
      ],
      [
        "Ġisto",
        -10.056434081356429
      ],
      [
        "Ġusar",
        -10.056598135826691
      ],
      [
        "Ġhomenage",
        -10.057303325268196
      ],
      [
        "Ġsol",
        -10.0581011264588
      ],
      [
        "Ġalcanc",
        -10.05898222428806
      ],
      [
        "Ġamor",
        -10.058997304456206
      ],
      [
        "Ġestudo",
        -10.05912181648221
      ],
      [
        "ĠPri",
        -10.059596543581408
      ],
      [
        "Ġleva",
        -10.060205380070387
      ],
      [
        "Ġartigos",
        -10.061187968219803
      ],
      [
        "maiores",
        -10.061319494014286
      ],
      [
        "ÌĤ-",
        -10.061858885559888
      ],
      [
        "Ġemprego",
        -10.062018814353612
      ],
      [
        "Ġproviso",
        -10.062611813991037
      ],
      [
        "ĠNos",
        -10.063046743962538
      ],
      [
        "qu",
        -10.06321676812979
      ],
      [
        "ĠZe",
        -10.06325153615272
      ],
      [
        "CIA",
        -10.063369340903872
      ],
      [
        "ĠCE",
        -10.06424056491042
      ],
      [
        "ĠAta",
        -10.065209273830876
      ],
      [
        "Ġgene",
        -10.06551108678807
      ],
      [
        "nior",
        -10.065680970240464
      ],
      [
        "Ġ1997",
        -10.065917773071025
      ],
      [
        "ĠCla",
        -10.066049138242152
      ],
      [
        "Ainda",
        -10.06610262159744
      ],
      [
        "Ġcena",
        -10.066590832460818
      ],
      [
        "Ġprofissionais",
        -10.066781219267318
      ],
      [
        "ĠInternacional",
        -10.066909894874836
      ],
      [
        "Ġcivil",
        -10.067910515847831
      ],
      [
        "ĠâĢĺ",
        -10.069128012243434
      ],
      [
        "Ġdiversas",
        -10.069369183845703
      ],
      [
        "rcito",
        -10.069699548362948
      ],
      [
        "ĠMendes",
        -10.070219387837149
      ],
      [
        "tratamento",
        -10.070340521872216
      ],
      [
        "Ġgarantia",
        -10.072966401460809
      ],
      [
        "dura",
        -10.07300624945508
      ],
      [
        "Ġamigo",
        -10.07387186632811
      ],
      [
        "ĠTudo",
        -10.07388493704263
      ],
      [
        "Ġsoluc",
        -10.074469453418812
      ],
      [
        "imo",
        -10.076859183565787
      ],
      [
        "Ġcan",
        -10.077422183228318
      ],
      [
        "Ġrepresenta",
        -10.077511600478545
      ],
      [
        "ĠAb",
        -10.07911646007747
      ],
      [
        "Ġinstrumento",
        -10.079121435739344
      ],
      [
        "ltimos",
        -10.079593744310111
      ],
      [
        "ĠMari",
        -10.080133095826548
      ],
      [
        "gostaria",
        -10.081299053168644
      ],
      [
        "Ġapresentar",
        -10.083290815165736
      ],
      [
        "Ġdeles",
        -10.084112426870549
      ],
      [
        "Ġfins",
        -10.08425164670539
      ],
      [
        "Ġsolicita",
        -10.084835219871792
      ],
      [
        "ssimo",
        -10.085021716916424
      ],
      [
        "Ġnorma",
        -10.085691322988454
      ],
      [
        "metros",
        -10.087456994350294
      ],
      [
        "PCdoB",
        -10.087646484140276
      ],
      [
        "Ġfundamental",
        -10.088749768348094
      ],
      [
        "Ġcumprimento",
        -10.088759174547375
      ],
      [
        "ĠRos",
        -10.088802999496458
      ],
      [
        "anta",
        -10.089654629231772
      ],
      [
        "ong",
        -10.08966557822728
      ],
      [
        "ĠADV",
        -10.090798413241586
      ],
      [
        "ĠParana",
        -10.091187248229668
      ],
      [
        "ĠGovernador",
        -10.091913396156013
      ],
      [
        "ĠVoss",
        -10.091939350934208
      ],
      [
        "Ġfuturo",
        -10.092480288137828
      ],
      [
        "tic",
        -10.092487138637123
      ],
      [
        "ilha",
        -10.092673758525535
      ],
      [
        "enti",
        -10.093878614014196
      ],
      [
        "cado",
        -10.09395761680461
      ],
      [
        "ĠOfi",
        -10.0949687701893
      ],
      [
        "Ġesti",
        -10.097105600332473
      ],
      [
        "ĠSesso",
        -10.09733738400443
      ],
      [
        "Ġevento",
        -10.097991891582954
      ],
      [
        "ĠHer",
        -10.0986049254585
      ],
      [
        "by",
        -10.100131863382163
      ],
      [
        "ĠAqui",
        -10.100598949161318
      ],
      [
        "Ġmuita",
        -10.10107634997178
      ],
      [
        "ĠSol",
        -10.101288906265884
      ],
      [
        "pronunciamento",
        -10.10131674811893
      ],
      [
        "rum",
        -10.101520744504043
      ],
      [
        "ĠInforma",
        -10.103134778145344
      ],
      [
        "Ġgrave",
        -10.104061736711216
      ],
      [
        "Ġaudie",
        -10.104523747389242
      ],
      [
        "Ġju",
        -10.10600006552756
      ],
      [
        "Ġalto",
        -10.106000990381924
      ],
      [
        "Ġmilitar",
        -10.108258898107271
      ],
      [
        "Ġnatural",
        -10.108412990188112
      ],
      [
        "Ġcompra",
        -10.109281459944835
      ],
      [
        "ĠAcho",
        -10.109360318057778
      ],
      [
        "Ġcabe",
        -10.109619881522478
      ],
      [
        "enda",
        -10.110493327684914
      ],
      [
        "Ġadministrac",
        -10.11161971315837
      ],
      [
        "Ġide",
        -10.113217384326244
      ],
      [
        "Ġ37",
        -10.11352994370356
      ],
      [
        "REG",
        -10.113536506674436
      ],
      [
        "Ġnovas",
        -10.113726173332278
      ],
      [
        "Ġdisponi",
        -10.114179010017123
      ],
      [
        "ĠSuperior",
        -10.1143351564457
      ],
      [
        "Ġjornal",
        -10.114366813824514
      ],
      [
        "voca",
        -10.115017362412294
      ],
      [
        "ĠRoma",
        -10.11522467858526
      ],
      [
        "Ġinstitui",
        -10.11530669334117
      ],
      [
        "ĠPEC",
        -10.115324233970169
      ],
      [
        "ili",
        -10.115545724332286
      ],
      [
        "Ġcrescimento",
        -10.116389128340424
      ],
      [
        "ĠRJ",
        -10.118481474401634
      ],
      [
        "Ġextra",
        -10.118756940481385
      ],
      [
        "ĠEcono",
        -10.118908080050836
      ],
      [
        "nima",
        -10.12013811358442
      ],
      [
        "ĠCentro",
        -10.120389047636834
      ],
      [
        "Ġajudar",
        -10.120626212592938
      ],
      [
        "Ġnenhuma",
        -10.12161915339654
      ],
      [
        "Ġfavora",
        -10.12229282639145
      ],
      [
        "Ġ70",
        -10.122818119945345
      ],
      [
        "Ġapresentac",
        -10.124172695860954
      ],
      [
        "Ġningue",
        -10.124701265195908
      ],
      [
        "RG",
        -10.124821495991208
      ],
      [
        "Ġsonora",
        -10.124895982442014
      ],
      [
        "ĠWikipe",
        -10.1249234943128
      ],
      [
        "entidades",
        -10.125192046671309
      ],
      [
        "ĠSub",
        -10.125205641888064
      ],
      [
        "ĠNu",
        -10.125563133096197
      ],
      [
        "Ġcontar",
        -10.125902322580746
      ],
      [
        "EXTRAORDINA",
        -10.126113679893676
      ],
      [
        "mont",
        -10.126301880431251
      ],
      [
        "substituic",
        -10.127436115627509
      ],
      [
        "Ġsimples",
        -10.127799079436407
      ],
      [
        "normas",
        -10.129135426459802
      ],
      [
        "ĠVoto",
        -10.12944895505114
      ],
      [
        "RJ",
        -10.129981274113677
      ],
      [
        "Ġvito",
        -10.13019218297796
      ],
      [
        "ĠCan",
        -10.130382247953042
      ],
      [
        "ĠPmdbP",
        -10.130635248898184
      ],
      [
        "devem",
        -10.130799664410889
      ],
      [
        "zer",
        -10.131708545324942
      ],
      [
        "antes",
        -10.131999960094236
      ],
      [
        "tecnologia",
        -10.132108274282697
      ],
      [
        "Ġautorizac",
        -10.132237244186822
      ],
      [
        "Ġimposto",
        -10.13226240011834
      ],
      [
        "lla",
        -10.134129058635972
      ],
      [
        "Ġtributa",
        -10.13453284040571
      ],
      [
        "Ġ1999",
        -10.135837594085116
      ],
      [
        "Ġmeta",
        -10.135945555342646
      ],
      [
        "Ltd",
        -10.13600063214724
      ],
      [
        "ĠBR",
        -10.136570265932136
      ],
      [
        "Ġanu",
        -10.137381114288443
      ],
      [
        "Ġcompro",
        -10.13751834714238
      ],
      [
        "Lei",
        -10.137931013715027
      ],
      [
        "2003",
        -10.13797595949532
      ],
      [
        "ĠCampos",
        -10.140819020433828
      ],
      [
        "Ġesca",
        -10.142914102531812
      ],
      [
        "dando",
        -10.1432693278196
      ],
      [
        "Ġmotivo",
        -10.14329631683249
      ],
      [
        "Â",
        -10.143465845454408
      ],
      [
        "Ġprestac",
        -10.145250585591224
      ],
      [
        "ssem",
        -10.145581841571722
      ],
      [
        "ĠFA",
        -10.145932279350554
      ],
      [
        "Hoje",
        -10.146182368676644
      ],
      [
        "ĠTodos",
        -10.146321476428852
      ],
      [
        "Ġvisto",
        -10.146861850922496
      ],
      [
        "Ġdespes",
        -10.14687793193444
      ],
      [
        "Ġcombate",
        -10.146905634004996
      ],
      [
        "produtos",
        -10.147814889849396
      ],
      [
        "line",
        -10.149048620689934
      ],
      [
        "Ġfilhos",
        -10.149108245782958
      ],
      [
        "ĠDes",
        -10.149227804659755
      ],
      [
        "Anexo",
        -10.149419919438012
      ],
      [
        "ĠIgreja",
        -10.150196800571871
      ],
      [
        "Ñ",
        -10.1503357894525
      ],
      [
        "Ġmedi",
        -10.151576573641604
      ],
      [
        "Ġreceita",
        -10.152405244910303
      ],
      [
        "oli",
        -10.153729881345376
      ],
      [
        "tores",
        -10.154033863713538
      ],
      [
        "IA",
        -10.154836087487224
      ],
      [
        "Ġaplica",
        -10.155217548487332
      ],
      [
        "bas",
        -10.1554612454963
      ],
      [
        "Ġdiante",
        -10.15616815868799
      ],
      [
        "Ġdiferenc",
        -10.15632143908092
      ],
      [
        "Ġacaba",
        -10.15639863738404
      ],
      [
        "ĠDep",
        -10.156519822784514
      ],
      [
        "designado",
        -10.15760564315215
      ],
      [
        "ĠTri",
        -10.157674719680475
      ],
      [
        "ĠTu",
        -10.157903335911946
      ],
      [
        "Ġespecialmente",
        -10.1584804990151
      ],
      [
        "cida",
        -10.158967399244908
      ],
      [
        "pur",
        -10.159315258175788
      ],
      [
        "Ġaquela",
        -10.159650849338096
      ],
      [
        "Ġlevar",
        -10.159730502495725
      ],
      [
        "Ġtermo",
        -10.16045355990984
      ],
      [
        "Ġestavam",
        -10.161040541696783
      ],
      [
        "PFL",
        -10.161346233520348
      ],
      [
        "ĠParlamentar",
        -10.163245932138016
      ],
      [
        "Ġconhecida",
        -10.16424338101803
      ],
      [
        "ĠCultura",
        -10.164394624141568
      ],
      [
        "juridicidade",
        -10.164787895582576
      ],
      [
        "Ġgarantir",
        -10.16613692732913
      ],
      [
        "Ġcurso",
        -10.166867975329042
      ],
      [
        "ĠSrÂª",
        -10.166871991104802
      ],
      [
        "ble",
        -10.16727079461098
      ],
      [
        "Ġfutebol",
        -10.16730521650252
      ],
      [
        "ĠTerra",
        -10.16752543005394
      ],
      [
        "Ġdispositivo",
        -10.167858499416033
      ],
      [
        "ĠFEDERAL",
        -10.16788693381647
      ],
      [
        "Tenho",
        -10.16858748841516
      ],
      [
        "RES",
        -10.169612477791482
      ],
      [
        "ĠTemer",
        -10.17051428294528
      ],
      [
        "Ġcabec",
        -10.170968010869576
      ],
      [
        "ĠCON",
        -10.170968968728516
      ],
      [
        "atuac",
        -10.17137789354292
      ],
      [
        "lares",
        -10.172287523646212
      ],
      [
        "URMA",
        -10.173313972415324
      ],
      [
        "Ġespi",
        -10.173755549309696
      ],
      [
        "Ġcam",
        -10.176699852096002
      ],
      [
        "Ġrevista",
        -10.177203714234835
      ],
      [
        "prisa",
        -10.177309793061225
      ],
      [
        "Ġfilha",
        -10.177351466002817
      ],
      [
        "Ġbastante",
        -10.177586655580978
      ],
      [
        "ĠRibeiro",
        -10.178990426112204
      ],
      [
        "ĠTre",
        -10.179251288733475
      ],
      [
        "ung",
        -10.179867499378089
      ],
      [
        "emos",
        -10.180029765193762
      ],
      [
        "IDADE",
        -10.1804644600416
      ],
      [
        "CH",
        -10.18089905082941
      ],
      [
        "ĠMarc",
        -10.181424258751418
      ],
      [
        "Ġaprovada",
        -10.18199346970984
      ],
      [
        "Ġcarta",
        -10.182304434586053
      ],
      [
        "cimento",
        -10.182306002077196
      ],
      [
        "Ġchega",
        -10.182355953528113
      ],
      [
        "ĠBom",
        -10.1830925837528
      ],
      [
        "Ġpublicado",
        -10.183137943923018
      ],
      [
        "ĠMac",
        -10.183223169183687
      ],
      [
        "Ġvoltar",
        -10.18367573309206
      ],
      [
        "Ġtrabalhar",
        -10.183725943458706
      ],
      [
        "Ġrealidade",
        -10.184248819922244
      ],
      [
        "Ġprogramas",
        -10.186718602158583
      ],
      [
        "iana",
        -10.187364237879027
      ],
      [
        "Ġvale",
        -10.187671422890002
      ],
      [
        "nsito",
        -10.187990562257774
      ],
      [
        "Ġconteu",
        -10.188206677392218
      ],
      [
        "NT",
        -10.188775835851864
      ],
      [
        "afirmou",
        -10.189350357978658
      ],
      [
        "instalac",
        -10.189440559768627
      ],
      [
        "Ġvenda",
        -10.190581205433908
      ],
      [
        "Ġsair",
        -10.190994891664252
      ],
      [
        "Ġ53",
        -10.19161555112584
      ],
      [
        "Ġnovamente",
        -10.192285878616026
      ],
      [
        "Ġcienti",
        -10.192605895722668
      ],
      [
        "han",
        -10.19505259285394
      ],
      [
        "ficas",
        -10.195197096651023
      ],
      [
        "Ġdisputa",
        -10.196285953765852
      ],
      [
        "Ġmeus",
        -10.197564794788384
      ],
      [
        "jovens",
        -10.197663101179906
      ],
      [
        "Ġcomum",
        -10.197710430713745
      ],
      [
        "Ġtais",
        -10.198072997323704
      ],
      [
        "leg",
        -10.198196781525107
      ],
      [
        "2004",
        -10.198328245440685
      ],
      [
        "bancada",
        -10.19835961790629
      ],
      [
        "Ġclasse",
        -10.199139057871015
      ],
      [
        "PL",
        -10.200205861397553
      ],
      [
        "ĠSegunda",
        -10.201093769092155
      ],
      [
        "ĠOrc",
        -10.201226948179844
      ],
      [
        "ĠKi",
        -10.20212324421608
      ],
      [
        "ĠJohn",
        -10.202268850115756
      ],
      [
        "âĢĳ",
        -10.203778355784287
      ],
      [
        "ĠDiretor",
        -10.20555878542878
      ],
      [
        "ĠAprova",
        -10.205797005497944
      ],
      [
        "Ġinflue",
        -10.207450065405864
      ],
      [
        "Ġseguida",
        -10.207592013219855
      ],
      [
        "Ġimportantes",
        -10.207631345349409
      ],
      [
        "medidas",
        -10.20958280743296
      ],
      [
        "Ġepiso",
        -10.20971042556378
      ],
      [
        "tenham",
        -10.209861127314486
      ],
      [
        "Ġmissa",
        -10.209869959589438
      ],
      [
        "rgio",
        -10.21032478459804
      ],
      [
        "Ġexe",
        -10.211278688815083
      ],
      [
        "Ġquesto",
        -10.21187921362466
      ],
      [
        "Ġalema",
        -10.212537429345533
      ],
      [
        "Ġassiste",
        -10.21346354132482
      ],
      [
        "ĠTom",
        -10.213968147359472
      ],
      [
        "Ġpopular",
        -10.214334500433484
      ],
      [
        "ĠSI",
        -10.216473570114218
      ],
      [
        "Ġempre",
        -10.216593481215256
      ],
      [
        "ĠTrata",
        -10.216666894058015
      ],
      [
        "]",
        -10.21898811665785
      ],
      [
        "Ġpropriedade",
        -10.218997267445424
      ],
      [
        "Ġconquista",
        -10.220127267254098
      ],
      [
        "ĠReal",
        -10.221768872014865
      ],
      [
        "ĠLin",
        -10.222774507493352
      ],
      [
        "Ġelas",
        -10.223537246812317
      ],
      [
        "Ġreco",
        -10.223635362632765
      ],
      [
        "[",
        -10.224278936843127
      ],
      [
        "ĠComplementar",
        -10.224540018886108
      ],
      [
        "meros",
        -10.22474977579604
      ],
      [
        "Ġtri",
        -10.225490914675714
      ],
      [
        "ĠAli",
        -10.225638752445144
      ],
      [
        "tividade",
        -10.22622027010774
      ],
      [
        "Ġtom",
        -10.226666669482103
      ],
      [
        "Ġ38",
        -10.227125461235008
      ],
      [
        "Ġportugue",
        -10.227585053298409
      ],
      [
        "Ġprejui",
        -10.227610641052694
      ],
      [
        "ĠBer",
        -10.229192641578525
      ],
      [
        "micos",
        -10.22923817820497
      ],
      [
        "Ġministro",
        -10.229879807963366
      ],
      [
        "Ġsuficiente",
        -10.229954346912676
      ],
      [
        "ĠEuropa",
        -10.230119301087084
      ],
      [
        "espe",
        -10.23097304791077
      ],
      [
        "Ġrepresentante",
        -10.231335517013232
      ],
      [
        "Ġquadro",
        -10.232177394632917
      ],
      [
        "AgR",
        -10.232281518928517
      ],
      [
        "aqueles",
        -10.232519621501416
      ],
      [
        "Ġentrar",
        -10.23301111271683
      ],
      [
        "deixou",
        -10.233346803959066
      ],
      [
        "Ġcai",
        -10.233564583149068
      ],
      [
        "Ġencontrar",
        -10.23393880432724
      ],
      [
        "Ġobrigac",
        -10.234106430368804
      ],
      [
        "Ġantigo",
        -10.23424202529564
      ],
      [
        "Ġperda",
        -10.2344177810015
      ],
      [
        "ĠEscola",
        -10.235285969044767
      ],
      [
        "Ġestabelece",
        -10.23534436785028
      ],
      [
        "Ġcolocar",
        -10.236095462327672
      ],
      [
        "Ġ1996",
        -10.236767978335582
      ],
      [
        "Ġliga",
        -10.23702951785486
      ],
      [
        "entendimento",
        -10.237387469693475
      ],
      [
        "Ġconsegui",
        -10.237575557263227
      ],
      [
        "ndice",
        -10.239358166035691
      ],
      [
        "å",
        -10.239443118930014
      ],
      [
        "Ġfaixa",
        -10.239562062644852
      ],
      [
        "Ġcac",
        -10.239617466161045
      ],
      [
        "cido",
        -10.23975855498682
      ],
      [
        "entidade",
        -10.24067260445034
      ],
      [
        "ĠChi",
        -10.241998097526482
      ],
      [
        "Ġsite",
        -10.244333745380876
      ],
      [
        "Prefeito",
        -10.245163573675644
      ],
      [
        "Ġ36",
        -10.245189303505146
      ],
      [
        "Substitutivo",
        -10.245803127496732
      ],
      [
        "ĠAmazo",
        -10.246270414040906
      ],
      [
        "entrada",
        -10.24628616047042
      ],
      [
        "dina",
        -10.24631723879564
      ],
      [
        "Ġexperie",
        -10.2474433307648
      ],
      [
        "ĠRelato",
        -10.24753837326923
      ],
      [
        "ĠFla",
        -10.24809482905182
      ],
      [
        "Ġdisco",
        -10.248551373429471
      ],
      [
        "ĠPenal",
        -10.248775790167915
      ],
      [
        "Ġbaixa",
        -10.24897218719786
      ],
      [
        "ĠPRO",
        -10.249110145361374
      ],
      [
        "Portaria",
        -10.249885223750937
      ],
      [
        "Ġ45",
        -10.252959604955356
      ],
      [
        "ney",
        -10.253612749773348
      ],
      [
        "+",
        -10.254035276623316
      ],
      [
        "previsto",
        -10.254140811406709
      ],
      [
        "Ġfonte",
        -10.254323170490542
      ],
      [
        "gac",
        -10.255762017645376
      ],
      [
        "ĠJU",
        -10.255806487523444
      ],
      [
        "Ġoutorga",
        -10.25599539172979
      ],
      [
        "zes",
        -10.256866747728184
      ],
      [
        "ĠDOS",
        -10.257758147969511
      ],
      [
        "Ġusado",
        -10.25776385981486
      ],
      [
        "conformidade",
        -10.258069404762637
      ],
      [
        "Ġbaixo",
        -10.258398538008455
      ],
      [
        "Ġ80",
        -10.258801679724847
      ],
      [
        "Ġcontinuar",
        -10.259208598610856
      ],
      [
        "sic",
        -10.259271933002116
      ],
      [
        "vidas",
        -10.25932654122332
      ],
      [
        "Ġaconteceu",
        -10.260525136069187
      ],
      [
        "Ġdemanda",
        -10.260679480957116
      ],
      [
        "ker",
        -10.260680971987648
      ],
      [
        "Ġdepende",
        -10.261201616149716
      ],
      [
        "Ġapre",
        -10.262011454415433
      ],
      [
        "locais",
        -10.262019087655329
      ],
      [
        "Ġpermite",
        -10.262615205646265
      ],
      [
        "efeitos",
        -10.26262235822328
      ],
      [
        "ĠVo",
        -10.26394119947793
      ],
      [
        "lada",
        -10.265633163407706
      ],
      [
        "Ġopera",
        -10.267229245701504
      ],
      [
        "QUE",
        -10.268022994877144
      ],
      [
        "Ġtratar",
        -10.268443863082746
      ],
      [
        "Ġouvi",
        -10.26917145812024
      ],
      [
        "Ġacerca",
        -10.269642282375807
      ],
      [
        "pida",
        -10.269745069232382
      ],
      [
        "Ġpequena",
        -10.269783960369743
      ],
      [
        "DEPUTADO",
        -10.26993207943232
      ],
      [
        "Ġmor",
        -10.270134519010872
      ],
      [
        "Ġigual",
        -10.271376549399122
      ],
      [
        "Ġpaciente",
        -10.27143950981877
      ],
      [
        "ĠPU",
        -10.271448187238908
      ],
      [
        "Ġsete",
        -10.272090156954333
      ],
      [
        "PSOL",
        -10.272654439565638
      ],
      [
        "ĠComunita",
        -10.273444581713465
      ],
      [
        "Ġsal",
        -10.273506659873274
      ],
      [
        "Ġtelevisa",
        -10.27354255294381
      ],
      [
        "Ġdever",
        -10.273559085248555
      ],
      [
        "talvez",
        -10.273983327903474
      ],
      [
        "oeste",
        -10.274770950431945
      ],
      [
        "Ġcandidato",
        -10.274794892950185
      ],
      [
        "ĠFre",
        -10.27523704987299
      ],
      [
        "cita",
        -10.27549513870542
      ],
      [
        "Ġluz",
        -10.275674300641104
      ],
      [
        "tulos",
        -10.279221071003736
      ],
      [
        "Ġdessas",
        -10.279224981158428
      ],
      [
        "GL",
        -10.281291453665496
      ],
      [
        "destinada",
        -10.283145073193976
      ],
      [
        "Ġdada",
        -10.284417291535055
      ],
      [
        "PRB",
        -10.284620606701369
      ],
      [
        "Ġtornar",
        -10.28596689532557
      ],
      [
        "PtbP",
        -10.285974818500804
      ],
      [
        "Ġabertura",
        -10.285987333620898
      ],
      [
        "ĠPrimeiro",
        -10.286500405924032
      ],
      [
        "Ġordina",
        -10.286597397748997
      ],
      [
        "Ġesforc",
        -10.28699598271595
      ],
      [
        "ĠVal",
        -10.287402727255463
      ],
      [
        "Ġsin",
        -10.287574957543804
      ],
      [
        "manutenc",
        -10.28767793523794
      ],
      [
        "Ġpla",
        -10.288064356581408
      ],
      [
        "ngel",
        -10.289145321081524
      ],
      [
        "Ġ43",
        -10.289250928089864
      ],
      [
        "Ġparticipar",
        -10.290148704817671
      ],
      [
        "gerac",
        -10.29064581288491
      ],
      [
        "Ġantiga",
        -10.29160334012628
      ],
      [
        "Ĩ",
        -10.292418420157912
      ],
      [
        "ĠAcre",
        -10.293255243391966
      ],
      [
        "distribuic",
        -10.294766707463648
      ],
      [
        "Ġmulta",
        -10.296150633412608
      ],
      [
        "ĠPOR",
        -10.29686185273229
      ],
      [
        "Ġhi",
        -10.296977545290211
      ],
      [
        "Ġbens",
        -10.297119329081724
      ],
      [
        "Ġpreve",
        -10.297294770175052
      ],
      [
        "NAL",
        -10.29866873795094
      ],
      [
        "Ġdireta",
        -10.29904596667688
      ],
      [
        "ias",
        -10.299826453808937
      ],
      [
        "Ġtime",
        -10.300153449275548
      ],
      [
        "ĠRO",
        -10.301866860372138
      ],
      [
        "Ġause",
        -10.30199749125224
      ],
      [
        "\",\"",
        -10.303059155989242
      ],
      [
        "ĠSal",
        -10.303226427776236
      ],
      [
        "press",
        -10.30341141485829
      ],
      [
        "seguintes",
        -10.30455855407854
      ],
      [
        "ĠTrans",
        -10.304820717155488
      ],
      [
        "Ġcorre",
        -10.305244624558975
      ],
      [
        "Ġinvestigac",
        -10.305937851722044
      ],
      [
        "bin",
        -10.306290295203064
      ],
      [
        "bli",
        -10.306533129139606
      ],
      [
        "ĠCentral",
        -10.307286533533157
      ],
      [
        "Ġtomar",
        -10.307561995800532
      ],
      [
        "inclusa",
        -10.307566982645866
      ],
      [
        "Ġregra",
        -10.308812844592138
      ],
      [
        "NTE",
        -10.308926506059626
      ],
      [
        "Ġ44",
        -10.309093744191747
      ],
      [
        "Ġinsta",
        -10.309350036368269
      ],
      [
        "Ġarti",
        -10.30945610753776
      ],
      [
        "ĠProcesso",
        -10.309692370826593
      ],
      [
        "Ġpergunta",
        -10.310321325192543
      ],
      [
        "legais",
        -10.311451052574776
      ],
      [
        "Ġjogos",
        -10.311599634389
      ],
      [
        "Ġaltera",
        -10.311838973124058
      ],
      [
        "Ġreserva",
        -10.31252420761619
      ],
      [
        "ĠKe",
        -10.312538976541177
      ],
      [
        "|",
        -10.312649194426738
      ],
      [
        "Ġenca",
        -10.312977133476007
      ],
      [
        "PSC",
        -10.313209768602931
      ],
      [
        "Ġdisposic",
        -10.313345347385363
      ],
      [
        "lizac",
        -10.3143215458486
      ],
      [
        "2018",
        -10.31497984452478
      ],
      [
        "Ġamigos",
        -10.315308391575323
      ],
      [
        "Ġmac",
        -10.315438680459806
      ],
      [
        "ĠOli",
        -10.315495578878872
      ],
      [
        "LIO",
        -10.315765689745316
      ],
      [
        "mbi",
        -10.315963324454229
      ],
      [
        "ham",
        -10.316201940760084
      ],
      [
        "apesar",
        -10.31687113160891
      ],
      [
        "Ġrealizar",
        -10.317075940358922
      ],
      [
        "Ġcolega",
        -10.31755401948162
      ],
      [
        "ĠMon",
        -10.317752765100552
      ],
      [
        "Ġpermitir",
        -10.318597974814724
      ],
      [
        "referido",
        -10.318673896996131
      ],
      [
        "sicas",
        -10.320137468568422
      ],
      [
        "Ġpasso",
        -10.321517665186152
      ],
      [
        "Ġ34",
        -10.32174954021534
      ],
      [
        "Ġtribuna",
        -10.321820727026296
      ],
      [
        "Ġcento",
        -10.321991961680787
      ],
      [
        "Ġdecreta",
        -10.322165843918889
      ],
      [
        "utilizac",
        -10.322306948818362
      ],
      [
        "ĠJOSE",
        -10.32254527978924
      ],
      [
        "nic",
        -10.323304156338892
      ],
      [
        "ĠPROPOSI",
        -10.323342388799093
      ],
      [
        "ĠQual",
        -10.324418546331348
      ],
      [
        "ĠPorque",
        -10.324567308109412
      ],
      [
        "age",
        -10.325705325770286
      ],
      [
        "Ġ55",
        -10.326362487043715
      ],
      [
        "ĠUS",
        -10.327060366403227
      ],
      [
        "Apoio",
        -10.327193484355366
      ],
      [
        "Ġdado",
        -10.327307902180774
      ],
      [
        "ĠPlano",
        -10.328090469931633
      ],
      [
        "ĠOla",
        -10.328208824567938
      ],
      [
        "Ġaprova",
        -10.328215926651652
      ],
      [
        "Ġapro",
        -10.328589414070018
      ],
      [
        "Ġdocumentos",
        -10.3295103795965
      ],
      [
        "ĠChe",
        -10.32971392605411
      ],
      [
        "Ġregio",
        -10.329951775861522
      ],
      [
        "ĠSouza",
        -10.32997963745808
      ],
      [
        "Ġlegi",
        -10.330307066511146
      ],
      [
        "ĠMal",
        -10.330821922185269
      ],
      [
        "ĠCelso",
        -10.33147801661129
      ],
      [
        "Ġperto",
        -10.33191963546619
      ],
      [
        "Ġmanifestac",
        -10.332360607936218
      ],
      [
        "ĠFra",
        -10.3339010082365
      ],
      [
        "Ġsofre",
        -10.3340053805928
      ],
      [
        "Ġmelhores",
        -10.334534541049312
      ],
      [
        "Ġdizendo",
        -10.33462956028294
      ],
      [
        "Ġcha",
        -10.335080752527409
      ],
      [
        "Ġ49",
        -10.33522298029291
      ],
      [
        "lizar",
        -10.3358738584187
      ],
      [
        "Ġinterna",
        -10.335984533254816
      ],
      [
        "ĠGomes",
        -10.336114822066513
      ],
      [
        "Ġpermiti",
        -10.336191738736131
      ],
      [
        "militares",
        -10.336533182490877
      ],
      [
        "Ġdiscutir",
        -10.337251206932846
      ],
      [
        "Ġfazem",
        -10.337391133616974
      ],
      [
        "ĠFami",
        -10.337652063993298
      ],
      [
        "ĠGrosso",
        -10.338386609157784
      ],
      [
        "Ġinterior",
        -10.338744460461058
      ],
      [
        "ĠMunicipal",
        -10.339384991514208
      ],
      [
        "ĠMinistra",
        -10.340080590519255
      ],
      [
        "Ġprovi",
        -10.34065806272231
      ],
      [
        "ĠLopes",
        -10.341023999015269
      ],
      [
        "Ġlimite",
        -10.3416268551375
      ],
      [
        "Ġcapaz",
        -10.34207570737654
      ],
      [
        "Ġoito",
        -10.343067530536455
      ],
      [
        "Ġconti",
        -10.343150485785412
      ],
      [
        "Ġdistribui",
        -10.343259835702083
      ],
      [
        "CARLOS",
        -10.343297437637306
      ],
      [
        "ĠMilitar",
        -10.343391384623231
      ],
      [
        "Ġtentar",
        -10.343997354358692
      ],
      [
        "ĠRocha",
        -10.344000204102846
      ],
      [
        "Ġ42",
        -10.34410160580502
      ],
      [
        "Ġconclui",
        -10.34429305186694
      ],
      [
        "Ġsustenta",
        -10.345336407233914
      ],
      [
        "Ġconsiderada",
        -10.34559566313926
      ],
      [
        "metro",
        -10.345795255303662
      ],
      [
        "Ġameac",
        -10.34616245126569
      ],
      [
        "ĠConced",
        -10.347242745871082
      ],
      [
        "MG",
        -10.347605098442893
      ],
      [
        "AM",
        -10.348754838288864
      ],
      [
        "Ġadministrativa",
        -10.34880172223288
      ],
      [
        "Pausa",
        -10.352564259553285
      ],
      [
        "Ġ48",
        -10.352812990096869
      ],
      [
        "ĠSU",
        -10.35299772688073
      ],
      [
        "ĠLista",
        -10.353364551481594
      ],
      [
        "Ġtroca",
        -10.354509452384924
      ],
      [
        "hy",
        -10.354722355793172
      ],
      [
        "ĠKo",
        -10.355375331168736
      ],
      [
        "Estamos",
        -10.35561539367708
      ],
      [
        "Ġapresentada",
        -10.355903123332205
      ],
      [
        "Ġcomercial",
        -10.35590759733162
      ],
      [
        "ĠPARA",
        -10.356416338437086
      ],
      [
        "Ġalega",
        -10.356830854232664
      ],
      [
        "Ġ01",
        -10.3572923975793
      ],
      [
        "Ġcompromisso",
        -10.357397648269911
      ],
      [
        "CIO",
        -10.357668679909366
      ],
      [
        "Ġconsidera",
        -10.358310249870376
      ],
      [
        "indicac",
        -10.358403007261256
      ],
      [
        "GERAL",
        -10.35892948256154
      ],
      [
        "Ġ52",
        -10.359244956329553
      ],
      [
        "Ġconversa",
        -10.359772340194343
      ],
      [
        "Ġlocalizado",
        -10.36111365754031
      ],
      [
        "Ġvige",
        -10.361269262241962
      ],
      [
        "Ġcerta",
        -10.36157347131022
      ],
      [
        "Ġ39",
        -10.362156575013472
      ],
      [
        "ĠColo",
        -10.362556564215677
      ],
      [
        "Pro",
        -10.362846817928617
      ],
      [
        "ĠCatarina",
        -10.363209214047304
      ],
      [
        "Ġacabou",
        -10.36328517551257
      ],
      [
        "Ġavaliac",
        -10.363592114334711
      ],
      [
        "Ġseguir",
        -10.36438552840931
      ],
      [
        "dicos",
        -10.364437113790654
      ],
      [
        "Ġinforma",
        -10.364883268761549
      ],
      [
        "ĠPubli",
        -10.365129405693713
      ],
      [
        "Ġjovem",
        -10.365600104577736
      ],
      [
        "gor",
        -10.365705015216086
      ],
      [
        "exposto",
        -10.366334901466669
      ],
      [
        "exclusividade",
        -10.36690339207342
      ],
      [
        "Ġdiferente",
        -10.367049137865983
      ],
      [
        "Ġrelativa",
        -10.36784863126914
      ],
      [
        "cle",
        -10.36816673712924
      ],
      [
        "ĠVeja",
        -10.368289571268845
      ],
      [
        "Ġcompetic",
        -10.368910218337817
      ],
      [
        "Ġ1991",
        -10.36941002054452
      ],
      [
        "Ġdaquel",
        -10.3694400071997
      ],
      [
        "Ġlicenc",
        -10.370252909994033
      ],
      [
        "Ġconseguiu",
        -10.370475762920911
      ],
      [
        "Ġquarto",
        -10.370591816330789
      ],
      [
        "logia",
        -10.370718070908886
      ],
      [
        "ontem",
        -10.371058749408869
      ],
      [
        "Ġescolas",
        -10.371893314407732
      ],
      [
        "Ġperde",
        -10.372395852800176
      ],
      [
        "Ġhumano",
        -10.373126435532358
      ],
      [
        "Apesar",
        -10.373764298175027
      ],
      [
        "Ġconfi",
        -10.374099071203704
      ],
      [
        "Ġcompleta",
        -10.376014888413792
      ],
      [
        "Ġfiz",
        -10.376194144659626
      ],
      [
        "CONSTITUIC",
        -10.376593136423992
      ],
      [
        "tivos",
        -10.376762740276147
      ],
      [
        "ĠProfessor",
        -10.377023375825448
      ],
      [
        "americana",
        -10.377047453730404
      ],
      [
        "Ġentrega",
        -10.377134838533728
      ],
      [
        "anti",
        -10.377556888260491
      ],
      [
        "Ł",
        -10.377691950466703
      ],
      [
        "rida",
        -10.378470497459462
      ],
      [
        "ĠJudicia",
        -10.378536315927086
      ],
      [
        "ĠLUIZ",
        -10.378723584716305
      ],
      [
        "estabelecimento",
        -10.379001458105986
      ],
      [
        "riamente",
        -10.379208565194734
      ],
      [
        "pica",
        -10.379223933718716
      ],
      [
        "ginas",
        -10.379446908257304
      ],
      [
        "Ġfinanciamento",
        -10.380225147769549
      ],
      [
        "Ġimprensa",
        -10.38040980533158
      ],
      [
        "Ġquantidade",
        -10.380586058098627
      ],
      [
        "Ġhonra",
        -10.380684734655746
      ],
      [
        "ĠCidade",
        -10.381410957877828
      ],
      [
        "Ġbeneficia",
        -10.38218242388388
      ],
      [
        "ĠSabe",
        -10.382313973639134
      ],
      [
        "iros",
        -10.38233494128105
      ],
      [
        "ĠPI",
        -10.38253052081224
      ],
      [
        "Maranha",
        -10.383430917014511
      ],
      [
        "Ġpagar",
        -10.383529015862306
      ],
      [
        "Ġcolo",
        -10.383642170972854
      ],
      [
        "Ġcria",
        -10.384008690143125
      ],
      [
        "falando",
        -10.384357361682234
      ],
      [
        "ĠRS",
        -10.384368620720217
      ],
      [
        "dez",
        -10.384838511166114
      ],
      [
        "ĠAh",
        -10.385564699709132
      ],
      [
        "Ġquarta",
        -10.38582733265437
      ],
      [
        "Ġestudos",
        -10.386038439323931
      ],
      [
        "Ġ41",
        -10.386220803238055
      ],
      [
        "NR",
        -10.386285476558507
      ],
      [
        "tiveram",
        -10.38739631888205
      ],
      [
        "rita",
        -10.38741966452774
      ],
      [
        "ĠFica",
        -10.388459569910289
      ],
      [
        "Ġ1995",
        -10.38899588185638
      ],
      [
        "Ġdaqui",
        -10.390072614187842
      ],
      [
        "Ġcarro",
        -10.390313952478303
      ],
      [
        "burg",
        -10.39087192632543
      ],
      [
        "Certo",
        -10.390937606245869
      ],
      [
        "Ġchama",
        -10.39192088030419
      ],
      [
        "INA",
        -10.39222984020383
      ],
      [
        "Ġdecidi",
        -10.392408795387924
      ],
      [
        "Ġdeputado",
        -10.392828106812418
      ],
      [
        "ĠAlmeida",
        -10.393451007400891
      ],
      [
        "Ġlocalizada",
        -10.393561147547045
      ],
      [
        "Ġestrate",
        -10.393618507244245
      ],
      [
        "war",
        -10.393643705912687
      ],
      [
        "ĠLou",
        -10.393775109459664
      ],
      [
        ".............",
        -10.393808753786583
      ],
      [
        "ĠToda",
        -10.394064887172997
      ],
      [
        "rece",
        -10.3941280620321
      ],
      [
        "ĠPelo",
        -10.394337206273432
      ],
      [
        "ĠLui",
        -10.39466918855002
      ],
      [
        "ĠGeral",
        -10.395658296964507
      ],
      [
        "Ġrenova",
        -10.395661244111372
      ],
      [
        "deres",
        -10.397521192580244
      ],
      [
        "Ġcomigo",
        -10.398112961464248
      ],
      [
        "ĠUSP",
        -10.398522116803122
      ],
      [
        "Ġexatamente",
        -10.40007104055478
      ],
      [
        "ĠParlamentare",
        -10.40201459351136
      ],
      [
        "Ġunidades",
        -10.402305082138056
      ],
      [
        "ĠInter",
        -10.40278925177927
      ],
      [
        "Ġcomissa",
        -10.402928692935618
      ],
      [
        "ĠRodrigues",
        -10.403138391285374
      ],
      [
        "ħ",
        -10.40344668027767
      ],
      [
        "Lideran",
        -10.4035578005788
      ],
      [
        "tante",
        -10.404350331250672
      ],
      [
        "Ġinicial",
        -10.404662158868492
      ],
      [
        "ĠSin",
        -10.40490772932939
      ],
      [
        "frica",
        -10.405577039354847
      ],
      [
        "Ġ58",
        -10.405756427707477
      ],
      [
        "atriz",
        -10.4061033834413
      ],
      [
        "Ġrodovia",
        -10.406694611803182
      ],
      [
        "ĠGrupo",
        -10.407003438332296
      ],
      [
        "diretamente",
        -10.40773193004042
      ],
      [
        "Ġ119",
        -10.408283813793528
      ],
      [
        "ĠQUE",
        -10.409788732798544
      ],
      [
        "ĠCre",
        -10.410280007535398
      ],
      [
        "Ġpensa",
        -10.410881916418194
      ],
      [
        "ĠCarvalho",
        -10.41119500998444
      ],
      [
        "corrupc",
        -10.412820170063032
      ],
      [
        "STA",
        -10.412828284062586
      ],
      [
        "Ġhaja",
        -10.41309776890822
      ],
      [
        "rido",
        -10.413957542181738
      ],
      [
        "Ġjulgado",
        -10.414624041357568
      ],
      [
        "ambos",
        -10.415436041113749
      ],
      [
        "permissa",
        -10.415965275514138
      ],
      [
        "atribuic",
        -10.416210587158304
      ],
      [
        "ĠOnde",
        -10.416777576046425
      ],
      [
        "Ġassumi",
        -10.416942039541912
      ],
      [
        "bairro",
        -10.417984803231562
      ],
      [
        "ĠPrevide",
        -10.419298123682504
      ],
      [
        "Ġ64",
        -10.41966009677865
      ],
      [
        "Î",
        -10.419806684509515
      ],
      [
        "Ġestabelecer",
        -10.42006177493831
      ],
      [
        "Ġresultados",
        -10.420186859641843
      ],
      [
        "ĠAP",
        -10.42027852911525
      ],
      [
        "Li",
        -10.420400246339051
      ],
      [
        "Ġposto",
        -10.42145535840518
      ],
      [
        "ĠMinha",
        -10.42167405318375
      ],
      [
        "chefe",
        -10.422340905799915
      ],
      [
        "Ġencontro",
        -10.422832620770796
      ],
      [
        "Ġsec",
        -10.423632860591493
      ],
      [
        "ĠReco",
        -10.424002547835062
      ],
      [
        "ĠGil",
        -10.425478412578949
      ],
      [
        "Ġconseguir",
        -10.425513801147108
      ],
      [
        "ĠDaniel",
        -10.426445646822504
      ],
      [
        "Ġmundial",
        -10.42702799382661
      ],
      [
        "tenc",
        -10.427338673457374
      ],
      [
        "criada",
        -10.427560252531668
      ],
      [
        "Ġorientac",
        -10.427570616909724
      ],
      [
        "Ġconce",
        -10.427663747090794
      ],
      [
        "ĠMG",
        -10.427716153114586
      ],
      [
        "rejeic",
        -10.427994712767395
      ],
      [
        "ĠSenhora",
        -10.428003373877324
      ],
      [
        "ĠSuper",
        -10.428504501305332
      ],
      [
        "ĠSer",
        -10.428962614752908
      ],
      [
        "org",
        -10.428991698709089
      ],
      [
        "ĠLEGISLATIV",
        -10.429445753422907
      ],
      [
        "Ġestadual",
        -10.430432009242177
      ],
      [
        "ĠRegia",
        -10.430839048026238
      ],
      [
        "Ġvaria",
        -10.43197741102379
      ],
      [
        "Ġsubstitui",
        -10.432763968171152
      ],
      [
        "Ġvivo",
        -10.433135928800397
      ],
      [
        "plica",
        -10.433667412209882
      ],
      [
        "ĠReino",
        -10.434115129469753
      ],
      [
        "ĠSenhore",
        -10.434242037648112
      ],
      [
        "DF",
        -10.434390166648743
      ],
      [
        "ĠGoia",
        -10.43475640714362
      ],
      [
        "Ġevitar",
        -10.4349779413827
      ],
      [
        "somos",
        -10.436777413052615
      ],
      [
        "ativo",
        -10.43855184180766
      ],
      [
        "ĠLU",
        -10.438653275904665
      ],
      [
        "Ġfigura",
        -10.44002325610548
      ],
      [
        "ĠAM",
        -10.440103424039568
      ],
      [
        "ĠNordeste",
        -10.440932092361388
      ],
      [
        "licitac",
        -10.441219891619037
      ],
      [
        "Seguranc",
        -10.441442986466786
      ],
      [
        "atualmente",
        -10.441443499262212
      ],
      [
        "Ġgosta",
        -10.441826012625976
      ],
      [
        "Ġpior",
        -10.44206222660511
      ],
      [
        "IDA",
        -10.442162840308344
      ],
      [
        "cies",
        -10.442170373293036
      ],
      [
        "Ġinfra",
        -10.442329170385015
      ],
      [
        "Con",
        -10.442772716124264
      ],
      [
        "nci",
        -10.443192860098527
      ],
      [
        "Ġanti",
        -10.443380490346724
      ],
      [
        "uplente",
        -10.443418937304942
      ],
      [
        "ĠNew",
        -10.443480282571198
      ],
      [
        "Talvez",
        -10.443640944942322
      ],
      [
        "impacto",
        -10.444903433299377
      ],
      [
        "nato",
        -10.44492680447058
      ],
      [
        "ĠTemo",
        -10.445191454373614
      ],
      [
        "ĠAugusto",
        -10.44527553914324
      ],
      [
        "ĠEstadual",
        -10.44529950613803
      ],
      [
        "Ġmerece",
        -10.446008107586271
      ],
      [
        "Ġmudar",
        -10.446011292670809
      ],
      [
        "Figueiredo",
        -10.446656679504612
      ],
      [
        "Ġacontece",
        -10.446691199722483
      ],
      [
        "Ġdocumento",
        -10.447111254030077
      ],
      [
        "Ġcomenta",
        -10.447835574279004
      ],
      [
        "ĠDECRET",
        -10.44858217805096
      ],
      [
        "Ġprocura",
        -10.449201010017408
      ],
      [
        "ĠNelson",
        -10.44980037480654
      ],
      [
        "Ġrece",
        -10.449998390846952
      ],
      [
        "lias",
        -10.450851035170848
      ],
      [
        "Teixeira",
        -10.451969597849835
      ],
      [
        "grafia",
        -10.452986245914088
      ],
      [
        "ssia",
        -10.453486852019646
      ],
      [
        "Ġpaga",
        -10.4539868186004
      ],
      [
        "nÂº",
        -10.45442255123946
      ],
      [
        "alunos",
        -10.454564036469169
      ],
      [
        "Ħ",
        -10.45461637466405
      ],
      [
        "ĠGen",
        -10.45477775481936
      ],
      [
        "ĠFazenda",
        -10.455346979646846
      ],
      [
        "Ġgrau",
        -10.45541036312222
      ],
      [
        "bon",
        -10.455907115741988
      ],
      [
        "Ġpublicada",
        -10.455911972318512
      ],
      [
        "Ġ90",
        -10.457477910806157
      ],
      [
        "Discussa",
        -10.458190762569435
      ],
      [
        "Ġshow",
        -10.458577172473312
      ],
      [
        "Ġcentral",
        -10.45883988994058
      ],
      [
        "Ġjudicial",
        -10.459029848496051
      ],
      [
        "lizado",
        -10.460237069632823
      ],
      [
        "Ġinvestimento",
        -10.46062565726435
      ],
      [
        "ĠPp",
        -10.460634821381474
      ],
      [
        "Ġmemo",
        -10.461233318555756
      ],
      [
        "ĠDom",
        -10.461504869961107
      ],
      [
        "Ġfundamento",
        -10.462323806002232
      ],
      [
        "Ġquilo",
        -10.462585811094083
      ],
      [
        "usada",
        -10.463116049000954
      ],
      [
        "cito",
        -10.463276265132668
      ],
      [
        "requisitos",
        -10.463981949568456
      ],
      [
        "ricos",
        -10.46441516710612
      ],
      [
        "ĠART",
        -10.464691829862288
      ],
      [
        "Ġprocedimento",
        -10.465195236118271
      ],
      [
        "ĠDesde",
        -10.465428051840638
      ],
      [
        "bado",
        -10.4655825002113
      ],
      [
        "nicos",
        -10.465735721173568
      ],
      [
        "levou",
        -10.465951549268327
      ],
      [
        "Ġdista",
        -10.466406869219758
      ],
      [
        "Ġpetro",
        -10.46667594932689
      ],
      [
        "ĠBal",
        -10.466886029746371
      ],
      [
        "Ġanimais",
        -10.46754492291198
      ],
      [
        "onde",
        -10.467782729750596
      ],
      [
        "ĠFutebol",
        -10.467850285949574
      ],
      [
        "Ġ1988",
        -10.468017318121634
      ],
      [
        "Ġespera",
        -10.468142570269643
      ],
      [
        "ĠRelac",
        -10.469424597743776
      ],
      [
        "Ġreside",
        -10.469434579867285
      ],
      [
        "Ġfui",
        -10.469448061372589
      ],
      [
        "Ġabaixo",
        -10.471423868915544
      ],
      [
        "ĠChina",
        -10.471459398425496
      ],
      [
        "licitante",
        -10.4718223318978
      ],
      [
        "ĠEspi",
        -10.471919232293628
      ],
      [
        "Ġestilo",
        -10.472057230090137
      ],
      [
        "pec",
        -10.472328445227276
      ],
      [
        "federai",
        -10.472583724381192
      ],
      [
        "Ġamericano",
        -10.472592363892687
      ],
      [
        "Ġjurisprude",
        -10.472614002507108
      ],
      [
        "ĠAto",
        -10.47262893810613
      ],
      [
        "Ġconde",
        -10.473479766139176
      ],
      [
        "ĠGal",
        -10.47425648315001
      ],
      [
        "Ġestes",
        -10.475279839617784
      ],
      [
        "ĠMO",
        -10.476351331570706
      ],
      [
        "Ġdeficie",
        -10.477631723192763
      ],
      [
        "Ġmanha",
        -10.478411819571742
      ],
      [
        "ĠRequer",
        -10.478673088072952
      ],
      [
        "ionais",
        -10.478980511756156
      ],
      [
        "Ġterc",
        -10.47953559482858
      ],
      [
        "ĠNossa",
        -10.479691918313232
      ],
      [
        "ĠAlberto",
        -10.480732166341864
      ],
      [
        "ĠAure",
        -10.4807526248435
      ],
      [
        "Ġentrevista",
        -10.481660697191044
      ],
      [
        "Ġadvogado",
        -10.482134710466932
      ],
      [
        "ky",
        -10.48326454852517
      ],
      [
        "Ġvive",
        -10.48333615687042
      ],
      [
        "Ġ62",
        -10.483903833573066
      ],
      [
        "possam",
        -10.48391320946034
      ],
      [
        "Ġconhece",
        -10.484379344095922
      ],
      [
        "ĠMundo",
        -10.48492910787276
      ],
      [
        "Ġpretende",
        -10.48515956161864
      ],
      [
        "Ġconseque",
        -10.485263214757229
      ],
      [
        "lis",
        -10.485383019993751
      ],
      [
        "existente",
        -10.486375159835148
      ],
      [
        "ĠAlemanha",
        -10.486416218013511
      ],
      [
        "xico",
        -10.48657132949129
      ],
      [
        "regras",
        -10.4878421715313
      ],
      [
        "Ġatender",
        -10.489433030413222
      ],
      [
        "Ġacidente",
        -10.48991338837924
      ],
      [
        "Ġ56",
        -10.491074190863914
      ],
      [
        "Sessa",
        -10.491520608861016
      ],
      [
        "Ġpalavras",
        -10.4917217210543
      ],
      [
        "EMENTA",
        -10.491884687377375
      ],
      [
        "Ġvice",
        -10.492347794265742
      ],
      [
        "Ġmesa",
        -10.49244800564304
      ],
      [
        "Ġdemocracia",
        -10.493000056351017
      ],
      [
        "ĠBoa",
        -10.493072822169104
      ],
      [
        "ÌĦ",
        -10.49344140723842
      ],
      [
        "ligac",
        -10.494943431813178
      ],
      [
        "vemos",
        -10.49512282317724
      ],
      [
        "Ġdistrito",
        -10.495276641647605
      ],
      [
        "Ġexplorar",
        -10.495430843045911
      ],
      [
        "Ġoferece",
        -10.495642720405865
      ],
      [
        "ĠAg",
        -10.495703942469287
      ],
      [
        "ĠAC",
        -10.49597032225948
      ],
      [
        "Ġrural",
        -10.49613113901539
      ],
      [
        "ciais",
        -10.49613585166483
      ],
      [
        "Ġfinanceiro",
        -10.49642320868508
      ],
      [
        "EUA",
        -10.496604244875996
      ],
      [
        "ĠForc",
        -10.4966603297988
      ],
      [
        "Ġfesta",
        -10.496723328153603
      ],
      [
        "ĠFU",
        -10.497174656711143
      ],
      [
        "PSL",
        -10.497386803554653
      ],
      [
        "Ġerro",
        -10.49780866564391
      ],
      [
        "ĠSerra",
        -10.498302992281696
      ],
      [
        "ĠRede",
        -10.49851998070307
      ],
      [
        "ĠJesus",
        -10.498637458344543
      ],
      [
        "Ġguarda",
        -10.498706466296568
      ],
      [
        "Ġbanco",
        -10.498873964552962
      ],
      [
        "ĠDepu",
        -10.499357038324812
      ],
      [
        "nsul",
        -10.499810600282828
      ],
      [
        "virtude",
        -10.500378571220482
      ],
      [
        "Resoluc",
        -10.50202312674723
      ],
      [
        "Ġarma",
        -10.50214099574527
      ],
      [
        "Ġjornalista",
        -10.502666161907309
      ],
      [
        "ĠFundac",
        -10.50271819402253
      ],
      [
        "ĠGar",
        -10.50284313891908
      ],
      [
        "Ġsecreta",
        -10.503158442567546
      ],
      [
        "Ġdeciso",
        -10.503249826996624
      ],
      [
        "preocupac",
        -10.50338514234002
      ],
      [
        "fronteira",
        -10.504057810505984
      ],
      [
        "pico",
        -10.50473979698245
      ],
      [
        "Ġtraz",
        -10.504908800476729
      ],
      [
        "Geraldo",
        -10.50512323933076
      ],
      [
        "PSB",
        -10.505362203529364
      ],
      [
        "Ġataque",
        -10.505622524374813
      ],
      [
        "ĠAlexandre",
        -10.505672897525022
      ],
      [
        "ĠMichel",
        -10.506533566566132
      ],
      [
        "Ġdano",
        -10.50664948889244
      ],
      [
        "Ġimagem",
        -10.506791655612224
      ],
      [
        "Ġpedir",
        -10.507598977784893
      ],
      [
        "Ġefetiva",
        -10.507751305125252
      ],
      [
        "decreto",
        -10.507820778994128
      ],
      [
        "ĠRodrigo",
        -10.508152774480935
      ],
      [
        "ĠLisboa",
        -10.508889134315949
      ],
      [
        "ĠArthur",
        -10.509151178269068
      ],
      [
        "ficado",
        -10.510069829370522
      ],
      [
        "Ġganha",
        -10.510428160578812
      ],
      [
        "apresentou",
        -10.51100169448858
      ],
      [
        "Ġconcurso",
        -10.511199140710364
      ],
      [
        "Ġzona",
        -10.511263056777452
      ],
      [
        "Ġunidade",
        -10.511556306936743
      ],
      [
        "imagens",
        -10.512137157979891
      ],
      [
        "nunciou",
        -10.513299043957316
      ],
      [
        "Ġpromover",
        -10.51377398619916
      ],
      [
        "ĠQuer",
        -10.513899834963992
      ],
      [
        "Ġrua",
        -10.514330462985669
      ],
      [
        "privado",
        -10.51447569125059
      ],
      [
        "Ġ59",
        -10.51464828258183
      ],
      [
        "Departamento",
        -10.51549485382769
      ],
      [
        "ĠVai",
        -10.516874829361123
      ],
      [
        "ĠCeara",
        -10.51698096455474
      ],
      [
        "BRA",
        -10.517297377800206
      ],
      [
        "Ġjui",
        -10.517445765214122
      ],
      [
        "trecho",
        -10.51756024154804
      ],
      [
        "ĠMarcos",
        -10.517644947655771
      ],
      [
        "velmente",
        -10.519017951423834
      ],
      [
        "ĠAgrav",
        -10.519699254197528
      ],
      [
        "ĠAge",
        -10.520151285621054
      ],
      [
        "Ġurge",
        -10.520775378073292
      ],
      [
        "PDT",
        -10.521146448988558
      ],
      [
        "Ġopinia",
        -10.521358982351533
      ],
      [
        "ĠLegislativa",
        -10.521497681354717
      ],
      [
        "Ġ47",
        -10.521957661544953
      ],
      [
        "Ìģ!",
        -10.52253903063538
      ],
      [
        "Ġentender",
        -10.52298018022526
      ],
      [
        "nacionais",
        -10.523092729535964
      ],
      [
        "Ġpreso",
        -10.524159975561622
      ],
      [
        "Ī",
        -10.524311575369534
      ],
      [
        "rato",
        -10.524948698320278
      ],
      [
        "Ġretorno",
        -10.52501935940355
      ],
      [
        "Ġqu",
        -10.525451112238404
      ],
      [
        "Ġigreja",
        -10.525501457328453
      ],
      [
        "ĠSobre",
        -10.525726023019775
      ],
      [
        "ĠZa",
        -10.526103280539957
      ],
      [
        "Proposic",
        -10.526466219142817
      ],
      [
        "Ġconceito",
        -10.526632945651016
      ],
      [
        "ĠDESPACH",
        -10.52715474222012
      ],
      [
        "Ġatribui",
        -10.527503655153629
      ],
      [
        "Ġetc",
        -10.528319012499018
      ],
      [
        "ĠAma",
        -10.529030266841708
      ],
      [
        "Ġjustic",
        -10.529070510406564
      ],
      [
        "ĠSera",
        -10.529245225148252
      ],
      [
        "Ġpais",
        -10.529783573732988
      ],
      [
        "RN",
        -10.531285283280669
      ],
      [
        "Ġseguro",
        -10.531633981165868
      ],
      [
        "Ġprovoc",
        -10.531776859656729
      ],
      [
        "Ġface",
        -10.531875653284487
      ],
      [
        "daquele",
        -10.53326997299381
      ],
      [
        "Ġrevela",
        -10.533339469998513
      ],
      [
        "Ġaparece",
        -10.533532422813815
      ],
      [
        "Ġindependente",
        -10.53454099950636
      ],
      [
        "Ï",
        -10.53488372131151
      ],
      [
        "referida",
        -10.535369152122051
      ],
      [
        "Ġfreque",
        -10.535491777516908
      ],
      [
        "ĠEli",
        -10.535929149648002
      ],
      [
        "ĠVista",
        -10.53625032581472
      ],
      [
        "Ġconsegue",
        -10.53625230953687
      ],
      [
        "fiscalizac",
        -10.536275472736056
      ],
      [
        "Ġabsoluta",
        -10.539169801606777
      ],
      [
        "Ġdiminui",
        -10.539900744179128
      ],
      [
        "Ġamanha",
        -10.54023147022316
      ],
      [
        "ĠWal",
        -10.540665545645965
      ],
      [
        "ĠParis",
        -10.5407423393174
      ],
      [
        "Ġconsiderac",
        -10.542862938798336
      ],
      [
        "juros",
        -10.542977415903025
      ],
      [
        "www",
        -10.543652650783802
      ],
      [
        "Ġouvir",
        -10.544840239646271
      ],
      [
        "elli",
        -10.54507903290384
      ],
      [
        "Ġdireto",
        -10.54593603007673
      ],
      [
        "ĠOUTR",
        -10.545948036317698
      ],
      [
        "bus",
        -10.546177560093856
      ],
      [
        "ENTE",
        -10.546601195064518
      ],
      [
        "Ġfeliz",
        -10.546621933706088
      ],
      [
        "Ġcontas",
        -10.546643755099357
      ],
      [
        "substitutivo",
        -10.547221806975603
      ],
      [
        "ĠQuanto",
        -10.547612363360658
      ],
      [
        "Ġqui",
        -10.54819367054546
      ],
      [
        "Ġquebra",
        -10.548882023121797
      ],
      [
        "Moreira",
        -10.550445507977082
      ],
      [
        "Ġambiental",
        -10.551136612381317
      ],
      [
        "ĠAltera",
        -10.552428365768591
      ],
      [
        "TOR",
        -10.553414805635176
      ],
      [
        "ĠRoge",
        -10.553700322273132
      ],
      [
        "Ġmetros",
        -10.55384366746521
      ],
      [
        "Ġcarga",
        -10.553899783520016
      ],
      [
        "ĠMen",
        -10.554513691489154
      ],
      [
        "parceria",
        -10.557371928875876
      ],
      [
        "rez",
        -10.557571073617746
      ],
      [
        "ĠCome",
        -10.55890442763702
      ],
      [
        "Ġarmas",
        -10.559459543735462
      ],
      [
        "PI",
        -10.559796754214126
      ],
      [
        "Ġtorno",
        -10.559876605082984
      ],
      [
        "Ġ75",
        -10.560751310805388
      ],
      [
        "constitucionai",
        -10.560901503413662
      ],
      [
        "Ġleitura",
        -10.561358419454775
      ],
      [
        "Ġbrita",
        -10.561388755027297
      ],
      [
        "quia",
        -10.561423154758302
      ],
      [
        "riedade",
        -10.562550293031824
      ],
      [
        "hin",
        -10.56279353557837
      ],
      [
        "Ġvontade",
        -10.562893785445612
      ],
      [
        "Proposta",
        -10.56326790383838
      ],
      [
        "Ġitem",
        -10.563532617774152
      ],
      [
        "ĠCruz",
        -10.563683731817004
      ],
      [
        "Ġcuidado",
        -10.563944222395298
      ],
      [
        "ĠDan",
        -10.564361678932686
      ],
      [
        "Ġconve",
        -10.565301785854745
      ],
      [
        "Ġ65",
        -10.565386914450386
      ],
      [
        "Ġtrabalhador",
        -10.565405553311424
      ],
      [
        "Ġmante",
        -10.566153237181547
      ],
      [
        "MARA",
        -10.56753426716905
      ],
      [
        "mulo",
        -10.567919863282563
      ],
      [
        "Ġquinta",
        -10.56827199317932
      ],
      [
        "bora",
        -10.568672902599202
      ],
      [
        "Ġdivisa",
        -10.568910615992364
      ],
      [
        "Ġhumana",
        -10.569495678241442
      ],
      [
        "ĠFederac",
        -10.569581066573138
      ],
      [
        "ĠAR",
        -10.569594333708956
      ],
      [
        "ĠNeste",
        -10.570755016899913
      ],
      [
        "ĠSec",
        -10.570782265370989
      ],
      [
        "ĠRei",
        -10.572152333835636
      ],
      [
        "Ġdetermina",
        -10.57262861661131
      ],
      [
        "ĠCamp",
        -10.573166950351824
      ],
      [
        "Ġcorpus",
        -10.57329787973302
      ],
      [
        "Ġdefende",
        -10.573785054125825
      ],
      [
        "ĠPan",
        -10.573835834839649
      ],
      [
        "Ġopc",
        -10.573960157983125
      ],
      [
        "Ġ1993",
        -10.57438007182361
      ],
      [
        "Ġregistrado",
        -10.574380118673623
      ],
      [
        "2020",
        -10.574493135926868
      ],
      [
        "Ġcur",
        -10.575229689319812
      ],
      [
        "Ġjuiz",
        -10.57606854713883
      ],
      [
        "Ġ57",
        -10.57613919622986
      ],
      [
        "gravada",
        -10.576506341467216
      ],
      [
        "tinho",
        -10.577444494531886
      ],
      [
        "Ġcompanhia",
        -10.57792653608246
      ],
      [
        "precisamos",
        -10.577930514393575
      ],
      [
        "contratac",
        -10.578105447186688
      ],
      [
        "Ġdispor",
        -10.578541054247893
      ],
      [
        "Ġmedo",
        -10.578822256475586
      ],
      [
        "Ġvinte",
        -10.580523531459502
      ],
      [
        "etapa",
        -10.581898986943855
      ],
      [
        "pula",
        -10.581903337233694
      ],
      [
        "Ĵ",
        -10.58266284343821
      ],
      [
        "ĠParlamento",
        -10.58277207653433
      ],
      [
        "ĠVila",
        -10.58284357328446
      ],
      [
        "retirada",
        -10.583247025319324
      ],
      [
        "consumo",
        -10.58341682314917
      ],
      [
        "Ġ1994",
        -10.583532503104683
      ],
      [
        "Ġaberto",
        -10.58354563714692
      ],
      [
        "Ġmulti",
        -10.583750530361437
      ],
      [
        "Ġeventos",
        -10.584114927551354
      ],
      [
        "Ġobrigato",
        -10.58416932734774
      ],
      [
        "ĠCur",
        -10.584441489481591
      ],
      [
        "ĠNeto",
        -10.585209435852594
      ],
      [
        "havend",
        -10.58523013499711
      ],
      [
        "agentes",
        -10.586338310156052
      ],
      [
        "Ġinve",
        -10.586493401464924
      ],
      [
        "ĠImpe",
        -10.586495348519056
      ],
      [
        "Ġgosto",
        -10.58676139751748
      ],
      [
        "Ġoferta",
        -10.586939482914476
      ],
      [
        "Barbosa",
        -10.587293206379442
      ],
      [
        "extensa",
        -10.587756199198736
      ],
      [
        "Ġdesen",
        -10.587785125472871
      ],
      [
        "ĠAprecia",
        -10.588719396397147
      ],
      [
        "Ġrespectiva",
        -10.588730475183455
      ],
      [
        "Ġcomemora",
        -10.589767973366534
      ],
      [
        "Ġdemocra",
        -10.59022861712871
      ],
      [
        "ĠNada",
        -10.590563834714462
      ],
      [
        "contexto",
        -10.591677723074964
      ],
      [
        "Ġescolha",
        -10.59197152398393
      ],
      [
        "TER",
        -10.59204408681212
      ],
      [
        "ĠMeio",
        -10.592426869846443
      ],
      [
        "ĠAmazonas",
        -10.593341078354367
      ],
      [
        "Ġpermanece",
        -10.593377028535295
      ],
      [
        "Magalha",
        -10.594044782328895
      ],
      [
        "ĠRegional",
        -10.594420282071118
      ],
      [
        "Ġinternacionais",
        -10.59452066648291
      ],
      [
        "Ġvelho",
        -10.595071348557203
      ],
      [
        "genas",
        -10.595593719561458
      ],
      [
        "Ġprodutor",
        -10.595962326194122
      ],
      [
        "SRA",
        -10.596347905437195
      ],
      [
        "Ġesteja",
        -10.596577256318248
      ],
      [
        "Ġfogo",
        -10.596619905562305
      ],
      [
        "Ġseque",
        -10.59685839216108
      ],
      [
        "desempenho",
        -10.596932941288916
      ],
      [
        "Ġresto",
        -10.597108082940617
      ],
      [
        "Ġ46",
        -10.597310302103349
      ],
      [
        "Ġparti",
        -10.59732979066682
      ],
      [
        "Ġtinham",
        -10.597810744424098
      ],
      [
        "Ġtive",
        -10.598236604464672
      ],
      [
        "ĠNac",
        -10.598341829483926
      ],
      [
        "Ġtenta",
        -10.59839743067711
      ],
      [
        "Ġ51",
        -10.59872412726159
      ],
      [
        "Ġvoz",
        -10.598951037660049
      ],
      [
        "Ġcomando",
        -10.599292504607428
      ],
      [
        "Ġesposa",
        -10.59935335554735
      ],
      [
        "Ġcorac",
        -10.599490028348256
      ],
      [
        "rais",
        -10.599918380420934
      ],
      [
        "Ġposse",
        -10.600056871793406
      ],
      [
        "Ġeleitoral",
        -10.6001869596939
      ],
      [
        "Ġsexta",
        -10.600235329840896
      ],
      [
        "ĠEr",
        -10.60063738548076
      ],
      [
        "ĠJapa",
        -10.60064642666382
      ],
      [
        "ĠSha",
        -10.600658494888483
      ],
      [
        "Ġjogador",
        -10.601271761234855
      ],
      [
        "Ġ02",
        -10.601348777954057
      ],
      [
        "Ġutilizado",
        -10.602240306126074
      ],
      [
        "Jogos",
        -10.60224856235066
      ],
      [
        "http",
        -10.602325605267586
      ],
      [
        "Ġpatrimo",
        -10.60246790946834
      ],
      [
        "Ġfrance",
        -10.602778188151133
      ],
      [
        "Ġcorte",
        -10.603351545333869
      ],
      [
        "Ġatingi",
        -10.60342180659871
      ],
      [
        "ganhou",
        -10.60496597243618
      ],
      [
        "............",
        -10.605397574112544
      ],
      [
        "ncer",
        -10.605413682237474
      ],
      [
        "nicas",
        -10.605739122880047
      ],
      [
        "polis",
        -10.605777381100031
      ],
      [
        "Ġofi",
        -10.60650387419112
      ],
      [
        "Ġjoga",
        -10.606584777887337
      ],
      [
        "Ġnove",
        -10.607324364380894
      ],
      [
        "Ġtentativa",
        -10.60762187395619
      ],
      [
        "atos",
        -10.607912709515071
      ],
      [
        "Ġcap",
        -10.607944780188218
      ],
      [
        "Ġampla",
        -10.608930124604328
      ],
      [
        "reconhecimento",
        -10.608993002445796
      ],
      [
        "apensado",
        -10.609019220611977
      ],
      [
        "Ġdecorre",
        -10.609346277989872
      ],
      [
        "ĠIsto",
        -10.609559824564228
      ],
      [
        "sobretudo",
        -10.609731603848823
      ],
      [
        "Ġconhec",
        -10.61076646385217
      ],
      [
        "ocorreu",
        -10.610883551478684
      ],
      [
        "habea",
        -10.61097813924511
      ],
      [
        "humanos",
        -10.6110493861867
      ],
      [
        "ĠFer",
        -10.612780166069072
      ],
      [
        "ĠParai",
        -10.612863167290694
      ],
      [
        "convidado",
        -10.613713819103427
      ],
      [
        "ĠPRIMEIR",
        -10.614064421091848
      ],
      [
        "apelo",
        -10.61421426298707
      ],
      [
        "equipamentos",
        -10.614404528006691
      ],
      [
        "Ġperder",
        -10.61508468364554
      ],
      [
        "ĠBarros",
        -10.615335970139174
      ],
      [
        "udio",
        -10.615848588898048
      ],
      [
        "ð",
        -10.616029716519568
      ],
      [
        "Ġtransfere",
        -10.616532131477086
      ],
      [
        "ĠCarreira",
        -10.61680935210962
      ],
      [
        "ĠMARCO",
        -10.617499790914252
      ],
      [
        "Ġmassa",
        -10.617983880912895
      ],
      [
        "elementos",
        -10.61812306267804
      ],
      [
        "lite",
        -10.618402592207316
      ],
      [
        "ĠClaro",
        -10.618854673282296
      ],
      [
        "ĠJOA",
        -10.619519281092776
      ],
      [
        "investimentos",
        -10.62052488840614
      ],
      [
        "ĠExterior",
        -10.6209508329845
      ],
      [
        "all",
        -10.62233966669565
      ],
      [
        "metade",
        -10.62422989595562
      ],
      [
        "Ġatua",
        -10.62433259634988
      ],
      [
        "Ġassinatura",
        -10.625377603309012
      ],
      [
        "gicos",
        -10.625393287584746
      ],
      [
        "ric",
        -10.626078088392998
      ],
      [
        "Ġcursos",
        -10.626870492548496
      ],
      [
        "ĠCPI",
        -10.62690858629095
      ],
      [
        "missa",
        -10.627180161072609
      ],
      [
        "ĠFolha",
        -10.62786225051935
      ],
      [
        "Ġderrota",
        -10.627984542289491
      ],
      [
        "ĠFerreira",
        -10.628335018488327
      ],
      [
        "Ġrelator",
        -10.62957519702398
      ],
      [
        "Ġexposic",
        -10.62976517065615
      ],
      [
        "ĠClube",
        -10.629791868443773
      ],
      [
        "Enquanto",
        -10.630022807987787
      ],
      [
        "Ġexterior",
        -10.63004146558314
      ],
      [
        "ĠConstitucional",
        -10.630565468597371
      ],
      [
        "Ġexplorac",
        -10.63106544411346
      ],
      [
        "Ġcontato",
        -10.63229699877871
      ],
      [
        "Ġlivros",
        -10.632337322424974
      ],
      [
        "Ġrever",
        -10.63386318998701
      ],
      [
        "Ġviu",
        -10.633984114486262
      ],
      [
        "Ġentende",
        -10.63522830054473
      ],
      [
        "Ġcultural",
        -10.635373529913284
      ],
      [
        "Ġaumenta",
        -10.635770188233428
      ],
      [
        "americano",
        -10.635983956906108
      ],
      [
        "ĠGer",
        -10.636683260382286
      ],
      [
        "finalidade",
        -10.636943377687537
      ],
      [
        "bia",
        -10.63781369074549
      ],
      [
        "PB",
        -10.637987580312313
      ],
      [
        "Ġvencedor",
        -10.638334785903815
      ],
      [
        "requer",
        -10.638405932034912
      ],
      [
        "ĠIN",
        -10.638977615680274
      ],
      [
        "ĠVito",
        -10.63901749799146
      ],
      [
        "Ġincide",
        -10.639027904865005
      ],
      [
        "Ġbebe",
        -10.639122668530993
      ],
      [
        "ADA",
        -10.6394581782649
      ],
      [
        "Ġonda",
        -10.63957175587178
      ],
      [
        "Ġprima",
        -10.63980602804607
      ],
      [
        "ĠVirgi",
        -10.639868603312136
      ],
      [
        "conclusa",
        -10.63995890193594
      ],
      [
        "Ġregistrar",
        -10.64029906541402
      ],
      [
        "Ġterceira",
        -10.640380681975849
      ],
      [
        "gin",
        -10.64041283894213
      ],
      [
        "micas",
        -10.641169483974789
      ],
      [
        "Ġesco",
        -10.641681257169692
      ],
      [
        "Outra",
        -10.642744244193231
      ],
      [
        "hei",
        -10.64314361324312
      ],
      [
        "ĠMello",
        -10.643410948821726
      ],
      [
        "ESTADO",
        -10.64343733880337
      ],
      [
        "Ġdanc",
        -10.64447494241922
      ],
      [
        "funcionamento",
        -10.644707024782996
      ],
      [
        "Ġdiploma",
        -10.6452018316107
      ],
      [
        "Ġselec",
        -10.64546484773603
      ],
      [
        "ĠEspanha",
        -10.645818042202546
      ],
      [
        "Ġauxi",
        -10.645878541898318
      ],
      [
        "Ġinteiro",
        -10.646280219455583
      ],
      [
        "vendo",
        -10.646414250323286
      ],
      [
        "Ġpersonagem",
        -10.646532505923984
      ],
      [
        "Ġsabia",
        -10.646716892805864
      ],
      [
        "ĠCer",
        -10.647549026730776
      ],
      [
        "tio",
        -10.647728240542548
      ],
      [
        "Ġveja",
        -10.647883433746753
      ],
      [
        "Ġmorreu",
        -10.648153232031468
      ],
      [
        "Ġproduzir",
        -10.648192440206625
      ],
      [
        "ĠExe",
        -10.648586205536027
      ],
      [
        "Ġquiser",
        -10.648937809110206
      ],
      [
        "Embora",
        -10.649660697781956
      ],
      [
        "Ġreferente",
        -10.649944485240278
      ],
      [
        "Ġprefeito",
        -10.650764680833952
      ],
      [
        "mantid",
        -10.651175147644054
      ],
      [
        "sicos",
        -10.651932087006706
      ],
      [
        "Ġtende",
        -10.653301966911757
      ],
      [
        "policiais",
        -10.653728866290434
      ],
      [
        "Ġpermanente",
        -10.654493880147797
      ],
      [
        "Ġinu",
        -10.6548005787457
      ],
      [
        "trinta",
        -10.65480980128144
      ],
      [
        "cadas",
        -10.655004666642146
      ],
      [
        "ĠVida",
        -10.655295186230829
      ],
      [
        "geralmente",
        -10.656579710935953
      ],
      [
        "Ġdeterminado",
        -10.656682419416986
      ],
      [
        "2002",
        -10.657513840448452
      ],
      [
        "Ġcampea",
        -10.658102955700883
      ],
      [
        "Ġadministrativo",
        -10.658431390792511
      ],
      [
        "Ġdestaca",
        -10.659304294765375
      ],
      [
        "suspensa",
        -10.65950286747296
      ],
      [
        "Ġcrista",
        -10.659583938182204
      ],
      [
        "Ġadolescente",
        -10.660181276767933
      ],
      [
        "Ġcima",
        -10.660318325919276
      ],
      [
        "ĠYork",
        -10.66044178956309
      ],
      [
        "ĠMartins",
        -10.660687030699574
      ],
      [
        "ĠNota",
        -10.661664210042682
      ],
      [
        "ĠMc",
        -10.6622498316752
      ],
      [
        "Assunto",
        -10.662333866828252
      ],
      [
        "Ġatende",
        -10.662389563866812
      ],
      [
        "ĠMuseu",
        -10.662419168342868
      ],
      [
        "lico",
        -10.662472984312904
      ],
      [
        "ĠMelhor",
        -10.663778576945845
      ],
      [
        "Sarney",
        -10.664461989566682
      ],
      [
        "Ġresulta",
        -10.664632952389644
      ],
      [
        "ĠParte",
        -10.66475387951798
      ],
      [
        "Ġservi",
        -10.664960551530571
      ],
      [
        "Ġaquilo",
        -10.665070202603228
      ],
      [
        "fizeram",
        -10.665196013712483
      ],
      [
        "presidente",
        -10.66566380725742
      ],
      [
        "Couto",
        -10.666038169968168
      ],
      [
        "Ġpensar",
        -10.666199362918745
      ],
      [
        "Bibliografia",
        -10.667138171635909
      ],
      [
        "Ġamplia",
        -10.667464772625094
      ],
      [
        "ficos",
        -10.667471794546344
      ],
      [
        "STF",
        -10.667786874677873
      ],
      [
        "Ġ1992",
        -10.668745517876289
      ],
      [
        "Ġdomi",
        -10.668881303895477
      ],
      [
        "Ġnot",
        -10.669140225049746
      ],
      [
        "Ġprofessores",
        -10.66949874609535
      ],
      [
        "Pernambuco",
        -10.66960120895555
      ],
      [
        "ĠConstitui",
        -10.6697185377496
      ],
      [
        "erra",
        -10.66972575868192
      ],
      [
        "ĠAntes",
        -10.671627974435223
      ],
      [
        "ĠFac",
        -10.671793964488083
      ],
      [
        "Ġpressa",
        -10.671814224067033
      ],
      [
        "Ġmostrar",
        -10.67183366706369
      ],
      [
        "Ġintenc",
        -10.671907451169591
      ],
      [
        "Ġpaz",
        -10.672067756367287
      ],
      [
        "Ġ1913",
        -10.672605584789634
      ],
      [
        "dig",
        -10.672787722049678
      ],
      [
        "estudantes",
        -10.67279905659947
      ],
      [
        "Ġconsumidor",
        -10.672978057632884
      ],
      [
        "Ġenorme",
        -10.674024118910284
      ],
      [
        "ĠAgricultura",
        -10.674550489326258
      ],
      [
        "Ġcorrente",
        -10.674583031525962
      ],
      [
        "ĠMonte",
        -10.67538357367326
      ],
      [
        "terminou",
        -10.67603572151111
      ],
      [
        "ĠEdita",
        -10.676398960407225
      ],
      [
        "Ġestac",
        -10.67676843608446
      ],
      [
        "ĠPiaui",
        -10.6771311858722
      ],
      [
        "Ġfamiliar",
        -10.677231155843309
      ],
      [
        "Ġclara",
        -10.678121455755024
      ],
      [
        "·",
        -10.67856743962973
      ],
      [
        "ĠEsper",
        -10.67865068512575
      ],
      [
        "Ġparcela",
        -10.679133796928824
      ],
      [
        "Ġlonga",
        -10.679192663170388
      ],
      [
        "Vieira",
        -10.679457065706783
      ],
      [
        "Ġdeseja",
        -10.679609887812648
      ],
      [
        "ĠReuni",
        -10.680279077143656
      ],
      [
        "Ġinterpretac",
        -10.68085677808777
      ],
      [
        "vit",
        -10.681757294288207
      ],
      [
        "nanimidade",
        -10.681929402893314
      ],
      [
        "Ġobservado",
        -10.682081930651451
      ],
      [
        "ĠYa",
        -10.683006412903648
      ],
      [
        "Ġcompetente",
        -10.683066090515544
      ],
      [
        "Estatuto",
        -10.683363541345178
      ],
      [
        "Ġjeito",
        -10.683514066852224
      ],
      [
        "Ġ200",
        -10.684387982665465
      ],
      [
        "ĠNovo",
        -10.684556228872584
      ],
      [
        "companheiro",
        -10.685775590363813
      ],
      [
        "Ġvolume",
        -10.68614693105878
      ],
      [
        "Ġviolac",
        -10.686965701878364
      ],
      [
        "versa",
        -10.686980642589631
      ],
      [
        "ĠParece",
        -10.687481696338155
      ],
      [
        "usou",
        -10.68787622222632
      ],
      [
        "Ġsenador",
        -10.688410760674294
      ],
      [
        "Ġmilha",
        -10.688496567414084
      ],
      [
        "ĠCD",
        -10.688839886368996
      ],
      [
        "Ġplanta",
        -10.689096239632848
      ],
      [
        "Ġinferior",
        -10.68944773793858
      ],
      [
        "tava",
        -10.689468134853604
      ],
      [
        "Ġmensagem",
        -10.689925975556696
      ],
      [
        "tamento",
        -10.68993743067105
      ],
      [
        "Ġanteriores",
        -10.690505411674716
      ],
      [
        "Ġilha",
        -10.690889223924806
      ],
      [
        "Ġbatalha",
        -10.690945219683414
      ],
      [
        "Ġinicia",
        -10.691059126939276
      ],
      [
        "Ġimpe",
        -10.69132593709096
      ],
      [
        "Ġtivesse",
        -10.691630373712863
      ],
      [
        "Ġofens",
        -10.691706302580346
      ],
      [
        "ĠMachado",
        -10.691741783357628
      ],
      [
        "Ġfrequ",
        -10.691910720739603
      ],
      [
        "usando",
        -10.692351704321217
      ],
      [
        "mida",
        -10.692976428519785
      ],
      [
        "todo",
        -10.6933625617421
      ],
      [
        "Ġconvenc",
        -10.693501999246427
      ],
      [
        "Ġcinema",
        -10.6935151443031
      ],
      [
        "Ġrepresentac",
        -10.693590053484607
      ],
      [
        "ĠPare",
        -10.695411479512757
      ],
      [
        "Ġindividual",
        -10.695807429248406
      ],
      [
        "recebido",
        -10.696235162864092
      ],
      [
        "PLS",
        -10.696742185386867
      ],
      [
        "emendas",
        -10.69696934643408
      ],
      [
        "ncipe",
        -10.697384959078535
      ],
      [
        "aposentadoria",
        -10.697688268478167
      ],
      [
        "ĠCultural",
        -10.697877087371872
      ],
      [
        "âĢĵâĢĵâĢĵâĢĵâĢĵ",
        -10.698023731437928
      ],
      [
        "Ġindivi",
        -10.698151391848704
      ],
      [
        "Ġintegral",
        -10.698271631930558
      ],
      [
        "Ġaberta",
        -10.698724453580974
      ],
      [
        "ĠPala",
        -10.699478019462775
      ],
      [
        "Ġrealiza",
        -10.699808382111543
      ],
      [
        "Ġaceita",
        -10.700129727966656
      ],
      [
        "Ġpromoc",
        -10.700714206623443
      ],
      [
        "Ġage",
        -10.701341782915156
      ],
      [
        "Ġindo",
        -10.702330326178632
      ],
      [
        "ĠWilliam",
        -10.70262983378535
      ],
      [
        "produtores",
        -10.703182423100944
      ],
      [
        "Ġcaixa",
        -10.703763826758063
      ],
      [
        "Ġolhos",
        -10.70384834022791
      ],
      [
        "Ġpassando",
        -10.70395680764208
      ],
      [
        "Ġaltura",
        -10.704488424031917
      ],
      [
        "HC",
        -10.705093430049804
      ],
      [
        "desafio",
        -10.70519529429463
      ],
      [
        "timas",
        -10.70709097097588
      ],
      [
        "Ġclima",
        -10.70809877534397
      ],
      [
        "hon",
        -10.708282997966924
      ],
      [
        "Candido",
        -10.708719159514926
      ],
      [
        "Ġcircunsta",
        -10.709074617709597
      ],
      [
        "ling",
        -10.710884701945355
      ],
      [
        "Ġacontecer",
        -10.711427778863788
      ],
      [
        "aproximadamente",
        -10.711796816203634
      ],
      [
        "MAN",
        -10.711918091746984
      ],
      [
        "mil",
        -10.712116520033108
      ],
      [
        "Ġsentenc",
        -10.712196440363172
      ],
      [
        "casamento",
        -10.71292797928592
      ],
      [
        "Ġtirar",
        -10.713350912307382
      ],
      [
        "posic",
        -10.71342714360327
      ],
      [
        "Ġtamanho",
        -10.714624802074743
      ],
      [
        "postos",
        -10.714914608093885
      ],
      [
        "ĠCapita",
        -10.715753788974624
      ],
      [
        "Ġparticipou",
        -10.715780420774966
      ],
      [
        "quina",
        -10.716783369365093
      ],
      [
        "aspectos",
        -10.71740516149152
      ],
      [
        "Mesmo",
        -10.717879233180591
      ],
      [
        "Ġganhar",
[...]
