{
  "version": "1.0",
  "truncation": {
    "direction": "Right",
    "max_length": 1024,
    "strategy": "LongestFirst",
    "stride": 0
  },
  "padding": null,
  "added_tokens": [
    {
      "id": 0,
      "content": "[PAD]",
      "single_word": false,
      "lstrip": false,
      "rstrip": false,
      "normalized": false,
      "special": true
    },
    {
      "id": 1,
      "content": "[SEP]",
      "single_word": false,
      "lstrip": false,
      "rstrip": false,
      "normalized": false,
      "special": true
    },
    {
      "id": 2,
      "content": "[EOS]",
      "single_word": false,
      "lstrip": false,
      "rstrip": false,
      "normalized": false,
      "special": true
    },
    {
      "id": 3,
      "content": "[UNK]",
      "single_word": false,
      "lstrip": false,
      "rstrip": false,
      "normalized": false,
      "special": true
    }
  ],
  "normalizer": {
    "type": "Sequence",
    "normalizers": [
      {
        "type": "Strip",
        "strip_left": true,
        "strip_right": true
      },
      {
        "type": "NFKC"
      }
    ]
  },
  "pre_tokenizer": {
    "type": "ByteLevel",
    "add_prefix_space": true,
    "trim_offsets": true,
    "use_regex": true
  },
  "post_processor": {
    "type": "Sequence",
    "processors": [
      {
        "type": "ByteLevel",
        "add_prefix_space": true,
        "trim_offsets": true,
        "use_regex": true
      },
      {
        "type": "TemplateProcessing",
        "single": [
          {
            "Sequence": {
              "id": "A",
              "type_id": 0
            }
          },
          {
            "SpecialToken": {
              "id": "[EOS]",
              "type_id": 0
            }
          }
        ],
        "pair": [
          {
            "Sequence": {
              "id": "A",
              "type_id": 0
            }
          },
          {
            "SpecialToken": {
              "id": "[SEP]",
              "type_id": 0
            }
          },
          {
            "Sequence": {
              "id": "B",
              "type_id": 0
            }
          },
          {
            "SpecialToken": {
              "id": "[EOS]",
              "type_id": 0
            }
          }
        ],
        "special_tokens": {
          "[EOS]": {
            "id": "[EOS]",
            "ids": [
              2
            ],
            "tokens": [
              "[EOS]"
            ]
          },
          "[SEP]": {
            "id": "[SEP]",
            "ids": [
              1
            ],
            "tokens": [
              "[SEP]"
            ]
          }
        }
      }
    ]
  },
  "decoder": {
    "type": "ByteLevel",
    "add_prefix_space": true,
    "trim_offsets": true,
    "use_regex": true
  },
  "model": {
    "type": "Unigram",
    "unk_id": 3,
    "vocab": [
      [
        "[PAD]",
        0.0
      ],
      [
        "[SEP]",
        0.0
      ],
      [
        "[EOS]",
        0.0
      ],
      [
        "[UNK]",
        0.0
      ],
      [
        "Ġ",
        -1.851427420746731
      ],
      [
        "s",
        -3.2479850925979683
      ],
      [
        "a",
        -3.287463944207424
      ],
      [
        ",",
        -3.31628696790078
      ],
      [
        "o",
        -3.3568771834494555
      ],
      [
        "e",
        -3.505437086257558
      ],
      [
        ".",
        -3.537469433967164
      ],
      [
        "Ġde",
        -3.6647294702389246
      ],
      [
        "r",
        -4.522233494888674
      ],
      [
        "-",
        -4.611355251727748
      ],
      [
        "u",
        -4.61216264287123
      ],
      [
        "i",
        -4.628007198567783
      ],
      [
        "Ġdo",
        -4.631788769489255
      ],
      [
        "Ġque",
        -4.648564015560989
      ],
      [
        "Ġda",
        -4.817045292888665
      ],
      [
        "m",
        -4.853513296085524
      ],
      [
        "n",
        -4.917873303969351
      ],
      [
        "d",
        -5.085867465995566
      ],
      [
        "t",
        -5.167175429861057
      ],
      [
        "l",
        -5.173376435968979
      ],
      [
        "Ġem",
        -5.221059479822632
      ],
      [
        "A",
        -5.273452283242015
      ],
      [
        "c",
        -5.2793180287428925
      ],
      [
        "\"",
        -5.285109448789967
      ],
      [
        ")",
        -5.34086532586311
      ],
      [
        "(",
        -5.340975069742804
      ],
      [
        "Ġno",
        -5.355227182659412
      ],
      [
        "O",
        -5.361355293004198
      ],
      [
        "Ġpara",
        -5.455573826569431
      ],
      [
        "Ġcom",
        -5.566942788927864
      ],
      [
        "p",
        -5.6206385230690366
      ],
      [
        ":",
        -5.777685371256418
      ],
      [
        "Ġum",
        -5.817221307793199
      ],
      [
        "ĠâĢĵ",
        -5.820238604308058
      ],
      [
        "/",
        -5.821589874815462
      ],
      [
        "ĠÃ©",
        -5.829710624564036
      ],
      [
        "Ġna",
        -5.839427422114804
      ],
      [
        "ĠnÃ£o",
        -5.911119897651037
      ],
      [
        "S",
        -5.913540001628062
      ],
      [
        "g",
        -5.967366489389237
      ],
      [
        "Ġuma",
        -6.025323780034736
      ],
      [
        "b",
        -6.038216638263803
      ],
      [
        "E",
        -6.0442495913994385
      ],
      [
        "Ġpor",
        -6.059430773761486
      ],
      [
        "1",
        -6.264099341731827
      ],
      [
        "v",
        -6.3153656058463365
      ],
      [
        "I",
        -6.374222772149237
      ],
      [
        "Ġdos",
        -6.392925443341859
      ],
      [
        "P",
        -6.39938671257813
      ],
      [
        "f",
        -6.414563146964493
      ],
      [
        "2",
        -6.414765417149905
      ],
      [
        "ĠÃł",
        -6.4208753000006435
      ],
      [
        "R",
        -6.421948194548152
      ],
      [
        "?",
        -6.423396352322996
      ],
      [
        "C",
        -6.4270290890624775
      ],
      [
        "Ã§Ã£o",
        -6.430867633538835
      ],
      [
        "Ġcomo",
        -6.443648661310039
      ],
      [
        "3",
        -6.453571276039465
      ],
      [
        "h",
        -6.466792112231651
      ],
      [
        "7",
        -6.515209787522323
      ],
      [
        "4",
        -6.527551493805614
      ],
      [
        "6",
        -6.535403197635603
      ],
      [
        "ndo",
        -6.538635417388475
      ],
      [
        "5",
        -6.545586349331991
      ],
      [
        "Ġfoi",
        -6.569200506935012
      ],
      [
        "!",
        -6.629472516940098
      ],
      [
        "Ġmais",
        -6.637301384688701
      ],
      [
        "8",
        -6.668073930385036
      ],
      [
        "de",
        -6.6750176152684535
      ],
      [
        "y",
        -6.736364100447007
      ],
      [
        "T",
        -6.757884865578145
      ],
      [
        ";",
        -6.76573163246335
      ],
      [
        "Ġpela",
        -6.784070150233244
      ],
      [
        "ĠDE",
        -6.799948549852926
      ],
      [
        "M",
        -6.837266357385792
      ],
      [
        "ĠNo",
        -6.842699958343854
      ],
      [
        "z",
        -6.852080480219744
      ],
      [
        "Ġpelo",
        -6.852719298146949
      ],
      [
        "9",
        -6.870213608419315
      ],
      [
        "Ġsua",
        -6.871115311897684
      ],
      [
        "D",
        -6.906631557292183
      ],
      [
        "L",
        -6.913929407465629
      ],
      [
        "V",
        -6.923440753649112
      ],
      [
        "Ġser",
        -6.94355225671972
      ],
      [
        "N",
        -6.94474463316204
      ],
      [
        "ĠSr",
        -6.946532757302002
      ],
      [
        "................",
        -6.974435262292726
      ],
      [
        "Ġdas",
        -6.989585798532977
      ],
      [
        "in",
        -7.0086540229397745
      ],
      [
        "Ġsobre",
        -7.01977904878367
      ],
      [
        "...",
        -7.029125325475036
      ],
      [
        "Ã¡",
        -7.078666593147409
      ],
      [
        "Ã£o",
        -7.102446321730115
      ],
      [
        "Ġseu",
        -7.103021210986292
      ],
      [
        "Ã©",
        -7.104395597926636
      ],
      [
        "B",
        -7.104745522780137
      ],
      [
        "ĠâĢľ",
        -7.120747891893487
      ],
      [
        "k",
        -7.121371700515661
      ],
      [
        "F",
        -7.124646408833964
      ],
      [
        "mente",
        -7.148718543911899
      ],
      [
        "mos",
        -7.1598033015556215
      ],
      [
        "U",
        -7.170726102507972
      ],
      [
        "ĠestÃ¡",
        -7.1754195775501834
      ],
      [
        "ĠPresidente",
        -7.179892217359878
      ],
      [
        "dos",
        -7.189565711336753
      ],
      [
        "ĠNÃ£o",
        -7.206379408716792
      ],
      [
        "ĠEm",
        -7.209193925413871
      ],
      [
        "ĠtambÃ©m",
        -7.216542507375509
      ],
      [
        "ĠLei",
        -7.237861147049527
      ],
      [
        "li",
        -7.258451271409971
      ],
      [
        "ÃŃ",
        -7.306796859044628
      ],
      [
        "ĠDeputado",
        -7.317726510897625
      ],
      [
        "Ġtem",
        -7.319149736314568
      ],
      [
        "Ġmas",
        -7.323877688154063
      ],
      [
        "Ġ19",
        -7.333054355328381
      ],
      [
        "Ġnos",
        -7.342349764087874
      ],
      [
        "Ġart",
        -7.354084624073872
      ],
      [
        "G",
        -7.376381221198823
      ],
      [
        "Ġele",
        -7.433150591491692
      ],
      [
        "ram",
        -7.433843525514822
      ],
      [
        "ĠSR",
        -7.450558570132143
      ],
      [
        "Ã§Ãµes",
        -7.471476173030616
      ],
      [
        "ĠFederal",
        -7.479102795141621
      ],
      [
        "das",
        -7.481805332409699
      ],
      [
        "ĠsÃ£o",
        -7.488202334561725
      ],
      [
        "ĠÃī",
        -7.4895243098732625
      ],
      [
        "Ġisso",
        -7.493775013644841
      ],
      [
        "x",
        -7.522318826247064
      ],
      [
        "Ġanos",
        -7.525430581501808
      ],
      [
        "ĠBrasil",
        -7.5307574602747
      ],
      [
        "ĠEstado",
        -7.531218250209676
      ],
      [
        "Ġin",
        -7.536004090559153
      ],
      [
        "idade",
        -7.541863020446362
      ],
      [
        "ĠSenador",
        -7.54501660959976
      ],
      [
        "que",
        -7.568715274445021
      ],
      [
        "ĠEu",
        -7.577892691543282
      ],
      [
        "Ġentre",
        -7.583373837671619
      ],
      [
        "ĠvocÃª",
        -7.596856976961014
      ],
      [
        "ter",
        -7.597130158878027
      ],
      [
        "J",
        -7.6039276508191165
      ],
      [
        "Ġmuito",
        -7.613518316650573
      ],
      [
        "Ġcon",
        -7.624802803715399
      ],
      [
        "Ã³",
        -7.642253003167688
      ],
      [
        "era",
        -7.668855679320187
      ],
      [
        "ĠatÃ©",
        -7.67113048303794
      ],
      [
        "ĠjÃ¡",
        -7.677264245255614
      ],
      [
        "%",
        -7.686783714925404
      ],
      [
        "H",
        -7.708786171299273
      ],
      [
        "ĠComissÃ£o",
        -7.733221697532143
      ],
      [
        "ĠDe",
        -7.743740486661078
      ],
      [
        "j",
        -7.7445816623847
      ],
      [
        "Ġbem",
        -7.755082836339611
      ],
      [
        "Ġco",
        -7.757091328675649
      ],
      [
        "Ġforma",
        -7.762090850103981
      ],
      [
        "min",
        -7.765439359310861
      ],
      [
        "Ġpode",
        -7.77874783208434
      ],
      [
        "ĠSe",
        -7.79938435786214
      ],
      [
        "vi",
        -7.801767625726392
      ],
      [
        "w",
        -7.803296206032684
      ],
      [
        "ria",
        -7.807322274484132
      ],
      [
        "Ġquando",
        -7.812394206834343
      ],
      [
        "ela",
        -7.813868949873392
      ],
      [
        "um",
        -7.816657578968213
      ],
      [
        "ĠRe",
        -7.832097539437319
      ],
      [
        "Ġsem",
        -7.833644008845706
      ],
      [
        "aÃ§Ã£o",
        -7.835585687301396
      ],
      [
        "Ġaqui",
        -7.8384064836032366
      ],
      [
        "Ġ10",
        -7.8415175535501085
      ],
      [
        "ĠNa",
        -7.844260453888268
      ],
      [
        "Ġmesmo",
        -7.84516706609879
      ],
      [
        "ĠNacional",
        -7.855715982232276
      ],
      [
        "Ġpro",
        -7.858676146391655
      ],
      [
        "ver",
        -7.863086963501653
      ],
      [
        "ĠPor",
        -7.867086592894838
      ],
      [
        "0",
        -7.886416210555932
      ],
      [
        "ĠÂ§",
        -7.896199070232068
      ],
      [
        "Ġtodos",
        -7.902658930678305
      ],
      [
        "Ġdia",
        -7.908004386509585
      ],
      [
        "Ġainda",
        -7.917713430769675
      ],
      [
        "ĠSÃ£o",
        -7.923467912386387
      ],
      [
        "Ġex",
        -7.9261376338087395
      ],
      [
        "Ġ18",
        -7.93317482099914
      ],
      [
        "Ġter",
        -7.958265024554839
      ],
      [
        "res",
        -7.964747817686275
      ],
      [
        "Ġseus",
        -7.966572484779439
      ],
      [
        "ĠOs",
        -7.9698710603974785
      ],
      [
        "âĢĿ.",
        -7.974808755042162
      ],
      [
        "Ġcidade",
        -7.978204441241585
      ],
      [
        "Ġcontra",
        -7.979031115124474
      ],
      [
        "cio",
        -7.980349865400834
      ],
      [
        "br",
        -7.985120372591837
      ],
      [
        "Ġparte",
        -7.986783120486807
      ],
      [
        "nte",
        -7.993687568686594
      ],
      [
        "Ġforam",
        -8.002596988841725
      ],
      [
        "Ġesta",
        -8.007889984734854
      ],
      [
        "Ġfazer",
        -8.011090407222795
      ],
      [
        "ĠPaulo",
        -8.01825495543001
      ],
      [
        "Ġcaso",
        -8.022363035550198
      ],
      [
        "ĠhÃ¡",
        -8.023168230876989
      ],
      [
        "Ġano",
        -8.038665642819035
      ],
      [
        "tra",
        -8.040121694212111
      ],
      [
        "ĠPL",
        -8.059685049329614
      ],
      [
        "ĠCom",
        -8.060251742568488
      ],
      [
        "ch",
        -8.080786803813517
      ],
      [
        "ĠCon",
        -8.092028945356024
      ],
      [
        "Ġtempo",
        -8.09271304335054
      ],
      [
        "Ġpre",
        -8.093140560478602
      ],
      [
        "fi",
        -8.102845158798628
      ],
      [
        "Ġesse",
        -8.104546018178677
      ],
      [
        "Ġessa",
        -8.105203913020839
      ],
      [
        "PRESIDENTE",
        -8.106623469317457
      ],
      [
        "Ġseja",
        -8.110904786343708
      ],
      [
        "PROJETO",
        -8.112976708109738
      ],
      [
        "tor",
        -8.116823677344026
      ],
      [
        "Ġvai",
        -8.118438315446767
      ],
      [
        "Ġmeu",
        -8.123227505644998
      ],
      [
        "ĠLEI",
        -8.131876104643524
      ],
      [
        "Ġporque",
        -8.141917270159436
      ],
      [
        "ĠsÃ³",
        -8.144144288698532
      ],
      [
        "ĠÃłs",
        -8.148990001189027
      ],
      [
        "ĠEle",
        -8.15062431740117
      ],
      [
        "ĠMas",
        -8.155745737373653
      ],
      [
        "Ġprimeiro",
        -8.163820741900432
      ],
      [
        "cia",
        -8.164983690415363
      ],
      [
        "Ãª",
        -8.169562764946777
      ],
      [
        "ĠDeputados",
        -8.174326605552825
      ],
      [
        "ĠAs",
        -8.18556689390838
      ],
      [
        "ita",
        -8.188148181195466
      ],
      [
        "RELATOR",
        -8.193755173673564
      ],
      [
        "ĠGoverno",
        -8.196991336566464
      ],
      [
        "iz",
        -8.19866918246353
      ],
      [
        "per",
        -8.199612501493748
      ],
      [
        "ĠMinistro",
        -8.201799856790565
      ],
      [
        "âĢĿ",
        -8.212111329354823
      ],
      [
        "ĠConstituiÃ§Ã£o",
        -8.21229640288856
      ],
      [
        "Ġonde",
        -8.212646046373958
      ],
      [
        "and",
        -8.213058852182398
      ],
      [
        "ĠVocÃª",
        -8.216026301687817
      ],
      [
        "00",
        -8.21613686568443
      ],
      [
        "Ġ12",
        -8.220856958754332
      ],
      [
        "'",
        -8.224829247016194
      ],
      [
        "Ġpessoas",
        -8.22595770457387
      ],
      [
        "Ġnas",
        -8.226776033261846
      ],
      [
        "_",
        -8.226809498881446
      ],
      [
        "Ġvez",
        -8.232116336865982
      ],
      [
        "Ġgrande",
        -8.23537987787428
      ],
      [
        "ES",
        -8.237644107766878
      ],
      [
        "Ġartigo",
        -8.239339541554145
      ],
      [
        "Ġoutros",
        -8.245262090821445
      ],
      [
        "19",
        -8.247059607213224
      ],
      [
        "ĠSenhor",
        -8.247452725985923
      ],
      [
        "tar",
        -8.251086904547968
      ],
      [
        "ando",
        -8.255269325275439
      ],
      [
        "Ġtrabalho",
        -8.256019094961012
      ],
      [
        "Ġ11",
        -8.256308938428903
      ],
      [
        "ĠestÃ£o",
        -8.25976231474086
      ],
      [
        "Ġapenas",
        -8.261600923605052
      ],
      [
        "Ġoutras",
        -8.271930564934209
      ],
      [
        "ĠCÃ¢mara",
        -8.274502002863224
      ],
      [
        "ĠnÃ³s",
        -8.277165002836757
      ],
      [
        "mento",
        -8.279638433193696
      ],
      [
        "ĠMo",
        -8.27994623549319
      ],
      [
        "ĠMa",
        -8.283992340600982
      ],
      [
        "Ġsendo",
        -8.286027011307368
      ],
      [
        "ĠAl",
        -8.288657158926883
      ],
      [
        "Ãº",
        -8.290885125275146
      ],
      [
        "ĠDo",
        -8.29262938688601
      ],
      [
        "ĠMar",
        -8.294649489555223
      ],
      [
        "Ġdois",
        -8.295842823680227
      ],
      [
        "antes",
        -8.299643760198782
      ],
      [
        "Ġ15",
        -8.299694711999265
      ],
      [
        "ĠArt",
        -8.299942490802568
      ],
      [
        "ĠRio",
        -8.308166744068618
      ],
      [
        "Ġlei",
        -8.311863225300348
      ],
      [
        "aÃ§Ãµes",
        -8.314990364129617
      ],
      [
        "Ġordem",
        -8.316844558123512
      ],
      [
        "Ġnosso",
        -8.319085458231301
      ],
      [
        "ĠIn",
        -8.323970069811574
      ],
      [
        "Ġeste",
        -8.324701250131891
      ],
      [
        "ĠProjeto",
        -8.326731192019578
      ],
      [
        "est",
        -8.327757476300958
      ],
      [
        "Z",
        -8.329730334444035
      ],
      [
        "rem",
        -8.329838523654296
      ],
      [
        "ĠII",
        -8.331501848827175
      ],
      [
        "ista",
        -8.333663047261505
      ],
      [
        "Ġca",
        -8.336786392907083
      ],
      [
        "10",
        -8.343938529913393
      ],
      [
        "Ġminha",
        -8.351608083397917
      ],
      [
        "Ġnome",
        -8.35202886054648
      ],
      [
        "Ġsuas",
        -8.355930066011956
      ],
      [
        "Ġvi",
        -8.35624955322636
      ],
      [
        "ĠCasa",
        -8.357920760426497
      ],
      [
        "ina",
        -8.360934116767185
      ],
      [
        "Ġmaior",
        -8.361079384389027
      ],
      [
        "Ġhoje",
        -8.361371117713242
      ],
      [
        "qui",
        -8.362608001846622
      ],
      [
        "ĠserÃ¡",
        -8.369122993166556
      ],
      [
        "tiva",
        -8.369305414631798
      ],
      [
        "Ġtermos",
        -8.370855481650217
      ],
      [
        "Ġqual",
        -8.377969276347468
      ],
      [
        "Ġprocesso",
        -8.37830668075929
      ],
      [
        "ĠReferÃªncias",
        -8.379717816726387
      ],
      [
        "Ġmeio",
        -8.382537623473759
      ],
      [
        "ĠLi",
        -8.384695716571205
      ],
      [
        "Ġassim",
        -8.386376628371847
      ],
      [
        "Ġprojeto",
        -8.389690952411637
      ],
      [
        "ĠPara",
        -8.38998555197997
      ],
      [
        "ja",
        -8.39493517758129
      ],
      [
        "Ġ16",
        -8.400162952083207
      ],
      [
        "Ġte",
        -8.40297727993038
      ],
      [
        "PSDB",
        -8.407017309622972
      ],
      [
        "ĠDO",
        -8.407108434951054
      ],
      [
        "ĠserviÃ§o",
        -8.408056675352539
      ],
      [
        "Ġdesta",
        -8.409456149467218
      ],
      [
        "ente",
        -8.412467360738562
      ],
      [
        "Ġ17",
        -8.418724298517436
      ],
      [
        "Ãµes",
        -8.420816132472968
      ],
      [
        "ĠSenado",
        -8.42344628642606
      ],
      [
        "Ġvida",
        -8.43036735322954
      ],
      [
        "ica",
        -8.431310722914942
      ],
      [
        "Ġ13",
        -8.433070113644183
      ],
      [
        "Ġ14",
        -8.434208450053372
      ],
      [
        "Ãªncia",
        -8.4373013951847
      ],
      [
        "Ġdireito",
        -8.437406845425958
      ],
      [
        "Ġ20",
        -8.440963981278761
      ],
      [
        "car",
        -8.447309607219404
      ],
      [
        "11",
        -8.451849542883444
      ],
      [
        "tos",
        -8.45198883260484
      ],
      [
        "Ġprimeira",
        -8.45409666594674
      ],
      [
        "ĠMe",
        -8.459712422603857
      ],
      [
        "$",
        -8.461119084841839
      ],
      [
        "dia",
        -8.46200243745886
      ],
      [
        "ĠComo",
        -8.462884157787249
      ],
      [
        "Ġqualquer",
        -8.464876332971427
      ],
      [
        "ĠTribunal",
        -8.470226358956245
      ],
      [
        "ĠSem",
        -8.473328533134932
      ],
      [
        "Ġdeste",
        -8.473508442888368
      ],
      [
        "ĠâĢ¢",
        -8.478103623714873
      ],
      [
        "ing",
        -8.482905865649538
      ],
      [
        "ĠVi",
        -8.483394919967422
      ],
      [
        "ĠJosÃ©",
        -8.485012115667038
      ],
      [
        "ĠDA",
        -8.488377851781253
      ],
      [
        "Ġpalavra",
        -8.491797206618378
      ],
      [
        "Ġdisse",
        -8.492998132706301
      ],
      [
        "ito",
        -8.495749672324363
      ],
      [
        "tri",
        -8.495932893397553
      ],
      [
        "ĠPaÃŃs",
        -8.497559505348958
      ],
      [
        "Ġcada",
        -8.498514582434115
      ],
      [
        "ĠDa",
        -8.49897655847746
      ],
      [
        "Ġtodo",
        -8.499210387387915
      ],
      [
        "Ġacordo",
        -8.50137660329319
      ],
      [
        "MA",
        -8.50751648550373
      ],
      [
        "lado",
        -8.508412330394906
      ],
      [
        "Ġsistema",
        -8.508557352492524
      ],
      [
        "Ġdepois",
        -8.510200061719473
      ],
      [
        "ĠpÃºblica",
        -8.510734983621433
      ],
      [
        "Ġseguinte",
        -8.511846217500713
      ],
      [
        "man",
        -8.52406254020882
      ],
      [
        "sta",
        -8.528566917102498
      ],
      [
        "ĠPro",
        -8.528683349029716
      ],
      [
        "ĠMinistÃ©rio",
        -8.529009400651354
      ],
      [
        "Ġmelhor",
        -8.532146143113533
      ],
      [
        "ĠÃ¡rea",
        -8.532387312455086
      ],
      [
        "Ġprazo",
        -8.533724907264878
      ],
      [
        "RI",
        -8.540311257385842
      ],
      [
        "Ġdeve",
        -8.54578812761602
      ],
      [
        "X",
        -8.546205887799843
      ],
      [
        "ĠCarlos",
        -8.546396519875024
      ],
      [
        "tado",
        -8.547352772016621
      ],
      [
        "cor",
        -8.548151690755704
      ],
      [
        "mar",
        -8.549644686130126
      ],
      [
        "ĠapÃ³s",
        -8.550458522999028
      ],
      [
        "nha",
        -8.551048761444086
      ],
      [
        "ĠSim",
        -8.552049914717031
      ],
      [
        "09",
        -8.552673708150426
      ],
      [
        "ĠRelator",
        -8.558546317999712
      ],
      [
        "Ġagora",
        -8.560017813907647
      ],
      [
        "rÃ¡",
        -8.56329727309809
      ],
      [
        "Ġpresente",
        -8.56387989957022
      ],
      [
        "Ã´",
        -8.56424978790136
      ],
      [
        "ĠW",
        -8.565691264121366
      ],
      [
        "th",
        -8.569495050170927
      ],
      [
        "ten",
        -8.570703016742778
      ],
      [
        "ĠpÃºblico",
        -8.572347541710121
      ],
      [
        "ĠpolÃŃtica",
        -8.572651552042265
      ],
      [
        "ĠLe",
        -8.57282627219487
      ],
      [
        "ĠAn",
        -8.575084300604251
      ],
      [
        "enta",
        -8.575941871722987
      ],
      [
        "ck",
        -8.581398854007881
      ],
      [
        "Ġimportante",
        -8.583322372569569
      ],
      [
        "Ġver",
        -8.585590974019546
      ],
      [
        "Ġsob",
        -8.58632268047346
      ],
      [
        "Ġpo",
        -8.587747840076212
      ],
      [
        "tal",
        -8.589335137364351
      ],
      [
        "ismo",
        -8.59010708674418
      ],
      [
        "ĠLa",
        -8.590172995831972
      ],
      [
        "Bloco",
        -8.59449980329903
      ],
      [
        "ĠRepÃºblica",
        -8.594669815862597
      ],
      [
        "Ġper",
        -8.595684188441767
      ],
      [
        "ido",
        -8.597631663416585
      ],
      [
        "ida",
        -8.598512309237906
      ],
      [
        "Ġsegundo",
        -8.599005244406156
      ],
      [
        "ĠCo",
        -8.600479156813652
      ],
      [
        "ĠPT",
        -8.60103850618668
      ],
      [
        "Ġmundo",
        -8.601560006611406
      ],
      [
        "con",
        -8.603926397778064
      ],
      [
        "durante",
        -8.60644343148854
      ],
      [
        "Ġdizer",
        -8.60673331087742
      ],
      [
        "15",
        -8.609661707797645
      ],
      [
        "Ġmil",
        -8.615082024737678
      ],
      [
        "Ã§o",
        -8.617146400731535
      ],
      [
        "dores",
        -8.620027289482927
      ],
      [
        "Ġnossa",
        -8.623436445549663
      ],
      [
        "ĠmatÃ©ria",
        -8.62868021335418
      ],
      [
        "ico",
        -8.6339353805626
      ],
      [
        "ĠJustiÃ§a",
        -8.634086322554753
      ],
      [
        "TO",
        -8.634750716055018
      ],
      [
        "Ġestava",
        -8.635067955713229
      ],
      [
        "Ġvoto",
        -8.637172258438595
      ],
      [
        "AL",
        -8.63724329181989
      ],
      [
        "DO",
        -8.639015795501017
      ],
      [
        "cer",
        -8.640246030761535
      ],
      [
        "Ġsido",
        -8.647365465418783
      ],
      [
        "com",
        -8.651918395835693
      ],
      [
        "Ã§a",
        -8.653470179151526
      ],
      [
        "dezembro",
        -8.656163807811625
      ],
      [
        "ula",
        -8.656476801467045
      ],
      [
        "men",
        -8.65711102227885
      ],
      [
        "Ġrecursos",
        -8.658199427979934
      ],
      [
        "2009",
        -8.658550317309734
      ],
      [
        "eiro",
        -8.65929903218849
      ],
      [
        "ĠAr",
        -8.662894786864907
      ],
      [
        "ante",
        -8.66600220451019
      ],
      [
        "lar",
        -8.666146964313056
      ],
      [
        "ent",
        -8.666222705977901
      ],
      [
        "gen",
        -8.670082386514922
      ],
      [
        "ĠVer",
        -8.671630020563452
      ],
      [
        "Y",
        -8.672099356837583
      ],
      [
        "Ġoutro",
        -8.672476255960952
      ],
      [
        "OS",
        -8.67646937964556
      ],
      [
        "ĠtrÃªs",
        -8.67852706296605
      ],
      [
        "Ġpartir",
        -8.678627160304812
      ],
      [
        "ĠEstados",
        -8.679039215303874
      ],
      [
        "ĠBa",
        -8.679280347057174
      ],
      [
        "nos",
        -8.683559149010424
      ],
      [
        "fer",
        -8.683908017834153
      ],
      [
        "Q",
        -8.686574828413022
      ],
      [
        "orador",
        -8.688208923279532
      ],
      [
        "Ġ24",
        -8.68864832811038
      ],
      [
        "=",
        -8.68891123239927
      ],
      [
        "ĠentÃ£o",
        -8.692023775087344
      ],
      [
        "qu",
        -8.692326603900176
      ],
      [
        "cha",
        -8.692830936950395
      ],
      [
        "AS",
        -8.693189473882503
      ],
      [
        "PT",
        -8.69384162633176
      ],
      [
        "Ġfinal",
        -8.694770565208593
      ],
      [
        "ata",
        -8.697909079980594
      ],
      [
        "12",
        -8.699601611351746
      ],
      [
        "ÃĩÃĥO",
        -8.700384799246894
      ],
      [
        "decisÃ£o",
        -8.701905759951046
      ],
      [
        "eira",
        -8.702761132375981
      ],
      [
        "ĠnÃºmero",
        -8.704251712959442
      ],
      [
        "ĠCa",
        -8.70434331052159
      ],
      [
        "Ì",
        -8.707101942968688
      ],
      [
        "Ġvalor",
        -8.708037107515072
      ],
      [
        "Ġmomento",
        -8.710204389789599
      ],
      [
        "@",
        -8.711341774753897
      ],
      [
        "DI",
        -8.711924553134164
      ],
      [
        "revisÃ£o",
        -8.719167792839752
      ],
      [
        "Ġgoverno",
        -8.721211936109171
      ],
      [
        "Ġgrupo",
        -8.721558398564115
      ],
      [
        "ĠK",
        -8.721965115415264
      ],
      [
        "Ġtudo",
        -8.7221937122515
      ],
      [
        "Ġdesde",
        -8.723786037857504
      ],
      [
        "Ġsub",
        -8.724605561899711
      ],
      [
        "ĠJoÃ£o",
        -8.726048791126942
      ],
      [
        "20",
        -8.726895988199086
      ],
      [
        "ĠfamÃŃlia",
        -8.731644111055836
      ],
      [
        "mor",
        -8.732020406696808
      ],
      [
        "Ġato",
        -8.734252762697277
      ],
      [
        "Ġcasa",
        -8.734334904188641
      ],
      [
        "Ġdias",
        -8.735704517070564
      ],
      [
        "rado",
        -8.7366965080314
      ],
      [
        "ava",
        -8.740198165886959
      ],
      [
        "Ãģ",
        -8.740488170563287
      ],
      [
        "ĠPR",
        -8.741048870244544
      ],
      [
        "Ġnovo",
        -8.74129036107275
      ],
      [
        "amento",
        -8.744253847862502
      ],
      [
        "ĠPMDB",
        -8.74425756323851
      ],
      [
        "ĠpaÃŃs",
        -8.749775498628583
      ],
      [
        "ĠTe",
        -8.750416596055894
      ],
      [
        "ĠIsso",
        -8.750617016944371
      ],
      [
        "ĠUniÃ£o",
        -8.754422330339025
      ],
      [
        "ĠUm",
        -8.754431305028989
      ],
      [
        "art",
        -8.756820109855306
      ],
      [
        "Ġeles",
        -8.759840114101918
      ],
      [
        "ĠdÃ¡",
        -8.762062257067539
      ],
      [
        "Ġproposta",
        -8.762338210539053
      ],
      [
        "Ġpoder",
        -8.763620144678166
      ],
      [
        "ĠpopulaÃ§Ã£o",
        -8.765644456758645
      ],
      [
        "ira",
        -8.76588381798913
      ],
      [
        "par",
        -8.767614936511146
      ],
      [
        "ju",
        -8.768375161933303
      ],
      [
        "lha",
        -8.769506584718071
      ],
      [
        "ÃĥO",
        -8.769767184571009
      ],
      [
        "05",
        -8.771148162237068
      ],
      [
        "Ġsempre",
        -8.771805122788122
      ],
      [
        "tas",
        -8.774842579817328
      ],
      [
        "rio",
        -8.77611940017966
      ],
      [
        "EL",
        -8.778594946686251
      ],
      [
        "Ġinciso",
        -8.779923268140916
      ],
      [
        "Ġpra",
        -8.782715137968317
      ],
      [
        "Ġbrasileiro",
        -8.782791764204406
      ],
      [
        "ĠDi",
        -8.783635545893645
      ],
      [
        "Ġconta",
        -8.783881166294915
      ],
      [
        "18",
        -8.784220737087189
      ],
      [
        "les",
        -8.785450724419812
      ],
      [
        "Ġduas",
        -8.791254470511866
      ],
      [
        "Ġsu",
        -8.791583503593333
      ],
      [
        "ĠrelaÃ§Ã£o",
        -8.791815677599116
      ],
      [
        "Ġ30",
        -8.79484623081555
      ],
      [
        "Ġ:(",
        -8.796044346511266
      ],
      [
        "ĠEsta",
        -8.796958885694508
      ],
      [
        "ĠlÃ¡",
        -8.797792837349864
      ],
      [
        "ĠJo",
        -8.798661958015098
      ],
      [
        "Ġmenos",
        -8.800537019364596
      ],
      [
        "ĠmilhÃµes",
        -8.802668960389664
      ],
      [
        "Ġpouco",
        -8.802833060215564
      ],
      [
        "gue",
        -8.802975327598842
      ],
      [
        "ĠâĢĶ",
        -8.803027959355267
      ],
      [
        "Ġtinha",
        -8.805172969304358
      ],
      [
        "ĠEntÃ£o",
        -8.805820847674514
      ],
      [
        "Ġfato",
        -8.807050278096257
      ],
      [
        "Congresso",
        -8.808450569340241
      ],
      [
        "ĠFoi",
        -8.809306683598114
      ],
      [
        "03",
        -8.809326155873888
      ],
      [
        "lhe",
        -8.812680258447124
      ],
      [
        "âĢĵ",
        -8.8135044063132
      ],
      [
        "nesta",
        -8.81545011143109
      ],
      [
        "Ġinter",
        -8.817021534908855
      ],
      [
        "ĠvotaÃ§Ã£o",
        -8.819753654883792
      ],
      [
        "ste",
        -8.820532796013158
      ],
      [
        "bra",
        -8.822806013564492
      ],
      [
        "RA",
        -8.823876719444776
      ],
      [
        "Ġ21",
        -8.827209893754288
      ],
      [
        "aprovaÃ§Ã£o",
        -8.827675940141653
      ],
      [
        "Ġbrasileira",
        -8.82824697576334
      ],
      [
        "Ġquanto",
        -8.828479871838612
      ],
      [
        "ĠSul",
        -8.8285122573991
      ],
      [
        "ĠJu",
        -8.829005807527976
      ],
      [
        "ĠPela",
        -8.830237299853373
      ],
      [
        "ntes",
        -8.835721682077425
      ],
      [
        "neste",
        -8.836287315474204
      ],
      [
        "Ġfim",
        -8.837490840463506
      ],
      [
        "ĠTo",
        -8.838081642036217
      ],
      [
        "Ġ23",
        -8.840143961919724
      ],
      [
        "ĠQue",
        -8.842013997311092
      ],
      [
        "ati",
        -8.842460104864292
      ],
      [
        "K",
        -8.844524856982328
      ],
      [
        "Ġpelos",
        -8.846511868617718
      ],
      [
        "08",
        -8.846898485437448
      ],
      [
        "ĠperÃŃodo",
        -8.84760474646236
      ],
      [
        "Ġprograma",
        -8.850555969198371
      ],
      [
        "17",
        -8.851269214086688
      ],
      [
        "Ġ25",
        -8.853218035379953
      ],
      [
        "inha",
        -8.854353505464832
      ],
      [
        "Ġbom",
        -8.854462028401299
      ],
      [
        "ĠPoder",
        -8.859472094167469
      ],
      [
        "Ġ22",
        -8.859638423569852
      ],
      [
        "ant",
        -8.861669125316066
      ],
      [
        "ĠFa",
        -8.862100687604638
      ],
      [
        "ĠÃºnico",
        -8.864613352790501
      ],
      [
        "rei",
        -8.865277781549311
      ],
      [
        "ĠhistÃ³ria",
        -8.865604750652126
      ],
      [
        "pre",
        -8.867790312233389
      ],
      [
        "02",
        -8.86940590267894
      ],
      [
        "ĠinformaÃ§Ãµes",
        -8.871717797400574
      ],
      [
        "DA",
        -8.873988024741076
      ],
      [
        "07",
        -8.87501071813686
      ],
      [
        "ais",
        -8.87575184816749
      ],
      [
        "ĠsaÃºde",
        -8.876447804071818
      ],
      [
        "Ġtodas",
        -8.877183049383692
      ],
      [
        "gar",
        -8.879076920695477
      ],
      [
        "TE",
        -8.879510946211765
      ],
      [
        "lin",
        -8.879634618349572
      ],
      [
        "menta",
        -8.87980676976262
      ],
      [
        "Ġvezes",
        -8.880057350312638
      ],
      [
        "Ġfaz",
        -8.880116422414819
      ],
      [
        "can",
        -8.882370890745834
      ],
      [
        "ĠHa",
        -8.882821232399232
      ],
      [
        "Ġsocial",
        -8.886078386082536
      ],
      [
        "Ġbase",
        -8.886690658298717
      ],
      [
        "Ã¢",
        -8.887373177599532
      ],
      [
        "ĠPa",
        -8.888148990865414
      ],
      [
        "ĠregiÃ£o",
        -8.888454751238399
      ],
      [
        "Exa",
        -8.890062574101428
      ],
      [
        "for",
        -8.892462186928446
      ],
      [
        "tes",
        -8.892690230609883
      ],
      [
        "los",
        -8.893327980042514
      ],
      [
        "16",
        -8.893534711810027
      ],
      [
        "Ġexemplo",
        -8.89431376180403
      ],
      [
        "Ġfez",
        -8.897198301282952
      ],
      [
        "04",
        -8.900182745707085
      ],
      [
        "alÃ©m",
        -8.9037960228712
      ],
      [
        "Ġnacional",
        -8.903858475903544
      ],
      [
        "Ġmaio",
        -8.904201436757305
      ],
      [
        "Ġempresa",
        -8.907060944072411
      ],
      [
        "Ġexternas",
        -8.907473839305684
      ],
      [
        "W",
        -8.907565099275931
      ],
      [
        "ĠSra",
        -8.908689410541154
      ],
      [
        "ĠtÃªm",
        -8.909011138196536
      ],
      [
        "âĢĿ,",
        -8.910617696670842
      ],
      [
        "ĠquestÃ£o",
        -8.910683153500658
      ],
      [
        "ĠCar",
        -8.912280985485879
      ],
      [
        "ist",
        -8.91238258231783
      ],
      [
        "Ġdiz",
        -8.913086406561858
      ],
      [
        "Ġfor",
        -8.913128053410178
      ],
      [
        "ĠLuiz",
        -8.915834591243714
      ],
      [
        "LigaÃ§Ãµes",
        -8.915980556870048
      ],
      [
        "Ġlugar",
        -8.917837894976852
      ],
      [
        "Ġtendo",
        -8.919524996778538
      ],
      [
        "Ġpois",
        -8.922479514831052
      ],
      [
        "Ġpa",
        -8.924716393019725
      ],
      [
        "Ġrecurso",
        -8.925326648077553
      ],
      [
        "ĠtÃ£o",
        -8.926015354817656
      ],
      [
        "Ġquero",
        -8.926429059649323
      ],
      [
        "Ġtoda",
        -8.928184805673581
      ],
      [
        "julho",
        -8.9283648719641
      ],
      [
        "pen",
        -8.928665080613648
      ],
      [
        "tur",
        -8.92948869240934
      ],
      [
        "Ġcausa",
        -8.931337011618028
      ],
      [
        "Ġestado",
        -8.932171858772028
      ],
      [
        "ĠFi",
        -8.933613406035672
      ],
      [
        "Ġpovo",
        -8.933923245315864
      ],
      [
        "ĠGo",
        -8.934522194633637
      ],
      [
        "13",
        -8.934807673315131
      ],
      [
        "Ġ2007",
        -8.935214668359798
      ],
      [
        "ador",
        -8.936009555798275
      ],
      [
        "Ã£",
        -8.936264838521899
      ],
      [
        "fica",
        -8.936638726637511
      ],
      [
        "las",
        -8.93849229436006
      ],
      [
        "06",
        -8.943103122669237
      ],
      [
        "ESSÃĥO",
        -8.943901640394543
      ],
      [
        "sentido",
        -8.943910527309136
      ],
      [
        "Ġseria",
        -8.94470766731843
      ],
      [
        "ber",
        -8.947904140122269
      ],
      [
        "Ġalguns",
        -8.948666215438047
      ],
      [
        "setembro",
        -8.950478979147173
      ],
      [
        "ĠPre",
        -8.953322441587398
      ],
      [
        "inho",
        -8.954573920588471
      ],
      [
        "ton",
        -8.95575305124584
      ],
      [
        "ĠGa",
        -8.95639695228735
      ],
      [
        "Ġnova",
        -8.95835323035423
      ],
      [
        "Ġnada",
        -8.959483944388381
      ],
      [
        "Ġ28",
        -8.960232057266525
      ],
      [
        "Ġtrata",
        -8.963345476817102
      ],
      [
        "Ġvou",
        -8.964327668467748
      ],
      [
        "Ġfavor",
        -8.965471684601978
      ],
      [
        "Ġdata",
        -8.96548216160509
      ],
      [
        "tua",
        -8.966077647293753
      ],
      [
        "izaÃ§Ã£o",
        -8.96650186326892
      ],
      [
        "Ġnem",
        -8.96720536960061
      ],
      [
        "Ã¡vel",
        -8.968917529369064
      ],
      [
        "temos",
        -8.970335448548356
      ],
      [
        "RE",
        -8.970657010032694
      ],
      [
        "30",
        -8.970866763032838
      ],
      [
        "ĠHo",
        -8.972050855863145
      ],
      [
        "nal",
        -8.974549437574652
      ],
      [
        "Ġfu",
        -8.975939617543476
      ],
      [
        "Â°",
        -8.976911782844898
      ],
      [
        "Ġcoisa",
        -8.977212000811523
      ],
      [
        "ler",
        -8.977869057436761
      ],
      [
        "dispÃµe",
        -8.979131755495636
      ],
      [
        "Ġsociedade",
        -8.984724297878959
      ],
      [
        "Ġpodem",
        -8.987171279976387
      ],
      [
        "Ġtipo",
        -8.987580754704583
      ],
      [
        "ĠJa",
        -8.990744404256004
      ],
      [
        "Ġmesma",
        -8.99142437557108
      ],
      [
        "Muito",
        -8.992604206730036
      ],
      [
        "bar",
        -8.993178200610275
      ],
      [
        "junho",
        -8.993235212715556
      ],
      [
        "ĠEla",
        -8.99446585120105
      ],
      [
        "ĠBo",
        -8.99808098984924
      ],
      [
        "Ġdisso",
        -8.998905495590614
      ],
      [
        "IS",
        -8.99890900008916
      ],
      [
        "che",
        -9.000329568096864
      ],
      [
        "Ġtenho",
        -9.000892554213175
      ],
      [
        "UTC",
        -9.000914056254542
      ],
      [
        "Ġteve",
        -9.002179836035763
      ],
      [
        "ĠLu",
        -9.00329640464434
      ],
      [
        "ĠGrande",
        -9.004508936179523
      ],
      [
        "ĠVamos",
        -9.00719841073461
      ],
      [
        "ĠÃºltimo",
        -9.009282217174608
      ],
      [
        "Ġestou",
        -9.012507576702658
      ],
      [
        "TA",
        -9.0137000509781
      ],
      [
        "Decreto",
        -9.01535106656267
      ],
      [
        "Ġ2008",
        -9.015837909979366
      ],
      [
        "2015",
        -9.015888914240918
      ],
      [
        "tou",
        -9.018867291165998
      ],
      [
        "Ġcons",
        -9.019627597361454
      ],
      [
        "Ġmedida",
        -9.02026992913693
      ],
      [
        "ry",
        -9.02072002578522
      ],
      [
        "Ġ2009",
        -9.022384439283044
      ],
      [
        "Art",
        -9.02253492760874
      ],
      [
        "Ġ2006",
        -9.023036040069028
      ],
      [
        "Ġdesenvolvimento",
        -9.023699878031998
      ],
      [
        "lho",
        -9.029826943271557
      ],
      [
        "Ġquais",
        -9.03306426970247
      ],
      [
        "ki",
        -9.033651038749174
      ],
      [
        "Ġ26",
        -9.034939760305114
      ],
      [
        "ĠBe",
        -9.035508458543111
      ],
      [
        "tica",
        -9.03575099678263
      ],
      [
        "PMDB",
        -9.038082264216005
      ],
      [
        "Ġoutra",
        -9.039193171262704
      ],
      [
        "ĠSanta",
        -9.041381833809725
      ],
      [
        "Ġconstitucional",
        -9.047754171282456
      ],
      [
        "ĠExa",
        -9.04877413638869
      ],
      [
        "DE",
        -9.048788545821663
      ],
      [
        "tada",
        -9.048914525302132
      ],
      [
        "Ġnum",
        -9.050532552588823
      ],
      [
        "000",
        -9.0514272243628
      ],
      [
        "tre",
        -9.052227266745197
      ],
      [
        "Ġsei",
        -9.05265255003891
      ],
      [
        "Ġsabe",
        -9.05578373477844
      ],
      [
        "Ġestar",
        -9.056814658516425
      ],
      [
        "via",
        -9.056977026170498
      ],
      [
        "ang",
        -9.05794531860355
      ],
      [
        "essa",
        -9.05843649309414
      ],
      [
        "Ã¡rio",
        -9.058849552192326
      ],
      [
        "ĠSu",
        -9.063059580130894
      ],
      [
        "ex",
        -9.063830360793398
      ],
      [
        "Ġpessoa",
        -9.064408827190746
      ],
      [
        "amente",
        -9.066090293698272
      ],
      [
        "ĠmarÃ§o",
        -9.066246069771928
      ],
      [
        "uni",
        -9.06653913979356
      ],
      [
        "ĠEx",
        -9.066811205477425
      ],
      [
        "Ġvamos",
        -9.067424504179955
      ],
      [
        "vam",
        -9.068331093302886
      ],
      [
        "ĠJaneiro",
        -9.070273322413115
      ],
      [
        "fl",
        -9.070341797067506
      ],
      [
        "ĠFe",
        -9.070970446529492
      ],
      [
        "Ġagosto",
        -9.072250098865018
      ],
      [
        "Ġcor",
        -9.072279364388642
      ],
      [
        "Ġoutubro",
        -9.072520418730749
      ],
      [
        "ĠMu",
        -9.07532988705567
      ],
      [
        "Ġtexto",
        -9.077754648639049
      ],
      [
        "...............",
        -9.079720860823723
      ],
      [
        "por",
        -9.08076478260827
      ],
      [
        "ral",
        -9.08268011255811
      ],
      [
        "ras",
        -9.085030307469555
      ],
      [
        "Ġ2011",
        -9.087951127964402
      ],
      [
        "zar",
        -9.088711059560625
      ],
      [
        "ĠIII",
        -9.090825636435577
      ],
      [
        "50",
        -9.092818432956326
      ],
      [
        "ĠprÃ³prio",
        -9.093575494252349
      ],
      [
        "CI",
        -9.094113993720075
      ],
      [
        "ĠSt",
        -9.09519322324903
      ],
      [
        "ura",
        -9.096095148855818
      ],
      [
        "Ġhavia",
        -9.097092434426958
      ],
      [
        "ĠmunicÃŃpio",
        -9.098370476931546
      ],
      [
        "ĠDr",
        -9.1001675413959
      ],
      [
        "Ġdessa",
        -9.100606307263156
      ],
      [
        "Ġdis",
        -9.10192399682498
      ],
      [
        "tion",
        -9.102508047786134
      ],
      [
        "Ġ2010",
        -9.103448218217055
      ],
      [
        "ĠEduardo",
        -9.103590439859778
      ],
      [
        "ĠHe",
        -9.104478692760251
      ],
      [
        "ĠTem",
        -9.105091644439828
      ],
      [
        "Ġabril",
        -9.105775367110091
      ],
      [
        "port",
        -9.106331042987543
      ],
      [
        "Ġpe",
        -9.10714959490041
      ],
      [
        "ĠtÃ©cnica",
        -9.10791943008926
      ],
      [
        "iro",
        -9.11066354738526
      ],
      [
        "ĠNO",
        -9.111340159900676
      ],
      [
        "chi",
        -9.111398230238668
      ],
      [
        "Ġsemana",
        -9.113061269228576
      ],
      [
        "Ġprincipal",
        -9.11377461580162
      ],
      [
        "NE",
        -9.114301850925903
      ],
      [
        "Ġjaneiro",
        -9.114927519135662
      ],
      [
        "Ġdesse",
        -9.115012760547735
      ],
      [
        "2013",
        -9.116277772139314
      ],
      [
        "rar",
        -9.116955179198944
      ],
      [
        "habitantes",
        -9.11708115459601
      ],
      [
        "Ġempresas",
        -9.11821023582132
      ],
      [
        "gua",
        -9.118877111130214
      ],
      [
        "cal",
        -9.119795640396504
      ],
      [
        "ĠEste",
        -9.120554776097478
      ],
      [
        "://",
        -9.12071200266188
      ],
      [
        "cional",
        -9.124571204156863
      ],
      [
        "Ġsim",
        -9.125542221341652
      ],
      [
        "Ġnovembro",
        -9.126375626840302
      ],
      [
        "ĠGu",
        -9.126487589738174
      ],
      [
        "14",
        -9.128454541359948
      ],
      [
        "Ġpresidente",
        -9.128784718792334
      ],
      [
        "ĠPARECER",
        -9.1295253503828
      ],
      [
        "Ġvolta",
        -9.130574459591504
      ],
      [
        "Ġ2005",
        -9.130835859031478
      ],
      [
        "ĠtÃŃtulo",
        -9.13109405148414
      ],
      [
        "ĠcondiÃ§Ãµes",
        -9.134391251873136
      ],
      [
        "Ġpai",
        -9.13442800963487
      ],
      [
        "ĠproduÃ§Ã£o",
        -9.134909496379706
      ],
      [
        "nia",
        -9.13517057171572
      ],
      [
        "val",
        -9.136754238115154
      ],
      [
        "ĠsituaÃ§Ã£o",
        -9.140549061919858
      ],
      [
        "MunicÃŃpio",
        -9.141156234996684
      ],
      [
        "Ġ27",
        -9.143223673605643
      ],
      [
        "ĠPi",
        -9.143668791737753
      ],
      [
        "Ã",
        -9.145151896610862
      ],
      [
        "ĠseguranÃ§a",
        -9.145320126641336
      ],
      [
        "NÃ³s",
        -9.14637428553942
      ],
      [
        "Ġprecisa",
        -9.146384144260008
      ],
      [
        "ĠSala",
        -9.147560639780712
      ],
      [
        "tivo",
        -9.147772570554723
      ],
      [
        "ĠMi",
        -9.149934019167908
      ],
      [
        "pol",
        -9.15111664489085
      ],
      [
        "ĠÃ¡gua",
        -9.151133974530351
      ],
      [
        "sÃ£o",
        -9.15174422058205
      ],
      [
        "vol",
        -9.152727487871918
      ],
      [
        "ind",
        -9.157329509344184
      ],
      [
        "ense",
        -9.157625226548882
      ],
      [
        "RO",
        -9.157985294652384
      ],
      [
        "Ġfalar",
        -9.159688660954798
      ],
      [
        "Ġtenha",
        -9.159822888542452
      ],
      [
        "ĠEstÃ¡",
        -9.160013407468243
      ],
      [
        "ĠMin",
        -9.16210380892236
      ],
      [
        "Ġvista",
        -9.162980030182952
      ],
      [
        "estamos",
        -9.16371371560731
      ],
      [
        "2011",
        -9.165009806784738
      ],
      [
        "ite",
        -9.166916908156242
      ],
      [
        "missÃ£o",
        -9.167518579602577
      ],
      [
        "ĠEssa",
        -9.169528522354614
      ],
      [
        "Ġtanto",
        -9.169540298814942
      ],
      [
        "PSB",
        -9.171045401557937
      ],
      [
        "Ġ29",
        -9.173017974893089
      ],
      [
        "Ġfeito",
        -9.175248685358428
      ],
      [
        "ĠRE",
        -9.17580735445928
      ],
      [
        "aÃŃ",
        -9.177009923796652
      ],
      [
        "ĠEmenda",
        -9.17763474917484
      ],
      [
        "Regimento",
        -9.181212439030332
      ],
      [
        "Ġpena",
        -9.183567482079026
      ],
      [
        "ĠEsse",
        -9.185045613706556
      ],
      [
        "ato",
        -9.186876302137144
      ],
      [
        "ĠeducaÃ§Ã£o",
        -9.187096867008112
      ],
      [
        "tura",
        -9.188918502934271
      ],
      [
        "ĠinÃŃcio",
        -9.1929801915085
      ],
      [
        "Ġverdade",
        -9.193202188384005
      ],
      [
        "bal",
        -9.194192505215907
      ],
      [
        "Ġenquanto",
        -9.194826831005129
      ],
      [
        "Ġbi",
        -9.196352810032923
      ],
      [
        "tÃ£o",
        -9.1967368732776
      ],
      [
        "Ġquatro",
        -9.197296743424952
      ],
      [
        "providÃªncias",
        -9.198575095880884
      ],
      [
        "Ġponto",
        -9.198845865458878
      ],
      [
        "ĠUma",
        -9.199007948175666
      ],
      [
        "SP",
        -9.201571959470837
      ],
      [
        "Ġtra",
        -9.202994113377004
      ],
      [
        "sessÃ£o",
        -9.20303358226089
      ],
      [
        "pro",
        -9.203096302477515
      ],
      [
        "Ġtrans",
        -9.203911380583753
      ],
      [
        "Ġobjetivo",
        -9.204736596638728
      ],
      [
        "Ġrespeito",
        -9.205637259983437
      ],
      [
        "Ġfevereiro",
        -9.206972488729487
      ],
      [
        "Ġlocal",
        -9.209098727377745
      ],
      [
        "feira",
        -9.209910864091992
      ],
      [
        "rada",
        -9.211696363614289
      ],
      [
        "Ġdentro",
        -9.212678994834365
      ],
      [
        "istas",
        -9.213718450795923
      ],
      [
        "ÃŃn",
        -9.213997316357355
      ],
      [
        "log",
        -9.21405707747918
      ],
      [
        "ele",
        -9.214079397528032
      ],
      [
        "Supremo",
        -9.214177874264514
      ],
      [
        "nado",
        -9.214925393192368
      ],
      [
        "ĠMaria",
        -9.215084536742957
      ],
      [
        "NI",
        -9.216018557512308
      ],
      [
        "Ð",
        -9.217048039860948
      ],
      [
        "Ġ31",
        -9.21716105879358
      ],
      [
        "Deputada",
        -9.21869023860089
      ],
      [
        "Ġmim",
        -9.220005340915923
      ],
      [
        "uro",
        -9.220132193430828
      ],
      [
        "ĠBi",
        -9.223352610914173
      ],
      [
        "Ġdemais",
        -9.22357365414338
      ],
      [
        "ĠsÃ©rie",
        -9.224384340309564
      ],
      [
        "cas",
        -9.22487199199734
      ],
      [
        "Ġhoras",
        -9.22504206708151
      ],
      [
        "Ġcargo",
        -9.225721865935718
      ],
      [
        "Ġapoio",
        -9.22787610210225
      ],
      [
        "tico",
        -9.228076323936532
      ],
      [
        "ĠInterno",
        -9.228566542387483
      ],
      [
        "ĠPresidÃªncia",
        -9.23234002688068
      ],
      [
        "ix",
        -9.232607997710636
      ],
      [
        "ĠÃĢ",
        -9.235751676028364
      ],
      [
        "Ġtotal",
        -9.241654385913463
      ],
      [
        "Ġpesquisa",
        -9.242162726101016
      ],
      [
        "vin",
        -9.242375718667263
      ],
      [
        "criaÃ§Ã£o",
        -9.243788408072628
      ],
      [
        "ĠPÃºblico",
        -9.2439957930865
      ],
      [
        "Ġ(\"",
        -9.244431601486909
      ],
      [
        "ĠpossÃŃvel",
        -9.245884264763596
      ],
      [
        "Ġ2013",
        -9.246745928473429
      ],
      [
        "Ġfilme",
        -9.247322352745543
      ],
      [
        "ĠBrasÃŃlia",
        -9.248618076510454
      ],
      [
        "Ġparecer",
        -9.250861145924215
      ],
      [
        "25",
        -9.251219828960238
      ],
      [
        "PDT",
        -9.251671359347844
      ],
      [
        "Ġvota",
        -9.25269344549436
      ],
      [
        "ĠUnidos",
        -9.2533758000484
      ],
      [
        "Ġfalta",
        -9.254782866891611
      ],
      [
        "Ġconforme",
        -9.255542733864678
      ],
      [
        "ĠTurma",
        -9.25746134006681
      ],
      [
        "serviÃ§os",
        -9.257728558701784
      ],
      [
        "Ġproblema",
        -9.258927201230248
      ],
      [
        "IN",
        -9.25937055211639
      ],
      [
        "Ġluta",
        -9.25943470569949
      ],
      [
        "Ġnunca",
        -9.259636925855682
      ],
      [
        "Ġespecial",
        -9.260087353994878
      ],
      [
        "cial",
        -9.260287601571454
      ],
      [
        "ĠConselho",
        -9.261170644211523
      ],
      [
        "Ġcar",
        -9.262171673973878
      ],
      [
        "ĠpaÃŃses",
        -9.263483781281844
      ],
      [
        "Ġjogo",
        -9.263491414939104
      ],
      [
        "Ġ2012",
        -9.26670610408259
      ],
      [
        "Ġsou",
        -9.266749497057717
      ],
      [
        "98",
        -9.26957107040125
      ],
      [
        "Ġalgo",
        -9.270118646618975
      ],
      [
        "Ġcerca",
        -9.270396173066317
      ],
      [
        "Ġ2004",
        -9.271246738527694
      ],
      [
        "ĠUniversidade",
        -9.271709093238758
      ],
      [
        "ĠQuando",
        -9.27198939191757
      ],
      [
        "NA",
        -9.272080075306796
      ],
      [
        "len",
        -9.275317029095511
      ],
      [
        "ĠmÃºsica",
        -9.276727255287536
      ],
      [
        "cho",
        -9.276738936181324
      ],
      [
        "ser",
        -9.277299681198478
      ],
      [
        "q",
        -9.27778521595816
      ],
      [
        "ĠsÃ©culo",
        -9.27959382294097
      ],
      [
        "Ġobrigado",
        -9.27977676450985
      ],
      [
        "ĠGr",
        -9.28117614743545
      ],
      [
        "defesa",
        -9.281316754295467
      ],
      [
        "CE",
        -9.282518068631957
      ],
      [
        "tÃ³rio",
        -9.282724001743729
      ],
      [
        "ĠSilva",
        -9.285002755802315
      ],
      [
        "ini",
        -9.285633081711318
      ],
      [
        "Ġequipe",
        -9.286621922111497
      ],
      [
        "tanto",
        -9.28696824657399
      ],
      [
        "ĠEducaÃ§Ã£o",
        -9.287418778350672
      ],
      [
        "Ġfi",
        -9.289475956752137
      ],
      [
        "ĠPedro",
        -9.290883708099027
      ],
      [
        "CÃ³digo",
        -9.29099729601359
      ],
      [
        "40",
        -9.291003037339058
      ],
      [
        "devido",
        -9.291251574056762
      ],
      [
        "ĠSocial",
        -9.29200616870234
      ],
      [
        "Ġfora",
        -9.292652110697148
      ],
      [
        "registro",
        -9.293637241880846
      ],
      [
        "ĠatravÃ©s",
        -9.294783012323968
      ],
      [
        "Ġmembro",
        -9.294805774221931
      ],
      [
        "Ġcinco",
        -9.295099116702744
      ],
      [
        "Ġregimental",
        -9.29554796344054
      ],
      [
        "iti",
        -9.296983507827022
      ],
      [
        "ban",
        -9.300233582290574
      ],
      [
        "Ġkm",
        -9.300533105613903
      ],
      [
        "Ġsegunda",
        -9.3009649735064
      ],
      [
        "âĢĻ",
        -9.30109178687638
      ],
      [
        "US",
        -9.30139123945404
      ],
      [
        "ĠOliveira",
        -9.3038022785471
      ],
      [
        "PlenÃ¡rio",
        -9.304167990267112
      ],
      [
        "Ġpedido",
        -9.304360423763276
      ],
      [
        "ger",
        -9.305650622589202
      ],
      [
        "SE",
        -9.31056966419793
      ],
      [
        "Ġrealizada",
        -9.31196186060444
      ],
      [
        "ĠTotal",
        -9.31410701018944
      ],
      [
        "Ġficar",
        -9.314315552739462
      ],
      [
        "Ġdireitos",
        -9.3154720288985
      ],
      [
        "posiÃ§Ã£o",
        -9.316067685583356
      ],
      [
        "Ġvo",
        -9.316483812533846
      ],
      [
        "Ġmorte",
        -9.316574529065658
      ],
      [
        "ĠFo",
        -9.318082226356625
      ],
      [
        "PE",
        -9.318246823390052
      ],
      [
        "lia",
        -9.318336911509824
      ],
      [
        "bilidade",
        -9.318397017536176
      ],
      [
        "Ġvem",
        -9.318484613968463
      ],
      [
        "ris",
        -9.319316625843522
      ],
      [
        "ĠCi",
        -9.32059922659042
      ],
      [
        "ĠJÃ¡",
        -9.321196490715938
      ],
      [
        "ĠCl",
        -9.32217907627998
      ],
      [
        "Ġfazendo",
        -9.324078021330791
      ],
      [
        "ly",
        -9.324906640677607
      ],
      [
        "Ġdeixa",
        -9.325586942508677
      ],
      [
        "2000",
        -9.327695875281384
      ],
      [
        "ĠprÃ³pria",
        -9.327739388681843
      ],
      [
        "ĠSi",
        -9.329028093406963
      ],
      [
        "Ġobjeto",
        -9.329031700900217
      ],
      [
        "ĠDu",
        -9.329991477865134
      ],
      [
        "Ġthe",
        -9.33048344600905
      ],
      [
        "ĠKa",
        -9.330681976917804
      ],
      [
        "Ãī",
        -9.331255526756308
      ],
      [
        "ĠforÃ§a",
        -9.332160083074058
      ],
      [
        "ĠrazÃ£o",
        -9.33219422346344
      ],
      [
        "ĠDia",
        -9.33416400494828
      ],
      [
        "vÃ¡rios",
        -9.337072474219305
      ],
      [
        "The",
        -9.33726861050249
      ],
      [
        "ĠexercÃŃcio",
        -9.33861971290141
      ],
      [
        "Ġacesso",
        -9.338897159707209
      ],
      [
        "ĠSaÃºde",
        -9.340391589323524
      ],
      [
        "Ġmeses",
        -9.34071574936514
      ],
      [
        "CO",
        -9.340993881498218
      ],
      [
        "origem",
        -9.34102262227757
      ],
      [
        "rim",
        -9.341737427255453
      ],
      [
        "Executivo",
        -9.342460027356088
      ],
      [
        "2008",
        -9.342713195370358
      ],
      [
        "var",
        -9.347156778173352
      ],
      [
        "bel",
        -9.34815116719561
      ],
      [
        "Ġmercado",
        -9.349128713717615
      ],
      [
        "Ġ2003",
        -9.35004318594972
      ],
      [
        "ĠÃ©poca",
        -9.350133698620468
      ],
      [
        "Ġmal",
        -9.35403266853612
      ],
      [
        "Ġfilho",
        -9.354985858937518
      ],
      [
        "serÃ£o",
        -9.355400620431032
      ],
      [
        "tÃ¡",
        -9.355918339111009
      ],
      [
        "uma",
        -9.356053327404648
      ],
      [
        "tan",
        -9.356157233779168
      ],
      [
        "ĠSegundo",
        -9.357050614930428
      ],
      [
        "ĠPer",
        -9.358311950002085
      ],
      [
        "AlÃ©m",
        -9.358477832225065
      ],
      [
        "ĠPP",
        -9.358962581082755
      ],
      [
        "ĠHi",
        -9.36022204271473
      ],
      [
        "OR",
        -9.360948483691926
      ],
      [
        "ĠFilho",
        -9.361514223475334
      ],
      [
        "iano",
        -9.361673412008768
      ],
      [
        "ĠAgora",
        -9.362239136276878
      ],
      [
        "nho",
        -9.36284448815503
      ],
      [
        "97",
        -9.362855192433855
      ],
      [
        "eram",
        -9.363173792923831
      ],
      [
        "Ġinclusive",
        -9.363572259461009
      ],
      [
        "Ġdados",
        -9.363597382207772
      ],
      [
        "PTB",
        -9.363863018198074
      ],
      [
        "Ġ2015",
        -9.364189743248208
      ],
      [
        "2007",
        -9.365213589811392
      ],
      [
        "Ġatividade",
        -9.36665339828615
      ],
      [
        "Ġgeral",
        -9.367536104906462
      ],
      [
        "ĠEM",
        -9.369565533661577
      ],
      [
        "agem",
        -9.370785012424362
      ],
      [
        "ento",
        -9.37192701760179
      ],
      [
        "Ġfosse",
        -9.372023249771129
      ],
      [
        "Ġfala",
        -9.3722256331195
      ],
      [
        "Ġcara",
        -9.372462199148847
      ],
      [
        "radiodifusÃ£o",
        -9.377893214885018
      ],
      [
        "tina",
        -9.37797402757894
      ],
      [
        "LA",
        -9.378482205017942
      ],
      [
        "Ġpagamento",
        -9.37878328005347
      ],
      [
        "Ġquase",
        -9.379360189461725
      ],
      [
        "Ġqualidade",
        -9.381353841480369
      ],
      [
        "Ġlegal",
        -9.382455801667172
      ],
      [
        "Ġmar",
        -9.384112535004151
      ],
      [
        "Ġobra",
        -9.38427592328651
      ],
      [
        "ĠPA",
        -9.38563583161848
      ],
      [
        "STF",
        -9.386429979720289
      ],
      [
        "Ġpelas",
        -9.387281750675797
      ],
      [
        "ano",
        -9.388599688191722
      ],
      [
        "Ġnecessidade",
        -9.389014365555903
      ],
      [
        "ĠDeus",
        -9.389238818554183
      ],
      [
        "Ġalgumas",
        -9.391768031232113
      ],
      [
        "ĠMan",
        -9.39195445074908
      ],
      [
        "28",
        -9.392020968327069
      ],
      [
        "Ġcrime",
        -9.392770461829612
      ],
      [
        "cada",
        -9.393767223528272
      ],
      [
        "2010",
        -9.3941069046655
      ],
      [
        "nas",
        -9.3972650761069
      ],
      [
        "ĠMA",
        -9.400836282495852
      ],
      [
        "Ġminutos",
        -9.401264487290154
      ],
      [
        "Ġboa",
        -9.402253049708582
      ],
      [
        "Ġpoderia",
        -9.40229898766551
      ],
      [
        "ĠVI",
        -9.402822839432948
      ],
      [
        "entes",
        -9.403032924891868
      ],
      [
        "Ġmaioria",
        -9.40343094905533
      ],
      [
        "ff",
        -9.405190699958576
      ],
      [
        "95",
        -9.406648073732509
      ],
      [
        "Ġ2014",
        -9.407186185698016
      ],
      [
        "dado",
        -9.407200048122768
      ],
      [
        ".âĢĿ",
        -9.40736899863393
      ],
      [
        "29",
        -9.407891827848816
      ],
      [
        "bol",
        -9.41031420155359
      ],
      [
        "para",
        -9.41080916207927
      ],
      [
        "ĠCha",
        -9.41178889540343
      ],
      [
        "ĠpolÃŃtico",
        -9.412572037615496
      ],
      [
        "Ġinteresse",
        -9.413691470260124
      ],
      [
        "Ġesses",
        -9.413908487249715
      ],
      [
        "ĠCiÃªncia",
        -9.41410861282878
      ],
      [
        "Ġpartido",
        -9.415034484720731
      ],
      [
        "Ġdinheiro",
        -9.416284176737696
      ],
      [
        "Ġcerto",
        -9.417485437397914
      ],
      [
        "Ġmodo",
        -9.418003513548072
      ],
      [
        "Ġfr",
        -9.418140055150806
      ],
      [
        "Ġconhecido",
        -9.41901268443314
      ],
      [
        "Ġpossa",
        -9.425978835255473
      ],
      [
        "Ġres",
        -9.426145782243443
      ],
      [
        "ĠVal",
        -9.426333734304608
      ],
      [
        "Ġrequerimento",
        -9.426761535233789
      ],
      [
        "Ġdele",
        -9.426791572987108
      ],
      [
        "ĠSua",
        -9.426810964892448
      ],
      [
        "ĠSE",
        -9.428722074618396
      ],
      [
        "PR",
        -9.428787551989176
      ],
      [
        "AÃĩÃĥO",
        -9.428831387267326
      ],
      [
        "aumento",
        -9.4292453213917
      ],
      [
        "ĠHÃ¡",
        -9.429646531531446
      ],
      [
        "tem",
        -9.430870227453632
      ],
      [
        "Ġ50",
        -9.4311866809455
      ],
      [
        "Ġatual",
        -9.431773200819327
      ],
      [
        "Ġpassa",
        -9.431934380996603
      ],
      [
        "Ġnesse",
        -9.432540159289982
      ],
      [
        "altera",
        -9.432773460823755
      ],
      [
        "let",
        -9.433886109347725
      ],
      [
        "nÃŃvel",
        -9.43485376983988
      ],
      [
        "99",
        -9.435186125802728
      ],
      [
        "iga",
        -9.435682995810607
      ],
      [
        "Ġ2016",
        -9.436421675085604
      ],
      [
        "Ġemenda",
        -9.436499113815502
      ],
      [
        "Ġensino",
        -9.43685150788374
      ],
      [
        "Ġautor",
        -9.437207870286406
      ],
      [
        "Ġjunto",
        -9.437918668328305
      ],
      [
        "Ġdeixar",
        -9.438548420915954
      ],
      [
        "taÃ§Ã£o",
        -9.439077037335224
      ],
      [
        "ĠNova",
        -9.439612386692856
      ],
      [
        "ĠCr",
        -9.440387174579492
      ],
      [
        "https",
        -9.440392008680648
      ],
      [
        "agravo",
        -9.440739748851646
      ],
      [
        "Ġnorte",
        -9.441529994941977
      ],
      [
        "Ġnuma",
        -9.44165943246034
      ],
      [
        "til",
        -9.44247582525812
      ],
      [
        "88",
        -9.443596460841476
      ],
      [
        "45",
        -9.443705452431168
      ],
      [
        "ĠBu",
        -9.44458800282392
      ],
      [
        ");",
        -9.444700604757388
      ],
      [
        "Ġreforma",
        -9.446968378212098
      ],
      [
        "ĠprÃ¡tica",
        -9.448002841371746
      ],
      [
        "anÃ¡lise",
        -9.449293484530235
      ],
      [
        "ĠreuniÃ£o",
        -9.44933831996209
      ],
      [
        "ĠÃºltima",
        -9.450756037782384
      ],
      [
        "Ġcampo",
        -9.451872677190051
      ],
      [
        "ĠAssim",
        -9.452595118061696
      ],
      [
        "ĠPrograma",
        -9.452896982503038
      ],
      [
        "ĠmÃ£e",
        -9.45391803290264
      ],
      [
        "Ġnoite",
        -9.45564140372603
      ],
      [
        "ĠLula",
        -9.45579918422523
      ],
      [
        "Ġmuitas",
        -9.456767218067384
      ],
      [
        "ĠParecer",
        -9.45886883930072
      ],
      [
        "ĠLÃŃder",
        -9.459836725290796
      ],
      [
        "somente",
        -9.460800768493
      ],
      [
        "redaÃ§Ã£o",
        -9.462210938137195
      ],
      [
        "ago",
        -9.462927156899262
      ],
      [
        "entanto",
        -9.462967779664243
      ],
      [
        "Ġsuperior",
        -9.464997474597816
      ],
      [
        "ĠTi",
        -9.465097610728296
      ],
      [
        "ĠLegislativo",
        -9.466738452245734
      ],
      [
        "iva",
        -9.468066842107694
      ],
      [
        "Ġqu",
        -9.468262103323454
      ],
      [
        "Ġregime",
        -9.46837969073104
      ],
      [
        "Ġhomem",
        -9.468758382197867
      ],
      [
        "ĠparticipaÃ§Ã£o",
        -9.469168164315493
      ],
      [
        "net",
        -9.469318658909838
      ],
      [
        "ĠBar",
        -9.469583052532956
      ],
      [
        "ice",
        -9.469607757898563
      ],
      [
        "ĠPÃºblica",
        -9.46984605850905
      ],
      [
        "BA",
        -9.471663013953348
      ],
      [
        "27",
        -9.47425320942008
      ],
      [
        "26",
        -9.474299800718686
      ],
      [
        "ĠThe",
        -9.474496937284188
      ],
      [
        "96",
        -9.475185220462675
      ],
      [
        "ĠNi",
        -9.476745012202676
      ],
      [
        "Ġproduto",
        -9.477617050328297
      ],
      [
        "Ġcontrole",
        -9.479150582264277
      ],
      [
        "Ġoficial",
        -9.479548748479722
      ],
      [
        "Ġtarde",
        -9.480061240890764
      ],
      [
        "ĠcrÃ©dito",
        -9.480724011830358
      ],
      [
        "Ġlongo",
        -9.480890456019017
      ],
      [
        "ĠPE",
        -9.481291276096574
      ],
      [
        "ĠFernando",
        -9.482476706007192
      ],
      [
        "Ġsetor",
        -9.485481383578854
      ],
      [
        "Ġgrandes",
        -9.486859781262783
      ],
      [
        "Ġgra",
        -9.486939309587802
      ],
      [
        "2012",
        -9.48725786728168
      ],
      [
        "Ġ100",
        -9.488409608573129
      ],
      [
        "ĠSÃ³",
        -9.48938005200295
      ],
      [
        "elo",
        -9.490084641770318
      ],
      [
        "tando",
        -9.491106172441066
      ],
      [
        "ĠAssociaÃ§Ã£o",
        -9.49120126004768
      ],
      [
        "ega",
        -9.491610840407482
      ],
      [
        "ĠCOM",
        -9.493489339076426
      ],
      [
        "ĠWi",
        -9.493737472015187
      ],
      [
        "ĠRoberto",
        -9.494279199278797
      ],
      [
        "mas",
        -9.49443931595627
      ],
      [
        "ĠlegislaÃ§Ã£o",
        -9.494573693845924
      ],
      [
        "2016",
        -9.495701978925483
      ],
      [
        "ĠDes",
        -9.495908668239048
      ],
      [
        "ĠTrabalho",
        -9.495974604251977
      ],
      [
        "ĠPl",
        -9.498022403309866
      ],
      [
        "EIRA",
        -9.49891778684353
      ],
      [
        "Ġacho",
        -9.49938049303431
      ],
      [
        "Ġjulgamento",
        -9.500306855405418
      ],
      [
        "Ġsaber",
        -9.503376185585278
      ],
      [
        "Ġcontrato",
        -9.504374062661698
      ],
      [
        "Ġpreciso",
        -9.505016504339569
      ],
      [
        "ĠpublicaÃ§Ã£o",
        -9.505120508647734
      ],
      [
        "IM",
        -9.506185586099198
      ],
      [
        "her",
        -9.508088479273114
      ],
      [
        "Ġfeita",
        -9.50836262355753
      ],
      [
        "passou",
        -9.50904987163348
      ],
      [
        "ĠMaia",
        -9.510231208991607
      ],
      [
        "NT",
        -9.51088321001166
      ],
      [
        "Ġessas",
        -9.512961434918536
      ],
      [
        "Ġbrasileiros",
        -9.51327335022679
      ],
      [
        "Ġinc",
        -9.5137725299298
      ],
      [
        "Ġdez",
        -9.515236593220996
      ],
      [
        "ĠBem",
        -9.51549748970088
      ],
      [
        "relatÃ³rio",
        -9.516372046453265
      ],
      [
        "ĠextraordinÃ¡rio",
        -9.51839357765457
      ],
      [
        "90",
        -9.51951008814568
      ],
      [
        "Ġprova",
        -9.519699190786875
      ],
      [
        "46",
        -9.52066870850216
      ],
      [
        "vis",
        -9.522362413612395
      ],
      [
        "Ġconstante",
        -9.526637855018569
      ],
      [
        "plan",
        -9.528320243979037
      ],
      [
        "ĠCor",
        -9.528362867019066
      ],
      [
        "Ġenergia",
        -9.52869339036362
      ],
      [
        "cap",
        -9.52891540295248
      ],
      [
        "conjunto",
        -9.529096553163052
      ],
      [
        "realizaÃ§Ã£o",
        -9.52916083270932
      ],
      [
        "vel",
        -9.529738377223586
      ],
      [
        "nico",
        -9.529840677350789
      ],
      [
        "mulheres",
        -9.529987565750751
      ],
      [
        "ĠconstruÃ§Ã£o",
        -9.530907517632333
      ],
      [
        "24",
        -9.53091033991995
      ],
      [
        "mÃŃnimo",
        -9.531813597243152
      ],
      [
        "ĠespÃ©cie",
        -9.53359678185826
      ],
      [
        "land",
        -9.534313834679164
      ],
      [
        "ĠPortugal",
        -9.534317543691298
      ],
      [
        "Ġhora",
        -9.536500324749642
      ],
      [
        "Ġpossui",
        -9.536752847549083
      ],
      [
        "tec",
        -9.537105641431983
      ],
      [
        "01",
        -9.538959566432592
      ],
      [
        "ĠCO",
        -9.539811438505636
      ],
      [
        "ologia",
        -9.53992246053896
      ],
      [
        "2014",
        -9.54004733095759
      ],
      [
        "Ġmaneira",
        -9.540208911797183
      ],
      [
        "IA",
        -9.540601200848249
      ],
      [
        "ĠMarco",
        -9.540777877879014
      ],
      [
        "ĠcrianÃ§as",
        -9.540931848669764
      ],
      [
        "ĠÃ¡lbum",
        -9.54197034757277
      ],
      [
        "Ġci",
        -9.54259264828706
      ],
      [
        "Ġtal",
        -9.54293064953574
      ],
      [
        "ĠdiscussÃ£o",
        -9.543422829508035
      ],
      [
        "poderÃ¡",
        -9.54471933689412
      ],
      [
        "vÃ¡rias",
        -9.54474888454984
      ],
      [
        "23",
        -9.544941983388316
      ],
      [
        "economia",
        -9.54547794732786
      ],
      [
        "Ġdebate",
        -9.545481366552549
      ],
      [
        "ĠediÃ§Ã£o",
        -9.545555648076888
      ],
      [
        "Ġparece",
        -9.545766311210713
      ],
      [
        "ĠSan",
        -9.546332172971203
      ],
      [
        "ĠnecessÃ¡rio",
        -9.547087593091792
      ],
      [
        "ĠPode",
        -9.547392676796596
      ],
      [
        "ĠMinas",
        -9.547398713820902
      ],
      [
        "Partido",
        -9.547598641059388
      ],
      [
        "IO",
        -9.548032784442748
      ],
      [
        "ĠMesa",
        -9.549008420121387
      ],
      [
        "Ġvir",
        -9.54930632947179
      ],
      [
        "Ġfrente",
        -9.549359266702156
      ],
      [
        "ĠBr",
        -9.549672677365963
      ],
      [
        "ĠDEM",
        -9.55100282444842
      ],
      [
        "Ġ54",
        -9.551142222608638
      ],
      [
        "Ġassunto",
        -9.55152209524876
      ],
      [
        "Ġprincipalmente",
        -9.551576894150893
      ],
      [
        "Ġchamado",
        -9.552148969163255
      ],
      [
        "possibilidade",
        -9.552909109414458
      ],
      [
        "lan",
        -9.55407381801366
      ],
      [
        "legislativa",
        -9.554436732895905
      ],
      [
        "Ġpar",
        -9.555048075927372
      ],
      [
        "ĠEstou",
        -9.55518654973419
      ],
      [
        "ĠRi",
        -9.555564222105176
      ],
      [
        "Ġlinha",
        -9.555988482933271
      ],
      [
        "Í",
        -9.55780496280498
      ],
      [
        "ĠDesenvolvimento",
        -9.558531354660154
      ],
      [
        "ĠespaÃ§o",
        -9.559199465988907
      ],
      [
        "Ġpapel",
        -9.55934669373665
      ],
      [
        "ĠTr",
        -9.56033217118414
      ],
      [
        "Ġforte",
        -9.560684477144482
      ],
      [
        "sim",
        -9.561322366768502
      ],
      [
        "ĠAb",
        -9.561615457340814
      ],
      [
        "Ġmuitos",
        -9.561702689766486
      ],
      [
        "Ġestrutura",
        -9.562801287412592
      ],
      [
        "â",
        -9.562905117418524
      ],
      [
        "ĠNorte",
        -9.563126793867234
      ],
      [
        "ĠFrancisco",
        -9.563129227561095
      ],
      [
        "ĠvÃ£o",
        -9.563857910123494
      ],
      [
        "\")",
        -9.564006914891811
      ],
      [
        "Ġcorpo",
        -9.564090726791637
      ],
      [
        "rin",
        -9.564337949045507
      ],
      [
        "ong",
        -9.56541591843826
      ],
      [
        "Ġfica",
        -9.565676508864843
      ],
      [
        "Ġ40",
        -9.56680394365258
      ],
      [
        "presenÃ§a",
        -9.568941079092204
      ],
      [
        "ĠDJ",
        -9.5693423478627
      ],
      [
        "reais",
        -9.569495334967764
      ],
      [
        "Ġreal",
        -9.572985841173557
      ],
      [
        "Ġcapital",
        -9.573173070955356
      ],
      [
        "Ġhouve",
        -9.573361215583724
      ],
      [
        "ĠSP",
        -9.57363319885222
      ],
      [
        "Ġ32",
        -9.574119633264509
      ],
      [
        "Ġ33",
        -9.574279329741076
      ],
      [
        "zado",
        -9.574827013242423
      ],
      [
        "ĠIV",
        -9.57485856195566
      ],
      [
        "Ġproblemas",
        -9.575198438701385
      ],
      [
        "Ġapresenta",
        -9.575484415608296
      ],
      [
        "ĠAG",
        -9.575672011449017
      ],
      [
        "Ġterra",
        -9.575784699114813
      ],
      [
        "atividades",
        -9.581587209042604
      ],
      [
        "Ġbanda",
        -9.581638045860402
      ],
      [
        "concessÃ£o",
        -9.582744825152815
      ],
      [
        "dÃ©cada",
        -9.582960527967616
      ],
      [
        "#",
        -9.5835699547547
      ],
      [
        "zada",
        -9.583866500309632
      ],
      [
        "Ġlhe",
        -9.586231890918253
      ],
      [
        "MunicÃŃpios",
        -9.586274512265163
      ],
      [
        "Ġconhecimento",
        -9.586280874112797
      ],
      [
        "Ġprofessor",
        -9.586721423414176
      ],
      [
        "cado",
        -9.587642059069092
      ],
      [
        "Ġalguma",
        -9.58768033405348
      ],
      [
        "prÃ³ximo",
        -9.58799545886536
      ],
      [
        "aprovado",
        -9.588432975156271
      ],
      [
        "sejam",
        -9.588799303055554
      ],
      [
        "Ġposso",
        -9.589214013423922
      ],
      [
        "execuÃ§Ã£o",
        -9.590429045441333
      ],
      [
        "Ġencontra",
        -9.59174782994366
      ],
      [
        "ell",
        -9.592289731855043
      ],
      [
        "Ġbusca",
        -9.592537860486328
      ],
      [
        "Ġafirma",
        -9.595497385298588
      ],
      [
        "Ġcoisas",
        -9.59613006407201
      ],
      [
        "ĠRIC",
        -9.596184109231508
      ],
      [
        "press",
        -9.59661154356599
      ],
      [
        "Ġembora",
        -9.597078743486778
      ],
      [
        "gan",
        -9.597778758096142
      ],
      [
        "ment",
        -9.598018837199016
      ],
      [
        "responsabilidade",
        -9.598313182129392
      ],
      [
        "Ġlivro",
        -9.600147571528638
      ],
      [
        "Ġoportunidade",
        -9.600315464547744
      ],
      [
        "Ġpassado",
        -9.6004529863067
      ],
      [
        "tel",
        -9.6005120213896
      ],
      [
        "Ġdeveria",
        -9.600607585395805
      ],
      [
        "COMISSÃĥO",
        -9.601899027295463
      ],
      [
        "Ġ2017",
        -9.602160171072434
      ],
      [
        "ĠCam",
        -9.60264338632162
      ],
      [
        "Ġformula",
        -9.60297536171154
      ],
      [
        "FI",
        -9.605984870069667
      ],
      [
        "ĠFl",
        -9.607570504773909
      ],
      [
        "gado",
        -9.607876428000646
      ],
      [
        "ĠcompetÃªncia",
        -9.608711010853137
      ],
      [
        "Ġ:)",
        -9.608718261918789
      ],
      [
        "ĠfunÃ§Ã£o",
        -9.608860942548072
      ],
      [
        "Ġalgum",
        -9.61057561262282
      ],
      [
        "ĠimportÃ¢ncia",
        -9.61211835108056
      ],
      [
        "Ã¡ria",
        -9.613434167791738
      ],
      [
        "ĠmÃ©dia",
        -9.613544766818418
      ],
      [
        "ĠApÃ³s",
        -9.614527593055854
      ],
      [
        "Distrito",
        -9.61458981096584
      ],
      [
        "ĠSeu",
        -9.616285066616738
      ],
      [
        "dade",
        -9.617668620154804
      ],
      [
        "previsto",
        -9.619298702499902
      ],
      [
        "ĠAntonio",
        -9.619323368545666
      ],
      [
        "RECURSO",
        -9.619363272358948
      ],
      [
        "Defesa",
        -9.620916932819393
      ],
      [
        "ĠCivil",
        -9.622421361574032
      ],
      [
        "Ġmulher",
        -9.622804916118058
      ],
      [
        "disposto",
        -9.622988358215387
      ],
      [
        "zer",
        -9.623691524848937
      ],
      [
        "Ġrepresenta",
        -9.624055664085432
      ],
      [
        "&",
        -9.625206749295415
      ],
      [
        "Ġajuda",
        -9.62584652712874
      ],
      [
        "ĠCol",
        -9.626246383092278
      ],
      [
        "laÃ§Ã£o",
        -9.626782280487536
      ],
      [
        "*",
        -9.628664147784116
      ],
      [
        "portanto",
        -9.628677818879272
      ],
      [
        "):",
        -9.629935279572296
      ],
      [
        "Ġlista",
        -9.63020500531761
      ],
      [
        "ĠBen",
        -9.631831706360389
      ],
      [
        "cÃ³rdÃ£o",
        -9.63316829871036
      ],
      [
        "discussÃ£o",
        -9.633508776398388
      ],
      [
        "22",
        -9.634846595027156
      ],
      [
        "sociais",
        -9.63542551741624
      ],
      [
        "ĠEMENDA",
        -9.63561847230504
      ],
      [
        "Presidente",
        -9.637714422215415
      ],
      [
        "enti",
        -9.63799084297028
      ],
      [
        "Ġgente",
        -9.639452761995178
      ],
      [
        "Ġmodelo",
        -9.639732121479172
      ],
      [
        "Ġqueria",
        -9.639799243212083
      ],
      [
        "Ġescola",
        -9.639971503254872
      ],
      [
        "nada",
        -9.640041113025928
      ],
      [
        "Geral",
        -9.641150606568251
      ],
      [
        "dora",
        -9.64118628466529
      ],
      [
        "Ġtema",
        -9.641524852900002
      ],
      [
        "ĠTecnologia",
        -9.642068352666929
      ],
      [
        "Ġali",
        -9.64236757953272
      ],
      [
        "Ġ1990",
        -9.645940700767444
      ],
      [
        "Ġpessoal",
        -9.647705754939413
      ],
      [
        "Ġ2020",
        -9.64805937626795
      ],
      [
        "ĠmudanÃ§a",
        -9.648259602080806
      ],
      [
        "risco",
        -9.648435709359685
      ],
      [
        "mÃªs",
        -9.64960438539302
      ],
      [
        "Ģ",
        -9.650488516009515
      ],
      [
        "Ġsolicita",
        -9.65187657017911
      ],
      [
        "ĠPrimeira",
        -9.654293657302562
      ],
      [
        "DEM",
        -9.654547638402
      ],
      [
        "Ġ2002",
        -9.655249195255932
      ],
      [
        "exame",
        -9.655329104655156
      ],
      [
        "Ġvia",
        -9.655421625618551
      ],
      [
        "iniciativa",
        -9.655607131417849
      ],
      [
        "ĠSal",
        -9.655805847267798
      ],
      [
        "Ġlogo",
        -9.656366871832802
      ],
      [
        "ĠComunicaÃ§Ã£o",
        -9.656662509110376
      ],
      [
        "tic",
        -9.656793814517854
      ],
      [
        "podemos",
        -9.65758396803221
      ],
      [
        "Ġmarca",
        -9.65782616371114
      ],
      [
        "ĠinglÃªs",
        -9.657995235223774
      ],
      [
        "ĠPar",
        -9.658585600641288
      ],
      [
        "ServiÃ§o",
        -9.6592989151706
      ],
      [
        "ĠVice",
        -9.66039700580009
      ],
      [
        "ĠBrasileiro",
        -9.66102131691606
      ],
      [
        "Ġnenhum",
        -9.661405943612063
      ],
      [
        "Ġentra",
        -9.661587924853483
      ],
      [
        "2005",
        -9.662044275963517
      ],
      [
        "Ġ2019",
        -9.662582015458858
      ],
      [
        "Campeonato",
        -9.663104858162631
      ],
      [
        "Ġfo",
        -9.663798377496745
      ],
      [
        "ias",
        -9.664267430553204
      ],
      [
        "Ġficou",
        -9.66615185792258
      ],
      [
        "prevista",
        -9.666947777178889
      ],
      [
        "nessa",
        -9.667657492441052
      ],
      [
        "ĠREQUERIMENTO",
        -9.667949015612647
      ],
      [
        "ĠCorte",
        -9.67098684298522
      ],
      [
        "cionais",
        -9.671004122386508
      ],
      [
        "ĠpÃ¡gina",
        -9.67102048463443
      ],
      [
        "membros",
        -9.671777733950718
      ],
      [
        "mÃ©rito",
        -9.672043050697951
      ],
      [
        "Ġbo",
        -9.67221149020785
      ],
      [
        "Ġcarreira",
        -9.672579206821435
      ],
      [
        "ĠObrigado",
        -9.672604122730936
      ],
      [
        "ley",
        -9.673309799095408
      ],
      [
        "ĠprincÃŃpio",
        -9.673964766669988
      ],
      [
        "Ġdar",
        -9.674729634160572
      ],
      [
        "Ġefeito",
        -9.675285470071188
      ],
      [
        "ĠGi",
        -9.67599059707304
      ],
      [
        "Ġprofissional",
        -9.677823822471217
      ],
      [
        "Ġtemporada",
        -9.679607528412747
      ],
      [
        "ĠInstituto",
        -9.679966137816663
      ],
      [
        "obras",
        -9.681513551449603
      ],
      [
        "Ġexiste",
        -9.68177569548956
      ],
      [
        "ã",
        -9.68198564626634
      ],
      [
        "jurÃŃdica",
        -9.683599463906024
      ],
      [
        "bilhÃµes",
        -9.68402053945256
      ],
      [
        "gem",
        -9.684116694327749
      ],
      [
        "Ġsenhor",
        -9.684143568465588
      ],
      [
        "discurso",
        -9.684342365239177
      ],
      [
        "ĠCan",
        -9.6844529654974
      ],
      [
        "80",
        -9.684712407198006
      ],
      [
        "ĠAmÃ©rica",
        -9.684744651352224
      ],
      [
        "Ġanterior",
        -9.68643641495201
      ],
      [
        "rÃ£o",
        -9.6865783550434
      ],
      [
        "ĠEst",
        -9.6870096722293
      ],
      [
        "ĠExcelÃªncia",
        -9.687208618829237
      ],
      [
        "60",
        -9.687716560662444
      ],
      [
        "ĠCosta",
        -9.6881495300274
      ],
      [
        "Ã§",
        -9.689019737553783
      ],
      [
        "Ã¢mbito",
        -9.689046455896252
      ],
      [
        "TambÃ©m",
        -9.689411515602483
      ],
      [
        "Ġvigor",
        -9.690332738686454
      ],
      [
        "nica",
        -9.690674951105123
      ],
      [
        "tornou",
        -9.690737767482853
      ],
      [
        "Ġ2000",
        -9.692898346992555
      ],
      [
        "2019",
        -9.692914929687776
      ],
      [
        "ĠCunha",
        -9.69433086573858
      ],
      [
        "requer",
        -9.694561282735991
      ],
      [
        "Ġcampanha",
        -9.69471750341481
      ],
      [
        "posiÃ§Ãµes",
        -9.695115676229303
      ],
      [
        "mandato",
        -9.695304685107926
      ],
      [
        "serem",
        -9.695553624528635
      ],
      [
        "Ġpauta",
        -9.695676797924506
      ],
      [
        "ĠRequerimento",
        -9.696630491660208
      ],
      [
        "ĠRel",
        -9.696912270544503
      ],
      [
        "Ġchegar",
        -9.697253402519996
      ],
      [
        "Ġrei",
        -9.697982025237543
      ],
      [
        "ego",
        -9.698881217516584
      ],
      [
        "ĠCh",
        -9.698965996002537
      ],
      [
        "Ġcerteza",
        -9.699634637838852
      ],
      [
        "comeÃ§ou",
        -9.700607343232113
      ],
      [
        "ĠquÃª",
        -9.701549213569496
      ],
      [
        "ĠCON",
        -9.701558784412654
      ],
      [
        "MENTO",
        -9.701882721135098
      ],
      [
        "Ġtransporte",
        -9.70190909202557
      ],
      [
        "Ġteria",
        -9.7023049054377
      ],
      [
        "Ġtitular",
        -9.70408735433806
      ],
      [
        "Depois",
        -9.704375536622292
      ],
      [
        "Ġsuper",
        -9.705104263967966
      ],
      [
        "Ġprojetos",
        -9.706447123716416
      ],
      [
        "ÃļLTI",
        -9.707731662199116
      ],
      [
        "isto",
        -9.707737814431898
      ],
      [
        "Ġfederal",
        -9.708600667773007
      ],
      [
        "Ġhaver",
        -9.708777686205924
      ],
      [
        "Ġresultado",
        -9.708777695621617
      ],
      [
        "Ġoriginal",
        -9.708887308448796
      ],
      [
        "Ġcentro",
        -9.709715155811022
      ],
      [
        "Ġinfra",
        -9.709791375082377
      ],
      [
        "Ġsede",
        -9.709866943421286
      ],
      [
        "ĠGuerra",
        -9.709925137584726
      ],
      [
        "vida",
        -9.710037019142568
      ],
      [
        "Ġalta",
        -9.710175344760884
      ],
      [
        "valores",
        -9.710633519227809
      ],
      [
        "econÃ´mica",
        -9.711208619330211
      ],
      [
        "Ġsal",
        -9.711533565539929
      ],
      [
        "GO",
        -9.711596577304723
      ],
      [
        "ĠaplicaÃ§Ã£o",
        -9.712032364179304
      ],
      [
        "ĠalguÃ©m",
        -9.71210664827334
      ],
      [
        "Ġ2001",
        -9.712823718341536
      ],
      [
        "emos",
        -9.7130705107235
      ],
      [
        "Ã¼",
        -9.713845104016311
      ],
      [
        "Ġrealizado",
        -9.714132375940649
      ],
      [
        "ĠterritÃ³rio",
        -9.715241134124897
      ],
      [
        "iana",
        -9.715969600878672
      ],
      [
        "pÃ©",
        -9.716705633885011
      ],
      [
        "Ġprincipais",
        -9.716807387906178
      ],
      [
        "ĠCopa",
        -9.717459745359044
      ],
      [
        "Ġaquele",
        -9.717667251664196
      ],
      [
        "Ġfiscal",
        -9.718459266565656
      ],
      [
        "ĠSecretaria",
        -9.71873716002974
      ],
      [
        "CN",
        -9.718781855813123
      ],
      [
        "ĠRu",
        -9.721314286233898
      ],
      [
        "ÃĩÃķES",
        -9.722034190116569
      ],
      [
        "ĠRos",
        -9.722241625419333
      ],
      [
        "Ġmovimento",
        -9.722673128940944
      ],
      [
        "ilha",
        -9.72440892561202
      ],
      [
        "Ã³rgÃ£o",
        -9.724831114858182
      ],
      [
        "CURSO",
        -9.725617211088927
      ],
      [
        "Ġclaro",
        -9.726161038541134
      ],
      [
        "ĠEspecial",
        -9.726667818271991
      ],
      [
        "Ġrenda",
        -9.727398106074247
      ],
      [
        "Ġautos",
        -9.727741560845969
      ],
      [
        "nÃ£o",
        -9.7277789342202
      ],
      [
        "comunicaÃ§Ã£o",
        -9.727819502535686
      ],
      [
        "Ġnobre",
        -9.728387457211456
      ],
      [
        "Ġperde",
        -9.728405121320456
      ],
      [
        "2017",
        -9.729793910657138
      ],
      [
        "ĠinformaÃ§Ã£o",
        -9.730060915673146
      ],
      [
        "ĠTV",
        -9.730386395404478
      ],
      [
        "Ġocorre",
        -9.730826809553593
      ],
      [
        "Ġideia",
        -9.731151499708504
      ],
      [
        "van",
        -9.73167348800954
      ],
      [
        "Ġconsiderado",
        -9.733523838975977
      ],
      [
        "Ġcrise",
        -9.73378959234496
      ],
      [
        "..............",
        -9.735366301771084
      ],
      [
        "Ġnatureza",
        -9.73682024544137
      ],
      [
        "Ġrefere",
        -9.73755952498448
      ],
      [
        "deverÃ¡",
        -9.739405697600793
      ],
      [
        "Ġpontos",
        -9.739499345640215
      ],
      [
        "culo",
        -9.739758811677811
      ],
      [
        "21",
        -9.73983318176522
      ],
      [
        "apreciaÃ§Ã£o",
        -9.740373045001522
      ],
      [
        "Ġturno",
        -9.741939790141464
      ],
      [
        "Ġfase",
        -9.742220503473618
      ],
      [
        "ĠTra",
        -9.747419311352566
      ],
      [
        "Ġlivre",
        -9.748273438366846
      ],
      [
        "ĠatenÃ§Ã£o",
        -9.748451355657568
      ],
      [
        "ĠMIN",
        -9.749611457518062
      ],
      [
        "Ġauto",
        -9.751366518213173
      ],
      [
        "ĠQuero",
        -9.751574674243708
      ],
      [
        "remos",
        -9.751591751341918
      ],
      [
        "provimento",
        -9.753429537759146
      ],
      [
        "enda",
        -9.75439142225088
      ],
      [
        "ĠQuem",
        -9.75502624976735
      ],
      [
        "Ordem",
        -9.755544600778691
      ],
      [
        "ĠRicardo",
        -9.755797828539237
      ],
      [
        "ĠEles",
        -9.756557975367729
      ],
      [
        "chegou",
        -9.757753200990196
      ],
      [
        "ĠPI",
        -9.758509492135564
      ],
      [
        "70",
        -9.7599772113379
      ],
      [
        "ĠPr",
        -9.760325708502188
      ],
      [
        "Ġ1998",
        -9.76169258517104
      ],
      [
        "essÃµes",
        -9.762711496977774
      ],
      [
        "idades",
        -9.76275428992641
      ],
      [
        "ĠSistema",
        -9.762762092302818
      ],
      [
        "Ġautoria",
        -9.763534401278442
      ],
      [
        "ĠAlves",
        -9.763624329531003
      ],
      [
        "Ġsucesso",
        -9.764063027498976
      ],
      [
        "ĠSanto",
        -9.76533578418742
      ],
      [
        "Ġdiferentes",
        -9.766476301483191
      ],
      [
        "ĠVe",
        -9.76693479403964
      ],
      [
        "Ġcaput",
        -9.767296687518222
      ],
      [
        "ĠHenrique",
        -9.768441810570405
      ],
      [
        "existÃªncia",
        -9.768524809157537
      ],
      [
        "Ġ60",
        -9.769218364652485
      ],
      [
        "Ġ2018",
        -9.769794511283449
      ],
      [
        "ĠMINISTR",
        -9.770429437275942
      ],
      [
        "ĠAGRAV",
        -9.770478892491164
      ],
      [
        "Ġrede",
        -9.770710381064887
      ],
      [
        "Ġguerra",
        -9.770719454751138
      ],
      [
        "ĠSub",
        -9.772927785379837
      ],
      [
        "Ġpenal",
        -9.773588961239586
      ],
      [
        "ĠPereira",
        -9.774554285106014
      ],
      [
        "Ġrel",
        -9.77458742454264
      ],
      [
        "tados",
        -9.774726888403272
      ],
      [
        "ĠOh",
        -9.774933673546984
      ],
      [
        "Ġcivil",
        -9.778537830446334
      ],
      [
        "Ġcriar",
        -9.77998821937602
      ],
      [
        "Ġreco",
        -9.78041163442138
      ],
      [
        "ĠSantos",
        -9.78129057178375
      ],
      [
        "ĠÃºnica",
        -9.784694545849788
      ],
      [
        "ĠformaÃ§Ã£o",
        -9.784856109661726
      ],
      [
        "Ġmenor",
        -9.785126235727027
      ],
      [
        "ĠDias",
        -9.785307619456304
      ],
      [
        "ĠEl",
        -9.786044021175806
      ],
      [
        "ĠHu",
        -9.78629703740031
      ],
      [
        "acima",
        -9.786499233553508
      ],
      [
        "Cidadania",
        -9.786791088855187
      ],
      [
        "Ġseis",
        -9.787260085270557
      ],
      [
        "REG",
        -9.78861932279154
      ],
      [
        "Ġfinanceira",
        -9.789463947219875
      ],
      [
        "ĠMais",
        -9.791047346898797
      ],
      [
        "PolÃŃcia",
        -9.791141996072389
      ],
      [
        "ĠDireito",
        -9.791146697388264
      ],
      [
        "cujo",
        -9.79285902248036
      ],
      [
        "Ġinternacional",
        -9.794125211560218
      ],
      [
        "Ġsol",
        -9.795350378042896
      ],
      [
        "Ã³rgÃ£os",
        -9.79550346373414
      ],
      [
        "dar",
        -9.795504731667895
      ],
      [
        "Ġref",
        -9.795623549044995
      ],
      [
        "Ġplano",
        -9.79604772621306
      ],
      [
        "Ġvisita",
        -9.796395052556052
      ],
      [
        "ĥ",
        -9.797050320559933
      ],
      [
        "pensado",
        -9.79881355335678
      ],
      [
        "Ġchega",
        -9.799596263617932
      ],
      [
        "Ġcomunidade",
        -9.800228783944052
      ],
      [
        "gestÃ£o",
        -9.800682997914896
      ],
      [
        "2006",
        -9.801381729459267
      ],
      [
        "trabalhadores",
        -9.801405756504828
      ],
      [
        "Ġsignifica",
        -9.801551582692769
      ],
      [
        "iri",
        -9.802435867850852
      ],
      [
        "Ĥ",
        -9.8032199072048
      ],
      [
        "ĠPorto",
        -9.803848655834788
      ],
      [
        "ĠVa",
        -9.804473758665663
      ],
      [
        "Medida",
        -9.80493951164657
      ],
      [
        "bert",
        -9.805051688591217
      ],
      [
        "Â",
        -9.805819568811616
      ],
      [
        "Ġ35",
        -9.806528828043827
      ],
      [
        "ĠBl",
        -9.806940056643146
      ],
      [
        "ĠSou",
        -9.807120955438387
      ],
      [
        "ĠCE",
        -9.807294201389915
      ],
      [
        "ĠmÃ£o",
        -9.808186896799407
      ],
      [
        "Î",
        -9.80831191346827
      ],
      [
        "ĠreferÃªncia",
        -9.80840837559228
      ],
      [
        "ĠGra",
        -9.808729427245286
      ],
      [
        "destaque",
        -9.809230452920614
      ],
      [
        "Ãį",
        -9.809313774204602
      ],
      [
        "Ġpri",
        -9.810653345813485
      ],
      [
        "ĠDilma",
        -9.81081148310999
      ],
      [
        "mediante",
        -9.811021816727024
      ],
      [
        "ara",
        -9.812130410725873
      ],
      [
        "ĠParlamentar",
        -9.81317448567369
      ],
      [
        "Ġautoriza",
        -9.81382173142872
      ],
      [
        "ĠVou",
        -9.815360392942395
      ],
      [
        "realmente",
        -9.81612527987149
      ],
      [
        "leg",
        -9.816330683748452
      ],
      [
        "dura",
        -9.816560964753462
      ],
      [
        "ĠinstituiÃ§Ãµes",
        -9.816589644184372
      ],
      [
        "Ġcaminho",
        -9.81659653324789
      ],
      [
        "ĠposiÃ§Ã£o",
        -9.8169274639127
      ],
      [
        "ĠirmÃ£o",
        -9.817129867249497
      ],
      [
        "eve",
        -9.818021807717283
      ],
      [
        "recebeu",
        -9.81916050871105
      ],
      [
        "ĠBanco",
        -9.81948580949408
      ],
      [
        "ĠHer",
        -9.819584392053548
      ],
      [
        "ĠFu",
        -9.819945904527836
      ],
      [
        "ting",
        -9.820695048712858
      ],
      [
        "Ġatendimento",
        -9.821019758194474
      ],
      [
        "PP",
        -9.821209672258206
      ],
      [
        "contrÃ¡rio",
        -9.82197612515098
      ],
      [
        "parÃ¡grafo",
        -9.82362319500739
      ],
      [
        "Ġnota",
        -9.82394225281852
      ],
      [
        "cuja",
        -9.82473276421433
      ],
      [
        "Ġpequeno",
        -9.824825310977683
      ],
      [
        "ĠPSD",
        -9.8277403335299
      ],
      [
        "ĠMato",
        -9.828347883762016
      ],
      [
        "ĠEra",
        -9.829321777222605
      ],
      [
        "ĠNesse",
        -9.830386860102848
      ],
      [
        "IDADE",
        -9.830500590470008
      ],
      [
        "ĠSol",
        -9.832648373402147
      ],
      [
        "category",
        -9.833279367818506
      ],
      [
        "ĠHistÃ³ria",
        -9.833354906184365
      ],
      [
        "ĠDis",
        -9.833660347692126
      ],
      [
        "Ġsul",
        -9.833785754733912
      ],
      [
        "Ġdesses",
        -9.834551828574824
      ],
      [
        "ĠEntre",
        -9.835486965241
      ],
      [
        "rica",
        -9.83697716425711
      ],
      [
        "ĠMeu",
        -9.837055426388709
      ],
      [
        "Ġclube",
        -9.837805828424182
      ],
      [
        "gio",
        -9.838346189892
      ],
      [
        "Ġresposta",
        -9.838624477591742
      ],
      [
        "Ġeleito",
        -9.83963421296352
      ],
      [
        "Ġmanter",
        -9.83965533745295
      ],
      [
        "Ġcultura",
        -9.840415791521432
      ],
      [
        "ĠlanÃ§ado",
        -9.841384803195082
      ],
      [
        "critÃ©rio",
        -9.842185584572892
      ],
      [
        "har",
        -9.843064827738717
      ],
      [
        "ĠMarcelo",
        -9.8434612452293
      ],
      [
        "violÃªncia",
        -9.844005362487296
      ],
      [
        "ĠFundo",
        -9.845983450391731
      ],
      [
        "Gerais",
        -9.846042443670356
      ],
      [
        "tÃ³ria",
        -9.846555519244305
      ],
      [
        "Durante",
        -9.847422338767036
      ],
      [
        "Ġcapacidade",
        -9.848668590185577
      ],
      [
        "Ġmeta",
        -9.848992030715648
      ],
      [
        "rico",
        -9.85002078242604
      ],
      [
        "Ġliberdade",
        -9.851219917118923
      ],
      [
        "lei",
        -9.851521228780197
      ],
      [
        "Ġcriado",
        -9.852216489892378
      ],
      [
        "Ġreuni",
        -9.852718762182132
      ],
      [
        "preÃ§o",
        -9.853472915453898
      ],
      [
        "PAULO",
        -9.853561452024325
      ],
      [
        "ĠRosa",
        -9.854235486991866
      ],
      [
        "ĠADV",
        -9.854249825019128
      ],
      [
        "ĠRÃ¡dio",
        -9.854647030915825
      ],
      [
        "Ġdela",
        -9.855880578103353
      ],
      [
        "Ġnovos",
        -9.856425651507678
      ],
      [
        "org",
        -9.856817356857327
      ],
      [
        "homens",
        -9.857014826173776
      ],
      [
        "ĠPRO",
        -9.857384047801135
      ],
      [
        "ĠBahia",
        -9.857941608010066
      ],
      [
        "ĠBR",
        -9.857982396419374
      ],
      [
        "Ġdisputa",
        -9.860361097518156
      ],
      [
        "ĠBrasileira",
        -9.860529073936892
      ],
      [
        "Ġdiversos",
        -9.861887565142656
      ],
      [
        "Ġagr",
        -9.862200945052672
      ],
      [
        "Ġexecutar",
        -9.862554234275995
      ],
      [
        "ty",
        -9.863124758404023
      ],
      [
        "ĠJorge",
        -9.86349955829938
      ],
      [
        "proteÃ§Ã£o",
        -9.864230388663056
      ],
      [
        "ÃŃstica",
        -9.864315174314186
      ],
      [
        "ssem",
        -9.865315715593068
      ],
      [
        "ĠresponsÃ¡vel",
        -9.86547548118368
      ],
      [
        "Ġterceiro",
        -9.865522619117266
      ],
      [
        "cido",
        -9.86552970608026
      ],
      [
        "Ġmaterial",
        -9.865710249217154
      ],
      [
        "ĠLima",
        -9.867028345045584
      ],
      [
        "Ġvotar",
        -9.867360462229357
      ],
      [
        "servidores",
        -9.867394874558483
      ],
      [
        "mir",
        -9.868835951716823
      ],
      [
        "RS",
        -9.869196760948926
      ],
      [
        "ĠSENHOR",
        -9.86935526334893
      ],
      [
        "Ġincluindo",
        -9.870063836505434
      ],
      [
        "pressÃ£o",
        -9.87040202612902
      ],
      [
        "Ġchamada",
        -9.870698235641282
      ],
      [
        "Ġambiente",
        -9.870734380992252
      ],
      [
        "ĠAg",
        -9.871181338508492
      ],
      [
        "ĠMundial",
        -9.871764710091036
      ],
      [
        "wa",
        -9.872431282379427
      ],
      [
        "mentos",
        -9.872904516119627
      ],
      [
        "ProvisÃ³ria",
        -9.873048822048723
      ],
      [
        "maiores",
        -9.87307640822233
      ],
      [
        "Ġestudo",
        -9.873403211227371
      ],
      [
        "ģ",
        -9.87346456048893
      ],
      [
        "ĠAdministraÃ§Ã£o",
        -9.874819834395714
      ],
      [
        "Ġhomenage",
        -9.875807005987898
      ],
      [
        "Ġapresentado",
        -9.87610841326924
      ],
      [
        "ĠKi",
        -9.876430447919756
      ],
      [
        "SOL",
        -9.877349811620473
      ],
      [
        "ĠBra",
        -9.877517750425003
      ],
      [
        "ĠGe",
        -9.8790099213551
      ],
      [
        "Ġtorna",
        -9.879172240297818
      ],
      [
        "devem",
        -9.880544182079706
      ],
      [
        "Ġdiversas",
        -9.880724269193632
      ],
      [
        "age",
        -9.880842457318026
      ],
      [
        "Ġporta",
        -9.881120864590905
      ],
      [
        "Ġtrabalhos",
        -9.882483162021916
      ],
      [
        "Ġusar",
        -9.882675489635345
      ],
      [
        "Ġmostra",
        -9.883071483260029
      ],
      [
        "Ġreceber",
        -9.884217892258617
      ],
      [
        "Ġacha",
        -9.884233953841576
      ],
      [
        "Ainda",
        -9.884279711201993
      ],
      [
        "ance",
        -9.88455462510353
      ],
      [
        "Ġprofissionais",
        -9.884567147849088
      ],
      [
        "ĠInternacional",
        -9.884759649762968
      ],
      [
        "normas",
        -9.88499572296831
      ],
      [
        "Of",
        -9.885541636490313
      ],
      [
        "ĠâĢĺ",
        -9.886942353340078
      ],
      [
        "Ã¢ncia",
        -9.887065255698952
      ],
      [
        "Ġamor",
        -9.88733085978142
      ],
      [
        "tratamento",
        -9.88757791761297
      ],
      [
        "ĠMendes",
        -9.888005336161006
      ],
      [
        "produtos",
        -9.88816049214794
      ],
      [
        "Ġcabe",
        -9.888321807358022
      ],
      [
        "Ġamigo",
        -9.888602409149788
      ],
      [
        "ARDO",
        -9.889339378353856
      ],
      [
        "Ġelas",
        -9.889905605383342
      ],
      [
        "ĠBA",
        -9.890073474161948
      ],
      [
        "ĠTudo",
        -9.89136469790243
      ],
      [
        "onde",
        -9.892338425582569
      ],
      [
        "gostaria",
        -9.892485826210793
      ],
      [
        "ĠAta",
        -9.89252577552502
      ],
      [
        "\",\"",
        -9.892539795309624
      ],
      [
        "Ġartigos",
        -9.89512353717501
      ],
      [
        "Ġ1997",
        -9.895332066021671
      ],
      [
        "lÃ³gico",
        -9.895652573039614
      ],
      [
        "ĠLocal",
        -9.895656498709178
      ],
      [
        "anti",
        -9.897403678579607
      ],
      [
        "Ġautoridade",
        -9.898096638750392
      ],
      [
        "ĠeconÃ´mico",
        -9.898334792907354
      ],
      [
        "reduÃ§Ã£o",
        -9.89972413997758
      ],
      [
        "vendo",
        -9.900077575059528
      ],
      [
        "shi",
        -9.900152714334803
      ],
      [
        "Ġcompra",
        -9.900757403316849
      ],
      [
        "Ġfins",
        -9.90169773986197
      ],
      [
        "PL",
        -9.901941594708934
      ],
      [
        "Ġgarantia",
        -9.904872269124974
      ],
      [
        "PCdoB",
        -9.905102233115189
      ],
      [
        "RJ",
        -9.905968689841009
      ],
      [
        "ĠWe",
        -9.906251522033116
      ],
      [
        "Ġquer",
        -9.90635712644745
      ],
      [
        "Ġcumprimento",
        -9.906614194994557
      ],
      [
        "Ġdiretor",
        -9.906964490517115
      ],
      [
        "Ġcarro",
        -9.907315382163643
      ],
      [
        "medidas",
        -9.907556894443212
      ],
      [
        "ĠAna",
        -9.908125490852925
      ],
      [
        "Ġfundamental",
        -9.908434141196482
      ],
      [
        "2003",
        -9.908547857372678
      ],
      [
        "ĠVoss",
        -9.90884454852504
      ],
      [
        "Ġfuturo",
        -9.910593407873474
      ],
      [
        "Ġevento",
        -9.912552582549113
      ],
      [
        "Ġ36",
        -9.912711243225765
      ],
      [
        "Lei",
        -9.913203551230993
      ],
      [
        "dig",
        -9.91401390881917
      ],
      [
        "ĠGovernador",
        -9.914823074047822
      ],
      [
        "Ġmuita",
        -9.91615129982775
      ],
      [
        "Ġcategoria",
        -9.918902629388862
      ],
      [
        "acrescenta",
        -9.91902507431884
      ],
      [
        "pronunciamento",
        -9.919131086242883
      ],
      [
        "Ġtaxa",
        -9.919543714926023
      ],
      [
        "Ġnenhuma",
        -9.920048632301356
      ],
      [
        "Ġnatural",
        -9.92023433205002
      ],
      [
        "Ġnego",
        -9.920546337339488
      ],
      [
        "pur",
        -9.921258204429035
      ],
      [
        "Ġapresentada",
        -9.921393773192742
      ],
      [
        "ĠGen",
        -9.921623526899827
      ],
      [
        "fÃŃsica",
        -9.921855514798482
      ],
      [
        "Ġpassar",
        -9.92201020835016
      ],
      [
        "mont",
        -9.923086774422943
      ],
      [
        "Ġdispo",
        -9.923708124140358
      ],
      [
        "Ġalto",
        -9.924041928952606
      ],
      [
        "Ġisto",
        -9.92416577955698
      ],
      [
        "bora",
        -9.926490536194327
      ],
      [
        "Ġmilitar",
        -9.927621278636389
      ],
      [
        "ĠAcho",
        -9.927710242157756
      ],
      [
        "dÃºvida",
        -9.928945460751748
      ],
      [
        "lidade",
        -9.93049929862924
      ],
      [
        "seguintes",
        -9.930844855353838
      ],
      [
        "tores",
        -9.931176631198664
      ],
      [
        "ĠSuperior",
        -9.932141002019414
      ],
      [
        "Ġcontinua",
        -9.932613175000514
      ],
      [
        "ung",
        -9.93267236836432
      ],
      [
        "substituiÃ§Ã£o",
        -9.933176454106126
      ],
      [
        "Ġdeles",
        -9.933592418251344
      ],
      [
        "RG",
        -9.933661175477477
      ],
      [
        "Ġcrescimento",
        -9.934200932452375
      ],
      [
        "ori",
        -9.934479745388227
      ],
      [
        "Ġinstrumento",
        -9.934962014808722
      ],
      [
        "pel",
        -9.93506068913514
      ],
      [
        "ĠCentro",
        -9.938278979791493
      ],
      [
        "Ġnovas",
        -9.939561562172994
      ],
      [
        "gia",
        -9.94032626041096
      ],
      [
        "Ġapresentar",
        -9.940717447528243
      ],
      [
        "hipÃ³tese",
        -9.941361079466423
      ],
      [
        "Ġjornal",
        -9.941598286852926
      ],
      [
        "Ġsonora",
        -9.942632990497984
      ],
      [
        "gal",
        -9.942945482380985
      ],
      [
        "ĠPEC",
        -9.943647709735462
      ],
      [
        "rito",
        -9.944106885970749
      ],
      [
        "Ġnaquel",
        -9.945318695202458
      ],
      [
        "Ġsimples",
        -9.945419985823966
      ],
      [
        "entidades",
        -9.946137541209328
      ],
      [
        "tido",
        -9.9463673152921
      ],
      [
        "Ġcusto",
        -9.946651036786337
      ],
      [
        "ĠEXTRAORDINÃģRI",
        -9.946675389391274
      ],
      [
        "ĠCal",
        -9.946688479484422
      ],
      [
        "ĠVoto",
        -9.946766977186996
      ],
      [
        "ĠPmdbP",
        -9.948370035091612
      ],
      [
        "Ġajudar",
        -9.949302083504664
      ],
      [
        "Ġfundo",
        -9.94938582135348
      ],
      [
        "GA",
        -9.949409331335872
      ],
      [
        "tecnologia",
        -9.949658601441358
      ],
      [
        "Ãĵ",
        -9.9498933689551
      ],
      [
        "ĠBel",
        -9.950143746990578
      ],
      [
        "Ġimposto",
        -9.95052065567838
      ],
      [
        "ĠAqui",
        -9.95085247162209
      ],
      [
        "rios",
        -9.952120860491211
      ],
      [
        "Ġdeixo",
        -9.952400680010816
      ],
      [
        "RES",
        -9.95281013400114
      ],
      [
        "cida",
        -9.95300240119564
      ],
      [
        "Ġmer",
        -9.953074380240624
      ],
      [
        "gente",
        -9.953598534464112
      ],
      [
        "audiÃªncia",
        -9.954402683028
      ],
      [
        "tia",
        -9.955346921161166
      ],
      [
        "lada",
        -9.957582146057996
      ],
      [
        "ĠIta",
        -9.957769664783688
      ],
      [
        "ĠvocÃªs",
        -9.958000601206583
      ],
      [
        "ĠCampos",
        -9.959187110232206
      ],
      [
        "Ġacaba",
        -9.96035878441733
      ],
      [
        "ĠTh",
        -9.961432754170788
      ],
      [
        "Ñ",
        -9.961745847173958
      ],
      [
        "Ã¡veis",
        -9.961875774849728
      ],
      [
        "Ġtribuna",
        -9.961917876481126
      ],
      [
        "ĠninguÃ©m",
        -9.961937687391988
      ],
      [
        "Ġconquista",
        -9.962756519697844
      ],
      [
        "ĠBer",
        -9.963191488227748
      ],
      [
        "ĠRO",
        -9.963911943795894
      ],
      [
        "Hoje",
        -9.964053909503107
      ],
      [
        "Ġconsegui",
        -9.964592864896169
      ],
      [
        "Ġdespes",
        -9.96468569382866
      ],
      [
        "ĠTodos",
        -9.964967669757195
      ],
      [
        "vos",
        -9.966476909283475
      ],
      [
        "verÃ£o",
        -9.966611705238424
      ],
      [
        "ĠIgreja",
        -9.968011142307237
      ],
      [
        "Ġvisto",
        -9.968433805542205
      ],
      [
        "2004",
        -9.96866596533372
      ],
      [
        "ĠLt",
        -9.969062641518503
      ],
      [
        "Ġdiante",
        -9.971422787436282
      ],
      [
        "Ġcria",
        -9.971608781297926
      ],
      [
        "ĠterÃ¡",
        -9.971993778171417
      ],
      [
        "Ġfilhos",
        -9.972930007192597
      ],
      [
        "Ġ1999",
        -9.97317796214808
      ],
      [
        "ĠadministraÃ§Ã£o",
        -9.97392191468329
      ],
      [
        "Ġcontar",
        -9.97436504405938
      ],
      [
        "designado",
        -9.975420241453866
      ],
      [
        "ĠversÃ£o",
        -9.975863939171786
      ],
      [
        "Ġespecialmente",
        -9.97668450014317
      ],
      [
        "ĠorganizaÃ§Ã£o",
        -9.976876257575915
      ],
      [
        "ĠFranÃ§a",
        -9.977373146192985
      ],
      [
        "Ġcombate",
        -9.978331802252043
      ],
      [
        "ĠAnex",
        -9.978600223599884
      ],
      [
        "ĠinstituiÃ§Ã£o",
        -9.979398194910669
      ],
      [
        "Ġcorre",
        -9.979432385008682
      ],
      [
        "PFL",
        -9.979545442999513
      ],
      [
        "ĠSecretÃ¡rio",
        -9.979654168289438
      ],
      [
        "Ġestabelece",
        -9.980531718113753
      ],
      [
        "ĠCultura",
        -9.980994667117002
      ],
      [
        "ĠlÃŃngua",
        -9.981646677650144
      ],
      [
        "Ġconhecida",
        -9.982598476216433
      ],
      [
        "juridicidade",
        -9.982825724820987
      ],
      [
        "by",
        -9.982849526169629
      ],
      [
        "Ġnorma",
        -9.982850197545453
      ],
      [
        "stÃµes",
        -9.983731141607883
      ],
      [
        "Tenho",
        -9.984448781226172
      ],
      [
        "AM",
        -9.984542342321394
      ],
      [
        "CH",
        -9.984560719745003
      ],
      [
        "Ġfutebol",
        -9.985038667144163
      ],
      [
        "ĠFEDERAL",
        -9.98570127382783
      ],
      [
        "Ġ37",
        -9.987392286788014
      ],
      [
        "ĠMon",
        -9.98750326471929
      ],
      [
        "ĠTemer",
        -9.98791131794516
      ],
      [
        "ĠRJ",
        -9.989345510943142
      ],
      [
        "bit",
        -9.989950295288196
      ],
      [
        "ĠJÃºnior",
        -9.9908305407255
      ],
      [
        "NAL",
        -9.990938260952918
      ],
      [
        "URMA",
        -9.99114447096442
      ],
      [
        "ĠTerra",
        -9.991324662008369
      ],
      [
        "Ġapre",
        -9.991631255629668
      ],
      [
        "porÃ©",
        -9.992533065855422
      ],
      [
        "ontem",
        -9.992754585858146
      ],
      [
        "ĠSer",
        -9.993749381815888
      ],
      [
        "Ġtermo",
        -9.9943430243895
      ],
      [
        "tenham",
        -9.99526165425385
      ],
      [
        "proposiÃ§Ã£o",
        -9.995300620167631
      ],
      [
        "Ġbastante",
        -9.995380218407584
      ],
      [
        "Ġrevista",
        -9.995474364901115
      ],
      [
        "Ġfilha",
        -9.996224009733533
      ],
      [
        "ĠBom",
        -9.99691750482438
      ],
      [
        "ĠRibeiro",
        -9.99805345789746
      ],
      [
        "Ġ55",
        -9.99809888349096
      ],
      [
        "Ġimporta",
        -9.99836861105821
      ],
      [
        "ham",
        -9.998456865554282
      ],
      [
        "Ġsair",
        -9.998830716360237
      ],
      [
        "ÃŃvel",
        -9.99923355292666
      ],
      [
        "Ġaprovada",
        -9.999837952750712
      ],
      [
        "comunitÃ¡ria",
        -9.999958234985137
      ],
      [
        "lida",
        -10.000851618354952
      ],
      [
        "Ġpublicado",
        -10.001085753675822
      ],
      [
        "Ġapro",
        -10.001180518041927
      ],
      [
        "Ġrecu",
        -10.001240254437835
      ],
      [
        "Ġvale",
        -10.001455859425675
      ],
      [
        "Ġrealidade",
        -10.00225243199958
      ],
      [
        "conteÃºdo",
        -10.0025504434605
      ],
      [
        "Ġextra",
        -10.002720002512635
      ],
      [
        "eza",
        -10.002852642419946
      ],
      [
        "Ġgarantir",
        -10.00362234640842
      ],
      [
        "ĠprÃ³xima",
        -10.00366198393471
      ],
      [
        "prisÃ£o",
        -10.00392060374361
      ],
      [
        "afirmou",
        -10.004514606783587
      ],
      [
        "seguida",
        -10.00494548912158
      ],
      [
        "pÃºblicos",
        -10.00517921166291
      ],
      [
        "Ġman",
        -10.005217866271972
      ],
      [
        "bancada",
        -10.005507003194012
      ],
      [
        "autorizaÃ§Ã£o",
        -10.0072315755725
      ],
      [
        "Ġpergunta",
        -10.008130050690724
      ],
      [
        "âĢĲ",
        -10.00836178063022
      ],
      [
        "Ġ70",
        -10.008591054213417
      ],
      [
        "Ġcurso",
        -10.010161445934909
      ],
      [
        "Ġrecebe",
        -10.010464706557238
      ],
      [
        "Ġnovamente",
        -10.010640261776146
      ],
      [
        "rÃ³",
        -10.01085353126124
      ],
      [
        "han",
        -10.012242387213352
      ],
      [
        "ĠDOS",
        -10.012640114378224
      ],
      [
        "toria",
        -10.01270049863666
      ],
      [
        "Ġ53",
        -10.013629070695174
      ],
      [
        "Ġtrabalhar",
        -10.013706307666544
      ],
      [
        "tudo",
        -10.01499542920793
      ],
      [
        "jovens",
        -10.015477442360456
      ],
      [
        "Ġclasse",
        -10.01699545398829
      ],
      [
        "ĠLÃºci",
        -10.017584051575795
      ],
      [
        "ĠSegunda",
        -10.018899973681862
      ],
      [
        "ĠTom",
        -10.019014677799303
      ],
      [
        "Ġparticipar",
        -10.019054765145594
      ],
      [
        "ÃŃcio",
        -10.019213837621647
      ],
      [
        "ĠJO",
        -10.019538776691697
      ],
      [
        "ĠVale",
        -10.019813120088315
      ],
      [
        "ĠJohn",
        -10.020090190172214
      ],
      [
        "atuaÃ§Ã£o",
        -10.020189415476596
      ],
      [
        "ĠRoma",
        -10.020551365577305
      ],
      [
        "Ã¡rios",
        -10.023537863274504
      ],
      [
        "aga",
        -10.023814643425936
      ],
      [
        "ĠAprova",
        -10.02391459669077
      ],
      [
        "bia",
        -10.024199012900626
      ],
      [
        "GL",
        -10.02490327283681
      ],
      [
        "ĠInformÃ¡tica",
        -10.025142559326724
      ],
      [
        "ĠAtÃ©",
        -10.025211894524624
      ],
      [
        "HC",
        -10.026349872819434
      ],
      [
        "ĠeletrÃ´nico",
        -10.03062664639271
      ],
      [
        "Ġ34",
        -10.031057528885931
      ],
      [
        "ĠcondiÃ§Ã£o",
        -10.032553100602952
      ],
      [
        "Ġdispositivo",
        -10.03339302879306
      ],
      [
        "Ġpopular",
        -10.033598928391386
      ],
      [
        "emprego",
        -10.03460542525258
      ],
      [
        "ĠTrata",
        -10.034980978565043
      ],
      [
        "ĠdireÃ§Ã£o",
        -10.035232327520031
      ],
      [
        "Ġvoltar",
        -10.03532595248677
      ],
      [
        "Ġmeus",
        -10.035446758217402
      ],
      [
        "Ġtraz",
        -10.035643175751147
      ],
      [
        "Ġcomum",
        -10.035743080853122
      ],
      [
        "Ġ49",
        -10.0358233324623
      ],
      [
        "]",
        -10.036628783278587
      ],
      [
        "ĠtÃ©cnico",
        -10.036917360313094
      ],
      [
        "ĠcomeÃ§a",
        -10.038874692135924
      ],
      [
        "Ġlevar",
        -10.03945323548393
      ],
      [
        "uti",
        -10.040315228533212
      ],
      [
        "Ġfedera",
        -10.0415223175018
      ],
      [
        "ĠUn",
        -10.041880253790127
      ],
      [
        "[",
        -10.041918682229808
      ],
      [
        "Ġaparece",
        -10.04250466671619
      ],
      [
        "gada",
        -10.044596959321984
      ],
      [
        "aqueles",
        -10.046526047738968
      ],
      [
        "Ġsuficiente",
        -10.047564948378447
      ],
      [
        "ĠAL",
        -10.047707539689329
      ],
      [
        "dÃŃvida",
        -10.04938423819652
      ],
      [
        "ĠEuropa",
        -10.049417883399714
      ],
      [
        "SC",
        -10.04959196526303
      ],
      [
        "Ġquadro",
        -10.05003236618536
      ],
      [
        "Ġbaixa",
        -10.050662154304684
      ],
      [
        "ĠcabeÃ§a",
        -10.05127570177518
      ],
      [
        "AgR",
        -10.051726715801982
      ],
      [
        "indÃºstria",
        -10.051869225442442
      ],
      [
        "declaraÃ§Ã£o",
        -10.052937890037905
      ],
      [
        "ĠEdi",
        -10.053321599687312
      ],
      [
        "Ġoutorga",
        -10.0537510547165
      ],
      [
        "ĠComplementar",
        -10.053914528312982
      ],
      [
        "dez",
        -10.054535764534515
      ],
      [
        "ali",
        -10.05469678754527
      ],
      [
        "entendimento",
        -10.055183849524646
      ],
      [
        "lÃ³gica",
        -10.055943184740665
      ],
      [
        "entidade",
        -10.056347818303834
      ],
      [
        "ĠEscola",
        -10.057040315373811
      ],
      [
        "å",
        -10.057257459837516
      ],
      [
        "Ġfaixa",
        -10.057368062933437
      ],
      [
        "razÃµes",
        -10.058350296361263
      ],
      [
        "Ġtais",
        -10.058509132152173
      ],
      [
        "entrada",
        -10.05920280596846
      ],
      [
        "prestaÃ§Ã£o",
        -10.060804656058489
      ],
      [
        "DEPUTADO",
        -10.062219632188445
      ],
      [
        "ĠmÃ©dico",
        -10.06262086321477
      ],
      [
        "comissÃ£o",
        -10.063412857997116
      ],
      [
        "Substitutivo",
        -10.063617468403454
      ],
      [
        "Ġencontrar",
        -10.063904107843118
      ],
      [
        "Ġministro",
        -10.064229655669273
      ],
      [
        "AntÃ´nio",
        -10.065268067333086
      ],
      [
        "ĠDep",
        -10.065640935295352
      ],
      [
        "vÃŃtima",
        -10.065641495704138
      ],
      [
        "ĠPenal",
        -10.065938872422224
      ],
      [
        "Ġcolocar",
        -10.066252882953272
      ],
      [
        "Ġsite",
        -10.066321151768374
      ],
      [
        "ĠParanÃ¡",
        -10.0666796835375
      ],
      [
        "Ġ1996",
        -10.06715606697547
      ],
      [
        "Ġsete",
        -10.067327280135297
      ],
      [
        "ĠportuguÃªs",
        -10.067468034457733
      ],
      [
        "Certo",
        -10.067695504324591
      ],
      [
        "Ġve",
        -10.068451343459556
      ],
      [
        "Ġgrave",
        -10.069093079953015
      ],
      [
        "visÃ£o",
        -10.069143508840916
      ],
      [
        "Portaria",
        -10.069281458348186
      ],
      [
        "+",
        -10.07131010924581
      ],
      [
        "Primeiro",
        -10.072311423046214
      ],
      [
        "ĠTu",
        -10.072338609352975
      ],
      [
        "Ġentrar",
        -10.072537140823323
      ],
      [
        "tron",
        -10.07319050183809
      ],
      [
        "lla",
        -10.073758049779611
      ],
      [
        "SÃ©rgi",
        -10.075609403600474
      ],
      [
        "conformidade",
        -10.075883771142658
      ],
      [
        "Ġfunciona",
        -10.076080504173165
      ],
      [
        "RelatÃ³rio",
        -10.076881036650276
      ],
      [
        "Ġouvi",
        -10.077234784142298
      ],
      [
        "SÃĥO",
        -10.077738908632268
      ],
      [
        "ĠvitÃ³ria",
        -10.07856927258575
      ],
      [
        "Ġaconteceu",
        -10.079487081759314
      ],
      [
        "locais",
        -10.079833845401057
      ],
      [
        "prejuÃŃz",
        -10.08004015125014
      ],
      [
        "Ġindependente",
        -10.080341644594313
      ],
      [
        "Ġpermite",
        -10.080449921065837
      ],
      [
        "2018",
        -10.084170456344122
      ],
      [
        "ngel",
        -10.084779100427586
      ],
      [
        "Ptb",
        -10.085556174456318
      ],
      [
        "Ġacerca",
        -10.087472983909704
      ],
      [
        "aquela",
        -10.088564720412313
      ],
      [
        "ÃĬNCIA",
        -10.088615766976286
      ],
      [
        "Ġdisco",
        -10.088984152979274
      ],
      [
        "Ġigual",
        -10.089627202318642
      ],
      [
        "ĠMal",
        -10.089865576144714
      ],
      [
        "Ġtornar",
        -10.091180940692867
      ],
      [
        "Ġdemanda",
        -10.09163063218752
      ],
      [
        "talvez",
        -10.091670238963294
      ],
      [
        "Ġparticular",
        -10.092105703432557
      ],
      [
        "Ġbaixo",
        -10.092439928962984
      ],
      [
        "salÃ¡rio",
        -10.092905051405326
      ],
      [
        "Ġluz",
        -10.093075827953587
      ],
      [
        "GU",
        -10.093270703666771
      ],
      [
        "Ġenca",
        -10.093388872934549
      ],
      [
        "NTE",
        -10.09348947720714
      ],
      [
        "ĠtelevisÃ£o",
        -10.09408689208646
      ],
      [
        "veio",
        -10.094459733822026
      ],
      [
        "ĠapresentaÃ§Ã£o",
        -10.095064990944412
      ],
      [
        "Ġmedi",
        -10.09508577663686
      ],
      [
        "ciais",
        -10.095787978578162
      ],
      [
        "Ġrepresentante",
        -10.09613956898783
      ],
      [
        "vide",
        -10.096424766530347
      ],
      [
        "tividade",
        -10.096783296116536
      ],
      [
        "Ġliga",
        -10.09771830968814
      ],
      [
        "Ł",
        -10.09786579295196
      ],
      [
        "ĠCas",
        -10.098054541890274
      ],
      [
        "cisÃ£o",
        -10.09885433851692
      ],
      [
        "OfÃŃci",
        -10.099003855192295
      ],
      [
        "cimento",
        -10.10001240952212
      ],
      [
        "Ġtratar",
        -10.100503268874894
      ],
      [
        "destinada",
        -10.100965234985658
      ],
      [
        "Ġcontinuar",
        -10.101517643550167
      ],
      [
        "gol",
        -10.101694810553736
      ],
      [
        "ĠEr",
        -10.10247253670632
      ],
      [
        "cat",
        -10.102506264559896
      ],
      [
        "Ġabertura",
        -10.103803192503916
      ],
      [
        "ĠAcre",
        -10.103946169675853
      ],
      [
        "PRB",
        -10.104851321115278
      ],
      [
        "Ġusado",
        -10.105011421642429
      ],
      [
        "ĠexperiÃªncia",
        -10.105668034875212
      ],
      [
        "Ġdessas",
        -10.105933753063104
      ],
      [
        "ĠComunitÃ¡ri",
        -10.106191723413804
      ],
      [
        "ĠcarÃ¡ter",
        -10.10659174437504
      ],
      [
        "arÃ¡grafo",
        -10.107947372645404
      ],
      [
        "ĠdifÃŃcil",
        -10.108427466439313
      ],
      [
        "ĠvÃª",
        -10.109464625497992
      ],
      [
        "Ġantiga",
        -10.109699616120803
      ],
      [
        "ĠdistribuiÃ§Ã£o",
        -10.111030112657009
      ],
      [
        "Ġ38",
        -10.111359004862088
      ],
      [
        "Ġpais",
        -10.111491683179471
      ],
      [
        "Ġcomercial",
        -10.112743072608472
      ],
      [
        "Ġconfi",
        -10.114500354023267
      ],
      [
        "ĠPOR",
        -10.114976195918612
      ],
      [
        "Ġmulta",
        -10.115191917049875
      ],
      [
        "ĠTrans",
        -10.115417191495467
      ],
      [
        "soluÃ§Ã£o",
        -10.115465829507045
      ],
      [
        "Ġ43",
        -10.115820766273194
      ],
      [
        "MEN",
        -10.11594966513647
      ],
      [
        "Ġdireta",
        -10.117155753515728
      ],
      [
        "QUE",
        -10.117478731260244
      ],
      [
        "manutenÃ§Ã£o",
        -10.117714653179444
      ],
      [
        "estavam",
        -10.117885996717469
      ],
      [
        "atrÃ¡s",
        -10.118004978540736
      ],
      [
        "lÃ¡",
        -10.11908947163068
      ],
      [
        "Ġfonte",
        -10.119226929156529
      ],
      [
        "provisÃ³ria",
        -10.119827282199704
      ],
      [
        "MG",
        -10.123008093677246
      ],
      [
        "ĠQuer",
        -10.123789441584156
      ],
      [
        "posto",
        -10.124511071799622
      ],
      [
        "sul",
        -10.12453569973405
      ],
      [
        "ĠPrefeit",
        -10.124585976033009
      ],
      [
        "Ġaltera",
        -10.124908603372877
      ],
      [
        "ĠCentral",
        -10.12510095510254
      ],
      [
        "mÃ¡tica",
        -10.125292285959755
      ],
      [
        "Ġarma",
        -10.126525895254057
      ],
      [
        "favorÃ¡vel",
        -10.126686146623454
      ],
      [
        "regiÃµes",
        -10.126963663070752
      ],
      [
        "leiÃ§Ã£o",
        -10.126966105625035
      ],
      [
        "ĠPROC",
        -10.1270623279628
      ],
      [
        "Ġsofre",
        -10.127561894584566
      ],
      [
        "ĠprÃ©",
        -10.12789796897495
      ],
      [
        "ĠGal",
        -10.128782694124723
      ],
      [
        "eri",
        -10.12885814336568
      ],
      [
        "legais",
        -10.129391488188997
      ],
      [
        "ĠXX",
        -10.129615686513182
      ],
      [
        "Ġtomar",
        -10.130093926955109
      ],
      [
        "referido",
        -10.130095056242707
      ],
      [
        "Ġ44",
        -10.130321193285578
      ],
      [
        "|",
        -10.130363627068109
      ],
      [
        "Ġpequena",
        -10.131247769127706
      ],
      [
        "PSC",
        -10.13212496671362
      ],
      [
        "Ġinstitui",
        -10.132578175600583
      ],
      [
        "Ġnormal",
        -10.133466016147429
      ],
      [
        "Ġbens",
        -10.134584733201004
      ],
      [
        "apesar",
        -10.134679128495463
      ],
      [
        "Ġcolega",
        -10.13543423098212
      ],
      [
        "utilizaÃ§Ã£o",
        -10.135566467263391
      ],
      [
        "Ġred",
        -10.13569958943819
      ],
      [
        "cular",
        -10.135905172880465
      ],
      [
        "Ġjogos",
        -10.137077432472983
      ],
      [
        "ĠProcesso",
        -10.13719466597939
      ],
      [
        "Ġamigos",
        -10.137327854850026
      ],
      [
        "Å",
        -10.13918888754744
      ],
      [
        "quer",
        -10.139235181390712
      ],
      [
        "Apoio",
        -10.13970569972936
      ],
      [
        "Ġdecreta",
        -10.14056330744734
      ],
      [
        "Celso",
        -10.140632693236912
      ],
      [
        "ĠQual",
        -10.141940602291612
      ],
      [
        "ker",
        -10.142162049992203
      ],
      [
        "eleiÃ§Ãµes",
        -10.14221790127658
      ],
      [
        "efeitos",
        -10.14406662414074
      ],
      [
        "Ġchama",
        -10.14450604649582
      ],
      [
        "Ġtime",
        -10.1445791326972
      ],
      [
        "fico",
        -10.14537442827147
      ],
      [
        "Ġpermitir",
        -10.145401408041897
      ],
      [
        "Ä",
        -10.145444094959004
      ],
      [
        "Ġ45",
        -10.145839493267005
      ],
      [
        "ĠPlano",
        -10.145957722799231
      ],
      [
        "dizendo",
        -10.146478672351972
      ],
      [
        "Ġperda",
        -10.147066614696584
      ],
      [
        "Ġtramita",
        -10.147151537841598
      ],
      [
        "Ã©tica",
        -10.147216568803843
      ],
      [
        "ĠPROPOSI",
        -10.147757086535796
      ],
      [
        "ĠSouza",
        -10.147945304746804
      ],
      [
        "Ġpasso",
        -10.14824497455372
      ],
      [
        "tivos",
        -10.149577704744592
      ],
      [
        "ausÃªncia",
        -10.149745208379176
      ],
      [
        "Ġperto",
        -10.1502405061862
      ],
      [
        "Ġdocumentos",
        -10.150267231472522
      ],
      [
        "Ġesti",
        -10.15236091900493
      ],
      [
        "militares",
        -10.152419882401569
      ],
      [
        "Ġmelhores",
        -10.152889083427857
      ],
      [
        "±",
        -10.153257038349617
      ],
      [
        "Ġreceita",
        -10.15359399283061
      ],
      [
        "diretamente",
        -10.15391639257814
      ],
      [
        "ĠGomes",
        -10.153928007028972
      ],
      [
        "ĠConced",
        -10.15403321899842
      ],
      [
        "Ġcapaz",
        -10.15419706229268
      ],
      [
        "Ġ80",
        -10.156129404539364
      ],
      [
        "ĠGrosso",
        -10.156173088809938
      ],
      [
        "Ġinterior",
        -10.156548668539903
      ],
      [
        "«",
        -10.1568641711035
      ],
      [
        "ĠMunicipal",
        -10.156958511293734
      ],
      [
        "Ġfiz",
        -10.157264380567248
      ],
      [
        "ĠoperaÃ§Ã£o",
        -10.15730267188846
      ],
      [
        "Ġfazem",
        -10.157318246303426
      ],
      [
        "ĠcanÃ§Ã£o",
        -10.157879866171932
      ],
      [
        "ĠMinistra",
        -10.157895285999242
      ],
      [
        "ĠLopes",
        -10.158829295778895
      ],
      [
        "Estamos",
        -10.159093466674948
      ],
      [
        "Ġrevela",
        -10.160961063464624
      ],
      [
        "Ġcento",
        -10.161006059845883
      ],
      [
        "CARLOS",
        -10.161111308076595
      ],
      [
        "ĠMilitar",
        -10.161221302333532
      ],
      [
        "ĠRocha",
        -10.162097222482249
      ],
      [
        "ĠEsc",
        -10.16276838024362
      ],
      [
        "Ġconsiderada",
        -10.162807929306878
      ],
      [
        "inclusÃ£o",
        -10.163289993575937
      ],
      [
        "Ġrealizar",
        -10.165288971653483
      ],
      [
        "Ķ",
        -10.165626382096123
      ],
      [
        "ĠvÃŃdeo",
        -10.166078304345955
      ],
      [
        "Ġdiscutir",
        -10.166163718843013
      ],
      [
        "ĠChi",
        -10.16629809493526
      ],
      [
        "ĠPal",
        -10.166555393548776
      ],
      [
        "Ġadministrativa",
        -10.166604185821194
      ],
      [
        "operaÃ§Ãµes",
        -10.168534310993245
      ],
      [
        "Ġregra",
        -10.168847053408724
      ],
      [
        "ĠInter",
        -10.169212833317255
      ],
      [
        "INA",
        -10.169292631631656
      ],
      [
        "ĠlanÃ§amento",
        -10.169510381447134
      ],
      [
        "ĠLista",
        -10.17162732692154
      ],
      [
        "ĠChe",
        -10.172493084376589
      ],
      [
        "Ġoito",
        -10.172671374484112
      ],
      [
        "ĠTri",
        -10.17324315038775
      ],
      [
        "ĠpeÃ§o",
        -10.173425351817448
      ],
      [
        "Ġcerta",
        -10.173627096817736
      ],
      [
        "iam",
        -10.174171081207517
      ],
      [
        "Ġfar",
        -10.174842827176292
      ],
      [
        "GERAL",
        -10.175199186762296
      ],
      [
        "alunos",
        -10.17555296874628
      ],
      [
        "Ġderrota",
        -10.1763423678432
      ],
      [
        "Ġcompromisso",
        -10.176609275752662
      ],
      [
        "ĠGar",
        -10.177026825233552
      ],
      [
        "Ġdecidi",
        -10.177343332278728
      ],
      [
        "Pausa",
        -10.177944001087209
      ],
      [
        "ĠorÃ§amentÃ¡ria",
        -10.178951961581967
      ],
      [
        "Ġlocalizado",
        -10.179100415412474
      ],
      [
        "ĠPorque",
        -10.17938926909467
      ],
      [
        "Ġseguir",
        -10.180063156059566
      ],
      [
        "Ġtentar",
        -10.18091947129608
      ],
      [
        "ĠCatarina",
        -10.181080811739896
      ],
      [
        "Ġacabou",
        -10.18108995245304
      ],
      [
        "Ġdiferente",
        -10.181460940328895
      ],
      [
        "daquele",
        -10.181701465681222
      ],
      [
        "ĠAp",
        -10.182251047015589
      ],
      [
        "aÃ§a",
        -10.182326828863378
      ],
      [
        "ĠmÃ©dio",
        -10.18311763370522
      ],
      [
        "Ġjovem",
        -10.18339801481685
      ],
      [
        "Ġmetros",
        -10.183412525978117
      ],
      [
        "Ã¡reas",
        -10.183917976946974
      ],
      [
        "xclusividade",
        -10.184017991471912
      ],
      [
        "Ġvenda",
        -10.18534929959929
      ],
      [
        "Ã´nica",
        -10.18540102542656
      ],
      [
        "Ġrelativa",
        -10.185553432411483
      ],
      [
        "ĠVeja",
        -10.186002019400895
      ],
      [
        "exposto",
        -10.186586635655315
      ],
      [
        "tenÃ§Ã£o",
        -10.18749806864977
      ],
      [
        "Ġquarto",
        -10.18842415743556
      ],
      [
        "Ġtroca",
        -10.189039760278405
      ],
      [
        "Ãºmula",
        -10.189330568134835
      ],
      [
        "Ġpropriedade",
        -10.189587273353792
      ],
      [
        "Con",
        -10.190351908169132
      ],
      [
        "Ġconseguiu",
        -10.19111659986276
      ],
      [
        "Apesar",
        -10.19158138418196
      ],
      [
        "esforÃ§o",
        -10.191676980076304
      ],
      [
        "ĠdiferenÃ§a",
        -10.192931153700764
      ],
      [
        "cus",
        -10.193311675379348
      ],
      [
        "Ġinterna",
        -10.193449733094925
      ],
      [
        "ĠReal",
        -10.194112587611675
      ],
      [
        "americana",
        -10.194630889224252
      ],
      [
        "ĠProfessor",
        -10.194828005823265
      ],
      [
        "Ġescolas",
        -10.195553915308444
      ],
      [
        "Ġaprova",
        -10.1959246715971
      ],
      [
        "ĠLUIZ",
        -10.19619476428556
      ],
      [
        "tiveram",
        -10.19653409665903
      ],
      [
        "estabelecimento",
        -10.196825478604175
      ],
      [
        "Ġcompleta",
        -10.197264849278987
      ],
      [
        "ĠDiretor",
        -10.197482898720006
      ],
      [
        "Ġfinanciamento",
        -10.198049204882848
      ],
      [
        "Ġimprensa",
        -10.198292187522648
      ],
      [
        "Ġquantidade",
        -10.198379937808769
      ],
      [
        "Ġpropor",
        -10.198422828111454
      ],
      [
        "Ġ42",
        -10.20101418461272
      ],
      [
        "ĠCidade",
        -10.201050377750144
      ],
      [
        "Ġ1991",
        -10.201108481165624
      ],
      [
        "ĠCONSTITUIÃĩÃĥO",
        -10.20125440226818
      ],
      [
        "Ġviola",
        -10.202026686504947
      ],
      [
        "plenÃ¡rio",
        -10.203214685239162
      ],
      [
        "usada",
        -10.20347354320888
      ],
      [
        "zinho",
        -10.203522752355608
      ],
      [
        "ĠZa",
        -10.20357259843914
      ],
      [
        "falando",
        -10.203614444367496
      ],
      [
        "Ġquarta",
        -10.203671501855558
      ],
      [
        "ĠSabe",
        -10.204211714739076
      ],
      [
        "uplente",
        -10.206441626778034
      ],
      [
        "grafia",
        -10.20663630294251
      ],
      [
        "ĠFica",
        -10.207022860826005
      ],
      [
        "Ġestudos",
        -10.20739518556181
      ],
      [
        "Ġ52",
        -10.20759225596668
      ],
      [
        "Ġpagar",
        -10.207704637339452
      ],
      [
        "ejeiÃ§Ã£o",
        -10.207776113982488
      ],
      [
        "ĠTemo",
        -10.207891210909429
      ],
      [
        "Ġlimite",
        -10.207905241469028
      ],
      [
        "ĠLou",
        -10.208011266725398
      ],
      [
        "PPS",
        -10.208041240288436
      ],
      [
        "Ġservi",
        -10.208819806125234
      ],
      [
        "motivo",
        -10.208881314450872
      ],
      [
        "Ġhonra",
        -10.20929746686315
      ],
      [
        "privada",
        -10.209844952508252
      ],
      [
        "ĠMaranhÃ£o",
        -10.210507380683588
      ],
      [
        "Ġatua",
        -10.210610188330548
      ],
      [
        "Ġlocalizada",
        -10.21139543110389
      ],
      [
        "ĠAlmeida",
        -10.21180735266818
      ],
      [
        "ĠmÃ¡",
        -10.21272459180359
      ],
      [
        "ich",
        -10.212804838233271
      ],
      [
        "DF",
        -10.21308996789567
      ],
      [
        "atu",
        -10.21328942788309
      ],
      [
        "benefÃŃcio",
        -10.213436334356944
      ],
      [
        "ĠParÃ¡",
        -10.213714092921366
      ],
      [
        "Ġentrega",
        -10.214364383433852
      ],
      [
        "ĠFA",
        -10.214460704568408
      ],
      [
        "Ġfixa",
        -10.214592680562705
      ],
      [
        "ĠPelo",
        -10.214841081353958
      ],
      [
        "burg",
        -10.215637213797486
      ],
      [
        "Ġcomigo",
        -10.215954647123626
      ],
      [
        "ĠcrianÃ§a",
        -10.216824660013751
      ],
      [
        "tida",
        -10.217291531656777
      ],
      [
        "Ġexatamente",
        -10.217767712776716
      ],
      [
        "ĠUSP",
        -10.217809827330804
      ],
      [
        "OSÃī",
        -10.218181088040666
      ],
      [
        "ĠAh",
        -10.219539832321042
      ],
      [
        "Ġescrito",
        -10.220146314879484
      ],
      [
        "Ġ1995",
        -10.220617250748615
      ],
      [
        "ĠRodrigues",
        -10.220903017055354
      ],
      [
        "ĠToda",
        -10.221405527609903
      ],
      [
        "constitucionai",
        -10.222306160859157
      ],
      [
        "Ġpior",
        -10.222401514290492
      ],
      [
        "Ġinicial",
        -10.222520658732575
      ],
      [
        "Ġunidades",
        -10.22306742024342
      ],
      [
        "Ġganha",
        -10.223358466950597
      ],
      [
        "atriz",
        -10.223976459739342
      ],
      [
        "mÃ¡ximo",
        -10.224149673455878
      ],
      [
        "escu",
        -10.224531980661608
      ],
      [
        "ĠGrupo",
        -10.224831205105342
      ],
      [
        "Ġassumi",
        -10.22490056867903
      ],
      [
        "Ġinforma",
        -10.225849954613023
      ],
      [
        "hy",
        -10.226439225968669
      ],
      [
        "PpP",
        -10.227264812291672
      ],
      [
        "side",
        -10.22749961899192
      ],
      [
        "ciado",
        -10.228015443026928
      ],
      [
        "existente",
        -10.22858680029903
      ],
      [
        "Ġhaja",
        -10.228808728784651
      ],
      [
        "ĠAma",
        -10.228940290172332
      ],
      [
        "Ġ119",
        -10.229028615622765
      ],
      [
        "ari",
        -10.229150411926025
      ],
      [
        "ĠCarvalho",
        -10.22942042753229
      ],
      [
        "Ġpermiti",
        -10.2299992831296
      ],
      [
        "NR",
        -10.230458333359971
      ],
      [
        "line",
        -10.230648748567226
      ],
      [
        "Ġ58",
        -10.232006791998751
      ],
      [
        "ĠSU",
        -10.23204171979106
      ],
      [
        "Ġutilizado",
        -10.232411275437816
      ],
      [
        "ambos",
        -10.233241752370107
      ],
      [
        "RegiÃ£o",
        -10.233586772193016
      ],
      [
        "julgado",
        -10.233907452966996
      ],
      [
        "Ġacontece",
        -10.234264883824942
      ],
      [
        "ĠOnde",
        -10.234662155610064
      ],
      [
        "ĠPri",
        -10.2348556832109
      ],
      [
        "Ġ48",
        -10.234894519389035
      ],
      [
        ".............",
        -10.235071789784906
      ],
      [
        "LideranÃ§a",
        -10.23513248060342
      ],
      [
        "bairro",
        -10.235798410862298
      ],
      [
        "ĠKo",
        -10.235837395635722
      ],
      [
        "criada",
        -10.236194576120877
      ],
      [
        "Ġcre",
        -10.236324218283444
      ],
      [
        "corrupÃ§Ã£o",
        -10.236515121163196
      ],
      [
        "ĠcontribuiÃ§Ã£o",
        -10.23751367711298
      ],
      [
        "ĠMinha",
        -10.239383976145165
      ],
      [
        "Ġ64",
        -10.2401899274838
      ],
      [
        "chefe",
        -10.240218565846106
      ],
      [
        "lizaÃ§Ã£o",
        -10.240811291373843
      ],
      [
        "missÃµes",
        -10.2415650286639
      ],
      [
        "ĠSuper",
        -10.241737410823664
      ],
      [
        "ĠAP",
        -10.24273358975472
      ],
      [
        "Ġresultados",
        -10.243737924944265
      ],
      [
        "ĠDaniel",
        -10.24424229628801
      ],
      [
        "Ġmundial",
        -10.244753744271678
      ],
      [
        "ĠgÃªnero",
        -10.245961964122577
      ],
      [
        "Ġantigo",
        -10.246394369612702
      ],
      [
        "ĠLEGISLATIV",
        -10.246707024842353
      ],
      [
        "ĠhistÃ³rico",
        -10.247247376856878
      ],
      [
        "Ġaberto",
        -10.247881623294855
      ],
      [
        "Ġhumano",
        -10.24822475106429
      ],
      [
        "Ġestadual",
        -10.248228899905069
      ],
      [
        "Ġencontro",
        -10.249615881358787
      ],
      [
        "irÃ¡",
        -10.25024935150616
      ],
      [
        "regras",
        -10.25038172441613
      ],
      [
        "icamente",
        -10.25128772547782
      ],
      [
        "distrito",
        -10.251924749191192
      ],
      [
        "somos",
        -10.252227662312771
      ],
      [
        "ĠReino",
        -10.252295840993016
      ],
      [
        "Ġdada",
        -10.25230331419692
      ],
      [
        "ĠBoa",
        -10.252405646487206
      ],
      [
        "ĠAli",
        -10.252415443151774
      ],
      [
        "ĠRIO",
        -10.25251113558852
      ],
      [
        "Ġvivo",
        -10.252755202368128
      ],
      [
        "Ġevitar",
        -10.252820510656198
      ],
      [
        "ĠPubli",
        -10.25327795656692
      ],
      [
        "Ġdeputado",
        -10.253745371188716
      ],
      [
        "ĠNew",
        -10.25510539342524
      ],
      [
        "ĠpolÃŃcia",
        -10.25555050672418
      ],
      [
        "Ġconv",
        -10.256118346975736
      ],
      [
        "ĠjurÃŃdico",
        -10.258281837400451
      ],
      [
        "ĠNordeste",
        -10.258725831560731
      ],
      [
        "atualmente",
        -10.259596840822027
      ],
      [
        "AmazÃ´nia",
        -10.260038115952907
      ],
      [
        "Ġfigura",
        -10.26011075506982
      ],
      [
        "ĠAugusto",
        -10.260923583419542
      ],
      [
        "Estadual",
        -10.26100044827491
      ],
      [
        "Talvez",
        -10.261414437833398
      ],
      [
        "Ġdocumento",
        -10.261617057839418
      ],
      [
        "bon",
        -10.2616564283837
      ],
      [
        "ĠTer",
        -10.261788446805072
      ],
      [
        "requisitos",
        -10.262289617189955
      ],
      [
        "impacto",
        -10.262699031597617
      ],
      [
        "mil",
        -10.263185273920978
      ],
      [
        "ĠMac",
        -10.263511874567364
      ],
      [
        "Figueiredo",
        -10.26445242770279
      ],
      [
        "Fazenda",
        -10.264984908649106
      ],
      [
        "essÃ£o",
        -10.265004372077277
      ],
      [
        "ĠFamÃŃlia",
        -10.265293997090398
      ],
      [
        "Ġ(...)",
        -10.26542979352534
      ],
      [
        "Ġmerece",
        -10.265615998436186
      ],
      [
        "ĠBal",
        -10.266108005139012
      ],
      [
        "ĠWikipÃ©dia",
        -10.266209093609524
      ],
      [
        "Ġ41",
        -10.266326114057618
      ],
      [
        "ĠDECRET",
        -10.26639661377681
      ],
      [
        "JudiciÃ¡ri",
        -10.26710420462191
      ],
      [
        "Ġjudicial",
        -10.26756248427735
      ],
      [
        "ĠNelson",
        -10.267617006760272
      ],
      [
        "ĠQUE",
        -10.267653949250814
      ],
      [
        "publicada",
        -10.26953961303827
      ],
      [
        "Ġestabelecer",
        -10.269709567576076
      ],
      [
        "ĠSeguranÃ§a",
        -10.270025998333336
      ],
      [
        "Teixeira",
        -10.270296100618154
      ],
      [
        "Ġespera",
        -10.270939968582269
      ],
      [
        "Ġgosta",
        -10.271452627002674
      ],
      [
        "Ġgrau",
        -10.27162602321612
      ],
      [
        "Ġ01",
        -10.27293374352378
      ],
      [
        "ĠRS",
        -10.273382774530171
      ],
      [
        "ĠAndrÃ©",
        -10.273430873897544
      ],
      [
        "ĠcidadÃ£o",
        -10.273691593080596
      ],
      [
        "ĠUS",
        -10.275278156927005
      ],
      [
        "Ġ39",
        -10.275513649249836
      ],
      [
        "DiscussÃ£o",
        -10.27623631634686
      ],
      [
        "Ġshow",
        -10.27639539180572
      ],
      [
        "Ġprocura",
        -10.276582074477297
      ],
      [
        "Ġcentral",
        -10.27695312560231
      ],
      [
        "ĠFun",
        -10.277052194872576
      ],
      [
        "ĠepisÃ³dio",
        -10.277891611634976
      ],
      [
        "vor",
        -10.278218917234742
      ],
      [
        "Ġfac",
        -10.278933671901608
      ],
      [
        "Ġcri",
        -10.279160199495092
      ],
      [
        "Ġopera",
        -10.27920834397871
      ],
      [
        "candidato",
        -10.279642721838096
      ],
      [
        "pÃµe",
        -10.279869828801656
      ],
      [
        "Ġtro",
        -10.280067134039117
      ],
      [
        "raÃ§a",
        -10.281154060266283
      ],
      [
        "ĠSI",
        -10.282135077415592
      ],
      [
        "vemos",
        -10.282577136533584
      ],
      [
        "levou",
        -10.2837387399175
      ],
      [
        "preÃ§os",
        -10.28427484795063
      ],
      [
        "Ġorienta",
        -10.28501086157171
      ],
      [
        "Ġanimais",
        -10.285507498857838
      ],
      [
        "ĠFutebol",
        -10.285654027177634
      ],
      [
        "Ġ1988",
        -10.286053649461396
      ],
      [
        "paciente",
        -10.286333239254274
      ],
      [
        "ĠDesde",
        -10.286682861073526
      ],
      [
        "ĠChina",
        -10.28780670497422
      ],
      [
        "Ġsala",
        -10.287978839862154
      ],
      [
        "á",
        -10.288107433406344
      ],
      [
        "ĠNA",
        -10.288131176448454
      ],
      [
        "abaixo",
        -10.288380742444078
      ],
      [
        "possam",
        -10.288749187659326
      ],
      [
        "ĠMO",
        -10.289379486929931
      ],
      [
        "nacionais",
        -10.290100655960789
      ],
      [
        "Ġestilo",
        -10.290302750708712
      ],
      [
        "ĠOlÃ¡",
        -10.290591322463635
      ],
      [
        "Ã¢nia",
        -10.290620029317951
      ],
      [
        "Ġmudar",
        -10.290752854191668
      ],
      [
        "ĠSÃ¡",
        -10.291689919599577
      ],
      [
        "Ġinvestiga",
        -10.291740746273447
      ],
      [
        "Ġface",
        -10.293217833266135
      ],
      [
        "deira",
        -10.293480077179645
      ],
      [
        "licitante",
        -10.294254496554483
      ],
      [
        "NÃ£o",
        -10.29439860539848
      ],
      [
        "Ġpratica",
        -10.294463599586027
      ],
      [
        "ĠNossa",
        -10.295378443601752
      ],
      [
        "ĠAlberto",
        -10.29542902040761
      ],
      [
        "avaliaÃ§Ã£o",
        -10.296614021094015
      ],
      [
        "rais",
        -10.29774785614585
      ],
      [
        "ĠciÃªncia",
        -10.298866485725128
      ],
      [
        "tava",
        -10.299062993460078
      ],
      [
        "ĠZe",
        -10.299920394953304
      ],
      [
        "ĠPolÃŃtica",
        -10.300481000372754
      ],
      [
        "Ġleva",
        -10.30132058897205
      ],
      [
        "Ġentrevista",
        -10.30136463620684
      ],
      [
        "errado",
        -10.301927485158933
      ],
      [
        "ĠAC",
        -10.30220632641301
      ],
      [
        "ney",
        -10.302911115857007
      ],
      [
        "ĠLuÃŃs",
        -10.30291730345399
      ],
      [
        "ĠMG",
        -10.303149717293069
      ],
      [
        "ĠMil",
        -10.303513446995956
      ],
      [
        "ĠMundo",
        -10.303571856484316
      ],
      [
        "ĠAlemanha",
        -10.304554428052588
      ],
      [
        "Ġmesa",
        -10.30512424829486
      ],
      [
        "Ġfui",
        -10.305847977342207
      ],
      [
        "Ġoferece",
        -10.306321734610902
      ],
      [
        "del",
        -10.306978831476012
      ],
      [
        "Ġacidente",
        -10.307705239357768
      ],
      [
        "ÃŃstico",
        -10.307864757364808
      ],
      [
        "Ġestes",
        -10.307873600892751
      ],
      [
        "ĠRequer",
        -10.308184412631803
      ],
      [
        "oeste",
        -10.30867826138512
      ],
      [
        "ĠameaÃ§a",
        -10.309259576808149
      ],
      [
        "EMENTA",
        -10.309605239893068
      ],
      [
        "Ġconseguir",
        -10.309898031946094
      ],
      [
        "Ġrece",
        -10.310001167616903
      ],
      [
        "Ġdisciplina",
        -10.31014056111406
      ],
      [
        "ĠCer",
        -10.310251881320768
      ],
      [
        "Ġdemocracia",
        -10.310354706069033
      ],
      [
        "bus",
        -10.310413344043663
      ],
      [
        "tÃ¡rio",
        -10.31053757402462
      ],
      [
        "Ġenfrenta",
        -10.311792352426789
      ],
      [
        "Ġinicia",
        -10.3117975129439
      ],
      [
        "Ġvice",
        -10.31182978158787
      ],
      [
        "tÃ¡ria",
        -10.312060739099836
      ],
      [
        "ĠGeral",
        -10.312459356334834
      ],
      [
        "Ġpretende",
        -10.312796929767408
      ],
      [
        "ĠFer",
        -10.312911841635191
      ],
      [
        "relaÃ§Ãµes",
        -10.31299489642307
      ],
      [
        "tivesse",
        -10.31316712166202
      ],
      [
        "Ġlido",
        -10.313289925980186
      ],
      [
        "Ġpedir",
        -10.313725287616707
      ],
      [
        "omissÃµes",
        -10.313920014834698
      ],
      [
        "Ġrural",
        -10.314015728276768
      ],
      [
        "EUA",
        -10.314395908080796
      ],
      [
        "Ġexplorar",
        -10.314814350996516
      ],
      [
        "ĠfunÃ§Ãµes",
        -10.314913689762331
      ],
      [
        "Ġatender",
        -10.315167461265291
      ],
      [
        "Ġambiental",
        -10.31520501034059
      ],
      [
        "PSL",
        -10.315286369716429
      ],
      [
        "ĠmanhÃ£",
        -10.315391206123271
      ],
      [
        "riam",
        -10.315772559488195
      ],
      [
        "Ġparticipa",
        -10.315901356305536
      ],
      [
        "atos",
        -10.316268403972952
      ],
      [
        "ĠJesus",
        -10.316452435765514
      ],
      [
        "ĠDepu",
        -10.317913978656607
      ],
      [
        "ĠART",
        -10.3179910504518
      ],
      [
        "Ġcur",
        -10.3184538620994
      ],
      [
        "Ġefetiva",
        -10.318525146759674
      ],
      [
        "Geraldo",
        -10.318589751292215
      ],
      [
        "Ġfesta",
        -10.319062167604235
      ],
      [
        "PrevidÃªncia",
        -10.319135184380228
      ],
      [
        "ling",
        -10.320226597853637
      ],
      [
        "FundaÃ§Ã£o",
        -10.320382146498773
      ],
      [
        "Ġdaquel",
        -10.320619819532276
      ],
      [
        "Ġjornalista",
        -10.320782127321962
      ],
      [
        "deficiÃªncia",
        -10.320880327467746
      ],
      [
        "Ġespe",
        -10.32128457716354
      ],
      [
        "fronteira",
        -10.321913198363749
      ],
      [
        "ĠAto",
        -10.32201196603697
      ],
      [
        "STA",
        -10.322697101390585
      ],
      [
        "Ï",
        -10.322717493252348
      ],
      [
        "ĠAlexandre",
        -10.323373042426727
      ],
      [
        "geraÃ§Ã£o",
        -10.323400740528331
      ],
      [
        "virtud",
        -10.324447717877662
      ],
      [
        "Ġimagem",
        -10.324599003213526
      ],
      [
        "Ġtorno",
        -10.325140011353612
      ],
      [
        "decreto",
        -10.325429773940062
      ],
      [
        "CearÃ¡",
        -10.32578254332062
      ],
      [
        "Ġunidade",
        -10.326186769854813
      ],
      [
        "ÃŃndice",
        -10.326236866876943
      ],
      [
        "ĠArthur",
        -10.32696622902929
      ],
      [
        "nais",
        -10.327840389565475
      ],
      [
        "ĠRede",
        -10.32823772531586
      ],
      [
        "Ġ62",
        -10.328262172386175
      ],
      [
        "Ġpalavras",
        -10.328359011863308
      ],
      [
        "Ġinvestimento",
        -10.328616575052386
      ],
      [
        "ĠSerra",
        -10.328706688301788
      ],
      [
        "apresentou",
        -10.328812997980728
      ],
      [
        "SRA",
        -10.328888011332891
      ],
      [
        "Ġzona",
        -10.32905454974606
      ],
      [
        "Ġconcurso",
        -10.32922273420057
      ],
      [
        "TER",
        -10.329244662850366
      ],
      [
        "ĠrÃ¡pido",
        -10.329688660180311
      ],
      [
        "CIA",
        -10.329702755683632
      ],
      [
        "imagens",
        -10.329945610134804
      ],
      [
        "nunciou",
        -10.330031822350524
      ],
      [
        "lizado",
        -10.330756042103827
      ],
      [
        "alteraÃ§Ã£o",
        -10.330961735014256
      ],
      [
        "trecho",
        -10.331105436491455
      ],
      [
        "ĠLisboa",
        -10.33152884603514
      ],
      [
        "Ġprocedimento",
        -10.331616436915416
      ],
      [
        "Departamento",
        -10.333309089743269
      ],
      [
        "pÃºblicas",
        -10.334230455263448
      ],
      [
        "Ġdetermina",
        -10.336779733615682
      ],
      [
        "ĠDom",
        -10.33717279127486
      ],
      [
        "evoluÃ§Ã£o",
        -10.337808658674463
      ],
      [
        "Ġpaga",
        -10.337910465299538
      ],
      [
        "ĠLegislativa",
        -10.33937608307199
      ],
      [
        "conflito",
        -10.33960496881203
      ],
      [
        "Ġexpressa",
        -10.340288005226892
      ],
      [
        "mann",
        -10.34053848561119
      ],
      [
        "lis",
        -10.340698946706386
      ],
      [
        "exigÃªncia",
        -10.340782946270854
      ],
      [
        "Ġpobre",
        -10.341653514567115
      ],
      [
        "hon",
        -10.341870713352106
      ],
      [
        "ĠVai",
        -10.342549182193904
      ],
      [
        "Ġigreja",
        -10.343327042496004
      ],
      [
        "advogado",
        -10.343466379665683
      ],
      [
        "Ġpromover",
        -10.343494587654387
      ],
      [
        "ĠMichel",
        -10.344301688357122
      ],
      [
        "Ġconceito",
        -10.344328207542658
      ],
      [
        "ĠopiniÃ£o",
        -10.344440815380343
      ],
      [
        "Ġsai",
        -10.344682800916344
      ],
      [
        "ĠPan",
        -10.344802609204445
      ],
      [
        "ĠDESPACH",
        -10.344969080567774
      ],
      [
        "2020",
        -10.345207366012836
      ],
      [
        "Ī",
        -10.347128846709754
      ],
      [
        "Ġetc",
        -10.347532158893234
      ],
      [
        "relativo",
        -10.347554254425766
      ],
      [
        "vado",
        -10.347648051247685
      ],
      [
        "ĠMarcos",
        -10.34882226137378
      ],
      [
        "referida",
        -10.349094305530704
      ],
      [
        "Ġentender",
        -10.349391445543178
      ],
      [
        "ĠWal",
        -10.3495198159427
      ],
      [
        "Ġfinanceiro",
        -10.35024375503358
      ],
      [
        "Ġguarda",
        -10.350526063864702
      ],
      [
        "leitura",
        -10.352797602579251
      ],
      [
        "ĠpeÃ§a",
        -10.35309778322939
      ],
      [
        "gor",
        -10.353734932908637
      ],
      [
        "mal",
        -10.354439583765366
      ],
      [
        "Ġanti",
        -10.354486713216266
      ],
      [
        "urgÃªncia",
        -10.354507285805193
      ],
      [
        "ĠCur",
        -10.354570604513588
      ],
      [
        "ĠVista",
        -10.354757798359485
      ],
      [
        "retorno",
        -10.355075131305629
      ],
      [
        "Ġrenova",
        -10.355396493538596
      ],
      [
        "Ġconsegue",
        -10.355736095469368
      ],
      [
        "ĠAgrav",
        -10.356336772406152
      ],
      [
        "ĠorientaÃ§Ã£o",
        -10.356410599152303
      ],
      [
        "havend",
        -10.3574293738499
      ],
      [
        "PÃ¡gina",
        -10.357496527735394
      ],
      [
        "Ġespecifica",
        -10.357956687901972
      ],
      [
        "Ġamericano",
        -10.358434178676418
      ],
      [
        "ĠParis",
        -10.359076950451234
      ],
      [
        "doenÃ§a",
        -10.360156819920215
      ],
      [
        "juros",
        -10.360734301687687
      ],
      [
        "www",
        -10.361464178460436
      ],
      [
        "privado",
        -10.361545803231913
      ],
      [
        "ResoluÃ§Ã£o",
        -10.36167117989753
      ],
      [
        "Ġbanco",
        -10.361742150321646
      ],
      [
        "ĠUr",
        -10.362377195903468
      ],
      [
        "ĠjustiÃ§a",
        -10.362753382621056
      ],
      [
        "Ġataque",
        -10.363096087165484
      ],
      [
        "estaÃ§Ã£o",
        -10.36315970181738
      ],
      [
        "ĠOUTR",
        -10.363762600945646
      ],
      [
        "ĠdenÃºncia",
        -10.36490863676617
      ],
      [
        "substitutivo",
        -10.364944277806693
      ],
      [
        "ĠRodrigo",
        -10.365389971519487
      ],
      [
        "ĠQuanto",
        -10.365472687909367
      ],
      [
        "Jogos",
        -10.365531999650274
      ],
      [
        "Ġfeliz",
        -10.366092557366926
      ],
      [
        "benefÃŃcios",
        -10.366332147755736
      ],
      [
        "ocorreu",
        -10.36634904309948
      ],
      [
        "quilo",
        -10.366841884772336
      ],
      [
        "ĠSobre",
        -10.366896092372311
      ],
      [
        "bin",
        -10.367012471503909
      ],
      [
        "ĠsaÃŃd",
        -10.367312096967344
      ],
      [
        "humanos",
        -10.36741064954869
      ],
      [
        "Moreira",
        -10.36829014751106
      ],
      [
        "ĠGer",
        -10.369820770854291
      ],
      [
        "ĠcomeÃ§ar",
        -10.370106186543428
      ],
      [
        "Ġ1994",
        -10.37031974853885
      ],
      [
        "vontade",
        -10.370898840123074
      ],
      [
        "Ġcarga",
        -10.371742816045218
      ],
      [
        "ficado",
        -10.372671952514253
      ],
      [
        "ĠRei",
        -10.372723112269108
      ],
      [
        "redor",
        -10.372870527122425
      ],
      [
        "assistÃªncia",
        -10.372977497989108
      ],
      [
        "Ġrua",
        -10.374024032046966
      ],
      [
        "MAN",
        -10.374129433867829
      ],
      [
        "fiscalizaÃ§Ã£o",
        -10.374651196355291
      ],
      [
        "Ġpreso",
        -10.375098671265045
      ],
      [
        "parceria",
        -10.37517417476926
      ],
      [
        "amanhÃ£",
        -10.37609143236224
      ],
      [
        "Ġ90",
        -10.376244317337765
      ],
      [
        "rÃ¡pida",
        -10.376579346816108
      ],
      [
        "PrÃªmio",
        -10.377191199938292
      ],
      [
        "¾",
        -10.37742371319108
      ],
      [
        "assi",
        -10.377880858847496
      ],
      [
        "Ġconstitui",
        -10.378168574621684
      ],
      [
        "Ġcontas",
        -10.37865879822896
      ],
      [
        "Ġpermanece",
        -10.378937883246907
      ],
      [
        "Ġouvir",
        -10.379492636705288
      ],
      [
        "instalaÃ§Ã£o",
        -10.379929616316474
      ],
      [
        "ADA",
        -10.380432215239908
      ],
      [
        "formou",
        -10.380903939282687
      ],
      [
        "Proposta",
        -10.381094043364566
      ],
      [
        "gli",
        -10.381579877766224
      ],
      [
        "Ġcuidado",
        -10.381747683712009
      ],
      [
        "ENTE",
        -10.381853088191823
      ],
      [
        "ĠBor",
        -10.382432612317183
      ],
      [
        "investimentos",
        -10.38254475663746
      ],
      [
        "ĠPARA",
        -10.38365717479295
      ],
      [
        "ĠForÃ§a",
        -10.384321121981133
      ],
      [
        "Ġjuiz",
        -10.384937398868663
      ],
      [
        "mulo",
        -10.38595748707759
      ],
      [
        "Ġerro",
        -10.38633691643552
      ],
      [
        "ĠNada",
        -10.386444161319682
      ],
      [
        "Ġquinta",
        -10.386638680031098
      ],
      [
        "Ġindica",
        -10.387111100844452
      ],
      [
        "Ġhumana",
        -10.3873223252728
      ],
      [
        "Ġtrabalhador",
        -10.387334218467767
      ],
      [
        "ĠNeste",
        -10.38802071775085
      ],
      [
        "ĠCruz",
        -10.388988673680885
      ],
      [
        "emendas",
        -10.389081262482122
      ],
      [
        "Ġcoloca",
        -10.39057167939888
      ],
      [
        "ation",
        -10.39079511710862
      ],
      [
        "preciaÃ§Ã£o",
        -10.390818258763009
      ],
      [
        "Ġcorpus",
        -10.391116519507833
      ],
      [
        "FederaÃ§Ã£o",
        -10.391141622674962
      ],
      [
        "Ġdefende",
        -10.391408602394154
      ],
      [
        "Ġregistrado",
        -10.392194459613156
      ],
      [
        "ĠAltera",
        -10.392503226487536
      ],
      [
        "ĠAM",
        -10.392754018763782
      ],
      [
        "ĠHar",
        -10.392800155217367
      ],
      [
        "Ġaplica",
        -10.39315249658962
      ],
      [
        "precisamos",
        -10.393792042394209
      ],
      [
        "Ġatingi",
        -10.39481183261694
      ],
      [
        "prÃªmio",
        -10.394841261914646
      ],
      [
        "dida",
        -10.395430072828256
      ],
      [
        "Ġcompanhia",
        -10.395740877072727
      ],
      [
        "Ġreserva",
        -10.39594508512977
      ],
      [
        "Ġmedo",
        -10.396300758667795
      ],
      [
        "Ġrealiza",
        -10.39640744986868
      ],
      [
        "ĠCapi",
        -10.39652949155406
      ],
      [
        "avanÃ§o",
        -10.396531825440006
      ],
      [
        "Ġalega",
        -10.396643083470028
      ],
      [
        "americano",
        -10.396646084304315
      ],
      [
        "campeÃ£o",
        -10.396912050069774
      ],
      [
        "existem",
        -10.397450650435696
      ],
      [
        "definiÃ§Ã£o",
        -10.398006448785322
      ],
      [
        "Ġreclama",
        -10.398297186661262
      ],
      [
        "expressÃ£o",
        -10.398308254718849
      ],
      [
        "Amazonas",
        -10.398575241852742
      ],
      [
        "retirada",
        -10.399366663526102
      ],
      [
        "Ġresulta",
        -10.399388726989743
      ],
      [
        "ĠSin",
        -10.399734893428455
      ],
      [
        "etapa",
        -10.400155629987363
      ],
      [
        "ĠParlamento",
        -10.400586002625367
      ],
      [
        "ĠfaÃ§a",
        -10.400654821899014
      ],
      [
        "ĠfaÃ§o",
        -10.401046611340709
      ],
      [
        "ĠSai",
        -10.40107478009516
      ],
      [
        "apensado",
        -10.401125690741656
      ],
      [
        "consumo",
        -10.4013272054518
      ],
      [
        "gravada",
        -10.401734421114275
      ],
      [
        "ĠNeto",
        -10.402342486397758
      ],
      [
        "equipamentos",
        -10.402354894774133
      ],
      [
        "tinho",
        -10.403817224735151
      ],
      [
        "ĠlÃŃder",
        -10.403844210005824
      ],
      [
        "Ġpartida",
        -10.404281237703223
      ],
      [
        "Ġgosto",
        -10.404558848453442
      ],
      [
        "Ġvoz",
        -10.404651776375934
      ],
      [
        "tais",
        -10.40471549364854
      ],
      [
        "elementos",
        -10.404984234464688
      ],
      [
        "Barbosa",
        -10.405680468534683
      ],
      [
        "Ġconhece",
        -10.405754218763684
      ],
      [
        "Ġrespectiva",
        -10.406333983916676
      ],
      [
        "Ġjogador",
        -10.40660818432743
      ],
      [
        "agentes",
        -10.407017924099812
      ],
      [
        "Ġoferta",
        -10.407229428578766
      ],
      [
        "Ġeventos",
        -10.407535946354768
      ],
      [
        "Ġtermina",
        -10.408213450391576
      ],
      [
        "ĠVila",
        -10.409376136832751
      ],
      [
        "contexto",
        -10.409489260786737
      ],
      [
        "Ġescolha",
        -10.409786168291165
      ],
      [
        "ĠMeio",
        -10.410089562290157
      ],
      [
        "Ġdispor",
        -10.41061960919626
      ],
      [
        "Mar",
        -10.411274029386162
      ],
      [
        "empresÃ¡rio",
        -10.412219638521558
      ],
      [
        "ĠRegional",
        -10.412286598237303
      ],
      [
        "Ġvelho",
        -10.412309789225414
      ],
      [
        "Ġinternacionais",
        -10.412481862863924
      ],
      [
        "Ġexporta",
        -10.413286532278644
      ],
      [
        "Ġtinham",
        -10.41416191221932
      ],
      [
        "Ġdaqui",
        -10.4144059042668
      ],
      [
        "desempenho",
        -10.41479753868862
      ],
      [
        "Ġ1993",
        -10.415948855235843
      ],
      [
        "ĠDeve",
        -10.416072683964405
      ],
      [
        "the",
        -10.416867695447724
      ],
      [
        "http",
        -10.416870649534829
      ],
      [
        "all",
        -10.417098469835963
      ],
      [
        "Ġcima",
        -10.417177067232169
      ],
      [
        "Ġesposa",
        -10.417204056753508
      ],
      [
        "ther",
        -10.41739357018536
      ],
      [
        "Ġvinte",
        -10.417648674511222
      ],
      [
        "Ġsexta",
        -10.418030286254073
      ],
      [
        "Ġeleitoral",
        -10.41803513099356
      ],
      [
        "Ġbe",
        -10.418326035809631
      ],
      [
        "ganhou",
        -10.41852326999078
      ],
      [
        "Ġcarta",
        -10.41857947206022
      ],
      [
        "Ġadequa",
        -10.418667417902498
      ],
      [
        "tentativa",
        -10.419107422387835
      ],
      [
        "ĠIN",
        -10.420020979869674
      ],
      [
        "ĠTim",
        -10.420690340347104
      ],
      [
        "·",
        -10.420717895057404
      ],
      [
        "Ġplanta",
        -10.421392481819426
      ],
      [
        "ĠjurisprudÃªncia",
        -10.421714026021563
      ],
      [
        "veÃŃculos",
        -10.421952277391268
      ],
      [
        "ĠalÃŃnea",
        -10.42200589446128
      ],
      [
        "RelaÃ§Ãµes",
        -10.422560045870076
      ],
      [
        "ĠCap",
        -10.42265076158082
      ],
      [
        "Ġhabita",
        -10.42286169314368
      ],
      [
        "Ġfogo",
        -10.424027528218796
      ],
      [
        "AgÃªncia",
        -10.4240391016604
      ],
      [
        "ocalidades",
        -10.424444002487924
      ],
      [
        "Ġcomando",
        -10.42445954420566
      ],
      [
        "Ġresto",
        -10.424720331739213
      ],
      [
        "ĠalcanÃ§",
        -10.425322790356676
      ],
      [
        "ĠMagalhÃ£es",
        -10.426208935712843
      ],
      [
        "Ġampla",
        -10.426675481356448
      ],
      [
        "Ġvive",
        -10.426881987700275
      ],
      [
        "reconhecimento",
        -10.426932623874546
      ],
      [
        "endente",
        -10.42753286753556
      ],
      [
        "ĠIsto",
        -10.42760385178273
      ],
      [
        "2002",
        -10.427820667215848
      ],
      [
        "Ġquebra",
        -10.429922717779716
      ],
      [
        "ĠusuÃ¡rio",
        -10.430308624428296
      ],
      [
        "Ġprodutor",
        -10.43032204772044
      ],
      [
        "PRIMEIR",
        -10.430519654595283
      ],
      [
        "Ġposto",
        -10.431328553153422
      ],
      [
        "convidado",
        -10.43151160130716
      ],
      [
        "elli",
        -10.433421289485263
      ],
      [
        "Ġcorte",
        -10.433653317737182
      ],
      [
        "Ġinclui",
        -10.433855475599524
      ],
      [
        "ĠSam",
        -10.433909094988024
      ],
      [
        "Ġven",
        -10.434142491028608
      ],
      [
        "rena",
        -10.434270996657554
      ],
      [
        "ĠCarreira",
        -10.434763212513786
      ],
      [
        "francÃªs",
        -10.435186229576992
      ],
      [
        "ĠMARCO",
        -10.435317186395473
      ],
      [
        "ĠTal",
        -10.435986968181734
      ],
      [
        "ĠClaro",
        -10.436171099809076
      ],
      [
        "onda",
        -10.436379051539229
      ],
      [
        "ĠJan",
        -10.437141771953172
      ],
      [
        "ĠlicenÃ§a",
        -10.43727025502712
      ],
      [
        "Ġrelator",
        -10.437360445316497
      ],
      [
        "presidente",
        -10.437367657636171
      ],
      [
        "ĠExterior",
        -10.438764950909231
      ],
      [
        "apelo",
        -10.439308955980412
      ],
      [
        "decisÃµes",
        -10.44101969651441
      ],
      [
        "necessÃ¡ria",
        -10.441225993663604
      ],
      [
        "Ġaumenta",
        -10.442662921666546
      ],
      [
        "metade",
        -10.4427674520711
      ],
      [
        "Ġassinatura",
        -10.443118524873244
      ],
      [
        "administrativo",
        -10.443659344827983
      ],
      [
        "Ġposse",
        -10.443821394938928
      ],
      [
        "ĠPER",
        -10.444295702683604
      ],
      [
        "Ġdado",
        -10.444511247664712
      ],
      [
        "ĠCPI",
        -10.444568641295527
      ],
      [
        "ĠFolha",
        -10.445175841986874
      ],
      [
        "provÃŃncia",
        -10.445400950569056
      ],
      [
        "ĠFerreira",
        -10.446411684547366
      ],
      [
        "............",
        -10.446685134989604
      ],
      [
        "Ġ200",
        -10.446927327090034
      ],
      [
        "Ġjunta",
        -10.44759986563548
      ],
      [
        "Enquanto",
        -10.447600934184152
      ],
      [
        "ĠClube",
        -10.447620876045368
      ],
      [
        "Ġexterior",
        -10.447855776769847
      ],
      [
        "ĠConstitucional",
        -10.448367330592315
      ],
      [
        "indicaÃ§Ã£o",
        -10.449809767899422
      ],
      [
        "Ġcursos",
        -10.450745634946305
      ],
      [
        "Ġencaminh",
        -10.45076864412499
      ],
      [
        "Ġseguro",
        -10.450936170119167
      ],
      [
        "ĠrÃ¡dio",
        -10.450969261825268
      ],
      [
        "Ġcontato",
        -10.451446278629858
      ],
      [
        "licitaÃ§Ã£o",
        -10.451467287538994
      ],
      [
        "ĠelÃ©trica",
        -10.452181691533465
      ],
      [
        "ĠSha",
        -10.452364300579909
      ],
      [
        "ĠcompetiÃ§Ã£o",
        -10.452812682111237
      ],
      [
        "incidÃªncia",
        -10.452883798948314
      ],
      [
        "Ġgera",
        -10.453182082133518
      ],
      [
        "finalidade",
        -10.453435335704816
      ],
      [
        "Ġnove",
        -10.453757725223603
      ],
      [
        "Ġcinema",
        -10.453863216264612
      ],
      [
        "gula",
        -10.453949606877815
      ],
      [
        "Ġconsidera",
        -10.45419496641612
      ],
      [
        "Ġchance",
        -10.454422201114635
      ],
      [
        "ĠSO",
        -10.454779140954807
      ],
      [
        "Ġcultural",
        -10.45564505962336
      ],
      [
        "ĠOrÃ§ament",
        -10.4559336654747
      ],
      [
        "Ġaceita",
        -10.456880552411016
      ],
      [
        "Ġ1992",
        -10.456925374320395
      ],
      [
        "Ġlivros",
        -10.457692756299304
      ],
      [
        "Ġregistrar",
        -10.458113406382086
      ],
      [
        "Ġterceira",
        -10.4583285088854
      ],
      [
        "Ġcal",
        -10.459444904065943
      ],
      [
        "funcionamento",
        -10.45993497507488
      ],
      [
        "onclusÃ£o",
        -10.459993276237874
      ],
      [
        "Ġnot",
        -10.460010050003268
      ],
      [
        "ESTADO",
        -10.460272425377994
      ],
      [
        "Outra",
        -10.460712240093658
      ],
      [
        "votos",
        -10.461108089976875
      ],
      [
        "ĠMello",
        -10.461428412941482
      ],
      [
        "ella",
        -10.461742596611854
      ],
      [
        "MÃ£o",
        -10.46219651179607
      ],
      [
        "exploraÃ§Ã£o",
        -10.46234431751837
      ],
      [
        "ĠEspanha",
        -10.463624153492864
      ],
      [
        "Ġatende",
        -10.464098961064453
      ],
      [
        "Ġpersonagem",
        -10.464296144383308
      ],
      [
        "Ġinteiro",
        -10.464365832308305
      ],
      [
        "Ġentende",
        -10.464963196226885
      ],
      [
        "ĠPaul",
        -10.465076414298204
      ],
      [
        "Ġveja",
        -10.465510843244932
      ],
      [
        "ĠConstitui",
        -10.466808543220326
      ],
      [
        "ĠMer",
        -10.466926672713765
      ],
      [
        "Ġsenti",
        -10.467146087262892
      ],
      [
        "tributÃ¡ria",
        -10.467479196706549
      ],
      [
        "Ĵ",
        -10.467509983857695
      ],
      [
        "ĠEli",
        -10.467726850970164
      ],
      [
        "policiais",
        -10.46873481749348
      ],
      [
        "ĠdistÃ¢ncia",
        -10.46884817862827
      ],
      [
        "Ġsabia",
        -10.469716640484778
      ],
      [
        "Ġprefeito",
        -10.469899765444447
      ],
      [
        "Embora",
        -10.469919051723522
      ],
      [
        "cir",
        -10.470324453923732
      ],
      [
        "fundamento",
        -10.47097860366078
      ],
      [
        "Ġjoga",
        -10.471027879897818
      ],
      [
        "comÃ©rcio",
        -10.471375132237734
      ],
      [
        "Ġpermanente",
        -10.471603493041291
      ],
      [
        "Ġitem",
        -10.471629075640282
      ],
      [
        "ĠespÃ©cies",
        -10.471641092274815
      ],
      [
        "Ġproduzir",
        -10.472231769955354
      ],
      [
        "ĠVida",
        -10.47247504279416
      ],
      [
        "trinta",
        -10.472985713627777
      ],
      [
        "Ġquiser",
        -10.47439137429114
      ],
      [
        "Ġindividual",
        -10.47451971784428
      ],
      [
        "geralmente",
        -10.474618553409211
      ],
      [
        "ric",
        -10.475112882437228
      ],
      [
        "lex",
        -10.47519766612128
      ],
      [
        "ĠDan",
        -10.476053625839644
      ],
      [
        "tive",
        -10.477382712615167
      ],
      [
        "Ġadolescente",
        -10.477573878775935
      ],
      [
        "ĠYork",
        -10.478204780013
      ],
      [
        "ĠMartins",
        -10.478501487873794
      ],
      [
        "lizar",
        -10.478709673579116
      ],
      [
        "ĠMc",
        -10.47880553582822
      ],
      [
        "Ġpaz",
        -10.479145811296652
      ],
      [
        "Ġdiminui",
        -10.479384953647884
      ],
      [
        "ĠMuseu",
        -10.480251628799833
      ],
      [
        "ligaÃ§Ã£o",
        -10.480746764156097
      ],
      [
        "Ġpensar",
        -10.48138016763668
      ],
      [
        "mantid",
        -10.48145838692864
      ],
      [
        "Parlamentare",
        -10.481909381574964
      ],
      [
        "Couto",
        -10.483771673557197
      ],
      [
        "fizeram",
        -10.483881018510193
      ],
      [
        "ĠfÃ¡cil",
        -10.484305351293154
      ],
      [
        "ĠParte",
        -10.484659827312075
      ],
      [
        "Ġimplica",
        -10.484753309329076
      ],
      [
        "Bibliografia",
        -10.484926615951323
      ],
      [
        "domÃŃnio",
        -10.486430086158116
      ],
      [
        "Ġconversa",
        -10.48657407879972
      ],
      [
        "Ġaquilo",
        -10.486890246001204
      ],
      [
        "Pernambuco",
        -10.487337676834944
      ],
      [
        "ordinÃ¡ria",
        -10.487946454774026
      ],
      [
        "usando",
        -10.488357084109513
      ],
      [
        "ĠAntes",
        -10.488641245554165
      ],
      [
        "ĠMelhor",
        -10.48975146501068
      ],
      [
        "ĠprÃ©vi",
        -10.489884828223795
      ],
      [
        "Ġ1913",
        -10.491055933751342
      ],
      [
        "Ġenorme",
        -10.49183847044748
      ],
      [
        "estudantes",
        -10.49199125704382
      ],
      [
        "ĠAgricultura",
        -10.49235990740615
      ],
      [
        "Ġlonga",
        -10.492557492200191
      ],
      [
        "consumidor",
        -10.493230408780136
      ],
      [
        "ĠNÃĥO",
        -10.493380382445867
      ],
      [
        "terminou",
        -10.493833307644604
      ],
      [
        "Ġobservado",
        -10.493978206711818
      ],
      [
        "Ġinsti",
        -10.494007788199536
      ],
      [
        "esteja",
        -10.494521625832336
      ],
      [
        "professores",
        -10.494873121153088
      ],
      [
        "ĠcrÃŃtica",
        -10.495180335769517
      ],
      [
        "morreu",
        -10.495531232581794
      ],
      [
        "bÃ¡sica",
        -10.495757705439466
      ],
      [
        "Vieira",
        -10.49640457137578
      ],
      [
        "Ġfamiliar",
        -10.496530123480328
      ],
      [
        "Ġtele",
        -10.49686173080607
      ],
      [
        "ĠParece",
        -10.497323783593512
      ],
      [
        "Ġdemonstra",
        -10.498543650442718
      ],
      [
        "Ġpensa",
        -10.49907296440982
      ],
      [
        "petrÃ³leo",
        -10.499178878351367
      ],
      [
        "nanimidade",
        -10.499743734134569
      ],
      [
        "trÃ¢nsito",
        -10.500032860119966
      ],
      [
        "Ġclara",
        -10.500540308999398
      ],
      [
        "aposentadoria",
        -10.501272572368636
      ],
      [
        "Ġjeito",
        -10.501337405061223
      ],
      [
        "iauÃŃ",
        -10.50235794718231
      ],
      [
        "nador",
        -10.503346071787796
      ],
      [
        "companheiro",
        -10.503628739814372
      ],
      [
        "ĠMonte",
        -10.503635125420375
      ],
      [
        "patrimÃ´nio",
        -10.503720021409292
      ],
      [
        "Ġsenador",
        -10.50414402918849
      ],
      [
        "arney",
        -10.504692147044974
      ],
      [
        "ĠGO",
        -10.505176859403432
      ],
      [
        "escrita",
        -10.506343553806378
      ],
      [
        "postos",
        -10.50677069246524
      ],
      [
        "recebido",
        -10.506782805667784
      ],
      [
        "Ġinferior",
        -10.507262037407394
      ],
      [
        "Ġalternativa",
        -10.507566473625207
      ],
      [
        "Ġmensagem",
        -10.507702213362355
      ],
      [
        "ick",
        -10.50779884626295
      ],
      [
        "Ĩ",
        -10.5084674402018
      ],
      [
        "Ġanteriores",
        -10.508478117593803
      ],
      [
        "ÃŃveis",
        -10.508495512302726
      ],
      [
        "Ġrapid",
        -10.509182873866166
      ],
      [
        "Ġofens",
        -10.509478280588718
      ],
      [
        "ĠMachado",
        -10.509555468774268
      ],
      [
        "ĠNovo",
        -10.510744011663332
      ],
      [
        "Ġintegral",
        -10.51163205892711
      ],
      [
        "ĠAurÃ©li",
        -10.51185331494835
      ],
      [
        "Ġreferente",
        -10.512433472655625
      ],
      [
        "2001",
        -10.512492497524208
      ],
      [
        "Ġvolume",
        -10.51274166082559
      ],
      [
        "transferÃªncia",
        -10.512772297102378
      ],
      [
        "¸",
        -10.512871778922683
      ],
      [
        "Ġdesen",
        -10.51365074917838
      ],
      [
        "Ġpreocupa",
        -10.51378308713496
      ],
      [
        "ocumentaÃ§Ã£o",
        -10.513828522044047
      ],
      [
        "ĠcoraÃ§Ã£o",
        -10.514033919610172
      ],
      [
        "Ġhabe",
        -10.514383460024952
      ],
      [
        "passando",
        -10.515695303391434
      ],
      [
        "Ãģfrica",
        -10.515825304662744
      ],
      [
        "âĢĵâĢĵâĢĵâĢĵâĢĵ",
        -10.515838072362774
      ],
      [
        "Ġaberta",
        -10.516233809825764
      ],
      [
        "bot",
        -10.51639913706939
      ],
      [
        "ÃŃdo",
        -10.516847520859027
      ],
      [
        "investigaÃ§Ã£o",
        -10.51700100686476
      ],
      [
        "Ġacompanh",
        -10.517129736169563
      ],
      [
        "camp",
        -10.517424169910516
      ],
      [
        "ĠCultural",
        -10.517812865074529
      ],
      [
        "tte",
        -10.518883517561502
      ],
      [
        "ĠEdita",
        -10.519211892633145
      ],
      [
        "horÃ¡rio",
        -10.519822907277511
      ],
      [
        "produtores",
        -10.520186333704943
      ],
      [
        "ĠWilliam",
        -10.520455974963712
      ],
      [
        "Ġmostrar",
        -10.520678884581583
      ],
      [
        "Rodrigo",
        -10.520954811947115
      ],
      [
        "Com",
        -10.521011942572358
      ],
      [
        "PLS",
        -10.521765612744476
      ],
      [
        "ĠPare",
        -10.52197387057324
      ],
      [
        "Ġaltura",
        -10.522308136764115
      ],
      [
        "desafio",
        -10.522902411692083
      ],
      [
        "Candido",
        -10.52321728056495
      ],
      [
        "Ġolhos",
        -10.523308053269863
      ],
      [
        "ĠItÃ¡lia",
        -10.523331557029175
      ],
      [
        "ĠJapÃ£o",
        -10.523760962579487
      ],
      [
        "»",
        -10.524015784075928
      ],
      [
        "funcionÃ¡rios",
        -10.524018832300689
      ],
      [
        "tomada",
        -10.52410373314845
      ],
      [
        "Renan",
        -10.524200209741595
      ],
      [
        "cÃ³pia",
        -10.524214734079203
      ],
      [
        "ĠYa",
        -10.525453045454402
      ],
      [
        "ĠEspÃŃrit",
        -10.525890230968722
      ],
      [
        "ĠPaim",
        -10.525989092738715
      ],
      [
        "Ġteor",
        -10.52707079270574
      ],
      [
        "ĠinfluÃªncia",
        -10.527942585024835
      ],
      [
        "Ġperder",
        -10.528131424084552
      ],
      [
        "erra",
        -10.529011454409572
      ],
      [
        "Į",
        -10.529498146123528
      ],
      [
        "aproximadamente",
        -10.52960644961701
      ],
      [
        "ĠPp",
        -10.529662151095032
      ],
      [
        "casamento",
        -10.530438585080145
      ],
      [
        "Ġtirar",
        -10.530622069364185
      ],
      [
        "Ġtamanho",
        -10.530716655905996
      ],
      [
        "MÃ¡rio",
        -10.531547690753678
      ],
      [
        "ĠOfici",
        -10.532261631489638
      ],
      [
        "iretrizes",
        -10.532358583940708
      ],
      [
        "contrataÃ§Ã£o",
        -10.533248349929677
      ],
      [
        "Ġparticipou",
        -10.533594761339684
      ],
      [
        "Ġpatr",
        -10.533656114727874
      ],
      [
        "Ġdesenvolve",
        -10.534205332528268
      ],
      [
        "Mesmo",
        -10.535067429148086
      ],
      [
        "Ġtenta",
[...]
