{
  "version": "1.0",
  "truncation": {
    "direction": "Right",
    "max_length": 1024,
    "strategy": "LongestFirst",
    "stride": 0
  },
  "padding": null,
  "added_tokens": [
    {
      "id": 0,
      "content": "[PAD]",
      "single_word": false,
      "lstrip": false,
      "rstrip": false,
      "normalized": false,
      "special": true
    },
    {
      "id": 1,
      "content": "[SEP]",
      "single_word": false,
      "lstrip": false,
      "rstrip": false,
      "normalized": false,
      "special": true
    },
    {
      "id": 2,
      "content": "[EOS]",
      "single_word": false,
      "lstrip": false,
      "rstrip": false,
      "normalized": false,
      "special": true
    },
    {
      "id": 3,
      "content": "[UNK]",
      "single_word": false,
      "lstrip": false,
      "rstrip": false,
      "normalized": false,
      "special": true
    }
  ],
  "normalizer": {
    "type": "Sequence",
    "normalizers": [
      {
        "type": "Strip",
        "strip_left": true,
        "strip_right": true
      },
      {
        "type": "NFC"
      }
    ]
  },
  "pre_tokenizer": {
    "type": "ByteLevel",
    "add_prefix_space": true,
    "trim_offsets": true,
    "use_regex": true
  },
  "post_processor": {
    "type": "Sequence",
    "processors": [
      {
        "type": "ByteLevel",
        "add_prefix_space": true,
        "trim_offsets": true,
        "use_regex": true
      },
      {
        "type": "TemplateProcessing",
        "single": [
          {
            "Sequence": {
              "id": "A",
              "type_id": 0
            }
          },
          {
            "SpecialToken": {
              "id": "[EOS]",
              "type_id": 0
            }
          }
        ],
        "pair": [
          {
            "Sequence": {
              "id": "A",
              "type_id": 0
            }
          },
          {
            "SpecialToken": {
              "id": "[SEP]",
              "type_id": 0
            }
          },
          {
            "Sequence": {
              "id": "B",
              "type_id": 0
            }
          },
          {
            "SpecialToken": {
              "id": "[EOS]",
              "type_id": 0
            }
          }
        ],
        "special_tokens": {
          "[EOS]": {
            "id": "[EOS]",
            "ids": [
              2
            ],
            "tokens": [
              "[EOS]"
            ]
          },
          "[SEP]": {
            "id": "[SEP]",
            "ids": [
              1
            ],
            "tokens": [
              "[SEP]"
            ]
          }
        }
      }
    ]
  },
  "decoder": {
    "type": "ByteLevel",
    "add_prefix_space": true,
    "trim_offsets": true,
    "use_regex": true
  },
  "model": {
    "type": "Unigram",
    "unk_id": 3,
    "vocab": [
      [
        "[PAD]",
        0.0
      ],
      [
        "[SEP]",
        0.0
      ],
      [
        "[EOS]",
        0.0
      ],
      [
        "[UNK]",
        0.0
      ],
      [
        "Ġ",
        -1.8734355799140443
      ],
      [
        "s",
        -3.230306365934684
      ],
      [
        "a",
        -3.26526676954893
      ],
      [
        ",",
        -3.3535629031128877
      ],
      [
        "o",
        -3.377640793495459
      ],
      [
        "e",
        -3.4588374133405217
      ],
      [
        ".",
        -3.5735589739145297
      ],
      [
        "Ġde",
        -3.694509946395875
      ],
      [
        "r",
        -4.380062775152993
      ],
      [
        "i",
        -4.4774314048919805
      ],
      [
        "u",
        -4.541038501191714
      ],
      [
        "-",
        -4.646614287132852
      ],
      [
        "Ġdo",
        -4.667627803628751
      ],
      [
        "Ġque",
        -4.682535184418889
      ],
      [
        "n",
        -4.764227465906313
      ],
      [
        "m",
        -4.768662784154287
      ],
      [
        "Ġda",
        -4.854367140175572
      ],
      [
        "d",
        -4.957033415899996
      ],
      [
        "l",
        -4.997098746302225
      ],
      [
        "t",
        -5.050409782848412
      ],
      [
        "c",
        -5.147781399322692
      ],
      [
        "A",
        -5.202326670218987
      ],
      [
        "Ġem",
        -5.254729393492735
      ],
      [
        "\"",
        -5.3223787686904735
      ],
      [
        "O",
        -5.363699114464573
      ],
      [
        ")",
        -5.37818999468773
      ],
      [
        "(",
        -5.3782891665021815
      ],
      [
        "p",
        -5.462043656119061
      ],
      [
        "Ġpara",
        -5.489620837345861
      ],
      [
        "Ġcom",
        -5.552652850489714
      ],
      [
        "Ġno",
        -5.648357741461577
      ],
      [
        "g",
        -5.776540633256335
      ],
      [
        ":",
        -5.81519371560681
      ],
      [
        "Ġum",
        -5.8561855189320315
      ],
      [
        "ĠâĢĵ",
        -5.8573158973301
      ],
      [
        "/",
        -5.858871401902853
      ],
      [
        "ĠÃ©",
        -5.874168498931651
      ],
      [
        "Ġna",
        -5.874436171466327
      ],
      [
        "S",
        -5.88240678035649
      ],
      [
        "b",
        -5.899761103267226
      ],
      [
        "ĠnÃ£o",
        -5.94897583861759
      ],
      [
        "E",
        -6.014277396926735
      ],
      [
        "Ġuma",
        -6.065050661049133
      ],
      [
        "Ġpor",
        -6.099643427420345
      ],
      [
        "v",
        -6.188994268222693
      ],
      [
        "f",
        -6.2841423336308555
      ],
      [
        "1",
        -6.288452673241665
      ],
      [
        "P",
        -6.291362585729269
      ],
      [
        "C",
        -6.313822031929142
      ],
      [
        "6",
        -6.313898152414522
      ],
      [
        "3",
        -6.31873935917765
      ],
      [
        "R",
        -6.330902715375705
      ],
      [
        "I",
        -6.336886455867738
      ],
      [
        "4",
        -6.3816716660764055
      ],
      [
        "5",
        -6.395259891540084
      ],
      [
        "Ã§Ã£o",
        -6.3957105160695065
      ],
      [
        "7",
        -6.4104385419488334
      ],
      [
        "h",
        -6.414337661327286
      ],
      [
        "Ġdos",
        -6.437175159247914
      ],
      [
        "ĠÃł",
        -6.457559143396583
      ],
      [
        "?",
        -6.460736210311932
      ],
      [
        "Ġcomo",
        -6.4795977443051385
      ],
      [
        "2",
        -6.4807452048716065
      ],
      [
        "de",
        -6.496871404002306
      ],
      [
        "ndo",
        -6.548669853395019
      ],
      [
        "8",
        -6.556465560595722
      ],
      [
        "Ġfoi",
        -6.607138303547028
      ],
      [
        "z",
        -6.662609984339094
      ],
      [
        "!",
        -6.66691902713834
      ],
      [
        "Ġmais",
        -6.674606202417335
      ],
      [
        "M",
        -6.712724041741502
      ],
      [
        "T",
        -6.734261596358323
      ],
      [
        "y",
        -6.7433355639484915
      ],
      [
        "9",
        -6.7538888004712305
      ],
      [
        "L",
        -6.775028987702669
      ],
      [
        "N",
        -6.780390111964774
      ],
      [
        ";",
        -6.803128359350048
      ],
      [
        "V",
        -6.804385214679153
      ],
      [
        "Ġpela",
        -6.821045651515277
      ],
      [
        "B",
        -6.823304008554702
      ],
      [
        "ĠDE",
        -6.82982279765403
      ],
      [
        "ĠnÂº",
        -6.844773379327908
      ],
      [
        "in",
        -6.879140024078367
      ],
      [
        "Ġpelo",
        -6.8895520787499045
      ],
      [
        "Ã©",
        -6.898031701415938
      ],
      [
        "D",
        -6.904233197044443
      ],
      [
        "Ġsua",
        -6.910429481223046
      ],
      [
        "Ã¡",
        -6.93196661312858
      ],
      [
        "................",
        -6.936209098332826
      ],
      [
        "U",
        -6.94274498994054
      ],
      [
        "Ġser",
        -6.979050566347926
      ],
      [
        "ĠSr",
        -6.984375281497893
      ],
      [
        "Âº",
        -6.988802546407523
      ],
      [
        "F",
        -6.990749192546275
      ],
      [
        "Ã£o",
        -6.991785951322477
      ],
      [
        "li",
        -7.0051548370347625
      ],
      [
        "mente",
        -7.009720084090013
      ],
      [
        "Ġdas",
        -7.035644561683004
      ],
      [
        "Ġsobre",
        -7.056020807789942
      ],
      [
        "ÃŃ",
        -7.060947299763697
      ],
      [
        "...",
        -7.077966877147944
      ],
      [
        "k",
        -7.111901804942711
      ],
      [
        "Ġseu",
        -7.14003643923475
      ],
      [
        "dos",
        -7.148716203857003
      ],
      [
        "ĠâĢľ",
        -7.1545810334908495
      ],
      [
        "Ġ19",
        -7.156791208768018
      ],
      [
        "mos",
        -7.179849682293394
      ],
      [
        "Ġcon",
        -7.19388829530198
      ],
      [
        "ĠestÃ¡",
        -7.212003550767587
      ],
      [
        "ĠPresidente",
        -7.216906567679517
      ],
      [
        "G",
        -7.225212757501831
      ],
      [
        "ĠEm",
        -7.237652054997826
      ],
      [
        "ram",
        -7.242184830902291
      ],
      [
        "ĠNÃ£o",
        -7.243551161388686
      ],
      [
        "ĠtambÃ©m",
        -7.253775759707574
      ],
      [
        "ĠLei",
        -7.266077495434224
      ],
      [
        "Ġin",
        -7.340695135024754
      ],
      [
        "ĠDeputado",
        -7.354263139081809
      ],
      [
        "Ġtem",
        -7.361085823680986
      ],
      [
        "Ã³",
        -7.364425517026126
      ],
      [
        "Ġmas",
        -7.365744799305622
      ],
      [
        "Ġart",
        -7.366301824727325
      ],
      [
        "Ġnos",
        -7.39648673485549
      ],
      [
        "Ġele",
        -7.399633444187925
      ],
      [
        "que",
        -7.400827370035316
      ],
      [
        "x",
        -7.417272530890408
      ],
      [
        "Ã§Ãµes",
        -7.428468764129883
      ],
      [
        "aÃ§Ã£o",
        -7.429959553934109
      ],
      [
        "das",
        -7.443463882547453
      ],
      [
        "idade",
        -7.467113351047788
      ],
      [
        "vi",
        -7.4766784514574685
      ],
      [
        "ria",
        -7.481115750245731
      ],
      [
        "ĠSR",
        -7.486385133793323
      ],
      [
        "ter",
        -7.505884170726834
      ],
      [
        "ĠFederal",
        -7.516404888586729
      ],
      [
        "ĠÃī",
        -7.530039009834379
      ],
      [
        "ĠsÃ£o",
        -7.530930568667271
      ],
      [
        "Ġisso",
        -7.531088571724876
      ],
      [
        "ĠNÂº",
        -7.546185072985377
      ],
      [
        "j",
        -7.54637165327984
      ],
      [
        "0",
        -7.547273858532741
      ],
      [
        "Ġanos",
        -7.563540612659455
      ],
      [
        "ĠBrasil",
        -7.567849069818587
      ],
      [
        "ĠEstado",
        -7.567900358349679
      ],
      [
        "ĠSenador",
        -7.5848503925955715
      ],
      [
        "ĠEu",
        -7.613138060746014
      ],
      [
        "ĠDe",
        -7.614271591818968
      ],
      [
        "Ġentre",
        -7.61841995780558
      ],
      [
        "J",
        -7.6205280991014845
      ],
      [
        "Ġco",
        -7.629428168064926
      ],
      [
        "ĠvocÃª",
        -7.63367452823209
      ],
      [
        "Ġmuito",
        -7.650281288986781
      ],
      [
        "ver",
        -7.656190778092693
      ],
      [
        "era",
        -7.669844310489411
      ],
      [
        "ĠNo",
        -7.698282055246777
      ],
      [
        "ĠatÃ©",
        -7.7084237432345795
      ],
      [
        "w",
        -7.713477753301522
      ],
      [
        "ĠjÃ¡",
        -7.714592592034675
      ],
      [
        "min",
        -7.71683728195581
      ],
      [
        "ĠRe",
        -7.717055918864315
      ],
      [
        "%",
        -7.724211887287549
      ],
      [
        "ĠSe",
        -7.734139199537244
      ],
      [
        "ela",
        -7.737791171095527
      ],
      [
        "Ġpro",
        -7.743039327503277
      ],
      [
        "res",
        -7.744559572070674
      ],
      [
        "Ġpre",
        -7.750147987852149
      ],
      [
        "Ġex",
        -7.751605399268989
      ],
      [
        "um",
        -7.7542094454419885
      ],
      [
        "nte",
        -7.764320566358224
      ],
      [
        "ĠComissÃ£o",
        -7.770343517622681
      ],
      [
        "br",
        -7.792795102642847
      ],
      [
        "Ġbem",
        -7.792979506962791
      ],
      [
        "cia",
        -7.800677292982586
      ],
      [
        "Ġforma",
        -7.80346645299036
      ],
      [
        "ĠNa",
        -7.808783305756483
      ],
      [
        "Ġsem",
        -7.8155277705526895
      ],
      [
        "Ġpode",
        -7.826960030950115
      ],
      [
        "Ġ10",
        -7.827910291883425
      ],
      [
        "ĠW",
        -7.845234312391895
      ],
      [
        "Ġquando",
        -7.849702105565289
      ],
      [
        "cio",
        -7.863707517097289
      ],
      [
        "tor",
        -7.86417628550678
      ],
      [
        "Ġaqui",
        -7.8762323929041
      ],
      [
        "tra",
        -7.879134867398054
      ],
      [
        "Ġdia",
        -7.881451446023972
      ],
      [
        "Ġmesmo",
        -7.882379225009162
      ],
      [
        "tro",
        -7.887316895077808
      ],
      [
        "ĠNacional",
        -7.8930488395188
      ],
      [
        "ĠPor",
        -7.896228796199898
      ],
      [
        "ĠMa",
        -7.908531081748228
      ],
      [
        "tar",
        -7.933433306987402
      ],
      [
        "ĠÂ§",
        -7.933468155593003
      ],
      [
        "Ġtodos",
        -7.940305027907723
      ],
      [
        "ch",
        -7.950640119255855
      ],
      [
        "Ġainda",
        -7.95499442062205
      ],
      [
        "Ã§a",
        -7.956516227282201
      ],
      [
        "Ġcontra",
        -7.9594026183904685
      ],
      [
        "ĠSÃ£o",
        -7.960893256344168
      ],
      [
        "Ġ18",
        -7.972808695391285
      ],
      [
        "Ġter",
        -7.978282904504059
      ],
      [
        "Ġesta",
        -7.983788197719278
      ],
      [
        "ĠOs",
        -7.99439358093464
      ],
      [
        "ita",
        -7.996862489910217
      ],
      [
        "fi",
        -8.002095075781122
      ],
      [
        "Ġseus",
        -8.005336380764415
      ],
      [
        "âĢĿ.",
        -8.011398388025741
      ],
      [
        "_",
        -8.014424015647968
      ],
      [
        "Ġcidade",
        -8.015379959995991
      ],
      [
        "lha",
        -8.019722985404572
      ],
      [
        "ina",
        -8.023094793136375
      ],
      [
        "Ġparte",
        -8.024175479512836
      ],
      [
        "mento",
        -8.037134000977167
      ],
      [
        "iz",
        -8.03827474771702
      ],
      [
        "ĠCom",
        -8.038752890948041
      ],
      [
        "Ġforam",
        -8.04026121486427
      ],
      [
        "Ãª",
        -8.04139783226902
      ],
      [
        "ĠPaulo",
        -8.048184110587083
      ],
      [
        "Ġfazer",
        -8.048433728509496
      ],
      [
        "Ġcaso",
        -8.060417063319097
      ],
      [
        "ĠhÃ¡",
        -8.060481676229898
      ],
      [
        "H",
        -8.066867877111768
      ],
      [
        "est",
        -8.072106326714067
      ],
      [
        "Ġano",
        -8.085035398525662
      ],
      [
        "ĠCon",
        -8.088273719121272
      ],
      [
        "ando",
        -8.095534658142737
      ],
      [
        "ĠPL",
        -8.095944962765463
      ],
      [
        "Ġtempo",
        -8.110984663336058
      ],
      [
        "Ġesse",
        -8.11203473967236
      ],
      [
        "19",
        -8.12600636753817
      ],
      [
        "and",
        -8.133543931088989
      ],
      [
        "per",
        -8.136330897033877
      ],
      [
        "qui",
        -8.141202100511352
      ],
      [
        "ĠIn",
        -8.141355201973603
      ],
      [
        "ĠAl",
        -8.141463365490488
      ],
      [
        "PRESIDENTE",
        -8.143909136115171
      ],
      [
        "Ġseja",
        -8.145171849416512
      ],
      [
        "Ġessa",
        -8.14716577479356
      ],
      [
        "enta",
        -8.148404662530247
      ],
      [
        "PROJETO",
        -8.150245689405818
      ],
      [
        "Ġvai",
        -8.155467783366387
      ],
      [
        "Ġ11",
        -8.15906755320987
      ],
      [
        "Ãªncia",
        -8.160005074890428
      ],
      [
        "Ġmeu",
        -8.160265583692647
      ],
      [
        "Ãº",
        -8.161035493009155
      ],
      [
        "Ġca",
        -8.163442234862007
      ],
      [
        "ica",
        -8.165565656380613
      ],
      [
        "ĠLEI",
        -8.169163645041046
      ],
      [
        "ĠMar",
        -8.179075507231858
      ],
      [
        "tri",
        -8.179268573996078
      ],
      [
        "Ġporque",
        -8.179906848864103
      ],
      [
        "Z",
        -8.180913826916935
      ],
      [
        "ĠEle",
        -8.18239249773537
      ],
      [
        "00",
        -8.183791893107028
      ],
      [
        "ĠsÃ³",
        -8.184556837075228
      ],
      [
        "ĠÃłs",
        -8.189341325248586
      ],
      [
        "rem",
        -8.18938873625579
      ],
      [
        "sta",
        -8.191751188672555
      ],
      [
        "ente",
        -8.19274331847942
      ],
      [
        "Ġprimeiro",
        -8.201102837973464
      ],
      [
        "ing",
        -8.201722985397916
      ],
      [
        "ĠAs",
        -8.203528171786955
      ],
      [
        "ĠArt",
        -8.207450447498484
      ],
      [
        "ĠMas",
        -8.20836645277774
      ],
      [
        "ĠDeputados",
        -8.21303916841204
      ],
      [
        "tiva",
        -8.217729340130488
      ],
      [
        "ĠDo",
        -8.220278887133189
      ],
      [
        "ĠMo",
        -8.221301634007224
      ],
      [
        "DO",
        -8.224330174787163
      ],
      [
        "X",
        -8.226230324313532
      ],
      [
        "RELATOR",
        -8.231024155079002
      ],
      [
        "ĠGoverno",
        -8.234250709869663
      ],
      [
        "ĠMinistro",
        -8.235364403208083
      ],
      [
        "ja",
        -8.237255813802065
      ],
      [
        "ĠConstituiÃ§Ã£o",
        -8.24957637456217
      ],
      [
        "Ġgrande",
        -8.249723753414122
      ],
      [
        "âĢĿ",
        -8.25256501180666
      ],
      [
        "ĠVocÃª",
        -8.253182428621292
      ],
      [
        "ES",
        -8.254370989235897
      ],
      [
        "Ġonde",
        -8.25721872646399
      ],
      [
        "'",
        -8.262117578302055
      ],
      [
        "Ġ12",
        -8.262417335590019
      ],
      [
        "ista",
        -8.262679184463073
      ],
      [
        "Ġnas",
        -8.26287911992317
      ],
      [
        "Ġpessoas",
        -8.263528674545627
      ],
      [
        "man",
        -8.263543006200045
      ],
      [
        "Ġvez",
        -8.269393387531943
      ],
      [
        "Ġ15",
        -8.275167245475332
      ],
      [
        "Ġartigo",
        -8.276059880339485
      ],
      [
        "Ġoutros",
        -8.282959093517404
      ],
      [
        "ĠSenhor",
        -8.284724358832865
      ],
      [
        "ida",
        -8.287904944957647
      ],
      [
        "Ġeste",
        -8.292573384639352
      ],
      [
        "Ġtrabalho",
        -8.292736790292679
      ],
      [
        "RI",
        -8.295443474376606
      ],
      [
        "ĠestÃ£o",
        -8.297092029006741
      ],
      [
        "antes",
        -8.297333260431028
      ],
      [
        "Ġapenas",
        -8.298878561834233
      ],
      [
        "ĠAn",
        -8.299128240327656
      ],
      [
        "pre",
        -8.301498825264185
      ],
      [
        "Ãµes",
        -8.301789658583203
      ],
      [
        "car",
        -8.307452595359663
      ],
      [
        "Ġoutras",
        -8.30951187017075
      ],
      [
        "aÃ§Ãµes",
        -8.310652446688332
      ],
      [
        "ĠCÃ¢mara",
        -8.311770514337928
      ],
      [
        "qu",
        -8.312669331828369
      ],
      [
        "ĠnÃ³s",
        -8.314487493408128
      ],
      [
        "RA",
        -8.316932272035677
      ],
      [
        "tos",
        -8.316994048768095
      ],
      [
        "Ġsu",
        -8.320493581443259
      ],
      [
        "Ġsendo",
        -8.323387044530858
      ],
      [
        "Âª",
        -8.324554477221104
      ],
      [
        "Ġdois",
        -8.335480243201108
      ],
      [
        "fer",
        -8.339423369117437
      ],
      [
        "ten",
        -8.342477555463828
      ],
      [
        "mar",
        -8.345875645352386
      ],
      [
        "Ġvi",
        -8.34596131877325
      ],
      [
        "ĠRio",
        -8.3460406129159
      ],
      [
        "ido",
        -8.349887306573022
      ],
      [
        "cor",
        -8.353291971940537
      ],
      [
        "Ġordem",
        -8.354114720446894
      ],
      [
        "Ġnosso",
        -8.356108927538227
      ],
      [
        "Ġlei",
        -8.357535155621235
      ],
      [
        "ĠProjeto",
        -8.364000179401033
      ],
      [
        "dia",
        -8.365210982404951
      ],
      [
        "ck",
        -8.365472276807498
      ],
      [
        "dor",
        -8.367448155022977
      ],
      [
        "ĠII",
        -8.368987441804784
      ],
      [
        "eiro",
        -8.372022256057448
      ],
      [
        "10",
        -8.373471126672733
      ],
      [
        "MA",
        -8.378733336033072
      ],
      [
        "Ã´",
        -8.380119069756207
      ],
      [
        "Ġpo",
        -8.386152488571302
      ],
      [
        "Ġnome",
        -8.387583362058965
      ],
      [
        "Ġminha",
        -8.388728403502348
      ],
      [
        "ĠPara",
        -8.388969629456072
      ],
      [
        "ĠCasa",
        -8.395787317382167
      ],
      [
        "Ġsuas",
        -8.396128512048714
      ],
      [
        "tal",
        -8.398472645987038
      ],
      [
        "Ġmaior",
        -8.39856645472184
      ],
      [
        "Ġhoje",
        -8.398648006881174
      ],
      [
        "ĠMe",
        -8.399466564387637
      ],
      [
        "Ġte",
        -8.403585943696466
      ],
      [
        "nha",
        -8.406768349102956
      ],
      [
        "ĠserÃ¡",
        -8.407021292135383
      ],
      [
        "Ġtermos",
        -8.408304774872096
      ],
      [
        "Ġqual",
        -8.415334785606435
      ],
      [
        "Ġprocesso",
        -8.415607831589107
      ],
      [
        "ĠReferÃªncias",
        -8.417025608109965
      ],
      [
        "Ġmeio",
        -8.419831005933661
      ],
      [
        "ĠVi",
        -8.423523574638928
      ],
      [
        "Ġassim",
        -8.423650898880183
      ],
      [
        "Ġprojeto",
        -8.42635550757498
      ],
      [
        "Ġper",
        -8.429758425794716
      ],
      [
        "ĠLi",
        -8.43163208617579
      ],
      [
        "Ġ16",
        -8.43338185014744
      ],
      [
        "ĠPro",
        -8.43677236880841
      ],
      [
        "con",
        -8.43870074428604
      ],
      [
        "ĠserviÃ§o",
        -8.439705742713818
      ],
      [
        "ĠDA",
        -8.44148646073149
      ],
      [
        "lado",
        -8.44235213990402
      ],
      [
        "ata",
        -8.444562819822863
      ],
      [
        "PSDB",
        -8.444591807488106
      ],
      [
        "tado",
        -8.44772065093338
      ],
      [
        "ĠBa",
        -8.447904113517238
      ],
      [
        "TO",
        -8.449852567218134
      ],
      [
        "rÃ¡",
        -8.450765926887438
      ],
      [
        "Ġ17",
        -8.45194003322071
      ],
      [
        "Ġdesta",
        -8.452593051600466
      ],
      [
        "ĠSenado",
        -8.454630877789777
      ],
      [
        "ante",
        -8.455278129554864
      ],
      [
        "ĠCa",
        -8.458634831729967
      ],
      [
        "ura",
        -8.458666007268494
      ],
      [
        "rado",
        -8.458688927256974
      ],
      [
        "Ġ13",
        -8.463585789875715
      ],
      [
        "ber",
        -8.46565988728626
      ],
      [
        "ĠK",
        -8.466284367922581
      ],
      [
        "ito",
        -8.46888717370245
      ],
      [
        "Ġ20",
        -8.469136156991228
      ],
      [
        "Ġvida",
        -8.469858026044252
      ],
      [
        "com",
        -8.47148124571147
      ],
      [
        "Ġ14",
        -8.472465083104153
      ],
      [
        "11",
        -8.473152828866004
      ],
      [
        "Ġdireito",
        -8.474074657263879
      ],
      [
        "ĠLa",
        -8.476269743781225
      ],
      [
        "gen",
        -8.477737177287665
      ],
      [
        "lar",
        -8.489303568856457
      ],
      [
        "ĠDa",
        -8.48944350015218
      ],
      [
        "ĠDO",
        -8.49042655821603
      ],
      [
        "Ġprimeira",
        -8.491376267561126
      ],
      [
        "tivo",
        -8.494039074298326
      ],
      [
        "$",
        -8.49839148793388
      ],
      [
        "ismo",
        -8.500227644880304
      ],
      [
        "Ġdisse",
        -8.501234088887134
      ],
      [
        "ĠComo",
        -8.501872821873897
      ],
      [
        "Ġqualquer",
        -8.502153049094453
      ],
      [
        "ĠTribunal",
        -8.507550737664596
      ],
      [
        "ula",
        -8.51018360024777
      ],
      [
        "ĠSem",
        -8.513267066136322
      ],
      [
        "Ġdeste",
        -8.513592523118707
      ],
      [
        "ira",
        -8.514003222614827
      ],
      [
        "ĠâĢ¢",
        -8.515372604885757
      ],
      [
        "ĠJosÃ©",
        -8.522040691594794
      ],
      [
        "cha",
        -8.52484694402392
      ],
      [
        "Ġpalavra",
        -8.528534406689916
      ],
      [
        "ton",
        -8.529560872565085
      ],
      [
        "amento",
        -8.53065799725527
      ],
      [
        "Ã§o",
        -8.531335803202104
      ],
      [
        "ist",
        -8.534364734736402
      ],
      [
        "ĠPaÃŃs",
        -8.534839695797046
      ],
      [
        "Ġtodo",
        -8.536013021811051
      ],
      [
        "nal",
        -8.537084120031952
      ],
      [
        "Ġacordo",
        -8.538658796599936
      ],
      [
        "cer",
        -8.54131555098423
      ],
      [
        "ico",
        -8.541597669806558
      ],
      [
        "Ġver",
        -8.542655594116235
      ],
      [
        "Ġcada",
        -8.544112150389411
      ],
      [
        "Ġseguinte",
        -8.54463228390495
      ],
      [
        "ĠpÃºblica",
        -8.544632759745909
      ],
      [
        "Ġsistema",
        -8.545832058089756
      ],
      [
        "Ġdepois",
        -8.547478455522446
      ],
      [
        "ava",
        -8.550182339166838
      ],
      [
        "menta",
        -8.555892207034887
      ],
      [
        "eira",
        -8.55832608935838
      ],
      [
        "bra",
        -8.560593999033259
      ],
      [
        "ĠÃ¡rea",
        -8.565798618593984
      ],
      [
        "ĠMinistÃ©rio",
        -8.566277662715846
      ],
      [
        "fica",
        -8.566373198515555
      ],
      [
        "Ġmelhor",
        -8.567209830900167
      ],
      [
        "Ġdeve",
        -8.569831535047681
      ],
      [
        "Ġprazo",
        -8.570999070215477
      ],
      [
        "pro",
        -8.572924721493338
      ],
      [
        "ĠLe",
        -8.575796832672657
      ],
      [
        "men",
        -8.578959170372293
      ],
      [
        "che",
        -8.58310787349736
      ],
      [
        "ĠCarlos",
        -8.58332846966792
      ],
      [
        "th",
        -8.585546209729717
      ],
      [
        "Ġmil",
        -8.58577003900077
      ],
      [
        "09",
        -8.587236986766193
      ],
      [
        "ĠapÃ³s",
        -8.58774560218875
      ],
      [
        "ĠSim",
        -8.589958322052045
      ],
      [
        "Q",
        -8.590639096716943
      ],
      [
        "izaÃ§Ã£o",
        -8.59257325598021
      ],
      [
        "ĠRelator",
        -8.595432474383845
      ],
      [
        "ent",
        -8.59627902157483
      ],
      [
        "par",
        -8.596594778214277
      ],
      [
        "Ġagora",
        -8.597337185740198
      ],
      [
        "TA",
        -8.597444618940298
      ],
      [
        "AL",
        -8.598264251282245
      ],
      [
        "ora",
        -8.600548041504993
      ],
      [
        "Ġpresente",
        -8.601203262853053
      ],
      [
        "ĠTo",
        -8.602317520649505
      ],
      [
        "ĠpÃºblico",
        -8.605224925673776
      ],
      [
        "ĠpolÃŃtica",
        -8.606830988443225
      ],
      [
        "inha",
        -8.607644141124844
      ],
      [
        "nos",
        -8.608992322318011
      ],
      [
        "12",
        -8.611920291194968
      ],
      [
        "Ġimportante",
        -8.620648082089334
      ],
      [
        "ĠDi",
        -8.622488452950982
      ],
      [
        "Ġdis",
        -8.624549858404192
      ],
      [
        "Ġsob",
        -8.6266490546198
      ],
      [
        "ĠAr",
        -8.626671110460588
      ],
      [
        "15",
        -8.627343838762467
      ],
      [
        "TE",
        -8.630602147464307
      ],
      [
        "AS",
        -8.631123047205394
      ],
      [
        "dores",
        -8.631141038365174
      ],
      [
        "Bloco",
        -8.631763698734009
      ],
      [
        "ĠRepÃºblica",
        -8.631945018238184
      ],
      [
        "ĠPT",
        -8.634693684745503
      ],
      [
        "ĠJo",
        -8.635209688366507
      ],
      [
        "Ġsegundo",
        -8.636284060122032
      ],
      [
        "Ġmundo",
        -8.63885515366195
      ],
      [
        "ju",
        -8.640026362048191
      ],
      [
        "rei",
        -8.64076025279074
      ],
      [
        "Y",
        -8.642918925536069
      ],
      [
        "ĠCo",
        -8.64324099691932
      ],
      [
        "durante",
        -8.643617366541896
      ],
      [
        "Ġdizer",
        -8.64409025703195
      ],
      [
        "DI",
        -8.644393235890117
      ],
      [
        "ĠFa",
        -8.644599204876108
      ],
      [
        "OS",
        -8.649132934724454
      ],
      [
        "DE",
        -8.656039486833883
      ],
      [
        "ato",
        -8.658896620562619
      ],
      [
        "ste",
        -8.658899623807969
      ],
      [
        "Ġnossa",
        -8.66063072959544
      ],
      [
        "Ã¢",
        -8.663584694205934
      ],
      [
        "Ġpa",
        -8.663767743272581
      ],
      [
        "lin",
        -8.66391425941155
      ],
      [
        "ĠVer",
        -8.663933493901661
      ],
      [
        "ĠmatÃ©ria",
        -8.665949194995449
      ],
      [
        "Ãģ",
        -8.666129562719746
      ],
      [
        "Ġestava",
        -8.668428762767652
      ],
      [
        "Ġvoto",
        -8.671251010883188
      ],
      [
        "ĠJustiÃ§a",
        -8.671355304184752
      ],
      [
        "tica",
        -8.680831749758159
      ],
      [
        "for",
        -8.682510802939237
      ],
      [
        "20",
        -8.685567597604095
      ],
      [
        "Ġsido",
        -8.686417860854544
      ],
      [
        "Ġsub",
        -8.686467365851843
      ],
      [
        "ĠH",
        -8.688308506237334
      ],
      [
        "tes",
        -8.68971817077922
      ],
      [
        "gar",
        -8.691923091900257
      ],
      [
        "art",
        -8.693421236781768
      ],
      [
        "dezembro",
        -8.693432795807103
      ],
      [
        "Ġrecursos",
        -8.695969138721436
      ],
      [
        "Ġcasa",
        -8.697544111181367
      ],
      [
        "2009",
        -8.699029927727283
      ],
      [
        "ĠBo",
        -8.707379555073585
      ],
      [
        "Ġoutro",
        -8.709218539739306
      ],
      [
        "Ġpartir",
        -8.71335665798161
      ],
      [
        "ĠHa",
        -8.713512151088029
      ],
      [
        "pen",
        -8.71355103748674
      ],
      [
        "ĠtrÃªs",
        -8.715538677630512
      ],
      [
        "gue",
        -8.717622570699842
      ],
      [
        "ĠEstados",
        -8.718307617111146
      ],
      [
        "ĠFo",
        -8.719102777265677
      ],
      [
        "ĠFe",
        -8.721521200681744
      ],
      [
        "ati",
        -8.723157974619367
      ],
      [
        "Ġ24",
        -8.723722191621459
      ],
      [
        "orador",
        -8.724229198230175
      ],
      [
        "=",
        -8.726304844881827
      ],
      [
        "Ġinter",
        -8.726739179894631
      ],
      [
        "ĠPa",
        -8.72904025471407
      ],
      [
        "ĠentÃ£o",
        -8.729352123636218
      ],
      [
        "mor",
        -8.730258304677477
      ],
      [
        "ntes",
        -8.73400987574144
      ],
      [
        "PT",
        -8.734080164538032
      ],
      [
        "Ġfinal",
        -8.735658922577306
      ],
      [
        "ĠTe",
        -8.73894427317852
      ],
      [
        "decisÃ£o",
        -8.739048921531365
      ],
      [
        "ĠnÃºmero",
        -8.741527239919545
      ],
      [
        "ĠFi",
        -8.743150224067582
      ],
      [
        "Ġvalor",
        -8.744270492230594
      ],
      [
        "Ã£",
        -8.746506482923142
      ],
      [
        "Ġmomento",
        -8.747512721660998
      ],
      [
        "Ġfato",
        -8.747839460464581
      ],
      [
        "@",
        -8.748623940517977
      ],
      [
        "tas",
        -8.74927250558188
      ],
      [
        "Ì",
        -8.749841967288644
      ],
      [
        "Ġ30",
        -8.750425882845551
      ],
      [
        "Ã¡rio",
        -8.752926251253239
      ],
      [
        "ĠJoÃ£o",
        -8.755542050535562
      ],
      [
        "revisÃ£o",
        -8.756343240742794
      ],
      [
        "iga",
        -8.756827577012523
      ],
      [
        "inho",
        -8.758210055624533
      ],
      [
        "Ġato",
        -8.758404703020192
      ],
      [
        "Ġgoverno",
        -8.758506344056208
      ],
      [
        "Ġgrupo",
        -8.758695747429892
      ],
      [
        "Ġtudo",
        -8.758914498318877
      ],
      [
        "Ġdesde",
        -8.762865086476555
      ],
      [
        "rio",
        -8.763459092656902
      ],
      [
        "Ġpoder",
        -8.767368588153284
      ],
      [
        "ĠPre",
        -8.767633989087805
      ],
      [
        "ĠfamÃŃlia",
        -8.76892206223948
      ],
      [
        "Ġ22",
        -8.769493019087568
      ],
      [
        "K",
        -8.774456625236242
      ],
      [
        "tico",
        -8.77592579473458
      ],
      [
        "Ġnovo",
        -8.777718935703282
      ],
      [
        "ĠPMDB",
        -8.779128138557319
      ],
      [
        "Ġdias",
        -8.78108639973717
      ],
      [
        "les",
        -8.783132158925575
      ],
      [
        "can",
        -8.78382283093098
      ],
      [
        "lhe",
        -8.78478926987205
      ],
      [
        "ĠpaÃŃs",
        -8.78700170091263
      ],
      [
        "ĠIsso",
        -8.787901509426352
      ],
      [
        "ĠUniÃ£o",
        -8.79142361900816
      ],
      [
        "ĠUm",
        -8.79312161015949
      ],
      [
        "ĠlÃ¡",
        -8.794415305806675
      ],
      [
        "port",
        -8.794963955574856
      ],
      [
        "ĠJa",
        -8.79542330648691
      ],
      [
        "ais",
        -8.797501849736081
      ],
      [
        "cional",
        -8.798352372365827
      ],
      [
        "ĠJu",
        -8.79932014548034
      ],
      [
        "Ġproposta",
        -8.799615686912269
      ],
      [
        "EL",
        -8.800481971076039
      ],
      [
        "ĠdÃ¡",
        -8.801091411712495
      ],
      [
        "ĠBe",
        -8.801116334047004
      ],
      [
        "uni",
        -8.802234872414125
      ],
      [
        "ĠpopulaÃ§Ã£o",
        -8.802913440671315
      ],
      [
        "05",
        -8.807302512350919
      ],
      [
        "ĠGo",
        -8.80753334684183
      ],
      [
        "Ġeles",
        -8.808982782377738
      ],
      [
        "Ġsempre",
        -8.80936657187857
      ],
      [
        "ÃĩÃĥO",
        -8.809604008170668
      ],
      [
        "Ġconta",
        -8.812218022837666
      ],
      [
        "Ġpra",
        -8.813681154437935
      ],
      [
        "DA",
        -8.81411523791404
      ],
      [
        "lho",
        -8.81528644211434
      ],
      [
        "18",
        -8.815485926265529
      ],
      [
        "Ġinciso",
        -8.817195361012521
      ],
      [
        "Ġbrasileiro",
        -8.81944943015302
      ],
      [
        "tua",
        -8.819642512403046
      ],
      [
        "ĠMi",
        -8.822854438402006
      ],
      [
        "ori",
        -8.824801410767554
      ],
      [
        "ry",
        -8.825429046847344
      ],
      [
        "cal",
        -8.82781771622602
      ],
      [
        "Ġduas",
        -8.828559244037283
      ],
      [
        "03",
        -8.828807078959915
      ],
      [
        "ĠrelaÃ§Ã£o",
        -8.829161270266608
      ],
      [
        "Ġ:(",
        -8.832455657129486
      ],
      [
        "07",
        -8.834035273982154
      ],
      [
        "Ġfaz",
        -8.834189328071618
      ],
      [
        "ĠPR",
        -8.834332130534559
      ],
      [
        "ĠEsta",
        -8.835280820744792
      ],
      [
        "ador",
        -8.836131300585631
      ],
      [
        "Ġmenos",
        -8.837849357096271
      ],
      [
        "ĠmilhÃµes",
        -8.839946461568653
      ],
      [
        "ĠâĢĶ",
        -8.840106996352459
      ],
      [
        "Ġpouco",
        -8.840124728362754
      ],
      [
        "ÃĥO",
        -8.841821274702683
      ],
      [
        "Ġtinha",
        -8.842222099936818
      ],
      [
        "ĠEntÃ£o",
        -8.843090173767278
      ],
      [
        "Ġ21",
        -8.843467829167082
      ],
      [
        "Congresso",
        -8.84573454965375
      ],
      [
        "ant",
        -8.846066082759537
      ],
      [
        "nesta",
        -8.846527457251552
      ],
      [
        "tur",
        -8.849122027897375
      ],
      [
        "W",
        -8.850478382678757
      ],
      [
        "ĠFoi",
        -8.852896330357185
      ],
      [
        "âĢĵ",
        -8.854605405377379
      ],
      [
        "por",
        -8.855271417880523
      ],
      [
        "ĠvotaÃ§Ã£o",
        -8.857118131584238
      ],
      [
        "ler",
        -8.857392921173105
      ],
      [
        "ĠHo",
        -8.8600171187724
      ],
      [
        "Ã¡vel",
        -8.863729794088693
      ],
      [
        "Ġfo",
        -8.864865418381367
      ],
      [
        "aprovaÃ§Ã£o",
        -8.865210949064021
      ],
      [
        "Ġquanto",
        -8.865479681297526
      ],
      [
        "Ġbrasileira",
        -8.86552622626706
      ],
      [
        "ĠSul",
        -8.86687412097527
      ],
      [
        "ĠPela",
        -8.867675796798043
      ],
      [
        "ĠCar",
        -8.870342380648871
      ],
      [
        "17",
        -8.870725826227146
      ],
      [
        "ĠLu",
        -8.871714465950417
      ],
      [
        "06",
        -8.873518341358656
      ],
      [
        "neste",
        -8.873826565145338
      ],
      [
        "Ġ23",
        -8.873943125316645
      ],
      [
        "Ġfim",
        -8.876770607267707
      ],
      [
        "RE",
        -8.877075445708458
      ],
      [
        "ĠQue",
        -8.87790636475444
      ],
      [
        "las",
        -8.87874948451178
      ],
      [
        "08",
        -8.883882773840224
      ],
      [
        "ki",
        -8.884043604435874
      ],
      [
        "ix",
        -8.884114190220242
      ],
      [
        "Ġprograma",
        -8.88430386264142
      ],
      [
        "ĠperÃŃodo",
        -8.88487376250517
      ],
      [
        "Ġ25",
        -8.885208283344628
      ],
      [
        "los",
        -8.886523779771565
      ],
      [
        "tura",
        -8.886654986484888
      ],
      [
        "Ġpelos",
        -8.887614998635915
      ],
      [
        "02",
        -8.887720587897837
      ],
      [
        "Ġbom",
        -8.892403131748159
      ],
      [
        "uro",
        -8.893067738694013
      ],
      [
        "iro",
        -8.89430025095228
      ],
      [
        "tÃ¡",
        -8.897872336055178
      ],
      [
        "16",
        -8.897947630721292
      ],
      [
        "ĠPoder",
        -8.900562758640792
      ],
      [
        "ĠÃºnico",
        -8.90189046102045
      ],
      [
        "ĠhistÃ³ria",
        -8.902889135173448
      ],
      [
        "13",
        -8.90326871812633
      ],
      [
        "ĠEx",
        -8.905345591111365
      ],
      [
        "ĠinformaÃ§Ãµes",
        -8.909012293243899
      ],
      [
        "Ġbase",
        -8.912114935560735
      ],
      [
        "bar",
        -8.912150078652958
      ],
      [
        "Ġfavor",
        -8.913687185396023
      ],
      [
        "ĠsaÃºde",
        -8.91372220634163
      ],
      [
        "ang",
        -8.913907677917035
      ],
      [
        "Ã¡ria",
        -8.914669141092174
      ],
      [
        "Ġtodas",
        -8.915092009077613
      ],
      [
        "NI",
        -8.915526870414054
      ],
      [
        "IS",
        -8.916765631987326
      ],
      [
        "Ġtra",
        -8.917282610223788
      ],
      [
        "vel",
        -8.91729382890633
      ],
      [
        "Ġvezes",
        -8.91747061495872
      ],
      [
        "Ġfor",
        -8.918584599335635
      ],
      [
        "cas",
        -8.919375125502555
      ],
      [
        "Ġsocial",
        -8.923392771581206
      ],
      [
        "ense",
        -8.92493789829546
      ],
      [
        "ĠregiÃ£o",
        -8.925723738788305
      ],
      [
        "04",
        -8.929156824195832
      ],
      [
        "Ġexemplo",
        -8.931593298436733
      ],
      [
        "tada",
        -8.931653770810449
      ],
      [
        "Ġfez",
        -8.934507169017142
      ],
      [
        "ĠDr",
        -8.935871259708374
      ],
      [
        "tou",
        -8.93781419950135
      ],
      [
        "Ġmaio",
        -8.93928630077809
      ],
      [
        "alÃ©m",
        -8.941076000614732
      ],
      [
        "tre",
        -8.941716336246097
      ],
      [
        "Ġnacional",
        -8.942066130740965
      ],
      [
        "ex",
        -8.942961235006615
      ],
      [
        "Ġempresa",
        -8.94370143389925
      ],
      [
        "ĠGu",
        -8.943870995455766
      ],
      [
        "Ġexternas",
        -8.944822221012767
      ],
      [
        "âĢĿ,",
        -8.945452578788876
      ],
      [
        "ĠLuiz",
        -8.945832611994703
      ],
      [
        "ĠtÃªm",
        -8.946291258245239
      ],
      [
        "ento",
        -8.947270011841946
      ],
      [
        "ĠquestÃ£o",
        -8.94795153396918
      ],
      [
        "Ġdiz",
        -8.948188953034071
      ],
      [
        "Ã",
        -8.949760466233652
      ],
      [
        "Ġpe",
        -8.949799215852973
      ],
      [
        "ĠGa",
        -8.94990991629169
      ],
      [
        "Ġseria",
        -8.95018276512404
      ],
      [
        "Ġtrata",
        -8.951948153314328
      ],
      [
        "LigaÃ§Ãµes",
        -8.95329238628916
      ],
      [
        "Ġlugar",
        -8.954524607454662
      ],
      [
        "Ġtendo",
        -8.957024438665115
      ],
      [
        "Ġpois",
        -8.959979649229737
      ],
      [
        "Ġrecurso",
        -8.961946801959282
      ],
      [
        "ĠtÃ£o",
        -8.962083544364715
      ],
      [
        "via",
        -8.964092061026259
      ],
      [
        "Ġtoda",
        -8.964827031389996
      ],
      [
        "Ġcausa",
        -8.965089282968512
      ],
      [
        "julho",
        -8.965696409083742
      ],
      [
        "Ġquero",
        -8.96677663488185
      ],
      [
        "fl",
        -8.966922530275996
      ],
      [
        "essa",
        -8.969744344189934
      ],
      [
        "Ġestado",
        -8.97005155860992
      ],
      [
        "Ġ2007",
        -8.970391208171323
      ],
      [
        "amente",
        -8.970396716744835
      ],
      [
        "ĠExÂª",
        -8.970852631347507
      ],
      [
        "Ġpovo",
        -8.971345955687914
      ],
      [
        "ESSÃĥO",
        -8.981208217945685
      ],
      [
        "sentido",
        -8.981257045350699
      ],
      [
        "Ġdata",
        -8.98252030438508
      ],
      [
        "Ġalguns",
        -8.985943556195414
      ],
      [
        "setembro",
        -8.987748037494226
      ],
      [
        "Ġnova",
        -8.991224953742458
      ],
      [
        "Ġcor",
        -8.991250072271281
      ],
      [
        "Art",
        -8.991478152161594
      ],
      [
        "Ġ28",
        -8.992907639878158
      ],
      [
        "ĠRE",
        -8.999337120072202
      ],
      [
        "Ġfu",
        -9.002181719606373
      ],
      [
        "Ġ27",
        -9.002592079493857
      ],
      [
        "temos",
        -9.00371416499463
      ],
      [
        "Ġvou",
        -9.004224387618644
      ],
      [
        "Ġnem",
        -9.005174239625056
      ],
      [
        "Ġres",
        -9.007135433482576
      ],
      [
        "CI",
        -9.009442801513794
      ],
      [
        "val",
        -9.010681774710184
      ],
      [
        "Ġcoisa",
        -9.013898253084529
      ],
      [
        "rar",
        -9.014270353908508
      ],
      [
        "Â°",
        -9.014475191762529
      ],
      [
        "dispÃµe",
        -9.016681543773943
      ],
      [
        "NA",
        -9.017169430202124
      ],
      [
        "bal",
        -9.018138448873495
      ],
      [
        "Ġvolta",
        -9.018143152011945
      ],
      [
        "Ġcar",
        -9.019335598731274
      ],
      [
        "Ġdisso",
        -9.019844679868054
      ],
      [
        "Ġnada",
        -9.019961673251087
      ],
      [
        "Ġsociedade",
        -9.021999055854698
      ],
      [
        "sÃ£o",
        -9.022047767805551
      ],
      [
        "ĠHe",
        -9.024440116476656
      ],
      [
        "30",
        -9.026110757743192
      ],
      [
        "Ġpodem",
        -9.026126516676152
      ],
      [
        "IN",
        -9.026148257557574
      ],
      [
        "Ġtipo",
        -9.026695105843272
      ],
      [
        "vam",
        -9.026992333616931
      ],
      [
        "ĠCr",
        -9.027575535585934
      ],
      [
        "Ġmesma",
        -9.02863193198666
      ],
      [
        "nado",
        -9.029983248241534
      ],
      [
        "Muito",
        -9.030114722838878
      ],
      [
        "junho",
        -9.030528939331424
      ],
      [
        "RO",
        -9.034415423114254
      ],
      [
        "ĠMu",
        -9.035059767680297
      ],
      [
        "rada",
        -9.035476661836656
      ],
      [
        "ite",
        -9.0376181863615
      ],
      [
        "UTC",
        -9.03818933938892
      ],
      [
        "Ġtenho",
        -9.038212404358802
      ],
      [
        "para",
        -9.039111479526968
      ],
      [
        "ĠEla",
        -9.039232959291976
      ],
      [
        "vol",
        -9.039419757676814
      ],
      [
        "Ġteve",
        -9.039634621474804
      ],
      [
        "ĠGrande",
        -9.04177075791692
      ],
      [
        "ras",
        -9.043810383366694
      ],
      [
        "ĠVamos",
        -9.044493762446558
      ],
      [
        "dade",
        -9.046036296111511
      ],
      [
        "ĠÃºltimo",
        -9.046554159048254
      ],
      [
        "nia",
        -9.047968130987236
      ],
      [
        "Ġsabe",
        -9.048973024866326
      ],
      [
        "ĠSu",
        -9.049162226764384
      ],
      [
        "ĠTi",
        -9.04935465864987
      ],
      [
        "Ġestou",
        -9.04988795971682
      ],
      [
        "Ġ2008",
        -9.050783397417478
      ],
      [
        "ĠSanta",
        -9.051127821908018
      ],
      [
        "Ġmedida",
        -9.052041082362694
      ],
      [
        "Decreto",
        -9.05262005682662
      ],
      [
        "len",
        -9.052974834508372
      ],
      [
        "14",
        -9.053915606448337
      ],
      [
        "Ġ2009",
        -9.055085215500462
      ],
      [
        "Exa",
        -9.055214154571551
      ],
      [
        "2015",
        -9.05628583113341
      ],
      [
        "Ġ2006",
        -9.058854857019387
      ],
      [
        "zar",
        -9.060552507375034
      ],
      [
        "Ġdesenvolvimento",
        -9.06096867983432
      ],
      [
        "pol",
        -9.06102372700579
      ],
      [
        "bilidade",
        -9.063283665009717
      ],
      [
        "ĠSt",
        -9.064940273037784
      ],
      [
        "Ġ26",
        -9.06836378804917
      ],
      [
        "Ġestar",
        -9.0686818086421
      ],
      [
        "Ġquais",
        -9.070370825117472
      ],
      [
        "missÃ£o",
        -9.070963066649302
      ],
      [
        "Ġfr",
        -9.0713590681767
      ],
      [
        "Ġoutra",
        -9.075853740348288
      ],
      [
        "entes",
        -9.07823093978354
      ],
      [
        "ÃŃn",
        -9.078449406784234
      ],
      [
        "PMDB",
        -9.078610907538934
      ],
      [
        "Ġconstitucional",
        -9.084316685198983
      ],
      [
        "000",
        -9.0873926646875
      ],
      [
        "ĠPi",
        -9.08791331115116
      ],
      [
        "ser",
        -9.088119660899425
      ],
      [
        "Ġnum",
        -9.088374547692926
      ],
      [
        "gua",
        -9.089299864932777
      ],
      [
        "50",
        -9.090426843594337
      ],
      [
        "Ġsei",
        -9.091790100850922
      ],
      [
        "Ġsim",
        -9.095545652295565
      ],
      [
        "Ġbi",
        -9.09768735830705
      ],
      [
        "Ġpessoa",
        -9.099503196301866
      ],
      [
        "ini",
        -9.10158003789528
      ],
      [
        "aÃŃ",
        -9.102506121394262
      ],
      [
        "ĠmarÃ§o",
        -9.103581589215231
      ],
      [
        "Ġvo",
        -9.104975321363565
      ],
      [
        "ĠJaneiro",
        -9.107501922639084
      ],
      [
        "lia",
        -9.10797745865238
      ],
      [
        "ĠEste",
        -9.108106788226753
      ],
      [
        "ĠBi",
        -9.108568871428828
      ],
      [
        "Ġagosto",
        -9.109519543750087
      ],
      [
        "iti",
        -9.109614681487075
      ],
      [
        "Ġoutubro",
        -9.109789400065646
      ],
      [
        "Ġtexto",
        -9.115027458288797
      ],
      [
        "Ġvamos",
        -9.11519314302124
      ],
      [
        "uma",
        -9.117237207484695
      ],
      [
        "cial",
        -9.119948205949864
      ],
      [
        "Ġ2011",
        -9.122151910011503
      ],
      [
        "ĠMan",
        -9.12305016066589
      ],
      [
        "Ġci",
        -9.123621141454477
      ],
      [
        "ral",
        -9.127466158865312
      ],
      [
        "ĠIII",
        -9.128307340666352
      ],
      [
        "ĠprÃ³prio",
        -9.13063611573454
      ],
      [
        "taÃ§Ã£o",
        -9.13185344916188
      ],
      [
        "ĠmunicÃŃpio",
        -9.13206153922946
      ],
      [
        "ger",
        -9.133343125638984
      ],
      [
        "Ġhavia",
        -9.134367721549
      ],
      [
        "iva",
        -9.136913070476323
      ],
      [
        "Ġ2010",
        -9.138171975136771
      ],
      [
        "Ġdessa",
        -9.138328434470903
      ],
      [
        "chi",
        -9.13996519902866
      ],
      [
        "ĠEduardo",
        -9.14006225520625
      ],
      [
        "istas",
        -9.141901393173429
      ],
      [
        "Ġabril",
        -9.143054443690744
      ],
      [
        "log",
        -9.143750415818118
      ],
      [
        "ago",
        -9.144444228417324
      ],
      [
        "ĠTem",
        -9.14461554026916
      ],
      [
        "ĠtÃ©cnica",
        -9.145183547721675
      ],
      [
        "cho",
        -9.145951679839282
      ],
      [
        "Ġsemana",
        -9.15050633887691
      ],
      [
        "Ġprincipal",
        -9.150931695265433
      ],
      [
        "ĠNO",
        -9.151731254291043
      ],
      [
        "Ġdesse",
        -9.15199562981128
      ],
      [
        "Ġjaneiro",
        -9.15219684920618
      ],
      [
        "ĠPer",
        -9.152877977588902
      ],
      [
        "rim",
        -9.153412234772745
      ],
      [
        "habitantes",
        -9.154398243153857
      ],
      [
        "Ġfi",
        -9.15565790693423
      ],
      [
        "Ġempresas",
        -9.155859150005943
      ],
      [
        "ind",
        -9.156283218519176
      ],
      [
        "2013",
        -9.15680242061798
      ],
      [
        "://",
        -9.157963272827894
      ],
      [
        "Ġnovembro",
        -9.163657927930744
      ],
      [
        "Ġpresidente",
        -9.1652099218648
      ],
      [
        "Ġ2005",
        -9.166181751604904
      ],
      [
        "CO",
        -9.166611869415693
      ],
      [
        "ĠPARECER",
        -9.166794331571491
      ],
      [
        "ele",
        -9.167974562657156
      ],
      [
        "ĠtÃŃtulo",
        -9.168206965909214
      ],
      [
        "ĠNe",
        -9.168276848837293
      ],
      [
        "cos",
        -9.169090715129892
      ],
      [
        "ĠcondiÃ§Ãµes",
        -9.17166040770419
      ],
      [
        "tem",
        -9.172171852059527
      ],
      [
        "ĠproduÃ§Ã£o",
        -9.17222371466862
      ],
      [
        "MunicÃŃpio",
        -9.177790995895185
      ],
      [
        "ĠsituaÃ§Ã£o",
        -9.177824856145246
      ],
      [
        "var",
        -9.181324205365414
      ],
      [
        "ĠseguranÃ§a",
        -9.182575487975516
      ],
      [
        "agem",
        -9.183155875257157
      ],
      [
        "PE",
        -9.183176994335122
      ],
      [
        "Ġprecisa",
        -9.18325728794143
      ],
      [
        "NÃ³s",
        -9.183745361308048
      ],
      [
        "Ġpai",
        -9.184553879722364
      ],
      [
        "ĠMin",
        -9.186328866273886
      ],
      [
        "CE",
        -9.186467149786347
      ],
      [
        "tan",
        -9.18726789188436
      ],
      [
        "ĠMA",
        -9.187532506079313
      ],
      [
        "ris",
        -9.18789645298728
      ],
      [
        "ĠÃ¡gua",
        -9.18795184780515
      ],
      [
        "ĠEstÃ¡",
        -9.19182658872972
      ],
      [
        "ĠSala",
        -9.192322339441246
      ],
      [
        "Ġtenha",
        -9.19317115213727
      ],
      [
        "net",
        -9.193665070097213
      ],
      [
        "bol",
        -9.195378852981198
      ],
      [
        "ano",
        -9.197228320428056
      ],
      [
        "Ġfalar",
        -9.198702239435512
      ],
      [
        "ĠPr",
        -9.19952519793645
      ],
      [
        "Ġpar",
        -9.200173689053956
      ],
      [
        "Ġvista",
        -9.20097302551303
      ],
      [
        "estamos",
        -9.201474362592606
      ],
      [
        "Ãī",
        -9.203764521438792
      ],
      [
        "tÃ³rio",
        -9.204370468383122
      ],
      [
        "Ġtanto",
        -9.204831035198378
      ],
      [
        "Ġ29",
        -9.205358527222335
      ],
      [
        "2011",
        -9.205628827148209
      ],
      [
        "ĠEssa",
        -9.20682548332104
      ],
      [
        "SP",
        -9.20736215056037
      ],
      [
        "vin",
        -9.207387759604686
      ],
      [
        "PSB",
        -9.208335153625674
      ],
      [
        "tion",
        -9.20993513174924
      ],
      [
        "ĠCh",
        -9.211644315196017
      ],
      [
        "Ġpena",
        -9.211736115895064
      ],
      [
        "Ġfeito",
        -9.214736090437022
      ],
      [
        "ĠEmenda",
        -9.215051562341891
      ],
      [
        "ell",
        -9.215976234976438
      ],
      [
        "Ġmar",
        -9.21787885427583
      ],
      [
        "Ġtrans",
        -9.218039478660554
      ],
      [
        "Regimento",
        -9.218112553022149
      ],
      [
        "Ġalgo",
        -9.21862854752538
      ],
      [
        "Ġtotal",
        -9.22105835092116
      ],
      [
        "ĠEsse",
        -9.222326539227485
      ],
      [
        "Ġquatro",
        -9.222649315805084
      ],
      [
        "ĠSi",
        -9.22331748653922
      ],
      [
        "ĠeducaÃ§Ã£o",
        -9.224017268479509
      ],
      [
        "40",
        -9.227805607880788
      ],
      [
        "ĠCi",
        -9.228085939752932
      ],
      [
        "Ġverdade",
        -9.230369243479162
      ],
      [
        "ĠinÃŃcio",
        -9.230386412684991
      ],
      [
        "Ġenquanto",
        -9.232103694897951
      ],
      [
        "Ġponto",
        -9.235492100138991
      ],
      [
        "providÃªncias",
        -9.235844078141623
      ],
      [
        "ĠUma",
        -9.23768287756407
      ],
      [
        "ĠCl",
        -9.239903171676604
      ],
      [
        "ĠCor",
        -9.240505728971591
      ],
      [
        "Ġobjetivo",
        -9.24197589457543
      ],
      [
        "Ġrespeito",
        -9.24276519225332
      ],
      [
        "mas",
        -9.244013159711784
      ],
      [
        "Ġfevereiro",
        -9.244209764718777
      ],
      [
        "sessÃ£o",
        -9.24483029326282
      ],
      [
        "feira",
        -9.24824604383496
      ],
      [
        "Ġlocal",
        -9.249593072812658
      ],
      [
        "Ġdentro",
        -9.250774409577671
      ],
      [
        "Supremo",
        -9.251447234177894
      ],
      [
        "Ð",
        -9.254317858217556
      ],
      [
        "ĠMaria",
        -9.254335129120838
      ],
      [
        "Deputada",
        -9.256054698705862
      ],
      [
        "nas",
        -9.25739617954485
      ],
      [
        "Ġmim",
        -9.257735566537018
      ],
      [
        "Ġcargo",
        -9.258715798054403
      ],
      [
        "Ġ31",
        -9.25872123789818
      ],
      [
        "Ġdemais",
        -9.260125004734958
      ],
      [
        "tÃ£o",
        -9.260462433792402
      ],
      [
        "iano",
        -9.260672032965356
      ],
      [
        "ĠsÃ©rie",
        -9.261653367593471
      ],
      [
        "Ġhoras",
        -9.262807008361586
      ],
      [
        "Ġapoio",
        -9.2651496726995
      ],
      [
        "Ġboa",
        -9.26579739664732
      ],
      [
        "ĠInterno",
        -9.265998426537584
      ],
      [
        "til",
        -9.2679953202235
      ],
      [
        "gio",
        -9.268267209478443
      ],
      [
        "ĠPresidÃªncia",
        -9.269316361503858
      ],
      [
        "AÃĩÃĥO",
        -9.2704930940299
      ],
      [
        "ice",
        -9.272218856354264
      ],
      [
        "cada",
        -9.272485974897014
      ],
      [
        "ĠÃĢ",
        -9.27264368504378
      ],
      [
        "wa",
        -9.274328341161793
      ],
      [
        "OR",
        -9.27897004848628
      ],
      [
        "Ġ(\"",
        -9.27955065799621
      ],
      [
        "Ġpesquisa",
        -9.279712150530475
      ],
      [
        "Ġ2013",
        -9.280352170967875
      ],
      [
        "ĠPÃºblico",
        -9.281276003873712
      ],
      [
        "Ġpri",
        -9.282118625238848
      ],
      [
        "posiÃ§Ã£o",
        -9.282236443233623
      ],
      [
        "criaÃ§Ã£o",
        -9.282286061497
      ],
      [
        "ĠpossÃŃvel",
        -9.283160791584528
      ],
      [
        "Ġfilme",
        -9.28402332627412
      ],
      [
        "ĠBrasÃŃlia",
        -9.28589081949015
      ],
      [
        "Ġvota",
        -9.287208424395416
      ],
      [
        "â",
        -9.288032848830795
      ],
      [
        "PDT",
        -9.288944982669994
      ],
      [
        "ĠUnidos",
        -9.290376020939233
      ],
      [
        "nada",
        -9.290461439168643
      ],
      [
        "IO",
        -9.290568865196873
      ],
      [
        "Ġparecer",
        -9.291432729130884
      ],
      [
        "Ġluta",
        -9.291697813786165
      ],
      [
        "Ġfalta",
        -9.292060657939173
      ],
      [
        "Ġconforme",
        -9.292819467516518
      ],
      [
        "ĠTurma",
        -9.294739389686915
      ],
      [
        "Ġproblema",
        -9.295541005484296
      ],
      [
        "elo",
        -9.295574463061737
      ],
      [
        "25",
        -9.295889525319442
      ],
      [
        "98",
        -9.296896531392624
      ],
      [
        "Ġnunca",
        -9.296921233029986
      ],
      [
        "Ġespecial",
        -9.29775729709791
      ],
      [
        "ĠConselho",
        -9.29843977826253
      ],
      [
        "ĠQuando",
        -9.299343247725336
      ],
      [
        "NT",
        -9.299690762515963
      ],
      [
        "Ġjogo",
        -9.3001536233746
      ],
      [
        "ĠVI",
        -9.300231336012589
      ],
      [
        "ĠpaÃŃses",
        -9.30088036672366
      ],
      [
        "Ġ2012",
        -9.301367831260135
      ],
      [
        "GO",
        -9.301925458167307
      ],
      [
        "Ġsou",
        -9.306278362987252
      ],
      [
        "Ġ2004",
        -9.30689725900336
      ],
      [
        "let",
        -9.307055924747123
      ],
      [
        "nica",
        -9.30756979750815
      ],
      [
        "serviÃ§os",
        -9.308274420366374
      ],
      [
        "Ġcerca",
        -9.308281206639036
      ],
      [
        "Ġnorma",
        -9.308672197396929
      ],
      [
        "ĠUniversidade",
        -9.30899731226288
      ],
      [
        "LA",
        -9.309425364166747
      ],
      [
        "bel",
        -9.31370218913782
      ],
      [
        "ĠmÃºsica",
        -9.314131649478789
      ],
      [
        "ĠKa",
        -9.315321633833411
      ],
      [
        "rica",
        -9.316428172443432
      ],
      [
        "ĠsÃ©culo",
        -9.316887369281217
      ],
      [
        "Ġobrigado",
        -9.31699554362549
      ],
      [
        "Ġinc",
        -9.317681553071395
      ],
      [
        "Ġficar",
        -9.317752646326346
      ],
      [
        "Ġali",
        -9.318596622322994
      ],
      [
        "defesa",
        -9.31862043756455
      ],
      [
        "tanto",
        -9.321756551258074
      ],
      [
        "ĠSilva",
        -9.322288143053052
      ],
      [
        "Ġequipe",
        -9.323895640461092
      ],
      [
        "q",
        -9.324027059354336
      ],
      [
        "ly",
        -9.324206424901895
      ],
      [
        "ĠEducaÃ§Ã£o",
        -9.324687333748836
      ],
      [
        "Ġatual",
        -9.325071022483405
      ],
      [
        "Ġmembro",
        -9.325970824305028
      ],
      [
        "devido",
        -9.326929044960773
      ],
      [
        "ban",
        -9.32797135717946
      ],
      [
        "ĠPedro",
        -9.328156709636048
      ],
      [
        "CÃ³digo",
        -9.328266294216736
      ],
      [
        "eram",
        -9.32832763656464
      ],
      [
        "ĠSocial",
        -9.3292784637097
      ],
      [
        "gula",
        -9.329810642083768
      ],
      [
        "registro",
        -9.330906225437491
      ],
      [
        "Ġgra",
        -9.331246978196685
      ],
      [
        "Ġcinco",
        -9.33172176107824
      ],
      [
        "ĠatravÃ©s",
        -9.332052079092064
      ],
      [
        "Ġregimental",
        -9.332817387201246
      ],
      [
        "nho",
        -9.335441240191296
      ],
      [
        "Ġfora",
        -9.336634567472892
      ],
      [
        "Ġsegunda",
        -9.338245842751002
      ],
      [
        "âĢĻ",
        -9.338360768965629
      ],
      [
        "Ġkm",
        -9.339010174625452
      ],
      [
        "ologia",
        -9.33936871562837
      ],
      [
        "ĠOliveira",
        -9.341075234912436
      ],
      [
        "PlenÃ¡rio",
        -9.34143884823026
      ],
      [
        "Ġpedido",
        -9.341671133140904
      ],
      [
        "van",
        -9.343406863159307
      ],
      [
        "Ġmal",
        -9.347258406110356
      ],
      [
        "Ġrealizada",
        -9.34928689869744
      ],
      [
        "SE",
        -9.35146740861459
      ],
      [
        "ĠTotal",
        -9.351541701129095
      ],
      [
        "Ġmorte",
        -9.353673729138311
      ],
      [
        "Ġdireitos",
        -9.35421321842557
      ],
      [
        "ĠPar",
        -9.354556316714351
      ],
      [
        "Ãį",
        -9.354948147985786
      ],
      [
        "Ġcorre",
        -9.355173782742222
      ],
      [
        "Ġrepresenta",
        -9.356631556851084
      ],
      [
        "Ġvem",
        -9.3568064086462
      ],
      [
        "ĠJÃ¡",
        -9.35861099906584
      ],
      [
        "97",
        -9.359062639207318
      ],
      [
        "Ġdeixa",
        -9.361248604480185
      ],
      [
        "Ġfazendo",
        -9.36136837485536
      ],
      [
        "ĠprÃ³pria",
        -9.365008555015017
      ],
      [
        "ĠDes",
        -9.365868971233578
      ],
      [
        "Ġobjeto",
        -9.366185046313744
      ],
      [
        "ĠforÃ§a",
        -9.3664782288443
      ],
      [
        "ĠSra",
        -9.366748214129691
      ],
      [
        "Ġpassa",
        -9.36730689019469
      ],
      [
        "Ġthe",
        -9.367542984150525
      ],
      [
        "2000",
        -9.367857403139512
      ],
      [
        "ĠrazÃ£o",
        -9.369467642476485
      ],
      [
        "tina",
        -9.370183784746636
      ],
      [
        "ĠPA",
        -9.371456150920087
      ],
      [
        "ĠBu",
        -9.372017014535771
      ],
      [
        "cado",
        -9.372261410877504
      ],
      [
        "vÃ¡rios",
        -9.374879139826566
      ],
      [
        "..............",
        -9.3754916757603
      ],
      [
        "ĠexercÃŃcio",
        -9.37589368356547
      ],
      [
        "ĠCha",
        -9.375972535492016
      ],
      [
        "Ġacesso",
        -9.377017655942472
      ],
      [
        "ĠDu",
        -9.377318048026869
      ],
      [
        "ĠSaÃºde",
        -9.377664720150705
      ],
      [
        "Ġmeses",
        -9.377770155530676
      ],
      [
        "The",
        -9.377921343393476
      ],
      [
        "Ģ",
        -9.378148163940743
      ],
      [
        "origem",
        -9.378364695548177
      ],
      [
        "US",
        -9.3795208947739
      ],
      [
        "ff",
        -9.379724586829177
      ],
      [
        "Executivo",
        -9.379798709323843
      ],
      [
        "ĠDia",
        -9.380332804126311
      ],
      [
        "2008",
        -9.38326304962555
      ],
      [
        "Ġmercado",
        -9.385407865109812
      ],
      [
        "Ġ2003",
        -9.385486129560196
      ],
      [
        "ĠÃ©poca",
        -9.387129744721769
      ],
      [
        "ĠSal",
        -9.387341467856308
      ],
      [
        "ĠVal",
        -9.38810982549493
      ],
      [
        "Ġfilho",
        -9.39177119362538
      ],
      [
        "ĠSegundo",
        -9.394323863824267
      ],
      [
        "\")",
        -9.39472949571432
      ],
      [
        "ĠPP",
        -9.394942443508342
      ],
      [
        "ty",
        -9.39511973176399
      ],
      [
        "AlÃ©m",
        -9.395811363787317
      ],
      [
        "Ġ2015",
        -9.39707638811696
      ],
      [
        "Ġatividade",
        -9.397482892871569
      ],
      [
        "ĠEM",
        -9.398813620988612
      ],
      [
        "tic",
        -9.3988640769098
      ],
      [
        "ĠFilho",
        -9.39887885957907
      ],
      [
        "serÃ£o",
        -9.3993617516823
      ],
      [
        "ĠAgora",
        -9.399646992849116
      ],
      [
        "Ġinclusive",
        -9.40084123748382
      ],
      [
        "dado",
        -9.402935824229615
      ],
      [
        "PTB",
        -9.404216971749086
      ],
      [
        "Ġdados",
        -9.404363093133094
      ],
      [
        "Ġgeral",
        -9.404709320033747
      ],
      [
        "2007",
        -9.405814136656682
      ],
      [
        "ĠInter",
        -9.40765633287378
      ],
      [
        "Ġfala",
        -9.407916506258836
      ],
      [
        "Ġfosse",
        -9.41024940218964
      ],
      [
        "IM",
        -9.414965333207702
      ],
      [
        "radiodifusÃ£o",
        -9.415506314516298
      ],
      [
        "Ġcara",
        -9.41560058816498
      ],
      [
        "Ġpagamento",
        -9.416172172066206
      ],
      [
        "Ġquase",
        -9.416656748663684
      ],
      [
        "Ġqualidade",
        -9.418608901117912
      ],
      [
        "Ġlegal",
        -9.419541315974366
      ],
      [
        "Ġobra",
        -9.41991495986517
      ],
      [
        "STF",
        -9.42371211598538
      ],
      [
        "Ġcrime",
        -9.425348594096771
      ],
      [
        "gan",
        -9.42552255858273
      ],
      [
        "Ġnecessidade",
        -9.426286751286453
      ],
      [
        "ĠDeus",
        -9.42709264267692
      ],
      [
        "29",
        -9.42729225765841
      ],
      [
        "Ġalgumas",
        -9.429642929730884
      ],
      [
        "Ġpelas",
        -9.430499252930854
      ],
      [
        "28",
        -9.434349787217869
      ],
      [
        "2010",
        -9.43479687159191
      ],
      [
        "Ġpoderia",
        -9.436699734394644
      ],
      [
        "tando",
        -9.437994345202542
      ],
      [
        "Ġminutos",
        -9.438746902805494
      ],
      [
        "land",
        -9.439073625967367
      ],
      [
        ".âĢĿ",
        -9.440989869896816
      ],
      [
        "ĠSE",
        -9.44105339144843
      ],
      [
        "Ġmaioria",
        -9.441140430232176
      ],
      [
        "Ġ2014",
        -9.441611958883009
      ],
      [
        "ĠCON",
        -9.441849486408785
      ],
      [
        "90",
        -9.4442204278269
      ],
      [
        "ĠpolÃŃtico",
        -9.445362040894706
      ],
      [
        "her",
        -9.44544084845879
      ],
      [
        "press",
        -9.446623458884003
      ],
      [
        "Ġinteresse",
        -9.446775206890416
      ],
      [
        "Ġpartido",
        -9.447754178225912
      ],
      [
        "ĠEl",
        -9.448779368390912
      ],
      [
        "rin",
        -9.449722619736084
      ],
      [
        "nico",
        -9.450967043665257
      ],
      [
        "ĠCiÃªncia",
        -9.451506890138392
      ],
      [
        "99",
        -9.451760451058922
      ],
      [
        "Ġesses",
        -9.452282433108005
      ],
      [
        "enda",
        -9.452938755409496
      ],
      [
        "Ġdinheiro",
        -9.453558228317007
      ],
      [
        "ĠNi",
        -9.454586519406163
      ],
      [
        "Ġcerto",
        -9.454829870839314
      ],
      [
        "Ġmodo",
        -9.455367812446134
      ],
      [
        "Ġformula",
        -9.455849568593209
      ],
      [
        "Ġconhecido",
        -9.456295610934331
      ],
      [
        "PR",
        -9.457503016224488
      ],
      [
        "Ġpossa",
        -9.458489842908769
      ],
      [
        "88",
        -9.458919626493476
      ],
      [
        "zado",
        -9.4625941549558
      ],
      [
        "Ġrequerimento",
        -9.46403072934053
      ],
      [
        "ĠAG",
        -9.466559628110568
      ],
      [
        "aumento",
        -9.467168212971488
      ],
      [
        "ĠSua",
        -9.468065744838452
      ],
      [
        "ĠHÃ¡",
        -9.468875816036098
      ],
      [
        "Ġnesse",
        -9.46901515923358
      ],
      [
        "Ġemenda",
        -9.469700667772164
      ],
      [
        "Ġ2016",
        -9.47067601566932
      ],
      [
        "Ġqu",
        -9.47190323690208
      ],
      [
        "altera",
        -9.472121867603176
      ],
      [
        "nÃŃvel",
        -9.473195569754244
      ],
      [
        "Ġ50",
        -9.473865213802911
      ],
      [
        "Ġdele",
        -9.474046058144731
      ],
      [
        "Ġensino",
        -9.474129806153492
      ],
      [
        "Ġjunto",
        -9.474610333131473
      ],
      [
        "ĠNova",
        -9.475905365182795
      ],
      [
        "agravo",
        -9.476883614970497
      ],
      [
        "Ġautor",
        -9.477358269582416
      ],
      [
        "https",
        -9.477911641024445
      ],
      [
        "Ġnorte",
        -9.478828812246215
      ],
      [
        "Ġdeixar",
        -9.479121416353266
      ],
      [
        ");",
        -9.480164972478493
      ],
      [
        "ĠCol",
        -9.480400216730237
      ],
      [
        "Ġnuma",
        -9.480729381124592
      ],
      [
        "26",
        -9.481030236134046
      ],
      [
        "ĠCOM",
        -9.481918557288772
      ],
      [
        "ĠPrograma",
        -9.482266203467768
      ],
      [
        "Ġreforma",
        -9.484174693956325
      ],
      [
        "Ġleva",
        -9.48420412062374
      ],
      [
        "ĠprÃ¡tica",
        -9.485276575083937
      ],
      [
        "27",
        -9.48590658353435
      ],
      [
        "anÃ¡lise",
        -9.48656256565881
      ],
      [
        "ĠreuniÃ£o",
        -9.486658939502174
      ],
      [
        "23",
        -9.487056932102403
      ],
      [
        "ĠÃºltima",
        -9.48803882800025
      ],
      [
        "Ġtal",
        -9.48859018279146
      ],
      [
        "Ġcampo",
        -9.489351420555904
      ],
      [
        "Ġ100",
        -9.489519381988584
      ],
      [
        "ment",
        -9.489850064885688
      ],
      [
        "ĠAssim",
        -9.489877801735616
      ],
      [
        "ĠParecer",
        -9.490603224306035
      ],
      [
        "ĠmÃ£e",
        -9.491224966446053
      ],
      [
        "Ġnoite",
        -9.492419641216584
      ],
      [
        "ĠLula",
        -9.493330402077657
      ],
      [
        "lan",
        -9.493908304739
      ],
      [
        "Ġmuitas",
        -9.494457033243044
      ],
      [
        "ĠHi",
        -9.496153363036502
      ],
      [
        "ĠLÃŃder",
        -9.496733367493997
      ],
      [
        "Ġsuper",
        -9.497935028657816
      ],
      [
        "entanto",
        -9.500310258808684
      ],
      [
        "somente",
        -9.5005296581285
      ],
      [
        "redaÃ§Ã£o",
        -9.501577027246276
      ],
      [
        "Ġsuperior",
        -9.502281146752582
      ],
      [
        "ĠLegislativo",
        -9.504018537998425
      ],
      [
        "Ġregime",
        -9.505748599008664
      ],
      [
        "Ġhomem",
        -9.506036795952824
      ],
      [
        "ĠparticipaÃ§Ã£o",
        -9.506488273711131
      ],
      [
        "Ġproduto",
        -9.506574603246978
      ],
      [
        "ĠPÃºblica",
        -9.507115039651888
      ],
      [
        "ong",
        -9.50734884477456
      ],
      [
        "ĠThe",
        -9.50883505683251
      ],
      [
        "ĠRi",
        -9.509842409872643
      ],
      [
        "ĠBar",
        -9.510258889914809
      ],
      [
        "ĠDJ",
        -9.51284997154341
      ],
      [
        "iam",
        -9.512982929350256
      ],
      [
        "Ġoficial",
        -9.51606759601495
      ],
      [
        "Ġcontrole",
        -9.516420962669224
      ],
      [
        "Ġtarde",
        -9.51783194554627
      ],
      [
        "ĠcrÃ©dito",
        -9.51799299308001
      ],
      [
        "Ġlongo",
        -9.518167491221272
      ],
      [
        "EIRA",
        -9.519088210665004
      ],
      [
        "ĠFernando",
        -9.519813148128412
      ],
      [
        "BA",
        -9.520164295202749
      ],
      [
        "ĠRoberto",
        -9.521789887594416
      ],
      [
        "22",
        -9.521878827561157
      ],
      [
        "Ġsetor",
        -9.522709207355089
      ],
      [
        "gado",
        -9.522918272149107
      ],
      [
        "Ġdez",
        -9.523228264185216
      ],
      [
        "passou",
        -9.526828018103368
      ],
      [
        "leg",
        -9.527328954305087
      ],
      [
        "ĠSÃ³",
        -9.527614372652415
      ],
      [
        "2012",
        -9.527881710178344
      ],
      [
        "ĠAssociaÃ§Ã£o",
        -9.52849664669255
      ],
      [
        "Ġgrandes",
        -9.528770223615805
      ],
      [
        "24",
        -9.529301260958926
      ],
      [
        "ĠlegislaÃ§Ã£o",
        -9.531597902410224
      ],
      [
        "ĠTrabalho",
        -9.53324359013206
      ],
      [
        "ĠIV",
        -9.53366008808719
      ],
      [
        "Ġfica",
        -9.53558768835775
      ],
      [
        "2016",
        -9.536216118899937
      ],
      [
        "Ġjulgamento",
        -9.537543753172631
      ],
      [
        "Ġacho",
        -9.53816947438883
      ],
      [
        "Ġcontrato",
        -9.538627969525388
      ],
      [
        "Ġpreciso",
        -9.542305206065286
      ],
      [
        "Ġfeita",
        -9.542316243917224
      ],
      [
        "ĠpublicaÃ§Ã£o",
        -9.54241755799705
      ],
      [
        "FI",
        -9.54314031263142
      ],
      [
        "emos",
        -9.54401758847444
      ],
      [
        "Ġsaber",
        -9.54461431867882
      ],
      [
        "ĠPE",
        -9.544903604080435
      ],
      [
        "ĠMaia",
        -9.548447381681273
      ],
      [
        "ĠRu",
        -9.549260425004348
      ],
      [
        "Ġprova",
        -9.551023871107027
      ],
      [
        "Ġbrasileiros",
        -9.551828951337573
      ],
      [
        "Ġessas",
        -9.553537116645836
      ],
      [
        "relatÃ³rio",
        -9.553646030571208
      ],
      [
        "ĠextraordinÃ¡rio",
        -9.555663167697128
      ],
      [
        "ĠBem",
        -9.557618703063426
      ],
      [
        "ĠGra",
        -9.557962827847057
      ],
      [
        "gia",
        -9.562245089348902
      ],
      [
        "01",
        -9.56317759520106
      ],
      [
        "Ġref",
        -9.56387782764707
      ],
      [
        "Ġconstante",
        -9.564293063397722
      ],
      [
        "Ã§",
        -9.565357487578048
      ],
      [
        "Ġcorpo",
        -9.565785849878374
      ],
      [
        "Ġenergia",
        -9.56596735617362
      ],
      [
        "conjunto",
        -9.56636557238996
      ],
      [
        "realizaÃ§Ã£o",
        -9.567135803642213
      ],
      [
        "zada",
        -9.567422634498044
      ],
      [
        "mulheres",
        -9.567830666363774
      ],
      [
        "ĠconstruÃ§Ã£o",
        -9.568250931066828
      ],
      [
        "Ġdebate",
        -9.568280890967047
      ],
      [
        "mÃŃnimo",
        -9.569082747755305
      ],
      [
        "ĠespÃ©cie",
        -9.570257259884094
      ],
      [
        "ĠPortugal",
        -9.571397595548223
      ],
      [
        "ego",
        -9.573095051205586
      ],
      [
        "Ġhora",
        -9.57378496456938
      ],
      [
        "Ġpossui",
        -9.574031869076176
      ],
      [
        "essÃµes",
        -9.574244706836089
      ],
      [
        "Ġpessoal",
        -9.575238159484895
      ],
      [
        "Ġparece",
        -9.575896758873842
      ],
      [
        "Ġmaneira",
        -9.577430802700809
      ],
      [
        "ĠdiscussÃ£o",
        -9.577792049368478
      ],
      [
        "ĠSan",
        -9.578216097465347
      ],
      [
        "ĠcrianÃ§as",
        -9.578549731915512
      ],
      [
        "ĠÃ¡lbum",
        -9.579320103769554
      ],
      [
        "SC",
        -9.57949513671582
      ],
      [
        "Ġsolicita",
        -9.579520647310408
      ],
      [
        "ĠMarco",
        -9.579882964629526
      ],
      [
        "2014",
        -9.580640296128946
      ],
      [
        "ĠnecessÃ¡rio",
        -9.581149282799208
      ],
      [
        "vÃ¡rias",
        -9.5821049411983
      ],
      [
        "ĠediÃ§Ã£o",
        -9.582832701362303
      ],
      [
        "Ġ54",
        -9.58377027312753
      ],
      [
        "economia",
        -9.584055013010405
      ],
      [
        "ĠMinas",
        -9.584903049881548
      ],
      [
        "Partido",
        -9.585093789289893
      ],
      [
        "Ġ33",
        -9.585288992260372
      ],
      [
        "dig",
        -9.585400693714254
      ],
      [
        "poderÃ¡",
        -9.585533871191432
      ],
      [
        "ĠAb",
        -9.58576408775408
      ],
      [
        "tec",
        -9.586638109013965
      ],
      [
        "Ġfrente",
        -9.586924839726972
      ],
      [
        "ĠMesa",
        -9.586932796192617
      ],
      [
        "Ġvir",
        -9.58853432158748
      ],
      [
        "Ġassunto",
        -9.5887399285906
      ],
      [
        "Ġ40",
        -9.588923835877326
      ],
      [
        "Ġprincipalmente",
        -9.589024361255865
      ],
      [
        "Ġchamado",
        -9.589478601485531
      ],
      [
        "Ġterra",
        -9.589540899150505
      ],
      [
        "Â",
        -9.589618267727465
      ],
      [
        "possibilidade",
        -9.59017810758568
      ],
      [
        "21",
        -9.590275605922711
      ],
      [
        "Ġlinha",
        -9.59126205915644
      ],
      [
        "legislativa",
        -9.591473810196373
      ],
      [
        "iana",
        -9.592191531199004
      ],
      [
        "ĠEstou",
        -9.59253103855244
      ],
      [
        "sim",
        -9.593606679914291
      ],
      [
        "zer",
        -9.593806898408724
      ],
      [
        "ĠDEM",
        -9.593861659186675
      ],
      [
        "Í",
        -9.59507394394352
      ],
      [
        "Ã¡veis",
        -9.595242308694674
      ],
      [
        "Ġred",
        -9.595787225147864
      ],
      [
        "ĠDesenvolvimento",
        -9.595803124687752
      ],
      [
        "ĠespaÃ§o",
        -9.59647873369705
      ],
      [
        "Ġpapel",
        -9.596682416610276
      ],
      [
        "Ġapresenta",
        -9.596720375119526
      ],
      [
        "MENTO",
        -9.59858823840945
      ],
      [
        "Ġforte",
        -9.598599225387876
      ],
      [
        "Ġestrutura",
        -9.599242587866131
      ],
      [
        "ĠFrancisco",
        -9.600417096360346
      ],
      [
        "ĠNorte",
        -9.60041844495949
      ],
      [
        "DEM",
        -9.600655555653908
      ],
      [
        "ĠPI",
        -9.600855460666558
      ],
      [
        "ĠPode",
        -9.601850286846872
      ],
      [
        "ĠvÃ£o",
        -9.602061328803185
      ],
      [
        "Ġrei",
        -9.602437358307755
      ],
      [
        "Ġmuitos",
        -9.6026361569915
      ],
      [
        "culo",
        -9.60343975135277
      ],
      [
        "mir",
        -9.60451872895996
      ],
      [
        "presenÃ§a",
        -9.606206733552051
      ],
      [
        "Ġreal",
        -9.606823546971562
      ],
      [
        "reais",
        -9.60719979233703
      ],
      [
        "ĠCO",
        -9.608051938530824
      ],
      [
        "Ġcapital",
        -9.608635064220197
      ],
      [
        "Ġhouve",
        -9.609161615926832
      ],
      [
        "sejam",
        -9.611899057683598
      ],
      [
        "nÃ£o",
        -9.61254459440763
      ],
      [
        "Ġproblemas",
        -9.613345607665275
      ],
      [
        "ĠPRO",
        -9.614279849605376
      ],
      [
        "Ġ32",
        -9.614615044355372
      ],
      [
        "ĠSP",
        -9.615601801301922
      ],
      [
        "ĠTr",
        -9.61611988771206
      ],
      [
        "Ġentra",
        -9.617747703228837
      ],
      [
        "Ġbanda",
        -9.618949500848078
      ],
      [
        "concessÃ£o",
        -9.619277217568982
      ],
      [
        "Ġafirma",
        -9.619419768366022
      ],
      [
        "dÃ©cada",
        -9.620232767900236
      ],
      [
        "#",
        -9.620859963126266
      ],
      [
        "Ġencontra",
        -9.622147669750335
      ],
      [
        "ĠRel",
        -9.622665880030308
      ],
      [
        "Ġvia",
        -9.622872630499232
      ],
      [
        "Ġprofessor",
        -9.623383713970194
      ],
      [
        "Ġconhecimento",
        -9.623578569339983
      ],
      [
        "MunicÃŃpios",
        -9.624530657249156
      ],
      [
        "Ġalguma",
        -9.62503909066331
      ],
      [
        "prÃ³ximo",
        -9.62526973545659
      ],
      [
        "execuÃ§Ã£o",
        -9.625518000153864
      ],
      [
        "Ġposso",
        -9.626535063620764
      ],
      [
        "aprovado",
        -9.626549559850956
      ],
      [
        "atividades",
        -9.627580472661442
      ],
      [
        "Ġbusca",
        -9.62861280981957
      ],
      [
        "ĠMon",
        -9.629925840890388
      ],
      [
        "Ġembora",
        -9.630532580717192
      ],
      [
        "cida",
        -9.631078558492092
      ],
      [
        "ĠEst",
        -9.632603387763858
      ],
      [
        "ĠRIC",
        -9.633795404319692
      ],
      [
        "Ġlhe",
        -9.63430957356396
      ],
      [
        "Ġcoisas",
        -9.634572107604574
      ],
      [
        "responsabilidade",
        -9.635581881239002
      ],
      [
        "cimento",
        -9.636062672782316
      ],
      [
        "Ġ2017",
        -9.63657438900781
      ],
      [
        "Ġlivro",
        -9.636804557580511
      ],
      [
        "Ġoportunidade",
        -9.637584445919096
      ],
      [
        "Ġpassado",
        -9.63793308159353
      ],
      [
        "Ġdeveria",
        -9.638818149632264
      ],
      [
        "COMISSÃĥO",
        -9.639168017649164
      ],
      [
        "ara",
        -9.642654984694172
      ],
      [
        "Ġauto",
        -9.643610899658732
      ],
      [
        "Ġ:)",
        -9.644156936605192
      ],
      [
        "ĠcompetÃªncia",
        -9.645979998982869
      ],
      [
        "ĠfunÃ§Ã£o",
        -9.64613516775795
      ],
      [
        "Ġalgum",
        -9.647026691667318
      ],
      [
        "ĠFl",
        -9.648375721129968
      ],
      [
        "eve",
        -9.648931813368703
      ],
      [
        "nador",
        -9.648981156763217
      ],
      [
        "ĠimportÃ¢ncia",
        -9.649387354359682
      ],
      [
        "gestÃ£o",
        -9.650329755099792
      ],
      [
        "Ġmarca",
        -9.650438703709533
      ],
      [
        "ĠmÃ©dia",
        -9.650820534365296
      ],
      [
        "ĠApÃ³s",
        -9.651798531520573
      ],
      [
        "Distrito",
        -9.651859779247872
      ],
      [
        "tel",
        -9.653212970296003
      ],
      [
        "onde",
        -9.65492994613828
      ],
      [
        "ias",
        -9.655091100541078
      ],
      [
        "ĠAntonio",
        -9.656273437748233
      ],
      [
        "previsto",
        -9.656576854264618
      ],
      [
        "RECURSO",
        -9.656765969277613
      ],
      [
        "vida",
        -9.657068536215574
      ],
      [
        "Defesa",
        -9.65818737908219
      ],
      [
        "Ġescola",
        -9.659380373343856
      ],
      [
        "Ġmulher",
        -9.65945002198644
      ],
      [
        "ĠCivil",
        -9.659692914148389
      ],
      [
        "disposto",
        -9.66097512352864
      ],
      [
        "Ġajuda",
        -9.661043352270578
      ],
      [
        "):",
        -9.66125189034684
      ],
      [
        "Ġ1990",
        -9.661444899553674
      ],
      [
        "&",
        -9.662568898987024
      ],
      [
        "ĠSeu",
        -9.664282096989783
      ],
      [
        "portanto",
        -9.665768265369442
      ],
      [
        "*",
        -9.665942266654383
      ],
      [
        "Ġlista",
        -9.66799993720845
      ],
      [
        "ĠVice",
        -9.668160132635023
      ],
      [
        "cÃ³rdÃ£o",
        -9.670437262474696
      ],
      [
        "Ġ35",
        -9.671958234053925
      ],
      [
        "gem",
        -9.67222583392994
      ],
      [
        "sociais",
        -9.67268957250887
      ],
      [
        "ĠEMENDA",
        -9.672887458236586
      ],
      [
        "discussÃ£o",
        -9.673966095894874
      ],
      [
        "Ġmodelo",
        -9.677000784285966
      ],
      [
        "ĠBen",
        -9.677728608260646
      ],
      [
        "Presidente",
        -9.678540486587274
      ],
      [
        "vado",
        -9.679214270145486
      ],
      [
        "ĠTecnologia",
        -9.67933733798547
      ],
      [
        "ĠGi",
        -9.679510445983174
      ],
      [
        "Ġgente",
        -9.679925765845612
      ],
      [
        "Geral",
        -9.681286991990028
      ],
      [
        "Ġsenhor",
        -9.68288483308268
      ],
      [
        "pÃ©",
        -9.683242822236894
      ],
      [
        "Ġ2020",
        -9.683680802784506
      ],
      [
        "enti",
        -9.683951615834747
      ],
      [
        "ĠmudanÃ§a",
        -9.685499381400028
      ],
      [
        "risco",
        -9.687255075372304
      ],
      [
        "mÃªs",
        -9.687272691297276
      ],
      [
        "mont",
        -9.689699591230172
      ],
      [
        "Ġalta",
        -9.690169119444151
      ],
      [
        "Ġ2002",
        -9.690920195171245
      ],
      [
        "Ġ60",
        -9.691293921878115
      ],
      [
        "Ġtema",
        -9.69155489676278
      ],
      [
        "ĠPrimeira",
        -9.691562955689218
      ],
      [
        "tados",
        -9.691809119897028
      ],
      [
        "exame",
        -9.692453304370426
      ],
      [
        "Â²",
        -9.692852089567404
      ],
      [
        "iniciativa",
        -9.693017309442345
      ],
      [
        "tido",
        -9.69346106535429
      ],
      [
        "ĠComunicaÃ§Ã£o",
        -9.693917328904632
      ],
      [
        "Ġlogo",
        -9.69446019166054
      ],
      [
        "podemos",
        -9.695041900357165
      ],
      [
        "ĠinglÃªs",
        -9.695264244774693
      ],
      [
        "ServiÃ§o",
        -9.696568154894525
      ],
      [
        "Ġ2019",
        -9.696894785009968
      ],
      [
        "Ġqueria",
        -9.697750402001455
      ],
      [
        "Ġnenhum",
        -9.697911820565023
      ],
      [
        "cionais",
        -9.698429449247548
      ],
      [
        "ĠBrasileiro",
        -9.698775441550518
      ],
      [
        "lei",
        -9.700247201753944
      ],
      [
        "Campeonato",
        -9.70037383884881
      ],
      [
        "Ġocorre",
        -9.701442550326602
      ],
      [
        "ley",
        -9.701778284442623
      ],
      [
        "2005",
        -9.702708097480444
      ],
      [
        "Ġficou",
        -9.703669437194735
      ],
      [
        "prevista",
        -9.704298755446953
      ],
      [
        "ĠpÃ¡gina",
        -9.704528085440064
      ],
      [
        "ĠREQUERIMENTO",
        -9.705217996752564
      ],
      [
        "ĠprincÃŃpio",
        -9.705881501668422
      ],
      [
        "carreira",
        -9.70626713162162
      ],
      [
        "Ġefeito",
        -9.706711923571788
      ],
      [
        "mentos",
        -9.706813086089715
      ],
      [
        "ã",
        -9.70698690452778
      ],
      [
        "ĠCorte",
        -9.70851370249706
      ],
      [
        "nessa",
        -9.70870525871648
      ],
      [
        "mÃ©rito",
        -9.709196289427146
      ],
      [
        "ĠObrigado",
        -9.70987885191555
      ],
      [
        "80",
        -9.711094652384462
      ],
      [
        "dar",
        -9.712220388472293
      ],
      [
        "Ġexiste",
        -9.712522801699748
      ],
      [
        "ĠTV",
        -9.71280450963696
      ],
      [
        "Ġprofissional",
        -9.715133238691587
      ],
      [
        "Ġtemporada",
        -9.716965563230795
      ],
      [
        "ĠInstituto",
        -9.717060894786302
      ],
      [
        "membros",
        -9.7180127342561
      ],
      [
        "tÃ³ria",
        -9.718172101054424
      ],
      [
        "obras",
        -9.718709526993871
      ],
      [
        "Ġsol",
        -9.719699970806824
      ],
      [
        "jurÃŃdica",
        -9.720868445083378
      ],
      [
        "bilhÃµes",
        -9.721124142178976
      ],
      [
        "discurso",
        -9.7218804039927
      ],
      [
        "ĠAmÃ©rica",
        -9.722019455281655
      ],
      [
        "Ġanterior",
        -9.723521620540945
      ],
      [
        "ĠExcelÃªncia",
        -9.72444202955704
      ],
      [
        "ĠIN",
        -9.72458794660377
      ],
      [
        "ĠCosta",
        -9.725637706855562
      ],
      [
        "ance",
        -9.725735386748251
      ],
      [
        "Ġ2000",
        -9.725757921295829
      ],
      [
        "Ã¢mbito",
        -9.726315465179743
      ],
      [
        "TambÃ©m",
        -9.72668038670671
      ],
      [
        "Ġnobre",
        -9.726691658925796
      ],
      [
        "Ġvigor",
        -9.727953041251952
      ],
      [
        "REG",
        -9.72973897622772
      ],
      [
        "requer",
        -9.729953869514327
      ],
      [
        "tornou",
        -9.730087742619906
      ],
      [
        "ĠCunha",
        -9.731602935933193
      ],
      [
        "posiÃ§Ãµes",
        -9.731952707182687
      ],
      [
        "Ġcampanha",
        -9.732004261567042
      ],
      [
        "gada",
        -9.732472865537297
      ],
      [
        "Ġpauta",
        -9.733209719988356
      ],
      [
        "2019",
        -9.733332086306408
      ],
      [
        "ĠRequerimento",
        -9.733900501851071
      ],
      [
        "mandato",
        -9.734249497289918
      ],
      [
        "Ġreco",
        -9.73505772474566
      ],
      [
        "Ġcerteza",
        -9.736915317557877
      ],
      [
        "serem",
        -9.737124377778288
      ],
      [
        "ĠCan",
        -9.737586052467815
      ],
      [
        "Ġteria",
        -9.737654198635228
      ],
      [
        "ĠquÃª",
        -9.737974822713635
      ],
      [
        "Ġtransporte",
        -9.73918048163639
      ],
      [
        "comeÃ§ou",
        -9.739742763827229
      ],
      [
        "Ġarma",
        -9.739823173591734
      ],
      [
        "Ġchegar",
        -9.739958147073915
      ],
      [
        "Ġhaver",
        -9.74040289238173
      ],
      [
        "Ġtitular",
        -9.741060566042911
      ],
      [
        "Depois",
        -9.741655187535985
      ],
      [
        "ĠHer",
        -9.742873176752738
      ],
      [
        "ÃļLTI",
        -9.745000643338022
      ],
      [
        "Ġresultado",
        -9.745431209991464
      ],
      [
        "Ġfederal",
        -9.745543377403576
      ],
      [
        "Ġprojetos",
        -9.745856355001196
      ],
      [
        "Ġoriginal",
        -9.746102318516332
      ],
      [
        "Ġrefere",
        -9.746864383933223
      ],
      [
        "Ġcentro",
        -9.74696162516363
      ],
      [
        "Ġinfra",
        -9.746987377784937
      ],
      [
        "ĠGuerra",
        -9.747225498400292
      ],
      [
        "econÃ´mica",
        -9.748476669153767
      ],
      [
        "Ġ2001",
        -9.7485441160137
      ],
      [
        "Ġaquele",
        -9.74872709008304
      ],
      [
        "Ġsede",
        -9.748872142402297
      ],
      [
        "ĠalguÃ©m",
        -9.74938284050752
      ],
      [
        "valores",
        -9.74959406550754
      ],
      [
        "ĠaplicaÃ§Ã£o",
        -9.749707107697326
      ],
      [
        "Ã¼",
        -9.751124005811215
      ],
      [
        "Ġrealizado",
        -9.751281514848367
      ],
      [
        "Ġdispo",
        -9.752082259624864
      ],
      [
        "ĠterritÃ³rio",
        -9.75251614898752
      ],
      [
        "Ġprincipais",
        -9.754076369045274
      ],
      [
        "ĠCopa",
        -9.754855666604138
      ],
      [
        "Ġfiscal",
        -9.75535636316313
      ],
      [
        "ĠBra",
        -9.755647262368669
      ],
      [
        "ĠSecretaria",
        -9.7560121579924
      ],
      [
        "Ġmovimento",
        -9.756587445130618
      ],
      [
        "ĠBer",
        -9.7578294970139
      ],
      [
        "ĠRos",
        -9.758123597227236
      ],
      [
        "Ġfunciona",
        -9.758161565260142
      ],
      [
        "bit",
        -9.759272193491109
      ],
      [
        "ÃĩÃķES",
        -9.759303171255237
      ],
      [
        "Ġdar",
        -9.760314625951764
      ],
      [
        "comunicaÃ§Ã£o",
        -9.760626600086164
      ],
      [
        "ĠDis",
        -9.760949402562712
      ],
      [
        "Ã³rgÃ£o",
        -9.761453359400289
      ],
      [
        "Î",
        -9.762294871015836
      ],
      [
        "CURSO",
        -9.76273749671321
      ],
      [
        "Ã¢ncia",
        -9.763075156375564
      ],
      [
        "Ġclaro",
        -9.763468561555507
      ],
      [
        "Ġsal",
        -9.76391449250189
      ],
      [
        "ĠEspecial",
        -9.76400024980636
      ],
      [
        "Ġrenda",
        -9.765587968654032
      ],
      [
        "Ġperde",
        -9.765739883849443
      ],
      [
        "Ġporta",
        -9.76675757168101
      ],
      [
        "ĠinformaÃ§Ã£o",
        -9.767517404959616
      ],
      [
        "Ġideia",
        -9.768464965544275
      ],
      [
        "2017",
        -9.770343160287446
      ],
      [
        "Ġautos",
        -9.770937209707132
      ],
      [
        "Ġcrise",
        -9.771329230819706
      ],
      [
        "Ã¡rios",
        -9.772519295452286
      ],
      [
        "Ġnatureza",
        -9.77408893790099
      ],
      [
        "ting",
        -9.775078029549984
      ],
      [
        "Ġconsiderado",
        -9.775425662327152
      ],
      [
        "Ġmer",
        -9.776703009360393
      ],
      [
        "Ġpontos",
        -9.777887000915714
      ],
      [
        "apreciaÃ§Ã£o",
        -9.778189292142244
      ],
      [
        "deverÃ¡",
        -9.778221823370632
      ],
      [
        "Ġsul",
        -9.778783337927074
      ],
      [
        "Ġturno",
        -9.779259053257292
      ],
      [
        "Ġfase",
        -9.77954029349198
      ],
      [
        "ĠSub",
        -9.780892567987022
      ],
      [
        "CN",
        -9.78192111648614
      ],
      [
        "Ġnota",
        -9.783175443804764
      ],
      [
        "remos",
        -9.784247300434773
      ],
      [
        "ĠMIN",
        -9.785130755842518
      ],
      [
        "salÃ¡rio",
        -9.78534329239319
      ],
      [
        "Ġlivre",
        -9.785560155217157
      ],
      [
        "ĠatenÃ§Ã£o",
        -9.786925194374833
      ],
      [
        "Ġcombate",
        -9.787234013011746
      ],
      [
        "GA",
        -9.788543271325038
      ],
      [
        "ĠQuero",
        -9.788549700853572
      ],
      [
        "ĠTra",
        -9.789454128982095
      ],
      [
        "ĠVa",
        -9.789690642137192
      ],
      [
        "provimento",
        -9.790730788552656
      ],
      [
        "Ordem",
        -9.792818448338677
      ],
      [
        "ĠRicardo",
        -9.793098200910883
      ],
      [
        "ĠQuem",
        -9.793742235839549
      ],
      [
        "iri",
        -9.794240449455714
      ],
      [
        "chegou",
        -9.7950256945468
      ],
      [
        "aquela",
        -9.796269112573093
      ],
      [
        "Ġsucesso",
        -9.797809475298486
      ],
      [
        "ĠEles",
        -9.79819456786378
      ],
      [
        "Ġ1998",
        -9.798402092726484
      ],
      [
        "ĠSistema",
        -9.800031791132872
      ],
      [
        "ĠAlves",
        -9.800897050077095
      ],
      [
        "Ġautoria",
        -9.801141973602364
      ],
      [
        "ĠSanto",
        -9.80206045173761
      ],
      [
        "ĠFu",
        -9.802822785468848
      ],
      [
        "ĠAna",
        -9.802989395115368
      ],
      [
        "Ġmostra",
        -9.80305452985269
      ],
      [
        "Ġcaput",
        -9.804575581202938
      ],
      [
        "Ġ2018",
        -9.804630464304353
      ],
      [
        "ĠHenrique",
        -9.804933721714535
      ],
      [
        "existÃªncia",
        -9.805794996307611
      ],
      [
        "Ġdiferentes",
        -9.806170422614846
      ],
      [
        "ĠAGRAV",
        -9.807104784516852
      ],
      [
        "ĠMINISTR",
        -9.807698419619884
      ],
      [
        "Ġguerra",
        -9.808009569091976
      ],
      [
        "ĠBR",
        -9.808733651896922
      ],
      [
        "Ġrel",
        -9.811476349220348
      ],
      [
        "ĠPereira",
        -9.811949661631148
      ],
      [
        "ĠOh",
        -9.813682252822089
      ],
      [
        "onda",
        -9.814675743591463
      ],
      [
        "Ġsignifica",
        -9.815684049504746
      ],
      [
        "Ġcivil",
        -9.816240011811788
      ],
      [
        "grafia",
        -9.81722045547391
      ],
      [
        "Ġcriar",
        -9.81921668068176
      ],
      [
        "ĠSantos",
        -9.819302040420787
      ],
      [
        "vos",
        -9.8195653015315
      ],
      [
        "SOL",
        -9.820095170035431
      ],
      [
        "IDADE",
        -9.820241930331552
      ],
      [
        "Ġmenor",
        -9.821838194137094
      ],
      [
        "ĠÃºnica",
        -9.82199738578433
      ],
      [
        "Ġrede",
        -9.822569680101422
      ],
      [
        "ĠformaÃ§Ã£o",
        -9.822743250983615
      ],
      [
        "pensado",
        -9.82288410100807
      ],
      [
        "ĠDireito",
        -9.823109916464832
      ],
      [
        "Ġfinanceira",
        -9.82363097159194
      ],
      [
        "acima",
        -9.823787236805538
      ],
      [
        "Cidadania",
        -9.824060070167407
      ],
      [
        "Ġ37",
        -9.824357164120944
      ],
      [
        "ĠDias",
        -9.824516839997656
      ],
      [
        "Ġseis",
        -9.826277590783535
      ],
      [
        "PolÃŃcia",
        -9.828410978829169
      ],
      [
        "CIA",
        -9.829504175190214
      ],
      [
        "ĠMais",
        -9.829621033309794
      ],
      [
        "cujo",
        -9.830135270054324
      ],
      [
        "Ġchega",
        -9.83101723994599
      ],
      [
        "Ġinternacional",
        -9.831423513573716
      ],
      [
        "rÃ³",
        -9.832198272886684
      ],
      [
        "Ġplano",
        -9.832431838003576
      ],
      [
        "ĥ",
        -9.832819672567224
      ],
      [
        "Ã³rgÃ£os",
        -9.833465338219003
      ],
      [
        "Ġvisita",
        -9.833735025375036
      ],
      [
        "Ġeleito",
        -9.83375921224602
      ],
      [
        "Ġcomunidade",
        -9.833819058966732
      ],
      [
        "Ĥ",
        -9.834120420718657
      ],
      [
        "cido",
        -9.835301169985168
      ],
      [
        "soluÃ§Ã£o",
        -9.83685172904991
      ],
      [
        "Ġpenal",
        -9.837037880736478
      ],
      [
        "ĠAg",
        -9.838436397984532
      ],
      [
        "trabalhadores",
        -9.838945960120927
      ],
      [
        "ĠParlamentar",
        -9.841278558202305
      ],
      [
        "Medida",
        -9.84151125274937
      ],
      [
        "ĠPorto",
        -9.841513233433927
      ],
      [
        "2006",
        -9.842112859594875
      ],
      [
        "ciado",
        -9.843623989650125
      ],
      [
        "ĠmÃ£o",
        -9.843904904027257
      ],
      [
        "ĠSou",
        -9.84465507038427
      ],
      [
        "ĠreferÃªncia",
        -9.845677473928856
      ],
      [
        "ĠGe",
        -9.84719271990366
      ],
      [
        "ĠDilma",
        -9.848102876768648
      ],
      [
        "Ġestabelece",
        -9.848245302086491
      ],
      [
        "rito",
        -9.848366537546717
      ],
      [
        "mediante",
        -9.848540962632775
      ],
      [
        "org",
        -9.848917283627872
      ],
      [
        "destaque",
        -9.849222448340884
      ],
      [
        "Ġautoriza",
        -9.84935087649058
      ],
      [
        "ĠVou",
        -9.852841855751503
      ],
      [
        "bia",
        -9.853538469225558
      ],
      [
        "Ġcaminho",
        -9.853553329935474
      ],
      [
        "ĠinstituiÃ§Ãµes",
        -9.853882935257722
      ],
      [
        "ĠirmÃ£o",
        -9.854068655122058
      ],
      [
        "realmente",
        -9.854493226223552
      ],
      [
        "toria",
        -9.85654129373499
      ],
      [
        "ĠBanco",
        -9.856619556936344
      ],
      [
        "DF",
        -9.857553576845582
      ],
      [
        "Ġpequeno",
        -9.85758835134182
      ],
      [
        "Ġatendimento",
        -9.858288739804406
      ],
      [
        "contrÃ¡rio",
        -9.859246432644603
      ],
      [
        "Ġdiretor",
        -9.860770328174354
      ],
      [
        "recebeu",
        -9.861023489666172
      ],
      [
        "parÃ¡grafo",
        -9.861360057226957
      ],
      [
        "ĠposiÃ§Ã£o",
        -9.861442449687496
      ],
      [
        "side",
        -9.861823412685686
      ],
      [
        "cuja",
        -9.862114380210866
      ],
      [
        "ĠPSD",
        -9.862769432291364
      ],
      [
        "ĠcomeÃ§a",
        -9.863918772365263
      ],
      [
        "har",
        -9.865693690505392
      ],
      [
        "Ġjornal",
        -9.867450655577654
      ],
      [
        "ĠNesse",
        -9.86760138599571
      ],
      [
        "ĠCE",
        -9.86808404413701
      ],
      [
        "ÃŃcio",
        -9.868375183482302
      ],
      [
        "ĠMato",
        -9.870399552416524
      ],
      [
        "ĠHistÃ³ria",
        -9.8704065984403
      ],
      [
        "ĠSol",
        -9.87049534883363
      ],
      [
        "category",
        -9.870548352694945
      ],
      [
        "Ġclube",
        -9.8717083562411
      ],
      [
        "ĠEntre",
        -9.8725295535046
      ],
      [
        "Ġdesses",
        -9.873168389299458
      ],
      [
        "ĠCal",
        -9.873951576921176
      ],
      [
        "PP",
        -9.87458493011316
      ],
      [
        "lis",
        -9.874944834850968
      ],
      [
        "Ġresposta",
        -9.875907098576098
      ],
      [
        "Ġmanter",
        -9.876030252143172
      ],
      [
        "ĠEra",
        -9.87627596848941
      ],
      [
        "critÃ©rio",
        -9.879454578436077
      ],
      [
        "ĠlanÃ§ado",
        -9.87960912596785
      ],
      [
        "ĠMarcelo",
        -9.880738124225529
      ],
      [
        "ĠMeu",
        -9.881547541513306
      ],
      [
        "violÃªncia",
        -9.881643757675546
      ],
      [
        "RS",
        -9.882008449902642
      ],
      [
        "Gerais",
        -9.883445085436495
      ],
      [
        "ĠFundo",
        -9.883760608334786
      ],
      [
        "ĠNos",
        -9.884468926016266
      ],
      [
        "Durante",
        -9.884701404364751
      ],
      [
        "gal",
        -9.884857291188712
      ],
      [
        "lÃ³gica",
        -9.885457166015478
      ],
      [
        "Ġcapacidade",
        -9.885936547039313
      ],
      [
        "Ġcriado",
        -9.887270223266963
      ],
      [
        "PAULO",
        -9.88825538317552
      ],
      [
        "lida",
        -9.888448919569976
      ],
      [
        "Ġliberdade",
        -9.888509555441802
      ],
      [
        "Ġreuni",
        -9.889962294329608
      ],
      [
        "Ġcultura",
        -9.890458004822596
      ],
      [
        "ĠADV",
        -9.891522603523509
      ],
      [
        "ĠRÃ¡dio",
        -9.89192291138466
      ],
      [
        "ĠRosa",
        -9.89258503519958
      ],
      [
        "ĠHu",
        -9.892746778136472
      ],
      [
        "homens",
        -9.894285175512676
      ],
      [
        "preÃ§o",
        -9.89431217902901
      ],
      [
        "Ġnovos",
        -9.895124034549829
      ],
      [
        "ĠBahia",
        -9.89522071741566
      ],
      [
        "RES",
        -9.895924558701957
      ],
      [
        "Ptb",
        -9.89615932839767
      ],
      [
        "ssem",
        -9.896443878467226
      ],
      [
        "Ġdisputa",
        -9.897131111643963
      ],
      [
        "ĠBrasileira",
        -9.89811358568758
      ],
      [
        "ARDO",
        -9.898531259339526
      ],
      [
        "Ġdiversos",
        -9.899118098977713
      ],
      [
        "Ġexecutar",
        -9.899722358958138
      ],
      [
        "ĠJorge",
        -9.90079371321574
      ],
      [
        "proteÃ§Ã£o",
        -9.90161742248405
      ],
      [
        "ÃŃstica",
        -9.901630156509423
      ],
      [
        "ĠresponsÃ¡vel",
        -9.902763074012585
      ],
      [
        "Ġterceiro",
        -9.902803096354086
      ],
      [
        "Ġmaterial",
        -9.902986243724394
      ],
      [
        "pressÃ£o",
        -9.904082938748026
      ],
      [
        "Ġ70",
        -9.904203150690378
      ],
      [
        "ĠLima",
        -9.904453028756524
      ],
      [
        "ĠMal",
        -9.904533117822917
      ],
      [
        "Ġusar",
        -9.904781933416569
      ],
      [
        "servidores",
        -9.905010014388465
      ],
      [
        "Ġapresentado",
        -9.906517727389428
      ],
      [
        "ĠSENHOR",
        -9.90662424448526
      ],
      [
        "Ġincluindo",
        -9.907319429887798
      ],
      [
        "Ġvotar",
        -9.907629092581669
      ],
      [
        "Ġambiente",
        -9.908003371297047
      ],
      [
        "Ġchamada",
        -9.908049899422055
      ],
      [
        "ĠMundial",
        -9.909033703507642
      ],
      [
        "Ġestudo",
        -9.910097181274391
      ],
      [
        "shi",
        -9.910235268162577
      ],
      [
        "ProvisÃ³ria",
        -9.910317803755635
      ],
      [
        "Ġfedera",
        -9.910382076671718
      ],
      [
        "tenÃ§Ã£o",
        -9.912004431118053
      ],
      [
        "ĠAdministraÃ§Ã£o",
        -9.912088815533773
      ],
      [
        "lada",
        -9.912224360942083
      ],
      [
        "Ġhomenage",
        -9.913005815677302
      ],
      [
        "Ġdela",
        -9.91334726506198
      ],
      [
        "maiores",
        -9.914597648442252
      ],
      [
        "Ġsofre",
        -9.91624551083537
      ],
      [
        "Ġatua",
        -9.916848786898274
      ],
      [
        "Ġdiversas",
        -9.917951272492118
      ],
      [
        "ĠEdi",
        -9.920011447219023
      ],
      [
        "Ġcontinua",
        -9.920198862695576
      ],
      [
        "Ainda",
        -9.921629260758747
      ],
      [
        "Ġprofissionais",
        -9.92186454120648
      ],
      [
        "ĠInternacional",
        -9.921992486415006
      ],
      [
        "Ġacha",
        -9.922306529180863
      ],
      [
        "Ġtorna",
        -9.922473653974594
      ],
      [
        "Ġtrabalhos",
        -9.922562916483065
      ],
      [
        "Ġfiz",
        -9.923597702217377
      ],
      [
        "ĠâĢĺ",
        -9.924211334748174
      ],
      [
        "Ġreceber",
        -9.924710386892002
      ],
      [
        "ĠMendes",
        -9.925275176793992
      ],
      [
        "Ġamigo",
        -9.925277467477258
      ],
      [
        "Ġextra",
        -9.925370044637123
      ],
      [
        "Ġamor",
        -9.925418937817785
      ],
      [
        "han",
        -9.925800771400276
      ],
      [
        "Ġcabe",
        -9.926943242137368
      ],
      [
        "tratamento",
        -9.927058323596576
      ],
      [
        "lÃ³gico",
        -9.92773379839866
      ],
      [
        "\",\"",
        -9.92852727342049
      ],
      [
        "ĠTudo",
        -9.928804981987913
      ],
      [
        "ĠRO",
        -9.928924862692604
      ],
      [
        "tia",
        -9.929036142888734
      ],
      [
        "Ġautoridade",
        -9.929425165215216
      ],
      [
        "gostaria",
        -9.930838965473662
      ],
      [
        "Ġ1997",
        -9.932042659925685
      ],
      [
        "Ġcompra",
        -9.932052411920502
      ],
      [
        "ĠAta",
        -9.9332517097137
      ],
      [
        "ĠGovernador",
        -9.933603767776864
      ],
      [
        "ĠKi",
        -9.934045750117711
      ],
      [
        "ĠGar",
        -9.934048518690735
      ],
      [
        "ģ",
        -9.934277710310656
      ],
      [
        "Ġelas",
        -9.934693536228515
      ],
      [
        "produtos",
        -9.935108920056084
      ],
      [
        "ĠBA",
        -9.935277297159049
      ],
      [
        "Ġartigos",
        -9.935282643896697
      ],
      [
        "Ġacaba",
        -9.935333998671194
      ],
      [
        "ĠeconÃ´mico",
        -9.935610855374916
      ],
      [
        "devem",
        -9.935819350843104
      ],
      [
        "Ã©tica",
        -9.936727618776231
      ],
      [
        "Ġpassar",
        -9.9368278236631
      ],
      [
        "reduÃ§Ã£o",
        -9.937135172242751
      ],
      [
        "paciente",
        -9.938020044613904
      ],
      [
        "anti",
        -9.93904495110516
      ],
      [
        "Ġfins",
        -9.939336966323792
      ],
      [
        "ĠSer",
        -9.940020381465088
      ],
      [
        "PCdoB",
        -9.940707767949553
      ],
      [
        "vendo",
        -9.942147975214263
      ],
      [
        "uti",
        -9.94246223587781
      ],
      [
        "Of",
        -9.94252602914999
      ],
      [
        "Ġgarantia",
        -9.94285764632841
      ],
      [
        "PL",
        -9.942899746049337
      ],
      [
        "Ġcumprimento",
        -9.94392790589306
      ],
      [
        "Ġcarro",
        -9.94499972902333
      ],
      [
        "tiveram",
        -9.945415616854476
      ],
      [
        "Ġ38",
        -9.945864143534711
      ],
      [
        "ĠVoss",
        -9.946137882119157
      ],
      [
        "Ġfundamental",
        -9.946146359950363
      ],
      [
        "RJ",
        -9.946491334816804
      ],
      [
        "tida",
        -9.947461446600045
      ],
      [
        "ĠEsc",
        -9.948253031309276
      ],
      [
        "Ġfuturo",
        -9.948357470865984
      ],
      [
        "2003",
        -9.94917298867702
      ],
      [
        "Ġevento",
        -9.949186598438654
      ],
      [
        "ÃŃvel",
        -9.94965166958773
      ],
      [
        "Lei",
        -9.951486216336049
      ],
      [
        "Ġcategoria",
        -9.952767488861324
      ],
      [
        "Ġmuita",
        -9.952792695573288
      ],
      [
        "Ġtaxa",
        -9.953297126092494
      ],
      [
        "pronunciamento",
        -9.956400066743353
      ],
      [
        "ari",
        -9.957000802282286
      ],
      [
        "acrescenta",
        -9.957052925441744
      ],
      [
        "Ġnenhuma",
        -9.958321567094483
      ],
      [
        "Ġnego",
        -9.958353260475567
      ],
      [
        "medidas",
        -9.958479917261895
      ],
      [
        "Ġnatural",
        -9.958755309719672
      ],
      [
        "Ġapresentada",
        -9.958997212173756
      ],
      [
        "fÃŃsica",
        -9.959132056163035
      ],
      [
        "Ġgrave",
        -9.959263819956714
      ],
      [
        "age",
        -9.960329026950385
      ],
      [
        "ĠGen",
        -9.96115603659494
      ],
      [
        "Ġalto",
        -9.96164489724549
      ],
      [
        "GL",
        -9.963168120903669
      ],
      [
        "Ġapresentar",
        -9.963363235765216
      ],
      [
        "Ġmilitar",
        -9.964284427478772
      ],
      [
        "ĠAcho",
        -9.965405279188122
      ],
      [
        "dÃºvida",
        -9.966215263148328
      ],
      [
        "ĠAL",
        -9.966783740553646
      ],
      [
        "NAL",
        -9.967027118380662
      ],
      [
        "Ġinstrumento",
        -9.968127032578147
      ],
      [
        "ĠSuperior",
        -9.969412325592913
      ],
      [
        "Ġcrescimento",
        -9.97146905859997
      ],
      [
        "substituiÃ§Ã£o",
        -9.973332933357211
      ],
      [
        "Ġisto",
        -9.973742171338468
      ],
      [
        "Ġdeles",
        -9.974355854301548
      ],
      [
        "ĠCentro",
        -9.975563701376794
      ],
      [
        "hipÃ³tese",
        -9.978630060608625
      ],
      [
        "Ġnovas",
        -9.97879746780545
      ],
      [
        "Ġcusto",
        -9.97902517363878
      ],
      [
        "gente",
        -9.979882727778037
      ],
      [
        "Ġsonora",
        -9.979908873291858
      ],
      [
        "Ġfundo",
        -9.980497994353124
      ],
      [
        "ĠPEC",
        -9.98138984943849
      ],
      [
        "ĠCampos",
        -9.981465380890976
      ],
      [
        "Ġnaquel",
        -9.981717503132574
      ],
      [
        "Ġsimples",
        -9.982581764054483
      ],
      [
        "entidades",
        -9.983817797058302
      ],
      [
        "ĠEXTRAORDINÃģRI",
        -9.983944370604402
      ],
      [
        "ĠVoto",
        -9.984061272784157
      ],
      [
        "aga",
        -9.985228880807078
      ],
      [
        "ĠPmdbP",
        -9.985638917812947
      ],
      [
        "rios",
        -9.98653287747408
      ],
      [
        "seguintes",
        -9.986571124743351
      ],
      [
        "tecnologia",
        -9.98692797354552
      ],
      [
        "NTE",
        -9.986998539758204
      ],
      [
        "Ġimposto",
        -9.987817064708556
      ],
      [
        "ĠAqui",
        -9.988285318565614
      ],
      [
        "Ãĵ",
        -9.989426354490089
      ],
      [
        "Ġajudar",
        -9.989483924275191
      ],
      [
        "Ġdeixo",
        -9.9900623148414
      ],
      [
        "ĠMaio",
        -9.990447886148472
      ],
      [
        "ung",
        -9.990701189303966
      ],
      [
        "audiÃªncia",
        -9.992014559295008
      ],
      [
        "Ġtribuna",
        -9.994687556242653
      ],
      [
        "pÃµe",
        -9.995621648668235
      ],
      [
        "SÃĥO",
        -9.99579186758803
      ],
      [
        "ĠLocal",
        -9.995951670008216
      ],
      [
        "Ġ53",
        -9.99608746305785
      ],
      [
        "ĠTh",
        -9.996193257406464
      ],
      [
        "ĠIta",
        -9.996691951214084
      ],
      [
        "Ġentrega",
        -9.99670235148962
      ],
      [
        "ham",
        -9.99756786051296
      ],
      [
        "Ñ",
        -9.999014828312628
      ],
      [
        "ĠninguÃ©m",
        -9.999214343267989
      ],
      [
        "Ġconquista",
        -10.000043266504123
      ],
      [
        "ĠvocÃªs",
        -10.00028561678212
      ],
      [
        "Ġcria",
        -10.00080563020716
      ],
      [
        "Hoje",
        -10.0014392298279
      ],
      [
        "verÃ£o",
        -10.001455030832954
      ],
      [
        "Ġdespes",
        -10.001987464865222
      ],
      [
        "ĠTodos",
        -10.003141049243194
      ],
      [
        "essÃ£o",
        -10.0037975791345
      ],
      [
        "eri",
        -10.004168605840633
      ],
      [
        "ĠIgreja",
        -10.005280124339304
      ],
      [
        "Ġvisto",
        -10.00593652473295
      ],
      [
        "Ġ1999",
        -10.00926244363953
      ],
      [
        "2004",
        -10.009346862603886
      ],
      [
        "Ġdiante",
        -10.009593384586433
      ],
      [
        "ĠterÃ¡",
        -10.011253203703887
      ],
      [
        "Ġfilhos",
        -10.011443983365565
      ],
      [
        "ĠadministraÃ§Ã£o",
        -10.011616086076172
      ],
      [
        "ĠLt",
        -10.01171085053569
      ],
      [
        "designado",
        -10.01268948634002
      ],
      [
        "Ġquer",
        -10.01341381733403
      ],
      [
        "CH",
        -10.013478374153095
      ],
      [
        "Ġespecialmente",
        -10.014185348591967
      ],
      [
        "ĠFranÃ§a",
        -10.014535987737297
      ],
      [
        "ĠorganizaÃ§Ã£o",
        -10.014605149041964
      ],
      [
        "ĠAnex",
        -10.016133168414814
      ],
      [
        "ĠSecretÃ¡rio",
        -10.016166457915093
      ],
      [
        "PFL",
        -10.016469069647568
      ],
      [
        "posto",
        -10.01674305842274
      ],
      [
        "ĠinstituiÃ§Ã£o",
        -10.016743788436546
      ],
      [
        "ĠCultura",
        -10.017236109341038
      ],
      [
        "Ġcontar",
        -10.017897612869753
      ],
      [
        "ĠlÃŃngua",
        -10.018915762178676
      ],
      [
        "Ġconhecida",
        -10.01988666055632
      ],
      [
        "Ġimporta",
        -10.02011711764441
      ],
      [
        "juridicidade",
        -10.020119707981006
      ],
      [
        "Ġdemonstra",
        -10.02017038957808
      ],
      [
        "cus",
        -10.020996720870048
      ],
      [
        "stÃµes",
        -10.021471264379072
      ],
      [
        "Ġconsegui",
        -10.021631569235971
      ],
      [
        "Tenho",
        -10.021913364001549
      ],
      [
        "Ġfutebol",
        -10.0221411186134
      ],
      [
        "ĠSrÂª",
        -10.022614479963138
      ],
      [
        "Ġlevar",
        -10.022662090809098
      ],
      [
        "ĠFEDERAL",
        -10.02297025494069
      ],
      [
        "ĠRJ",
        -10.023729254742204
      ],
      [
        "mÃ¡tica",
        -10.023973951939256
      ],
      [
        "ĠversÃ£o",
        -10.02404589217819
      ],
      [
        "ĠTemer",
        -10.025337529554092
      ],
      [
        "Ã´nica",
        -10.025883669967795
      ],
      [
        "seguida",
        -10.025892953410551
      ],
      [
        "ĠTer",
        -10.026459620674474
      ],
      [
        "Ġindica",
        -10.026705884048464
      ],
      [
        "ĠJÃºnior",
        -10.028107421203744
      ],
      [
        "URMA",
        -10.0283949956576
      ],
      [
        "ngel",
        -10.029455292902403
      ],
      [
        "ĠTerra",
        -10.029680981947651
      ],
      [
        "Ġnega",
        -10.030347645116226
      ],
      [
        "atriz",
        -10.03041434562107
      ],
      [
        "visÃ£o",
        -10.030911418846628
      ],
      [
        "Ġtermo",
        -10.03138833707131
      ],
      [
        "pur",
        -10.032423678491408
      ],
      [
        "Ġrevista",
        -10.03261514288554
      ],
      [
        "Ġbastante",
        -10.032708213021088
      ],
      [
        "GERAL",
        -10.033112346874752
      ],
      [
        "Ġfilha",
        -10.033538830325954
      ],
      [
        "proposiÃ§Ã£o",
        -10.033950732022925
      ],
      [
        "Ġrevela",
        -10.03403959084354
      ],
      [
        "lla",
        -10.034071215245223
      ],
      [
        "Ġrecebe",
        -10.03512308528939
      ],
      [
        "ĠRibeiro",
        -10.035338765335563
      ],
      [
        "assi",
        -10.036911728737358
      ],
      [
        "Ġ55",
        -10.037102157947778
      ],
      [
        "Ġsair",
        -10.037157306142625
      ],
      [
        "comunitÃ¡ria",
        -10.03722927233085
      ],
      [
        "Ġaprovada",
        -10.037244726596445
      ],
      [
        "Ġpublicado",
        -10.038227709647632
      ],
      [
        "Ġrealidade",
        -10.039536136070426
      ],
      [
        "conteÃºdo",
        -10.039835432944455
      ],
      [
        "Ġrecu",
        -10.039897691411948
      ],
      [
        "ĠprÃ³xima",
        -10.040930965845202
      ],
      [
        "Ġvale",
        -10.041144125590014
      ],
      [
        "afirmou",
        -10.041943432787594
      ],
      [
        "Ġgarantir",
        -10.042263745461344
      ],
      [
        "prisÃ£o",
        -10.042311351414956
      ],
      [
        "Ġfac",
        -10.042354195792518
      ],
      [
        "bancada",
        -10.042801033240323
      ],
      [
        "Ġpergunta",
        -10.042953203453688
      ],
      [
        "ĠBom",
        -10.044184405650066
      ],
      [
        "tenham",
        -10.045007138235782
      ],
      [
        "Ġapre",
        -10.045038277312402
      ],
      [
        "autorizaÃ§Ã£o",
        -10.046161898957504
      ],
      [
        "Ġnovamente",
        -10.04825567691752
      ],
      [
        "ĠDOS",
        -10.05115093434644
      ],
      [
        "Ġvenda",
        -10.051517106165198
      ],
      [
        "Ķ",
        -10.052066543333368
      ],
      [
        "fico",
        -10.052320786484914
      ],
      [
        "jovens",
        -10.05274642727589
      ],
      [
        "Ġcomum",
        -10.052996441155669
      ],
      [
        "Ġclasse",
        -10.054281616518882
      ],
      [
        "ĠLÃºci",
        -10.05485857789614
      ],
      [
        "Ġaplica",
        -10.056147685198786
      ],
      [
        "ĠSegunda",
        -10.056185203680387
      ],
      [
        "ĠJO",
        -10.056921211270796
      ],
      [
        "tudo",
        -10.057086967588688
      ],
      [
        "ĠJohn",
        -10.057384011653983
      ],
      [
        "ilson",
        -10.058800898300492
      ],
      [
        "âĢĳ",
        -10.0588616803465
      ],
      [
        "ĠWill",
        -10.059290625607767
      ],
      [
        "Ġinvestiga",
        -10.059533472971143
      ],
      [
        "ĠDiretor",
        -10.060613341326048
      ],
      [
        "Ġtrabalhar",
        -10.060640429184676
      ],
      [
        "pÃºblicos",
        -10.061123798729623
      ],
      [
        "ĠAprova",
        -10.06120377343572
      ],
      [
        "ontem",
        -10.06126850018186
      ],
      [
        "atuaÃ§Ã£o",
        -10.061621891787222
      ],
      [
        "Ġparticipar",
        -10.061818866326858
      ],
      [
        "ĠInformÃ¡tica",
        -10.062411560062952
      ],
      [
        "ĠAtÃ©",
        -10.062526088792527
      ],
      [
        "«",
        -10.06256685064916
      ],
      [
        "Ġcurso",
        -10.062850530967896
      ],
      [
        "ĠVale",
        -10.062897005558549
      ],
      [
        "Ġdispositivo",
        -10.06456422121653
      ],
      [
        "Ġ48",
        -10.064847968803026
      ],
      [
        "ĠTrata",
        -10.065297706864763
      ],
      [
        "ĠZe",
        -10.066401468171248
      ],
      [
        "Ġtraz",
        -10.066425958068972
      ],
      [
        "ĠeletrÃ´nico",
        -10.06789562754214
      ],
      [
        "dez",
        -10.068028054181651
      ],
      [
        "Ġ49",
        -10.068482389230034
      ],
      [
        "Ġcri",
        -10.0684944376013
      ],
      [
        "ĠtÃ©cnico",
        -10.069034990553272
      ],
      [
        "ĠcondiÃ§Ã£o",
        -10.06983157667127
      ],
      [
        "Ġpopular",
        -10.06996566576689
      ],
      [
        "emprego",
        -10.0712779968006
      ],
      [
        "ĠcabeÃ§a",
        -10.071578581039946
      ],
      [
        "ĠdireÃ§Ã£o",
        -10.072501385108207
      ],
      [
        "porÃ©",
        -10.072863011326788
      ],
      [
        "normas",
        -10.073426490927716
      ],
      [
        "]",
        -10.074071438703973
      ],
      [
        "Ġaparece",
        -10.074074053072913
      ],
      [
        "Ġmeus",
        -10.076333852747062
      ],
      [
        "omissÃµes",
        -10.076710843528756
      ],
      [
        "ÃĬNCIA",
        -10.07893816961593
      ],
      [
        "[",
        -10.079362258889295
      ],
      [
        "Ġdepende",
        -10.080475745485083
      ],
      [
        "Ġganho",
        -10.081021326401617
      ],
      [
        "HC",
        -10.08186190308522
      ],
      [
        "nais",
        -10.08211308203235
      ],
      [
        "Ġsuficiente",
        -10.084079845760463
      ],
      [
        "Ġoutorga",
        -10.085645364914038
      ],
      [
        "dÃŃvida",
        -10.08665663432224
      ],
      [
        "ĠEuropa",
        -10.086683229369344
      ],
      [
        "aqueles",
        -10.087042893431846
      ],
      [
        "Ġquadro",
        -10.087301369198537
      ],
      [
        "Ġbaixa",
        -10.0879241955339
      ],
      [
        "Ġvoltar",
        -10.087950145721903
      ],
      [
        "indÃºstria",
        -10.0891382085327
      ],
      [
        "Ġantigo",
        -10.08937064279848
      ],
      [
        "AgR",
        -10.08979029611593
      ],
      [
        "declaraÃ§Ã£o",
        -10.090208170459546
      ],
      [
        "ĠComplementar",
        -10.0902907062265
      ],
      [
        "Ġenca",
        -10.092473597028691
      ],
      [
        "entendimento",
        -10.092623777375763
      ],
      [
        "entidade",
        -10.093592020047629
      ],
      [
        "ĠEscola",
        -10.094331662001034
      ],
      [
        "å",
        -10.094526440976184
      ],
      [
        "Ġfaixa",
        -10.094646077788616
      ],
      [
        "ĠmÃ©dico",
        -10.094877983365452
      ],
      [
        "Ġprocura",
        -10.095100726487315
      ],
      [
        "razÃµes",
        -10.09562084283375
      ],
      [
        "entrada",
        -10.098398394623487
      ],
      [
        "DEPUTADO",
        -10.099513774904697
      ],
      [
        "atos",
        -10.09992724818415
      ],
      [
        "Ġministro",
        -10.100257308898856
      ],
      [
        "prestaÃ§Ã£o",
        -10.10037901342061
      ],
      [
        "Substitutivo",
        -10.100886449542331
      ],
      [
        "ĠNew",
        -10.101678065559618
      ],
      [
        "Ġencontrar",
        -10.101933278548366
      ],
      [
        "AntÃ´nio",
        -10.10218337727986
      ],
      [
        "Ġ1996",
        -10.102306158426254
      ],
      [
        "comissÃ£o",
        -10.102337800064396
      ],
      [
        "vÃŃtima",
        -10.10291047942683
      ],
      [
        "ĠPenal",
        -10.10322846728589
      ],
      [
        "ĠParanÃ¡",
        -10.104089417546083
      ],
      [
        "ĠportuguÃªs",
        -10.104455043471482
      ],
      [
        "Portaria",
        -10.104965298476026
      ],
      [
        "Certo",
        -10.10545949868776
      ],
      [
        "cular",
        -10.106506758552756
      ],
      [
        "Ġtais",
        -10.106592636760867
      ],
      [
        "Ġsite",
        -10.10681798936327
      ],
      [
        "Ġcolocar",
        -10.106904968564002
      ],
      [
        "Ġsete",
        -10.10764554035319
      ],
      [
        "MEN",
        -10.107857377828228
      ],
      [
        "+",
        -10.109118598673124
      ],
      [
        "Primeiro",
        -10.109593667044903
      ],
      [
        "ĠAM",
        -10.110971665071796
      ],
      [
        "Ġouvi",
        -10.111334996642343
      ],
      [
        "SÃ©rgi",
        -10.112879741624276
      ],
      [
        "conformidade",
        -10.113152801552276
      ],
      [
        "Ġ43",
        -10.113211448352985
      ],
      [
        "Ġdisco",
        -10.11386617657887
      ],
      [
        "RelatÃ³rio",
        -10.114160260745209
      ],
      [
        "Ġentrar",
        -10.114487408117055
      ],
      [
        "ĠvitÃ³ria",
        -10.115971014494791
      ],
      [
        "ciais",
        -10.116102173227803
      ],
      [
        "ĠBri",
        -10.116149199198595
      ],
      [
        "locais",
        -10.117104515678268
      ],
      [
        "Ġindependente",
        -10.117254983204417
      ],
      [
        "Ġaconteceu",
        -10.117408969214232
      ],
      [
        "Ġpermite",
        -10.117725771946716
      ],
      [
        "ĠmÃ¡",
        -10.119115768873712
      ],
      [
        "Ġcento",
        -10.119979839584058
      ],
      [
        "Ġparticular",
        -10.120636155864776
      ],
      [
        "Ġfar",
        -10.121436708445035
      ],
      [
        "Ġconsta",
        -10.122664155513364
      ],
      [
        "lizado",
        -10.123111757232657
      ],
      [
        "ĠTu",
        -10.123179140657957
      ],
      [
        "Ġacerca",
        -10.124744016588089
      ],
      [
        "2018",
        -10.124809836816
      ],
      [
        "Ġigual",
        -10.12589921519683
      ],
      [
        "Ġmedi",
        -10.12651401086907
      ],
      [
        "ĠEconÃ´mic",
        -10.126930686497856
      ],
      [
        "Ł",
        -10.127410394814431
      ],
      [
        "Ġrepresentante",
        -10.12796524784966
      ],
      [
        "talvez",
        -10.12893987039062
      ],
      [
        "Ġdemanda",
        -10.129169679528486
      ],
      [
        "cisÃ£o",
        -10.129924034703182
      ],
      [
        "hy",
        -10.129967464495827
      ],
      [
        "Ġluz",
        -10.130451808003352
      ],
      [
        "ĠtelevisÃ£o",
        -10.131360143477291
      ],
      [
        "Ġtornar",
        -10.131467143064588
      ],
      [
        "prejuÃŃz",
        -10.132275190312257
      ],
      [
        "ĠapresentaÃ§Ã£o",
        -10.132509993898717
      ],
      [
        "veio",
        -10.132571140731772
      ],
      [
        "Ġinforma",
        -10.13323649009132
      ],
      [
        "ficado",
        -10.135113800842143
      ],
      [
        "OfÃŃci",
        -10.136682788585498
      ],
      [
        "ÃŃstico",
        -10.137103373300436
      ],
      [
        "ĠDep",
        -10.137474436834284
      ],
      [
        "Ġbaixo",
        -10.137655604020347
      ],
      [
        "destinada",
        -10.138235201599644
      ],
      [
        "Ġusado",
        -10.13860365730488
      ],
      [
        "Ġtomar",
        -10.139764962174498
      ],
      [
        "Ġcomercial",
        -10.1398596760883
      ],
      [
        "Ġdiferente",
        -10.13986990914066
      ],
      [
        "Ġregular",
        -10.140409185114033
      ],
      [
        "ĠAcre",
        -10.14071141336452
      ],
      [
        "Ġabertura",
        -10.14107381019402
      ],
      [
        "Ġcontinuar",
        -10.1424234802449
      ],
      [
        "ĠexperiÃªncia",
        -10.14294587745167
      ],
      [
        "ĠvÃª",
        -10.14317283617648
      ],
      [
        "ĠAP",
        -10.14335479942578
      ],
      [
        "ĠComunitÃ¡ri",
        -10.143461296075888
      ],
      [
        "ĠcarÃ¡ter",
        -10.143861796123318
      ],
      [
        "arÃ¡grafo",
        -10.144595030032756
      ],
      [
        "Ġdessas",
        -10.145017968568798
      ],
      [
        "Ġtratar",
        -10.145713435807334
      ],
      [
        "ĠdifÃŃcil",
        -10.145723103108702
      ],
      [
        "Ġantiga",
        -10.147045679061186
      ],
      [
        "PRB",
        -10.147220011215373
      ],
      [
        "cÃ³pia",
        -10.148294970023608
      ],
      [
        "ĠdistribuiÃ§Ã£o",
        -10.148360216094854
      ],
      [
        "Ġaltera",
        -10.15038606219195
      ],
      [
        "Ġtime",
        -10.151335859259406
      ],
      [
        "ker",
        -10.151368213011322
      ],
      [
        "Ġfonte",
        -10.151490754817694
      ],
      [
        "Ġpais",
        -10.151514349142865
      ],
      [
        "ĠTrans",
        -10.151566412029156
      ],
      [
        "ĠPROC",
        -10.151866567357123
      ],
      [
        "Ġbens",
        -10.15234796758725
      ],
      [
        "ĠPOR",
        -10.152375341097404
      ],
      [
        "Ġmulta",
        -10.15247127263557
      ],
      [
        "Ġdireta",
        -10.15372789032609
      ],
      [
        "manutenÃ§Ã£o",
        -10.15498289204214
      ],
      [
        "Ġgera",
        -10.155279565052894
      ],
      [
        "atrÃ¡s",
        -10.155744297177463
      ],
      [
        "ĠPARA",
        -10.157126198500997
      ],
      [
        "Ã¢nia",
        -10.15864324790888
      ],
      [
        "provisÃ³ria",
        -10.15867903617757
      ],
      [
        "Ġinvesti",
        -10.159816767955316
      ],
      [
        "ĠQuer",
        -10.16058395966481
      ],
      [
        "ĠCentral",
        -10.162370001202184
      ],
      [
        "Ġconversa",
        -10.162794245271698
      ],
      [
        "Ġpequena",
        -10.16332323631858
      ],
      [
        "regiÃµes",
        -10.164232685762938
      ],
      [
        "favorÃ¡vel",
        -10.164548675380145
      ],
      [
        "ĠprÃ©",
        -10.164911992315623
      ],
      [
        "legais",
        -10.166751828257148
      ],
      [
        "|",
        -10.167732516472908
      ],
      [
        "Ġinstitui",
        -10.16812909937819
      ],
      [
        "MG",
        -10.168450584851724
      ],
      [
        "referido",
        -10.169677292407997
      ],
      [
        "ĠPrefeit",
        -10.170033585478048
      ],
      [
        "PSC",
        -10.17080309215315
      ],
      [
        "ĠGal",
        -10.171491544477336
      ],
      [
        "apesar",
        -10.171947804747038
      ],
      [
        "Å",
        -10.17272708457553
      ],
      [
        "Ġcolega",
        -10.172730346207784
      ],
      [
        "utilizaÃ§Ã£o",
        -10.173098306523206
      ],
      [
        "estavam",
        -10.173219346539415
      ],
      [
        "ĠProcesso",
        -10.173796361117054
      ],
      [
        "Ġamigos",
        -10.17540528802667
      ],
      [
        "Ġjogos",
        -10.175822047964902
      ],
      [
        "Apoio",
        -10.176911110032636
      ],
      [
        "Ġdecreta",
        -10.177859151671056
      ],
      [
        "Ġindi",
        -10.178589697524394
      ],
      [
        "Celso",
        -10.178800774184396
      ],
      [
        "ĠQual",
        -10.17923657334674
      ],
      [
        "Ġchama",
        -10.179265781576836
      ],
      [
        "eleiÃ§Ãµes",
        -10.179598935880424
      ],
      [
        "leiÃ§Ã£o",
        -10.179817602926398
      ],
      [
        "Ġpasso",
        -10.180769811895647
      ],
      [
        "ĠRob",
        -10.180795247000114
      ],
      [
        "ĠCer",
        -10.181670555145
      ],
      [
        "Ä",
        -10.182040234005845
      ],
      [
        "ĠAC",
        -10.182548044496876
      ],
      [
        "ĠPlano",
        -10.183277463906618
      ],
      [
        "Ġ45",
        -10.18338646446212
      ],
      [
        "dizendo",
        -10.183816875261416
      ],
      [
        "efeitos",
        -10.184296257510969
      ],
      [
        "Ġtramita",
        -10.184443049882926
      ],
      [
        "Ġpermitir",
        -10.185180963230565
      ],
      [
        "ĠSouza",
        -10.18522671330603
      ],
      [
        "Ġgosta",
        -10.18608137247387
      ],
      [
        "Ġreceita",
        -10.186895146036866
      ],
      [
        "ausÃªncia",
        -10.187056764262609
      ],
      [
        "motivo",
        -10.187148563211158
      ],
      [
        "ĠPROPOSI",
        -10.187491842709418
      ],
      [
        "ľ",
        -10.187611715377455
      ],
      [
        "Ġperto",
        -10.18789364693867
      ],
      [
        "diretamente",
        -10.188015771020035
      ],
      [
        "Ġdocumentos",
        -10.188127732797286
      ],
      [
        "Ġperda",
        -10.18852099797436
      ],
      [
        "±",
        -10.188657262297864
      ],
      [
        "QUE",
        -10.188731704178451
      ],
      [
        "ĠTri",
        -10.189078075192697
      ],
      [
        "militares",
        -10.19046502525264
      ],
      [
        "Ġmelhores",
        -10.190533956963057
      ],
      [
        "Ġcapaz",
        -10.191012458301923
      ],
      [
        "ĠGomes",
        -10.191207994735974
      ],
      [
        "ĠConced",
        -10.19130072809809
      ],
      [
        "Ġ80",
        -10.192668182302308
      ],
      [
        "Ġdiminui",
        -10.19318649003406
      ],
      [
        "ĠGrosso",
        -10.193447445133646
      ],
      [
        "Ġinterior",
        -10.193827803641284
      ],
      [
        "ĠMunicipal",
        -10.194503680874837
      ],
      [
        "Ġfazem",
        -10.1946596633914
      ],
      [
        "ĠoperaÃ§Ã£o",
        -10.194826522891368
      ],
      [
        "ardo",
        -10.194965638392748
      ],
      [
        "ĠMinistra",
        -10.19516457829802
      ],
      [
        "ĠcanÃ§Ã£o",
        -10.195355940104136
      ],
      [
        "Ġregra",
        -10.196017070279735
      ],
      [
        "ĠLopes",
        -10.1961078686559
      ],
      [
        "Estamos",
        -10.19649613706275
      ],
      [
        "CARLOS",
        -10.198380284809
      ],
      [
        "ĠMilitar",
        -10.198498988917128
      ],
      [
        "500",
        -10.199307527016911
      ],
      [
        "ĠRocha",
        -10.199378334295025
      ],
      [
        "inclusÃ£o",
        -10.200236612386409
      ],
      [
        "Ġcerta",
        -10.200534045357497
      ],
      [
        "Ġilha",
        -10.20055892676973
      ],
      [
        "Ġseguir",
        -10.200924465379025
      ],
      [
        "ĠAli",
        -10.203177255216184
      ],
      [
        "ĠvÃŃdeo",
        -10.203366273251742
      ],
      [
        "Ġadministrativa",
        -10.203966723084523
      ],
      [
        "Ġdiscutir",
        -10.204573737954789
      ],
      [
        "Ġconsiderada",
        -10.2052406729163
      ],
      [
        "Ġrealizar",
        -10.205256096874232
      ],
      [
        "operaÃ§Ãµes",
        -10.206348015453786
      ],
      [
        "ĠlanÃ§amento",
        -10.206975407595973
      ],
      [
        "Ġmundial",
        -10.208669766325166
      ],
      [
        "ĠLista",
        -10.209571245723076
      ],
      [
        "ĠpeÃ§o",
        -10.210883560845245
      ],
      [
        "Ġdecidi",
        -10.210931772466251
      ],
      [
        "Ġ1995",
        -10.211146356323956
      ],
      [
        "Ġoito",
        -10.211350723042043
      ],
      [
        "Ġaprova",
        -10.212177792532673
      ],
      [
        "ĠChi",
        -10.212349434842643
      ],
      [
        "alunos",
        -10.213043015510202
      ],
      [
        "Ġderrota",
        -10.21382796100534
      ],
      [
        "Ġcompromisso",
        -10.21387825193581
      ],
      [
        "Pausa",
        -10.215223848412828
      ],
      [
        "cat",
        -10.215507528581393
      ],
      [
        "ĠorÃ§amentÃ¡ria",
        -10.216220942729594
      ],
      [
        "Ġlocalizado",
        -10.216439645907345
      ],
      [
        "ĠPorque",
        -10.21755167027021
      ],
      [
        "Ġmetros",
        -10.217638847163796
      ],
      [
        "ĠCatarina",
        -10.218350261728284
      ],
      [
        "Ġacabou",
        -10.218368499794195
      ],
      [
        "ĠPal",
        -10.219039875018373
      ],
      [
        "ĠmÃ©dio",
        -10.220396226575664
      ],
      [
        "Ġjovem",
        -10.220685325053324
      ],
      [
        "Ġopera",
        -10.221207641355454
      ],
      [
        "xclusividade",
        -10.221286930736914
      ],
      [
        "ocalidades",
        -10.221844958816336
      ],
      [
        "Ġrelativa",
        -10.221993904167483
      ],
      [
        "Con",
        -10.22224964048759
      ],
      [
        "ney",
        -10.222347958069204
      ],
      [
        "ĠVeja",
        -10.222978186836816
      ],
      [
        "INA",
        -10.223727033209617
      ],
      [
        "ĠReal",
        -10.224810689940051
      ],
      [
        "quer",
        -10.225694362162873
      ],
      [
        "Ġquarto",
        -10.225697564060706
      ],
      [
        "ĠPan",
        -10.225730465210711
      ],
      [
        "exposto",
        -10.226202489211976
      ],
      [
        "Ãºmula",
        -10.226603886124284
      ],
      [
        "privada",
        -10.22665710335574
      ],
      [
        "Ġpropriedade",
        -10.227484688527037
      ],
      [
        "Apesar",
        -10.228847838895057
      ],
      [
        "esforÃ§o",
        -10.22894661825613
      ],
      [
        "Ġconseguiu",
        -10.229396363843795
      ],
      [
        "ĠdiferenÃ§a",
        -10.230200134715764
      ],
      [
        "Ġtentar",
        -10.230468988938831
      ],
      [
        "americana",
        -10.23134724879901
      ],
      [
        "ĠProfessor",
        -10.23210664996822
      ],
      [
        "Ġinterna",
        -10.232747516300552
      ],
      [
        "ĠLUIZ",
        -10.233463746455763
      ],
      [
        "Ġescolas",
        -10.233715121870118
      ],
      [
        "estabelecimento",
        -10.23409446527794
      ],
      [
        "Ġcompleta",
        -10.234421261541309
      ],
      [
        "Ġtroca",
        -10.234505806639431
      ],
      [
        "Ġfinanciamento",
        -10.235318185525747
      ],
      [
        "Ġimprensa",
        -10.23557088997237
      ],
      [
        "Ġquantidade",
        -10.235648939246111
      ],
      [
        "ĠCidade",
        -10.23677610972509
      ],
      [
        "Ġ1991",
        -10.237330398105936
      ],
      [
        "ĠCONSTITUIÃĩÃĥO",
        -10.238520060020708
      ],
      [
        "Ġpaga",
        -10.238733893220378
      ],
      [
        "Ġlimite",
        -10.23875079526844
      ],
      [
        "irÃ¡",
        -10.23882976010359
      ],
      [
        "usada",
        -10.239419387092312
      ],
      [
        "plenÃ¡rio",
        -10.240485319350976
      ],
      [
        "daquele",
        -10.240554044662826
      ],
      [
        "ric",
        -10.240709422592372
      ],
      [
        "Ġquarta",
        -10.240985284477237
      ],
      [
        "falando",
        -10.241440793625438
      ],
      [
        "ĠFU",
        -10.241549098893907
      ],
      [
        "Ã¡reas",
        -10.241578773665983
      ],
      [
        "ĠSabe",
        -10.242063313019251
      ],
      [
        "zinho",
        -10.243313978072202
      ],
      [
        "constitucionai",
        -10.243322168602733
      ],
      [
        "uplente",
        -10.243650872969702
      ],
      [
        "ejeiÃ§Ã£o",
        -10.245055250027685
      ],
      [
        "Ġservi",
        -10.24521626840359
      ],
      [
        "ĠTemo",
        -10.2452352918623
      ],
      [
        "Ġestudos",
        -10.245577804084691
      ],
      [
        "ĠFica",
        -10.24603529378046
      ],
      [
        "PPS",
        -10.24689664928243
      ],
      [
        "ĠMaranhÃ£o",
        -10.247786203283962
      ],
      [
        "ĠRei",
        -10.247800135643464
      ],
      [
        "Ġhonra",
        -10.24811227058414
      ],
      [
        "mil",
        -10.248434928054513
      ],
      [
        "Ġlocalizada",
        -10.24870147715754
      ],
      [
        "ĠAlmeida",
        -10.24908640267418
      ],
      [
        "Ġfixa",
        -10.249864016667384
      ],
      [
        "benefÃŃcio",
        -10.250062484209332
      ],
      [
        "ĠameaÃ§a",
        -10.250508112748497
      ],
      [
        "Ġpagar",
        -10.251223101224138
      ],
      [
        "ĠParÃ¡",
        -10.252086232605226
      ],
      [
        "ĠPelo",
        -10.25230971451946
      ],
      [
        "burg",
        -10.252866755080108
      ],
      [
        "Ġ52",
        -10.252926317141885
      ],
      [
        "Ġcomigo",
        -10.253272592534575
      ],
      [
        "ĠcrianÃ§a",
        -10.253318227605652
      ],
      [
        "Ġexatamente",
        -10.25505782379454
      ],
      [
        "Ġescrito",
        -10.25539262116341
      ],
      [
        "ĠUSP",
        -10.255441214010249
      ],
      [
        "ĠZa",
        -10.255597945613031
      ],
      [
        "OSÃī",
        -10.256160474002018
      ],
      [
        "Ġganha",
        -10.25668785655847
      ],
      [
        "Ġinicial",
        -10.257047046312548
      ],
      [
        "ĠRodrigues",
        -10.25822171332709
      ],
      [
        "Ġassumi",
        -10.259145069399654
      ],
      [
        "Ġpermiti",
        -10.259388199462384
      ],
      [
        "Ġpior",
        -10.260241013097152
      ],
      [
        "Ġunidades",
        -10.260911755628577
      ],
      [
        "ĠPubli",
        -10.261169833408696
      ],
      [
        "mÃ¡ximo",
        -10.261418676957112
      ],
      [
        "ĠPri",
        -10.26176923944098
      ],
      [
        "ĠAh",
        -10.26207979857942
      ],
      [
        "ĠGrupo",
        -10.262107191778991
      ],
      [
        "Ġutilizado",
        -10.264138628964556
      ],
      [
        "julgado",
        -10.264948611075717
      ],
      [
        "Ġ119",
        -10.265902733372997
      ],
      [
        "Ġhaja",
        -10.266095877918444
      ],
      [
        "ĠCarvalho",
        -10.26668943108606
      ],
      [
        "Ġacontece",
        -10.267708823359992
      ],
      [
        "RegiÃ£o",
        -10.26775535908882
      ],
      [
        "ĠToda",
        -10.268628653637707
      ],
      [
        "ANDO",
        -10.269277612549962
      ],
      [
        "existente",
        -10.269666638734568
      ],
      [
        "bus",
        -10.27027082029205
      ],
      [
        "ambos",
        -10.270524784841037
      ],
      [
        "ĠOnde",
        -10.272052047760264
      ],
      [
        "LideranÃ§a",
        -10.272401448180052
      ],
      [
        "bairro",
        -10.273067469386916
      ],
      [
        "corrupÃ§Ã£o",
        -10.27379422055504
      ],
      [
        "duto",
        -10.274302928994851
      ],
      [
        "nÂº",
        -10.274544444996948
      ],
      [
        "ĠcontribuiÃ§Ã£o",
        -10.275083813091706
      ],
      [
        "criada",
        -10.275576855367058
      ],
      [
        "NR",
        -10.276564721052804
      ],
      [
        "ĠMinha",
        -10.27735406685386
      ],
      [
        "chefe",
        -10.277655441560436
      ],
      [
        "Ġven",
        -10.277891204857225
      ],
      [
        "Ġhumano",
        -10.278560490794824
      ],
      [
        "ĠSuper",
        -10.279151043607383
      ],
      [
        "Ġrece",
        -10.279937879556291
      ],
      [
        "ĠDaniel",
        -10.281546563543513
      ],
      [
        "Ġresultados",
        -10.282125288875797
      ],
      [
        "Ġencontro",
        -10.28213907113785
      ],
      [
        "ĠgÃªnero",
        -10.283251335861369
      ],
      [
        "Ġvive",
        -10.28394694879858
      ],
      [
        "ĠLEGISLATIV",
        -10.28395395292584
      ],
      [
        "missÃµes",
        -10.28451040057242
      ],
      [
        "ĠhistÃ³rico",
        -10.284526564103585
      ],
      [
        "Ġestadual",
        -10.285498070303698
      ],
      [
        "Ġdeputado",
        -10.286339642997124
      ],
      [
        "nacionais",
        -10.286863097850654
      ],
      [
        "ENTE",
        -10.287531932238888
      ],
      [
        "distrito",
        -10.289208689624829
      ],
      [
        "ĠReino",
        -10.289797223800642
      ],
      [
        "somos",
        -10.28999494589254
      ],
      [
        "Ġevitar",
        -10.29006885304204
      ],
      [
        "atualmente",
        -10.290164582758678
      ],
      [
        "Ġviola",
        -10.290626828962491
      ],
      [
        "Ġvivo",
        -10.29080388365687
      ],
      [
        "ĠRIO",
        -10.291341532459086
      ],
      [
        "raÃ§a",
        -10.292129226923022
      ],
      [
        "ĠpolÃŃcia",
        -10.292819599233958
      ],
      [
        "ĠAndrÃ©",
        -10.293561322292527
      ],
      [
        "regras",
        -10.29538695197008
      ],
      [
        "ĠjurÃŃdico",
        -10.295550818545609
      ],
      [
        "ĠNordeste",
        -10.296015444542968
      ],
      [
        "AmazÃ´nia",
        -10.297307009583932
      ],
      [
        "Ġfigura",
        -10.29739447219428
      ],
      [
        "ĠQUE",
        -10.297517779509086
      ],
      [
        "Ġdada",
        -10.29760571465681
      ],
      [
        "ĠAugusto",
        -10.298030031746029
      ],
      [
        "Ġdocumento",
        -10.298238226277627
      ],
      [
        "Estadual",
        -10.2982696116786
      ],
      [
        "Talvez",
        -10.29868355572212
      ],
      [
        "ĠKo",
        -10.298995655388085
      ],
      [
        "impacto",
        -10.299967828116834
      ],
      [
        "ĠcidadÃ£o",
        -10.301413251879625
      ],
      [
        "Figueiredo",
        -10.301721408844156
      ],
      [
        "ĠJU",
        -10.301802769161082
      ],
      [
        "requisitos",
        -10.302023711239173
      ],
      [
        "Fazenda",
        -10.30238316793082
      ],
      [
        "ĠFamÃŃlia",
        -10.302656532207934
      ],
      [
        "Ġmerece",
        -10.302908255702151
      ],
      [
        "ĠWikipÃ©dia",
        -10.303478074750217
      ],
      [
        "ĠDECRET",
        -10.303665726243446
      ],
      [
        "ĠUS",
        -10.303708253034092
      ],
      [
        "JudiciÃ¡ri",
        -10.304373186171809
      ],
      [
        "Ġjudicial",
        -10.304831470697016
      ],
      [
        "ĠNelson",
        -10.304883786506696
      ],
      [
        "vemos",
        -10.305291006352723
      ],
      [
        "ļ",
        -10.305330186704548
      ],
      [
        "bon",
        -10.305568734012953
      ],
      [
        "Ġespe",
        -10.306390253565606
      ],
      [
        "ĠSeguranÃ§a",
        -10.307293116181702
      ],
      [
        "publicada",
        -10.307439553637831
      ],
      [
        "Teixeira",
        -10.307565428913952
      ],
      [
        "Ġespera",
        -10.307677170530702
      ],
      [
        "Ġdaquel",
        -10.308031123805124
      ],
      [
        "Ġreserva",
        -10.30843938188236
      ],
      [
        "ĠcomeÃ§ar",
        -10.310141996953067
      ],
      [
        "ĠepisÃ³dio",
        -10.31066197110816
      ],
      [
        "Ġpedir",
        -10.311259856402598
      ],
      [
        "DiscussÃ£o",
        -10.313505327959824
      ],
      [
        "Ġcentral",
        -10.31392709877367
      ],
      [
        "Ġgrau",
        -10.314712159575048
      ],
      [
        "ĠRS",
        -10.315817994989969
      ],
      [
        "hon",
        -10.315987615116606
      ],
      [
        "candidato",
        -10.31627827555138
      ],
      [
        "ĠPER",
        -10.316615159466132
      ],
      [
        "Ġestabelecer",
        -10.317517328650904
      ],
      [
        "Ġsala",
        -10.318749188961387
      ],
      [
        "ick",
        -10.31972942208846
      ],
      [
        "respectivo",
        -10.319999493046344
      ],
      [
        "Ġvende",
        -10.320504591823514
      ],
      [
        "zen",
        -10.320986834165378
      ],
      [
        "levou",
        -10.321027184834092
      ],
      [
        "Ġpratica",
        -10.321255105711904
      ],
      [
        "Ġespecifica",
        -10.321337899757092
      ],
      [
        "Ġ01",
        -10.321376796012029
      ],
      [
        "iria",
        -10.321640786357683
      ],
      [
        "Ġanimais",
        -10.322626030631346
      ],
      [
        "preÃ§os",
        -10.32278732541965
      ],
      [
        "ĠFutebol",
        -10.322933628626116
      ],
      [
        "Ġmesa",
        -10.323563747614344
      ],
      [
        "Ġ1988",
        -10.323684714781333
      ],
      [
        "ĠDesde",
        -10.32538836094695
      ],
      [
        "ĠChina",
        -10.325779055212308
      ],
      [
        "ĠOlÃ¡",
        -10.326974110450646
      ],
      [
        "ĩ",
        -10.327133766623325
      ],
      [
        "Ġestilo",
        -10.327443003329618
      ],
      [
        "abaixo",
        -10.328786801821014
      ],
      [
        "nÃ¡rio",
        -10.329340163943778
      ],
      [
        "Ġmanda",
        -10.329453612040007
      ],
      [
        "Ġexigi",
        -10.329511491666164
      ],
      [
        "ĠSÃ¡",
        -10.330731886543616
      ],
      [
        "avaliaÃ§Ã£o",
        -10.330755844382924
      ],
      [
        "ĠAlberto",
        -10.33250865503076
      ],
      [
        "Ġocupa",
        -10.333272986803784
      ],
      [
        "ĠBoa",
        -10.334145583767596
      ],
      [
        "ĠNossa",
        -10.334153249431427
      ],
      [
        "á",
        -10.334198854560388
      ],
      [
        "licitante",
        -10.33462446691641
      ],
      [
        "ĠciÃªncia",
        -10.33664475904821
      ],
      [
        "Ġfeliz",
        -10.337370394926666
      ],
      [
        "possam",
        -10.337504832685603
      ],
      [
        "ĠMG",
        -10.33771116752427
      ],
      [
        "ĠPolÃŃtica",
        -10.337850322570064
      ],
      [
        "Ġentrevista",
        -10.338648164491415
      ],
      [
        "ĠDom",
        -10.33984521853329
      ],
      [
        "ĠLuÃŃs",
        -10.340235788627496
      ],
      [
        "Ġpretende",
        -10.340654319180723
      ],
      [
        "NÃ£o",
        -10.341109280226648
      ],
      [
        "Ġface",
        -10.341158497114009
      ],
      [
        "Ġparticipa",
        -10.341337629064574
      ],
      [
        "ĠMundo",
        -10.341381780536866
      ],
      [
        "Ġapoia",
        -10.341712717755836
      ],
      [
        "ĠAlemanha",
        -10.341834228008285
      ],
      [
        "Ġoferece",
        -10.342025673583477
      ],
      [
        "Ġmudar",
        -10.342508222921571
      ],
      [
        "Ġefetiva",
        -10.342968730315718
      ],
      [
        "ĠRequer",
        -10.343204350307404
      ],
      [
        "ĠGeral",
        -10.344047137315552
      ],
      [
        "Ġenfrenta",
        -10.344620755780094
      ],
      [
        "Ġacidente",
        -10.34499598232068
      ],
      [
        "Ġexplorar",
        -10.34586378754923
      ],
      [
        "EMENTA",
        -10.346863630006368
      ],
      [
        "oeste",
        -10.347013587423303
      ],
      [
        "Ġinstru",
        -10.347385812166296
      ],
      [
        "Ġdemocracia",
        -10.347645433914938
      ],
      [
        "ling",
        -10.34842397643278
      ],
      [
        "Ġfui",
        -10.349147020455137
      ],
      [
        "Ġinicia",
        -10.349339267799264
      ],
      [
        "tivesse",
        -10.349757457412815
      ],
      [
        "Ġvice",
        -10.349880305633452
      ],
      [
        "relaÃ§Ãµes",
        -10.350557622126306
      ],
      [
        "Ġrural",
        -10.351355300053877
      ],
      [
        "ĠLisboa",
        -10.351448377241525
      ],
      [
        "ĠalcanÃ§",
        -10.351659008316547
      ],
      [
        "EUA",
        -10.351813067806123
      ],
      [
        "ĠfunÃ§Ãµes",
        -10.352186137129625
      ],
      [
        "Ġambiental",
        -10.352473991552152
      ],
      [
        "PSL",
        -10.35260386711468
      ],
      [
        "ĠmanhÃ£",
        -10.352692849945678
      ],
      [
        "Ġconseguir",
        -10.353310114160546
      ],
      [
        "ĠJesus",
        -10.35372161596332
      ],
      [
        "Ġatender",
        -10.353942558064324
      ],
      [
        "tomada",
        -10.354290260824392
      ],
      [
        "ĠAlexandre",
        -10.354497354042772
      ],
      [
        "virtud",
        -10.35528753501267
      ],
      [
        "ĠDepu",
        -10.356026767199074
      ],
      [
        "Geraldo",
        -10.356066146881409
      ],
      [
        "Ġfesta",
        -10.356082262107376
      ],
      [
        "PrevidÃªncia",
        -10.356404188045522
      ],
      [
        "errado",
        -10.356430630226804
      ],
      [
        "Ġtorno",
        -10.356765085188318
      ],
      [
        "Ġlido",
        -10.35766069923116
      ],
      [
        "FundaÃ§Ã£o",
        -10.357669013650312
      ],
      [
        "aÃ§a",
        -10.357820934958063
      ],
      [
        "Ġjornalista",
        -10.358332932837998
      ],
      [
        "deficiÃªncia",
        -10.358661841303238
      ],
      [
        "Ï",
        -10.359007204034166
      ],
      [
        "Ġinvestimento",
        -10.359163332433566
      ],
      [
        "fronteira",
        -10.359200179537298
      ],
      [
        "ĠMil",
        -10.359994909930704
      ],
      [
        "Ġimagem",
        -10.3619057350571
      ],
      [
        "Ġsinto",
        -10.362032060146207
      ],
      [
        "Ġprocedimento",
        -10.362619227186634
      ],
      [
        "decreto",
        -10.362704600516947
      ],
      [
        "Ġunidade",
        -10.36291073242545
      ],
      [
        "CearÃ¡",
        -10.363056260211538
      ],
      [
        "ÃŃndice",
        -10.363506905529002
      ],
      [
        "Ġjoga",
        -10.364018115627148
      ],
      [
        "ĠArthur",
        -10.364235914224748
      ],
      [
        "ĠART",
        -10.364277178650068
      ],
      [
        "Ġestes",
        -10.3649749991248
      ],
      [
        "ĠSerra",
        -10.365266447314468
      ],
      [
        "geraÃ§Ã£o",
        -10.365776373778472
      ],
      [
        "apresentou",
        -10.366082191896904
      ],
      [
        "ĠAto",
        -10.366221634344122
      ],
      [
        "Ġconcurso",
        -10.366796745996172
      ],
      [
        "ĠrÃ¡pido",
        -10.366969182475216
      ],
      [
        "ĠAgrav",
        -10.367184469783584
      ],
      [
        "imagens",
        -10.367214927016786
      ],
      [
        "nunciou",
        -10.367300859427356
      ],
      [
        "trecho",
        -10.368519207731666
      ],
      [
        "liminar",
        -10.368789811652915
      ],
      [
        "Ġpalavras",
        -10.368993567163413
      ],
      [
        "alteraÃ§Ã£o",
        -10.369396577427684
      ],
      [
        "privado",
        -10.370331418957182
      ],
      [
        "Departamento",
        -10.370578312240797
      ],
      [
        "ĠRede",
        -10.373726527259
      ],
      [
        "ĠFra",
        -10.374497600362217
      ],
      [
        "evoluÃ§Ã£o",
        -10.374955346011962
      ],
      [
        "conflito",
        -10.37623381322093
      ],
      [
        "ĠLegislativa",
        -10.376669044467702
      ],
      [
        "Ġexpressa",
        -10.377601854169487
      ],
      [
        "exigÃªncia",
        -10.378038020609006
      ],
      [
        "Ġ62",
        -10.378170506093012
      ],
      [
        "Ġpobre",
        -10.379159432403425
      ],
      [
        "relativo",
        -10.379737466740568
      ],
      [
        "ĠMichel",
        -10.380201364973006
      ],
      [
        "Ġtermina",
        -10.380470703790458
      ],
      [
        "Ġigreja",
        -10.380607270436869
      ],
      [
        "Ġtrabalha",
        -10.381566662109456
      ],
      [
        "Ġconceito",
        -10.381608942703553
      ],
      [
        "referida",
        -10.381610534070154
      ],
      [
        "ĠopiniÃ£o",
        -10.381754306403275
      ],
      [
        "advogado",
        -10.381817548255588
      ],
      [
        "Ġpromover",
        -10.381834662179244
      ],
      [
        "Ġfinanceiro",
        -10.382113460553652
      ],
      [
        "ĠDESPACH",
        -10.382238075608711
      ],
      [
        "atu",
        -10.38462332442347
      ],
      [
        "ĠVai",
        -10.3847638320311
      ],
      [
        "ĠpeÃ§a",
        -10.385385794938106
      ],
      [
        "2020",
        -10.386018235711388
      ],
      [
        "Ġetc",
        -10.386335675355394
      ],
      [
        "Ġcur",
        -10.386459463141168
      ],
      [
        "ADA",
        -10.387617560734306
      ],
      [
        "Ġguarda",
        -10.387784313756327
      ],
      [
        "Ī",
        -10.387945921482231
      ],
      [
        "ĠMarcos",
        -10.388310805048151
      ],
      [
        "Ġtenta",
        -10.388406308302857
      ],
      [
        "Ġentender",
        -10.389298214472696
      ],
      [
        "Ġconsegue",
        -10.390085380238023
      ],
      [
        "Ġamericano",
        -10.39013225237879
      ],
      [
        "ĠPp",
        -10.391503514598355
      ],
      [
        "doenÃ§a",
        -10.39151316225947
      ],
      [
        "urgÃªncia",
        -10.391707912683271
      ],
      [
        "Ġrenova",
        -10.391888211614722
      ],
      [
        "ĠorientaÃ§Ã£o",
        -10.392000010851362
      ],
      [
        "leitura",
        -10.39208914731666
      ],
      [
        "pÃºblicas",
        -10.392660058129763
      ],
      [
        "ĠVista",
        -10.392877939162156
      ],
      [
        "Ġbanco",
        -10.393497426157694
      ],
      [
        "retorno",
        -10.394207725945137
      ],
      [
        "½",
        -10.394571730967032
      ],
      [
        "PÃ¡gina",
        -10.39476554244827
      ],
      [
        "havend",
        -10.394968137934844
      ],
      [
        "Jogos",
        -10.39525175230206
      ],
      [
        "Ġanti",
        -10.3957528000046
      ],
      [
        "Ġataque",
        -10.39603516761622
      ],
      [
        "ĠCur",
        -10.396756857591242
      ],
      [
        "ĠParis",
        -10.396871264758826
      ],
      [
        "ĠdenÃºncia",
        -10.397479953401383
      ],
      [
        "mann",
        -10.397892161785
      ],
      [
        "Ġsai",
        -10.397941146055484
      ],
      [
        "juros",
        -10.39806785181132
      ],
      [
        "www",
        -10.398737656752246
      ],
      [
        "ĠAltera",
        -10.399441821801233
      ],
      [
        "ĠRodrigo",
        -10.39994049167156
      ],
      [
        "ResoluÃ§Ã£o",
        -10.399951058370942
      ],
      [
        "ĠjustiÃ§a",
        -10.40003382247516
      ],
      [
        "ĠOUTR",
        -10.401031781735828
      ],
      [
        "Ġreclama",
        -10.401100021891684
      ],
      [
        "sidente",
        -10.401861253207558
      ],
      [
        "ĠsaÃŃd",
        -10.401930832537689
      ],
      [
        "substitutivo",
        -10.402305129019108
      ],
      [
        "ĠNA",
        -10.40234376832584
      ],
      [
        "cir",
        -10.40261638024877
      ],
      [
        "ĠQuanto",
        -10.402741679539965
      ],
      [
        "¾",
        -10.403730195484174
      ],
      [
        "lÃ¢ndia",
        -10.40383347554807
      ],
      [
        "ĠGer",
        -10.403975722531062
      ],
      [
        "ĠSobre",
        -10.404194025066548
      ],
      [
        "benefÃŃcios",
        -10.404350671047348
      ],
      [
        "SRA",
        -10.404434864796052
      ],
      [
        "ĠSin",
        -10.404507078794728
      ],
      [
        "Moreira",
        -10.405608047934766
      ],
      [
        "Ġ1994",
        -10.407607632165952
      ],
      [
        "vontade",
        -10.408167861251831
      ],
      [
        "quilo",
        -10.409169686929298
      ],
      [
        "Ġcarga",
        -10.409219161686504
      ],
      [
        "Ġcoloca",
        -10.410111642863429
      ],
      [
        "assistÃªncia",
        -10.410275614025313
      ],
      [
        "Ġrua",
        -10.410368578493417
      ],
      [
        "parceria",
        -10.41244657569596
      ],
      [
        "humanos",
        -10.41255040362628
      ],
      [
        "fiscalizaÃ§Ã£o",
        -10.412720548895292
      ],
      [
        "amanhÃ£",
        -10.413205579741602
      ],
      [
        "estaÃ§Ã£o",
        -10.413547572866886
      ],
      [
        "Ġpreso",
        -10.413573023674644
      ],
      [
        "rÃ¡pida",
        -10.413852009412272
      ],
      [
        "PrÃªmio",
        -10.414460193422103
      ],
      [
        "camp",
        -10.414659166295074
      ],
      [
        "ocorreu",
        -10.414850136449616
      ],
      [
        "Ġpatr",
        -10.41714137154356
      ],
      [
        "instalaÃ§Ã£o",
        -10.417199442907892
      ],
      [
        "preciaÃ§Ã£o",
        -10.417361124404056
      ],
      [
        "Proposta",
        -10.418363802259762
      ],
      [
        "Ġpermanece",
        -10.41881230916067
      ],
      [
        "Ġcuidado",
        -10.419028803184904
      ],
      [
        "ĠUr",
        -10.4192020977486
      ],
      [
        "Ġouvir",
        -10.419432610588418
      ],
      [
        "Ġconstitui",
        -10.419690406590844
      ],
      [
        "Ġtrabalhador",
        -10.41972944682942
      ],
      [
        "Ġeventual",
        -10.419751026039345
      ],
      [
        "Ġcontas",
        -10.420295451515887
      ],
      [
        "bin",
        -10.42038793468867
      ],
      [
        "Ġresulta",
        -10.420760485579407
      ],
      [
        "ĠForÃ§a",
        -10.421232778001514
      ],
      [
        "Mar",
        -10.42218573303548
      ],
      [
        "Ġjuiz",
        -10.422503492643171
      ],
      [
        "Ġinclui",
        -10.422782311570217
      ],
      [
        "mulo",
        -10.423777459855744
      ],
      [
        "Ġquinta",
        -10.423923229332251
      ],
      [
        "Ġatingi",
        -10.424144415846552
      ],
      [
        "ĠNada",
        -10.424154014395365
      ],
      [
        "Ġhumana",
        -10.42459193036321
      ],
      [
        "ĠNeste",
        -10.42591878220296
      ],
      [
        "definiÃ§Ã£o",
        -10.426191835813851
      ],
      [
        "quente",
        -10.42697236465168
      ],
      [
        "ĠDan",
        -10.427499419309951
      ],
      [
        "investimentos",
        -10.427638216644551
      ],
      [
        "ĠCruz",
        -10.42832408748231
      ],
      [
        "Ġcorpus",
        -10.428389160438371
      ],
      [
        "FederaÃ§Ã£o",
        -10.428882475337293
      ],
      [
        "Ġalega",
        -10.429143514440913
      ],
      [
        "Ġanuncia",
        -10.429230294194166
      ],
      [
        "Ġregistrado",
        -10.429463440891851
      ],
      [
        "Ġrealiza",
        -10.42969593492568
      ],
      [
        "PpP",
        -10.429697775555349
      ],
      [
        "single",
        -10.430791806248632
      ],
      [
        "precisamos",
        -10.431274676247604
      ],
      [
        "prÃªmio",
        -10.432110243942232
      ],
      [
        "Ġcompanhia",
        -10.4330098583151
      ],
      [
        "Ġconhece",
        -10.433255145617892
      ],
      [
        "Ġmedo",
        -10.433811376076289
      ],
      [
        "avanÃ§o",
        -10.433814522938162
      ],
      [
        "ĭ",
        -10.433922137167944
      ],
      [
        "campeÃ£o",
        -10.434188116665274
      ],
      [
        "ĠfaÃ§a",
        -10.434331630099694
      ],
      [
        "Ġsinal",
        -10.434354326297644
      ],
      [
        "Ġcarta",
        -10.434797450805265
      ],
      [
        "Amazonas",
        -10.435844199634015
      ],
      [
        "americano",
        -10.435901703248144
      ],
      [
        "expressÃ£o",
        -10.436446760167428
      ],
      [
        "Ġ90",
        -10.436469391936283
      ],
      [
        "retirada",
        -10.436870270523755
      ],
      [
        "Ġpartida",
        -10.4369804249459
      ],
      [
        "etapa",
        -10.437447415444392
      ],
      [
        "Ġdefende",
        -10.43776536601638
      ],
      [
        "ĠParlamento",
        -10.43785679462342
      ],
      [
        "ÃŃveis",
        -10.4381905655305
      ],
      [
        "consumo",
        -10.438223261088632
      ],
      [
        "ĠfaÃ§o",
        -10.438332352503764
      ],
      [
        "Ġtele",
        -10.438653185907247
      ],
      [
        "apensado",
        -10.439854086361027
      ],
      [
        "ĠNeto",
        -10.440407708440995
      ],
      [
        "emendas",
        -10.44051957311227
      ],
      [
        "ĠlÃŃder",
        -10.440522483021278
      ],
      [
        "Ġgosto",
        -10.441886993057963
      ],
      [
        "gli",
        -10.442080716718593
      ],
      [
        "Barbosa",
        -10.442949865938916
      ],
      [
        "gravada",
        -10.443026076328252
      ],
      [
        "Ġvoz",
        -10.44308027351392
      ],
      [
        "Ġjogador",
        -10.443463831993588
      ],
      [
        "Ġrespectiva",
        -10.443511725808102
      ],
      [
        "existem",
        -10.443723142387316
      ],
      [
        "equipamentos",
        -10.443994251210398
      ],
      [
        "Ġeventos",
        -10.444125761291124
      ],
      [
        "agentes",
        -10.445267728905026
      ],
      [
        "Ġoferta",
        -10.445533504907784
      ],
      [
        "contexto",
        -10.446758294124791
      ],
      [
        "Ġescolha",
        -10.447224378796992
      ],
      [
        "berg",
        -10.44725276092102
      ],
      [
        "ĠVila",
        -10.447285135737552
      ],
      [
        "·",
        -10.447647058876385
      ],
      [
        "Ġexporta",
        -10.447947415883691
      ],
      [
        "ĠMeio",
        -10.447964060895982
      ],
      [
        "elementos",
        -10.448944618096268
      ],
      [
        "empresÃ¡rio",
        -10.449495398094728
      ],
      [
        "ĠRegional",
        -10.449589360525852
      ],
      [
        "Ġvelho",
        -10.449689187673773
      ],
      [
        "Ġinternacionais",
        -10.449769656141724
      ],
      [
        "Ġ1993",
        -10.451417787584692
      ],
      [
        "desempenho",
        -10.452119515328215
      ],
      [
        "Ġplanta",
        -10.452483774383875
      ],
      [
        "the",
        -10.452795106513795
      ],
      [
        "http",
        -10.453463960587206
      ],
      [
        "ĠDeve",
        -10.453851952592188
      ],
      [
        "Ġesposa",
        -10.454473364068985
      ],
      [
        "Ġtinham",
        -10.45450965948132
      ],
      [
        "Ġadequa",
        -10.45479589750623
      ],
      [
        "Ġcima",
        -10.454972873186016
      ],
      [
        "Ġvinte",
        -10.454992684451293
      ],
      [
        "Ġsexta",
        -10.455321159393105
      ],
      [
        "Ġeleitoral",
        -10.455321739070884
      ],
      [
        "Ġhabita",
        -10.456488082164691
      ],
      [
        "tentativa",
        -10.456826475356008
      ],
      [
        "lizar",
        -10.457060494969486
      ],
      [
        "Ġdispor",
        -10.458772326257822
      ],
      [
        "AgÃªncia",
        -10.458858494737438
      ],
      [
        "ĠjurisprudÃªncia",
        -10.458983007160237
      ],
      [
        "esteja",
        -10.459114499536568
      ],
      [
        "ĠalÃŃnea",
        -10.45927494809869
      ],
      [
        "ther",
        -10.459864447731915
      ],
      [
        "RelaÃ§Ãµes",
        -10.460502919605938
      ],
      [
        "ĠusuÃ¡rio",
        -10.461034043011624
      ],
      [
        "Ġfogo",
        -10.461597775184432
      ],
      [
        "Ġampla",
        -10.463112584611013
      ],
      [
        "ĠMagalhÃ£es",
        -10.463477916851575
      ],
      [
        "reconhecimento",
        -10.464076324760889
      ],
      [
        "ĠIsto",
        -10.464886679928703
      ],
      [
        "Ġdaqui",
        -10.465116167523558
      ],
      [
        "veÃŃculos",
        -10.46577933057976
      ],
      [
        "Ĵ",
        -10.466706230966778
      ],
      [
        "postos",
        -10.46722997430561
      ],
      [
        "PRIMEIR",
        -10.467789518521348
      ],
      [
        "cesso",
        -10.467839070702908
      ],
      [
        "Ġcomando",
        -10.468113792972623
      ],
      [
        "Ġresto",
        -10.468371789502356
      ],
      [
        "2002",
        -10.468498195212478
      ],
      [
        "convidado",
        -10.468817305799815
      ],
      [
        "ĠAmerica",
        -10.469958263695746
      ],
      [
        "ART",
        -10.470688058001986
      ],
      [
        "Ġprodutor",
        -10.470949809854092
      ],
      [
        "ð",
        -10.47111303856489
      ],
      [
        "Ġcorte",
        -10.471815386703511
      ],
      [
        "ĠCarreira",
        -10.472036209228326
      ],
      [
        "francÃªs",
        -10.472493510607514
      ],
      [
        "ĠMARCO",
        -10.47257911465751
      ],
      [
        "º",
        -10.472674984078116
      ],
      [
        "ĠSam",
        -10.472706811542356
      ],
      [
        "ĠClaro",
        -10.473483905683455
      ],
      [
        "gor",
        -10.473639692090584
      ],
      [
        "apelo",
        -10.473888915182371
      ],
      [
        "ĠlicenÃ§a",
        -10.474538956407985
      ],
      [
        "ĠExterior",
        -10.476034080693418
      ],
      [
        "Ġrelator",
        -10.476780585712188
      ],
      [
        "Ġaumenta",
        -10.476930095838725
      ],
      [
        "Ġposse",
        -10.47706527786991
      ],
      [
        "presidente",
        -10.478138180540627
      ],
      [
        "necessÃ¡ria",
        -10.478139007798216
      ],
      [
        "decisÃµes",
        -10.478290010616734
      ],
      [
        "ĠTal",
        -10.478336485726864
      ],
      [
        "Ġassinatura",
        -10.479108922138924
      ],
      [
        "administrativo",
        -10.48062399341577
      ],
      [
        "ĠCPI",
        -10.481845839562272
      ],
      [
        "redor",
        -10.48217992299102
      ],
      [
        "ĠSha",
        -10.48237608402787
      ],
      [
        "provÃŃncia",
        -10.482669938134904
      ],
      [
        "tribuiÃ§Ã£o",
        -10.48305801721021
      ],
      [
        "metade",
        -10.483265486485108
      ],
      [
        "ĠFerreira",
        -10.483695380131564
      ],
      [
        "Ġ200",
        -10.48403173581896
      ],
      [
        "ĠFolha",
        -10.484248526867464
      ],
      [
        "Ġlembra",
        -10.484447973899275
      ],
      [
        "corrÃªncia",
        -10.484738238396892
      ],
      [
        "Enquanto",
        -10.484871299917478
      ],
      [
        "ĠClube",
        -10.4848908543838
      ],
      [
        "Ġexterior",
        -10.485124791272115
      ],
      [
        "ĠConstitucional",
        -10.485648796453011
      ],
      [
        "Ġseguro",
        -10.485696857488795
      ],
      [
        "finalidade",
        -10.486882117520526
      ],
      [
        "ĠrÃ¡dio",
        -10.48823936064365
      ],
      [
        "Ġposto",
        -10.48932732882142
      ],
      [
        "Ġcontato",
        -10.489394910712312
      ],
      [
        "ĠelÃ©trica",
        -10.489488263900569
      ],
      [
        "Ġcursos",
        -10.490128284275102
      ],
      [
        "ĠcompetiÃ§Ã£o",
        -10.490168551974158
      ],
      [
        "incidÃªncia",
        -10.490231872691036
      ],
      [
        "erson",
        -10.49064031276572
      ],
      [
        "assinado",
        -10.491057403065822
      ],
      [
        "Ġcinema",
        -10.491145885873156
      ],
      [
        "Ġencaminh",
        -10.49153783673443
      ],
      [
        "Ġchance",
        -10.491753115337785
      ],
      [
        "Ġdivulg",
        -10.492617492285554
      ],
      [
        "indicaÃ§Ã£o",
        -10.492724948104636
      ],
      [
        "ĠOrÃ§ament",
        -10.4927773238191
      ],
      [
        "licitaÃ§Ã£o",
        -10.492925298301753
      ],
      [
        "Ġnove",
        -10.49362924200939
      ],
      [
        "Ġ1992",
        -10.494211562175964
      ],
      [
        "ĠSO",
        -10.494646518076092
      ],
      [
        "Ġseque",
        -10.495115573938405
      ],
      [
        "Ġcultural",
        -10.495129606837676
      ],
      [
        "Ġregistrar",
        -10.495382387644874
      ],
      [
        "Ġterceira",
        -10.495615641852158
      ],
      [
        "Ġlivros",
        -10.496420341919393
      ],
      [
        "exploraÃ§Ã£o",
        -10.496807717133574
      ],
      [
        "Ġdado",
        -10.49688749255611
      ],
      [
        "Ġentende",
        -10.497230372197278
      ],
      [
        "ESTADO",
        -10.497398088355965
      ],
      [
        "onclusÃ£o",
        -10.497416386081788
      ],
      [
        "Outra",
        -10.49817201437207
      ],
      [
        "ĠMello",
        -10.498551199468912
      ],
      [
        "funcionamento",
        -10.499394807277929
      ],
      [
        "Embora",
        -10.499563018882611
      ],
      [
        "elli",
        -10.500428710074443
      ],
      [
        "ĠAntes",
        -10.50080509271888
      ],
      [
        "ĠEspanha",
        -10.500893140494131
      ],
      [
        "Ġinteiro",
        -10.500951707150818
      ],
      [
        "Ġpersonagem",
        -10.50161589181537
      ],
      [
        "Ġsenti",
        -10.502112502209645
      ],
      [
        "ĠConstitui",
        -10.503985727912816
      ],
      [
        "tributÃ¡ria",
        -10.504666724445064
      ],
      [
        "policiais",
        -10.506004983615128
      ],
      [
        "ĠdistÃ¢ncia",
        -10.506118565209448
      ],
      [
        "fundamento",
        -10.506188092075543
      ],
      [
        "Ġsabia",
        -10.507114927298128
      ],
      [
        "Ġaceita",
        -10.50758407213206
      ],
      [
        "Ġassina",
        -10.507890395138606
      ],
      [
        "Ġprefeito",
        -10.507894471316185
      ],
      [
        "MÃ£o",
        -10.508270419218162
      ],
      [
        "comÃ©rcio",
        -10.50864575926138
      ],
      [
        "Ġpermanente",
        -10.508873310592938
      ],
      [
        "Ġproduzir",
        -10.509108270117142
      ],
      [
        "Ġacompanh",
        -10.509305699229518
      ],
      [
        "Ġmuda",
        -10.510115237920331
      ],
      [
        "trinta",
        -10.510266999977476
      ],
      [
        "ĠespÃ©cies",
        -10.510466470599724
      ],
      [
        "ĠVida",
        -10.51105556500305
      ],
      [
        "Ġatende",
        -10.51145297028095
      ],
      [
        "Ġindividual",
        -10.511814327286125
      ],
      [
        "tive",
        -10.51264892548663
      ],
      [
        "ĠVan",
        -10.512955765914151
      ],
      [
        "into",
        -10.513455894947384
      ],
      [
        "Ġquiser",
        -10.51397118239757
      ],
      [
        "mantid",
        -10.514242227883305
      ],
      [
        "geralmente",
        -10.514396080901214
      ],
      [
        "ella",
        -10.514690944698172
      ],
      [
        "Ġadolescente",
        -10.514842859954866
      ],
      [
        "ĠYork",
        -10.51552525263973
      ],
      [
        "ĠMonte",
        -10.51563156271
      ],
      [
        "Ġitem",
        -10.515674029493209
      ],
      [
        "ĠMartins",
        -10.5157714871256
      ],
      [
        "ĠMuseu",
        -10.51753777284016
      ],
      [
        "passando",
        -10.517778430067835
      ],
      [
        "Ġpaz",
        -10.519366198568257
      ],
      [
        "votos",
        -10.52086883011751
      ],
      [
        "Ġpensar",
        -10.521023079000068
      ],
      [
        "Couto",
        -10.521061737065198
      ],
      [
        "ĠfÃ¡cil",
        -10.521574334798869
      ],
      [
        "fizeram",
        -10.521656087179316
      ],
      [
        "Ġimplica",
        -10.522166061114472
      ],
      [
        "Bibliografia",
        -10.522221491661126
      ],
      [
        "definido",
        -10.523494072594929
      ],
      [
        "domÃŃnio",
        -10.52369929903642
      ],
      [
        "usando",
        -10.523705488221266
      ],
      [
        "rÃŃamos",
        -10.523995347225217
      ],
      [
        "ĠMer",
        -10.5241548703456
      ],
      [
        "ĠParte",
        -10.524500596284144
      ],
      [
        "Ġaquilo",
        -10.524648157229036
      ],
      [
        "Pernambuco",
        -10.524710490025583
      ],
      [
        "ĠPapa",
        -10.524901897463064
      ],
      [
        "ordinÃ¡ria",
        -10.525183650765282
      ],
      [
        "Ġintegral",
        -10.525255820066226
      ],
      [
        "ĠMc",
        -10.525509139573394
      ],
      [
        "ĠMelhor",
        -10.52640685047928
      ],
      [
        "Ġclara",
        -10.52661139574156
      ],
      [
        "ĠEX",
        -10.52663010521914
      ],
      [
        "ĠcrÃŃtica",
        -10.526717416409072
      ],
      [
        "ĠprÃ©vi",
        -10.52764291950792
      ],
      [
        "Ã³n",
        -10.527779066018692
      ],
      [
        "Ġenorme",
        -10.5291075294902
      ],
      [
        "Ġ1913",
        -10.529170923581832
      ],
      [
        "estudantes",
        -10.52953781893881
      ],
      [
        "ĠAgricultura",
        -10.52962889149017
      ],
      [
        "Ġlonga",
        -10.529857480456355
      ],
      [
        "Ġobservado",
        -10.53004170095809
      ],
      [
        "ĠParece",
        -10.530362694430456
      ],
      [
        "consumidor",
        -10.530425360541123
      ],
      [
        "ĠNÃĥO",
        -10.530742146993536
      ],
      [
        "terminou",
        -10.531104722615009
      ],
      [
        "ĠReuni",
        -10.53286093770368
      ],
      [
        "bÃ¡sica",
        -10.533027175507078
      ],
      [
        "Ġmulti",
        -10.533086651801808
      ],
      [
        "Ġfamiliar",
        -10.533176475379925
      ],
      [
        "professores",
        -10.533674319559324
      ],
      [
        "Ġaproveit",
        -10.53449021943129
      ],
      [
        "tradiÃ§Ã£o",
        -10.53461517003844
      ],
      [
        "cultura",
        -10.5354315443775
      ],
      [
        "Vieira",
        -10.536053214451714
      ],
      [
        "Ġpensa",
        -10.536294892894942
      ],
      [
        "petrÃ³leo",
        -10.536447871838496
      ],
      [
        "nanimidade",
        -10.5370127308555
      ],
      [
        "trÃ¢nsito",
        -10.537301841276792
      ],
      [
        "Parlamentare",
        -10.537311774228456
      ],
      [
        "morreu",
        -10.537419622581911
      ],
      [
        "Ġjeito",
        -10.538625145146291
      ],
      [
        "Ġesco",
        -10.53909758670304
      ],
      [
        "aposentadoria",
        -10.539322506785425
      ],
      [
        "companheiro",
        -10.54098103401612
      ],
      [
        "patrimÃ´nio",
        -10.540989008749412
      ],
      [
        "Ġolhos",
        -10.541056025658676
      ],
      [
        "iauÃŃ",
        -10.541218333696902
      ],
      [
        "Ĩ",
        -10.541794069744764
      ],
      [
        "escrita",
        -10.542706827828736
      ],
      [
        "ĠLE",
        -10.543093455986646
      ],
      [
        "¸",
        -10.543588130502172
      ],
      [
        "Com",
        -10.544269133581883
      ],
      [
        "Ġreferente",
        -10.5442812146024
      ],
      [
        "Ġinferior",
        -10.544531155065528
      ],
      [
        "Ġalternativa",
        -10.54486194223088
      ],
      [
        "Ġmensagem",
        -10.545012102692125
      ],
      [
        "recebido",
        -10.54548518080942
      ],
      [
        "arney",
        -10.545694956400917
      ],
      [
        "Ġanteriores",
        -10.54591542829707
      ],
      [
        "cenÃ¡rio",
        -10.545951011226451
      ],
      [
        "Ġrapid",
        -10.546477832937803
      ],
      [
        "Ġofens",
        -10.546562505906538
      ],
      [
        "ĠMachado",
        -10.54682484407814
      ],
      [
        "ĠAurÃ©li",
        -10.549122298132964
      ],
      [
        "Ŀ",
        -10.549494767954204
      ],
      [
        "Ġvolume",
        -10.550013503067024
      ],
      [
        "transferÃªncia",
        -10.550042077808929
      ],
      [
        "ocumentaÃ§Ã£o",
        -10.551100654493569
      ],
      [
        "Ġhabe",
        -10.551660440237006
      ],
      [
        "µ",
        -10.551692399008456
      ],
      [
        "ĠcoraÃ§Ã£o",
        -10.552139266288922
      ],
      [
        "Ġaberta",
        -10.552965473496696
      ],
      [
        "Ãģfrica",
        -10.553094896256454
      ],
      [
        "âĢĵâĢĵâĢĵâĢĵâĢĵ",
        -10.55310705349756
      ],
      [
        "2001",
        -10.553162645822765
      ],
      [
        "horÃ¡rio",
        -10.553440016453887
      ],
      [
        "Ġacorda",
        -10.553699199532195
      ],
      [
        "»",
        -10.555632505877645
      ],
      [
        "ĠCultural",
        -10.556852906059031
      ],
      [
        "Ġaltura",
        -10.559691549000238
      ],
      [
        "produtores",
        -10.559725908073696
      ],
      [
        "investigaÃ§Ã£o",
        -10.55983252455012
      ],
      [
        "Candido",
        -10.560008061601067
      ],
      [
        "desafio",
        -10.560216833709246
      ],
      [
        "Į",
        -10.560424796726677
      ],
      [
        "ĠItÃ¡lia",
        -10.56061335799362
      ],
      [
        "PLS",
        -10.560854367572396
      ],
      [
        "ĠJapÃ£o",
        -10.561038002792946
      ],
      [
        "Rodrigo",
        -10.561409208174368
      ],
      [
        "funcionÃ¡rios",
        -10.56152040487172
      ],
      [
        "Renan",
        -10.5615512667826
      ],
      [
        "ĠEspÃŃrit",
        -10.563159213623786
      ],
      [
        "Ġtamanho",
        -10.56360733326173
      ],
      [
        "ĠPaim",
        -10.564115219947004
      ],
      [
        "tornando",
        -10.564634356240903
      ],
      [
        "ĠinfluÃªncia",
        -10.56527915605111
      ],
      [
        "ĠYa",
        -10.565731727163216
      ],
      [
        "OLI",
        -10.566623477011811
      ],
      [
        "aproximadamente",
        -10.566875430755692
      ],
      [
        "ĠEdita",
        -10.56700982580642
      ],
      [
        "Ġdesenvolve",
        -10.56737145578892
      ],
      [
        "Ġteor",
        -10.56794043313744
      ],
      [
        "ĺ",
        -10.567945556843732
      ],
      [
        "Ġtirar",
        -10.56832899838716
      ],
      [
        "Ġmostrar",
        -10.569461615519488
      ],
      [
        "Ġperder",
        -10.569588376769044
      ],
      [
        "iretrizes",
        -10.56962756616065
      ],
      [
        "Ġparticipou",
        -10.570863742444542
      ],
      [
        "MÃ¡rio",
        -10.57150244960738
      ],
      [
        "final",
        -10.572106679719486
      ],
      [
        "bot",
        -10.57229135207885
      ],
      [
        "Mesmo",
        -10.572463165423224
      ],
      [
        "casamento",
        -10.573428724722586
      ],
      [
        "contrataÃ§Ã£o",
        -10.573506026245484
      ],
      [
        "gresso",
        -10.57368015894773
      ],
      [
        "Ġrepercuss",
        -10.574390488283948
      ],
      [
        "Ġatras",
        -10.574601961084175
      ],
      [
        "hin",
        -10.57500466601609
      ],
      [
        "ficando",
        -10.57513082987803
      ],
      [
        "aspectos",
        -10.575195774841005
      ],
      [
        "Ĳ",
        -10.575933081810582
      ],
      [
        "preocupaÃ§Ã£o",
        -10.576312306919714
      ],
      [
        "ĠMauro",
        -10.57656288211375
      ],
      [
        "Ġpotencial",
        -10.576767865837764
      ],
      [
        "conduta",
        -10.57715258823892
      ],
      [
        "Ġgovernador",
        -10.577861289693566
      ],
      [
        "ĠveÃŃculo",
        -10.578542082477592
      ],
      [
        "ĠJoaquim",
        -10.579492124339732
      ],
      [
        "true",
        -10.579554534090049
      ],
      [
        "ł",
        -10.579561614139958
      ],
      [
        "udou",
        -10.57983562158271
      ],
      [
        "teoria",
        -10.580283913249502
      ],
      [
        "recebimento",
        -10.580612167730488
      ],
      [
        "Ġpasse",
        -10.580987165526755
      ],
      [
        "Ġbreve",
        -10.581092153331063
      ],
      [
        "queremos",
        -10.581926069948812
      ],
      [
        "Acordo",
        -10.582945908493802
      ],
      [
        "ĠAmbiente",
        -10.582952533204615
      ],
      [
        "ĠMiguel",
        -10.58382635833886
      ],
      [
        "ĠFlÃ¡vi",
        -10.583892083160013
      ],
      [
        "inconstitucional",
        -10.583917801092523
      ],
      [
        "REGIMENT",
        -10.584021571169494
      ],
      [
        "escreveu",
        -10.584396540130122
      ],
      [
        "Ġinternet",
        -10.58452600944212
      ],
      [
        "produzido",
        -10.584536438111812
      ],
      [
        "ĠÃĵ",
        -10.585292928523534
      ],
      [
        "Chefe",
        -10.585744997701664
      ],
      [
        "ĠcientÃŃfica",
        -10.585859709758356
      ],
      [
        "Ġassisti",
        -10.58598563822729
      ],
      [
        "FÃ¡bio",
        -10.586287581931542
      ],
      [
        "ExÃ©rcito",
        -10.58654985556278
      ],
      [
        "GoiÃ¡",
        -10.586962405843344
      ],
      [
        "navio",
        -10.587319397015149
      ],
      [
        "ĠSar",
        -10.588460077421855
      ],
      [
        "Eduardo",
        -10.589373506270432
      ],
      [
        "nasceu",
        -10.59009314289452
      ],
      [
        "idÃ©ia",
        -10.590328892120205
      ],
      [
        "caracterÃŃsticas",
        -10.590407591056918
      ],
      [
        "ĠPrecisa",
        -10.591048723562205
      ],
      [
        "Ġlonge",
        -10.591093649445463
      ],
      [
        "Ġdireto",
        -10.591878861056925
      ],
      [
        "Ġsegue",
        -10.591986886179656
      ],
      [
        "Ġtive",
        -10.592123576728248
      ],
      [
        "ÃģRIO",
        -10.592589848743458
      ],
      [
        "Ġabrir",
        -10.5934720927547
      ],
      [
        "Ġouro",
        -10.594017900026122
      ],
      [
        "Ġclassifica",
        -10.59417658993174
      ],
      [
        "ĠNota",
        -10.59425882897995
      ],
      [
        "ĠQui",
        -10.596225935816545
[...]
