{
  "version": "1.0",
  "truncation": {
    "direction": "Right",
    "max_length": 1024,
    "strategy": "LongestFirst",
    "stride": 0
  },
  "padding": null,
  "added_tokens": [
    {
      "id": 0,
      "content": "[PAD]",
      "single_word": false,
      "lstrip": false,
      "rstrip": false,
      "normalized": false,
      "special": true
    },
    {
      "id": 1,
      "content": "[SEP]",
      "single_word": false,
      "lstrip": false,
      "rstrip": false,
      "normalized": false,
      "special": true
    },
    {
      "id": 2,
      "content": "[EOS]",
      "single_word": false,
      "lstrip": false,
      "rstrip": false,
      "normalized": false,
      "special": true
    },
    {
      "id": 3,
      "content": "[UNK]",
      "single_word": false,
      "lstrip": false,
      "rstrip": false,
      "normalized": false,
      "special": true
    }
  ],
  "normalizer": {
    "type": "Sequence",
    "normalizers": [
      {
        "type": "Strip",
        "strip_left": true,
        "strip_right": true
      },
      {
        "type": "NFC"
      }
    ]
  },
  "pre_tokenizer": {
    "type": "ByteLevel",
    "add_prefix_space": true,
    "trim_offsets": true,
    "use_regex": true
  },
  "post_processor": {
    "type": "Sequence",
    "processors": [
      {
        "type": "ByteLevel",
        "add_prefix_space": true,
        "trim_offsets": true,
        "use_regex": true
      },
      {
        "type": "TemplateProcessing",
        "single": [
          {
            "Sequence": {
              "id": "A",
              "type_id": 0
            }
          },
          {
            "SpecialToken": {
              "id": "[EOS]",
              "type_id": 0
            }
          }
        ],
        "pair": [
          {
            "Sequence": {
              "id": "A",
              "type_id": 0
            }
          },
          {
            "SpecialToken": {
              "id": "[SEP]",
              "type_id": 0
            }
          },
          {
            "Sequence": {
              "id": "B",
              "type_id": 0
            }
          },
          {
            "SpecialToken": {
              "id": "[EOS]",
              "type_id": 0
            }
          }
        ],
        "special_tokens": {
          "[EOS]": {
            "id": "[EOS]",
            "ids": [
              2
            ],
            "tokens": [
              "[EOS]"
            ]
          },
          "[SEP]": {
            "id": "[SEP]",
            "ids": [
              1
            ],
            "tokens": [
              "[SEP]"
            ]
          }
        }
      }
    ]
  },
  "decoder": {
    "type": "ByteLevel",
    "add_prefix_space": true,
    "trim_offsets": true,
    "use_regex": true
  },
  "model": {
    "type": "Unigram",
    "unk_id": 3,
    "vocab": [
      [
        "[PAD]",
        0.0
      ],
      [
        "[SEP]",
        0.0
      ],
      [
        "[EOS]",
        0.0
      ],
      [
        "[UNK]",
        0.0
      ],
      [
        "Ġ",
        -1.7051684636867996
      ],
      [
        ",",
        -3.1827637536104554
      ],
      [
        ".",
        -3.404482747254761
      ],
      [
        "s",
        -3.4059618737069144
      ],
      [
        "a",
        -3.463352341070202
      ],
      [
        "o",
        -3.491179950470652
      ],
      [
        "Ġde",
        -3.5615883657052976
      ],
      [
        "e",
        -3.687234819132801
      ],
      [
        "-",
        -4.478936320978807
      ],
      [
        "Ġdo",
        -4.5324008672474925
      ],
      [
        "Ġque",
        -4.540026771449291
      ],
      [
        "Ġda",
        -4.732452768223187
      ],
      [
        "u",
        -5.011835887440782
      ],
      [
        "Ġem",
        -5.115053745188501
      ],
      [
        "\"",
        -5.1598101129027825
      ],
      [
        ")",
        -5.21766229587994
      ],
      [
        "(",
        -5.221762717989055
      ],
      [
        "m",
        -5.234155180940455
      ],
      [
        "Ġpara",
        -5.327961219963164
      ],
      [
        "O",
        -5.364125645583929
      ],
      [
        "A",
        -5.414523973443227
      ],
      [
        "i",
        -5.467966366250277
      ],
      [
        "Ġcom",
        -5.482630388320569
      ],
      [
        "Ġno",
        -5.5227377160295745
      ],
      [
        ":",
        -5.643853789650382
      ],
      [
        "d",
        -5.683092431446516
      ],
      [
        "r",
        -5.683971388434905
      ],
      [
        "/",
        -5.6877306462914134
      ],
      [
        "ĠâĢĵ",
        -5.7003550825837515
      ],
      [
        "ĠÃ©",
        -5.747533727737045
      ],
      [
        "Ġna",
        -5.7523909122246355
      ],
      [
        "Ġum",
        -5.75989298648612
      ],
      [
        "ĠnÃ£o",
        -5.784301055618151
      ],
      [
        "n",
        -5.9176858039732405
      ],
      [
        "Ġuma",
        -5.926287569420584
      ],
      [
        "Ġpor",
        -5.944946624325391
      ],
      [
        "S",
        -6.183705317797887
      ],
      [
        "l",
        -6.214845740115379
      ],
      [
        "ĠÃł",
        -6.304351426630403
      ],
      [
        "t",
        -6.308335355766815
      ],
      [
        "Ġcomo",
        -6.3149263610819855
      ],
      [
        "Ġdos",
        -6.31500740268131
      ],
      [
        "?",
        -6.316178313815115
      ],
      [
        "E",
        -6.329507994469921
      ],
      [
        "c",
        -6.396160691824267
      ],
      [
        "Ã§Ã£o",
        -6.424592362089681
      ],
      [
        "Ġfoi",
        -6.439231773060293
      ],
      [
        "!",
        -6.516572050598537
      ],
      [
        "Ġmais",
        -6.516814265185708
      ],
      [
        "1",
        -6.527896351521706
      ],
      [
        ";",
        -6.642111554717582
      ],
      [
        "Ġpela",
        -6.6643318782563306
      ],
      [
        "ĠnÂº",
        -6.68389097749931
      ],
      [
        "ndo",
        -6.7000692739937975
      ],
      [
        "ĠDE",
        -6.7016263654845805
      ],
      [
        "Ġpelo",
        -6.733151866095959
      ],
      [
        "p",
        -6.736800498450934
      ],
      [
        "2",
        -6.744962219720586
      ],
      [
        "Ġsua",
        -6.756687426257685
      ],
      [
        "ĠSr",
        -6.818113461206568
      ],
      [
        "Âº",
        -6.829237872919769
      ],
      [
        "Ġdas",
        -6.829433251226709
      ],
      [
        "Ġser",
        -6.851413843188757
      ],
      [
        "Ġsobre",
        -6.899770559246532
      ],
      [
        "P",
        -6.907555180299456
      ],
      [
        "C",
        -6.924706268206284
      ],
      [
        "...",
        -6.9454995414848675
      ],
      [
        "dos",
        -6.968384983561416
      ],
      [
        "................",
        -6.968638698382996
      ],
      [
        "I",
        -6.988701682187701
      ],
      [
        "ĠâĢľ",
        -6.993364667929862
      ],
      [
        "3",
        -7.00265669950217
      ],
      [
        "Ġseu",
        -7.01076575445968
      ],
      [
        "R",
        -7.026358179437871
      ],
      [
        "ĠPresidente",
        -7.058571574535401
      ],
      [
        "ĠestÃ¡",
        -7.062812747428758
      ],
      [
        "ĠNÃ£o",
        -7.079509014166046
      ],
      [
        "ĠtambÃ©m",
        -7.085558819707332
      ],
      [
        "h",
        -7.088842415092204
      ],
      [
        "D",
        -7.103049453130531
      ],
      [
        "ĠLei",
        -7.111526481830783
      ],
      [
        "ĠEm",
        -7.140626470536628
      ],
      [
        "Ã£o",
        -7.156687204494078
      ],
      [
        "ĠDeputado",
        -7.194258232265227
      ],
      [
        "Ġmas",
        -7.203956681416768
      ],
      [
        "Ġtem",
        -7.221956090115492
      ],
      [
        "b",
        -7.2359100936711584
      ],
      [
        "mente",
        -7.251460515146016
      ],
      [
        "5",
        -7.255363607475312
      ],
      [
        "Ġnos",
        -7.265292604906378
      ],
      [
        "4",
        -7.26849487743527
      ],
      [
        "f",
        -7.295996194969408
      ],
      [
        "g",
        -7.319069431847897
      ],
      [
        "mos",
        -7.324672904202378
      ],
      [
        "das",
        -7.33405865956304
      ],
      [
        "ĠSR",
        -7.336854971697923
      ],
      [
        "V",
        -7.342958807467797
      ],
      [
        "Ġart",
        -7.345548510106276
      ],
      [
        "ĠFederal",
        -7.347761211138621
      ],
      [
        "Ġele",
        -7.3490912719086925
      ],
      [
        "ĠÃī",
        -7.361272340158896
      ],
      [
        "ĠNÂº",
        -7.400521636172243
      ],
      [
        "ĠSenador",
        -7.403524854559329
      ],
      [
        "ĠEstado",
        -7.407165602772944
      ],
      [
        "ĠBrasil",
        -7.408150736151096
      ],
      [
        "Ġisso",
        -7.418384168581643
      ],
      [
        "ĠsÃ£o",
        -7.434338342843315
      ],
      [
        "de",
        -7.435976649168909
      ],
      [
        "ĠvocÃª",
        -7.471833845669064
      ],
      [
        "Ġentre",
        -7.47948690716432
      ],
      [
        "ĠEu",
        -7.48752360352778
      ],
      [
        "Ġmuito",
        -7.489748013557005
      ],
      [
        "Ã§Ãµes",
        -7.490917516515745
      ],
      [
        "T",
        -7.498652541589289
      ],
      [
        "Ã©",
        -7.502842460470827
      ],
      [
        "M",
        -7.507029676546171
      ],
      [
        "y",
        -7.526302160767416
      ],
      [
        "v",
        -7.542806950928011
      ],
      [
        "%",
        -7.551537893628314
      ],
      [
        "ĠjÃ¡",
        -7.564325293061177
      ],
      [
        "ĠatÃ©",
        -7.566905262237519
      ],
      [
        "Ġanos",
        -7.586596851097891
      ],
      [
        "6",
        -7.59686501274477
      ],
      [
        "ĠComissÃ£o",
        -7.606050871407824
      ],
      [
        "um",
        -7.633240939380391
      ],
      [
        "Ġbem",
        -7.637897797472094
      ],
      [
        "L",
        -7.661423539142632
      ],
      [
        "8",
        -7.682085811447744
      ],
      [
        "Ġquando",
        -7.686676178959063
      ],
      [
        "Ġpode",
        -7.691406051599962
      ],
      [
        "que",
        -7.697379319117403
      ],
      [
        "Ġmesmo",
        -7.715498693313386
      ],
      [
        "7",
        -7.717564003602243
      ],
      [
        "Ã¡",
        -7.719144363087373
      ],
      [
        "B",
        -7.720871141334905
      ],
      [
        "Ġforma",
        -7.723521485837107
      ],
      [
        "ĠNacional",
        -7.724947894342042
      ],
      [
        "ĠNo",
        -7.72782402127091
      ],
      [
        "Ġaqui",
        -7.729730222917016
      ],
      [
        "era",
        -7.740846606946711
      ],
      [
        "Ġsem",
        -7.746517988722784
      ],
      [
        "ĠÂ§",
        -7.769748846520283
      ],
      [
        "Ġtodos",
        -7.774437637598235
      ],
      [
        "N",
        -7.776054657694424
      ],
      [
        "9",
        -7.783093776252629
      ],
      [
        "Ġainda",
        -7.789065564928265
      ],
      [
        "ĠSÃ£o",
        -7.802170839794789
      ],
      [
        "F",
        -7.803433406212792
      ],
      [
        "Ġdia",
        -7.80635221362428
      ],
      [
        "ĠPor",
        -7.813250182879656
      ],
      [
        "Ġseus",
        -7.8174323225294255
      ],
      [
        "Ġter",
        -7.821730713985945
      ],
      [
        "Ġforam",
        -7.871742022769018
      ],
      [
        "âĢĿ.",
        -7.881505239363735
      ],
      [
        "Ġfazer",
        -7.882762544815979
      ],
      [
        "Ġparte",
        -7.884639997953604
      ],
      [
        "ĠPaulo",
        -7.891615256452507
      ],
      [
        "ĠOs",
        -7.906231837158293
      ],
      [
        "G",
        -7.9101532701905555
      ],
      [
        "ĠhÃ¡",
        -7.918523609941641
      ],
      [
        "Ġcontra",
        -7.93530696956608
      ],
      [
        "ĠPL",
        -7.948349739244852
      ],
      [
        "z",
        -7.952022347501458
      ],
      [
        "Ġ10",
        -7.952610026455586
      ],
      [
        "ela",
        -7.956829816775352
      ],
      [
        "PRESIDENTE",
        -7.971970938050768
      ],
      [
        "Ġcidade",
        -7.977673533634295
      ],
      [
        "PROJETO",
        -7.978453334584062
      ],
      [
        "ĠNa",
        -7.984555548640488
      ],
      [
        "Ġtempo",
        -7.989279995863422
      ],
      [
        "ĠÃłs",
        -7.991612086123707
      ],
      [
        "Ġseja",
        -7.995113885097137
      ],
      [
        "Ġvai",
        -7.996692035793458
      ],
      [
        "Ġnas",
        -7.99882800619001
      ],
      [
        "idade",
        -8.004511269937614
      ],
      [
        "k",
        -8.005536296317207
      ],
      [
        "Ġmeu",
        -8.007322985342224
      ],
      [
        "Ġesse",
        -8.016197589360685
      ],
      [
        "Ġporque",
        -8.017714759991513
      ],
      [
        "ĠLEI",
        -8.02313277423718
      ],
      [
        "ĠDeputados",
        -8.024892676377531
      ],
      [
        "Ġprimeiro",
        -8.03574690751457
      ],
      [
        "Ġano",
        -8.038886984916822
      ],
      [
        "ram",
        -8.04302117190629
      ],
      [
        "ĠsÃ³",
        -8.045910302164753
      ],
      [
        "ĠMas",
        -8.050177520895224
      ],
      [
        "RELATOR",
        -8.059233175706638
      ],
      [
        "Ġessa",
        -8.061745806682708
      ],
      [
        "Ġesta",
        -8.064316753924103
      ],
      [
        "ĠGoverno",
        -8.066946245944923
      ],
      [
        "ĠSe",
        -8.069514563270628
      ],
      [
        "ĠDe",
        -8.069853598763354
      ],
      [
        "ĠMinistro",
        -8.07334889285163
      ],
      [
        "Ġcaso",
        -8.080584372366946
      ],
      [
        "ĠConstituiÃ§Ã£o",
        -8.082963347428821
      ],
      [
        "Ġpessoas",
        -8.093858073989576
      ],
      [
        "ĠVocÃª",
        -8.094199804065036
      ],
      [
        "ĠEle",
        -8.111471388351331
      ],
      [
        "Ġvez",
        -8.11237143012977
      ],
      [
        "'",
        -8.11262624876427
      ],
      [
        "Ġoutros",
        -8.112699431238113
      ],
      [
        "Ġgrande",
        -8.114931479018164
      ],
      [
        "Ġartigo",
        -8.116212094018044
      ],
      [
        "Ġapenas",
        -8.134684563965441
      ],
      [
        "Ġtrabalho",
        -8.136517163124335
      ],
      [
        "J",
        -8.136693606934072
      ],
      [
        "Ġonde",
        -8.142806226158681
      ],
      [
        "Ġoutras",
        -8.14296900464396
      ],
      [
        "ĠCÃ¢mara",
        -8.145156083043466
      ],
      [
        "ĠSenhor",
        -8.147536094600625
      ],
      [
        "ĠestÃ£o",
        -8.14783674760191
      ],
      [
        "Ġsendo",
        -8.162848206084256
      ],
      [
        "Ġdois",
        -8.163440254238315
      ],
      [
        "ĠnÃ³s",
        -8.165803082477199
      ],
      [
        "Âª",
        -8.166763161470175
      ],
      [
        "ĠRio",
        -8.178895883912569
      ],
      [
        "Ġsuas",
        -8.181962616544782
      ],
      [
        "Ġin",
        -8.194096292815468
      ],
      [
        "aÃ§Ã£o",
        -8.199922746314359
      ],
      [
        "Ġordem",
        -8.201815433022507
      ],
      [
        "ĠII",
        -8.220612881882632
      ],
      [
        "ĠProjeto",
        -8.227745967385948
      ],
      [
        "Ġmaior",
        -8.234087255405312
      ],
      [
        "Ġtermos",
        -8.234122725321484
      ],
      [
        "ĠAs",
        -8.235594847263762
      ],
      [
        "ĠCasa",
        -8.238344544756169
      ],
      [
        "Ġminha",
        -8.23841475086594
      ],
      [
        "ĠserÃ¡",
        -8.238904311538946
      ],
      [
        "Ġhoje",
        -8.240294371582733
      ],
      [
        "Ġmeio",
        -8.256333711945718
      ],
      [
        "ĠCom",
        -8.261952469955883
      ],
      [
        "Ġprojeto",
        -8.26511330284441
      ],
      [
        "Ġassim",
        -8.26512573225722
      ],
      [
        "PSDB",
        -8.271997327462902
      ],
      [
        "antes",
        -8.277233315623299
      ],
      [
        "Ġeste",
        -8.278195352205326
      ],
      [
        "Ġdesta",
        -8.282359683614201
      ],
      [
        "ĠArt",
        -8.285448344574245
      ],
      [
        "Ġnome",
        -8.28668628329404
      ],
      [
        "âĢĿ",
        -8.28926723749374
      ],
      [
        "ĠPara",
        -8.300797118665827
      ],
      [
        "Ġqual",
        -8.303427429156399
      ],
      [
        "Ġlei",
        -8.30685452710781
      ],
      [
        "ĠReferÃªncias",
        -8.314360846934557
      ],
      [
        "Ġdireito",
        -8.317791987846261
      ],
      [
        "Ġprocesso",
        -8.324149333535377
      ],
      [
        "ĠComo",
        -8.324431871735941
      ],
      [
        "Ġprimeira",
        -8.324644795287886
      ],
      [
        "ĠSenado",
        -8.324984595580178
      ],
      [
        "ĠDO",
        -8.325166842936206
      ],
      [
        "Ġqualquer",
        -8.334935262811928
      ],
      [
        "Ġvida",
        -8.335367773558794
      ],
      [
        "Ġnosso",
        -8.336180133467995
      ],
      [
        "$",
        -8.341268776741561
      ],
      [
        "Ġ11",
        -8.342569499580565
      ],
      [
        "ĠTribunal",
        -8.343104290466982
      ],
      [
        "ĠJosÃ©",
        -8.358130912775298
      ],
      [
        "ĠserviÃ§o",
        -8.361515178134393
      ],
      [
        "ĠâĢ¢",
        -8.362056510134686
      ],
      [
        "ĠPaÃŃs",
        -8.367472176463863
      ],
      [
        "Ġpalavra",
        -8.369343999596438
      ],
      [
        "Ġacordo",
        -8.374181621964105
      ],
      [
        "Ġdeste",
        -8.37860904121429
      ],
      [
        "Ġdepois",
        -8.38169779724487
      ],
      [
        "Ġtodo",
        -8.388459629190903
      ],
      [
        "Ġprazo",
        -8.399182619403708
      ],
      [
        "ĠMinistÃ©rio",
        -8.399621319844703
      ],
      [
        "Ġcada",
        -8.39969283414079
      ],
      [
        "Ġdisse",
        -8.411360428627772
      ],
      [
        "x",
        -8.417417830399764
      ],
      [
        "âĢĵ",
        -8.42435846800784
      ],
      [
        "ĠCarlos",
        -8.42519233674139
      ],
      [
        "ĠapÃ³s",
        -8.430247506076027
      ],
      [
        "ĠSim",
        -8.432180167199125
      ],
      [
        "Ġagora",
        -8.435406665782132
      ],
      [
        "ĠSem",
        -8.436139024796342
      ],
      [
        "ÃĩÃĥO",
        -8.437746126234785
      ],
      [
        "ĠpÃºblica",
        -8.438335547414027
      ],
      [
        "Ġsistema",
        -8.442408636433555
      ],
      [
        "Ġ12",
        -8.44774410177623
      ],
      [
        "Ġseguinte",
        -8.450752436327617
      ],
      [
        "ĠDA",
        -8.450991359136466
      ],
      [
        "2009",
        -8.45271436503125
      ],
      [
        "Ġdeve",
        -8.457675708865395
      ],
      [
        "Bloco",
        -8.46072805402772
      ],
      [
        "Ġmelhor",
        -8.463464163885206
      ],
      [
        "ĠRelator",
        -8.46409138426977
      ],
      [
        "ĠRepÃºblica",
        -8.464331475609146
      ],
      [
        "durante",
        -8.471877540857822
      ],
      [
        "Ġdizer",
        -8.4771043554459
      ],
      [
        "Ġsegundo",
        -8.478239895530793
      ],
      [
        "ĠÃ¡rea",
        -8.480153253086572
      ],
      [
        "...............",
        -8.485535865061811
      ],
      [
        "Ġmundo",
        -8.48658529586118
      ],
      [
        "U",
        -8.490669426533447
      ],
      [
        "ĠmatÃ©ria",
        -8.49902540227916
      ],
      [
        "ĠJustiÃ§a",
        -8.503314056613778
      ],
      [
        "Ġsido",
        -8.5083353835873
      ],
      [
        "ĠpÃºblico",
        -8.508721644012624
      ],
      [
        "Ġ15",
        -8.51217640672142
      ],
      [
        "Ġ20",
        -8.515608077031812
      ],
      [
        "0",
        -8.517392479172079
      ],
      [
        "Ġestava",
        -8.517629196970129
      ],
      [
        "Ġrecursos",
        -8.518778927538355
      ],
      [
        "dezembro",
        -8.523899463594592
      ],
      [
        "ĠpolÃŃtica",
        -8.52909894747544
      ],
      [
        "min",
        -8.529744948758104
      ],
      [
        "in",
        -8.530957114301875
      ],
      [
        "j",
        -8.532375106035458
      ],
      [
        "ĠEstados",
        -8.534279908623617
      ],
      [
        "PT",
        -8.535329209398302
      ],
      [
        "decisÃ£o",
        -8.54048328338639
      ],
      [
        "Ġpartir",
        -8.546543896155253
      ],
      [
        "11",
        -8.548056736390686
      ],
      [
        "ĠtrÃªs",
        -8.552559660453394
      ],
      [
        "Ġsob",
        -8.554507838957573
      ],
      [
        "ĠPT",
        -8.555702593389789
      ],
      [
        "Ġex",
        -8.56041027057304
      ],
      [
        "Ġmil",
        -8.562182896743453
      ],
      [
        "Ġoutro",
        -8.567059258461567
      ],
      [
        "ĠentÃ£o",
        -8.571215789225397
      ],
      [
        "_",
        -8.571589878806785
      ],
      [
        "10",
        -8.575930366579762
      ],
      [
        "Ġpresente",
        -8.576745782357815
      ],
      [
        "Ġtudo",
        -8.576967482583147
      ],
      [
        "Ġvoto",
        -8.578098927861529
      ],
      [
        "revisÃ£o",
        -8.584690170648406
      ],
      [
        "uma",
        -8.58805570714737
      ],
      [
        "Ġgoverno",
        -8.594042919012562
      ],
      [
        "Ġdesde",
        -8.594667728456779
      ],
      [
        "Ġdias",
        -8.595565926438438
      ],
      [
        "ĠJoÃ£o",
        -8.597018826427622
      ],
      [
        "Ġpoder",
        -8.599380900268182
      ],
      [
        "nos",
        -8.600364882751537
      ],
      [
        "@",
        -8.600761705327495
      ],
      [
        "=",
        -8.602810657346918
      ],
      [
        "Ġimportante",
        -8.604495914104634
      ],
      [
        "aÃ§Ãµes",
        -8.605254340936145
      ],
      [
        "ĠpaÃŃs",
        -8.619710975678071
      ],
      [
        "Ġnossa",
        -8.621258694257943
      ],
      [
        "ĠIsso",
        -8.62405462507856
      ],
      [
        "Ġnovo",
        -8.624521339843318
      ],
      [
        "ĠUniÃ£o",
        -8.624763443582287
      ],
      [
        "orador",
        -8.631241371075951
      ],
      [
        "ĠUm",
        -8.634398414517875
      ],
      [
        "ĠpopulaÃ§Ã£o",
        -8.6399171913732
      ],
      [
        "00",
        -8.640411358081664
      ],
      [
        "Ġfinal",
        -8.645871613293137
      ],
      [
        "Ġsempre",
        -8.645958523934167
      ],
      [
        "Ġinciso",
        -8.650245659088485
      ],
      [
        "ĠPMDB",
        -8.658135803080505
      ],
      [
        "Ġmomento",
        -8.658239766916207
      ],
      [
        "Ãµes",
        -8.659591771491026
      ],
      [
        "Ġvalor",
        -8.659860674360575
      ],
      [
        "ĠDo",
        -8.661846987609719
      ],
      [
        "ĠrelaÃ§Ã£o",
        -8.664004244695958
      ],
      [
        "Ġbrasileiro",
        -8.664945882531
      ],
      [
        "ĠnÃºmero",
        -8.666384256130076
      ],
      [
        "Ġduas",
        -8.667844432712993
      ],
      [
        "ĠmilhÃµes",
        -8.668171321212563
      ],
      [
        "Ġ13",
        -8.67140021579795
      ],
      [
        "Ġpouco",
        -8.674676475800334
      ],
      [
        "Ġpelos",
        -8.67553435094715
      ],
      [
        "ĠFoi",
        -8.676554658428214
      ],
      [
        "Ġte",
        -8.676753115560013
      ],
      [
        "ĠEntÃ£o",
        -8.678832486872821
      ],
      [
        "ĠdÃ¡",
        -8.679960351762668
      ],
      [
        "Congresso",
        -8.680043958418203
      ],
      [
        "09",
        -8.680115359704645
      ],
      [
        "Ġ16",
        -8.680233761631456
      ],
      [
        "Ġmenos",
        -8.683305548136515
      ],
      [
        "Ġ14",
        -8.684598645490729
      ],
      [
        "ĠvotaÃ§Ã£o",
        -8.684885574090934
      ],
      [
        "mento",
        -8.691421132930886
      ],
      [
        "ĠâĢĶ",
        -8.692491220207911
      ],
      [
        "aprovaÃ§Ã£o",
        -8.693299855919461
      ],
      [
        "ĠPela",
        -8.700137682858086
      ],
      [
        "nesta",
        -8.700435098207398
      ],
      [
        "Ġquanto",
        -8.711992002526735
      ],
      [
        "ĠSul",
        -8.71223967261051
      ],
      [
        "ĠPoder",
        -8.713536595922163
      ],
      [
        "Ġfim",
        -8.713663742197376
      ],
      [
        "ĠperÃŃodo",
        -8.718188715292209
      ],
      [
        "ĠlÃ¡",
        -8.718974049564043
      ],
      [
        "Ġeles",
        -8.719165184431054
      ],
      [
        "Ġ24",
        -8.728312647909274
      ],
      [
        "neste",
        -8.72859379761233
      ],
      [
        "ĠÃºnico",
        -8.738043231815114
      ],
      [
        "ĠhistÃ³ria",
        -8.738233147299729
      ],
      [
        "ĠinformaÃ§Ãµes",
        -8.74183218672684
      ],
      [
        "Ġtodas",
        -8.7442142315477
      ],
      [
        "Ġvezes",
        -8.74492357650017
      ],
      [
        "Ġcasa",
        -8.7465192042061
      ],
      [
        "Ġproposta",
        -8.75096584746036
      ],
      [
        "ĠfamÃŃlia",
        -8.753297513491589
      ],
      [
        "ĠsaÃºde",
        -8.753395709520474
      ],
      [
        "Ġfato",
        -8.755186230608501
      ],
      [
        "Ġtinha",
        -8.759966163329429
      ],
      [
        "Ġgrupo",
        -8.763417013715408
      ],
      [
        "Ġexemplo",
        -8.765690650627501
      ],
      [
        "ĠregiÃ£o",
        -8.768147623694537
      ],
      [
        "alÃ©m",
        -8.769512168033067
      ],
      [
        "Ġexternas",
        -8.772135270490445
      ],
      [
        "Ġfez",
        -8.772702011179794
      ],
      [
        "Ġ17",
        -8.773633630965787
      ],
      [
        "Ġfaz",
        -8.773850936152677
      ],
      [
        "âĢĿ,",
        -8.774369344266395
      ],
      [
        "ĠVer",
        -8.77993478047199
      ],
      [
        "Ġ18",
        -8.780354812327685
      ],
      [
        "Ġ30",
        -8.780615953080167
      ],
      [
        "LigaÃ§Ãµes",
        -8.781223176466966
      ],
      [
        "ĠquestÃ£o",
        -8.781236325172932
      ],
      [
        "Ġquero",
        -8.781929420765357
      ],
      [
        "Ġver",
        -8.78367270329547
      ],
      [
        "Ġmaio",
        -8.784581075455025
      ],
      [
        "Ġato",
        -8.788824061631642
      ],
      [
        "ĠLuiz",
        -8.789735007857963
      ],
      [
        "ES",
        -8.792183464522797
      ],
      [
        "Ġlugar",
        -8.793571830613491
      ],
      [
        "julho",
        -8.793718050637287
      ],
      [
        "ĠtÃªm",
        -8.79500364055876
      ],
      [
        "Ġrecurso",
        -8.79725351870247
      ],
      [
        "ÃĥO",
        -8.7982456491147
      ],
      [
        "Ġpois",
        -8.79881397976305
      ],
      [
        "Ġbrasileira",
        -8.799439184386692
      ],
      [
        "ĠEsta",
        -8.804887760796582
      ],
      [
        "Ġbase",
        -8.808340029062432
      ],
      [
        "2015",
        -8.808669849470407
      ],
      [
        "ĠExÂª",
        -8.809918625898556
      ],
      [
        "Ġprograma",
        -8.811127533633409
      ],
      [
        "Ġtoda",
        -8.811804216523948
      ],
      [
        "sentido",
        -8.811808424746141
      ],
      [
        "Ġdiz",
        -8.812061105787294
      ],
      [
        "Ġconta",
        -8.812300167597078
      ],
      [
        "Ġsocial",
        -8.814687530592327
      ],
      [
        "com",
        -8.814716154331165
      ],
      [
        "setembro",
        -8.815965388259842
      ],
      [
        "12",
        -8.818326526205373
      ],
      [
        "Ġalguns",
        -8.819699801227621
      ],
      [
        "ESSÃĥO",
        -8.819980665995075
      ],
      [
        "temos",
        -8.820556102759802
      ],
      [
        "lado",
        -8.821267503481765
      ],
      [
        "Ġempresa",
        -8.821667477616524
      ],
      [
        "Ġseria",
        -8.822183822785407
      ],
      [
        "Ġtendo",
        -8.82665512015852
      ],
      [
        "Ġpovo",
        -8.827169550524381
      ],
      [
        "Ġnada",
        -8.837201075000822
      ],
      [
        "sÃ£o",
        -8.838167851101577
      ],
      [
        "PMDB",
        -8.842004467119711
      ],
      [
        "Ġdata",
        -8.844103157023314
      ],
      [
        "dispÃµe",
        -8.845960410301956
      ],
      [
        "Â°",
        -8.84623531888847
      ],
      [
        "Ġ:(",
        -8.84700066367804
      ],
      [
        "ria",
        -8.847087996182672
      ],
      [
        "Ġvou",
        -8.848133993551295
      ],
      [
        "Ġcon",
        -8.85109514437535
      ],
      [
        "Ġcoisa",
        -8.855632403697827
      ],
      [
        "Ġ2007",
        -8.856082011223247
      ],
      [
        "Ġmesma",
        -8.856870651354095
      ],
      [
        "Muito",
        -8.856915574778002
      ],
      [
        "Ġsociedade",
        -8.857581934037102
      ],
      [
        "Ġpodem",
        -8.858390993333154
      ],
      [
        "junho",
        -8.85862371196979
      ],
      [
        "UTC",
        -8.866436467396097
      ],
      [
        "H",
        -8.868928950489272
      ],
      [
        "ĠRe",
        -8.869689466205857
      ],
      [
        "Ġnem",
        -8.870657488979582
      ],
      [
        "Ġnacional",
        -8.876190636529481
      ],
      [
        "Ġnova",
        -8.880182871491181
      ],
      [
        "ĠÃºltimo",
        -8.880835372310855
      ],
      [
        "ĠGrande",
        -8.882174542969214
      ],
      [
        "Ġtenho",
        -8.884017177015757
      ],
      [
        "ĠVamos",
        -8.884145759509238
      ],
      [
        "Ġdisso",
        -8.88542946839508
      ],
      [
        "Ġfavor",
        -8.887084799283848
      ],
      [
        "Decreto",
        -8.8897401394869
      ],
      [
        "Ġ19",
        -8.890515075512832
      ],
      [
        "Art",
        -8.892311377115746
      ],
      [
        "DO",
        -8.892898816781326
      ],
      [
        "Ġteve",
        -8.89722428783504
      ],
      [
        "Ġdesenvolvimento",
        -8.898542583848812
      ],
      [
        "Ġ21",
        -8.900453624579246
      ],
      [
        "Ġquais",
        -8.900984620370334
      ],
      [
        "Ġestou",
        -8.901767340592023
      ],
      [
        "2013",
        -8.906602732406142
      ],
      [
        "Ġestado",
        -8.909233583143392
      ],
      [
        "ĠtÃ£o",
        -8.91188583440159
      ],
      [
        "Exa",
        -8.914007172293283
      ],
      [
        "Ġoutra",
        -8.919027118603186
      ],
      [
        "ĠPR",
        -8.920825958753678
      ],
      [
        "Ġcausa",
        -8.926888635695857
      ],
      [
        "anos",
        -8.927199429069653
      ],
      [
        "Ġsei",
        -8.933209180838784
      ],
      [
        "Ġ2008",
        -8.934375052447443
      ],
      [
        "ĠSanta",
        -8.93455016068009
      ],
      [
        "ĠmarÃ§o",
        -8.934957889872814
      ],
      [
        "Ġconstitucional",
        -8.935354384437387
      ],
      [
        "Ġ2006",
        -8.936822710898703
      ],
      [
        "ĠJaneiro",
        -8.938676970862064
      ],
      [
        "Ġbom",
        -8.938898308233368
      ],
      [
        "Ġoutubro",
        -8.94146327688971
      ],
      [
        "Ġagosto",
        -8.943465675464614
      ],
      [
        "ĠEla",
        -8.94560321922181
      ],
      [
        "2011",
        -8.946377512571335
      ],
      [
        "Ġ23",
        -8.947974182772587
      ],
      [
        "Ġpra",
        -8.94868021450493
      ],
      [
        "Ġpessoa",
        -8.949391761369295
      ],
      [
        "serviÃ§os",
        -8.958743571746842
      ],
      [
        "Ġtexto",
        -8.960310152174701
      ],
      [
        "Ġhavia",
        -8.962566208480473
      ],
      [
        "Ġfor",
        -8.966253973503632
      ],
      [
        "Ġ25",
        -8.9681659315709
      ],
      [
        "Ġ22",
        -8.970672324355931
      ],
      [
        "Ġco",
        -8.97136389065651
      ],
      [
        "Ġmedida",
        -8.97465042262459
      ],
      [
        "Ġdessa",
        -8.9754429734529
      ],
      [
        "Ġestar",
        -8.9778436537617
      ],
      [
        "Ġabril",
        -8.979070857611651
      ],
      [
        "ĠIII",
        -8.982041216029709
      ],
      [
        "Ġempresas",
        -8.982615102647175
      ],
      [
        "habitantes",
        -8.982853527734079
      ],
      [
        "ter",
        -8.984223520888321
      ],
      [
        "Ġtipo",
        -8.985862092729393
      ],
      [
        "Ġjaneiro",
        -8.986037345066327
      ],
      [
        "://",
        -8.98623780551858
      ],
      [
        "Ġdesse",
        -8.986912781184797
      ],
      [
        "Ġprincipal",
        -8.988516309744504
      ],
      [
        "05",
        -8.988710677010843
      ],
      [
        "ĠEduardo",
        -8.991852430996177
      ],
      [
        "Ġnovembro",
        -8.99541565640294
      ],
      [
        "Ġ2009",
        -8.999967022543531
      ],
      [
        "MA",
        -9.002145416948526
      ],
      [
        "Ġfalar",
        -9.002154969103927
      ],
      [
        "15",
        -9.0030000291946
      ],
      [
        "ĠQue",
        -9.003444967914614
      ],
      [
        "ĠcondiÃ§Ãµes",
        -9.004691517999902
      ],
      [
        "ĠPARECER",
        -9.004913264841557
      ],
      [
        "ĠsituaÃ§Ã£o",
        -9.006197385945828
      ],
      [
        "Ġtrata",
        -9.010180000197211
      ],
      [
        "000",
        -9.011354285568986
      ],
      [
        "MunicÃŃpio",
        -9.013007514507889
      ],
      [
        "Ġsemana",
        -9.016240612448254
      ],
      [
        "NÃ³s",
        -9.01680049196992
      ],
      [
        "ĠproduÃ§Ã£o",
        -9.018108528783053
      ],
      [
        "Ġpro",
        -9.01836396019664
      ],
      [
        "ĠIn",
        -9.019423079798935
      ],
      [
        "estamos",
        -9.020159315979138
      ],
      [
        "Ġpresidente",
        -9.020912521991098
      ],
      [
        "ĠseguranÃ§a",
        -9.023478842856248
      ],
      [
        "Ġdar",
        -9.026815651274733
      ],
      [
        "ÃŃ",
        -9.028539601514169
      ],
      [
        "ĠSala",
        -9.028884316632466
      ],
      [
        "w",
        -9.030896882426738
      ],
      [
        "Ġtanto",
        -9.033713954122089
      ],
      [
        "ĠmunicÃŃpio",
        -9.03410356237474
      ],
      [
        "ĠEste",
        -9.034600664525518
      ],
      [
        "PSB",
        -9.03656972063837
      ],
      [
        "Ġ2011",
        -9.0380937811606
      ],
      [
        "Ġsabe",
        -9.038746287865898
      ],
      [
        "ĠEstÃ¡",
        -9.039046943625095
      ],
      [
        "Ġ2010",
        -9.045053188808035
      ],
      [
        "Ġ2005",
        -9.045399651122722
      ],
      [
        "ĠEssa",
        -9.04571773885468
      ],
      [
        "Regimento",
        -9.046389907261274
      ],
      [
        "ĠEmenda",
        -9.046483220113458
      ],
      [
        "amente",
        -9.05522892338964
      ],
      [
        "Ġvolta",
        -9.056598758798009
      ],
      [
        "03",
        -9.059591773977631
      ],
      [
        "ĠEsse",
        -9.06149711505964
      ],
      [
        "Ġverdade",
        -9.065105025374462
      ],
      [
        "Ġenquanto",
        -9.065500514852795
      ],
      [
        "sessÃ£o",
        -9.066212473212746
      ],
      [
        "ĠinÃŃcio",
        -9.0677641337843
      ],
      [
        "ĠprÃ³prio",
        -9.06807333242983
      ],
      [
        "ĠeducaÃ§Ã£o",
        -9.07036284126238
      ],
      [
        "providÃªncias",
        -9.07448358011662
      ],
      [
        "Ġrespeito",
        -9.074556084488467
      ],
      [
        "Ġfevereiro",
        -9.075938509849433
      ],
      [
        "ĠUma",
        -9.07813391196162
      ],
      [
        "feira",
        -9.078224252908782
      ],
      [
        "Ġvamos",
        -9.07901244171237
      ],
      [
        "Supremo",
        -9.079665444334262
      ],
      [
        "08",
        -9.080504818127968
      ],
      [
        "02",
        -9.081412506324302
      ],
      [
        "07",
        -9.082306744069816
      ],
      [
        "Ġpai",
        -9.082632210495367
      ],
      [
        "Deputada",
        -9.08440559579639
      ],
      [
        "nte",
        -9.086324134453765
      ],
      [
        "Ġdentro",
        -9.0873842138534
      ],
      [
        "Ġponto",
        -9.088025409250662
      ],
      [
        "Ġfeito",
        -9.088650087400168
      ],
      [
        "Ġquatro",
        -9.08955412895652
      ],
      [
        "Ġlocal",
        -9.093570597721117
      ],
      [
        "X",
        -9.094678981304822
      ],
      [
        "ĠInterno",
        -9.094688177109417
      ],
      [
        "Ġtenha",
        -9.094785331412483
      ],
      [
        "Ġapoio",
        -9.094796496798438
      ],
      [
        "Ġmim",
        -9.095950549965451
      ],
      [
        "Ġpena",
        -9.098490942847064
      ],
      [
        "Ġhoras",
        -9.098943065830984
      ],
      [
        "ĠsÃ©rie",
        -9.104825171794769
      ],
      [
        "ĠDr",
        -9.105127008052335
      ],
      [
        "ĠPresidÃªncia",
        -9.10595538171006
      ],
      [
        "ĠÃĢ",
        -9.106188474405132
      ],
      [
        "ĠÃ¡gua",
        -9.10756350016331
      ],
      [
        "ĠPÃºblico",
        -9.10948479767746
      ],
      [
        "criaÃ§Ã£o",
        -9.109933983207698
      ],
      [
        "ĠpossÃŃvel",
        -9.1113712710355
      ],
      [
        "Ġtotal",
        -9.116811858540714
      ],
      [
        "ĠUnidos",
        -9.116929352712196
      ],
      [
        "PDT",
        -9.11716070864342
      ],
      [
        "ĠtÃ©cnica",
        -9.118250622131097
      ],
      [
        "art",
        -9.11951237354317
      ],
      [
        "Ġparecer",
        -9.119934554870484
      ],
      [
        "Ġnum",
        -9.120319159307511
      ],
      [
        "ĠBrasÃŃlia",
        -9.120724266106162
      ],
      [
        "Ġdemais",
        -9.120729647082898
      ],
      [
        "Ġ(\"",
        -9.124938873117376
      ],
      [
        "OS",
        -9.125299446543762
      ],
      [
        "2000",
        -9.125414027322678
      ],
      [
        "ĠTurma",
        -9.127127488236042
      ],
      [
        "Ġconforme",
        -9.128115857764897
      ],
      [
        "ĠpaÃŃses",
        -9.12846907962443
      ],
      [
        "20",
        -9.133437709969195
      ],
      [
        "Ġnunca",
        -9.133554392412789
      ],
      [
        "ĠConselho",
        -9.13553579508811
      ],
      [
        "Ġproblema",
        -9.135662651576352
      ],
      [
        "Ġfilme",
        -9.135701640062386
      ],
      [
        "ĠSra",
        -9.13670178530414
      ],
      [
        "ĠtÃŃtulo",
        -9.138424165730973
      ],
      [
        "2008",
        -9.138541265280317
      ],
      [
        "aÃŃ",
        -9.14066500146626
      ],
      [
        "Ġalgo",
        -9.143958076666957
      ],
      [
        "04",
        -9.14430014441557
      ],
      [
        "Ġjogo",
        -9.145433653672852
      ],
      [
        "06",
        -9.148649008860811
      ],
      [
        "ĠQuando",
        -9.14908358139214
      ],
      [
        "Ġcerca",
        -9.149469269751274
      ],
      [
        "Ġobrigado",
        -9.1499655783154
      ],
      [
        "Ġ26",
        -9.15011859133572
      ],
      [
        "ĠmÃºsica",
        -9.1501476909922
      ],
      [
        "2007",
        -9.150643494814403
      ],
      [
        "Ġsou",
        -9.150921806304062
      ],
      [
        "ĠUniversidade",
        -9.152545280760394
      ],
      [
        "ĠMaria",
        -9.152818414161407
      ],
      [
        "Ġespecial",
        -9.15294609651218
      ],
      [
        "ĠsÃ©culo",
        -9.152955006271789
      ],
      [
        "Ġfalta",
        -9.153799139959537
      ],
      [
        "Ġprecisa",
        -9.154010702161012
      ],
      [
        "defesa",
        -9.154360199186709
      ],
      [
        "CÃ³digo",
        -9.156473973536404
      ],
      [
        "ĠEducaÃ§Ã£o",
        -9.160623977574156
      ],
      [
        "Ġfora",
        -9.16377088294951
      ],
      [
        "The",
        -9.164262558826996
      ],
      [
        "ĠatravÃ©s",
        -9.165731372545851
      ],
      [
        "2010",
        -9.165790033852918
      ],
      [
        "ĠSilva",
        -9.166389934724805
      ],
      [
        "Ġregimental",
        -9.169041598309056
      ],
      [
        "Ġvota",
        -9.169136996276114
      ],
      [
        "Ġpedido",
        -9.170085472316323
      ],
      [
        "Ġvista",
        -9.172940653793262
      ],
      [
        "Ġcargo",
        -9.17305666810666
      ],
      [
        "Ġsegunda",
        -9.174020441508272
      ],
      [
        "Ġdireitos",
        -9.17447733662572
      ],
      [
        "Ġpelas",
        -9.175735913473602
      ],
      [
        "PlenÃ¡rio",
        -9.176482551289473
      ],
      [
        "Ġrealizada",
        -9.17813934032063
      ],
      [
        "Ġcinco",
        -9.178246490108425
      ],
      [
        "devido",
        -9.179334695650056
      ],
      [
        "Ġ2004",
        -9.182118643219908
      ],
      [
        "ĠTotal",
        -9.183733850396171
      ],
      [
        "registro",
        -9.186902119812984
      ],
      [
        "ĠPedro",
        -9.187069824597636
      ],
      [
        "Ġ28",
        -9.187308528972506
      ],
      [
        "ĠOliveira",
        -9.188415251128864
      ],
      [
        "res",
        -9.19179931137928
      ],
      [
        "ĠprÃ³pria",
        -9.193214521830916
      ],
      [
        "Ġobjetivo",
        -9.193645224840926
      ],
      [
        "ĠJÃ¡",
        -9.194472823549363
      ],
      [
        "Ġmorte",
        -9.194492030538754
      ],
      [
        "Ġfazendo",
        -9.20148624919461
      ],
      [
        "serÃ£o",
        -9.201520988080054
      ],
      [
        "Ġobjeto",
        -9.20165940602488
      ],
      [
        "vÃ¡rios",
        -9.201737149036028
      ],
      [
        "eram",
        -9.201796784789058
      ],
      [
        "ĠexercÃŃcio",
        -9.20412662545464
      ],
      [
        "Ġ2013",
        -9.20525473187086
      ],
      [
        "Ġ27",
        -9.205570301186857
      ],
      [
        "ĠrazÃ£o",
        -9.205786514595191
      ],
      [
        "Ġ2012",
        -9.206270182186786
      ],
      [
        "..............",
        -9.206280924227572
      ],
      [
        "origem",
        -9.206460179189266
      ],
      [
        "Executivo",
        -9.207861575473752
      ],
      [
        "Ġacesso",
        -9.210269829902314
      ],
      [
        "Ġmeses",
        -9.21249304819364
      ],
      [
        "ĠSaÃºde",
        -9.215039314022365
      ],
      [
        "ando",
        -9.215358993548367
      ],
      [
        "ĠÃ©poca",
        -9.215430271012398
      ],
      [
        "li",
        -9.218874230523168
      ],
      [
        "Ġthe",
        -9.220997633647675
      ],
      [
        "AlÃ©m",
        -9.223904435221783
      ],
      [
        "PTB",
        -9.224094612162002
      ],
      [
        "Ġ29",
        -9.226637428129758
      ],
      [
        "and",
        -9.230717697848066
      ],
      [
        "ĠFilho",
        -9.232805509544468
      ],
      [
        "Ġluta",
        -9.232879082057522
      ],
      [
        "ĠSegundo",
        -9.23305810608793
      ],
      [
        "ĠSocial",
        -9.23724440543136
      ],
      [
        "ĠAgora",
        -9.237256079630232
      ],
      [
        "Ġfosse",
        -9.237321243653293
      ],
      [
        "Ġinclusive",
        -9.23755819596495
      ],
      [
        "Ġdeixar",
        -9.241382494466288
      ],
      [
        "radiodifusÃ£o",
        -9.24180543683569
      ],
      [
        "Ġgeral",
        -9.245305824190908
      ],
      [
        "Ġmercado",
        -9.24742255106
      ],
      [
        "dores",
        -9.247565127841632
      ],
      [
        "ĠTem",
        -9.248012559436178
      ],
      [
        "ĠK",
        -9.249052930729311
      ],
      [
        "Ġmembro",
        -9.249475453827277
      ],
      [
        "13",
        -9.250843408847995
      ],
      [
        "Ġqualidade",
        -9.252446345175246
      ],
      [
        "Ġpagamento",
        -9.252990435482037
      ],
      [
        "Ġquase",
        -9.25535387461228
      ],
      [
        "Ġfilho",
        -9.2568570618187
      ],
      [
        "altera",
        -9.256940179867822
      ],
      [
        "Ġvem",
        -9.257680911383387
      ],
      [
        "ĠCo",
        -9.25781834328315
      ],
      [
        "Ġalgumas",
        -9.25825309303119
      ],
      [
        "Ġ2003",
        -9.259099347934251
      ],
      [
        "nÃ£o",
        -9.260261112618307
      ],
      [
        "tanto",
        -9.26033206355165
      ],
      [
        "Ġficar",
        -9.261838981665258
      ],
      [
        "SP",
        -9.262422426993677
      ],
      [
        "Ġquer",
        -9.262640995532792
      ],
      [
        "Ġsim",
        -9.263503165816294
      ],
      [
        "ĠDeus",
        -9.264172352560044
      ],
      [
        "Ġminutos",
        -9.264693617490046
      ],
      [
        "2012",
        -9.2674470206324
      ],
      [
        "ano",
        -9.26840391539215
      ],
      [
        "2016",
        -9.270527393442832
      ],
      [
        "Ġmaioria",
        -9.271906072308012
      ],
      [
        "Ġpoderia",
        -9.27198680801122
      ],
      [
        "ĠPP",
        -9.27696118848851
      ],
      [
        "br",
        -9.277044370496624
      ],
      [
        "STF",
        -9.279051611453555
      ],
      [
        "Ġequipe",
        -9.27914504775337
      ],
      [
        "Ġtal",
        -9.279382836101409
      ],
      [
        "Ġkm",
        -9.279884100131154
      ],
      [
        "Ġdados",
        -9.280641259203623
      ],
      [
        "AS",
        -9.288460348620326
      ],
      [
        "Ġdinheiro",
        -9.28847179866057
      ],
      [
        "Ġrequerimento",
        -9.292254839650363
      ],
      [
        "Ġconhecido",
        -9.296797348558089
      ],
      [
        "Ġdele",
        -9.297704244200403
      ],
      [
        "Ġpre",
        -9.300633154093768
      ],
      [
        "https",
        -9.30346413800065
      ],
      [
        "Ġesses",
        -9.304511068589427
      ],
      [
        "rÃ¡",
        -9.305771674867112
      ],
      [
        "Ġmodo",
        -9.305824443206976
      ],
      [
        "ĠHÃ¡",
        -9.306868022128183
      ],
      [
        "agravo",
        -9.30699989673793
      ],
      [
        "lhe",
        -9.309659965894596
      ],
      [
        "Ġensino",
        -9.31074177588904
      ],
      [
        "Ġessas",
        -9.31362786033493
      ],
      [
        "Ġlegal",
        -9.31394710860354
      ],
      [
        "ĠreuniÃ£o",
        -9.314583675548445
      ],
      [
        "Ġboa",
        -9.31500401854157
      ],
      [
        "ĠprÃ¡tica",
        -9.318359380309625
      ],
      [
        "2014",
        -9.319744731004237
      ],
      [
        "somente",
        -9.32039224978148
      ],
      [
        "ĠÃºltima",
        -9.321192967602922
      ],
      [
        "Ġnuma",
        -9.322077222318589
      ],
      [
        "ĠParecer",
        -9.322384355543916
      ],
      [
        "Ġmuitas",
        -9.323995165190029
      ],
      [
        "ĠMin",
        -9.324504395668988
      ],
      [
        "ĠAssim",
        -9.324505743487142
      ],
      [
        "entanto",
        -9.328305690732789
      ],
      [
        "redaÃ§Ã£o",
        -9.328510578922629
      ],
      [
        "ĠLula",
        -9.329140777532846
      ],
      [
        "atividades",
        -9.329818290328138
      ],
      [
        "Ġ50",
        -9.330105619530205
      ],
      [
        "Ġjunto",
        -9.331087288253668
      ],
      [
        "ĠLegislativo",
        -9.332202847882131
      ],
      [
        "Ġnoite",
        -9.332265155564782
      ],
      [
        "ĠNova",
        -9.334006712773585
      ],
      [
        "Ġsuperior",
        -9.33435858546858
      ],
      [
        "ĠPÃºblica",
        -9.335326078887718
      ],
      [
        "ĠLÃŃder",
        -9.335463993865508
      ],
      [
        "Ġgrandes",
        -9.33547472916361
      ],
      [
        "ĠmÃ£e",
        -9.335475433256246
      ],
      [
        "rio",
        -9.336109264323456
      ],
      [
        "Ġnorte",
        -9.338168826278949
      ],
      [
        ");",
        -9.338721242152
      ],
      [
        "Ġcerto",
        -9.342102486913523
      ],
      [
        "ĠparticipaÃ§Ã£o",
        -9.342403288152866
      ],
      [
        "Ġ2015",
        -9.34243118475668
      ],
      [
        "Ġinteresse",
        -9.34412239411939
      ],
      [
        "aumento",
        -9.344805091954155
      ],
      [
        "Ġhomem",
        -9.34541970626674
      ],
      [
        "Ġcrime",
        -9.348537721705716
      ],
      [
        "missÃ£o",
        -9.349705471834712
      ],
      [
        "posiÃ§Ã£o",
        -9.351947926730697
      ],
      [
        "ĠPrograma",
        -9.352796208177836
      ],
      [
        "passou",
        -9.35308484431149
      ],
      [
        "Ġcontrole",
        -9.354129947678237
      ],
      [
        "Ġ2014",
        -9.354227281889012
      ],
      [
        "K",
        -9.354522667424536
      ],
      [
        "Ġemenda",
        -9.355688483534696
      ],
      [
        "ĠEM",
        -9.355870897507549
      ],
      [
        "Ġtarde",
        -9.35632097909802
      ],
      [
        "Ġsaber",
        -9.356373459843258
      ],
      [
        "Ġpossa",
        -9.3567989193125
      ],
      [
        "Ġpesquisa",
        -9.359861225933743
      ],
      [
        "ĠlegislaÃ§Ã£o",
        -9.359909925607177
      ],
      [
        "Presidente",
        -9.360609658720143
      ],
      [
        "ĠDia",
        -9.361435854993491
      ],
      [
        "ĠCon",
        -9.363062087195942
      ],
      [
        "ĠpolÃŃtico",
        -9.363248768590864
      ],
      [
        "Ġlongo",
        -9.364600964961058
      ],
      [
        "Ġpartido",
        -9.364677908124545
      ],
      [
        "ĠFernando",
        -9.365628924478258
      ],
      [
        "ĠRoberto",
        -9.36794443140418
      ],
      [
        "ĠAssociaÃ§Ã£o",
        -9.369790148633992
      ],
      [
        "Ġreforma",
        -9.370348817763102
      ],
      [
        "ĠTrabalho",
        -9.371143874506265
      ],
      [
        "Ġjulgamento",
        -9.37336740274726
      ],
      [
        "Ġnecessidade",
        -9.374449170425658
      ],
      [
        "AL",
        -9.374584391048744
      ],
      [
        "Ġbrasileiros",
        -9.37476135879358
      ],
      [
        "ĠpublicaÃ§Ã£o",
        -9.375623071019511
      ],
      [
        "Ġpreciso",
        -9.375817713431651
      ],
      [
        "ĠBem",
        -9.377700563171528
      ],
      [
        "ĠMaia",
        -9.378237537757794
      ],
      [
        "los",
        -9.378756792171735
      ],
      [
        "ĠPro",
        -9.379547906381823
      ],
      [
        "Ġdez",
        -9.379877608223042
      ],
      [
        "relatÃ³rio",
        -9.381841906494271
      ],
      [
        "Ġoficial",
        -9.383304000313055
      ],
      [
        "ĠextraordinÃ¡rio",
        -9.383865262305257
      ],
      [
        "Ġpassa",
        -9.384836082557792
      ],
      [
        "anÃ¡lise",
        -9.388132848289636
      ],
      [
        "Ġmuitos",
        -9.38818285603314
      ],
      [
        "Ġ100",
        -9.388466776914155
      ],
      [
        ".âĢĿ",
        -9.389229664786
      ],
      [
        "Ġsetor",
        -9.390545182548854
      ],
      [
        "Ġconstante",
        -9.391857498097098
      ],
      [
        "realizaÃ§Ã£o",
        -9.392242169992828
      ],
      [
        "mulheres",
        -9.392730255573554
      ],
      [
        "Ġ2016",
        -9.39537243954923
      ],
      [
        "mÃŃnimo",
        -9.39746350419599
      ],
      [
        "q",
        -9.397742189901408
      ],
      [
        "economia",
        -9.397954439430189
      ],
      [
        "poderÃ¡",
        -9.398379305911105
      ],
      [
        "ĠcrianÃ§as",
        -9.402976905011831
      ],
      [
        "ĠCiÃªncia",
        -9.403177068870145
      ],
      [
        "Z",
        -9.403484701680547
      ],
      [
        "ĠW",
        -9.403806662691508
      ],
      [
        "Ġatividade",
        -9.405932441868378
      ],
      [
        "ĠPortugal",
        -9.40608304027959
      ],
      [
        "Ġregime",
        -9.407084536327275
      ],
      [
        "ĠH",
        -9.407272006542886
      ],
      [
        "Ġenergia",
        -9.409605687081196
      ],
      [
        "vÃ¡rias",
        -9.410252400888323
      ],
      [
        "ĠespÃ©cie",
        -9.412076698593978
      ],
      [
        "ĠconstruÃ§Ã£o",
        -9.41249393172584
      ],
      [
        "Ġobra",
        -9.413108519747798
      ],
      [
        "ch",
        -9.413344526683805
      ],
      [
        "Partido",
        -9.413436553182812
      ],
      [
        "ante",
        -9.413926464830691
      ],
      [
        "Ġfrente",
        -9.414536385268631
      ],
      [
        "vam",
        -9.416042734421556
      ],
      [
        "ĠMesa",
        -9.41725228970158
      ],
      [
        "Ġmaneira",
        -9.417434169000709
      ],
      [
        "ĠÃ¡lbum",
        -9.417522473828432
      ],
      [
        "Ġassunto",
        -9.419537227626543
      ],
      [
        "legislativa",
        -9.419702952000796
      ],
      [
        "ĠNO",
        -9.42020022272108
      ],
      [
        "sejam",
        -9.42080808361844
      ],
      [
        "ĠMinas",
        -9.420980184236496
      ],
      [
        "19",
        -9.423471056945694
      ],
      [
        "DA",
        -9.423609233798311
      ],
      [
        "Ġchamado",
        -9.424328928539024
      ],
      [
        "Ġprincipalmente",
        -9.425000793250373
      ],
      [
        "ĠSua",
        -9.42642267666909
      ],
      [
        "16",
        -9.426569595980482
      ],
      [
        "Ġdebate",
        -9.426756468009495
      ],
      [
        "Ġatual",
        -9.427697557001627
      ],
      [
        "Ġpapel",
        -9.429792281118894
      ],
      [
        "discussÃ£o",
        -9.429886495377673
      ],
      [
        "ĠEstou",
        -9.431761356824827
      ],
      [
        "Ġproblemas",
        -9.432013520771276
      ],
      [
        "ĠDesenvolvimento",
        -9.432676750720068
      ],
      [
        "reais",
        -9.432742991676855
      ],
      [
        "Ġ31",
        -9.432747835424337
      ],
      [
        "presenÃ§a",
        -9.434497787068638
      ],
      [
        "ĠNorte",
        -9.4358118599348
      ],
      [
        "membros",
        -9.436473455596325
      ],
      [
        "ĠFrancisco",
        -9.437960978874507
      ],
      [
        "Ġcontrato",
        -9.440029539381548
      ],
      [
        "ĠediÃ§Ã£o",
        -9.440109641317775
      ],
      [
        "W",
        -9.440147815405515
      ],
      [
        "MunicÃŃpios",
        -9.441890861202284
      ],
      [
        "Ġproduto",
        -9.44474305728371
      ],
      [
        "ĠforÃ§a",
        -9.445219592336622
      ],
      [
        "concessÃ£o",
        -9.44764065529951
      ],
      [
        "dÃ©cada",
        -9.4484384498571
      ],
      [
        "Ġfala",
        -9.44894209762016
      ],
      [
        "Ġcoisas",
        -9.449370755384008
      ],
      [
        "2005",
        -9.450510755658604
      ],
      [
        "Ġqueria",
        -9.451114262583111
      ],
      [
        "Ġchegar",
        -9.452313266013324
      ],
      [
        "Ġhouve",
        -9.45289621152785
      ],
      [
        "ĠSP",
        -9.453213394553911
      ],
      [
        "prÃ³ximo",
        -9.453746620473517
      ],
      [
        "execuÃ§Ã£o",
        -9.455571522289926
      ],
      [
        "#",
        -9.455749091462543
      ],
      [
        "Ġalguma",
        -9.458550908956433
      ],
      [
        "Ġposso",
        -9.458762663990798
      ],
      [
        "Ġhora",
        -9.459489918221974
      ],
      [
        "Geral",
        -9.45991283750686
      ],
      [
        "2019",
        -9.460832798446754
      ],
      [
        "conjunto",
        -9.461684767651883
      ],
      [
        "responsabilidade",
        -9.463936686031028
      ],
      [
        "obras",
        -9.463952745679748
      ],
      [
        "Ġnesse",
        -9.465651665795336
      ],
      [
        "Ġbanda",
        -9.466843659968786
      ],
      [
        "Ġpassado",
        -9.467175712723154
      ],
      [
        "COMISSÃĥO",
        -9.467398323716427
      ],
      [
        "ĠDJ",
        -9.468774893089742
      ],
      [
        "Ġdeixa",
        -9.468984591984505
      ],
      [
        "ĠSÃ³",
        -9.469156607270868
      ],
      [
        "ĠnecessÃ¡rio",
        -9.469580217421283
      ],
      [
        "Ġembora",
        -9.470628779960938
      ],
      [
        "Ġdeveria",
        -9.473117959535983
      ],
      [
        "Ġfeita",
        -9.476155844324005
      ],
      [
        "ĠdiscussÃ£o",
        -9.476525622052694
      ],
      [
        "ĠimportÃ¢ncia",
        -9.477660927083503
      ],
      [
        "Ġconhecimento",
        -9.478861877023869
      ],
      [
        "ĠSeu",
        -9.48107802110735
      ],
      [
        "ĠcrÃ©dito",
        -9.481705000651685
      ],
      [
        "Ġlivro",
        -9.481912940053988
      ],
      [
        "Ġalgum",
        -9.482860559413725
      ],
      [
        "Ġparece",
        -9.482937712575808
      ],
      [
        "ĠDEM",
        -9.484570555115548
      ],
      [
        "RECURSO",
        -9.485516613362195
      ],
      [
        "Defesa",
        -9.486563548382469
      ],
      [
        "ĠfunÃ§Ã£o",
        -9.486926984052523
      ],
      [
        "disposto",
        -9.487683719847412
      ],
      [
        "ing",
        -9.48855027988375
      ],
      [
        "Ġvi",
        -9.489123341430233
      ],
      [
        "Distrito",
        -9.490184057248529
      ],
      [
        "&",
        -9.490775273436029
      ],
      [
        "ĠvÃ£o",
        -9.49231935745254
      ],
      [
        "ĠDa",
        -9.492818697560155
      ],
      [
        "previsto",
        -9.493037131034344
      ],
      [
        "ĠIV",
        -9.49321309774911
      ],
      [
        "Ġgente",
        -9.495493734070042
      ],
      [
        "ĠAntonio",
        -9.495634263342335
      ],
      [
        "ĠmÃ©dia",
        -9.496000669839503
      ],
      [
        "ĠRIC",
        -9.497032572089497
      ],
      [
        "portanto",
        -9.497421833432094
      ],
      [
        "ĠcompetÃªncia",
        -9.497755769449093
      ],
      [
        "cÃ³rdÃ£o",
        -9.498643637267312
      ],
      [
        "ĠCivil",
        -9.498726023806825
      ],
      [
        "sociais",
        -9.50013469309692
      ],
      [
        "podemos",
        -9.50047179547475
      ],
      [
        "Ġbusca",
        -9.500536549610077
      ],
      [
        "2017",
        -9.502264666415718
      ],
      [
        "tos",
        -9.502784548162229
      ],
      [
        "Ġmulher",
        -9.50355819662844
      ],
      [
        "ĠEMENDA",
        -9.506831737487596
      ],
      [
        "ntes",
        -9.50738190387659
      ],
      [
        "ĠTecnologia",
        -9.50754427688217
      ],
      [
        "ĠLe",
        -9.508074280703743
      ],
      [
        "ĠApÃ³s",
        -9.509499106277822
      ],
      [
        "âĢĻ",
        -9.510666840580829
      ],
      [
        "Ġacho",
        -9.511639479803872
      ],
      [
        "mÃªs",
        -9.515077056294944
      ],
      [
        "Ġpessoal",
        -9.518898368277355
      ],
      [
        "ĠmudanÃ§a",
        -9.520112031921707
      ],
      [
        "iniciativa",
        -9.520591298640202
      ],
      [
        "Â²",
        -9.521033674270251
      ],
      [
        "ĠComunicaÃ§Ã£o",
        -9.52227368031629
      ],
      [
        "Ġfica",
        -9.52292893931148
      ],
      [
        "Ġterra",
        -9.524093649232096
      ],
      [
        "ServiÃ§o",
        -9.524837862432522
      ],
      [
        "ista",
        -9.525414787897637
      ],
      [
        "Ġ1990",
        -9.52628474160895
      ],
      [
        "ĠPrimeira",
        -9.528224561998872
      ],
      [
        "ĠMe",
        -9.528316306324976
      ],
      [
        "Campeonato",
        -9.528580216539876
      ],
      [
        "por",
        -9.52878882718966
      ],
      [
        "Ġcapital",
        -9.531760355646275
      ],
      [
        "ĠinglÃªs",
        -9.531931640524103
      ],
      [
        "DEM",
        -9.533028929382084
      ],
      [
        "ĠREQUERIMENTO",
        -9.53342672455806
      ],
      [
        "ĠBrasileiro",
        -9.53350291302815
      ],
      [
        "Ġnenhum",
        -9.533866149755006
      ],
      [
        "carreira",
        -9.53444612945431
      ],
      [
        "mÃ©rito",
        -9.535579450003414
      ],
      [
        "prevista",
        -9.537448920170425
      ],
      [
        "Ġcampo",
        -9.541015948959387
      ],
      [
        "Ġescola",
        -9.541821956354896
      ],
      [
        "tÃ£o",
        -9.541843483017358
      ],
      [
        "ĠObrigado",
        -9.542654958655366
      ],
      [
        "):",
        -9.544586093346888
      ],
      [
        "nÃŃvel",
        -9.544664407099884
      ],
      [
        "tornou",
        -9.546504608768569
      ],
      [
        "Ġforte",
        -9.54720648150022
      ],
      [
        "exame",
        -9.548509846143958
      ],
      [
        "*",
        -9.548774061678104
      ],
      [
        "jurÃŃdica",
        -9.549089942920178
      ],
      [
        "bilhÃµes",
        -9.549361663615764
      ],
      [
        "ĠVice",
        -9.550710976970414
      ],
      [
        "17",
        -9.550795190126657
      ],
      [
        "Ġanterior",
        -9.552402494226223
      ],
      [
        "30",
        -9.552473045612524
      ],
      [
        "ĠExcelÃªncia",
        -9.552684573808472
      ],
      [
        "ĠCorte",
        -9.55336136618114
      ],
      [
        "Ã¢mbito",
        -9.554522662640018
      ],
      [
        "ĠInstituto",
        -9.554541758961197
      ],
      [
        "TambÃ©m",
        -9.554881514576914
      ],
      [
        "ĠThe",
        -9.554961021565209
      ],
      [
        "Ġtemporada",
        -9.55672216329736
      ],
      [
        "Ġ2017",
        -9.557024184731032
      ],
      [
        "Ġ2020",
        -9.557121674947927
      ],
      [
        "comeÃ§ou",
        -9.557550911404194
      ],
      [
        "mandato",
        -9.559091705875357
      ],
      [
        "seguintes",
        -9.559315373658276
      ],
      [
        "ĠAmÃ©rica",
        -9.559396580746604
      ],
      [
        "ĠMarco",
        -9.559780232952242
      ],
      [
        "ĠCunha",
        -9.559808721192152
      ],
      [
        "discurso",
        -9.56066429423128
      ],
      [
        "Ġpossui",
        -9.56156874798116
      ],
      [
        "ĠCosta",
        -9.56186785326327
      ],
      [
        "Ġ2002",
        -9.56215864604296
      ],
      [
        "Ġoportunidade",
        -9.563906332215652
      ],
      [
        "serem",
        -9.564691246365705
      ],
      [
        "Ġcerteza",
        -9.565124650897213
      ],
      [
        "Ġlogo",
        -9.566571299970237
      ],
      [
        "Ġcampanha",
        -9.566722326496956
      ],
      [
        "valores",
        -9.567303320567229
      ],
      [
        "Ġprojetos",
        -9.567569217091227
      ],
      [
        "2006",
        -9.568417382913582
      ],
      [
        "Ġlinha",
        -9.568474910725502
      ],
      [
        "Depois",
        -9.569970134239789
      ],
      [
        "\")",
        -9.571262703944086
      ],
      [
        "ÃļLTI",
        -9.573209842761065
      ],
      [
        "Ġtitular",
        -9.576342330337956
      ],
      [
        "Ġvigor",
        -9.577328158560338
      ],
      [
        "aprovado",
        -9.577474411872084
      ],
      [
        "ĠaplicaÃ§Ã£o",
        -9.577707897298588
      ],
      [
        "ĠalguÃ©m",
        -9.57793835366384
      ],
      [
        "Ġficou",
        -9.578079561739983
      ],
      [
        "Ġsenhor",
        -9.578386763751428
      ],
      [
        "Ġresultado",
        -9.580482536624752
      ],
      [
        "ĠterritÃ³rio",
        -9.580732842627985
      ],
      [
        "ĠRequerimento",
        -9.58221241305026
      ],
      [
        "Ġprincipais",
        -9.5822829365768
      ],
      [
        "Ġtransporte",
        -9.582421011112386
      ],
      [
        "Ġrealizado",
        -9.582556775591982
      ],
      [
        "14",
        -9.584338032766611
      ],
      [
        "Ġautos",
        -9.584762587561102
      ],
      [
        "Ġlhe",
        -9.585630809066863
      ],
      [
        "Ġformula",
        -9.585872934328926
      ],
      [
        "ĠGuerra",
        -9.586805547904376
      ],
      [
        "Ġoriginal",
        -9.588648817318786
      ],
      [
        "Ġexiste",
        -9.589212968334408
      ],
      [
        "Ġfederal",
        -9.589954143921888
      ],
      [
        "Ġpauta",
        -9.59280693122616
      ],
      [
        "Ġsede",
        -9.59296957025855
      ],
      [
        "man",
        -9.593582441025978
      ],
      [
        "ĠSecretaria",
        -9.593594244144366
      ],
      [
        "Ġcorpo",
        -9.595419108591685
      ],
      [
        "Ã³rgÃ£o",
        -9.596701064698156
      ],
      [
        "comunicaÃ§Ã£o",
        -9.598165767975695
      ],
      [
        "ĠPode",
        -9.59920256839252
      ],
      [
        "Ġconsiderado",
        -9.600009960158223
      ],
      [
        "medidas",
        -9.601225550650828
      ],
      [
        "ĠpÃ¡gina",
        -9.602193419650344
      ],
      [
        "ĠEles",
        -9.602213486554447
      ],
      [
        "Ġnatureza",
        -9.602330146431637
      ],
      [
        "Ġcriar",
        -9.60422494489618
      ],
      [
        "apreciaÃ§Ã£o",
        -9.605431403364198
      ],
      [
        "Ġclaro",
        -9.60586755561988
      ],
      [
        "Ġpontos",
        -9.606059683721066
      ],
      [
        "ĠquÃª",
        -9.606742555577355
      ],
      [
        "Ġhaver",
        -9.607854685886446
      ],
      [
        "Ġajuda",
        -9.608075005951171
      ],
      [
        "ĠinformaÃ§Ã£o",
        -9.60845538177348
      ],
      [
        "Ġcrise",
        -9.6096266423817
      ],
      [
        "deverÃ¡",
        -9.61197483221767
      ],
      [
        "ĠatenÃ§Ã£o",
        -9.612509252936244
      ],
      [
        "ler",
        -9.614297934021517
      ],
      [
        "PR",
        -9.615058453947164
      ],
      [
        "pÃºblicos",
        -9.618477835811223
      ],
      [
        "provimento",
        -9.6186470076974
      ],
      [
        "Ġcara",
        -9.618782131145675
      ],
      [
        "ĠQuero",
        -9.619434500844209
      ],
      [
        "Ġfase",
        -9.61982131604418
      ],
      [
        "Ġ2001",
        -9.620568528809969
      ],
      [
        "Ġnobre",
        -9.620701165087
      ],
      [
        "Ordem",
        -9.621038775826994
      ],
      [
        "Ġinfra",
        -9.6231511203525
      ],
      [
        "ĠprincÃŃpio",
        -9.623717148634382
      ],
      [
        "chegou",
        -9.624043264700132
      ],
      [
        "ĠTV",
        -9.625815737386924
      ],
      [
        "Ġprofissional",
        -9.625957391323606
      ],
      [
        "Ġrenda",
        -9.626010141074412
      ],
      [
        "ĠMIN",
        -9.627545666383948
      ],
      [
        "Ġdiferentes",
        -9.62769781702552
      ],
      [
        "Ġ40",
        -9.628212597174675
      ],
      [
        "ĠAlves",
        -9.62912006936427
      ],
      [
        "Ġturno",
        -9.629180405769764
      ],
      [
        "ĠDias",
        -9.63101750464117
      ],
      [
        "ĠCopa",
        -9.63154863674725
      ],
      [
        "Ġmodelo",
        -9.631992857766331
      ],
      [
        "Ġ2019",
        -9.632332503705632
      ],
      [
        "ĠRicardo",
        -9.63248404439774
      ],
      [
        "ĠespaÃ§o",
        -9.633739619326706
      ],
      [
        "Ġ:)",
        -9.6337723187212
      ],
      [
        "ĠQuem",
        -9.634050567723998
      ],
      [
        "ĠEspecial",
        -9.634276196157511
      ],
      [
        "ato",
        -9.638077325676711
      ],
      [
        "Ġtema",
        -9.638705649466422
      ],
      [
        "qui",
        -9.639124531947436
      ],
      [
        "ĠPereira",
        -9.639793598921678
      ],
      [
        "Ġautoria",
        -9.64106734088721
      ],
      [
        "ver",
        -9.641684912854595
      ],
      [
        "Ã¡vel",
        -9.643233964909362
      ],
      [
        "Ġcaput",
        -9.643273324829908
      ],
      [
        "ĠAGRAV",
        -9.64512016428555
      ],
      [
        "produtos",
        -9.645465672298297
      ],
      [
        "Ġprova",
        -9.64656410154278
      ],
      [
        "Ġrede",
        -9.650158599859196
      ],
      [
        "Ãī",
        -9.650478734626985
      ],
      [
        "Ġ1998",
        -9.651776710525915
      ],
      [
        "acima",
        -9.652088655505043
      ],
      [
        "Cidadania",
        -9.6522753318561
      ],
      [
        "Ã³rgÃ£os",
        -9.654160899954352
      ],
      [
        "ĠHenrique",
        -9.654462495621488
      ],
      [
        "Ġmal",
        -9.655489480616568
      ],
      [
        "ĠSantos",
        -9.655884737160706
      ],
      [
        "ĠSistema",
        -9.656324860116534
      ],
      [
        "PolÃŃcia",
        -9.656628101575112
      ],
      [
        "ÃĩÃķES",
        -9.65714619561957
      ],
      [
        "cujo",
        -9.65846528653887
      ],
      [
        "Ġsub",
        -9.65951323075459
      ],
      [
        "ĠSanto",
        -9.659917842610431
      ],
      [
        "recebeu",
        -9.660932474586398
      ],
      [
        "Ġmenor",
        -9.663290502345497
      ],
      [
        "Ġsucesso",
        -9.6633732720441
      ],
      [
        "Ġinter",
        -9.66354213884576
      ],
      [
        "Ġ2000",
        -9.663925914018272
      ],
      [
        "Ġmovimento",
        -9.664192961165105
      ],
      [
        "Ġinternacional",
        -9.664214325738094
      ],
      [
        "trabalhadores",
        -9.66469818257747
      ],
      [
        "Ġreceber",
        -9.666080064159669
      ],
      [
        "Ġvotar",
        -9.667573959012136
      ],
      [
        "ĠÃºnica",
        -9.667940807968575
      ],
      [
        "Ġefeito",
        -9.668499987632748
      ],
      [
        "Ġguerra",
        -9.670210816750629
      ],
      [
        "Ġrepresenta",
        -9.670458883753266
      ],
      [
        "Medida",
        -9.670505958846327
      ],
      [
        "ĠMais",
        -9.671765362711255
      ],
      [
        "Ġteria",
        -9.671893678007612
      ],
      [
        "ĠParlamentar",
        -9.673436981398776
      ],
      [
        "ĠMa",
        -9.673682450951524
      ],
      [
        "Y",
        -9.674523320452913
      ],
      [
        "nessa",
        -9.678063158883962
      ],
      [
        "realmente",
        -9.678073942076365
      ],
      [
        "mediante",
        -9.67977861303336
      ],
      [
        "possibilidade",
        -9.680535598835007
      ],
      [
        "Ġplano",
        -9.680905422302612
      ],
      [
        "EIRA",
        -9.681670336834372
      ],
      [
        "ĠinstituiÃ§Ãµes",
        -9.681920867054297
      ],
      [
        "Ġpenal",
        -9.68220945097017
      ],
      [
        "Ġsul",
        -9.683129397796488
      ],
      [
        "ĠDilma",
        -9.68380742447956
      ],
      [
        "Ġprofessor",
        -9.684500650002157
      ],
      [
        "destaque",
        -9.684962513099338
      ],
      [
        "Ġencontra",
        -9.685097739149562
      ],
      [
        "ĠPorto",
        -9.686367626322417
      ],
      [
        "parÃ¡grafo",
        -9.687314323251044
      ],
      [
        "contrÃ¡rio",
        -9.687492080790866
      ],
      [
        "Ġdesses",
        -9.687586133021078
      ],
      [
        "essÃµes",
        -9.689338630983547
      ],
      [
        "cuja",
        -9.68999545237786
      ],
      [
        "aqueles",
        -9.690508623890498
      ],
      [
        "ĠEra",
        -9.690828089569935
      ],
      [
        "Ġper",
        -9.69245435940906
      ],
      [
        "ĠBanco",
        -9.69404857137338
      ],
      [
        "Ġcaminho",
        -9.694634850278623
      ],
      [
        "ĠformaÃ§Ã£o",
        -9.69615631132566
      ],
      [
        "gestÃ£o",
        -9.696565106296722
      ],
      [
        "Ġseis",
        -9.69657933050476
      ],
      [
        "Ġatendimento",
        -9.697353368650791
      ],
      [
        "Ġnovos",
        -9.697765157445358
      ],
      [
        "category",
        -9.698754713926933
      ],
      [
        "ĠirmÃ£o",
        -9.7001863406884
      ],
      [
        "vi",
        -9.700780128509663
      ],
      [
        "ĠNesse",
        -9.701164693616146
      ],
      [
        "ĠVou",
        -9.70142008436859
      ],
      [
        "2003",
        -9.701608345255307
      ],
      [
        "Lei",
        -9.702249531114084
      ],
      [
        "Ġlista",
        -9.703717477228736
      ],
      [
        "Ġresposta",
        -9.704127526961429
      ],
      [
        "Ġ2018",
        -9.70509382486232
      ],
      [
        "ĠOh",
        -9.70621107270155
      ],
      [
        "critÃ©rio",
        -9.707694787066725
      ],
      [
        "Ġaquele",
        -9.70882407660876
      ],
      [
        "violÃªncia",
        -9.709106050739814
      ],
      [
        "Ġmanter",
        -9.709380132468423
      ],
      [
        "ĠHistÃ³ria",
        -9.709691087380834
      ],
      [
        "Ġautor",
        -9.70974380544795
      ],
      [
        "Gerais",
        -9.71082675102858
      ],
      [
        "cia",
        -9.711757849329375
      ],
      [
        "Durante",
        -9.7129232731971
      ],
      [
        "MENTO",
        -9.715261614454366
      ],
      [
        "Ġtrabalhos",
        -9.716100574518668
      ],
      [
        "Ġcultura",
        -9.716697218755098
      ],
      [
        "emos",
        -9.717631491544694
      ],
      [
        ".............",
        -9.718111861563209
      ],
      [
        "PAULO",
        -9.71833580887982
      ],
      [
        "ĠlanÃ§ado",
        -9.718338161748182
      ],
      [
        "ĠPSD",
        -9.718766611025552
      ],
      [
        "ĠRel",
        -9.718922889051369
      ],
      [
        "ĠFundo",
        -9.720917037320133
      ],
      [
        "existÃªncia",
        -9.720961184646352
      ],
      [
        "maiores",
        -9.720968272895474
      ],
      [
        "Ġrefere",
        -9.721050237392433
      ],
      [
        "th",
        -9.721743169185014
      ],
      [
        "Ġperde",
        -9.725651914181306
      ],
      [
        "Ġliberdade",
        -9.72658827341955
      ],
      [
        "ĠRÃ¡dio",
        -9.726661911380464
      ],
      [
        "nÂº",
        -9.728345254144836
      ],
      [
        "Ġcapacidade",
        -9.728654299220985
      ],
      [
        "Ġexecutar",
        -9.728762694591932
      ],
      [
        "Ġfinanceira",
        -9.729191276659703
      ],
      [
        "proteÃ§Ã£o",
        -9.729682059375568
      ],
      [
        "servidores",
        -9.730894690548304
      ],
      [
        "Ġdiversos",
        -9.730923788960752
      ],
      [
        "ĠBahia",
        -9.731579384240272
      ],
      [
        "ĠVI",
        -9.731975904881091
      ],
      [
        "homens",
        -9.73235912844952
      ],
      [
        "Ġdeles",
        -9.732554786147883
      ],
      [
        "ĠMarcelo",
        -9.733006409605997
      ],
      [
        "ĠBrasileira",
        -9.733323773497013
      ],
      [
        "ĠSENHOR",
        -9.734831317421849
      ],
      [
        "normas",
        -9.735575804891615
      ],
      [
        "sim",
        -9.73586179898993
      ],
      [
        "ĠMundial",
        -9.737240078231377
      ],
      [
        "RJ",
        -9.737768463634133
      ],
      [
        "Ġterceiro",
        -9.738190695134524
      ],
      [
        "Ã¡reas",
        -9.739147630368585
      ],
      [
        "ĠLima",
        -9.739988790455214
      ],
      [
        "ĠADV",
        -9.740335837249273
      ],
      [
        "ĠAdministraÃ§Ã£o",
        -9.740347350766108
      ],
      [
        "Ġartigos",
        -9.740987086555386
      ],
      [
        "ĠMo",
        -9.74243265488204
      ],
      [
        "men",
        -9.74287005052176
      ],
      [
        "Ġchamada",
        -9.74290454041279
      ],
      [
        "Ġideia",
        -9.746350620327352
      ],
      [
        "Ã³",
        -9.747000229929055
      ],
      [
        "ĠAG",
        -9.747150028145434
      ],
      [
        "ProvisÃ³ria",
        -9.747707703074042
      ],
      [
        "2004",
        -9.7481273683785
      ],
      [
        "Ġelas",
        -9.74816559318028
      ],
      [
        "ĠJorge",
        -9.74833035903897
      ],
      [
        "Ġcomunidade",
        -9.748732690975997
      ],
      [
        "ĠDireito",
        -9.749151485737103
      ],
      [
        "Ġdiversas",
        -9.7495123908804
      ],
      [
        "Ainda",
        -9.749716438402375
      ],
      [
        "Ġapresenta",
        -9.749742464269458
      ],
      [
        "Ġambiente",
        -9.750363701115344
      ],
      [
        "ĠposiÃ§Ã£o",
        -9.751414997511176
      ],
      [
        "risco",
        -9.751846969587447
      ],
      [
        "ĠMINISTR",
        -9.752785007652806
      ],
      [
        "ĠMendes",
        -9.753491065829367
      ],
      [
        "ĠresponsÃ¡vel",
        -9.753822736841238
      ],
      [
        "ĠInternacional",
        -9.754303278302713
      ],
      [
        "Ġestudo",
        -9.755304621397537
      ],
      [
        "Ġincluindo",
        -9.755695083319102
      ],
      [
        "gostaria",
        -9.756374640657064
      ],
      [
        "Ġreal",
        -9.760781851795958
      ],
      [
        "tado",
        -9.761872814879563
      ],
      [
        "Ġprofissionais",
        -9.764140829348268
      ],
      [
        "reduÃ§Ã£o",
        -9.765694721727632
      ],
      [
        "Ġlivre",
        -9.768127104941223
      ],
      [
        "Ġdela",
        -9.768160068293769
      ],
      [
        "ĠCOM",
        -9.768380962981096
      ],
      [
        "Ġpequeno",
        -9.768775247146566
      ],
      [
        "Ġajudar",
        -9.770057593738638
      ],
      [
        "ki",
        -9.770282200803454
      ],
      [
        "PCdoB",
        -9.77095523210392
      ],
      [
        "ĠTudo",
        -9.771441290088053
      ],
      [
        "Ġfins",
        -9.771860236666742
      ],
      [
        "ĠvocÃªs",
        -9.772166491271992
      ],
      [
        "econÃ´mica",
        -9.773414390330451
      ],
      [
        "Ġamigo",
        -9.77380009862266
      ],
      [
        "pensado",
        -9.774330415943988
      ],
      [
        "ĠVoss",
        -9.774865660429043
      ],
      [
        "per",
        -9.778473467856696
      ],
      [
        "devem",
        -9.780751317928134
      ],
      [
        "Ġdiretor",
        -9.780975479382349
      ],
      [
        "Ġ60",
        -9.781923670045249
      ],
      [
        "Ġcumprimento",
        -9.782386035336115
      ],
      [
        "Ġ1997",
        -9.78373459146688
      ],
      [
        "Ġnovas",
        -9.783899380134477
      ],
      [
        "Ġfuturo",
        -9.783962884933873
      ],
      [
        "Ġnenhuma",
        -9.7845234058887
      ],
      [
        "pronunciamento",
        -9.784717803833512
      ],
      [
        "Ġclube",
        -9.785516507909014
      ],
      [
        "Ġmuita",
        -9.787741911108196
      ],
      [
        "Ġapresentada",
        -9.78945600523099
      ],
      [
        "las",
        -9.789627601756052
      ],
      [
        "Ġfundamental",
        -9.790184265060084
      ],
      [
        "Ġalta",
        -9.79111389357342
      ],
      [
        "ĠGovernador",
        -9.7921566628267
      ],
      [
        "tratamento",
        -9.793288357943313
      ],
      [
        "essa",
        -9.79753253248841
      ],
      [
        "substituiÃ§Ã£o",
        -9.797848133887308
      ],
      [
        "Ġnota",
        -9.797888912489356
      ],
      [
        "ĠâĢĺ",
        -9.797909107660102
      ],
      [
        "Ġevento",
        -9.798387935427057
      ],
      [
        "Ġapresentar",
        -9.80111096693974
      ],
      [
        "ĠSuperior",
        -9.80273973227285
      ],
      [
        "ĠAcho",
        -9.803338245820514
      ],
      [
        "Ġca",
        -9.804545963567586
      ],
      [
        "hipÃ³tese",
        -9.806857339194496
      ],
      [
        "entidades",
        -9.80706898217082
      ],
      [
        "Ġsignifica",
        -9.80728750794267
      ],
      [
        "Ġ54",
        -9.807737647864268
      ],
      [
        "Ġcivil",
        -9.808970738094416
      ],
      [
        "Ġcrescimento",
        -9.80922885940479
      ],
      [
        "Ġisto",
        -9.810012868032397
      ],
      [
        "Ġsonora",
        -9.8104258176761
      ],
      [
        "Ġentra",
        -9.810615275781306
      ],
      [
        "Ġcontar",
        -9.81165620100695
      ],
      [
        "ĠEXTRAORDINÃģRI",
        -9.812173981710362
      ],
      [
        "Ġmilitar",
        -9.812299909862586
      ],
      [
        "ĠRE",
        -9.815190764077144
      ],
      [
        "ĠPE",
        -9.81733861454397
      ],
      [
        "Ġsimples",
        -9.817870123984594
      ],
      [
        "Ġvoltar",
        -9.81874212220156
      ],
      [
        "audiÃªncia",
        -9.819507822794604
      ],
      [
        "Ġcentro",
        -9.81967885849751
      ],
      [
        "Ġnaquel",
        -9.82116002943113
      ],
      [
        "ĠLt",
        -9.821210460504274
      ],
      [
        "izaÃ§Ã£o",
        -9.821594434792344
      ],
      [
        "Ġimposto",
        -9.82167854687878
      ],
      [
        "Ġestrutura",
        -9.821681268428534
      ],
      [
        "ava",
        -9.821737156803582
      ],
      [
        "preÃ§o",
        -9.8220682995441
      ],
      [
        "Ġfilhos",
        -9.824440126585774
      ],
      [
        "18",
        -9.824500269637204
      ],
      [
        "Ġpassar",
        -9.825800983716258
      ],
      [
        "ĠVoto",
        -9.826497813744982
      ],
      [
        "ĠCampos",
        -9.829138763393738
      ],
      [
        "Hoje",
        -9.829320248915044
      ],
      [
        "ora",
        -9.829437310822533
      ],
      [
        "SOL",
        -9.82960383210892
      ],
      [
        "ĠNos",
        -9.829738133169675
      ],
      [
        "Ġtribuna",
        -9.83046941338652
      ],
      [
        "ĠninguÃ©m",
        -9.834554039676586
      ],
      [
        "ARDO",
        -9.834693580581336
      ],
      [
        "ĠCO",
        -9.835586306654898
      ],
      [
        "casos",
        -9.835780771110612
      ],
      [
        "ĠPmdbP",
        -9.83694532750016
      ],
      [
        "Ġdespes",
        -9.838583896980936
      ],
      [
        "ĠadministraÃ§Ã£o",
        -9.838889366983576
      ],
      [
        "Ġmeus",
        -9.83972925937802
      ],
      [
        "ĠPre",
        -9.83980826762084
      ],
      [
        "Ġautoridade",
        -9.840011189501862
      ],
      [
        "ĠPEC",
        -9.841322520433248
      ],
      [
        "Ġmaterial",
        -9.841800390453344
      ],
      [
        "designado",
        -9.843011932452155
      ],
      [
        "ĠIgreja",
        -9.843759951927536
      ],
      [
        "ĠinstituiÃ§Ã£o",
        -9.84428398419133
      ],
      [
        "ĠmÃ£o",
        -9.84471203061922
      ],
      [
        "PFL",
        -9.845171629704948
      ],
      [
        "ĠAl",
        -9.84783717397581
      ],
      [
        "juridicidade",
        -9.848161373409113
      ],
      [
        "Tenho",
        -9.848401361632462
      ],
      [
        "Ġtrabalhar",
        -9.848522909963204
      ],
      [
        "Ġespecialmente",
        -9.850787411676226
      ],
      [
        "ĠFEDERAL",
        -9.851188962255575
      ],
      [
        "ĠSrÂª",
        -9.851228547944498
      ],
      [
        "ĠAnex",
        -9.85174657970724
      ],
      [
        "Ġvia",
        -9.851828547035772
      ],
      [
        "ĠCentro",
        -9.852752483871544
      ],
      [
        "ĠFranÃ§a",
        -9.85588715425298
      ],
      [
        "ĠJÃºnior",
        -9.856315842193924
      ],
      [
        "tes",
        -9.856616335389583
      ],
      [
        "ĠEntre",
        -9.857575215122214
      ],
      [
        "Ġgarantir",
        -9.858209387639992
      ],
      [
        "proposiÃ§Ã£o",
        -9.858485633360225
      ],
      [
        "ĠTemer",
        -9.859046491710366
      ],
      [
        "ĠCultura",
        -9.859381975396714
      ],
      [
        "ĠTodos",
        -9.859589514635829
      ],
      [
        "Ġcategoria",
        -9.85963963826273
      ],
      [
        "2018",
        -9.860731491797624
      ],
      [
        "Ġbastante",
        -9.860751888983152
      ],
      [
        "efeitos",
        -9.861931374168446
      ],
      [
        "Ġoutorga",
        -9.862703194652568
      ],
      [
        "ĠSecretÃ¡rio",
        -9.863471212854918
      ],
      [
        "ĠRibeiro",
        -9.863544974989397
      ],
      [
        "Ġcombate",
        -9.86405701574468
      ],
      [
        "comunitÃ¡ria",
        -9.865770954062738
      ],
      [
        "autorizaÃ§Ã£o",
        -9.865827461250753
      ],
      [
        "Ġaprovada",
        -9.86661163275274
      ],
      [
        "Ġrealidade",
        -9.8672130660971
      ],
      [
        "ĠorganizaÃ§Ã£o",
        -9.867784378120971
      ],
      [
        "conteÃºdo",
        -9.86812047613354
      ],
      [
        "ĠterÃ¡",
        -9.868746639679092
      ],
      [
        "prisÃ£o",
        -9.868794355422544
      ],
      [
        "Ġtaxa",
        -9.868859965097304
      ],
      [
        "ĠprÃ³xima",
        -9.869150726239566
      ],
      [
        "Ġsair",
        -9.8692190072121
      ],
      [
        "ĠTerra",
        -9.869452810839304
      ],
      [
        "ĠSE",
        -9.869676661321682
      ],
      [
        "stÃµes",
        -9.86974037851177
      ],
      [
        "tenham",
        -9.870352238203486
      ],
      [
        "tra",
        -9.870377277289563
      ],
      [
        "ĠversÃ£o",
        -9.871069700730692
      ],
      [
        "dia",
        -9.871090086475029
      ],
      [
        "verÃ£o",
        -9.872248223028818
      ],
      [
        "Ġfilha",
        -9.87237735021147
      ],
      [
        "Ġfutebol",
        -9.873229361631878
      ],
      [
        "Ġdiante",
        -9.873263476024096
      ],
      [
        "Ġinstrumento",
        -9.873684440511456
      ],
      [
        "Ġcurso",
        -9.873915801719932
      ],
      [
        "Ġ1999",
        -9.875076357061252
      ],
      [
        "Ġnovamente",
        -9.875546797706942
      ],
      [
        "Ġcabe",
        -9.876575379902508
      ],
      [
        "Ġpublicado",
        -9.87688185516246
      ],
      [
        "Ġautoriza",
        -9.877890430121136
      ],
      [
        "onde",
        -9.879298218872927
      ],
      [
        "ĠAta",
        -9.87999455237531
      ],
      [
        "afirmou",
        -9.880557470002586
      ],
      [
        "jovens",
        -9.880953074973418
      ],
      [
        "seguida",
        -9.881727425732818
      ],
      [
        "Ġusar",
        -9.88281073683068
      ],
      [
        "atuaÃ§Ã£o",
        -9.88315277097368
      ],
      [
        "AÃĩÃĥO",
        -9.883919740891194
      ],
      [
        "pÃºblicas",
        -9.88419983056759
      ],
      [
        "CURSO",
        -9.885607856169877
      ],
      [
        "ĠRosa",
        -9.885690435063138
      ],
      [
        "PP",
        -9.885933256090746
      ],
      [
        "âĢĳ",
        -9.887068782922304
      ],
      [
        "ĠLÃºci",
        -9.887498318733806
      ],
      [
        "Ġcolocar",
        -9.890311386021017
      ],
      [
        "ĠInformÃ¡tica",
        -9.890624801630551
      ],
      [
        "Ġtermo",
        -9.89243450742158
      ],
      [
        "ĠMeu",
        -9.895309855844683
      ],
      [
        "ĠSegunda",
        -9.896539956104768
      ],
      [
        "Ġmarca",
        -9.898875415794008
      ],
      [
        "US",
        -9.89993961361058
      ],
      [
        "Ġcusto",
        -9.90073277597728
      ],
      [
        "Ġapresentado",
        -9.90205487688432
      ],
      [
        "porÃ©",
        -9.902457713190072
      ],
      [
        "ĠTrata",
        -9.90249625600923
      ],
      [
        "Ġgarantia",
        -9.903173441366423
      ],
      [
        "ĠAtÃ©",
        -9.903585183738574
      ],
      [
        "ĠcondiÃ§Ã£o",
        -9.90360692163089
      ],
      [
        "Ġauto",
        -9.903686516781049
      ],
      [
        "Ġmostra",
        -9.907508684004515
      ],
      [
        "Ġnatural",
        -9.90761489806725
      ],
      [
        "ĠTo",
        -9.907752546945568
      ],
      [
        "bancada",
        -9.908039517975809
      ],
      [
        "Ġlevar",
        -9.908672993464812
      ],
      [
        "ĠdireÃ§Ã£o",
        -9.90966484054237
      ],
      [
        "Ġfundo",
        -9.910776464412372
      ],
      [
        "Ġganho",
        -9.91205382845802
      ],
      [
        "AgR",
        -9.914311451383126
      ],
      [
        "omissÃµes",
        -9.915926685737862
      ],
      [
        "dÃŃvida",
        -9.916011199529866
      ],
      [
        "Ġdeixo",
        -9.918975632265576
      ],
      [
        "Ġjornal",
        -9.920648196097003
      ],
      [
        "ĠEuropa",
        -9.921372592853212
      ],
      [
        "prejuÃŃz",
        -9.92229233160365
      ],
      [
        "declaraÃ§Ã£o",
        -9.92253366541993
      ],
      [
        "Ġfiscal",
        -9.92275569377242
      ],
      [
        "prestaÃ§Ã£o",
        -9.922933355507055
      ],
      [
        "Ġvisto",
        -9.923224661490678
      ],
      [
        "Ġparticipar",
        -9.923957754605537
      ],
      [
        "razÃµes",
        -9.924032502757315
      ],
      [
        "Ġsuficiente",
        -9.925014429441156
      ],
      [
        "para",
        -9.92596675015818
      ],
      [
        "URMA",
        -9.927444157384745
      ],
      [
        "aquela",
        -9.92749286543432
      ],
      [
        "emprego",
        -9.928141932791192
      ],
      [
        "entidade",
        -9.928440309477304
      ],
      [
        "ĠMi",
        -9.93107414511025
      ],
      [
        "vÃŃtima",
        -9.931368676709932
      ],
      [
        "AntÃ´nio",
        -9.932166690349884
      ],
      [
        "ĠPenal",
        -9.93321914082808
      ],
      [
        "Portaria",
        -9.933582019127154
      ],
      [
        "nas",
        -9.934641577284127
      ],
      [
        "entendimento",
        -9.935108353369154
      ],
      [
        "ĠComplementar",
        -9.936876810745265
      ],
      [
        "Primeiro",
        -9.937798902336503
      ],
      [
        "DEPUTADO",
        -9.937827658264869
      ],
      [
        "Substitutivo",
        -9.93783811496185
      ],
      [
        "Ġconhecida",
        -9.938400313723555
      ],
      [
        "ĠeconÃ´mico",
        -9.938765232348814
      ],
      [
        "ĠVi",
        -9.938793982475856
      ],
      [
        "ĠMato",
        -9.939230946602107
      ],
      [
        "ĠcabeÃ§a",
        -9.939339861683072
      ],
      [
        "Ð",
        -9.94093140757402
      ],
      [
        "Ġfaixa",
        -9.940969016106523
      ],
      [
        "SÃ©rgi",
        -9.94111052169274
      ],
      [
        "conformidade",
        -9.941458093135566
      ],
      [
        "ĠportuguÃªs",
        -9.941854087281923
      ],
      [
        "Ġaconteceu",
        -9.942006300619374
      ],
      [
        "RelatÃ³rio",
        -9.942353056611214
      ],
      [
        "Ġtratar",
        -9.942538933474744
      ],
      [
        "Ġalto",
        -9.942826113348032
      ],
      [
        "ĠParanÃ¡",
        -9.944821810856794
      ],
      [
        "Ġnorma",
        -9.945246231206758
      ],
      [
        "locais",
        -9.945434663143972
      ],
      [
        "estavam",
        -9.946339460168218
      ],
      [
        "Ġcontinuar",
        -9.948634229543725
      ],
      [
        "ĠvitÃ³ria",
        -9.950183873097805
      ],
      [
        "Ġamor",
        -9.950224093588146
      ],
      [
        "leiÃ§Ã£o",
        -9.95041283665273
      ],
      [
        "ã",
        -9.95059059359812
      ],
      [
        "Ġdessas",
        -9.952505252428216
      ],
      [
        "Ġpopular",
        -9.952565847620738
      ],
      [
        "ĠRJ",
        -9.952660788926153
      ],
      [
        "Ġpermite",
        -9.952986968180712
      ],
      [
        "ĠBom",
        -9.954142767349726
      ],
      [
        "Ġacerca",
        -9.954269233309237
      ],
      [
        "MG",
        -9.954568226897834
      ],
      [
        "indÃºstria",
        -9.956586817829772
      ],
      [
        "Ġ1996",
        -9.956961062501492
      ],
      [
        "talvez",
        -9.957339319451096
      ],
      [
        "PRB",
        -9.958935508826926
      ],
      [
        "ĠBo",
        -9.959067078205084
      ],
      [
        "Ġtais",
        -9.961500846420648
      ],
      [
        "Ġencontrar",
        -9.961807616366784
      ],
      [
        "salÃ¡rio",
        -9.963776466994329
      ],
      [
        "Ġcriado",
        -9.964181784622337
      ],
      [
        "ĠtelevisÃ£o",
        -9.9657948357202
      ],
      [
        "ĠMar",
        -9.967522788820636
      ],
      [
        "ĠapresentaÃ§Ã£o",
        -9.96870247172132
      ],
      [
        "ĠreferÃªncia",
        -9.968934363202916
      ],
      [
        "Ġcomum",
        -9.969657586560013
      ],
      [
        "Ġocorre",
        -9.970079612346046
      ],
      [
        "mar",
        -9.970362905014946
      ],
      [
        "REG",
        -9.970992351288729
      ],
      [
        "ĠComunitÃ¡ri",
        -9.971995456106775
      ],
      [
        "Ġafirma",
        -9.972402545519708
      ],
      [
        "OfÃŃci",
        -9.973754531991483
      ],
      [
        "ĠdifÃŃcil",
        -9.973994726258828
      ],
      [
        "Ġpermitir",
        -9.974065127610588
      ],
      [
        "destinada",
        -9.975164979998969
      ],
      [
        "ĠcarÃ¡ter",
        -9.975655748031643
      ],
      [
        "rem",
        -9.976629406817612
      ],
      [
        "ĠLa",
        -9.977996546468017
      ],
      [
        "Ġdispositivo",
        -9.978725399413078
      ],
      [
        "rei",
        -9.9792868136015
      ],
      [
        "Ġrealizar",
        -9.979925149733038
      ],
      [
        "provisÃ³ria",
        -9.98013373639946
      ],
      [
        "ĠCa",
        -9.980145858643285
      ],
      [
        "pressÃ£o",
        -9.980252712273728
      ],
      [
        "Ġbaixo",
        -9.980358641036611
      ],
      [
        "Ã¡veis",
        -9.980870934007166
      ],
      [
        "arÃ¡grafo",
        -9.981315173150088
      ],
      [
        "atos",
        -9.982625566484623
      ],
      [
        "atrÃ¡s",
        -9.983012666960184
      ],
      [
        "manutenÃ§Ã£o",
        -9.984140387902393
      ],
      [
        "25",
        -9.986278328305591
      ],
      [
        "Ġabertura",
        -9.98745222961606
      ],
      [
        "veio",
        -9.987701909677977
      ],
      [
        "fi",
        -9.98908464478964
      ],
      [
        "favorÃ¡vel",
        -9.990826569217491
      ],
      [
        "Ġchega",
        -9.990873222379902
      ],
      [
        "NÃ£o",
        -9.992127436520398
      ],
      [
        "votos",
        -9.99214184422378
      ],
      [
        "ĠAqui",
        -9.9922802187995
      ],
      [
        "ĠPrefeit",
        -9.992690885349829
      ],
      [
        "ĠcomeÃ§a",
        -9.993443334406178
      ],
      [
        "Ġamigos",
        -9.99392210562886
      ],
      [
        "Ġali",
        -9.99454663745144
      ],
      [
        "legais",
        -9.99468521789176
      ],
      [
        "Ġdireta",
        -9.994852962550407
      ],
      [
        "Ġconsegui",
        -9.995490822117146
      ],
      [
        "soluÃ§Ã£o",
        -9.996035637248156
      ],
      [
        "PSC",
        -9.996635493087767
      ],
      [
        "ĠeletrÃ´nico",
        -9.996874152452593
      ],
      [
        "ĠlÃŃngua",
        -9.997873764117587
      ],
      [
        "utilizaÃ§Ã£o",
        -9.999104057435495
      ],
      [
        "apesar",
        -10.0001552802138
      ],
      [
        "01",
        -10.000227962034842
      ],
      [
        "Ġjogos",
        -10.000440274583015
      ],
      [
        "ĠEx",
        -10.001088121262365
      ],
      [
        "ja",
        -10.001824877318269
      ],
      [
        "ĠdistribuiÃ§Ã£o",
        -10.00219382591004
      ],
      [
        "SE",
        -10.00222793855019
      ],
      [
        "Ġmulta",
        -10.002228514234089
      ],
      [
        "Ġhomenage",
        -10.003395966853434
      ],
      [
        "Celso",
        -10.00362763911926
      ],
      [
        "\",\"",
        -10.005064458535632
      ],
      [
        "referido",
        -10.00586474250622
      ],
      [
        "Ġcolega",
        -10.007793070579265
      ],
      [
        "eleiÃ§Ãµes",
        -10.007938675919984
      ],
      [
        "ĠtÃ©cnico",
        -10.008116256075944
      ],
      [
        "Certo",
        -10.009089745998276
      ],
      [
        "ĠVale",
        -10.009202187602998
      ],
      [
        "Ġentrar",
        -10.009209881527203
      ],
      [
        "ĠTemo",
        -10.009333948694362
      ],
      [
        "Ġreuni",
        -10.010713308568928
      ],
      [
        "isso",
        -10.010774216022805
      ],
      [
        "regiÃµes",
        -10.01077431242869
      ],
      [
        "ĠmÃ©dico",
        -10.011558893788065
      ],
      [
        "dizendo",
        -10.011618910688744
      ],
      [
        "Of",
        -10.011934537157842
      ],
      [
        "ĠCentral",
        -10.01232611103494
      ],
      [
        "ĠSouza",
        -10.01337734291162
      ],
      [
        "Estamos",
        -10.014107434012288
      ],
      [
        "militares",
        -10.014251939560769
      ],
      [
        "Ġdiscutir",
        -10.015003458306204
      ],
      [
        "tro",
        -10.015395011237858
      ],
      [
        "Ġgrave",
        -10.016426517503572
      ],
      [
        "ĠDep",
        -10.016961492131284
      ],
      [
        "Ġcento",
        -10.017639140047306
      ],
      [
        "Ġdocumentos",
        -10.017663551204985
      ],
      [
        "Ġperda",
        -10.017767360084068
      ],
      [
        "gem",
        -10.01859596303679
      ],
      [
        "ĠDOS",
        -10.018975741006017
      ],
      [
        "PpP",
        -10.01929206686142
      ],
      [
        "ĠGomes",
        -10.019378805743624
      ],
      [
        "ausÃªncia",
        -10.020193751425088
      ],
      [
        "Ġmelhores",
        -10.021588620464255
      ],
      [
        "comissÃ£o",
        -10.022054546890368
      ],
      [
        "ĠMunicipal",
        -10.02227048220628
      ],
      [
        "ĠProcesso",
        -10.02285817930779
      ],
      [
        "SRA",
        -10.022920380711046
      ],
      [
        "Ġsolicita",
        -10.023000241012134
      ],
      [
        "Apoio",
        -10.02300324284505
      ],
      [
        "ata",
        -10.023899701749
      ],
      [
        "ĠLopes",
        -10.024313882045314
      ],
      [
        "ĠGrosso",
        -10.024630312724751
      ],
      [
        "ĠPlano",
        -10.025439286015702
      ],
      [
        "Ġfazem",
        -10.025505118891973
      ],
      [
        "Ġfiz",
        -10.026087280789984
      ],
      [
        "Ġtentar",
        -10.026563750567052
      ],
      [
        "CARLOS",
        -10.026587592290245
      ],
      [
        "ĠRocha",
        -10.0275390001748
      ],
      [
        "possam",
        -10.0281997219064
      ],
      [
        "Ġconsiderada",
        -10.02872325932541
      ],
      [
        "ĠSu",
        -10.029284605577285
      ],
      [
        "ĠMinistra",
        -10.029286399110765
      ],
      [
        "ĠConced",
        -10.029562196569502
      ],
      [
        "ĠAr",
        -10.029865447187673
      ],
      [
        "inclusÃ£o",
        -10.030255003298064
      ],
      [
        "Ġvisita",
        -10.031097235692478
      ],
      [
        "ĠJohn",
        -10.031122968263208
      ],
      [
        "Ġparticular",
        -10.032124182330072
      ],
      [
        "ĠDi",
        -10.032323602059144
      ],
      [
        "ĠMilitar",
        -10.03280585436329
      ],
      [
        "ĠPROPOSI",
        -10.03285280534704
      ],
      [
        "Ġclasse",
        -10.033360432319473
      ],
      [
        "inho",
        -10.033786373095984
      ],
      [
        "operaÃ§Ãµes",
        -10.035676545396344
      ],
      [
        "ĠcanÃ§Ã£o",
        -10.035743981145458
      ],
      [
        "CE",
        -10.036523771561573
      ],
      [
        "Ġsite",
        -10.036756123751656
      ],
      [
        "Ġcapaz",
        -10.036904389731708
      ],
      [
        "Ġcor",
        -10.037081710142903
      ],
      [
        "Ġpar",
        -10.03785146052486
      ],
      [
        "regras",
        -10.038813256638242
      ],
      [
        "alunos",
        -10.038885375309285
      ],
      [
        "RS",
        -10.039330651329117
      ],
      [
        "GERAL",
        -10.039909416158345
      ],
      [
        "con",
        -10.04010191661955
      ],
      [
        "visÃ£o",
        -10.040853600439563
      ],
      [
        "Ġrei",
        -10.041002740266384
      ],
      [
        "Ġ70",
        -10.041419288525436
      ],
      [
        "Ġfedera",
        -10.0414636565289
      ],
      [
        "ĠEscola",
        -10.041707722931635
      ],
      [
        "Ġcompromisso",
        -10.042307369719827
      ],
      [
        "ĠpeÃ§o",
        -10.04310087376512
      ],
      [
        "Pausa",
        -10.04386727475942
      ],
      [
        "ismo",
        -10.044370502969551
      ],
      [
        "ĠorÃ§amentÃ¡ria",
        -10.04443221169718
      ],
      [
        "Ġquadro",
        -10.044809185743794
      ],
      [
        "Ġ32",
        -10.045089949166323
      ],
      [
        "............",
        -10.045819302153852
      ],
      [
        "Ġlocalizado",
        -10.04619365834608
      ],
      [
        "polÃŃticas",
        -10.046377190294136
      ],
      [
        "Ġdecreta",
        -10.046461400616892
      ],
      [
        "ĠCatarina",
        -10.046558807305225
      ],
      [
        "exposto",
        -10.046631963431173
      ],
      [
        "Ġacabou",
        -10.046908349531456
      ],
      [
        "ele",
        -10.047144972092331
      ],
      [
        "Ġsofre",
        -10.047539150567026
      ],
      [
        "Ġrepresentante",
        -10.047577800664849
      ],
      [
        "ĠPOR",
        -10.047827343989532
      ],
      [
        "ĠlanÃ§amento",
        -10.047836590360085
      ],
      [
        "Ġtornar",
        -10.048523975002905
      ],
      [
        "ĠoperaÃ§Ã£o",
        -10.04899137433961
      ],
      [
        "diretamente",
        -10.049189393644475
      ],
      [
        "Ġeleito",
        -10.049582084784996
      ],
      [
        "ĠTe",
        -10.050129403690375
      ],
      [
        "Ġmetros",
        -10.050185874255323
      ],
      [
        "Ġbaixa",
        -10.050257132454815
      ],
      [
        "xclusividade",
        -10.050954422201563
      ],
      [
        "Ġconseguiu",
        -10.051117071022349
      ],
      [
        "Ġrecebe",
        -10.052801180583792
      ],
      [
        "Ġsuper",
        -10.05284442259063
      ],
      [
        "Ġmar",
        -10.053364636582833
      ],
      [
        "Ġperto",
        -10.053881190259052
      ],
      [
        "Ġrevista",
        -10.05423132784242
      ],
      [
        "Ġigual",
        -10.054364885993058
      ],
      [
        "Ãºmula",
        -10.05479859277318
      ],
      [
        "ĠGo",
        -10.054854503121366
      ],
      [
        "Ġdiferente",
        -10.055334730652628
      ],
      [
        "falando",
        -10.056965618263543
      ],
      [
        "Apesar",
        -10.057054659414217
      ],
      [
        "Ġrelativa",
        -10.060103321085611
      ],
      [
        "Ġescolas",
        -10.060151443493911
      ],
      [
        "ĠPorque",
        -10.06035204227571
      ],
      [
        "privada",
        -10.060595106447504
      ],
      [
        "PPS",
        -10.062063845861855
      ],
      [
        "estabelecimento",
        -10.062529509215508
      ],
      [
        "posiÃ§Ãµes",
        -10.06253570616314
      ],
      [
        "Ġquarto",
        -10.062604511071155
      ],
      [
        "Ġestudos",
        -10.063477544790915
      ],
      [
        "Ġimprensa",
        -10.06377726318246
      ],
      [
        "Ġquantidade",
        -10.063926943791506
      ],
      [
        "Ġdisputa",
        -10.064293935657256
      ],
      [
        "ĠdiferenÃ§a",
        -10.064441632598282
      ],
      [
        "ĠLista",
        -10.064458861549662
      ],
      [
        "Ġestabelece",
        -10.06483119740984
      ],
      [
        "Ġsete",
        -10.065715855787907
      ],
      [
        "ĠCONSTITUIÃĩÃĥO",
        -10.066736321864395
      ],
      [
        "Ġjovem",
        -10.068471988626786
      ],
      [
        "Ġpagar",
        -10.069216687486744
      ],
      [
        "ĠVeja",
        -10.069864514018182
      ],
      [
        "Ptb",
        -10.070150851151292
      ],
      [
        "motivo",
        -10.070162366592646
      ],
      [
        "Ġinterior",
        -10.070994041548053
      ],
      [
        "ini",
        -10.071092412631277
      ],
      [
        "plenÃ¡rio",
        -10.07132225629324
      ],
      [
        "Ġusado",
        -10.072519093405624
      ],
      [
        "inha",
        -10.073738324719429
      ],
      [
        "Ġtomar",
        -10.074229545995582
      ],
      [
        "esforÃ§o",
        -10.074254344170171
      ],
      [
        "ĠLUIZ",
        -10.074483567870546
      ],
      [
        "ĠMaranhÃ£o",
        -10.075998124287343
      ],
      [
        "Ġreceita",
        -10.077180655635424
      ],
      [
        "Ġlocalizada",
        -10.07727874426662
      ],
      [
        "Ġqu",
        -10.07729107433975
      ],
      [
        "ĠAna",
        -10.07746407342758
      ],
      [
        "Ġquarta",
        -10.07852974501595
      ],
      [
        "Ġbens",
        -10.080113316345312
      ],
      [
        "Ġcomigo",
        -10.081856977595669
      ],
      [
        "+",
        -10.082460299238898
      ],
      [
        "Ġsu",
        -10.08250247683397
      ],
      [
        "Ġexatamente",
        -10.083351564176036
      ],
      [
        "dÃºvida",
        -10.083401133132217
      ],
      [
        "entrada",
        -10.083511018225556
      ],
      [
        "ocalidades",
        -10.08360839036404
      ],
      [
        "Ġinicial",
        -10.083740839467476
      ],
      [
        "ĠParÃ¡",
        -10.084040102495653
      ],
      [
        "Ġpequena",
        -10.084869822144958
      ],
      [
        "benefÃŃcio",
        -10.085454472348284
      ],
      [
        "Q",
        -10.08605149082122
      ],
      [
        "ĠRodrigues",
        -10.086428513121504
      ],
      [
        "les",
        -10.087416350418785
      ],
      [
        "|",
        -10.087628902278023
      ],
      [
        "ĠmÃ©dio",
        -10.087828203458582
      ],
      [
        "ontem",
        -10.088798288278024
      ],
      [
        "Ġdemanda",
        -10.089392570082516
      ],
      [
        "mÃ¡ximo",
        -10.089629397198468
      ],
      [
        "ĠAlmeida",
        -10.089743329589862
      ],
      [
        "tri",
        -10.0903463271883
      ],
      [
        "Ġporta",
        -10.092756701247287
      ],
      [
        "Ġhaja",
        -10.09424283306114
      ],
      [
        "Ġ1991",
        -10.094266645320744
      ],
      [
        "Ġpermiti",
        -10.094321044002
      ],
      [
        "ĠCarvalho",
        -10.09489919264493
      ],
      [
        "Ġfonte",
        -10.095821759790816
      ],
      [
        "ĥ",
        -10.095992154819449
      ],
      [
        "ĠcrianÃ§a",
        -10.096653403697674
      ],
      [
        "RegiÃ£o",
        -10.09668990887493
      ],
      [
        "ĠDiretor",
        -10.096863490279649
      ],
      [
        "Ġministro",
        -10.09688361308747
      ],
      [
        "Ġresultados",
        -10.098593225011054
      ],
      [
        "LideranÃ§a",
        -10.100611491581924
      ],
      [
        "Ġdecidi",
        -10.100742045571405
      ],
      [
        "Ġunidades",
        -10.100968631328708
      ],
      [
        "requisitos",
        -10.101133020041884
      ],
      [
        "corrupÃ§Ã£o",
        -10.102271423425838
      ],
      [
        "ambos",
        -10.102853851448856
      ],
      [
        "28",
        -10.103440736803678
      ],
      [
        "[",
        -10.104336194924464
      ],
      [
        "ĠAprova",
        -10.104414426810292
      ],
      [
        "julgado",
        -10.10680129195974
      ],
      [
        "ĠGrupo",
        -10.106946025843566
      ],
      [
        "criada",
        -10.107556459996914
      ],
      [
        "existente",
        -10.107656720130926
      ],
      [
        "constitucionai",
        -10.10888962087206
      ],
      [
        "Ġseguir",
        -10.109073397962256
      ],
      [
        "Ġentrega",
        -10.109517342523002
      ],
      [
        "Ã§a",
        -10.109641230139736
      ],
      [
        "ĠOnde",
        -10.110033994402736
      ],
      [
        "ĠprÃ©",
        -10.110035957205772
      ],
      [
        "Ġluz",
        -10.110312923747042
      ],
      [
        "Ġoito",
        -10.11067140041598
      ],
      [
        "Ġ1995",
        -10.111063372727296
      ],
      [
        "qu",
        -10.111328985903851
      ],
      [
        "ĠcontribuiÃ§Ã£o",
        -10.112106065467405
      ],
      [
        "Ġmundial",
        -10.112259942749676
      ],
      [
        "ĠLEGISLATIV",
        -10.112572002419602
      ],
      [
        "Ġestadual",
        -10.114086225235695
      ],
      [
        "tecnologia",
        -10.11534395831381
      ],
      [
        "TO",
        -10.11660244341946
      ],
      [
        "Ġcompra",
        -10.116662304730877
      ],
      [
        "ĠBA",
        -10.11683761099855
      ],
      [
        "Ġ119",
        -10.116880253977012
      ],
      [
        "chefe",
        -10.117834231497795
      ],
      [
        "ĠCar",
        -10.118241477007269
      ],
      [
        "ĠToda",
        -10.11833960817796
      ],
      [
        "atualmente",
        -10.119781459713645
      ],
      [
        "ĠReal",
        -10.11980834944901
      ],
      [
        "ĠCE",
        -10.119826321875362
      ],
      [
        "Ġevitar",
        -10.1202989702347
      ],
      [
        "ĠpolÃŃcia",
        -10.121041482189987
      ],
      [
        "Ġcarro",
        -10.121964982946448
      ],
      [
        "NR",
        -10.123204424456755
      ],
      [
        "ĠSou",
        -10.12326294693384
      ],
      [
        "fÃŃsica",
        -10.12341560373259
      ],
      [
        "ĠSan",
        -10.125472716132055
      ],
      [
        "emendas",
        -10.125493517107442
      ],
      [
        "AmazÃ´nia",
        -10.125517390032226
      ],
      [
        "nacionais",
        -10.125630407189464
      ],
      [
        "ĠMinha",
        -10.12622157788732
      ],
      [
        "Estadual",
        -10.126477368407336
      ],
      [
        "Talvez",
        -10.126957457518223
      ],
      [
        "PE",
        -10.12739850527163
      ],
      [
        "2020",
        -10.128117516080804
      ],
      [
        "ĠexperiÃªncia",
        -10.128871150815112
      ],
      [
        "ton",
        -10.129252806069358
      ],
      [
        "chi",
        -10.129383046080957
      ],
      [
        "somos",
        -10.129473510037084
      ],
      [
        "Ġvenda",
        -10.129911185356562
      ],
      [
        "Figueiredo",
        -10.129932376611956
      ],
      [
        "ejeiÃ§Ã£o",
        -10.130379206619534
      ],
      [
        "ĠFica",
        -10.131945987308752
      ],
      [
        "JudiciÃ¡ri",
        -10.1326477702222
      ],
      [
        "Ġvir",
        -10.132758453855574
      ],
      [
        "Ġpais",
        -10.132822997406212
      ],
      [
        "ĠReino",
        -10.133309767830252
      ],
      [
        "ĠjurÃŃdico",
        -10.13347552698295
      ],
      [
        "29",
        -10.133829159876717
      ],
      [
        "Ġpropriedade",
        -10.134004761597923
      ],
      [
        "ĠNordeste",
        -10.134519855841212
      ],
      [
        "ĠAugusto",
        -10.134577196937556
      ],
      [
        "ĠDECRET",
        -10.135702515017874
      ],
      [
        "Teixeira",
        -10.135775429924566
      ],
      [
        "preÃ§os",
        -10.136069471649408
      ],
      [
        "99",
        -10.136718509974727
      ],
      [
        "tiveram",
        -10.137618318032487
      ],
      [
        "ĠWikipÃ©dia",
        -10.138017333926244
      ],
      [
        "Ġfui",
        -10.13821243303917
      ],
      [
        "Ġencontro",
        -10.140298836371295
      ],
      [
        "ĠSeguranÃ§a",
        -10.141514367138374
      ],
      [
        "DiscussÃ£o",
        -10.141716637661284
      ],
      [
        "Ġdocumento",
        -10.141731809416902
      ],
      [
        "Ġaltera",
        -10.142304718599068
      ],
      [
        "humanos",
        -10.144536246950056
      ],
      [
        "ĠUSP",
        -10.145244092784628
      ],
      [
        "ĠNelson",
        -10.14558201356813
      ],
      [
        "impacto",
        -10.14714589821542
      ],
      [
        "ĠAndrÃ©",
        -10.14768617286947
      ],
      [
        "licitante",
        -10.148519047052227
      ],
      [
        "Ãģ",
        -10.148807531317388
      ],
      [
        "Ġfinanciamento",
        -10.148862859671972
      ],
      [
        "ĠDaniel",
        -10.150476273218263
      ],
      [
        "ĠRS",
        -10.150763808542749
      ],
      [
        "Ġanimais",
        -10.151189432055062
      ],
      [
        "Fazenda",
        -10.15126044463448
      ],
      [
        "americano",
        -10.15152790069386
      ],
      [
        "candidato",
        -10.15168800909024
      ],
      [
        "ĠChina",
        -10.15174964273446
      ],
      [
        "ĠFamÃŃlia",
        -10.152281592116353
      ],
      [
        "levou",
        -10.153452656988724
      ],
      [
        "Ġaprova",
        -10.153625776452976
      ],
      [
        "DF",
        -10.154023160315369
      ],
      [
        "Ġpalavras",
        -10.157136604137111
      ],
      [
        "paciente",
        -10.157929968695314
      ],
      [
        "Ġacontece",
        -10.158585533299686
      ],
      [
        "ĠDesde",
        -10.159482910454006
      ],
      [
        "Ġimporta",
        -10.15967299238694
      ],
      [
        "avaliaÃ§Ã£o",
        -10.1603688328361
      ],
      [
        "dor",
        -10.160488979294342
      ],
      [
        "Ãł",
        -10.16056877485997
      ],
      [
        "Ġregra",
        -10.160704272133136
      ],
      [
        "Ġmudar",
        -10.162746119403373
      ],
      [
        "Ġestilo",
        -10.162793262046089
      ],
      [
        "ĠOlÃ¡",
        -10.162834135490543
      ],
      [
        "Ġjudicial",
        -10.162866453963153
      ],
      [
        "ĠAh",
        -10.163929219513848
      ],
      [
        "tica",
        -10.16505598369087
      ],
      [
        "investimentos",
        -10.166027337891384
      ],
      [
        "Ġtorna",
        -10.16637083869593
      ],
      [
        "abaixo",
        -10.166895615185084
      ],
      [
        "ĠvÃŃdeo",
        -10.167112961519498
      ],
      [
        "daquele",
        -10.167376276907437
      ],
      [
        "ĠFutebol",
        -10.167874514714423
      ],
      [
        "Ġatender",
        -10.168625618584215
      ],
      [
        "Ġpasso",
        -10.169700466580217
      ],
      [
        "ocorreu",
        -10.170490167822496
      ],
      [
        "ĠAlberto",
        -10.170684198130989
      ],
      [
        "Ġ80",
        -10.174210734948662
      ],
      [
        "50",
        -10.174440788689669
      ],
      [
        "Ġlimite",
        -10.17497780520021
      ],
      [
        "ĠLuÃŃs",
        -10.1754895149727
      ],
      [
        "Ġexplorar",
        -10.175731405942816
      ],
      [
        "Ġdis",
        -10.175851916940664
      ],
      [
        "Ġentender",
        -10.176187944523107
      ],
      [
        "relaÃ§Ãµes",
        -10.17684156535431
      ],
      [
        "ĠMundo",
        -10.17699081644638
      ],
      [
        "mas",
        -10.177796547686546
      ],
      [
        "ĠNossa",
        -10.178303114859853
      ],
      [
        "tion",
        -10.178353631483535
      ],
      [
        "Ġantigo",
        -10.17876390681232
      ],
      [
        "ĠDepu",
        -10.179228444575312
      ],
      [
        "Ġacidente",
        -10.180731698436878
      ],
      [
        "PSL",
        -10.180832985345068
      ],
      [
        "ĠPolÃŃtica",
        -10.180962821790828
      ],
      [
        "ĠmanhÃ£",
        -10.181000318072725
      ],
      [
        "ais",
        -10.181273919783765
      ],
      [
        "cio",
        -10.181837977743998
      ],
      [
        "tar",
        -10.182340033397544
      ],
      [
        "ĠAlemanha",
        -10.184134001292875
      ],
      [
        "PrevidÃªncia",
        -10.184630328324952
      ],
      [
        "EUA",
        -10.184744282015378
      ],
      [
        "Ġadministrativa",
        -10.184963236303028
      ],
      [
        "IDADE",
        -10.185071813664498
      ],
      [
        "iz",
        -10.186019699159871
      ],
      [
        "FundaÃ§Ã£o",
        -10.186645318060505
      ],
      [
        "ĠSabe",
        -10.187432574485548
      ],
      [
        "Ġacha",
        -10.188545305435554
      ],
      [
        "ĠvÃª",
        -10.189117979206989
      ],
      [
        "Ġinterna",
        -10.189753274211544
      ],
      [
        "ĠVai",
        -10.190433028850684
      ],
      [
        "alteraÃ§Ã£o",
        -10.19054625427957
      ],
      [
        "Ġcontinua",
        -10.190924186147624
      ],
      [
        "CearÃ¡",
        -10.191256717197897
      ],
      [
        "Ġestabelecer",
        -10.191475932295198
      ],
      [
        "ÃŃndice",
        -10.191711732536012
      ],
      [
        "Ġmesa",
        -10.191766929938009
      ],
      [
        "Ġrural",
        -10.193103656109656
      ],
      [
        "ĠJesus",
        -10.194040548922382
      ],
      [
        "Ġsala",
        -10.1947271450127
      ],
      [
        "ĠfunÃ§Ãµes",
        -10.19480723571837
      ],
      [
        "ita",
        -10.194810163505185
      ],
      [
        "ĠrÃ¡pido",
        -10.19517451987435
      ],
      [
        "apresentou",
        -10.195366463220356
      ],
      [
        "Ġ35",
        -10.195381637931549
      ],
      [
        "imagens",
        -10.195441130307948
      ],
      [
        "ĠAlexandre",
        -10.195986377376885
      ],
      [
        "Ġcontas",
        -10.196661692994237
      ],
      [
        "esse",
        -10.196959684023495
      ],
      [
        "Geraldo",
        -10.197134213378169
      ],
      [
        "ĠQual",
        -10.19738280713178
      ],
      [
        "Ġoferece",
        -10.19751083241515
      ],
      [
        "Ġpior",
        -10.19770859232534
      ],
      [
        "Ġdemocracia",
        -10.197981631725607
      ],
      [
        "Ġpromover",
        -10.198258239559374
      ],
      [
        "Departamento",
        -10.198861198298584
      ],
      [
        "Ġ1988",
        -10.198898156376906
      ],
      [
        "Ġouvir",
        -10.198975044625188
      ],
      [
        "Ġvice",
        -10.20072360651648
      ],
      [
        "Ġindependente",
        -10.201696020933769
      ],
      [
        "Ġtramita",
        -10.202128737231533
      ],
      [
        "nossos",
        -10.202890360239744
      ],
      [
        "Ġface",
        -10.203455187055702
      ],
      [
        "Ġimagem",
        -10.204251761797904
      ],
      [
        "Ġpergunta",
        -10.204357597007483
      ],
      [
        "ĠLegislativa",
        -10.204804464247006
      ],
      [
        "decreto",
        -10.20514106070618
      ],
      [
        "Ġpedir",
        -10.20544843435314
      ],
      [
        "ĠcomeÃ§ar",
        -10.206059067020712
      ],
      [
        "geraÃ§Ã£o",
        -10.20658114824788
      ],
      [
        "exigÃªncia",
        -10.206762089818788
      ],
      [
        "ĠPelo",
        -10.20781359245496
      ],
      [
        "privado",
        -10.208054685590843
      ],
      [
        "Ġ37",
        -10.20812824216742
      ],
      [
        "ĠUS",
        -10.208595642882823
      ],
      [
        "2002",
        -10.20868272701628
      ],
      [
        "cidade",
        -10.209326288685109
      ],
      [
        "ĠLisboa",
        -10.20994440470218
      ],
      [
        "Ġacaba",
        -10.21004309280477
      ],
      [
        "ĠopiniÃ£o",
        -10.210212226231244
      ],
      [
        "ĠDESPACH",
        -10.2104444483773
      ],
      [
        "Ġcria",
        -10.210614298072674
      ],
      [
        "Ġhumano",
        -10.21141370497792
      ],
      [
        "Ġdeputado",
        -10.213827350349971
      ],
      [
        "Ġconseguir",
        -10.214080811478077
      ],
      [
        "Ġantiga",
        -10.214475690360468
      ],
      [
        "ĠepisÃ³dio",
        -10.21829124508762
      ],
      [
        "ĠcidadÃ£o",
        -10.218384517560253
      ],
      [
        "ser",
        -10.2183924202433
      ],
      [
        "veÃŃculos",
        -10.218966682172818
      ],
      [
        "ĠRIO",
        -10.218970948006776
      ],
      [
        "Ġconsegue",
        -10.218991277763315
      ],
      [
        "ĠArthur",
        -10.219630157097797
      ],
      [
        "98",
        -10.219869384108511
      ],
      [
        "elementos",
        -10.220564675516554
      ],
      [
        "ĠART",
        -10.220885001214716
      ],
      [
        "Ġpobre",
        -10.221135142871509
      ],
      [
        "mais",
        -10.222204996433693
      ],
      [
        "via",
        -10.222254856592125
      ],
      [
        "ĠorientaÃ§Ã£o",
        -10.222561352383
      ],
      [
        "Ġtime",
        -10.222940819673733
      ],
      [
        "ĠBR",
        -10.222951044996778
      ],
      [
        "Ãª",
        -10.223239538075283
      ],
      [
        "ĠMarcos",
        -10.223508409055423
      ],
      [
        "equipamentos",
        -10.224080411083042
      ],
      [
        "benefÃŃcios",
        -10.224350394895664
      ],
      [
        "ResoluÃ§Ã£o",
        -10.224646156937276
      ],
      [
        "vamos",
        -10.224797656703451
      ],
      [
        "Ġouvi",
        -10.22523137925076
      ],
      [
        "Ġvale",
        -10.225275778432064
      ],
      [
        "ĠBoa",
        -10.225834997991186
      ],
      [
        "lei",
        -10.226182695287545
      ],
      [
        "Ġdaqui",
        -10.226357833216005
      ],
      [
        "www",
        -10.226987526966848
      ],
      [
        "ĠVista",
        -10.2270353648164
      ],
      [
        "ĠgÃªnero",
        -10.227504464249003
      ],
      [
        "ĠjustiÃ§a",
        -10.228242896129624
      ],
      [
        "90",
        -10.229097186174112
      ],
      [
        "havend",
        -10.229410589550138
      ],
      [
        "Ġviola",
        -10.229413082327
      ],
      [
        "Jogos",
        -10.229422797230932
      ],
      [
        "ĠOUTR",
        -10.229767898022594
      ],
      [
        "Ġdispor",
        -10.230170884064105
      ],
      [
        "che",
        -10.230367481852682
      ],
      [
        "Ġescrito",
        -10.230389698884146
      ],
      [
        "ĠSerra",
        -10.230554022479389
      ],
      [
        "Ġunidade",
        -10.231680121765944
      ],
      [
        "Ġcerta",
        -10.23175940674427
      ],
      [
        "Ġmerece",
        -10.23263277883109
      ],
      [
        "doenÃ§a",
        -10.23312719439188
      ],
      [
        "Moreira",
        -10.23375959683701
      ],
      [
        "ida",
        -10.234290678444044
      ],
      [
        "car",
        -10.234417631775589
      ],
      [
        "seu",
        -10.23447382628571
      ],
      [
        "Ġvivo",
        -10.23592792215377
      ],
      [
        "vontade",
        -10.236388582972348
      ],
      [
        "cargos",
        -10.23665726387663
      ],
      [
        "Ġdado",
        -10.23681917390522
      ],
      [
        "Ġentrevista",
        -10.237404760847149
      ],
      [
        "assistÃªncia",
        -10.237952201119338
      ],
      [
        "Ġpa",
        -10.23894053370537
      ],
      [
        "Ġpretende",
        -10.239269618942508
      ],
      [
        "fiscalizaÃ§Ã£o",
        -10.239650406523474
      ],
      [
        "parceria",
        -10.24079096331423
      ],
      [
        "ĠParis",
        -10.241453715470296
      ],
      [
        "amanhÃ£",
        -10.24160884392125
      ],
      [
        "ĠEst",
        -10.242098185404071
      ],
      [
        "PrÃªmio",
        -10.24267242998454
      ],
      [
        "tem",
        -10.245344953431069
      ],
      [
        "presidente",
        -10.245721750136068
      ],
      [
        "Ġfeliz",
        -10.245986767652914
      ],
      [
        "Proposta",
        -10.246784634794938
      ],
      [
        "virtud",
        -10.247249018780588
      ],
      [
        "instalaÃ§Ã£o",
        -10.24747740245635
      ],
      [
        "precisamos",
        -10.247555355835264
      ],
      [
        "lar",
        -10.247624656319577
      ],
      [
        "ĠQuanto",
        -10.247955603465712
      ],
      [
        "Ġutilizado",
        -10.24797924008992
      ],
      [
        "Ġgrau",
        -10.248338459680776
      ],
      [
        "Ġhonra",
        -10.248935198741632
      ],
      [
        "leitura",
        -10.248963426315438
      ],
      [
        "substitutivo",
        -10.249826758061705
      ],
      [
        "tor",
        -10.250024877456482
      ],
      [
        "Ġcomercial",
        -10.250109563441
      ],
      [
        "ĠhistÃ³rico",
        -10.250860285106253
      ],
      [
        "ĠsaÃŃd",
        -10.251074468158702
      ],
      [
        "essÃ£o",
        -10.25208333759988
      ],
      [
        "Ġambiental",
        -10.252458532994885
      ],
      [
        "Ġtrabalhador",
        -10.252997576614982
      ],
      [
        "Ġ33",
        -10.253623961338018
      ],
      [
        "relativo",
        -10.253753559398366
      ],
      [
        "Ġcentral",
        -10.254006522644
      ],
      [
        "FederaÃ§Ã£o",
        -10.25412052330654
      ],
      [
        "RE",
        -10.254760932803372
      ],
      [
        "retorno",
        -10.254862386734084
      ],
      [
        "juros",
        -10.254964342184415
      ],
      [
        "ĠRede",
        -10.255043666691067
      ],
      [
        "Ġetc",
        -10.257930596007276
      ],
      [
        "Ã¼",
        -10.258862338568752
      ],
      [
        "SÃĥO",
        -10.259892130573425
      ],
      [
        "ĠForÃ§a",
        -10.259986389517405
      ],
      [
        "Ġcarga",
        -10.260039209920892
      ],
      [
        "prÃªmio",
        -10.260320338119056
      ],
      [
        "DE",
        -10.260411799905697
      ],
      [
        "ĠPARA",
        -10.261050195201095
      ],
      [
        "expressÃ£o",
        -10.261217904013606
      ],
      [
        "Ġcompanhia",
        -10.26130708958684
      ],
      [
        "ĠAgrav",
        -10.262221920384777
      ],
      [
        "Ġnego",
        -10.262776346227795
      ],
      [
        "Ġmedo",
        -10.26287842878725
      ],
      [
        "urgÃªncia",
        -10.26335463873987
      ],
      [
        "Ġcorpus",
        -10.26345521652054
      ],
      [
        "Amazonas",
        -10.264598195068254
      ],
      [
        "ĠPubli",
        -10.265569248328054
      ],
      [
        "rÃ¡pida",
        -10.265608032799465
      ],
      [
        "retirada",
        -10.26565197573634
      ],
      [
        "ĠParlamento",
        -10.266091425282424
      ],
      [
        "agentes",
        -10.266156438532256
      ],
      [
        "ĠfaÃ§o",
        -10.26650178699211
      ],
      [
        "ĠQuer",
        -10.266634360544003
      ],
      [
        "ĠNeste",
        -10.266836996376036
      ],
      [
        "ĠSobre",
        -10.266873172252136
      ],
      [
        "ssem",
        -10.266937782778136
      ],
      [
        "ĠMG",
        -10.267155360696874
      ],
      [
        "Ġregistrado",
        -10.267833961380513
      ],
      [
        "existem",
        -10.268324421588584
      ],
      [
        "requer",
        -10.268331953418183
      ],
      [
        "Ġatingi",
        -10.268713611758628
      ],
      [
        "ĠAto",
        -10.268892114968097
      ],
      [
        "Ġtorno",
        -10.270855070119543
      ],
      [
        "Barbosa",
        -10.27131189573801
      ],
      [
        "Ġrespectiva",
        -10.272080703831223
      ],
      [
        "ĠNeto",
        -10.27234726023351
      ],
      [
        "crimes",
        -10.272353270546713
      ],
      [
        "Ġperder",
        -10.273609782676438
      ],
      [
        "Ġeventos",
        -10.273724277476475
      ],
      [
        "Ġconcurso",
        -10.27377732916143
      ],
      [
        "apensado",
        -10.274609467353498
      ],
      [
        "Ġprocedimento",
        -10.274932803319404
      ],
      [
        "contexto",
        -10.275167642628222
      ],
      [
        "Ġcomando",
        -10.275488007724404
      ],
      [
        "Ġescolha",
        -10.276242463766712
      ],
      [
        "ĠNada",
        -10.276657489278492
      ],
      [
        "ente",
        -10.277323865651352
      ],
      [
        "Ġinternacionais",
        -10.277791865309029
      ],
      [
        "ĠAltera",
        -10.278348401975975
      ],
      [
        "ĠSub",
        -10.278378168695818
      ],
      [
        "Ġinvestimento",
        -10.278407815154546
      ],
      [
        "ĠfaÃ§a",
        -10.278500397369056
      ],
      [
        "ĠPa",
        -10.280242045172717
      ],
      [
        "TE",
        -10.280418662805175
      ],
      [
        "Ġdefende",
        -10.28115151340493
      ],
      [
        "ĠRegional",
        -10.282470099818596
      ],
      [
        "Ġtinham",
        -10.282614438727444
      ],
      [
        "Ġcima",
        -10.282703441752354
      ],
      [
        "Ġdisco",
        -10.28354634170635
      ],
      [
        "tentativa",
        -10.283546553629163
      ],
      [
        "Ġarma",
        -10.284211059233131
      ],
      [
        "AgÃªncia",
        -10.284615340958691
      ],
      [
        "nia",
        -10.284704682769862
      ],
      [
        "ĠMeio",
        -10.285140911308298
      ],
      [
        "etapa",
        -10.285417647303564
      ],
      [
        "21",
        -10.285573602498566
      ],
      [
        "programas",
        -10.286155178188686
      ],
      [
        "RelaÃ§Ãµes",
        -10.28662148070472
      ],
      [
        "ĠjurisprudÃªncia",
        -10.287191596793056
      ],
      [
        "ĠalÃŃnea",
        -10.287742392172484
      ],
      [
        "gravada",
        -10.288030463804406
      ],
      [
        "http",
        -10.288794564381307
      ],
      [
        "Ġsexta",
        -10.290260200140764
      ],
      [
        "2001",
        -10.29037477395755
      ],
      [
        "ĠMagalhÃ£es",
        -10.291686577920078
      ],
      [
        "ĠQUE",
        -10.291886808305843
      ],
      [
        "reconhecimento",
        -10.29237920730047
      ],
      [
        "Ġampla",
        -10.294178579084656
      ],
      [
        "ang",
        -10.294922554880268
      ],
      [
        "Ġinclui",
        -10.295558874957546
      ],
      [
        "PRIMEIR",
        -10.295956566990707
      ],
      [
        "ĠRodrigo",
        -10.29619579760602
      ],
      [
        "Ġeleitoral",
        -10.29649528349753
      ],
      [
        "Ġtrans",
        -10.29673531898981
      ],
      [
        "Ġesposa",
        -10.29764344725039
      ],
      [
        "metade",
        -10.297932565253465
      ],
      [
        "avanÃ§o",
        -10.298550511635682
      ],
      [
        "publicada",
        -10.298610970422462
      ],
      [
        "ĠdenÃºncia",
        -10.299409413019232
      ],
      [
        "Ġrevela",
        -10.29949128638763
      ],
      [
        "ĠCidade",
        -10.300266728324996
      ],
      [
        "francÃªs",
        -10.300496582543085
      ],
      [
        "Ġjuiz",
        -10.301131549392672
      ],
      [
        "ĠCarreira",
        -10.30127052078656
      ],
      [
        "Ġjogador",
        -10.301870126804614
      ],
      [
        "ĠlÃŃder",
        -10.302093262395111
      ],
      [
        "ĠlicenÃ§a",
        -10.30277187887394
      ],
      [
        "Ġcursos",
        -10.3028212399391
      ],
      [
        "Ġpermanece",
        -10.30292629848088
      ],
      [
        "ĠIsto",
        -10.30306924163343
      ],
      [
        "finalidade",
        -10.30309744284239
      ],
      [
        "Ġefetiva",
        -10.303385816345452
      ],
      [
        "desempenho",
        -10.303676571508143
      ],
      [
        "consumo",
        -10.30477545485076
      ],
      [
        "ĠExterior",
        -10.305376777541762
      ],
      [
        "Ġ1994",
        -10.305599049228404
      ],
      [
        "HC",
        -10.306937087290663
      ],
      [
        "arney",
        -10.307036406060009
      ],
      [
        "Ġoferta",
        -10.309037722735171
      ],
      [
        "ĠPA",
        -10.30919953914819
      ],
      [
        "decisÃµes",
        -10.30920657662948
      ],
      [
        "Ġestes",
        -10.309629766305662
      ],
      [
        "deficiÃªncia",
        -10.309845461222023
      ],
      [
        "indicaÃ§Ã£o",
        -10.310011909518431
      ],
      [
        "Ġvinte",
        -10.310132945536171
      ],
      [
        "ĠBe",
        -10.310324168591007
      ],
      [
        "Ġquinta",
        -10.310485369199489
      ],
      [
        "provÃŃncia",
        -10.31087630309581
      ],
      [
        "Ġposto",
        -10.311487150718635
      ],
      [
        "MÃ£o",
        -10.311489402545424
      ],
      [
        "ĠClaro",
        -10.311575319353178
      ],
      [
        "ito",
        -10.312107447743331
      ],
      [
        "ĠFerreira",
        -10.31265142241882
      ],
      [
        "Ġcontato",
        -10.313065421843165
      ],
      [
        "Enquanto",
        -10.313075178686509
      ],
      [
        "Ġexterior",
        -10.313664244278044
      ],
      [
        "Ġmostrar",
        -10.314062617211448
      ],
      [
        "campeÃ£o",
        -10.314458185229768
      ],
      [
        "Ġataque",
        -10.314702102923311
      ],
      [
        "Rodrigo",
        -10.315147686409995
      ],
      [
        "ĠConstitucional",
        -10.315247894517665
      ],
      [
        "...........",
        -10.31538609557599
      ],
      [
        "convidado",
        -10.315607577589176
      ],
      [
        "Ġquiser",
        -10.316286405610343
      ],
      [
        "Ġfinanceiro",
        -10.31682055302761
      ],
      [
        "ly",
        -10.31724990509806
      ],
      [
        "necessÃ¡ria",
        -10.317525957917995
      ],
      [
        "ĠcompetiÃ§Ã£o",
        -10.317839977023704
      ],
      [
        "distrito",
        -10.319098995033633
      ],
      [
        "escreveu",
        -10.319929693304127
      ],
      [
        "Ġfogo",
        -10.321178772808144
      ],
      [
        "ĠrÃ¡dio",
        -10.321797012381886
      ],
      [
        "ĠGeral",
        -10.322090135199218
      ],
      [
        "Ġpreso",
        -10.322180681573675
      ],
      [
        "ĠOrÃ§ament",
        -10.322325022813835
      ],
      [
        "Ġitem",
        -10.32271302154258
      ],
      [
        "Ġ1993",
        -10.322842693023215
      ],
      [
        "Ġleva",
        -10.322972270039063
      ],
      [
        "fontes",
        -10.323211363832309
      ],
      [
        "40",
        -10.32344354927542
      ],
      [
        "funcionamento",
        -10.323624547283972
      ],
      [
        "ĠJu",
        -10.324082042221251
      ],
      [
        "ĠFe",
        -10.324235400942714
      ],
      [
        "Eduardo",
        -10.324305888082408
      ],
      [
        "Ġinstitui",
        -10.324724439288325
      ],
      [
        "Ġassinatura",
        -10.32485607331675
      ],
      [
        "licitaÃ§Ã£o",
        -10.325293675736813
      ],
      [
        "Outra",
        -10.326054542413878
      ],
      [
        "ĠMello",
        -10.32683188191694
      ],
      [
        "ĠCPI",
        -10.326952360995543
      ],
      [
        "Ġpartida",
        -10.327300200923984
      ],
      [
        "exploraÃ§Ã£o",
        -10.32810574842169
      ],
      [
        "Embora",
        -10.328154014944555
      ],
      [
        "ĠVila",
        -10.32886341324816
      ],
      [
        "ina",
        -10.328895598636905
      ],
      [
        "Ġinteiro",
        -10.32916575496103
      ],
      [
        "ĠpeÃ§a",
        -10.32941642152911
      ],
      [
        "Ġ49",
        -10.330042229267152
      ],
      [
        "Ġterceira",
        -10.331194735977077
      ],
      [
        "Ġposse",
        -10.331221261177978
      ],
      [
        "morreu",
        -10.331654956659133
      ],
      [
        "tal",
        -10.332275489246609
      ],
      [
        "ĠFolha",
        -10.332357087327972
      ],
      [
        "Ã§o",
        -10.332402877949828
      ],
      [
        "Ġlivros",
        -10.33240658871599
      ],
      [
        "ĠCruz",
        -10.332506363060864
      ],
      [
        "tributÃ¡ria",
        -10.332895295006928
      ],
      [
        "ĠespÃ©cies",
        -10.332920370110752
      ],
      [
        "geralmente",
        -10.333906201940756
      ],
      [
        "policiais",
        -10.334265052123992
      ],
      [
        "ĠdistÃ¢ncia",
        -10.334440591945382
      ],
      [
        "gen",
        -10.334570285728011
      ],
      [
        "decorrente",
        -10.33460935860592
      ],
      [
        "ESTADO",
        -10.334642333253264
      ],
      [
        "ica",
        -10.334678578259975
      ],
      [
        "Ġsabia",
        -10.335005799886936
      ],
      [
        "Ġprocura",
        -10.335844872145753
      ],
      [
        "Ġfesta",
        -10.335861002549272
      ],
      [
        "ĠameaÃ§a",
        -10.33623615851865
      ],
      [
        "Ġregistrar",
        -10.336378620069814
      ],
      [
        "Ġrelator",
        -10.3363892176681
      ],
      [
        "Ġpersonagem",
        -10.336631631319008
      ],
      [
        "Ġpermanente",
        -10.337081586423183
      ],
      [
        "comÃ©rcio",
        -10.337952058442268
      ],
      [
        "trinta",
        -10.338457670194853
      ],
      [
        "Ġespera",
        -10.338530690962424
      ],
      [
        "Ġbanco",
        -10.339333240450788
      ],
      [
        "armas",
        -10.339614062237317
      ],
      [
        "fatos",
        -10.340176293000496
      ],
      [
        "Ġigreja",
        -10.34100685801217
      ],
      [
        "ĠEdita",
        -10.34158397187066
      ],
      [
        "Ġdaquel",
        -10.341775914728023
      ],
      [
        "Ġganhar",
        -10.34208410763676
      ],
      [
        "ĠEl",
        -10.34282845053432
      ],
      [
        "Ġtraz",
        -10.343656345816994
      ],
      [
        "ĠEspanha",
        -10.344668006270522
      ],
      [
        "princÃŃpios",
        -10.346556578754155
      ],
      [
        "Ġacabar",
        -10.346887198244218
      ],
      [
        "Ġrua",
        -10.346976163221534
      ],
      [
        "Ġdada",
        -10.34742231975038
      ],
      [
        "Ġespecifica",
        -10.347498588282608
      ],
      [
        "ĠAntes",
        -10.34917037129042
      ],
      [
        "fizeram",
        -10.349408908518669
      ],
      [
        "Ġadolescente",
        -10.3497795454837
      ],
      [
        "ĠfÃ¡cil",
        -10.349781851613768
      ],
      [
        "Ġcultural",
        -10.350051542577743
      ],
      [
        "Ġreserva",
        -10.35020672827424
      ],
      [
        "Ġtroca",
        -10.35021360611201
      ],
      [
        "Bibliografia",
        -10.350427865994115
      ],
      [
        "professores",
        -10.351164575436972
      ],
      [
        "ber",
        -10.351847634001844
      ],
      [
        "Ġproduzir",
        -10.352357635124102
      ],
      [
        "Pernambuco",
        -10.352920414722671
      ],
      [
        "ĠClube",
        -10.35304141314491
      ],
      [
        "ĠprÃ©vi",
        -10.353285381501925
      ],
      [
        "autoridades",
        -10.353455367142644
      ],
      [
        "Ġdiminui",
        -10.354043112160369
      ],
      [
        "como",
        -10.35421917482233
      ],
      [
        "ĠTi",
        -10.354347156953368
      ],
      [
        "Vieira",
        -10.354854320401929
      ],
      [
        "estudantes",
        -10.354902525199275
      ],
      [
        "Ġenorme",
        -10.357320268080574
      ],
      [
        "esteja",
        -10.357630205945249
      ],
      [
        "MEN",
        -10.357749051605602
      ],
      [
        "ĠAgricultura",
        -10.357838842070624
      ],
      [
        "Ġhumana",
        -10.358672005148462
      ],
      [
        "istas",
        -10.359038163093413
      ],
      [
        "ĠMartins",
        -10.35904153923272
      ],
      [
        "Ġprodutor",
        -10.359220058061158
      ],
      [
        "Parlamentare",
        -10.360050983972238
      ],
      [
        "ordinÃ¡ria",
        -10.3600557428339
      ],
      [
        "Ġfixa",
        -10.360675469991032
      ],
      [
        "terminou",
        -10.36078755853056
      ],
      [
        "consumidor",
        -10.361416667887736
      ],
      [
        "irÃ¡",
        -10.361503339636968
      ],
      [
        "Ġacontecer",
        -10.361800561769597
      ],
      [
        "preciaÃ§Ã£o",
        -10.361958371417009
      ],
      [
        "BA",
        -10.36276070103861
      ],
      [
        "uplente",
        -10.364297036624622
      ],
      [
        "petrÃ³leo",
        -10.364656806479292
      ],
      [
        "Ġassumi",
        -10.364658418462078
      ],
      [
        "trÃ¢nsito",
        -10.365508215713884
      ],
      [
        "vemos",
        -10.365622403374012
      ],
      [
        "Ġaumentar",
        -10.365745132649442
      ],
      [
        "nanimidade",
        -10.36650767403351
      ],
      [
        "Ġshow",
        -10.366796008242012
      ],
      [
        "Ġjeito",
        -10.366811535077249
      ],
      [
        "aposentadoria",
        -10.366961129628557
      ],
      [
        "ĠRequer",
        -10.367141862088628
      ],
      [
        "Couto",
        -10.367999572965989
      ],
      [
        "cional",
        -10.368251191536134
      ],
      [
        "Ġquerem",
        -10.369065300675633
      ],
      [
        "patrimÃ´nio",
        -10.369248821445064
      ],
      [
        "Ġjornalista",
        -10.369661921495556
      ],
      [
        "ĠNÃĥO",
        -10.369809735468554
      ],
      [
        "ĠMelhor",
        -10.369890585339292
      ],
      [
        "ĠYork",
        -10.36994293698705
      ],
      [
        "gar",
        -10.370348626469047
      ],
      [
        "Ġ1913",
        -10.370799079940287
      ],
      [
        "investigaÃ§Ã£o",
        -10.372614374921104
      ],
      [
        "PLS",
        -10.372660026621531
      ],
      [
        "Ġinferior",
        -10.372764975282047
      ],
      [
        "Ġfi",
        -10.37277309493409
      ],
      [
        "Ġalternativa",
        -10.37310307822928
      ],
      [
        "ĠMARCO",
        -10.37311239762615
      ],
      [
        "Ġmensagem",
        -10.373215048828431
      ],
      [
        "Ġanteriores",
        -10.37330622035
      ],
      [
        "GL",
        -10.373309068975194
      ],
      [
        "Ġ90",
        -10.374469154152388
      ],
      [
        "ĠMachado",
        -10.375064955148854
      ],
      [
        "ĠParte",
        -10.37590996269262
      ],
      [
        "companheiro",
        -10.37610243579453
      ],
      [
        "ĠcoraÃ§Ã£o",
        -10.37694762678512
      ],
      [
        "ĠAurÃ©li",
        -10.377328733556492
      ],
      [
        "bairro",
        -10.377908031019562
      ],
      [
        "ĠelÃ©trica",
        -10.378002063943471
      ],
      [
        "transferÃªncia",
        -10.37826504582958
      ],
      [
        "Ġleis",
        -10.378614267602527
      ],
      [
        "produtores",
        -10.37892697524146
      ],
      [
        "Ġseguro",
        -10.379586245033906
      ],
      [
        "ex",
        -10.37963476252482
      ],
      [
        "acrescenta",
        -10.379912453566735
      ],
      [
        "passando",
        -10.380112833990475
      ],
      [
        "dispositivos",
        -10.380605108911848
      ],
      [
        "quer",
        -10.380723527908758
      ],
      [
        "importantes",
        -10.380870792244371
      ],
      [
        "Ġprefeito",
        -10.381219659482642
      ],
      [
        "Ãģfrica",
        -10.38130012556208
      ],
      [
        "âĢĵâĢĵâĢĵâĢĵâĢĵ",
        -10.38131342856598
      ],
      [
        "Ġconceito",
        -10.382577460548328
      ],
      [
        "ĠCultural",
        -10.38317448161051
      ],
      [
        "Ġintegral",
        -10.383310484525529
      ],
      [
        "Ġcinema",
        -10.383707641083266
      ],
      [
        "Ġalega",
        -10.38447779696624
      ],
      [
        "nasceu",
        -10.38454860656601
      ],
      [
        "horÃ¡rio",
        -10.385446236237426
      ],
      [
        "Deputado",
        -10.386147528411804
      ],
      [
        "obretudo",
        -10.386737710517345
      ],
      [
        "funcionÃ¡rios",
        -10.38719498425134
      ],
      [
        "Ġres",
        -10.387445419285331
      ],
      [
        "Ġaltura",
        -10.387691659671583
      ],
      [
        "ĠProfessor",
        -10.388138742881592
      ],
      [
        "ĠusuÃ¡rio",
        -10.388170742404451
      ],
      [
        "Candido",
        -10.388197953882065
      ],
      [
        "ĠPaim",
        -10.388240236046954
      ],
      [
        "dade",
        -10.388290637846664
      ],
      [
        "Ġchama",
        -10.388345417904755
      ],
      [
        "tivesse",
        -10.388369210813064
      ],
      [
        "Ġganha",
        -10.388637546280416
      ],
      [
        "ĠParece",
        -10.389406109406114
      ],
      [
        "Ãº",
        -10.390212061408914
      ],
      [
        "Ġtra",
        -10.39029043453424
      ],
      [
        "ĠNew",
        -10.390416872708562
      ],
      [
        "Ġ1992",
        -10.391367755029858
      ],
      [
        "Ġinicia",
        -10.391525745001804
      ],
      [
        "ÃŃvel",
        -10.391952699764152
      ],
      [
        "Ġamericano",
        -10.39303893010643
      ],
      [
        "polÃŃticos",
        -10.39304207388036
      ],
      [
        "MÃ¡rio",
        -10.393163987566286
      ],
      [
        "ĠinfluÃªncia",
        -10.39349601222052
      ],
      [
        "Ł",
        -10.393769641573254
      ],
      [
        "Ġpaz",
        -10.393879636265256
      ],
      [
        "Ġvelho",
        -10.394662129438432
      ],
      [
        "preocupaÃ§Ã£o",
        -10.395234076040625
      ],
      [
        "Ġtamanho",
        -10.396223316033314
      ],
      [
        "Ġrealiza",
        -10.396399935842757
      ],
      [
        "cÃ³pia",
        -10.396423108857794
      ],
      [
        "aproximadamente",
        -10.396881152193924
      ],
      [
        "Ġgosto",
        -10.39715102357258
      ],
      [
        "contrataÃ§Ã£o",
        -10.397320033381936
      ],
      [
        "tas",
        -10.397790198306057
      ],
      [
        "ĠEspÃŃrit",
        -10.398341776565204
      ],
      [
        "queremos",
        -10.398412677771752
      ],
      [
        "Ġfigura",
        -10.398725800506051
      ],
      [
        "ĠJapÃ£o",
        -10.398837071723127
      ],
      [
        "iretrizes",
        -10.398996259064644
      ],
      [
        "Ġparticipou",
        -10.39921274772143
      ],
      [
        "Ġofens",
        -10.399312288878509
      ],
      [
        "aspectos",
        -10.400230370073537
      ],
      [
        "Mesmo",
        -10.400303699502611
      ],
      [
        "ĠSÃ¡",
        -10.40102946266869
      ],
      [
        "Ġcompleta",
        -10.401076118729296
      ],
      [
        "ĠMichel",
        -10.401231339970918
      ],
      [
        "Ġpensar",
        -10.401256690148031
      ],
      [
        "Ġlido",
        -10.40137178688368
      ],
      [
        "ĠItÃ¡lia",
        -10.401713224937202
      ],
      [
        "constitucional",
        -10.40194776981982
      ],
      [
        "apelo",
        -10.4027929225822
      ],
      [
        "ĠJO",
        -10.403286028018828
      ],
      [
        "teoria",
        -10.403417473131512
      ],
      [
        "limites",
        -10.40419131543406
      ],
      [
        "Ġfamiliar",
        -10.404816638033912
      ],
      [
        "Ġanti",
        -10.405051711666502
      ],
      [
        "conduta",
        -10.405381522446383
      ],
      [
        "Ġgosta",
        -10.406495142173476
      ],
      [
        "Ġolhos",
        -10.406679249729704
      ],
      [
        "recebimento",
        -10.4071245685189
      ],
      [
        "estaÃ§Ã£o",
        -10.408931841537308
      ],
      [
        "Ġbreve",
        -10.411077381428653
      ],
      [
        "ĠAmbiente",
        -10.411168016632324
      ],
      [
        "Acordo",
        -10.411222804749842
      ],
      [
        "Ġaberto",
        -10.412157803406268
      ],
      [
        "Ġrepercuss",
        -10.41314346406018
      ],
      [
        "iauÃŃ",
        -10.413242461741516
      ],
      [
        "Ġzona",
        -10.414104696654547
      ],
      [
        "ĠMA",
        -10.414290446749211
      ],
      [
        "ispÃµe",
        -10.414369012608018
      ],
      [
        "ĠJoaquim",
        -10.414484321525466
      ],
      [
        "FÃ¡bio",
        -10.414526828007364
      ],
      [
        "ExÃ©rcito",
        -10.414756229517325
      ],
      [
        "GoiÃ¡",
        -10.41489647764505
      ],
      [
        "Ġexpressa",
        -10.415113453363192
      ],
      [
        "ĠPI",
        -10.41562491641984
      ],
      [
        "caracterÃŃsticas",
        -10.415672532165408
      ],
      [
        "remos",
        -10.41570455734336
      ],
      [
        "ĠciÃªncia",
        -10.41600554610293
      ],
      [
        "Ġaplica",
        -10.417070968354553
      ],
      [
        "REGIMENT",
        -10.417942060665498
      ],
      [
        "usando",
        -10.41853548042818
      ],
      [
        "idÃ©ia",
        -10.418658272948791
      ],
      [
        "ĠFlÃ¡vi",
        -10.42071725586246
      ],
      [
        "ĠVida",
        -10.421396550252483
      ],
      [
        "true",
        -10.421740048186948
      ],
      [
        "Ġviu",
        -10.423506417591256
      ],
      [
        "grupos",
        -10.423865049762007
      ],
      [
        "ĠMiguel",
        -10.424188819642218
      ],
      [
        "localidade",
        -10.424432715732513
      ],
      [
        "desafio",
        -10.42452223792655
      ],
      [
        "Ġconquista",
        -10.425482474289185
      ],
      [
        "22",
        -10.42551873847752
      ],
      [
        "mecanismo",
        -10.42560477599508
      ],
      [
        "Chefe",
        -10.425773135437131
      ],
      [
        "Ġvigorar",
        -10.42580224446596
      ],
      [
        "Ġinternet",
        -10.426550470380786
      ],
      [
        "km",
        -10.426558181346856
      ],
      [
        "ĠcientÃŃfica",
        -10.426562919999007
      ],
      [
        "implantaÃ§Ã£o",
        -10.426615768177747
      ],
      [
        "lteraÃ§Ãµes",
        -10.427271814752793
      ],
      [
        "ĠContas",
        -10.427488387639322
      ],
      [
        "ĠAL",
        -10.427532574635956
      ],
      [
        "cidades",
        -10.427813970697608
      ],
      [
        "divisÃ£o",
        -10.428247684406546
      ],
      [
        "PL",
        -10.428895337152197
      ],
      [
        "23",
        -10.429010339211336
      ],
      [
        "Ġportuguesa",
        -10.42948651559428
      ],
      [
        "CÃĤMARA",
        -10.430033157042397
      ],
      [
        "ĠmemÃ³ria",
        -10.430678293435312
      ],
      [
        "ĠMan",
        -10.43083427793021
      ],
      [
        "ĠMauro",
        -10.4312341370342
      ],
      [
        "cÃ¡lculo",
        -10.431609583882302
      ],
      [
        "Ġpo",
        -10.432049707066955
      ],
      [
        "]",
        -10.432180694867592
      ],
      [
        "ĠPr",
        -10.432383258350058
      ],
      [
        "Ġhabe",
        -10.432517081909602
      ],
      [
        "Ġ45",
        -10.432644013609018
      ],
      [
        "Ġ200",
        -10.432716961298906
      ],
      [
        "Ġcar",
        -10.43415212342559
      ],
      [
        "Nunca",
        -10.43424921814304
      ],
      [
        "Ġaquilo",
        -10.434598451658346
      ],
      [
        "Ġbatalha",
        -10.434785565491548
      ],
      [
        "ck",
        -10.434962525412365
      ],
      [
        "trazer",
        -10.435068839299358
      ],
      [
        "ocasiÃ£o",
        -10.435144982702797
      ],
      [
        "ĠcrÃŃtica",
        -10.436387738177512
      ],
      [
        "pro",
        -10.436467658998795
      ],
      [
        "casamento",
        -10.436521553964225
      ],
      [
        "Ġaceita",
        -10.437186854136304
      ],
      [
        "Ġminuto",
        -10.437518704807298
      ],
      [
        "Ġsolo",
        -10.437730246641133
      ],
      [
        "mantid",
        -10.438127300196362
      ],
      [
        "Direitos",
        -10.438731139410091
      ],
      [
        "Ġestiver",
        -10.44000015233407
      ],
      [
        "referida",
        -10.44119921512589
      ],
      [
        "circunstÃ¢ncia",
        -10.441260022778188
      ],
      [
        "ĠEconÃ´mic",
        -10.441821987455985
      ],
      [
        "Ġpegar",
        -10.44194909001208
      ],
      [
        "sentenÃ§a",
        -10.442041558495584
      ],
      [
        "dificuldades",
        -10.442189837546762
      ],
      [
        "produzido",
        -10.442290841373186
      ],
      [
        "ĠPRO",
        -10.44266496666145
      ],
      [
        "Afonso",
        -10.443072513110392
      ],
      [
        "Ġimediata",
        -10.443718122128413
      ],
      [
        "ĠParaÃŃba",
        -10.444254660734384
      ],
      [
        "pre",
        -10.444322607005336
      ],
      [
        "ð",
        -10.446729661822124
      ],
      [
        "fundamento",
        -10.44676423017676
      ],
      [
        "ĠPresident",
        -10.447793492017244
      ],
      [
        "ĠNA",
        -10.447901775288653
      ],
      [
        "ĠReuni",
        -10.44862135194892
      ],
      [
        "ĠEspere",
        -10.448846542590465
      ],
      [
        "recebido",
        -10.448962233467949
      ],
      [
        "ĠCaso",
        -10.448973571999462
      ],
      [
        "ĠBa",
        -10.449345816981555
      ],
      [
        "Ġgaroto",
        -10.449546935159574
      ],
      [
        "municÃŃpios",
        -10.45076528642832
      ],
      [
        "IS",
        -10.452624109803118
      ],
      [
        "Ġmusical",
        -10.452871235809518
      ],
      [
        "ocorrÃªncia",
        -10.454019735675818
      ],
      [
        "cha",
        -10.454423364824844
      ],
      [
        "voltou",
        -10.454591116925796
      ],
      [
        "GTE",
        -10.4548702035657
      ],
      [
        "Ġincluir",
        -10.455449501378588
      ],
      [
        "mÃ©todo",
        -10.455725908986558
      ],
      [
        "Ġfunciona",
        -10.456030779183378
      ],
      [
        "Ġmunicipal",
        -10.456092967594936
      ],
      [
        "ĠPessoal",
        -10.457135702568712
      ],
      [
        "ocumentaÃ§Ã£o",
        -10.457819541762026
      ],
      [
        "Ġgovernador",
        -10.457969075550858
      ],
      [
        "Ġabrir",
        -10.457975303258696
      ],
      [
        "ofÃŃcio",
        -10.458142954468352
      ],
      [
        "Ġchamar",
        -10.45853354564894
      ],
      [
        "Ġporte",
        -10.458915880588538
      ],
      [
        "tivo",
        -10.458934612145486
      ],
      [
        "TÃ©cnico",
        -10.458968418953395
      ],
      [
        "ĠPROC",
        -10.458983898139453
      ],
      [
        "Ġprestar",
        -10.459060499580104
      ],
      [
        "Ġnove",
        -10.459254635154222
      ],
      [
        "inicialmente",
        -10.459307283701635
      ],
      [
        "Ġobservado",
        -10.459500909195938
      ],
      [
        "Ġdetermina",
        -10.45958064428335
      ],
      [
        "Ġchance",
        -10.459972556872891
      ],
      [
        "ĠChico",
        -10.460276281179365
      ],
      [
        "OSÃī",
        -10.46105842919061
      ],
      [
        "Ġrel",
        -10.461261251968082
      ],
      [
        "Ġfilmes",
        -10.462626143617706
      ],
      [
        "Ġ48",
        -10.462660954558308
      ],
      [
        "lideranÃ§a",
        -10.463088001744572
      ],
      [
        "viagem",
        -10.463410710438666
      ],
      [
        "mÃ£os",
        -10.464188155816082
      ],
      [
        "Ġutilizada",
        -10.464334919585108
      ],
      [
        "Ġtive",
        -10.464356528327404
      ],
      [
        "DIAS",
        -10.464691441858292
      ],
      [
        "ĠKa",
        -10.46500364874844
      ],
      [
        "ĠÃĵ",
        -10.46501258839729
      ],
      [
        "tomada",
        -10.465987275799993
      ],
      [
        "oficiais",
        -10.466590724020142
      ],
      [
        "%)",
        -10.466845818523764
      ],
      [
        "Ġreferente",
        -10.466915695823555
      ],
      [
        "dez",
        -10.46789008588983
      ],
      [
        "interpretaÃ§Ã£o",
        -10.46814159590544
      ],
      [
        "Ġseparado",
        -10.468793443937646
      ],
      [
        "encaminhamento",
        -10.46883536236824
      ],
      [
        "Ġcoloca",
        -10.469091436816392
      ],
      [
        "Ġpotencial",
        -10.47025520116286
      ],
      [
        "ĠSerÃ¡",
        -10.47054827833519
      ],
      [
        "JUSTIÃĩA",
        -10.47056281165337
      ],
      [
        "extensÃ£o",
        -10.47071994431977
      ],
      [
        "Desculpe",
        -10.470854857083804
      ],
      [
        "ĠHumano",
        -10.47120102505579
      ],
      [
        "DiÃ¡rio",
        -10.473132933391868
      ],
      [
        "juntamente",
        -10.473591811486942
      ],
      [
        "Localida",
        -10.47506906257778
      ],
      [
        "tentando",
        -10.475439423707062
      ],
      [
        "ĠMuseu",
        -10.475511909283796
      ],
      [
        "24",
        -10.475722911110768
      ],
      [
        "Ġlonge",
        -10.475884815480676
      ],
      [
        "Ġtrouxe",
        -10.476426927503145
      ],
      [
        "Ġplaneta",
        -10.476691565257273
      ],
      [
        "provas",
        -10.477262411040288
      ],
      [
        "Ġprecisam",
        -10.477362823721318
      ],
      [
        "ĠTrabalhador",
        -10.477556006212922
      ],
      [
        "Ġatende",
        -10.47816692805776
      ],
      [
        "totalmente",
        -10.478514993802031
      ],
      [
        "Ġteor",
        -10.478941635360092
      ],
      [
        "consequÃªncia",
        -10.47915716183301
      ],
      [
        "composiÃ§Ã£o",
        -10.479189815716769
      ],
      [
        "fronteira",
        -10.4793798659977
      ],
      [
        "Ġmelhorar",
        -10.479432132565078
      ],
      [
        "velocidade",
        -10.480780743881386
      ],
      [
        "tura",
        -10.4812650820298
      ],
      [
        "indÃŃgenas",
        -10.48136208434528
      ],
      [
        "eliminaÃ§Ã£o",
        -10.481405238385484
      ],
      [
        "Ġservidor",
        -10.482492143563654
      ],
      [
        "ĠROBERT",
        -10.482494132110189
      ],
      [
        "exÃ©rcito",
        -10.482592391386705
      ],
      [
        "Ġnomeado",
        -10.482710411480369
      ],
      [
        "trecho",
        -10.482859457806516
      ],
      [
        "Ġsimplesmente",
        -10.483690893511437
      ],
      [
        "Ġcanal",
        -10.483845339107608
      ],
      [
        "coberto",
        -10.48407679353789
      ],
      [
        "Ġesteve",
        -10.484337490031628
      ],
      [
        "integrantes",
        -10.484461688750812
      ],
      [
        "Ġlonga",
        -10.48483478456959
      ],
      [
        "ĠVerde",
        -10.485039491896185
      ],
      [
        "Ġinterno",
        -10.48678424180896
      ],
      [
        "ĠHa",
        -10.486797755433953
      ],
      [
        "definiÃ§Ã£o",
        -10.487519668790082
      ],
      [
        "posteriormente",
        -10.487599037346678
      ],
      [
        "CO",
        -10.487614552462135
      ],
      [
        "ĠCÃ©sar",
        -10.488049347391213
      ],
      [
        "Ġbranco",
        -10.488060319899857
      ],
      [
        "Ġrenova",
        -10.48807043590928
      ],
      [
        "partidos",
        -10.48959932314259
      ],
      [
        "entrou",
        -10.489720770237987
      ],
      [
        "Ġtirar",
        -10.490126604969657
      ],
      [
        "Ġ38",
        -10.49017373229278
      ],
      [
        "Ġguarda",
        -10.490297691569662
      ],
      [
        "Ġtiver",
        -10.490310070608835
      ],
      [
        "ira",
        -10.490415225801495
      ],
      [
        "Registro",
        -10.490671473477466
      ],
      [
        "ĠGlobo",
        -10.49097913720794
      ],
      [
        "obrigaÃ§Ã£o",
        -10.491475492176564
      ],
      [
        "Recurso",
        -10.49159410635544
      ],
      [
        "Ġcumprir",
        -10.49167671274979
      ],
      [
        "ico",
        -10.49174011953832
      ],
      [
        "ĠUnido",
        -10.491773058535385
      ],
      [
        "Ġdemonstra",
        -10.493025488394917
      ],
      [
        "Ġatras",
        -10.493527138367616
      ],
      [
        "Ġvoz",
        -10.493656410915436
      ],
      [
        "ĠFaria",
        -10.493751150747324
      ],
      [
        "responsÃ¡veis",
        -10.493849319421663
      ],
      [
        "drogas",
        -10.49425790245676
      ],
      [
        "Geografia",
        -10.494284425136064
      ],
      [
        "agente",
        -10.494687505462018
      ],
      [
        "Ġpaga",
        -10.495403031566546
      ],
      [
        "fl",
        -10.495463380481649
      ],
      [
        "Ġresolver",
        -10.495673456727308
      ],
      [
        "ĠirmÃ£",
        -10.496712565453194
      ],
      [
        "ĠveÃŃculo",
        -10.498052278112745
      ],
      [
        "InocÃªnci",
        -10.49838310436317
      ],
      [
        "Ġouro",
        -10.498968648339432
      ],
      [
        "embargo",
        -10.499012577411108
      ],
      [
        "Ġplanos",
        -10.499026454515068
      ],
      [
        "liÃ¡s",
        -10.499210932316489
      ],
      [
        "ĠSal",
        -10.499379607468764
      ],
      [
        "tornando",
        -10.499390520818956
      ],
      [
        "manifestaÃ§Ã£o",
        -10.500161164820872
      ],
      [
        "inconstitucional",
        -10.500310425127475
      ],
      [
        "estÃºdio",
        -10.500948814555468
      ],
      [
        "ĠdÃ³lares",
        -10.500953350835031
      ],
      [
        "perante",
        -10.501881278241582
      ],
      [
        "Ġconstruir",
        -10.501893976020908
      ],
      [
        "\"),",
        -10.502294622462143
      ],
      [
        "Ġagricultura",
        -10.502421566012735
      ],
      [
        "Ġexercer",
        -10.50298979983059
      ],
      [
        "Ã¡rio",
        -10.503028118204549
      ],
      [
        "ĠJunior",
        -10.503187390985737
      ],
      [
        "Ġparticipa",
        -10.503371468549728
      ],
      [
        "ĠTal",
        -10.503911105617568
      ],
      [
        "Atualmente",
        -10.503946520775528
      ],
      [
        "Ġ1980",
        -10.50485049294006
      ],
      [
        "Ġaberta",
        -10.504885132651896
      ],
      [
        "ĠAM",
        -10.505162277661116
      ],
      [
        "ĠMu",
        -10.505561889211856
      ],
      [
        "ĠLi",
        -10.506095103294806
      ],
      [
        "ley",
        -10.506187563732835
      ],
      [
        "classificaÃ§Ã£o",
        -10.506352458017322
      ],
      [
        "ĠArgentina",
        -10.507494653366477
      ],
      [
        "Ġverdadeira",
        -10.508390018399204
      ],
      [
        "ĠCastro",
        -10.50858793559222
      ],
      [
        "lhes",
        -10.508706227352736
      ],
      [
        "advogado",
        -10.50887580938103
      ],
      [
        "presentes",
        -10.50933009619242
      ],
      [
        "112",
        -10.510283653110616
      ],
      [
        "ati",
        -10.510296605700251
      ],
      [
        "fls",
        -10.510361778416192
      ],
      [
        "bÃ¡sico",
        -10.510994645209482
      ],
      [
        "ĠBorges",
        -10.511191985019089
      ],
      [
        "ĠpadrÃ£o",
        -10.511430308536042
      ],
      [
        "Gilmar",
        -10.511646017619814
      ],
      [
        "ĠNovo",
        -10.511961350086018
      ],
      [
        "ĠNota",
        -10.512268627861689
      ],
      [
        "frequÃªncia",
        -10.51247854460962
      ],
      [
        "Ġdeterminado",
        -10.512580005801324
      ],
      [
        "Ġacredito",
        -10.512921361890305
      ],
      [
        "aquisiÃ§Ã£o",
        -10.51292326453304
      ],
      [
        "eiro",
        -10.513688738309796
      ],
      [
        "Ġvolume",
        -10.513897957610768
      ],
      [
        "ĠVII",
        -10.514429868855409
      ],
      [
        "ĠSuper",
        -10.51459646282708
      ],
      [
        "ĠaniversÃ¡rio",
        -10.514664569584992
      ],
      [
        "tÃ¡",
        -10.515336033077364
      ],
      [
        "ĠRoma",
        -10.51533872461876
      ],
      [
        "Faculdade",
        -10.516271929445322
      ],
      [
        "Cavalcanti",
        -10.516564812968149
      ],
      [
        "emissora",
        -10.516837915084434
      ],
      [
        "ĠBar",
        -10.516899435735972
      ],
      [
        "Ġdeixe",
        -10.517355682197898
      ],
      [
        "vida",
        -10.51820237857095
      ],
      [
        "vejo",
        -10.518586356183452
      ],
      [
        "ff",
        -10.519642693783563
      ],
      [
        "Alguns",
        -10.519926914883849
      ],
      [
        "ĠPp",
        -10.520251105186777
      ],
      [
        "senhores",
        -10.52051136605122
      ],
      [
        "oradores",
        -10.520766315437823
      ],
      [
        "ĠEstatut",
        -10.521508282024676
      ],
      [
        "ĠSujeit",
        -10.521586758397316
      ],
      [
        "..........",
        -10.522209131149392
      ],
      [
        "Ġminhas",
        -10.52249039138096
      ],
      [
        "ĠespecÃŃfica",
        -10.52250202165431
      ],
      [
        "materiais",
        -10.52363291159905
      ],
      [
        "tiva",
        -10.523827069077988
      ],
      [
        "estaduais",
        -10.524851788569652
      ],
      [
        "Ġdefender",
        -10.524900691885524
      ],
      [
        "CapitÃ£o",
        -10.524949492380994
      ],
      [
        "Ġpolicial",
        -10.5257886509081
      ],
      [
        "Calheiro",
        -10.525863181013754
      ],
      [
        "verdadeiro",
        -10.526031731839716
      ],
      [
        "gravante",
        -10.526132202639229
      ],
      [
        "setores",
        -10.52650996733369
      ],
      [
        "Ġjuntos",
        -10.526631098025543
      ],
      [
        "Ġ55",
        -10.52734463517266
      ],
      [
        "Ġanual",
        -10.52745272031968
      ],
      [
        "Ġservi",
        -10.52752618660594
      ],
      [
        "ituaÃ§Ãµes",
        -10.527658236487996
      ],
      [
        "Ġexclusivament",
        -10.528016206706315
      ],
      [
        "Ġcorrespondente",
        -10.528454617430953
      ],
      [
        "TVR",
        -10.52861872679988
      ],
      [
        "Ġmorrer",
        -10.52872707400932
      ],
      [
        "ĠDavid",
        -10.528735914863558
      ],
      [
        "Ġsenador",
        -10.528899897910463
      ],
      [
        "Ġmassa",
        -10.528923482566102
      ],
      [
        "fica",
        -10.530086447716544
      ],
      [
        "SEÃĩÃĥO",
        -10.53061684488772
      ],
      [
        "GO",
        -10.531313231538226
      ],
      [
        "ExcelentÃŃssimo",
        -10.531356116973477
      ],
      [
        "ten",
        -10.531538048714166
      ],
      [
        "Ġlembrar",
        -10.532524451206958
      ],
      [
        "feminino",
        -10.532818048813136
      ],
      [
        "iria",
        -10.532870599436956
      ],
      [
        "divulgaÃ§Ã£o",
        -10.533393634440529
      ],
      [
        "Ġintegrar",
        -10.533859266160702
      ],
      [
        "org",
        -10.53392607115423
      ],
      [
        "errado",
        -10.534050904127906
      ],
      [
        "Ġpodia",
        -10.534398247909287
      ],
      [
        "Ġescolar",
        -10.534917747041474
      ],
      [
        "Ġ1989",
        -10.535085574450704
      ],
      [
        "ĠPaes",
        -10.53552123539599
      ],
      [
        "Energia",
        -10.535655480067614
      ],
      [
        "recuperaÃ§Ã£o",
        -10.535990290359232
      ],
      [
        "Ġcriou",
        -10.536128629114986
      ],
      [
        "Ġerro",
        -10.536139387066768
      ],
      [
        "cenÃ¡rio",
        -10.53643178483098
      ],
      [
        "recedente",
        -10.536476106519467
      ],
      [
        "Ġcomportamento",
        -10.536803105605085
      ],
      [
        "ĠDes",
        -10.53688237959637
      ],
      [
        "nquÃ©rito",
        -10.537580865424356
      ],
      [
        "Ġveja",
        -10.53808894127075
      ],
      [
        "Ġreclama",
        -10.539183758882738
      ],
      [
        "Ġcompleto",
        -10.54048837229618
      ],
      [
        "Ġilha",
        -10.54067989705348
      ],
      [
        "ImpÃ©rio",
        -10.541009090016187
      ],
      [
        "ras",
        -10.542425791490372
      ],
      [
        "devidamente",
        -10.542460522209586
      ],
      [
        "nÃºmeros",
        -10.542958761317864
      ],
      [
        "PorÃ©m",
        -10.54374367991166
      ],
      [
        "Ġindividual",
        -10.544904381483237
      ],
      [
        "fer",
        -10.54531665395434
      ],
      [
        "ĠrepresentaÃ§Ã£o",
        -10.545788798508566
      ],
      [
        "necessÃ¡rias",
        -10.546346393959006
      ],
      [
        "ĠsÃ©rio",
        -10.546389959481113
      ],
      [
        "ĠInglaterra",
        -10.546491068846407
      ],
      [
        "Ġ01",
        -10.547201176255031
      ],
      [
        "Ġjogar",
        -10.547491767728962
      ],
      [
        "oeste",
        -10.548415597638495
      ],
      [
        "ĠCan",
        -10.54850791268264
      ],
      [
        "Arnaldo",
        -10.548616732705582
      ],
      [
        "Ġconhecer",
        -10.549225472874884
      ],
      [
        "Ġrecente",
        -10.54948216433054
      ],
      [
        "ĠterÃ§a",
        -10.550780941343064
      ],
      [
        "Ġaparte",
        -10.55090548061148
      ],
      [
        "ĠTom",
        -10.552599819408146
      ],
      [
        "ĠLiga",
        -10.552719596279182
      ],
      [
        "sujeito",
        -10.552788493729407
      ],
      [
        "tradiÃ§Ã£o",
        -10.553771761909246
      ],
      [
        "incidÃªncia",
        -10.554250139696348
      ],
      [
        "Ġmorto",
        -10.555267166886663
      ],
      [
        "Ġdever",
        -10.55573036212592
      ],
      [
        "Ġcaixa",
        -10.555855122612886
      ],
      [
        "Ġdireto",
        -10.55592773853069
      ],
      [
        "PÃļBLICA",
        -10.55621000659156
      ],
      [
        "pudesse",
        -10.55623646706922
      ],
      [
        "ĠGeorge",
        -10.557290668764162
      ],
      [
        "ĠRei",
        -10.557395755976897
      ],
      [
        "incentivo",
        -10.558032955224537
      ],
      [
        "ĠExiste",
        -10.558143880508664
      ],
      [
        "Ã¡rios",
        -10.55818103685829
      ],
      [
        "efetivo",
        -10.558243658457704
      ],
      [
        "ComÃ©rcio",
        -10.558271820529658
      ],
      [
        "representantes",
        -10.558454389684742
      ],
      [
        "Ġobter",
        -10.558648019740058
      ],
      [
        "ĠRO",
        -10.558698345856689
      ],
      [
        "land",
        -10.559260002676991
      ],
      [
        "Ġcompetente",
        -10.55929860646276
      ],
      [
        "Ġpronto",
        -10.559497658414225
      ],
      [
        "Ġimplica",
        -10.559710956698208
      ],
      [
        "ĠgÃ¡s",
        -10.55983018270395
      ],
      [
        "Ġacontecendo",
        -10.559993196572762
      ],
      [
        "Ġparlamentar",
        -10.560369197704132
      ],
      [
        "ĠLondres",
        -10.56043284930095
      ],
      [
        "ĠManuel",
        -10.560659350915422
      ],
      [
        "Ġadequada",
        -10.56116380781798
      ],
      [
        "Ġ52",
        -10.561173374356809
      ],
      [
        "trÃ¡s",
        -10.561283778654492
      ],
      [
        "Ġ43",
        -10.561512542002747
      ],
      [
        "Ġreduzir",
        -10.561540553913158
      ],
      [
        "candidatos",
        -10.56206351666556
      ],
      [
        "ali",
        -10.56211829477228
      ],
      [
        "26",
        -10.562547334929004
      ],
      [
        "Assembleia",
        -10.562608128507314
      ],
      [
        "ĠQuadro",
        -10.562642329921896
      ],
      [
        "ĠBi",
        -10.563386386197068
      ],
      [
        "Ġreconhece",
        -10.563559573433077
      ],
      [
        "ĠSubstantiv",
        -10.56422742740063
      ],
      [
        "ĠPaul",
        -10.564263749110712
      ],
      [
        "Ġindica",
        -10.564367739171384
      ],
      [
        "ĠIN",
        -10.564793204973506
      ],
      [
        "Ġdigital",
        -10.56486623502152
      ],
      [
        "ĠPer",
        -10.565106787430294
      ],
      [
        "usuÃ¡rios",
        -10.56537620005307
      ],
      [
        "Freitas",
        -10.565661654754622
      ],
      [
        "Ġcomprar",
        -10.565874616374725
      ],
      [
        "urbana",
        -10.566703587311032
      ],
      [
        "disposiÃ§Ã£o",
        -10.567184854035547
      ],
      [
        "Ġclara",
        -10.567466751131716
      ],
      [
        "Ġcarta",
        -10.567868363035265
      ],
      [
        "famÃŃlias",
        -10.56812922011146
      ],
      [
        "ĠexposiÃ§Ã£o",
        -10.568235527396842
      ],
      [
        "escrita",
        -10.568913797913204
      ],
      [
        "Ġ62",
        -10.569107428902536
      ],
      [
        "artista",
        -10.569517060946016
      ],
      [
        "Ġ64",
        -10.570061848193928
      ],
      [
        "CCJ",
        -10.570642612358574
      ],
      [
        "Ġ2021",
        -10.57111764246896
      ],
      [
        "ĠPessoa",
        -10.57189756275755
      ],
      [
        "Ĥ",
        -10.572072597797474
      ],
      [
        "tur",
        -10.572358949775824
      ],
      [
        "Ġnot",
        -10.57238691878412
      ],
      [
        "cobranÃ§a",
        -10.572639951810356
      ],
      [
        "Ġexpectativa",
        -10.573497767392206
      ],
      [
        "ĠPesquisa",
        -10.573706898581609
      ],
      [
        "Biografia",
        -10.57399847349908
      ],
      [
        "ĠNem",
        -10.574519422266208
      ],
      [
        "Ġescritor",
        -10.574706611706551
      ],
      [
        "Ġdito",
        -10.574725579580202
      ],
      [
        "especiais",
        -10.575182007793478
      ],
      [
        "Ġconjunta",
        -10.575233914102318
      ],
      [
        "Ġanteriormente",
        -10.575534452039168
      ],
      [
        "ense",
        -10.575753835231676
      ],
      [
        "Ġcantor",
        -10.57599482455978
      ],
      [
        "orÃ§amento",
        -10.57626274263414
      ],
      [
        "ite",
        -10.576961170624378
      ],
      [
        "recorrente",
        -10.577282020654998
      ],
      [
        "ĠEDU",
        -10.577605238815725
      ],
      [
        "Ġsorte",
        -10.577637881774008
      ],
      [
        "ĠDeve",
        -10.577821244167714
      ],
      [
        "ĠAPRECIA",
        -10.578039255006615
      ],
      [
        "NA",
        -10.578095426384872
      ],
      [
        "Ġgarota",
        -10.578140397635355
      ],
      [
        "motivos",
        -10.579141993262834
      ],
      [
        "Ġviver",
        -10.579502173160808
      ],
      [
        "Ġresto",
        -10.579602465442743
      ],
      [
        "Ġaparece",
        -10.579762417637967
      ],
      [
        "ĠcontribuiÃ§Ãµes",
        -10.580428912051328
      ],
      [
        "SC",
        -10.581042901371845
      ],
      [
        "atribuiÃ§Ãµes",
        -10.581127086139682
      ],
      [
        "ĠAn",
        -10.581129454780712
      ],
      [
        "edifÃŃcio",
        -10.581180087860014
      ],
      [
        "Ġ39",
        -10.581880865854874
      ],
      [
        "Ġcorrente",
        -10.581974309169109
      ],
      [
        "Ġvencedor",
        -10.582001888661416
      ],
      [
        "ComissÃ£o",
        -10.582333172920286
      ],
      [
        "Ġsinal",
        -10.582780445995391
      ],
      [
        "terras",
        -10.583212524762343
      ],
      [
        "Sociedade",
        -10.583240790858044
      ],
      [
        "OrganizaÃ§Ã£o",
        -10.58347126966052
      ],
      [
        "taÃ§Ã£o",
        -10.583857098526844
      ],
      [
        "ficando",
        -10.58460246385923
      ],
      [
        "ĠPois",
        -10.58467334187818
      ],
      [
        "segmento",
        -10.58503242289761
      ],
      [
        "promoÃ§Ã£o",
        -10.585383076128778
      ],
      [
        "27",
        -10.586018343259065
      ],
      [
        "colocado",
        -10.586747686552506
      ],
      [
        "ilustre",
        -10.587003693572887
      ],
      [
        "destinados",
        -10.587265897855474
      ],
      [
        "ĠSO",
        -10.587990479478686
      ],
      [
        "Ġparcela",
        -10.588070736518738
      ],
      [
        "MDB",
        -10.58844523103278
      ],
      [
        "Ġextremament",
        -10.589015201052703
      ],
      [
        "IndÃºstria",
        -10.589317234779376
      ],
      [
        "interesses",
        -10.590154575350278
      ],
      [
        "ĠseleÃ§Ã£o",
        -10.590954555411544
      ],
      [
        "ĠalemÃ£o",
        -10.590993180116516
      ],
      [
        "Ġobrigada",
        -10.591047170766092
      ],
      [
        "Bolsonaro",
        -10.591368093392228
      ],
      [
        "Ġsexo",
        -10.591425116516795
      ],
      [
        "ĠOutro",
        -10.591779988037034
      ],
      [
        "ComunicaÃ§Ãµes",
        -10.59221494222018
      ],
      [
        "Edson",
        -10.592900564486628
      ],
      [
        "Ġtriste",
        -10.59349897680858
      ],
      [
        "masculino",
        -10.594189260197098
      ],
      [
        "Ġconversa",
        -10.594543726279374
      ],
      [
        "ÃĬNCIA",
        -10.594697155744257
      ],
      [
        "Ronaldo",
        -10.595228268587787
      ],
      [
        "rios",
        -10.59571912406026
      ],
      [
        "redor",
        -10.5957341267749
      ],
      [
        "ocorrido",
        -10.59613048161108
      ],
      [
        "SEGUND",
        -10.596753364793429
      ],
      [
        "cor",
        -10.596914089954115
      ],
      [
        "rurais",
        -10.597708016240531
      ],
      [
        "passagem",
        -10.598285732306898
      ],
      [
        "ĠMinori",
        -10.598463969470483
      ],
      [
        "Ġbuscar",
        -10.598487686137208
      ],
      [
        "Carlos",
        -10.598528568673505
      ],
      [
        "ĠCarta",
        -10.59959730195907
      ],
      [
        "ĠRi",
        -10.599809106915304
      ],
      [
        "Ġcenso",
        -10.5999818435769
      ],
      [
        "Bezerra",
        -10.600775098689136
      ],
      [
        "RogÃ©ri",
        -10.601185848502473
      ],
      [
        "Ġdestino",
        -10.60132619885932
      ],
      [
        "ĠalemÃ£",
        -10.60149933412074
      ],
      [
        "ral",
        -10.601611575377833
      ],
      [
        "Viana",
        -10.60163843752558
      ],
      [
        "ĠTrans",
        -10.6018272388472
      ],
      [
        "ĠMelo",
        -10.602486027352889
      ],
      [
        "Ġ36",
        -10.603198186643535
      ],
      [
        "declaro",
        -10.6032972671391
      ],
      [
        "inscrito",
        -10.60379729121634
      ],
      [
        "mÃŃdia",
        -10.604648086463502
      ],
      [
        "ĠGRANDE",
        -10.604798900970977
      ],
      [
        "ĠSalvador",
        -10.60481734046169
      ],
      [
        "Ġnega",
        -10.605209770434776
      ],
      [
        "Ġ34",
        -10.605250198270518
      ],
      [
        "Ġqueda",
        -10.605349032950532
      ],
      [
        "ĠSILVA",
        -10.605736150423532
      ],
      [
        "SENADO",
        -10.60595890427374
      ],
      [
        "Pinheiro",
        -10.60663489435026
      ],
      [
        "isto",
        -10.607041486501425
      ],
      [
        "tido",
        -10.608175699435735
      ],
      [
        "provavelmente",
        -10.608282081731929
      ],
      [
        "ula",
        -10.609492535172206
      ],
      [
        "nha",
        -10.610999303645698
      ],
      [
        "Ġargumento",
        -10.611305141259308
      ],
      [
        "pÃµe",
        -10.611364063808516
      ],
      [
        "AraÃºjo",
        -10.611571287897132
      ],
      [
        "domingo",
        -10.61172801130068
      ],
      [
        "Ġ53",
        -10.611973033563444
      ],
      [
        "ĠAcre",
        -10.612010687260002
      ],
      [
        "acusado",
        -10.612062661106714
      ],
      [
        "ÃŃamos",
        -10.61221537755391
      ],
      [
        "1999",
        -10.612347056193563
      ],
      [
        "evoluÃ§Ã£o",
        -10.61247914412123
      ],
      [
        "Ġregular",
        -10.612609593661553
      ],
      [
        "Ġdesejo",
        -10.613162933168784
      ],
      [
        "udou",
        -10.613237241744056
      ],
      [
        "Ġsegue",
        -10.61332683873418
      ],
      [
        "Ġtradicional",
        -10.613487114136069
      ],
      [
        "EMENTA",
        -10.613758701859634
      ],
      [
        "Ġculpa",
        -10.614059438963606
      ],
      [
        "proferid",
        -10.614263958672334
      ],
      [
        "lanÃ§ou",
        -10.614314042718236
      ],
      [
        "ĠAP",
        -10.61445451625332
      ],
      [
        "aplicada",
        -10.614519420868604
      ],
      [
        "ffoli",
        -10.614689266638331
      ],
      [
        "Ġtrabalha",
        -10.615182718247173
      ],
      [
        "Ġpratica",
        -10.615873147722285
      ],
      [
        "auxÃŃlio",
        -10.61639806992617
      ],
      [
        "passageiro",
        -10.616501243134527
      ],
      [
        "TA",
        -10.616894119397545
      ],
      [
        "ĠInternet",
        -10.61713746910216
      ],
      [
        "fazia",
        -10.61779321953328
      ],
      [
        "Ġtelefone",
        -10.617926034213598
      ],
      [
        "lin",
        -10.61803233485635
      ],
      [
        "ĠAC",
        -10.618213158218794
      ],
      [
        "ĠPaulista",
        -10.618690635018178
      ],
      [
        "ĠIX",
        -10.618838415981276
      ],
      [
        "aeroporto",
        -10.6197234231059
      ],
      [
        "Ġvive",
        -10.619826842960626
      ],
      [
        "este",
        -10.620196435440176
      ],
      [
        "Ġhouver",
        -10.62038718541998
      ],
      [
        "ĠSantana",
        -10.620869846316369
      ],
      [
        "pertencente",
        -10.621182034946596
      ],
      [
        "ĠRECEBI",
        -10.621734121116356
      ],
      [
        "Ġ(...)",
        -10.622054214064026
      ],
      [
        "procedimentos",
        -10.622280019337804
      ],
      [
        "estabelecido",
        -10.622494000838731
      ],
      [
        "ISBN",
        -10.623443175415002
      ],
      [
        "juÃŃzo",
        -10.62355562382859
      ],
      [
        "Ġsujeita",
        -10.624194179329931
      ],
      [
        "rica",
        -10.624593229861498
      ],
      [
        "administrativo",
        -10.625204733425514
      ],
      [
        "XIX",
        -10.625210588434038
      ],
      [
        "propÃ³sito",
        -10.625306380616545
      ],
      [
        "ĠInter",
        -10.62552778913537
      ],
      [
        "bÃ¡sica",
        -10.62564912924126
      ],
      [
        "equivalente",
        -10.625814637169052
      ],
      [
        "ĠATA",
        -10.626040274945227
      ],
      [
        "usada",
        -10.626934721379955
      ],
      [
        "Ġtabela",
        -10.627037906338517
      ],
      [
        "JÃºlio",
        -10.62796867612748
      ],
      [
        "Ġenfrentar",
        -10.62818233918492
      ],
      [
        "Ġassegurar",
        -10.628192056903034
      ],
      [
        "Ġdeterminar",
        -10.628217734918673
      ],
      [
        "relevÃ¢ncia",
        -10.629126073372928
      ],
      [
        "Ġinforma",
        -10.62966152387368
      ],
      [
        "ĠMÃ©xico",
        -10.629750393043116
      ],
      [
        "Ġcresce",
        -10.62981331324406
      ],
      [
        "cidadÃ£os",
        -10.63019165891761
      ],
      [
        "tÃ³rio",
        -10.630483567182736
      ],
      [
        "ruas",
        -10.631066986356313
      ],
      [
        "milhÃ£o",
        -10.631309450483636
      ],
      [
        "nÃ¡cio",
        -10.63130967402704
      ],
      [
        "personagens",
        -10.631347098582308
      ],
      [
        "Ġpeso",
        -10.63148431887966
      ],
      [
        "alimentos",
        -10.632018646258874
      ],
      [
        "especialista",
        -10.632307511099109
      ],
      [
        "FILH",
        -10.63236534935456
      ],
      [
        "menores",
        -10.63265869717168
      ],
      [
        "salvo",
        -10.634225766731763
      ],
      [
        "quilÃ´metros",
        -10.635978138274528
      ],
      [
        "Ġmedalha",
        -10.636513636397016
      ],
      [
        "ĠPar",
        -10.636665522711024
      ],
      [
        "Ġvaga",
        -10.63681985890484
      ],
      [
        "finais",
        -10.637861961024791
      ],
      [
        "naturais",
        -10.637944059979692
      ],
      [
        "ĠSi",
        -10.638310636431612
      ],
      [
        "Ġ42",
        -10.638534289333998
      ],
      [
        "esquerda",
        -10.63873464265491
      ],
      [
        "milhare",
        -10.64001026196896
      ],
      [
        "ĠParque",
        -10.640089453657174
      ],
      [
        "suspensÃ£",
        -10.640129886397997
      ],
      [
        "ĠLu",
        -10.640495843762151
      ],
      [
        "ĠOra",
        -10.64055622730116
      ],
      [
        "gente",
        -10.641447344525629
      ],
      [
        "domÃŃnio",
        -10.641463882769497
      ],
      [
        "ĠNe",
        -10.642174751474084
      ],
      [
        "ĠNatal",
        -10.642441453280249
      ],
      [
        "ĠFelipe",
        -10.6424969441394
      ],
      [
        "gastos",
        -10.642666805258203
      ],
      [
        "tinha",
        -10.642691236087352
      ],
      [
        "Ġcomposta",
        -10.643159698380549
      ],
      [
        "Ġlance",
        -10.643562284973918
      ],
      [
        "Ġcorte",
        -10.64357846228416
      ],
      [
        "tados",
        -10.643749678836476
      ],
      [
        "Ġfinalmente",
        -10.644149261015729
      ],
      [
        "Ã´",
        -10.6453235182236
      ],
      [
        "Ġaposentado",
        -10.6454523437158
      ],
      [
        "Ġ1970",
        -10.646036108705063
      ],
      [
        "lugares",
        -10.646054735685585
      ],
      [
        "Ġredes",
        -10.64618387732715
      ],
      [
        "Ġcadeira",
        -10.64653339440965
      ],
      [
        "ĠconsideraÃ§Ã£o",
        -10.64700171758106
      ],
      [
        "recorrid",
        -10.647014918390989
      ],
      [
        "dando",
        -10.6472318261768
      ],
      [
        "Ġimpetra",
        -10.647301692925744
      ],
      [
        "eira",
        -10.647400453744195
      ],
      [
        "Nesta",
        -10.647470604428705
      ],
      [
        "Ġ41",
        -10.64776959419583
      ],
      [
        "dentre",
        -10.64794626592796
      ],
      [
        "Ġnormal",
        -10.648661116700197
      ],
      [
        "Ġacredita",
        -10.649174955336488
      ],
      [
        "ĠPan",
        -10.649407804902166
      ],
      [
        "Ã£",
        -10.649596317590218
      ],
      [
        "ant",
        -10.649718141428297
      ],
      [
        "tais",
        -10.650042429795748
      ],
      [
        "Ġglobal",
        -10.65008762165084
      ],
      [
        "passada",
        -10.65065573800077
      ],
      [
        "Ġdupla",
        -10.651161972000857
      ],
      [
        "Ġtese",
        -10.651171685348706
      ],
      [
        "ĠFM",
        -10.651302621582872
      ],
      [
        "ĠprevisÃ£o",
        -10.652162597739247
      ],
      [
        "ĠDiant",
        -10.65217805138377
      ],
      [
        "demais",
        -10.652622023401769
      ],
      [
        "ĠSC",
        -10.652659583988898
      ],
      [
        "Ġcampeonato",
        -10.65290259025207
      ],
      [
        "the",
        -10.65405286458245
      ],
      [
        "Ġitaliano",
        -10.654220915698964
      ],
      [
        "Ġconsigo",
        -10.654989190477664
      ],
      [
        "revÃª",
        -10.655048796948616
      ],
      [
        "Ġexige",
        -10.655451834641225
      ],
      [
[...]
