{
  "version": "1.0",
  "truncation": {
    "direction": "Right",
    "max_length": 1024,
    "strategy": "LongestFirst",
    "stride": 0
  },
  "padding": null,
  "added_tokens": [
    {
      "id": 0,
      "content": "[PAD]",
      "single_word": false,
      "lstrip": false,
      "rstrip": false,
      "normalized": false,
      "special": true
    },
    {
      "id": 1,
      "content": "[SEP]",
      "single_word": false,
      "lstrip": false,
      "rstrip": false,
      "normalized": false,
      "special": true
    },
    {
      "id": 2,
      "content": "[EOS]",
      "single_word": false,
      "lstrip": false,
      "rstrip": false,
      "normalized": false,
      "special": true
    },
    {
      "id": 3,
      "content": "[UNK]",
      "single_word": false,
      "lstrip": false,
      "rstrip": false,
      "normalized": false,
      "special": true
    }
  ],
  "normalizer": {
    "type": "Sequence",
    "normalizers": [
      {
        "type": "Strip",
        "strip_left": true,
        "strip_right": true
      },
      {
        "type": "NFC"
      }
    ]
  },
  "pre_tokenizer": {
    "type": "ByteLevel",
    "add_prefix_space": true,
    "trim_offsets": true,
    "use_regex": true
  },
  "post_processor": {
    "type": "Sequence",
    "processors": [
      {
        "type": "ByteLevel",
        "add_prefix_space": true,
        "trim_offsets": true,
        "use_regex": true
      },
      {
        "type": "TemplateProcessing",
        "single": [
          {
            "Sequence": {
              "id": "A",
              "type_id": 0
            }
          },
          {
            "SpecialToken": {
              "id": "[EOS]",
              "type_id": 0
            }
          }
        ],
        "pair": [
          {
            "Sequence": {
              "id": "A",
              "type_id": 0
            }
          },
          {
            "SpecialToken": {
              "id": "[SEP]",
              "type_id": 0
            }
          },
          {
            "Sequence": {
              "id": "B",
              "type_id": 0
            }
          },
          {
            "SpecialToken": {
              "id": "[EOS]",
              "type_id": 0
            }
          }
        ],
        "special_tokens": {
          "[EOS]": {
            "id": "[EOS]",
            "ids": [
              2
            ],
            "tokens": [
              "[EOS]"
            ]
          },
          "[SEP]": {
            "id": "[SEP]",
            "ids": [
              1
            ],
            "tokens": [
              "[SEP]"
            ]
          }
        }
      }
    ]
  },
  "decoder": {
    "type": "ByteLevel",
    "add_prefix_space": true,
    "trim_offsets": true,
    "use_regex": true
  },
  "model": {
    "type": "Unigram",
    "unk_id": 3,
    "vocab": [
      [
        "[PAD]",
        0.0
      ],
      [
        "[SEP]",
        0.0
      ],
      [
        "[EOS]",
        0.0
      ],
      [
        "[UNK]",
        0.0
      ],
      [
        "Ġ",
        -1.852311714111366
      ],
      [
        "s",
        -3.2492363626539387
      ],
      [
        "a",
        -3.296482529838066
      ],
      [
        ",",
        -3.3151986481995266
      ],
      [
        "o",
        -3.3986926731970613
      ],
      [
        "e",
        -3.505560845389134
      ],
      [
        ".",
        -3.536344229770055
      ],
      [
        "Ġde",
        -3.663436051611448
      ],
      [
        "r",
        -4.560097280480907
      ],
      [
        "-",
        -4.610273092800387
      ],
      [
        "u",
        -4.610953357122259
      ],
      [
        "i",
        -4.62685554030703
      ],
      [
        "Ġdo",
        -4.63138823981425
      ],
      [
        "Ġque",
        -4.647663062709075
      ],
      [
        "Ġda",
        -4.816028443113563
      ],
      [
        "m",
        -4.850593195727033
      ],
      [
        "n",
        -4.911969918286797
      ],
      [
        "d",
        -5.101666448130121
      ],
      [
        "l",
        -5.17130228865938
      ],
      [
        "t",
        -5.183484552235747
      ],
      [
        "Ġem",
        -5.219976916220869
      ],
      [
        "A",
        -5.272821523757084
      ],
      [
        "\"",
        -5.284014525307327
      ],
      [
        "c",
        -5.294519921186367
      ],
      [
        ")",
        -5.339737690446011
      ],
      [
        "(",
        -5.339858694341828
      ],
      [
        "O",
        -5.361811320585954
      ],
      [
        "Ġpara",
        -5.454486865672919
      ],
      [
        "Ġcom",
        -5.567787949017244
      ],
      [
        "p",
        -5.615145328311545
      ],
      [
        "Ġno",
        -5.624748793916467
      ],
      [
        ":",
        -5.7766168490791525
      ],
      [
        "Ġum",
        -5.816503303927739
      ],
      [
        "ĠâĢĵ",
        -5.819129208943192
      ],
      [
        "/",
        -5.820511304901466
      ],
      [
        "ĠÃ©",
        -5.830499305685104
      ],
      [
        "Ġna",
        -5.838510922718481
      ],
      [
        "ĠnÃ£o",
        -5.910037806333156
      ],
      [
        "S",
        -5.930555258260531
      ],
      [
        "g",
        -5.973647271841395
      ],
      [
        "Ġuma",
        -6.023830726623039
      ],
      [
        "E",
        -6.045750565814872
      ],
      [
        "b",
        -6.0535692129090535
      ],
      [
        "Ġpor",
        -6.05856100162538
      ],
      [
        "1",
        -6.264113032223046
      ],
      [
        "v",
        -6.32169531351342
      ],
      [
        "I",
        -6.373984775088703
      ],
      [
        "f",
        -6.378867384202049
      ],
      [
        "Ġdos",
        -6.392731713150541
      ],
      [
        "P",
        -6.402474137283397
      ],
      [
        "Ã§Ã£o",
        -6.408812239075674
      ],
      [
        "R",
        -6.411348352340328
      ],
      [
        "ĠÃł",
        -6.419812778083909
      ],
      [
        "C",
        -6.4212916447877255
      ],
      [
        "?",
        -6.422332833070858
      ],
      [
        "Ġcomo",
        -6.439006786606704
      ],
      [
        "3",
        -6.454120472784359
      ],
      [
        "2",
        -6.457083103390531
      ],
      [
        "h",
        -6.490521278711391
      ],
      [
        "6",
        -6.51223753343584
      ],
      [
        "7",
        -6.514009773705576
      ],
      [
        "4",
        -6.526819635588851
      ],
      [
        "ndo",
        -6.532599804312076
      ],
      [
        "5",
        -6.544330894267883
      ],
      [
        "Ġfoi",
        -6.568100420731325
      ],
      [
        "!",
        -6.628503751581357
      ],
      [
        "Ġmais",
        -6.636221484142897
      ],
      [
        "8",
        -6.666710725962158
      ],
      [
        "de",
        -6.682824329558885
      ],
      [
        "y",
        -6.730673331659549
      ],
      [
        "T",
        -6.756732837965107
      ],
      [
        ";",
        -6.76463917456017
      ],
      [
        "Ġpela",
        -6.783001697256445
      ],
      [
        "ĠDE",
        -6.798798284992863
      ],
      [
        "ĠnÂº",
        -6.806410002256952
      ],
      [
        "M",
        -6.835903149220037
      ],
      [
        "z",
        -6.844988531031333
      ],
      [
        "Ġpelo",
        -6.851651829952619
      ],
      [
        "9",
        -6.869001343354293
      ],
      [
        "Ġsua",
        -6.869753512612247
      ],
      [
        "D",
        -6.90387299405576
      ],
      [
        "L",
        -6.911070058171486
      ],
      [
        "V",
        -6.92173876223155
      ],
      [
        "Ġser",
        -6.942448757527385
      ],
      [
        "ĠSr",
        -6.945640877835125
      ],
      [
        "Âº",
        -6.951292485220275
      ],
      [
        "................",
        -6.975829827899473
      ],
      [
        "Ġdas",
        -6.988664637776653
      ],
      [
        "in",
        -6.998213746923019
      ],
      [
        "Ġsobre",
        -7.018644804672677
      ],
      [
        "...",
        -7.043389002268018
      ],
      [
        "Ã©",
        -7.050264419312862
      ],
      [
        "N",
        -7.071042714670314
      ],
      [
        "Ã¡",
        -7.07943733998618
      ],
      [
        "Ġseu",
        -7.101969377001538
      ],
      [
        "B",
        -7.103407428091195
      ],
      [
        "Ã£o",
        -7.1127071268586555
      ],
      [
        "ĠâĢľ",
        -7.119187750811836
      ],
      [
        "k",
        -7.120418011146706
      ],
      [
        "F",
        -7.120658343110735
      ],
      [
        "mente",
        -7.136189563472286
      ],
      [
        "mos",
        -7.156154379484358
      ],
      [
        "dos",
        -7.168501753606709
      ],
      [
        "ĠestÃ¡",
        -7.174252304509023
      ],
      [
        "U",
        -7.176324782429294
      ],
      [
        "ĠPresidente",
        -7.178785734074772
      ],
      [
        "ĠNÃ£o",
        -7.2052749110595045
      ],
      [
        "ĠEm",
        -7.208102770237655
      ],
      [
        "ĠtambÃ©m",
        -7.215455414507671
      ],
      [
        "ĠLei",
        -7.236768764285792
      ],
      [
        "li",
        -7.246057005503209
      ],
      [
        "ÃŃ",
        -7.304845215060091
      ],
      [
        "Ġ19",
        -7.31169370148927
      ],
      [
        "ĠDeputado",
        -7.316660746481587
      ],
      [
        "Ġtem",
        -7.318842930528087
      ],
      [
        "Ġmas",
        -7.322777932969068
      ],
      [
        "Ġnos",
        -7.34926829446621
      ],
      [
        "Ġart",
        -7.35309454075688
      ],
      [
        "G",
        -7.37013498792426
      ],
      [
        "Ġele",
        -7.415507492755731
      ],
      [
        "ram",
        -7.428185440828541
      ],
      [
        "ĠSR",
        -7.449414597828158
      ],
      [
        "Ã§Ãµes",
        -7.464454640167688
      ],
      [
        "ĠFederal",
        -7.478013481728036
      ],
      [
        "das",
        -7.479548191053731
      ],
      [
        "ĠsÃ£o",
        -7.486985786127585
      ],
      [
        "ĠÃī",
        -7.48840638226547
      ],
      [
        "Ġisso",
        -7.492696677041714
      ],
      [
        "ĠNÂº",
        -7.507757619570571
      ],
      [
        "x",
        -7.512789896264254
      ],
      [
        "Ġanos",
        -7.524298136384498
      ],
      [
        "ĠBrasil",
        -7.529659666087419
      ],
      [
        "ĠEstado",
        -7.530155333514525
      ],
      [
        "Ġin",
        -7.53530634159919
      ],
      [
        "ĠSenador",
        -7.543801017819794
      ],
      [
        "que",
        -7.569596172464399
      ],
      [
        "ĠEu",
        -7.576955649426921
      ],
      [
        "Ġentre",
        -7.582945911418447
      ],
      [
        "ter",
        -7.593863178178944
      ],
      [
        "ĠvocÃª",
        -7.595805562282498
      ],
      [
        "idade",
        -7.608499285105049
      ],
      [
        "Ġmuito",
        -7.61246757473379
      ],
      [
        "Ġcon",
        -7.618712565816729
      ],
      [
        "J",
        -7.647211736877051
      ],
      [
        "Ã³",
        -7.660830145387106
      ],
      [
        "era",
        -7.662329371711543
      ],
      [
        "ĠatÃ©",
        -7.670047237750072
      ],
      [
        "ĠNo",
        -7.6731163914311455
      ],
      [
        "ĠjÃ¡",
        -7.676180979422309
      ],
      [
        "%",
        -7.6856927287529135
      ],
      [
        "ĠComissÃ£o",
        -7.732123433231941
      ],
      [
        "ĠDe",
        -7.737065424899571
      ],
      [
        "Ġbem",
        -7.754014558849001
      ],
      [
        "j",
        -7.759340114161859
      ],
      [
        "Ġforma",
        -7.760256057169224
      ],
      [
        "min",
        -7.766178095351861
      ],
      [
        "Ġpode",
        -7.778044080970563
      ],
      [
        "ĠSe",
        -7.797263631418216
      ],
      [
        "w",
        -7.801941076282468
      ],
      [
        "vi",
        -7.802763405243752
      ],
      [
        "ria",
        -7.805715851558819
      ],
      [
        "ela",
        -7.809217520334075
      ],
      [
        "Ġquando",
        -7.811319193886119
      ],
      [
        "um",
        -7.8129385731821
      ],
      [
        "aÃ§Ã£o",
        -7.8275474023975455
      ],
      [
        "ĠRe",
        -7.8279956479636095
      ],
      [
        "Ġsem",
        -7.832413328272654
      ],
      [
        "Ġaqui",
        -7.837311865661757
      ],
      [
        "ĠNa",
        -7.839573396883868
      ],
      [
        "Ġ10",
        -7.840315182043161
      ],
      [
        "Ġmesmo",
        -7.844082705425794
      ],
      [
        "ver",
        -7.854323236238338
      ],
      [
        "ĠNacional",
        -7.854633882900235
      ],
      [
        "Ġco",
        -7.856959746267071
      ],
      [
        "Ġpro",
        -7.857354388125231
      ],
      [
        "ĠPor",
        -7.865995930195782
      ],
      [
        "Ġex",
        -7.880006067837735
      ],
      [
        "0",
        -7.882742213480439
      ],
      [
        "ĠÂ§",
        -7.895109385428636
      ],
      [
        "Ġtodos",
        -7.901552981016003
      ],
      [
        "Ġdia",
        -7.906668999172341
      ],
      [
        "Ġainda",
        -7.916627371134293
      ],
      [
        "ĠSÃ£o",
        -7.922359885825012
      ],
      [
        "Ġ18",
        -7.932004289802443
      ],
      [
        "Ġter",
        -7.961466789987346
      ],
      [
        "res",
        -7.961989555188135
      ],
      [
        "Ġseus",
        -7.965420960423984
      ],
      [
        "ĠOs",
        -7.968559016570353
      ],
      [
        "âĢĿ.",
        -7.973799006716725
      ],
      [
        "Ġcontra",
        -7.97760384316271
      ],
      [
        "cio",
        -7.979311162966262
      ],
      [
        "br",
        -7.980545683052203
      ],
      [
        "Ġparte",
        -7.985695449466064
      ],
      [
        "nte",
        -7.990781755013478
      ],
      [
        "Ġcidade",
        -7.995863554482558
      ],
      [
        "Ġforam",
        -8.00152345069903
      ],
      [
        "Ġesta",
        -8.007427161583118
      ],
      [
        "Ġfazer",
        -8.010008761106906
      ],
      [
        "tra",
        -8.012758932414144
      ],
      [
        "ĠPaulo",
        -8.017037710074181
      ],
      [
        "Ġcaso",
        -8.021348227032943
      ],
      [
        "tro",
        -8.021740293513087
      ],
      [
        "ĠhÃ¡",
        -8.022070644987123
      ],
      [
        "Ġano",
        -8.038230559535371
      ],
      [
        "ĠPL",
        -8.05862608234256
      ],
      [
        "ĠCom",
        -8.059133993902718
      ],
      [
        "ch",
        -8.066949722373586
      ],
      [
        "Ġtempo",
        -8.091600282788074
      ],
      [
        "Ġpre",
        -8.091651480426176
      ],
      [
        "Ãª",
        -8.096938125247307
      ],
      [
        "fi",
        -8.101729220235415
      ],
      [
        "Ġesse",
        -8.10354228623958
      ],
      [
        "ĠCon",
        -8.104696294926955
      ],
      [
        "Ġessa",
        -8.104905327459258
      ],
      [
        "PRESIDENTE",
        -8.105533353701885
      ],
      [
        "Ġseja",
        -8.109632952999986
      ],
      [
        "PROJETO",
        -8.111886937852606
      ],
      [
        "Ġvai",
        -8.117301685876356
      ],
      [
        "Ġmeu",
        -8.122170673681225
      ],
      [
        "tor",
        -8.126289384668592
      ],
      [
        "ĠLEI",
        -8.13078618472322
      ],
      [
        "Ġporque",
        -8.140830726928689
      ],
      [
        "ĠsÃ³",
        -8.142883324904016
      ],
      [
        "ĠÃłs",
        -8.14776133186976
      ],
      [
        "ĠEle",
        -8.149449836840931
      ],
      [
        "H",
        -8.150695493327008
      ],
      [
        "ĠMas",
        -8.1553185948615
      ],
      [
        "Ġprimeiro",
        -8.16274368880174
      ],
      [
        "ita",
        -8.165428141076239
      ],
      [
        "ĠDeputados",
        -8.173162985947128
      ],
      [
        "ĠAs",
        -8.184318233231798
      ],
      [
        "RELATOR",
        -8.192665403448638
      ],
      [
        "ĠGoverno",
        -8.195902534221307
      ],
      [
        "ĠMinistro",
        -8.200706857317064
      ],
      [
        "and",
        -8.210290051866476
      ],
      [
        "âĢĿ",
        -8.210666103548453
      ],
      [
        "iz",
        -8.211025102783582
      ],
      [
        "ĠConstituiÃ§Ã£o",
        -8.211211662968891
      ],
      [
        "Ġonde",
        -8.211491244682094
      ],
      [
        "per",
        -8.21329492462387
      ],
      [
        "ĠVocÃª",
        -8.214930604459894
      ],
      [
        "00",
        -8.215248046093002
      ],
      [
        "Ġ12",
        -8.219772503947386
      ],
      [
        "'",
        -8.223738910978422
      ],
      [
        "Ġpessoas",
        -8.224863674576879
      ],
      [
        "_",
        -8.225773873305235
      ],
      [
        "Ġnas",
        -8.226764023591087
      ],
      [
        "Ġvez",
        -8.231037274069909
      ],
      [
        "cia",
        -8.232013479788627
      ],
      [
        "Ġgrande",
        -8.234315865159562
      ],
      [
        "ES",
        -8.236239545454493
      ],
      [
        "19",
        -8.237878627666527
      ],
      [
        "Ġartigo",
        -8.238277207515715
      ],
      [
        "Ġoutros",
        -8.244149242290401
      ],
      [
        "ĠSenhor",
        -8.24636281247623
      ],
      [
        "ĠMa",
        -8.254566912390791
      ],
      [
        "Ġtrabalho",
        -8.25496267824771
      ],
      [
        "Ġ11",
        -8.255310701201656
      ],
      [
        "ĠestÃ£o",
        -8.258665030455681
      ],
      [
        "Ġapenas",
        -8.260518121370234
      ],
      [
        "ando",
        -8.270219056144718
      ],
      [
        "Ġoutras",
        -8.270828972730829
      ],
      [
        "ĠCÃ¢mara",
        -8.27341223033127
      ],
      [
        "tar",
        -8.274400754187672
      ],
      [
        "Ãº",
        -8.27454045225223
      ],
      [
        "ĠnÃ³s",
        -8.27608107012232
      ],
      [
        "ĠMo",
        -8.280447191062768
      ],
      [
        "Ġsendo",
        -8.284944025856714
      ],
      [
        "Âª",
        -8.286175224817669
      ],
      [
        "mento",
        -8.286956412733103
      ],
      [
        "ĠAl",
        -8.287984479710685
      ],
      [
        "ĠDo",
        -8.290949967994912
      ],
      [
        "ĠMar",
        -8.293697815565812
      ],
      [
        "Ġdois",
        -8.29475694293455
      ],
      [
        "Ġ15",
        -8.29845750384777
      ],
      [
        "ĠArt",
        -8.298842014712713
      ],
      [
        "antes",
        -8.299634483136368
      ],
      [
        "ĠIn",
        -8.304500049471594
      ],
      [
        "ĠRio",
        -8.306665741814971
      ],
      [
        "Ġlei",
        -8.311188470626862
      ],
      [
        "Ġordem",
        -8.315754579991811
      ],
      [
        "Ġnosso",
        -8.317536467626296
      ],
      [
        "Ġca",
        -8.319340432946461
      ],
      [
        "Ġeste",
        -8.32317740080879
      ],
      [
        "aÃ§Ãµes",
        -8.325569626808537
      ],
      [
        "ĠProjeto",
        -8.325641421547186
      ],
      [
        "Z",
        -8.32833660842801
      ],
      [
        "rem",
        -8.32838111535004
      ],
      [
        "ĠII",
        -8.330495163025029
      ],
      [
        "ista",
        -8.332818662528222
      ],
      [
        "10",
        -8.343665581187095
      ],
      [
        "Ġnome",
        -8.34985778600107
      ],
      [
        "Ġminha",
        -8.350561146967243
      ],
      [
        "ina",
        -8.350782777101376
      ],
      [
        "Ġvi",
        -8.352822242456465
      ],
      [
        "Ġsuas",
        -8.35468493671108
      ],
      [
        "ĠCasa",
        -8.356776681461882
      ],
      [
        "Ġmaior",
        -8.359771439106622
      ],
      [
        "Ġhoje",
        -8.360289053642843
      ],
      [
        "qui",
        -8.363991909720335
      ],
      [
        "ĠserÃ¡",
        -8.368050660769836
      ],
      [
        "tiva",
        -8.368725275314876
      ],
      [
        "Ġtermos",
        -8.369761147433918
      ],
      [
        "Ġqual",
        -8.376917465647226
      ],
      [
        "Ġprocesso",
        -8.377218517434931
      ],
      [
        "ĠReferÃªncias",
        -8.378627655999441
      ],
      [
        "Ġmeio",
        -8.381453663086397
      ],
      [
        "ĠLi",
        -8.384205754879655
      ],
      [
        "Ġassim",
        -8.385286953963737
      ],
      [
        "Ġprojeto",
        -8.388631776994211
      ],
      [
        "ĠPara",
        -8.388652944657077
      ],
      [
        "ja",
        -8.388812632898608
      ],
      [
        "Ġte",
        -8.39857140436768
      ],
      [
        "Ġ16",
        -8.398973262090173
      ],
      [
        "ĠAn",
        -8.401683953764897
      ],
      [
        "ica",
        -8.40321627236419
      ],
      [
        "ĠDO",
        -8.405457068494693
      ],
      [
        "PSDB",
        -8.405929429366012
      ],
      [
        "ĠserviÃ§o",
        -8.40687487965626
      ],
      [
        "Ġdesta",
        -8.40842735587295
      ],
      [
        "ente",
        -8.409073318921385
      ],
      [
        "est",
        -8.41295647865492
      ],
      [
        "Ġ17",
        -8.417526872663819
      ],
      [
        "Ãµes",
        -8.420176241544047
      ],
      [
        "ĠSenado",
        -8.42267995523028
      ],
      [
        "Ġvida",
        -8.429335815933138
      ],
      [
        "Ġ13",
        -8.431852100303503
      ],
      [
        "Ġ14",
        -8.432980383384338
      ],
      [
        "Ãªncia",
        -8.436199065149717
      ],
      [
        "Ġdireito",
        -8.43635873405535
      ],
      [
        "Ġ20",
        -8.439071637728748
      ],
      [
        "tos",
        -8.447242509459382
      ],
      [
        "car",
        -8.448005835535021
      ],
      [
        "11",
        -8.45112658106237
      ],
      [
        "Ġprimeira",
        -8.453017092709029
      ],
      [
        "ĠMe",
        -8.458459027693227
      ],
      [
        "ĠComo",
        -8.459707359516557
      ],
      [
        "$",
        -8.460032736545802
      ],
      [
        "dia",
        -8.463375971474052
      ],
      [
        "Ġqualquer",
        -8.463793505709406
      ],
      [
        "ĠTribunal",
        -8.469137279873747
      ],
      [
        "ĠSem",
        -8.472272477399967
      ],
      [
        "Ġdeste",
        -8.472417546968881
      ],
      [
        "ĠâĢ¢",
        -8.477013853469513
      ],
      [
        "ĠVi",
        -8.482752883131646
      ],
      [
        "ĠJosÃ©",
        -8.483922531208247
      ],
      [
        "ing",
        -8.484237964239442
      ],
      [
        "ĠDA",
        -8.486990463390491
      ],
      [
        "tri",
        -8.489305795108184
      ],
      [
        "Ġpalavra",
        -8.49073579447731
      ],
      [
        "Ġdisse",
        -8.492036682782597
      ],
      [
        "ito",
        -8.494469600995508
      ],
      [
        "ĠPaÃŃs",
        -8.496469794311515
      ],
      [
        "Ġcada",
        -8.497430969901696
      ],
      [
        "Ġtodo",
        -8.498167795387689
      ],
      [
        "ĠDa",
        -8.498423355773946
      ],
      [
        "Ġacordo",
        -8.500297423141893
      ],
      [
        "MA",
        -8.502846199044635
      ],
      [
        "Ġsistema",
        -8.507472961970926
      ],
      [
        "Ġdepois",
        -8.5091172561793
      ],
      [
        "ĠpÃºblica",
        -8.509710128360416
      ],
      [
        "Ġseguinte",
        -8.510640913316283
      ],
      [
        "lado",
        -8.517835720954599
      ],
      [
        "man",
        -8.522328204889712
      ],
      [
        "sta",
        -8.523999315595553
      ],
      [
        "ĠPro",
        -8.527279309771972
      ],
      [
        "ĠMinistÃ©rio",
        -8.527921470473485
      ],
      [
        "Ġmelhor",
        -8.53092129281811
      ],
      [
        "ĠÃ¡rea",
        -8.531197576969682
      ],
      [
        "Ġprazo",
        -8.532634146399545
      ],
      [
        "RI",
        -8.535808545503837
      ],
      [
        "Ġdeve",
        -8.54354421917916
      ],
      [
        "nha",
        -8.54481440328258
      ],
      [
        "X",
        -8.545123024608499
      ],
      [
        "ĠCarlos",
        -8.545283800977993
      ],
      [
        "mar",
        -8.546919922209481
      ],
      [
        "ĠapÃ³s",
        -8.549385539253617
      ],
      [
        "ĠSim",
        -8.550965785397837
      ],
      [
        "09",
        -8.551845029886955
      ],
      [
        "cor",
        -8.55231391186901
      ],
      [
        "ĠRelator",
        -8.557436917141773
      ],
      [
        "Ġagora",
        -8.558949836328495
      ],
      [
        "rÃ¡",
        -8.562686813506108
      ],
      [
        "Ġpresente",
        -8.562795828368296
      ],
      [
        "th",
        -8.563320735591923
      ],
      [
        "ĠW",
        -8.56558803317098
      ],
      [
        "tal",
        -8.569458243090871
      ],
      [
        "enta",
        -8.570386979772243
      ],
      [
        "ismo",
        -8.570725910912463
      ],
      [
        "ĠpÃºblico",
        -8.571150852058778
      ],
      [
        "ĠpolÃŃtica",
        -8.571468744874148
      ],
      [
        "ĠLe",
        -8.572367152327908
      ],
      [
        "Ġpo",
        -8.578592776036533
      ],
      [
        "ck",
        -8.581433468939245
      ],
      [
        "Ġimportante",
        -8.582240430676661
      ],
      [
        "con",
        -8.582794116202622
      ],
      [
        "Ġsob",
        -8.585051333056388
      ],
      [
        "Ġver",
        -8.585546531262056
      ],
      [
        "ten",
        -8.58762886482056
      ],
      [
        "Ã´",
        -8.588428762819996
      ],
      [
        "ĠLa",
        -8.58922051771848
      ],
      [
        "Ġper",
        -8.592809992023545
      ],
      [
        "ida",
        -8.593099765743432
      ],
      [
        "Bloco",
        -8.59340997337921
      ],
      [
        "ĠRepÃºblica",
        -8.593585929082206
      ],
      [
        "dor",
        -8.596540490364607
      ],
      [
        "Ġsegundo",
        -8.597925293795772
      ],
      [
        "tado",
        -8.59804587884071
      ],
      [
        "ĠPT",
        -8.59975312168335
      ],
      [
        "Ġmundo",
        -8.600478970362063
      ],
      [
        "durante",
        -8.605353879280562
      ],
      [
        "Ġdizer",
        -8.605656701841488
      ],
      [
        "15",
        -8.609020986439806
      ],
      [
        "fer",
        -8.609182457772508
      ],
      [
        "dores",
        -8.614464769842723
      ],
      [
        "Ã§o",
        -8.614976505902982
      ],
      [
        "Ġnossa",
        -8.621881993544473
      ],
      [
        "AL",
        -8.625196167096039
      ],
      [
        "ĠmatÃ©ria",
        -8.627590443115826
      ],
      [
        "Ġmil",
        -8.628169978080834
      ],
      [
        "TO",
        -8.62909301598067
      ],
      [
        "ĠCo",
        -8.630959277162077
      ],
      [
        "ido",
        -8.631172795606084
      ],
      [
        "ĠJustiÃ§a",
        -8.632996552301101
      ],
      [
        "Ġestava",
        -8.633814999414643
      ],
      [
        "Ġvoto",
        -8.635953296987621
      ],
      [
        "cer",
        -8.63793775230263
      ],
      [
        "eiro",
        -8.640362321462682
      ],
      [
        "DO",
        -8.641091679699741
      ],
      [
        "qu",
        -8.645252199770434
      ],
      [
        "Ġsido",
        -8.646060933261868
      ],
      [
        "Ã§a",
        -8.648289707739139
      ],
      [
        "com",
        -8.65195403658413
      ],
      [
        "dezembro",
        -8.655074037146097
      ],
      [
        "ĠBa",
        -8.655676161185614
      ],
      [
        "Ġrecursos",
        -8.657083741162369
      ],
      [
        "2009",
        -8.657828892227958
      ],
      [
        "lar",
        -8.659006652454005
      ],
      [
        "ĠAr",
        -8.659763125709214
      ],
      [
        "men",
        -8.661051745722368
      ],
      [
        "gen",
        -8.669322925345082
      ],
      [
        "ante",
        -8.669796773048969
      ],
      [
        "ĠVer",
        -8.670316198836025
      ],
      [
        "Y",
        -8.670324225046464
      ],
      [
        "Ġoutro",
        -8.671521710603137
      ],
      [
        "OS",
        -8.67334455415355
      ],
      [
        "ĠtrÃªs",
        -8.677431068785982
      ],
      [
        "Ġpartir",
        -8.677516123497742
      ],
      [
        "ĠEstados",
        -8.67795672371043
      ],
      [
        "nos",
        -8.678156947640336
      ],
      [
        "ico",
        -8.67980724476822
      ],
      [
        "ĠH",
        -8.68259373615296
      ],
      [
        "Q",
        -8.68557255805895
      ],
      [
        "orador",
        -8.68709715570305
      ],
      [
        "Ġ24",
        -8.68714542224007
      ],
      [
        "=",
        -8.687946093493752
      ],
      [
        "AS",
        -8.690450345515679
      ],
      [
        "ĠentÃ£o",
        -8.690947057792172
      ],
      [
        "ata",
        -8.690981671316065
      ],
      [
        "cha",
        -8.691376907203496
      ],
      [
        "PT",
        -8.692507561729139
      ],
      [
        "Ġfinal",
        -8.693969006954552
      ],
      [
        "12",
        -8.697200698505155
      ],
      [
        "ent",
        -8.69720107063506
      ],
      [
        "ula",
        -8.697790839336792
      ],
      [
        "decisÃ£o",
        -8.70090427514193
      ],
      [
        "eira",
        -8.701203203864315
      ],
      [
        "ĠnÃºmero",
        -8.703168488418118
      ],
      [
        "ÃĩÃĥO",
        -8.703934008065374
      ],
      [
        "ĠCa",
        -8.705457162505152
      ],
      [
        "Ġvalor",
        -8.706960919288328
      ],
      [
        "Ġmomento",
        -8.709112368268555
      ],
      [
        "@",
        -8.710265189129899
      ],
      [
        "DI",
        -8.710935728420615
      ],
      [
        "Ì",
        -8.711481343225293
      ],
      [
        "ĠK",
        -8.717926592190677
      ],
      [
        "revisÃ£o",
        -8.71807502576454
      ],
      [
        "Ġgoverno",
        -8.720146513623023
      ],
      [
        "Ġgrupo",
        -8.720470013027976
      ],
      [
        "Ġtudo",
        -8.721308002069762
      ],
      [
        "Ġdesde",
        -8.722649534445774
      ],
      [
        "Ġsub",
        -8.723847888273813
      ],
      [
        "20",
        -8.72464297414756
      ],
      [
        "ĠJoÃ£o",
        -8.724950084977651
      ],
      [
        "ĠfamÃŃlia",
        -8.730563310815288
      ],
      [
        "Ġato",
        -8.733645812336288
      ],
      [
        "Ġcasa",
        -8.73367427254735
      ],
      [
        "Ġdias",
        -8.73453507787554
      ],
      [
        "Ãģ",
        -8.73939382931257
      ],
      [
        "Ġnovo",
        -8.739719261702298
      ],
      [
        "ĠPR",
        -8.739734637456834
      ],
      [
        "art",
        -8.74274059885691
      ],
      [
        "ava",
        -8.742889754541338
      ],
      [
        "ĠPMDB",
        -8.743030586366196
      ],
      [
        "ira",
        -8.7459450963077
      ],
      [
        "ĠpaÃŃs",
        -8.748695957462916
      ],
      [
        "amento",
        -8.748765108760574
      ],
      [
        "ĠTe",
        -8.749391095164015
      ],
      [
        "ĠIsso",
        -8.749532411363184
      ],
      [
        "ĠUniÃ£o",
        -8.753329434001841
      ],
      [
        "ĠUm",
        -8.753676359552443
      ],
      [
        "Ġeles",
        -8.760708052600329
      ],
      [
        "ĠdÃ¡",
        -8.760855253175928
      ],
      [
        "tas",
        -8.761103905152748
      ],
      [
        "Ġproposta",
        -8.761250824470824
      ],
      [
        "Ġpoder",
        -8.761421324179224
      ],
      [
        "lha",
        -8.762432009827183
      ],
      [
        "ĠpopulaÃ§Ã£o",
        -8.764554686517707
      ],
      [
        "RA",
        -8.765340728738805
      ],
      [
        "mor",
        -8.76741592043357
      ],
      [
        "par",
        -8.767789832185462
      ],
      [
        "ÃĥO",
        -8.76878847777684
      ],
      [
        "rio",
        -8.76946694408068
      ],
      [
        "05",
        -8.77027066325189
      ],
      [
        "Ġsempre",
        -8.770741864371814
      ],
      [
        "ju",
        -8.771302807275752
      ],
      [
        "EL",
        -8.777415703266499
      ],
      [
        "Ġinciso",
        -8.778833224953406
      ],
      [
        "Ġconta",
        -8.780881531521814
      ],
      [
        "les",
        -8.780890613091904
      ],
      [
        "Ġpra",
        -8.781708105105315
      ],
      [
        "Ġbrasileiro",
        -8.781741093565877
      ],
      [
        "18",
        -8.783531789142776
      ],
      [
        "ĠDi",
        -8.784317970768454
      ],
      [
        "rado",
        -8.786810673954685
      ],
      [
        "Ġduas",
        -8.790171757034578
      ],
      [
        "ĠrelaÃ§Ã£o",
        -8.79072892308076
      ],
      [
        "Ġ30",
        -8.79354345080109
      ],
      [
        "Ġ:(",
        -8.7949747884823
      ],
      [
        "ĠJo",
        -8.796042455140356
      ],
      [
        "ĠlÃ¡",
        -8.796704065195856
      ],
      [
        "ĠEsta",
        -8.798630435948786
      ],
      [
        "Ġmenos",
        -8.799441009744296
      ],
      [
        "ĠmilhÃµes",
        -8.80158882438497
      ],
      [
        "Ġpouco",
        -8.801762497616462
      ],
      [
        "ĠâĢĶ",
        -8.80208693114172
      ],
      [
        "gue",
        -8.803303239614879
      ],
      [
        "Ġtinha",
        -8.804034072424738
      ],
      [
        "ĠEntÃ£o",
        -8.80473088533054
      ],
      [
        "Ġfato",
        -8.806246724617765
      ],
      [
        "Congresso",
        -8.807341535196619
      ],
      [
        "ĠFoi",
        -8.808256531697685
      ],
      [
        "03",
        -8.808378211622934
      ],
      [
        "lhe",
        -8.80902992749631
      ],
      [
        "âĢĵ",
        -8.812806252026073
      ],
      [
        "nesta",
        -8.814569165232209
      ],
      [
        "Ġinter",
        -8.815498009612396
      ],
      [
        "bra",
        -8.816584790231376
      ],
      [
        "ste",
        -8.817998452661852
      ],
      [
        "ĠvotaÃ§Ã£o",
        -8.818691844764086
      ],
      [
        "Ġ21",
        -8.82461052922762
      ],
      [
        "aprovaÃ§Ã£o",
        -8.82665085179388
      ],
      [
        "ĠJu",
        -8.82675671701722
      ],
      [
        "ĠSul",
        -8.82678736992472
      ],
      [
        "Ġbrasileira",
        -8.827167098078629
      ],
      [
        "Ġquanto",
        -8.827387520295696
      ],
      [
        "ĠPela",
        -8.829149959366577
      ],
      [
        "ntes",
        -8.832179464320074
      ],
      [
        "ĠTo",
        -8.835116797797063
      ],
      [
        "neste",
        -8.835174885325406
      ],
      [
        "Ġfim",
        -8.836696473756469
      ],
      [
        "Ġ23",
        -8.83864130774033
      ],
      [
        "ĠQue",
        -8.843332061200574
      ],
      [
        "K",
        -8.844280392464016
      ],
      [
        "Ġpelos",
        -8.845238247441689
      ],
      [
        "08",
        -8.846080313693191
      ],
      [
        "ĠperÃŃodo",
        -8.846514974009663
      ],
      [
        "Ġprograma",
        -8.84931523544872
      ],
      [
        "17",
        -8.850624923545604
      ],
      [
        "Ġ25",
        -8.851286280576772
      ],
      [
        "Ġbom",
        -8.853435592639077
      ],
      [
        "inha",
        -8.854023022625992
      ],
      [
        "can",
        -8.85507195699482
      ],
      [
        "Ġ22",
        -8.857794705494513
      ],
      [
        "ĠPoder",
        -8.858517913680076
      ],
      [
        "ĠFa",
        -8.861115763609224
      ],
      [
        "ĠÃºnico",
        -8.863526484879744
      ],
      [
        "ĠhistÃ³ria",
        -8.864530363436566
      ],
      [
        "02",
        -8.866418498675312
      ],
      [
        "pre",
        -8.866705525643638
      ],
      [
        "ati",
        -8.867230693463311
      ],
      [
        "Ġsu",
        -8.869202821681018
      ],
      [
        "ais",
        -8.869747550888937
      ],
      [
        "ĠinformaÃ§Ãµes",
        -8.870629168600235
      ],
      [
        "rei",
        -8.873410893296008
      ],
      [
        "07",
        -8.87414104563546
      ],
      [
        "ĠsaÃºde",
        -8.875363216199935
      ],
      [
        "DA",
        -8.875980671843209
      ],
      [
        "menta",
        -8.876045930010067
      ],
      [
        "Ġtodas",
        -8.876056628355164
      ],
      [
        "gar",
        -8.87692241298227
      ],
      [
        "TE",
        -8.878647586202387
      ],
      [
        "Ġfaz",
        -8.878862487490354
      ],
      [
        "Ġvezes",
        -8.878967929973069
      ],
      [
        "ĠPa",
        -8.880977557923694
      ],
      [
        "lin",
        -8.881045204055592
      ],
      [
        "ton",
        -8.88107082945158
      ],
      [
        "Ġsocial",
        -8.884987066268987
      ],
      [
        "Ġbase",
        -8.885547385565246
      ],
      [
        "Ã¢",
        -8.886296191936696
      ],
      [
        "ĠregiÃ£o",
        -8.887364980594935
      ],
      [
        "tes",
        -8.888371495692633
      ],
      [
        "los",
        -8.889666004827681
      ],
      [
        "Ġexemplo",
        -8.8932345461511
      ],
      [
        "for",
        -8.894025929480877
      ],
      [
        "ĠDr",
        -8.89411060330783
      ],
      [
        "16",
        -8.894233412734657
      ],
      [
        "Ġfez",
        -8.896124360613351
      ],
      [
        "ki",
        -8.897853518764705
      ],
      [
        "04",
        -8.899338829969173
      ],
      [
        "alÃ©m",
        -8.902707239908247
      ],
      [
        "Ġnacional",
        -8.902771270319846
      ],
      [
        "Ġmaio",
        -8.903516780711797
      ],
      [
        "ant",
        -8.903641079015578
      ],
      [
        "Ġempresa",
        -8.906015184066995
      ],
      [
        "Ġexternas",
        -8.906379939809694
      ],
      [
        "W",
        -8.906812881740734
      ],
      [
        "ĠtÃªm",
        -8.907927621470387
      ],
      [
        "ĠquestÃ£o",
        -8.909563851248713
      ],
      [
        "âĢĿ,",
        -8.909636032227665
      ],
      [
        "Ġdiz",
        -8.911629660373567
      ],
      [
        "Ġfor",
        -8.911660318303941
      ],
      [
        "ĠtÃ£o",
        -8.913533566980504
      ],
      [
        "ĠLuiz",
        -8.914722902530949
      ],
      [
        "LigaÃ§Ãµes",
        -8.914895241534868
      ],
      [
        "Ġlugar",
        -8.916758107905224
      ],
      [
        "che",
        -8.918455937701502
      ],
      [
        "Ġtendo",
        -8.918457297789942
      ],
      [
        "Ġpois",
        -8.921397351792614
      ],
      [
        "pen",
        -8.921428830061666
      ],
      [
        "Ġquero",
        -8.922802479478703
      ],
      [
        "ist",
        -8.923790118992574
      ],
      [
        "Ġrecurso",
        -8.924270039476545
      ],
      [
        "Ġcausa",
        -8.925233905573803
      ],
      [
        "Ġtoda",
        -8.927129737146894
      ],
      [
        "julho",
        -8.927274484423332
      ],
      [
        "ĠHa",
        -8.929877374305471
      ],
      [
        "Ġpa",
        -8.930557944376837
      ],
      [
        "Ġestado",
        -8.93117850698753
      ],
      [
        "ĠFi",
        -8.931672594486793
      ],
      [
        "ĠExÂª",
        -8.932466419505149
      ],
      [
        "Ġpovo",
        -8.932846570586673
      ],
      [
        "ĠGo",
        -8.933111374048563
      ],
      [
        "las",
        -8.933367231888166
      ],
      [
        "13",
        -8.93383862463411
      ],
      [
        "tur",
        -8.933879273776046
      ],
      [
        "Ġ2007",
        -8.933998157343165
      ],
      [
        "ber",
        -8.935410753946735
      ],
      [
        "Ã£",
        -8.936757660498063
      ],
      [
        "ESSÃĥO",
        -8.942811895641759
      ],
      [
        "sentido",
        -8.94281800100708
      ],
      [
        "Ġseria",
        -8.943495499986854
      ],
      [
        "06",
        -8.943527049846011
      ],
      [
        "Ġalguns",
        -8.947584803229194
      ],
      [
        "setembro",
        -8.949389201457075
      ],
      [
        "ĠPre",
        -8.95199630132402
      ],
      [
        "ĠGa",
        -8.952100253952135
      ],
      [
        "inho",
        -8.953341892057312
      ],
      [
        "Ġnada",
        -8.953574003798671
      ],
      [
        "ĠCar",
        -8.954432441563387
      ],
      [
        "Ġnova",
        -8.956445251729399
      ],
      [
        "Ġ28",
        -8.958246086633968
      ],
      [
        "tua",
        -8.961102552571871
      ],
      [
        "Ġfavor",
        -8.962293698591553
      ],
      [
        "Ġtrata",
        -8.962732720398447
      ],
      [
        "Ġvou",
        -8.96328160017562
      ],
      [
        "Ġdata",
        -8.964154749591463
      ],
      [
        "fica",
        -8.965558668518751
      ],
      [
        "Ġnem",
        -8.966132077666055
      ],
      [
        "temos",
        -8.968046787632769
      ],
      [
        "Ã¡vel",
        -8.968136560397836
      ],
      [
        "30",
        -8.970690360796535
      ],
      [
        "nal",
        -8.974945994292613
      ],
      [
        "ler",
        -8.975752119091197
      ],
      [
        "Â°",
        -8.976115957505737
      ],
      [
        "Ġcoisa",
        -8.976170498532076
      ],
      [
        "dispÃµe",
        -8.97802212530198
      ],
      [
        "Ġfu",
        -8.978177458898717
      ],
      [
        "Ġsociedade",
        -8.983640304235863
      ],
      [
        "RE",
        -8.986307210376069
      ],
      [
        "Ġtipo",
        -8.986501949880065
      ],
      [
        "Ġpodem",
        -8.986508905670917
      ],
      [
        "ĠJa",
        -8.98803426141933
      ],
      [
        "Ġmesma",
        -8.990346113272524
      ],
      [
        "ry",
        -8.991006759624788
      ],
      [
        "Muito",
        -8.991517456029701
      ],
      [
        "junho",
        -8.992143241699525
      ],
      [
        "ĠEla",
        -8.99325954878348
      ],
      [
        "ĠBo",
        -8.99597254350364
      ],
      [
        "IS",
        -8.996582480552341
      ],
      [
        "Ġdisso",
        -8.997768574324152
      ],
      [
        "UTC",
        -8.999824368917619
      ],
      [
        "Ġtenho",
        -8.999825712634317
      ],
      [
        "izaÃ§Ã£o",
        -9.00001140268748
      ],
      [
        "Ġteve",
        -9.001096402486029
      ],
      [
        "ĠGrande",
        -9.00341923586846
      ],
      [
        "ĠVamos",
        -9.006115371910354
      ],
      [
        "ĠÃºltimo",
        -9.008195407043242
      ],
      [
        "Ġestou",
        -9.011422084880074
      ],
      [
        "Exa",
        -9.01326784048098
      ],
      [
        "Decreto",
        -9.014261295429064
      ],
      [
        "Ġ2008",
        -9.014600614872444
      ],
      [
        "ang",
        -9.014882449761142
      ],
      [
        "2015",
        -9.015066521576951
      ],
      [
        "tou",
        -9.016438605766954
      ],
      [
        "TA",
        -9.016957019877037
      ],
      [
        "ĠHo",
        -9.018114139777884
      ],
      [
        "Ġmedida",
        -9.019087713421843
      ],
      [
        "ĠEx",
        -9.019464115717598
      ],
      [
        "Ġcons",
        -9.01972083404224
      ],
      [
        "Ġ2009",
        -9.02076586096726
      ],
      [
        "Art",
        -9.021449662290095
      ],
      [
        "Ġ2006",
        -9.021853540740564
      ],
      [
        "Ġdesenvolvimento",
        -9.022613136411362
      ],
      [
        "lho",
        -9.025402398817644
      ],
      [
        "Ġquais",
        -9.03197929696192
      ],
      [
        "bar",
        -9.033314613817836
      ],
      [
        "Ġ26",
        -9.033575730770604
      ],
      [
        "ĠBe",
        -9.034534292333582
      ],
      [
        "essa",
        -9.037161774717418
      ],
      [
        "PMDB",
        -9.0371755617579
      ],
      [
        "tica",
        -9.037394128467884
      ],
      [
        "Ġoutra",
        -9.03814087457664
      ],
      [
        "tre",
        -9.03958028417038
      ],
      [
        "ĠSanta",
        -9.040291522801578
      ],
      [
        "Ġconstitucional",
        -9.046627939552604
      ],
      [
        "DE",
        -9.048863250505608
      ],
      [
        "ĠLu",
        -9.049388394418862
      ],
      [
        "Ġnum",
        -9.049807400464092
      ],
      [
        "000",
        -9.050467057489378
      ],
      [
        "ura",
        -9.050909954592758
      ],
      [
        "via",
        -9.050977316379722
      ],
      [
        "Ġsei",
        -9.051685970128046
      ],
      [
        "Ġestar",
        -9.052693678965811
      ],
      [
        "Ġsabe",
        -9.054504471011883
      ],
      [
        "Ã¡rio",
        -9.057618876277214
      ],
      [
        "Ġpessoa",
        -9.063334505900547
      ],
      [
        "ĠmarÃ§o",
        -9.065159645809509
      ],
      [
        "amente",
        -9.0653109361695
      ],
      [
        "uni",
        -9.065805898355263
      ],
      [
        "vam",
        -9.065954028278863
      ],
      [
        "Ġvamos",
        -9.066255031248266
      ],
      [
        "ĠJaneiro",
        -9.069187721624274
      ],
      [
        "ex",
        -9.070820935135863
      ],
      [
        "Ġagosto",
        -9.071160288369189
      ],
      [
        "Ġoutubro",
        -9.07143064844945
      ],
      [
        "cal",
        -9.073401416581962
      ],
      [
        "fl",
        -9.07403235481215
      ],
      [
        "ĠRE",
        -9.074503752912012
      ],
      [
        "ĠMu",
        -9.075006766664291
      ],
      [
        "Ġtexto",
        -9.076668029001276
      ],
      [
        "tada",
        -9.081671950770517
      ],
      [
        "ĠFe",
        -9.082155504203437
      ],
      [
        "ora",
        -9.083319824562317
      ],
      [
        "zar",
        -9.08438561070217
      ],
      [
        "...............",
        -9.086004039747523
      ],
      [
        "Ġ2011",
        -9.086570277211983
      ],
      [
        "Ġcor",
        -9.088549472188577
      ],
      [
        "ĠIII",
        -9.089792940419567
      ],
      [
        "ĠprÃ³prio",
        -9.09248214685427
      ],
      [
        "CI",
        -9.092499599922489
      ],
      [
        "50",
        -9.093792932762234
      ],
      [
        "iro",
        -9.093797043074078
      ],
      [
        "Ġhavia",
        -9.09600557770738
      ],
      [
        "ĠmunicÃŃpio",
        -9.097171183749635
      ],
      [
        "ral",
        -9.097680867702632
      ],
      [
        "tion",
        -9.09818199827006
      ],
      [
        "Ġdessa",
        -9.09941994640734
      ],
      [
        "Ġdis",
        -9.099754062997564
      ],
      [
        "Ġ2010",
        -9.102116117618042
      ],
      [
        "ĠEduardo",
        -9.102469141981237
      ],
      [
        "ĠSt",
        -9.103731052782276
      ],
      [
        "Ġabril",
        -9.104695373660205
      ],
      [
        "ĠTem",
        -9.105425376346949
      ],
      [
        "ras",
        -9.105761114745246
      ],
      [
        "ĠtÃ©cnica",
        -9.106829697862548
      ],
      [
        "ĠNO",
        -9.107587097364028
      ],
      [
        "Ġsemana",
        -9.111970279804568
      ],
      [
        "Ġprincipal",
        -9.112679119211386
      ],
      [
        "Ġjaneiro",
        -9.11383776103959
      ],
      [
        "Ġdesse",
        -9.113946323307216
      ],
      [
        "2013",
        -9.115493659390998
      ],
      [
        "Ġpe",
        -9.11593110863198
      ],
      [
        "habitantes",
        -9.115993256896578
      ],
      [
        "Ġempresas",
        -9.117079474628865
      ],
      [
        "gua",
        -9.11855636587918
      ],
      [
        "://",
        -9.119622746623875
      ],
      [
        "ĠEste",
        -9.12108869694587
      ],
      [
        "cional",
        -9.123482426476968
      ],
      [
        "Ġsim",
        -9.12434054621553
      ],
      [
        "cas",
        -9.124841531738138
      ],
      [
        "ĠGu",
        -9.12520978441565
      ],
      [
        "Ġnovembro",
        -9.125299167114308
      ],
      [
        "14",
        -9.127494326913927
      ],
      [
        "Ġpresidente",
        -9.127661444014104
      ],
      [
        "NE",
        -9.128174456254634
      ],
      [
        "ĠPARECER",
        -9.128435580135427
      ],
      [
        "por",
        -9.12922509344767
      ],
      [
        "Ġ2005",
        -9.129597965045608
      ],
      [
        "Ġvolta",
        -9.129847722520438
      ],
      [
        "ĠtÃŃtulo",
        -9.129999331626832
      ],
      [
        "nÃ§a",
        -9.132410405184851
      ],
      [
        "Ġpai",
        -9.133295896127471
      ],
      [
        "ĠcondiÃ§Ãµes",
        -9.13330148100404
      ],
      [
        "ĠproduÃ§Ã£o",
        -9.133823035108549
      ],
      [
        "val",
        -9.136419871198685
      ],
      [
        "ĠPi",
        -9.1370858481901
      ],
      [
        "nia",
        -9.139286755032852
      ],
      [
        "chi",
        -9.139409971216644
      ],
      [
        "ĠsituaÃ§Ã£o",
        -9.139466044708689
      ],
      [
        "MunicÃŃpio",
        -9.140106248346232
      ],
      [
        "Ġ27",
        -9.141705972911655
      ],
      [
        "Ã",
        -9.144053247223122
      ],
      [
        "ĠseguranÃ§a",
        -9.144237272432807
      ],
      [
        "Ġprecisa",
        -9.145231714314493
      ],
      [
        "NÃ³s",
        -9.145263205664593
      ],
      [
        "ĠSala",
        -9.146287754921794
      ],
      [
        "sÃ£o",
        -9.147510128559412
      ],
      [
        "ĠMi",
        -9.1477793782291
      ],
      [
        "ĠÃ¡gua",
        -9.150022763466753
      ],
      [
        "vol",
        -9.151586372577231
      ],
      [
        "rar",
        -9.151894189505075
      ],
      [
        "ind",
        -9.152467002164103
      ],
      [
        "ĠNe",
        -9.153899457421169
      ],
      [
        "pol",
        -9.15406791857682
      ],
      [
        "RO",
        -9.157319980445765
      ],
      [
        "Ġtenha",
        -9.158136986387168
      ],
      [
        "Ġfalar",
        -9.158393958536664
      ],
      [
        "ĠEstÃ¡",
        -9.159436554910071
      ],
      [
        "ĠMin",
        -9.161039398402846
      ],
      [
        "Ġvista",
        -9.161880502271105
      ],
      [
        "estamos",
        -9.162696743824023
      ],
      [
        "2011",
        -9.164239363985336
      ],
      [
        "missÃ£o",
        -9.165711456414728
      ],
      [
        "Ġtanto",
        -9.16839032864041
      ],
      [
        "ĠEssa",
        -9.168443017032075
      ],
      [
        "ite",
        -9.168616611977347
      ],
      [
        "PSB",
        -9.169954959849196
      ],
      [
        "Ġ29",
        -9.171010185683691
      ],
      [
        "ato",
        -9.171058373713803
      ],
      [
        "Ġfeito",
        -9.174189431149424
      ],
      [
        "ĠHe",
        -9.17429235441222
      ],
      [
        "ĠEmenda",
        -9.17656015182751
      ],
      [
        "port",
        -9.179075776054024
      ],
      [
        "aÃŃ",
        -9.179256395589068
      ],
      [
        "Regimento",
        -9.1801214393474
      ],
      [
        "ense",
        -9.180746787199318
      ],
      [
        "Ġpena",
        -9.18198110551388
      ],
      [
        "ĠEsse",
        -9.18396209299914
      ],
      [
        "tura",
        -9.18475104437626
      ],
      [
        "ĠeducaÃ§Ã£o",
        -9.18602574234241
      ],
      [
        "tivo",
        -9.188250693442516
      ],
      [
        "Ġbi",
        -9.191125351342256
      ],
      [
        "ĠinÃŃcio",
        -9.191897776697038
      ],
      [
        "Ġverdade",
        -9.192109989732115
      ],
      [
        "Ġenquanto",
        -9.193744201885888
      ],
      [
        "ele",
        -9.19570166133435
      ],
      [
        "Ġquatro",
        -9.196218145841598
      ],
      [
        "ĠUma",
        -9.19739485575194
      ],
      [
        "providÃªncias",
        -9.1974853255923
      ],
      [
        "Ġtra",
        -9.197623573951049
      ],
      [
        "Ġponto",
        -9.19779189927121
      ],
      [
        "ador",
        -9.19867741223559
      ],
      [
        "SP",
        -9.198948981181925
      ],
      [
        "pro",
        -9.200957859063749
      ],
      [
        "sessÃ£o",
        -9.201925401308667
      ],
      [
        "Ġobjetivo",
        -9.20364604502734
      ],
      [
        "Ġrespeito",
        -9.204257119611816
      ],
      [
        "bal",
        -9.20520897580941
      ],
      [
        "Ġfevereiro",
        -9.205883839531444
      ],
      [
        "ĠSu",
        -9.206628311144762
      ],
      [
        "Ġtrans",
        -9.20805712648288
      ],
      [
        "Ġlocal",
        -9.208333867133412
      ],
      [
        "feira",
        -9.20893498951909
      ],
      [
        "nado",
        -9.209775881646731
      ],
      [
        "log",
        -9.211835858309732
      ],
      [
        "Ġdentro",
        -9.212204116995087
      ],
      [
        "istas",
        -9.212532975357028
      ],
      [
        "Supremo",
        -9.2130880213219
      ],
      [
        "ÃŃn",
        -9.214052331712486
      ],
      [
        "ĠMaria",
        -9.21428446232942
      ],
      [
        "Ð",
        -9.215957448308732
      ],
      [
        "Ġ31",
        -9.216443733365212
      ],
      [
        "Deputada",
        -9.217594724197934
      ],
      [
        "NI",
        -9.21819128161269
      ],
      [
        "Ġmim",
        -9.218968795767164
      ],
      [
        "ĠBi",
        -9.22219776423978
      ],
      [
        "Ġdemais",
        -9.222443637778412
      ],
      [
        "ĠsÃ©rie",
        -9.22329457404465
      ],
      [
        "Ġhoras",
        -9.223935175973375
      ],
      [
        "Ġcargo",
        -9.224483690438776
      ],
      [
        "Ġfi",
        -9.226623412496204
      ],
      [
        "Ġapoio",
        -9.226789793698083
      ],
      [
        "ĠInterno",
        -9.227476812451364
      ],
      [
        "rada",
        -9.229676563500282
      ],
      [
        "ĠPresidÃªncia",
        -9.231239005789542
      ],
      [
        "ix",
        -9.233684983133395
      ],
      [
        "ĠÃĢ",
        -9.234647188852184
      ],
      [
        "Ġtotal",
        -9.240549184283967
      ],
      [
        "uro",
        -9.241719218897344
      ],
      [
        "criaÃ§Ã£o",
        -9.242822547337244
      ],
      [
        "ĠPÃºblico",
        -9.242917252483537
      ],
      [
        "vin",
        -9.243156353256818
      ],
      [
        "Ġ(\"",
        -9.24336660049403
      ],
      [
        "tico",
        -9.244620059153592
      ],
      [
        "ĠpossÃŃvel",
        -9.244801996757216
      ],
      [
        "Ġ2013",
        -9.245308945611132
      ],
      [
        "Ġfilme",
        -9.246269768165869
      ],
      [
        "ĠBrasÃŃlia",
        -9.24753206681263
      ],
      [
        "25",
        -9.249250545396109
      ],
      [
        "Ġparecer",
        -9.24953445980964
      ],
      [
        "PDT",
        -9.250581569545078
      ],
      [
        "Ġvota",
        -9.252248576259642
      ],
      [
        "ĠUnidos",
        -9.252283192524446
      ],
      [
        "Ġfalta",
        -9.253704769640484
      ],
      [
        "Ġconforme",
        -9.254460537833014
      ],
      [
        "Ġluta",
        -9.25493221062459
      ],
      [
        "ĠTurma",
        -9.256370432242834
      ],
      [
        "serviÃ§os",
        -9.256854117911104
      ],
      [
        "cial",
        -9.257648960269234
      ],
      [
        "Ġproblema",
        -9.257874222929614
      ],
      [
        "Ġnunca",
        -9.258562362062158
      ],
      [
        "Ġespecial",
        -9.259207944276332
      ],
      [
        "ĠConselho",
        -9.260080868873734
      ],
      [
        "Ġcar",
        -9.260307788119176
      ],
      [
        "ĠpaÃŃses",
        -9.262395854329474
      ],
      [
        "Ġjogo",
        -9.262436786083326
      ],
      [
        "CE",
        -9.262581763539933
      ],
      [
        "NA",
        -9.264163994825998
      ],
      [
        "Ġsou",
        -9.264700442821438
      ],
      [
        "Ġ2012",
        -9.265416848379282
      ],
      [
        "len",
        -9.267128058877471
      ],
      [
        "Ġalgo",
        -9.269034439021713
      ],
      [
        "Ġcerca",
        -9.269443335001352
      ],
      [
        "Ġ2004",
        -9.270044066233714
      ],
      [
        "98",
        -9.270155461017255
      ],
      [
        "ĠUniversidade",
        -9.270638564841336
      ],
      [
        "ĠQuando",
        -9.27090585643526
      ],
      [
        "ser",
        -9.271088430155304
      ],
      [
        "cos",
        -9.274516003852709
      ],
      [
        "ĠmÃºsica",
        -9.275579778024344
      ],
      [
        "q",
        -9.276593697706794
      ],
      [
        "ĠsÃ©culo",
        -9.27852745757052
      ],
      [
        "Ġobrigado",
        -9.278687291985667
      ],
      [
        "defesa",
        -9.280230264086368
      ],
      [
        "tÃ³rio",
        -9.28111547972634
      ],
      [
        "ĠSilva",
        -9.283928593877103
      ],
      [
        "tanto",
        -9.285525959342264
      ],
      [
        "Ġequipe",
        -9.28553606310966
      ],
      [
        "ĠEducaÃ§Ã£o",
        -9.28633290597492
      ],
      [
        "cho",
        -9.289286534274414
      ],
      [
        "devido",
        -9.289577324360687
      ],
      [
        "ĠPedro",
        -9.289797841837826
      ],
      [
        "CÃ³digo",
        -9.289907525000356
      ],
      [
        "40",
        -9.290903003043931
      ],
      [
        "ĠSocial",
        -9.29091550550538
      ],
      [
        "Ġfora",
        -9.291213640851936
      ],
      [
        "registro",
        -9.292547472295537
      ],
      [
        "Ġmembro",
        -9.29364995656319
      ],
      [
        "ĠatravÃ©s",
        -9.293693247168148
      ],
      [
        "Ġcinco",
        -9.293979863236387
      ],
      [
        "Ġregimental",
        -9.29445821825367
      ],
      [
        "ban",
        -9.295661391966425
      ],
      [
        "Ġkm",
        -9.299513547167166
      ],
      [
        "Ġsegunda",
        -9.29988709122235
      ],
      [
        "âĢĻ",
        -9.300002016675757
      ],
      [
        "ini",
        -9.301197569209425
      ],
      [
        "ĠGr",
        -9.302165188766033
      ],
      [
        "ĠOliveira",
        -9.302716482210688
      ],
      [
        "PlenÃ¡rio",
        -9.303078221207928
      ],
      [
        "Ġpedido",
        -9.303278996891487
      ],
      [
        "IN",
        -9.304465498896258
      ],
      [
        "ger",
        -9.304888459730218
      ],
      [
        "SE",
        -9.30838529586869
      ],
      [
        "Ġvo",
        -9.310004226976751
      ],
      [
        "Ġrealizada",
        -9.310884318169451
      ],
      [
        "Ġficar",
        -9.312318185963957
      ],
      [
        "ĠTotal",
        -9.313023054430625
      ],
      [
        "CO",
        -9.314094831217512
      ],
      [
        "Ġdireitos",
        -9.314306144975152
      ],
      [
        "ris",
        -9.315219877424203
      ],
      [
        "ĠFo",
        -9.315242442512712
      ],
      [
        "lia",
        -9.315432776852962
      ],
      [
        "Ġmorte",
        -9.31546594186813
      ],
      [
        "Ġpesquisa",
        -9.315709242881
      ],
      [
        "iti",
        -9.316911869768107
      ],
      [
        "PE",
        -9.31724481370561
      ],
      [
        "bilidade",
        -9.317320770597448
      ],
      [
        "taÃ§Ã£o",
        -9.317448118796026
      ],
      [
        "Ġvem",
        -9.317532207230448
      ],
      [
        "ĠSra",
        -9.318513499432518
      ],
      [
        "posiÃ§Ã£o",
        -9.318888099449216
      ],
      [
        "ĠJÃ¡",
        -9.320085455828314
      ],
      [
        "US",
        -9.321089396140025
      ],
      [
        "ĠCi",
        -9.32282122228724
      ],
      [
        "Ġfazendo",
        -9.32300086652372
      ],
      [
        "ĠCl",
        -9.323069662740584
      ],
      [
        "Ġdeixa",
        -9.324732786020242
      ],
      [
        "ly",
        -9.325429253742604
      ],
      [
        "ĠprÃ³pria",
        -9.326649619874416
      ],
      [
        "2000",
        -9.326758650875544
      ],
      [
        "ĠSi",
        -9.326888769469612
      ],
      [
        "Ġobjeto",
        -9.327941133742216
      ],
      [
        "ĠKa",
        -9.329038650914212
      ],
      [
        "tÃ£o",
        -9.32938190479418
      ],
      [
        "Ġthe",
        -9.329502492174225
      ],
      [
        "Ãī",
        -9.330303212417611
      ],
      [
        "ĠforÃ§a",
        -9.330979299284246
      ],
      [
        "ĠrazÃ£o",
        -9.33110851087146
      ],
      [
        "ĠDia",
        -9.33257676701491
      ],
      [
        "vÃ¡rios",
        -9.335976923795862
      ],
      [
        "ĠDu",
        -9.33624808713208
      ],
      [
        "The",
        -9.33640774757271
      ],
      [
        "rim",
        -9.336763323623815
      ],
      [
        "ĠexercÃŃcio",
        -9.337529743242026
      ],
      [
        "Ġacesso",
        -9.337796580630018
      ],
      [
        "ĠSaÃºde",
        -9.339305940001164
      ],
      [
        "Ġmeses",
        -9.339634100682815
      ],
      [
        "origem",
        -9.339932955946344
      ],
      [
        "Executivo",
        -9.3413672081981
      ],
      [
        "2008",
        -9.341833442730362
      ],
      [
        "tÃ¡",
        -9.342627821460052
      ],
      [
        "var",
        -9.344132274248611
      ],
      [
        "uma",
        -9.344591093329091
      ],
      [
        "tan",
        -9.346749466241269
      ],
      [
        "bel",
        -9.347601335921675
      ],
      [
        "Ġmercado",
        -9.34803668631717
      ],
      [
        "Ġ2003",
        -9.348842358617018
      ],
      [
        "ĠÃ©poca",
        -9.349053539221623
      ],
      [
        "serÃ£o",
        -9.353815192794722
      ],
      [
        "Ġfilho",
        -9.353995423800123
      ],
      [
        "ĠSegundo",
        -9.355965035971764
      ],
      [
        "Ġmal",
        -9.35612077311414
      ],
      [
        "AlÃ©m",
        -9.357393743646965
      ],
      [
        "ĠPer",
        -9.3576838059218
      ],
      [
        "ĠPP",
        -9.357780513803668
      ],
      [
        "ĠFilho",
        -9.360423690408094
      ],
      [
        "iano",
        -9.360909780571475
      ],
      [
        "ĠAgora",
        -9.361239324653296
      ],
      [
        "Ġinclusive",
        -9.362482489194678
      ],
      [
        "Ġ2015",
        -9.362722547749186
      ],
      [
        "PTB",
        -9.362792306480404
      ],
      [
        "97",
        -9.363004542941198
      ],
      [
        "Ġdados",
        -9.36338079321583
      ],
      [
        "eram",
        -9.363559453313604
      ],
      [
        "2007",
        -9.364324225513796
      ],
      [
        "ento",
        -9.364389024093407
      ],
      [
        "Ġatividade",
        -9.365462963818649
      ],
      [
        "Ġgeral",
        -9.366416260245163
      ],
      [
        "ĠEM",
        -9.36852882968699
      ],
      [
        "Ġfosse",
        -9.370885386168396
      ],
      [
        "Ġcara",
        -9.37109397408022
      ],
      [
        "agem",
        -9.37127175445975
      ],
      [
        "Ġfala",
        -9.371630028819585
      ],
      [
        "nho",
        -9.372803083635846
      ],
      [
        "ano",
        -9.373217184054884
      ],
      [
        "radiodifusÃ£o",
        -9.376716329765731
      ],
      [
        "Ġpagamento",
        -9.37774164721676
      ],
      [
        "Ġquase",
        -9.37828329710334
      ],
      [
        "LA",
        -9.378306912526885
      ],
      [
        "Ġqualidade",
        -9.380168297727966
      ],
      [
        "nas",
        -9.380900811109948
      ],
      [
        "Ġlegal",
        -9.381499051625648
      ],
      [
        "Ġobra",
        -9.382039327231174
      ],
      [
        "Ġmar",
        -9.38331111598866
      ],
      [
        "ĠPA",
        -9.384621002306648
      ],
      [
        "STF",
        -9.38534387372336
      ],
      [
        "Ġpelas",
        -9.385949087949117
      ],
      [
        "Ġnecessidade",
        -9.387928741413695
      ],
      [
        "ĠDeus",
        -9.388163175723534
      ],
      [
        "cada",
        -9.389046647747962
      ],
      [
        "28",
        -9.390255373162304
      ],
      [
        "Ġalgumas",
        -9.390662927982977
      ],
      [
        "Ġcrime",
        -9.391585158901044
      ],
      [
        "ĠMan",
        -9.39185410502666
      ],
      [
        "2010",
        -9.39334697718792
      ],
      [
        "ĠMA",
        -9.39742269429059
      ],
      [
        "Ġminutos",
        -9.400168360779926
      ],
      [
        "Ġpoderia",
        -9.401044685993693
      ],
      [
        "Ġboa",
        -9.401497914353474
      ],
      [
        "ĠVI",
        -9.401962952035683
      ],
      [
        "Ġmaioria",
        -9.402338285137995
      ],
      [
        "entes",
        -9.402941300154392
      ],
      [
        "29",
        -9.404740363664713
      ],
      [
        "para",
        -9.40487441429317
      ],
      [
        "Ġ2014",
        -9.405872485285611
      ],
      [
        "95",
        -9.406508239144118
      ],
      [
        ".âĢĿ",
        -9.406941347317954
      ],
      [
        "bol",
        -9.408961103558156
      ],
      [
        "ĠpolÃŃtico",
        -9.411398274900584
      ],
      [
        "ĠCha",
        -9.411673008745202
      ],
      [
        "Ġinteresse",
        -9.412487726576302
      ],
      [
        "Ġesses",
        -9.412736650218967
      ],
      [
        "ĠCiÃªncia",
        -9.413018244794245
      ],
      [
        "Ġpartido",
        -9.413827561426276
      ],
      [
        "Ġdinheiro",
        -9.41519882828602
      ],
      [
        "Ġcerto",
        -9.416396820153508
      ],
      [
        "Ġmodo",
        -9.416910608450204
      ],
      [
        "Ġconhecido",
        -9.417931668739843
      ],
      [
        "Ġres",
        -9.418748400610465
      ],
      [
        "AÃĩÃĥO",
        -9.41886601455155
      ],
      [
        "ĠSua",
        -9.41897798485472
      ],
      [
        "Ġfr",
        -9.419708227796738
      ],
      [
        "Ġpossa",
        -9.422981081330562
      ],
      [
        "ĠVal",
        -9.42499831778803
      ],
      [
        "Ġrequerimento",
        -9.425671765587728
      ],
      [
        "Ġdele",
        -9.425925645266949
      ],
      [
        "ĠSE",
        -9.42650240607581
      ],
      [
        "tem",
        -9.427752374126849
      ],
      [
        "PR",
        -9.428084709702684
      ],
      [
        "aumento",
        -9.42813776659055
      ],
      [
        "Ġci",
        -9.428777392905848
      ],
      [
        "Ġ50",
        -9.429715056598456
      ],
      [
        "ĠHÃ¡",
        -9.4300062747745
      ],
      [
        "iga",
        -9.43016893656449
      ],
      [
        "Ġatual",
        -9.430806610971146
      ],
      [
        "ff",
        -9.431060123981824
      ],
      [
        "Ġpassa",
        -9.431346454411353
      ],
      [
        "Ġnesse",
        -9.43147420285992
      ],
      [
        "altera",
        -9.431811190684565
      ],
      [
        "nÃŃvel",
        -9.433778572393528
      ],
      [
        "99",
        -9.435058057426296
      ],
      [
        "Ġ2016",
        -9.43513950930556
      ],
      [
        "Ġemenda",
        -9.43543048128754
      ],
      [
        "Ġensino",
        -9.435770801958263
      ],
      [
        "Ġautor",
        -9.436166446489828
      ],
      [
        "Ġjunto",
        -9.43686826309678
      ],
      [
        "Ġdeixar",
        -9.437200879492936
      ],
      [
        "ĠNova",
        -9.43742475900876
      ],
      [
        "ĠCr",
        -9.437696303572984
      ],
      [
        "let",
        -9.43780863216605
      ],
      [
        "https",
        -9.43928934822699
      ],
      [
        "agravo",
        -9.439622219715464
      ],
      [
        "Ġnuma",
        -9.440094903093296
      ],
      [
        "Ġnorte",
        -9.44043466719301
      ],
      [
        "til",
        -9.440580175921196
      ],
      [
        "88",
        -9.4430668124673
      ],
      [
        "45",
        -9.443323911212628
      ],
      [
        ");",
        -9.44370490032817
      ],
      [
        "ĠBu",
        -9.44438577055128
      ],
      [
        "Ġreforma",
        -9.44546209136937
      ],
      [
        "ĠprÃ¡tica",
        -9.446917660916322
      ],
      [
        "anÃ¡lise",
        -9.448203716270974
      ],
      [
        "ĠreuniÃ£o",
        -9.448247338126386
      ],
      [
        "ĠÃºltima",
        -9.449680076508876
      ],
      [
        "Ġcampo",
        -9.45072187485499
      ],
      [
        "ĠAssim",
        -9.451514361713263
      ],
      [
        "ago",
        -9.451547297527654
      ],
      [
        "ĠPrograma",
        -9.451797874911165
      ],
      [
        "ĠmÃ£e",
        -9.452842232581524
      ],
      [
        "Ġnoite",
        -9.453146061310084
      ],
      [
        "ĠLula",
        -9.454682549039584
      ],
      [
        "elo",
        -9.455227230112484
      ],
      [
        "tina",
        -9.455639557950107
      ],
      [
        "Ġmuitas",
        -9.45566061749705
      ],
      [
        "ĠParecer",
        -9.457648754998347
      ],
      [
        "ĠLÃŃder",
        -9.458727873511942
      ],
      [
        "somente",
        -9.45928725121327
      ],
      [
        "iva",
        -9.459933239550208
      ],
      [
        "redaÃ§Ã£o",
        -9.461137282984836
      ],
      [
        "entanto",
        -9.461877493048863
      ],
      [
        "96",
        -9.462851155891611
      ],
      [
        "Ġsuperior",
        -9.463911775002613
      ],
      [
        "ĠNi",
        -9.464271577821153
      ],
      [
        "ice",
        -9.464922527235457
      ],
      [
        "ĠLegislativo",
        -9.465648076581264
      ],
      [
        "ĠTi",
        -9.466426995336064
      ],
      [
        "dado",
        -9.46712325509928
      ],
      [
        "Ġregime",
        -9.46729440934673
      ],
      [
        "Ġhomem",
        -9.467677973756263
      ],
      [
        "ĠparticipaÃ§Ã£o",
        -9.468107543968308
      ],
      [
        "ĠPÃºblica",
        -9.468756288259748
      ],
      [
        "ĠBar",
        -9.4690096783734
      ],
      [
        "net",
        -9.470527200476008
      ],
      [
        "BA",
        -9.47108573224101
      ],
      [
        "27",
        -9.472195456989464
      ],
      [
        "ĠThe",
        -9.473248256343592
      ],
      [
        "26",
        -9.473711531888007
      ],
      [
        "Ġqu",
        -9.47522689010006
      ],
      [
        "Ġproduto",
        -9.476890481872497
      ],
      [
        "Ġcontrole",
        -9.478061516923963
      ],
      [
        "Ġoficial",
        -9.478425556086028
      ],
      [
        "Ġtarde",
        -9.478957911075447
      ],
      [
        "ĠcrÃ©dito",
        -9.479634241578404
      ],
      [
        "Ġlongo",
        -9.479800243119811
      ],
      [
        "ĠPE",
        -9.47994906127663
      ],
      [
        "ĠFernando",
        -9.481453441566668
      ],
      [
        "OR",
        -9.481562279908283
      ],
      [
        "Ġsetor",
        -9.484398779821973
      ],
      [
        "Ġgra",
        -9.484883734105503
      ],
      [
        "Ġgrandes",
        -9.485671396581298
      ],
      [
        "2012",
        -9.48641904502679
      ],
      [
        "Ġ100",
        -9.487282574039911
      ],
      [
        "ĠSÃ³",
        -9.488229591070716
      ],
      [
        "ega",
        -9.48848659039406
      ],
      [
        "ĠAssociaÃ§Ã£o",
        -9.490130160304211
      ],
      [
        "ĠCOM",
        -9.492380614447848
      ],
      [
        "mas",
        -9.492660953740764
      ],
      [
        "ĠRoberto",
        -9.492784004443418
      ],
      [
        "ĠHi",
        -9.492927661788883
      ],
      [
        "ĠWi",
        -9.493012197872448
      ],
      [
        "ĠlegislaÃ§Ã£o",
        -9.493489412343369
      ],
      [
        "2016",
        -9.494817619428288
      ],
      [
        "ĠTrabalho",
        -9.49488483351186
      ],
      [
        "ĠDes",
        -9.495299054431731
      ],
      [
        "ĠPl",
        -9.49749829902756
      ],
      [
        "EIRA",
        -9.497865561256557
      ],
      [
        "Ġacho",
        -9.498135934690383
      ],
      [
        "tando",
        -9.498372064833603
      ],
      [
        "Ġjulgamento",
        -9.49921676744623
      ],
      [
        "Ġsaber",
        -9.50146201818823
      ],
      [
        "emos",
        -9.501936286537452
      ],
      [
        "Ġcontrato",
        -9.503165329028803
      ],
      [
        "Ġpreciso",
        -9.503946157207404
      ],
      [
        "ĠpublicaÃ§Ã£o",
        -9.504045477079108
      ],
      [
        "IO",
        -9.504594059103733
      ],
      [
        "IM",
        -9.506630838843297
      ],
      [
        "Ġfeita",
        -9.507188755580648
      ],
      [
        "passou",
        -9.50784350027014
      ],
      [
        "ĠMaia",
        -9.509164848745383
      ],
      [
        "Ġinc",
        -9.510234688803529
      ],
      [
        "Ġessas",
        -9.511932601953411
      ],
      [
        "Ġbrasileiros",
        -9.512117233437174
      ],
      [
        "Ġformula",
        -9.514212682742452
      ],
      [
        "ĠBem",
        -9.514456749263612
      ],
      [
        "Ġdez",
        -9.515231540641786
      ],
      [
        "relatÃ³rio",
        -9.515282009922805
      ],
      [
        "ĠextraordinÃ¡rio",
        -9.517304145392751
      ],
      [
        "Ġprova",
        -9.517557093191206
      ],
      [
        "vel",
        -9.51860198147656
      ],
      [
        "90",
        -9.519777846518265
      ],
      [
        "NT",
        -9.52005405001864
      ],
      [
        "46",
        -9.52171872758397
      ],
      [
        "vis",
        -9.522236970876582
      ],
      [
        "Ġconstante",
        -9.525551650835975
      ],
      [
        "24",
        -9.527120411583043
      ],
      [
        "Ġenergia",
        -9.527608595934478
      ],
      [
        "conjunto",
        -9.528006782576124
      ],
      [
        "realizaÃ§Ã£o",
        -9.528147660547246
      ],
      [
        "nico",
        -9.528239784052252
      ],
      [
        "mulheres",
        -9.528896597145112
      ],
      [
        "ĠconstruÃ§Ã£o",
        -9.5296974959817
      ],
      [
        "mÃŃnimo",
        -9.530723829469755
      ],
      [
        "ĠCor",
        -9.531617704107756
      ],
      [
        "ĠespÃ©cie",
        -9.532538290658144
      ],
      [
        "ĠPortugal",
        -9.533217999365052
      ],
      [
        "ong",
        -9.534119773032527
      ],
      [
        "Ġpossui",
        -9.535672807606886
      ],
      [
        "Ġhora",
        -9.535834614165582
      ],
      [
        "land",
        -9.535854486415822
      ],
      [
        "her",
        -9.535983989900584
      ],
      [
        "01",
        -9.538947487338366
      ],
      [
        "Ġmaneira",
        -9.53912906007847
      ],
      [
        "2014",
        -9.539214287680926
      ],
      [
        "ĠMarco",
        -9.539810989432906
      ],
      [
        "ĠcrianÃ§as",
        -9.53983958453242
      ],
      [
        "23",
        -9.54073418431929
      ],
      [
        "ĠÃ¡lbum",
        -9.540883652423888
      ],
      [
        "ĠdiscussÃ£o",
        -9.542163547966126
      ],
      [
        "poderÃ¡",
        -9.543628641593427
      ],
      [
        "vÃ¡rias",
        -9.543658787425208
      ],
      [
        "ĠSan",
        -9.54389024232156
      ],
      [
        "economia",
        -9.544089981369565
      ],
      [
        "ĠediÃ§Ã£o",
        -9.544470967704628
      ],
      [
        "Ġdebate",
        -9.544756235272883
      ],
      [
        "Ġparece",
        -9.54483873273642
      ],
      [
        "tec",
        -9.545070014939943
      ],
      [
        "ologia",
        -9.54524004931421
      ],
      [
        "ĠnecessÃ¡rio",
        -9.545992111800624
      ],
      [
        "Ġtal",
        -9.54612328581545
      ],
      [
        "ĠMinas",
        -9.546295023514103
      ],
      [
        "Partido",
        -9.546508935189983
      ],
      [
        "lan",
        -9.54694281999301
      ],
      [
        "ĠBr",
        -9.547172925708834
      ],
      [
        "ĠMesa",
        -9.54787677523131
      ],
      [
        "Ġvir",
        -9.547987926593178
      ],
      [
        "Ġfrente",
        -9.548279520123296
      ],
      [
        "ĠDEM",
        -9.549519438847026
      ],
      [
        "Ġ54",
        -9.54997069242856
      ],
      [
        "Ġassunto",
        -9.550450077046984
      ],
      [
        "Ġprincipalmente",
        -9.550501087071062
      ],
      [
        "Ġchamado",
        -9.551100438518027
      ],
      [
        "possibilidade",
        -9.551819339424696
      ],
      [
        "legislativa",
        -9.553347166706065
      ],
      [
        "Ġpar",
        -9.553570185759432
      ],
      [
        "ĠEstou",
        -9.554124285465424
      ],
      [
        "â",
        -9.554243807019276
      ],
      [
        "Ġlinha",
        -9.554832174209146
      ],
      [
        "IA",
        -9.556117232533126
      ],
      [
        "ĠRi",
        -9.556422350119828
      ],
      [
        "Í",
        -9.55671519253253
      ],
      [
        "ĠDesenvolvimento",
        -9.557441631282067
      ],
      [
        "ĠTr",
        -9.557822337741545
      ],
      [
        "ĠespaÃ§o",
        -9.55811995575585
      ],
      [
        "Ġpapel",
        -9.558261737126887
      ],
      [
        "Ġfica",
        -9.559591779096047
      ],
      [
        "Ġforte",
        -9.559594967254908
      ],
      [
        "Ġmuitos",
        -9.56043698499927
      ],
      [
        "sim",
        -9.560481123861624
      ],
      [
        "Ġestrutura",
        -9.56164890740312
      ],
      [
        "ĠFrancisco",
        -9.56205344743874
      ],
      [
        "ĠNorte",
        -9.562060655986452
      ],
      [
        "ĠAb",
        -9.56237959863446
      ],
      [
        "ĠvÃ£o",
        -9.562735926825969
      ],
      [
        "Ġcorpo",
        -9.56304388824785
      ],
      [
        "\")",
        -9.563055221715782
      ],
      [
        "ĠCO",
        -9.564967719528749
      ],
      [
        "Ġ40",
        -9.565565140116457
      ],
      [
        "presenÃ§a",
        -9.567851325375258
      ],
      [
        "ĠDJ",
        -9.568227061646306
      ],
      [
        "reais",
        -9.568431894476443
      ],
      [
        "ĠPode",
        -9.571212960147044
      ],
      [
        "Ġreal",
        -9.571867150823763
      ],
      [
        "ĠSP",
        -9.572055460313804
      ],
      [
        "Ġcapital",
        -9.572096498034696
      ],
      [
        "Ġapresenta",
        -9.57227288845525
      ],
      [
        "Ġhouve",
        -9.572662088759518
      ],
      [
        "Ġ32",
        -9.572833083527843
      ],
      [
        "Ġ33",
        -9.57305447024994
      ],
      [
        "ĠIV",
        -9.573784834664387
      ],
      [
        "Ġproblemas",
        -9.57407368415429
      ],
      [
        "Ġterra",
        -9.5745145717156
      ],
      [
        "ĠAG",
        -9.575918312416414
      ],
      [
        "Ġbanda",
        -9.580554364210926
      ],
      [
        "atividades",
        -9.58059529380193
      ],
      [
        "ell",
        -9.581453813320048
      ],
      [
        "concessÃ£o",
        -9.581659444113576
      ],
      [
        "dÃ©cada",
        -9.581870932630178
      ],
      [
        "zada",
        -9.581937703143502
      ],
      [
        "#",
        -9.582501211738188
      ],
      [
        "MunicÃŃpios",
        -9.585133224248873
      ],
      [
        "Ġconhecimento",
        -9.585206726294423
      ],
      [
        "Ġlhe",
        -9.58535353769263
      ],
      [
        "Ġprofessor",
        -9.585643477931978
      ],
      [
        "Ġalguma",
        -9.586291437037756
      ],
      [
        "prÃ³ximo",
        -9.586910969485588
      ],
      [
        "aprovado",
        -9.587476988260075
      ],
      [
        "rin",
        -9.587705367438968
      ],
      [
        "Ġposso",
        -9.58813639571874
      ],
      [
        "sejam",
        -9.588635473659656
      ],
      [
        "cado",
        -9.58877562140767
      ],
      [
        "tel",
        -9.589052674327814
      ],
      [
        "execuÃ§Ã£o",
        -9.589388641564875
      ],
      [
        "zado",
        -9.589843993477205
      ],
      [
        "Ġencontra",
        -9.590818448677782
      ],
      [
        "Ġbusca",
        -9.591783006496923
      ],
      [
        "Ġembora",
        -9.594747424656394
      ],
      [
        "press",
        -9.5948852314937
      ],
      [
        "Ġcoisas",
        -9.594994632826372
      ],
      [
        "ĠRIC",
        -9.595164771940876
      ],
      [
        "responsabilidade",
        -9.597223409599964
      ],
      [
        "Ġlivro",
        -9.599088953309222
      ],
      [
        "Ġoportunidade",
        -9.599225694230077
      ],
      [
        "Ġpassado",
        -9.59939928732269
      ],
      [
        "Ġdeveria",
        -9.599541529627096
      ],
      [
        "COMISSÃĥO",
        -9.600809257099996
      ],
      [
        "Ġ2017",
        -9.600880644876236
      ],
      [
        "ĠCam",
        -9.6013560525161
      ],
      [
        "ment",
        -9.602886880756811
      ],
      [
        "ĠFl",
        -9.606830707862883
      ],
      [
        "ĠcompetÃªncia",
        -9.607621240504926
      ],
      [
        "Ġ:)",
        -9.60772790584392
      ],
      [
        "ĠfunÃ§Ã£o",
        -9.607771643899149
      ],
      [
        "FI",
        -9.6078620604961
      ],
      [
        "Ġalgum",
        -9.609838081292914
      ],
      [
        "ĠimportÃ¢ncia",
        -9.611028578354276
      ],
      [
        "Ã¡ria",
        -9.611139465528616
      ],
      [
        "dade",
        -9.61148499564092
      ],
      [
        "ĠmÃ©dia",
        -9.612460551876
      ],
      [
        "ĠApÃ³s",
        -9.613448501741557
      ],
      [
        "Distrito",
        -9.613500008749725
      ],
      [
        "ĠSeu",
        -9.615283953905577
      ],
      [
        "enti",
        -9.61643818677307
      ],
      [
        "previsto",
        -9.61820896559546
      ],
      [
        "ĠAntonio",
        -9.618223109753153
      ],
      [
        "RECURSO",
        -9.618327611510995
      ],
      [
        "Defesa",
        -9.6198272562231
      ],
      [
        "ĠCivil",
        -9.621331630406385
      ],
      [
        "Ġmulher",
        -9.62172192234295
      ],
      [
        "Ġrepresenta",
        -9.621823759095552
      ],
      [
        "disposto",
        -9.621900440576274
      ],
      [
        "gado",
        -9.622201362217217
      ],
      [
        "ĠEst",
        -9.623496622494471
      ],
      [
        "ĠCol",
        -9.623542365440848
      ],
      [
        "&",
        -9.624210147598946
      ],
      [
        "22",
        -9.624549542970442
      ],
      [
        "Ġajuda",
        -9.625029254266028
      ],
      [
        "zer",
        -9.626976669434146
      ],
      [
        "*",
        -9.62757411162
      ],
      [
        "portanto",
        -9.627603417607874
      ],
      [
        "Ġlista",
        -9.629092883085242
      ],
      [
        "):",
        -9.629121978877327
      ],
      [
        "Ģ",
        -9.6306159895959
      ],
      [
        "ĠBen",
        -9.630761752136166
      ],
      [
        "gan",
        -9.63160074382432
      ],
      [
        "cÃ³rdÃ£o",
        -9.632078527500267
      ],
      [
        "discussÃ£o",
        -9.632610056910623
      ],
      [
        "nada",
        -9.63354376789359
      ],
      [
        "sociais",
        -9.634300880004195
      ],
      [
        "ĠEMENDA",
        -9.634528702001944
      ],
      [
        "Ġtema",
        -9.636266816639369
      ],
      [
        "Presidente",
        -9.636818644844038
      ],
      [
        "Ġgente",
        -9.638290583949413
      ],
      [
        "Ġmodelo",
        -9.638642238373048
      ],
      [
        "Ġqueria",
        -9.638771271714948
      ],
      [
        "Ġescola",
        -9.639233297429788
      ],
      [
        "Geral",
        -9.640270907848496
      ],
      [
        "ĠTecnologia",
        -9.640978582319589
      ],
      [
        "Ġali",
        -9.641672512087329
      ],
      [
        "Â",
        -9.642472475275197
      ],
      [
        "Ġ1990",
        -9.64481631564758
      ],
      [
        "Ġpessoal",
        -9.64660747798339
      ],
      [
        "Ġ2020",
        -9.646862356115635
      ],
      [
        "ĠmudanÃ§a",
        -9.647175607277395
      ],
      [
        "Ġsolicita",
        -9.6479178916407
      ],
      [
        "risco",
        -9.648311451281485
      ],
      [
        "mÃªs",
        -9.64861485127442
      ],
      [
        "GO",
        -9.64862253423833
      ],
      [
        "laÃ§Ã£o",
        -9.649042914808303
      ],
      [
        "rÃ£o",
        -9.64978304924465
      ],
      [
        "Ġdar",
        -9.650496174325928
      ],
      [
        "ĠPrimeira",
        -9.653203892837189
      ],
      [
        "Ġbo",
        -9.653270856502832
      ],
      [
        "Ġ2002",
        -9.65403667354048
      ],
      [
        "exame",
        -9.654217600562944
      ],
      [
        "Â²",
        -9.654492006744867
      ],
      [
        "iniciativa",
        -9.654518055446236
      ],
      [
        "ĠSal",
        -9.654879867754907
      ],
      [
        "Ġlogo",
        -9.654941150096782
      ],
      [
        "Ġvia",
        -9.655195475419257
      ],
      [
        "Ġmarca",
        -9.655499263805549
      ],
      [
        "ĠComunicaÃ§Ã£o",
        -9.655572364530874
      ],
      [
        "DEM",
        -9.65588538699219
      ],
      [
        "podemos",
        -9.655976737410509
      ],
      [
        "ĠinglÃªs",
        -9.656905467484806
      ],
      [
        "ĠPar",
        -9.658188861458006
      ],
      [
        "ServiÃ§o",
        -9.658209143172575
      ],
      [
        "ĠVice",
        -9.659010540950003
      ],
      [
        "ĠBrasileiro",
        -9.65998354568108
      ],
      [
        "Ġnenhum",
        -9.660677280655156
      ],
      [
        "Ġentra",
        -9.6608433431268
      ],
      [
        "2005",
        -9.661208383818076
      ],
      [
        "Ġ2019",
        -9.661306737534312
      ],
      [
        "ias",
        -9.661427642378449
      ],
      [
        "Campeonato",
        -9.662015087899638
      ],
      [
        "Ġficou",
        -9.665107264295166
      ],
      [
        "prevista",
        -9.665857793919084
      ],
      [
        "nessa",
        -9.66684013644938
      ],
      [
        "ĠREQUERIMENTO",
        -9.666859245363549
      ],
      [
        "carreira",
        -9.66788970593181
      ],
      [
        "isto",
        -9.667897766623703
      ],
      [
        "ã",
        -9.668628153052229
      ],
      [
        "cionais",
        -9.669170160503096
      ],
      [
        "ĠpÃ¡gina",
        -9.66982493255453
      ],
      [
        "ĠCorte",
        -9.669897419919993
      ],
      [
        "Ã¡veis",
        -9.669978427484256
      ],
      [
        "membros",
        -9.670784257513764
      ],
      [
        "mÃ©rito",
        -9.670976295495432
      ],
      [
        "ĠObrigado",
        -9.671520098718208
      ],
      [
        "ley",
        -9.672361261071233
      ],
      [
        "ĠprincÃŃpio",
        -9.672778676859274
      ],
      [
        "Ġefeito",
        -9.674133202967726
      ],
      [
        "ĠGi",
        -9.676543656054918
      ],
      [
        "Ġprofissional",
        -9.676774487303282
      ],
      [
        "Ġtemporada",
        -9.678508850134593
      ],
      [
        "ĠInstituto",
        -9.67891283345133
      ],
      [
        "Ġexiste",
        -9.680407452324484
      ],
      [
        "gem",
        -9.681147552198574
      ],
      [
        "jurÃŃdica",
        -9.682509693655906
      ],
      [
        "bilhÃµes",
        -9.682933295920323
      ],
      [
        "ĠCan",
        -9.682991667095594
      ],
      [
        "discurso",
        -9.68325370485464
      ],
      [
        "Ġsenhor",
        -9.683386662299997
      ],
      [
        "ĠAmÃ©rica",
        -9.683660698028206
      ],
      [
        "Ġanterior",
        -9.685344595131518
      ],
      [
        "ĠExcelÃªncia",
        -9.686118750694614
      ],
      [
        "nica",
        -9.686415885131243
      ],
      [
        "80",
        -9.686480842032717
      ],
      [
        "ĠCosta",
        -9.68706185638792
      ],
      [
        "Ã¢mbito",
        -9.687956684339015
      ],
      [
        "TambÃ©m",
        -9.6883217621428
      ],
      [
        "Ġvigor",
        -9.689258787929612
      ],
      [
        "tornou",
        -9.690036754580712
      ],
      [
        "60",
        -9.690161113053836
      ],
      [
        "requer",
        -9.690760876511954
      ],
      [
        "obras",
        -9.690872685155997
      ],
      [
        "Ġ2000",
        -9.691467014770144
      ],
      [
        "2019",
        -9.691899569560968
      ],
      [
        "ĠCunha",
        -9.693241159597894
      ],
      [
        "Ġrei",
        -9.693528974590992
      ],
      [
        "ĠCh",
        -9.693645311144977
      ],
      [
        "Ġcampanha",
        -9.69364535475036
      ],
      [
        "posiÃ§Ãµes",
        -9.694030009064386
      ],
      [
        "mandato",
        -9.69419908300397
      ],
      [
        "Ġpauta",
        -9.694585633030393
      ],
      [
        "serem",
        -9.69531558075126
      ],
      [
        "ĠRel",
        -9.695405048602009
      ],
      [
        "ĠRequerimento",
        -9.695540725467804
      ],
      [
        "Ġchegar",
        -9.69609470264014
      ],
      [
        "Ġcerteza",
        -9.698556673264232
      ],
      [
        "comeÃ§ou",
        -9.69955271657014
      ],
      [
        "ĠquÃª",
        -9.70044301177493
      ],
      [
        "Ġtransporte",
        -9.7008190332007
      ],
      [
        "MENTO",
        -9.70086793928848
      ],
      [
        "Ġteria",
        -9.70103609531452
      ],
      [
        "tic",
        -9.70105988337482
      ],
      [
        "ĠCON",
        -9.701193498078544
      ],
      [
        "Ġtitular",
        -9.70319144169348
      ],
      [
        "Depois",
        -9.70328330236833
      ],
      [
        "Ġsuper",
        -9.703674482595716
      ],
      [
        "Ġprojetos",
        -9.705247424814733
      ],
      [
        "vida",
        -9.706260274234614
      ],
      [
        "ÃļLTI",
        -9.70664189194972
      ],
      [
        "Ġfederal",
        -9.70753475891106
      ],
      [
        "Ġhaver",
        -9.707601251788176
      ],
      [
        "Ġresultado",
        -9.707715271154726
      ],
      [
        "Ġalta",
        -9.707774239233776
      ],
      [
        "Ġoriginal",
        -9.707803910769142
      ],
      [
        "Ġcentro",
        -9.708671493343784
      ],
      [
        "Ġinfra",
        -9.708696647249178
      ],
      [
        "Ġsede",
        -9.70875423224198
      ],
      [
        "ĠGuerra",
        -9.708847950427336
      ],
      [
        "cap",
        -9.709039103429156
      ],
      [
        "valores",
        -9.70953959454635
      ],
      [
        "econÃ´mica",
        -9.710118998700132
      ],
      [
        "ĠaplicaÃ§Ã£o",
        -9.710967990142484
      ],
      [
        "ĠalguÃ©m",
        -9.71100700476492
      ],
      [
        "Ġ2001",
        -9.711630923656005
      ],
      [
        "Ã¼",
        -9.71275704243712
      ],
      [
        "Ġrealizado",
        -9.71325523276719
      ],
      [
        "Ã§",
        -9.713938320864624
      ],
      [
        "ĠterritÃ³rio",
        -9.714157357730826
      ],
      [
        "iana",
        -9.71512793763129
      ],
      [
        "Ġprincipais",
        -9.71571761765677
      ],
      [
        "enda",
        -9.715718431207575
      ],
      [
        "Ġaquele",
        -9.716151220039755
      ],
      [
        "ĠCopa",
        -9.716386474911012
      ],
      [
        "Ġfo",
        -9.716503615716878
      ],
      [
        "ĠSecretaria",
        -9.717653407313993
      ],
      [
        "Ġsal",
        -9.718033569406034
      ],
      [
        "pÃ©",
        -9.718311575187265
      ],
      [
        "ego",
        -9.719574546767747
      ],
      [
        "ÃĩÃķES",
        -9.72094441986716
      ],
      [
        "ĠRos",
        -9.72114147001018
      ],
      [
        "Ġmovimento",
        -9.721460602863276
      ],
      [
        "ĠRu",
        -9.721916190630616
      ],
      [
        "CN",
        -9.723055470533865
      ],
      [
        "ilha",
        -9.723234393402366
      ],
      [
        "Ã³rgÃ£o",
        -9.723774676004318
      ],
      [
        "Î",
        -9.723934665598714
      ],
      [
        "CURSO",
        -9.724467268607803
      ],
      [
        "Ġclaro",
        -9.72507294194953
      ],
      [
        "ĠEspecial",
        -9.725575821573004
      ],
      [
        "nÃ£o",
        -9.725913898784077
      ],
      [
        "Ġrenda",
        -9.726316215733611
      ],
      [
        "comunicaÃ§Ã£o",
        -9.726811928511042
      ],
      [
        "Ġnobre",
        -9.726973297379365
      ],
      [
        "Ġautos",
        -9.727193273697194
      ],
      [
        "Ġocorre",
        -9.727517540975928
      ],
      [
        "Ġperde",
        -9.72757511754243
      ],
      [
        "2017",
        -9.728927195111636
      ],
      [
        "ĠinformaÃ§Ã£o",
        -9.728993405447314
      ],
      [
        "ĠTV",
        -9.729143302496604
      ],
      [
        "van",
        -9.729185092953651
      ],
      [
        "Ġideia",
        -9.730091926721636
      ],
      [
        "Ġconsiderado",
        -9.732504830864563
      ],
      [
        "Ġcrise",
        -9.732710818869675
      ],
      [
        "Ġauto",
        -9.733345660530643
      ],
      [
        "21",
        -9.734249736437915
      ],
      [
        "Ġnatureza",
        -9.73573047407986
      ],
      [
        "Ġrefere",
        -9.735797394555895
      ],
      [
        "deverÃ¡",
        -9.738323040655846
      ],
      [
        "Ġpontos",
        -9.738391016544664
      ],
      [
        "apreciaÃ§Ã£o",
        -9.73910104414222
      ],
      [
        "Ġturno",
        -9.740858348031756
      ],
      [
        "..............",
        -9.741134804021735
      ],
      [
        "Ġfase",
        -9.741135725052407
      ],
      [
        "culo",
        -9.74133829324537
      ],
      [
        "Ġins",
        -9.74306687873923
      ],
      [
        "ĠTra",
        -9.746703706700828
      ],
      [
        "Ġlivre",
        -9.747196039184509
      ],
      [
        "ĠatenÃ§Ã£o",
        -9.747332850860763
      ],
      [
        "ĠMIN",
        -9.747742307654164
      ],
      [
        "ĠQuero",
        -9.749521165236498
      ],
      [
        "provimento",
        -9.752338547363522
      ],
      [
        "ĠQuem",
        -9.753985835788887
      ],
      [
        "dora",
        -9.754095456510775
      ],
      [
        "Ordem",
        -9.75445444497618
      ],
      [
        "ĠRicardo",
        -9.754739277923209
      ],
      [
        "ĠEles",
        -9.75538314756177
      ],
      [
        "chegou",
        -9.756663475577314
      ],
      [
        "ĠPI",
        -9.756918342156723
      ],
      [
        "ĠPr",
        -9.757073299175088
      ],
      [
        "Ġ1998",
        -9.7605623619531
      ],
      [
        "70",
        -9.760673019430788
      ],
      [
        "plan",
        -9.76069657932804
      ],
      [
        "ĠSistema",
        -9.76167231915802
      ],
      [
        "Ġautoria",
        -9.762447293284293
      ],
      [
        "ĠAlves",
        -9.762534500339532
      ],
      [
        "essÃµes",
        -9.762666107488911
      ],
      [
        "Ġsucesso",
        -9.764175873337782
      ],
      [
        "ĠSanto",
        -9.76428540276568
      ],
      [
        "Ġdiferentes",
        -9.765365202016
      ],
      [
        "Ġafirma",
        -9.76604909108578
      ],
      [
        "Ġcaput",
        -9.766205070286633
      ],
      [
        "ĠHenrique",
        -9.767315682184956
      ],
      [
        "existÃªncia",
        -9.767435067047831
      ],
      [
        "Ġ2018",
        -9.768520997153717
      ],
      [
        "ĠMINISTR",
        -9.769339667072646
      ],
      [
        "ĠAGRAV",
        -9.76935711208954
      ],
      [
        "Ġ60",
        -9.769400293329731
      ],
      [
        "Ġguerra",
        -9.76964849111658
      ],
      [
        "Ġrede",
        -9.76972715922221
      ],
      [
        "ĠSub",
        -9.771144060457845
      ],
      [
        "Ġrel",
        -9.771516113307484
      ],
      [
        "ĠOh",
        -9.773394442830972
      ],
      [
        "Ġpenal",
        -9.773461972628684
      ],
      [
        "ĠPereira",
        -9.773465779815464
      ],
      [
        "Ġcivil",
        -9.777497694361884
      ],
      [
        "Ġcriar",
        -9.77879019648447
      ],
      [
        "ĠSantos",
        -9.78021692075606
      ],
      [
        "Ġreco",
        -9.780606085900844
      ],
      [
        "idades",
        -9.78310562589259
      ],
      [
        "ĠÃºnica",
        -9.783605807575034
      ],
      [
        "Ġmenor",
        -9.784022839391412
      ],
      [
        "ĠformaÃ§Ã£o",
        -9.784034394156796
      ],
      [
        "ĠDias",
        -9.78411999188738
      ],
      [
        "remos",
        -9.784487195664248
      ],
      [
        "ĠEl",
        -9.78496021423824
      ],
      [
        "rica",
        -9.785247434105669
      ],
      [
        "acima",
        -9.785409626511756
      ],
      [
        "Cidadania",
        -9.785701318599973
      ],
      [
        "Ġseis",
        -9.786108961506516
      ],
      [
        "ara",
        -9.786525762393454
      ],
      [
        "dar",
        -9.787123225813245
      ],
      [
        "Ġfinanceira",
        -9.788269644480874
      ],
      [
        "REG",
        -9.788755361399009
      ],
      [
        "ĠDireito",
        -9.78998777946062
      ],
      [
        "ĠMais",
        -9.790000097652976
      ],
      [
        "PolÃŃcia",
        -9.790060067799152
      ],
      [
        "Ġfiscal",
        -9.790410963344415
      ],
      [
        "Ġref",
        -9.790936487904531
      ],
      [
        "Ġsol",
        -9.7911183058471
      ],
      [
        "cujo",
        -9.79176831073898
      ],
      [
        "Ãį",
        -9.793010602865408
      ],
      [
        "Ġinternacional",
        -9.793035416382027
      ],
      [
        "Ġplano",
        -9.79340235963439
      ],
      [
        "iri",
        -9.793567717639435
      ],
      [
        "Ã³rgÃ£os",
        -9.794377880031744
      ],
      [
        "ĥ",
        -9.79448410986579
      ],
      [
        "Ġvisita",
        -9.795308773952096
      ],
      [
        "Ĥ",
        -9.795784837666076
      ],
      [
        "pensado",
        -9.798833163588045
      ],
      [
        "Ġcomunidade",
        -9.79904283691258
      ],
      [
        "Ġchega",
        -9.79916486503201
      ],
      [
        "trabalhadores",
        -9.800319539955728
      ],
      [
        "ĠGra",
        -9.800385806216044
      ],
      [
        "2006",
        -9.80051240387241
      ],
      [
        "Ġsignifica",
        -9.800522355244151
      ],
      [
        "gestÃ£o",
        -9.801586985866129
      ],
      [
        "bert",
        -9.801721139575337
      ],
      [
        "ĠPorto",
        -9.802708659346182
      ],
      [
        "Medida",
        -9.803850880970304
      ],
      [
        "Ġ35",
        -9.804994277741446
      ],
      [
        "Ġnota",
        -9.805315301925198
      ],
      [
        "ĠSou",
        -9.805913810951958
      ],
      [
        "ĠVa",
        -9.806240748769556
      ],
      [
        "ĠmÃ£o",
        -9.806840716842611
      ],
      [
        "ĠBl",
        -9.806871195592352
      ],
      [
        "ĠreferÃªncia",
        -9.807318604178027
      ],
      [
        "destaque",
        -9.808148965888112
      ],
      [
        "ting",
        -9.80876635439299
      ],
      [
        "tados",
        -9.809000435085554
      ],
      [
        "ĠCE",
        -9.809560426791808
      ],
      [
        "Ġpri",
        -9.80956982337124
      ],
      [
        "ĠDilma",
        -9.80974808796158
      ],
      [
        "mediante",
        -9.809935238613326
      ],
      [
        "Ġautoriza",
        -9.811486228118552
      ],
      [
        "ĠParlamentar",
        -9.811803819388198
      ],
      [
        "ĠposiÃ§Ã£o",
        -9.81275367794168
      ],
      [
        "ĠVou",
        -9.814241391641298
      ],
      [
        "Ġcaminho",
        -9.814893278431104
      ],
      [
        "realmente",
        -9.815119476762048
      ],
      [
        "dura",
        -9.815271731165282
      ],
      [
        "ĠirmÃ£o",
        -9.815367530375491
      ],
      [
        "ĠinstituiÃ§Ãµes",
        -9.81550938230902
      ],
      [
        "leg",
        -9.817404570663438
      ],
      [
        "recebeu",
        -9.818221120423424
      ],
      [
        "ĠHer",
        -9.818430054260674
      ],
      [
        "ĠBanco",
        -9.818446919896028
      ],
      [
        "ĠFu",
        -9.819556736973334
      ],
      [
        "Ġatendimento",
        -9.819929987928276
      ],
      [
        "PP",
        -9.820758692518822
      ],
      [
        "contrÃ¡rio",
        -9.820886315188607
      ],
      [
        "parÃ¡grafo",
        -9.822544959400435
      ],
      [
        "cuja",
        -9.823640227637606
      ],
      [
        "Ġpequeno",
        -9.82367833779091
      ],
      [
        "ĠPSD",
        -9.826594035475235
      ],
      [
        "ĠMato",
        -9.82738439160857
      ],
      [
        "ĠEra",
        -9.828030325883658
      ],
      [
        "ĠNesse",
        -9.82937435528045
      ],
      [
        "IDADE",
        -9.829517345934043
      ],
      [
        "ĠSol",
        -9.830435704863486
      ],
      [
        "Ġporta",
        -9.830692562477775
      ],
      [
        "ĠDis",
        -9.831739309005147
      ],
      [
        "category",
        -9.832189597581047
      ],
      [
        "ĠHistÃ³ria",
        -9.832350204618214
      ],
      [
        "Ġsul",
        -9.832353702787252
      ],
      [
        "Ġdesses",
        -9.833398409207252
      ],
      [
        "ĠEntre",
        -9.833650212638464
      ],
      [
        "eve",
        -9.834792444291049
      ],
      [
        "ĠMeu",
        -9.836031369603774
      ],
      [
        "gio",
        -9.836361097431476
      ],
      [
        "Ġclube",
        -9.836626394830214
      ],
      [
        "ĠNos",
        -9.836857265567012
      ],
      [
        "Ġresposta",
        -9.837548273386169
      ],
      [
        "har",
        -9.837770695909132
      ],
      [
        "Ġmanter",
        -9.838511210814763
      ],
      [
        "Ġeleito",
        -9.83913155890715
      ],
      [
        "Ġcultura",
        -9.839267465640985
      ],
      [
        "ĠlanÃ§ado",
        -9.840369490206887
      ],
      [
        "critÃ©rio",
        -9.841095814928526
      ],
      [
        "ĠMarcelo",
        -9.84237831745494
      ],
      [
        "violÃªncia",
        -9.84291161465752
      ],
      [
        "ĠFundo",
        -9.844914515843532
      ],
      [
        "Gerais",
        -9.844954300583764
      ],
      [
        "ĠHu",
        -9.84517064724923
      ],
      [
        "tÃ³ria",
        -9.845363523941636
      ],
      [
        "Durante",
        -9.846331555021948
      ],
      [
        "Ġcapacidade",
        -9.84759284094129
      ],
      [
        "Ġmeta",
        -9.84807837038174
      ],
      [
        "Ġliberdade",
        -9.850150757435474
      ],
      [
        "lei",
        -9.85048351787313
      ],
      [
        "Ġreuni",
        -9.85163316436302
      ],
      [
        "preÃ§o",
        -9.852469643710895
      ],
      [
        "PAULO",
        -9.852473479883937
      ],
      [
        "Ġcriado",
        -9.852707049717727
      ],
      [
        "ĠRosa",
        -9.852891913535377
      ],
      [
        "ĠADV",
        -9.853160126606916
      ],
      [
        "ĠRÃ¡dio",
        -9.853564153866431
      ],
      [
        "Ġdela",
        -9.853960628710722
      ],
      [
        "Ġnovos",
        -9.854309851168312
      ],
      [
        "homens",
        -9.855924581373571
      ],
      [
        "ĠPRO",
        -9.856352364206389
      ],
      [
        "ĠBahia",
        -9.856858842948077
      ],
      [
        "ĠBR",
        -9.857106845280796
      ],
      [
        "Ġdisputa",
        -9.859199063996568
      ],
      [
        "Ġagr",
        -9.859426624638465
      ],
      [
        "ĠBrasileira",
        -9.859462825483272
      ],
      [
        "ty",
        -9.85996502384664
      ],
      [
        "Ġdiversos",
        -9.860796154793295
      ],
      [
        "Ġexecutar",
        -9.861462679239274
      ],
      [
        "ĠJorge",
        -9.86243002874366
      ],
      [
        "proteÃ§Ã£o",
        -9.8631436120702
      ],
      [
        "cido",
        -9.863180018401833
      ],
      [
        "ÃŃstica",
        -9.86322530142122
      ],
      [
        "ĠresponsÃ¡vel",
        -9.864406617384832
      ],
      [
        "Ġterceiro",
        -9.864439868571122
      ],
      [
        "Ġmaterial",
        -9.864627448605605
      ],
      [
        "Ġvotar",
        -9.864817065811476
      ],
      [
        "rico",
        -9.865751341456011
      ],
      [
        "ĠLima",
        -9.86593140857731
      ],
      [
        "servidores",
        -9.866309826555971
      ],
      [
        "RS",
        -9.867924231329145
      ],
      [
        "ĠSENHOR",
        -9.86826549810688
      ],
      [
        "Ġincluindo",
        -9.868979694913074
      ],
      [
        "pressÃ£o",
        -9.86932992853748
      ],
      [
        "Ġchamada",
        -9.86961279823941
      ],
      [
        "Ġambiente",
        -9.869644610545793
      ],
      [
        "ĠAg",
        -9.86980815439494
      ],
      [
        "mentos",
        -9.870031377858364
      ],
      [
        "mir",
        -9.870084126606017
      ],
      [
        "ĠMundial",
        -9.870674939931128
      ],
      [
        "ProvisÃ³ria",
        -9.8719590517895
      ],
      [
        "maiores",
        -9.871990702087489
      ],
      [
        "Ġestudo",
        -9.872330595316662
      ],
      [
        "ĠAdministraÃ§Ã£o",
        -9.873730064146292
      ],
      [
        "wa",
        -9.874290557417725
      ],
      [
        "Ġhomenage",
        -9.874712563530482
      ],
      [
        "ssem",
        -9.87491850004538
      ],
      [
        "age",
        -9.875300566119808
      ],
      [
        "ĠBra",
        -9.876112153543348
      ],
      [
        "SOL",
        -9.876130931219512
      ],
      [
        "ĠKi",
        -9.876541104578417
      ],
      [
        "Ġapresentado",
        -9.877281034327648
      ],
      [
        "Ġquer",
        -9.878542317105032
      ],
      [
        "ĠGe",
        -9.878943247356386
      ],
      [
        "Ġtorna",
        -9.879334392367628
      ],
      [
        "Ġdiversas",
        -9.879634050269743
      ],
      [
        "devem",
        -9.880420955075223
      ],
      [
        "Ġmostra",
        -9.880747017063856
      ],
      [
        "Ġtrabalhos",
        -9.881252168993926
      ],
      [
        "Ġusar",
        -9.881536461325576
      ],
      [
        "org",
        -9.882171020438872
      ],
      [
        "Ġacha",
        -9.883187625105478
      ],
      [
        "Ainda",
        -9.883192309617543
      ],
      [
        "Ġprofissionais",
        -9.883505789818354
      ],
      [
        "Ġreceber",
        -9.883555176752246
      ],
      [
        "ĠInternacional",
        -9.883669913411172
      ],
      [
        "normas",
        -9.883734245561842
      ],
      [
        "ance",
        -9.88468212216121
      ],
      [
        "Ġamor",
        -9.8852326353481
      ],
      [
        "Of",
        -9.88533630526377
      ],
      [
        "Ġfiz",
        -9.885459950858564
      ],
      [
        "ĠâĢĺ",
        -9.885852583110427
      ],
      [
        "Ã¢ncia",
        -9.885907784209948
      ],
      [
        "tratamento",
        -9.886487859500988
      ],
      [
        "ĠMendes",
        -9.88691556122378
      ],
      [
        "produtos",
        -9.887116374953685
      ],
      [
        "Ġcabe",
        -9.887346765042375
      ],
      [
        "Ġamigo",
        -9.887583850886491
      ],
      [
        "ARDO",
        -9.888260416550958
      ],
      [
        "anti",
        -9.888731052115617
      ],
      [
        "ĠBA",
        -9.888934835175288
      ],
      [
        "Ġelas",
        -9.888962013185775
      ],
      [
        "ĠTudo",
        -9.890419380592958
      ],
      [
        "Ġcompra",
        -9.89094534705252
      ],
      [
        "gostaria",
        -9.891398949577214
      ],
      [
        "\",\"",
        -9.89148970868916
      ],
      [
        "ĠAta",
        -9.891583857442631
      ],
      [
        "onde",
        -9.892115956718117
      ],
      [
        "Ġartigos",
        -9.893896748364469
      ],
      [
        "Ġ1997",
        -9.894193220986264
      ],
      [
        "lÃ³gico",
        -9.894564650936136
      ],
      [
        "ģ",
        -9.895936468414204
      ],
      [
        "Ġautoridade",
        -9.89686754759811
      ],
      [
        "ĠeconÃ´mico",
        -9.897252217412191
      ],
      [
        "reduÃ§Ã£o",
        -9.898632671902565
      ],
      [
        "vendo",
        -9.899314295465354
      ],
      [
        "shi",
        -9.89957379946942
      ],
      [
        "Ġfins",
        -9.900658686342874
      ],
      [
        "PL",
        -9.900898781629872
      ],
      [
        "ĠLocal",
        -9.90144478334335
      ],
      [
        "ĠWe",
        -9.901865991127137
      ],
      [
        "Ġgarantia",
        -9.903708377409732
      ],
      [
        "PCdoB",
        -9.903996646720216
      ],
      [
        "RJ",
        -9.90462400164078
      ],
      [
        "Ġcumprimento",
        -9.90552442597045
      ],
      [
        "Ġdiretor",
        -9.905748989459282
      ],
      [
        "Ġcarro",
        -9.90616507383174
      ],
      [
        "medidas",
        -9.906702263627134
      ],
      [
        "Ġfundamental",
        -9.907436211417355
      ],
      [
        "2003",
        -9.907660405890002
      ],
      [
        "ĠVoss",
        -9.907747706761834
      ],
      [
        "Ġcorre",
        -9.908455214579512
      ],
      [
        "Ġfuturo",
        -9.90950300626742
      ],
      [
        "Ġevento",
        -9.91151045104171
      ],
      [
        "Ġ36",
        -9.911592709377882
      ],
      [
        "Lei",
        -9.912344215722928
      ],
      [
        "dig",
        -9.913616214591014
      ],
      [
        "ĠGovernador",
        -9.913713022858234
      ],
      [
        "Ġmuita",
        -9.91509698971576
      ],
      [
        "lidade",
        -9.916212041743242
      ],
      [
        "acrescenta",
        -9.917465414905555
      ],
      [
        "Ġcategoria",
        -9.91771494612546
      ],
      [
        "pronunciamento",
        -9.918041316065564
      ],
      [
        "Ġtaxa",
        -9.918330437710456
      ],
      [
        "Ġnenhuma",
        -9.918506072286322
      ],
      [
        "Ġnatural",
        -9.919225401000274
      ],
      [
        "Ġnego",
        -9.919441167798748
      ],
      [
        "Ġpassar",
        -9.919904136734369
      ],
      [
        "Ġapresentada",
        -9.920344472897549
      ],
      [
        "mont",
        -9.920490427326294
      ],
      [
        "fÃŃsica",
        -9.92077313076905
      ],
      [
        "ĠGen",
        -9.920948457835394
      ],
      [
        "Ġalto",
        -9.922939743669728
      ],
      [
        "Ġdispo",
        -9.922958145179368
      ],
      [
        "pur",
        -9.923264735511037
      ],
      [
        "Ġisto",
        -9.92629397204299
      ],
      [
        "Ġmilitar",
        -9.926532057001276
      ],
      [
        "ĠAcho",
        -9.926602351446626
      ],
      [
        "ĠAna",
        -9.927471680198463
      ],
      [
        "dÃºvida",
        -9.92785570030592
      ],
      [
        "ori",
        -9.928610195583724
      ],
      [
        "ung",
        -9.929155316581078
      ],
      [
        "tores",
        -9.929727299063092
      ],
      [
        "seguintes",
        -9.93025029060738
      ],
      [
        "Ġcontinua",
        -9.930964213366366
      ],
      [
        "ĠSuperior",
        -9.93105092194845
      ],
      [
        "substituiÃ§Ã£o",
        -9.932149097803167
      ],
      [
        "Ġdeles",
        -9.932680801448107
      ],
      [
        "Ġcrescimento",
        -9.933111135315071
      ],
      [
        "Ġinstrumento",
        -9.933813866202003
      ],
      [
        "RG",
        -9.934000627709244
      ],
      [
        "ĠCentro",
        -9.937204520657664
      ],
      [
        "Ġnovas",
        -9.938373355369924
      ],
      [
        "gia",
        -9.938536927057742
      ],
      [
        "pel",
        -9.939353171454256
      ],
      [
        "Ġapresentar",
        -9.939397218562606
      ],
      [
        "hipÃ³tese",
        -9.94027130921693
      ],
      [
        "Ġjornal",
        -9.940449779771328
      ],
      [
        "rito",
        -9.940779407938829
      ],
      [
        "Ġsonora",
        -9.94154676671361
      ],
      [
        "tido",
        -9.941724131832196
      ],
      [
        "gal",
        -9.942249542045808
      ],
      [
        "ĠPEC",
        -9.942600132367104
      ],
      [
        "Ġsimples",
        -9.944328767789688
      ],
      [
        "Ġnaquel",
        -9.944470753585795
      ],
      [
        "entidades",
        -9.945005204553354
      ],
      [
        "Ġcusto",
        -9.94541812462552
      ],
      [
        "ĠEXTRAORDINÃģRI",
        -9.945585619146248
      ],
      [
        "ĠVoto",
        -9.945673004759332
      ],
      [
        "ĠCal",
        -9.945736798009502
      ],
      [
        "ĠPmdbP",
        -9.947280250178393
      ],
      [
        "Ġajudar",
        -9.947845963341416
      ],
      [
        "Ġfundo",
        -9.948077051725615
      ],
      [
        "tecnologia",
        -9.948568822202578
      ],
      [
        "rios",
        -9.948821096322751
      ],
      [
        "Ãĵ",
        -9.948934827642214
      ],
      [
        "tia",
        -9.94915239547002
      ],
      [
        "Ġimposto",
        -9.949431220362182
      ],
      [
        "ĠAqui",
        -9.95032608986797
      ],
      [
        "ĠBel",
        -9.950341895911665
      ],
      [
        "GA",
        -9.950533467791717
      ],
      [
        "Ġdeixo",
        -9.951259748518773
      ],
      [
        "Ġmer",
        -9.95246898119816
      ],
      [
        "gente",
        -9.952729442399146
      ],
      [
        "audiÃªncia",
        -9.953162639152064
      ],
      [
        "RES",
        -9.95447363085057
      ],
      [
        "ĠvocÃªs",
        -9.956718382888404
      ],
      [
        "ĠIta",
        -9.956834928893018
      ],
      [
        "ĠCampos",
        -9.958082738537213
      ],
      [
        "Ġacaba",
        -9.95931182458548
      ],
      [
        "ĠTh",
        -9.96025235711592
      ],
      [
        "Ñ",
        -9.960656076924543
      ],
      [
        "Ġtribuna",
        -9.960814600561966
      ],
      [
        "ĠninguÃ©m",
        -9.960855591521018
      ],
      [
        "ĠBer",
        -9.96122079074982
      ],
      [
        "Ġconquista",
        -9.961673287918352
      ],
      [
        "Ġextra",
        -9.961771506610724
      ],
      [
        "Hoje",
        -9.962957580597289
      ],
      [
        "ĠRO",
        -9.963357966258584
      ],
      [
        "Ġdespes",
        -9.963603824945388
      ],
      [
        "ĠTodos",
        -9.96393711478548
      ],
      [
        "verÃ£o",
        -9.965489207197788
      ],
      [
        "vos",
        -9.966156922303362
      ],
      [
        "Ġconsegui",
        -9.9663459076027
      ],
      [
        "cida",
        -9.96656188854335
      ],
      [
        "ĠIgreja",
        -9.966921372009605
      ],
      [
        "Ġvisto",
        -9.967367318815164
      ],
      [
        "ĠLt",
        -9.967682088426008
      ],
      [
        "2004",
        -9.967804914453176
      ],
      [
        "Ġcria",
        -9.968412906358049
      ],
      [
        "CH",
        -9.968621166742674
      ],
      [
        "Ġdiante",
        -9.970354598754364
      ],
      [
        "ĠterÃ¡",
        -9.97090451116995
      ],
      [
        "lada",
        -9.971305433532333
      ],
      [
        "Ġfilhos",
        -9.97186173941312
      ],
      [
        "Ġ1999",
        -9.972012435473063
      ],
      [
        "Ġcontar",
        -9.972034682124596
      ],
      [
        "ĠadministraÃ§Ã£o",
        -9.972847619082325
      ],
      [
        "designado",
        -9.974330473718288
      ],
      [
        "ĠversÃ£o",
        -9.97480877933321
      ],
      [
        "Ġespecialmente",
        -9.97561305628642
      ],
      [
        "ĠFranÃ§a",
        -9.976291393256249
      ],
      [
        "Ġcombate",
        -9.977496684792264
      ],
      [
        "ĠAnex",
        -9.9776040930103
      ],
      [
        "ĠinstituiÃ§Ã£o",
        -9.978347843479822
      ],
      [
        "PFL",
        -9.978454612562947
      ],
      [
        "ĠSecretÃ¡rio",
        -9.978524862641132
      ],
      [
        "Ġestabelece",
        -9.97942325604005
      ],
      [
        "ĠCultura",
        -9.97989192465857
      ],
      [
        "ĠlÃŃngua",
        -9.980556907833058
      ],
      [
        "Ġnorma",
        -9.981196856168571
      ],
      [
        "by",
        -9.981245174945547
      ],
      [
        "Ġconhecida",
        -9.981508469797353
      ],
      [
        "juridicidade",
        -9.98172181730228
      ],
      [
        "stÃµes",
        -9.982615177114129
      ],
      [
        "Tenho",
        -9.983334238657694
      ],
      [
        "ĠMon",
        -9.983406021483225
      ],
      [
        "Ġfutebol",
        -9.983955085885716
      ],
      [
        "ĠSrÂª",
        -9.984445388105554
      ],
      [
        "ĠFEDERAL",
        -9.984611503578837
      ],
      [
        "AM",
        -9.98534057033603
      ],
      [
        "Ġimporta",
        -9.98588441031404
      ],
      [
        "Ġ37",
        -9.986075621701426
      ],
      [
        "ĠTemer",
        -9.986791985831388
      ],
      [
        "ĠRJ",
        -9.987961213067903
      ],
      [
        "NAL",
        -9.98950663192676
      ],
      [
        "ĠJÃºnior",
        -9.989748669805904
      ],
      [
        "URMA",
        -9.990055399280903
      ],
      [
        "Ġapre",
        -9.990072186391853
      ],
      [
        "ĠTerra",
        -9.99015032180752
      ],
      [
        "ĠSer",
        -9.991253913659207
      ],
      [
        "Ġtermo",
        -9.993174455096586
      ],
      [
        "ontem",
        -9.993224207718615
      ],
      [
        "ĠorganizaÃ§Ã£o",
        -9.993620956492055
      ],
      [
        "proposiÃ§Ã£o",
        -9.994186736208174
      ],
      [
        "Ġbastante",
        -9.994306835892573
      ],
      [
        "Ġrevista",
        -9.994391320764397
      ],
      [
        "bit",
        -9.995143133933013
      ],
      [
        "Ġfilha",
        -9.995271844209002
      ],
      [
        "tenham",
        -9.995569235670828
      ],
      [
        "ĠBom",
        -9.995901086995977
      ],
      [
        "ĠRibeiro",
        -9.996979606913008
      ],
      [
        "Ġ55",
        -9.9969840097096
      ],
      [
        "Ġsair",
        -9.997163173947214
      ],
      [
        "ÃŃvel",
        -9.998215932735524
      ],
      [
        "Ġaprovada",
        -9.998751320155025
      ],
      [
        "comunitÃ¡ria",
        -9.998868439806246
      ],
      [
        "ham",
        -9.999140478775423
      ],
      [
        "Ġapro",
        -9.999200295306704
      ],
      [
        "Ġrecu",
        -9.999992689430604
      ],
      [
        "Ġpublicado",
        -10.00006020334046
      ],
      [
        "Ġvale",
        -10.000389838114897
      ],
      [
        "porÃ©",
        -10.000421275985625
      ],
      [
        "Ġrealidade",
        -10.001117086570597
      ],
      [
        "conteÃºdo",
        -10.00147665739336
      ],
      [
        "lida",
        -10.002155336914274
      ],
      [
        "Ġgarantir",
        -10.00247349969119
      ],
      [
        "ĠprÃ³xima",
        -10.002572213698722
      ],
      [
        "prisÃ£o",
        -10.002829042657607
      ],
      [
        "eza",
        -10.003097139045764
      ],
      [
        "afirmou",
        -10.003359362170514
      ],
      [
        "seguida",
        -10.003720376506791
      ],
      [
        "rÃ³",
        -10.004278055838098
      ],
      [
        "bancada",
        -10.004418363068776
      ],
      [
        "pÃºblicos",
        -10.00458646365575
      ],
      [
        "autorizaÃ§Ã£o",
        -10.006394445559089
      ],
      [
        "Ġpergunta",
        -10.00698261494101
      ],
      [
        "Ġ70",
        -10.007160205911743
      ],
      [
        "toria",
        -10.008030843995597
      ],
      [
        "Ġrecebe",
        -10.008291469045671
      ],
      [
        "Ġcurso",
        -10.009109171575911
      ],
      [
        "Ġnovamente",
        -10.009577876538737
      ],
      [
        "ĠDOS",
        -10.011320562182368
      ],
      [
        "han",
        -10.01151694611576
      ],
      [
        "tudo",
        -10.011892452624958
      ],
      [
        "Ġ53",
        -10.012463096090244
      ],
      [
        "Ġtrabalhar",
        -10.012548008755015
      ],
      [
        "jovens",
        -10.014387671819543
      ],
      [
        "aga",
        -10.014512313468687
      ],
      [
        "Ġclasse",
        -10.01592186568656
      ],
      [
        "ĠLÃºci",
        -10.016494208197344
      ],
      [
        "ĠJO",
        -10.01736554702413
      ],
      [
        "ĠSegunda",
        -10.017826451893804
      ],
      [
        "ÃŃcio",
        -10.017885002660757
      ],
      [
        "ĠTom",
        -10.018536743555384
      ],
      [
        "ĠJohn",
        -10.019008392253408
      ],
      [
        "ĠVale",
        -10.019202502621514
      ],
      [
        "atuaÃ§Ã£o",
        -10.019228318627553
      ],
      [
        "ĠRoma",
        -10.01934261156372
      ],
      [
        "Ġparticipar",
        -10.01934817633422
      ],
      [
        "âĢĳ",
        -10.020502927488655
      ],
      [
        "Ã¡rios",
        -10.021269051019429
      ],
      [
        "bia",
        -10.02184212260511
      ],
      [
        "ĠAprova",
        -10.022822063404869
      ],
      [
        "ĠInformÃ¡tica",
        -10.024052789583504
      ],
      [
        "ĠAtÃ©",
        -10.024132854155928
      ],
      [
        "GL",
        -10.024430959602196
      ],
      [
        "ĠeletrÃ´nico",
        -10.029536876142537
      ],
      [
        "Ġ34",
        -10.02969020401002
      ],
      [
        "ĠcondiÃ§Ã£o",
        -10.031471578768432
      ],
      [
        "Ġdispositivo",
        -10.032219677977528
      ],
      [
        "Ġpopular",
        -10.03272973103032
      ],
      [
        "Ġvoltar",
        -10.03288597882128
      ],
      [
        "emprego",
        -10.033522322278252
      ],
      [
        "Ġtraz",
        -10.03360592291581
      ],
      [
        "ĠTrata",
        -10.033894744854038
      ],
      [
        "ĠdireÃ§Ã£o",
        -10.034142553635526
      ],
      [
        "Ġmeus",
        -10.034192625514676
      ],
      [
        "SC",
        -10.034308386821529
      ],
      [
        "Ġ49",
        -10.034638331428305
      ],
      [
        "Ġcomum",
        -10.034649777815655
      ],
      [
        "uti",
        -10.035683441142352
      ],
      [
        "]",
        -10.035712687315897
      ],
      [
        "ĠtÃ©cnico",
        -10.03574573398586
      ],
      [
        "Ġlevar",
        -10.037827916766313
      ],
      [
        "ĠcomeÃ§a",
        -10.037837168979475
      ],
      [
        "Ġfedera",
        -10.040303983508416
      ],
      [
        "ĠUn",
        -10.04044805272249
      ],
      [
        "[",
        -10.04100350750122
      ],
      [
        "Ġaparece",
        -10.041005914109276
      ],
      [
        "HC",
        -10.042606088812526
      ],
      [
        "Ġganho",
        -10.04264851586822
      ],
      [
        "Ġsuficiente",
        -10.046441708404384
      ],
      [
        "ĠAL",
        -10.04687877710342
      ],
      [
        "aqueles",
        -10.04712827253078
      ],
      [
        "gada",
        -10.047384746694307
      ],
      [
        "dÃŃvida",
        -10.04829441793269
      ],
      [
        "ĠEuropa",
        -10.04832783965781
      ],
      [
        "Ġquadro",
        -10.048942577589406
      ],
      [
        "Ġbaixa",
        -10.049564337928237
      ],
      [
        "ali",
        -10.04995646294852
      ],
      [
        "ĠcabeÃ§a",
        -10.050177016278454
      ],
      [
        "AgR",
        -10.050673343518168
      ],
      [
        "indÃºstria",
        -10.050779455289945
      ],
      [
        "declaraÃ§Ã£o",
        -10.051848118180242
      ],
      [
        "ĠEdi",
        -10.051953461210662
      ],
      [
        "ĠComplementar",
        -10.05277901625385
      ],
      [
        "Ġoutorga",
        -10.053186029031698
      ],
      [
        "dez",
        -10.05395831780348
      ],
      [
        "entendimento",
        -10.054092840833087
      ],
      [
        "lÃ³gica",
        -10.054869233904135
      ],
      [
        "entidade",
        -10.05512328242219
      ],
      [
        "ĠEscola",
        -10.05596621828534
      ],
      [
        "å",
        -10.056167689588108
      ],
      [
        "Ġfaixa",
        -10.056286749814406
      ],
      [
        "razÃµes",
        -10.057260448751656
      ],
      [
        "Ġtais",
        -10.05733773845956
      ],
      [
        "entrada",
        -10.058097957622335
      ],
      [
        "prestaÃ§Ã£o",
        -10.059846714235771
      ],
      [
        "DEPUTADO",
        -10.061164982758454
      ],
      [
        "ĠmÃ©dico",
        -10.061461930236122
      ],
      [
        "Ġencontrar",
        -10.061538965701416
      ],
      [
        "comissÃ£o",
        -10.06188832019386
      ],
      [
        "Substitutivo",
        -10.06252769815404
      ],
      [
        "Ġve",
        -10.06290901362368
      ],
      [
        "AntÃ´nio",
        -10.062925402945954
      ],
      [
        "Ġministro",
        -10.063039475632516
      ],
      [
        "vÃŃtima",
        -10.064551725418818
      ],
      [
        "ĠPenal",
        -10.064848993985112
      ],
      [
        "Ġsite",
        -10.06521176708426
      ],
      [
        "Ġcolocar",
        -10.065346712889289
      ],
      [
        "ĠDep",
        -10.065467111330037
      ],
      [
        "ĠParanÃ¡",
        -10.065717881067698
      ],
      [
        "Ġ1996",
        -10.066073311254035
      ],
      [
        "Ġsete",
        -10.066163277756688
      ],
      [
        "ĠportuguÃªs",
        -10.066373375803494
      ],
      [
        "Certo",
        -10.066555426284184
      ],
      [
        "visÃ£o",
        -10.067678739256058
      ],
      [
        "Ġgrave",
        -10.067893264342658
      ],
      [
        "Portaria",
        -10.068185140942829
      ],
      [
        "GU",
        -10.069487617979462
      ],
      [
        "Ġentrar",
        -10.070662065451195
      ],
      [
        "+",
        -10.070759847280538
      ],
      [
        "Primeiro",
        -10.07123043043829
      ],
      [
        "Ptb",
        -10.07127925192729
      ],
      [
        "SÃ©rgi",
        -10.074519663525336
      ],
      [
        "conformidade",
        -10.074793998683097
      ],
      [
        "Ġfunciona",
        -10.075244074313146
      ],
      [
        "RelatÃ³rio",
        -10.075791082290888
      ],
      [
        "Ġouvi",
        -10.075824404193073
      ],
      [
        "SÃĥO",
        -10.07631325658298
      ],
      [
        "ĠvitÃ³ria",
        -10.077498585946948
      ],
      [
        "ĠTu",
        -10.077845078528062
      ],
      [
        "Ġaconteceu",
        -10.078424019219746
      ],
      [
        "locais",
        -10.07874391361371
      ],
      [
        "Ġindependente",
        -10.079252049363246
      ],
      [
        "Ġpermite",
        -10.079360096060386
      ],
      [
        "prejuÃŃz",
        -10.080300027915085
      ],
      [
        "2018",
        -10.08334317222296
      ],
      [
        "Ġacerca",
        -10.086383110350855
      ],
      [
        "ÃĬNCIA",
        -10.087525995458538
      ],
      [
        "Ġigual",
        -10.088515974476316
      ],
      [
        "aquela",
        -10.088773486993457
      ],
      [
        "Ł",
        -10.089051643424638
      ],
      [
        "Ġdisco",
        -10.08922135622655
      ],
      [
        "Ġparticular",
        -10.089667408098276
      ],
      [
        "Ġtornar",
        -10.08978445456754
      ],
      [
        "Ġdemanda",
        -10.090483748681944
      ],
      [
        "talvez",
        -10.090580474372436
      ],
      [
        "NTE",
        -10.09142462774506
      ],
      [
        "Ġbaixo",
        -10.091657171830212
      ],
      [
        "salÃ¡rio",
        -10.091846472563796
      ],
      [
        "Ġluz",
        -10.092006253147607
      ],
      [
        "Ġmedi",
        -10.092487880958624
      ],
      [
        "Ġenca",
        -10.092540666606284
      ],
      [
        "ĠMal",
        -10.092628804227534
      ],
      [
        "ngel",
        -10.0929505104679
      ],
      [
        "ĠtelevisÃ£o",
        -10.092997169380196
      ],
      [
        "veio",
        -10.093280236057998
      ],
      [
        "ĠapresentaÃ§Ã£o",
        -10.094045039350386
      ],
      [
        "eri",
        -10.094283210634712
      ],
      [
        "tividade",
        -10.094512184664886
      ],
      [
        "ciais",
        -10.094721618228991
      ],
      [
        "Ġrepresentante",
        -10.094965503215656
      ],
      [
        "vide",
        -10.095073596637285
      ],
      [
        "Ġliga",
        -10.09600820820853
      ],
      [
        "cisÃ£o",
        -10.096912561177868
      ],
      [
        "ĠEr",
        -10.09745616173442
      ],
      [
        "ĠCas",
        -10.097621609520022
      ],
      [
        "OfÃŃci",
        -10.098003408909182
      ],
      [
        "Ġtratar",
        -10.098137707289792
      ],
      [
        "cat",
        -10.099297379517983
      ],
      [
        "Ġcontinuar",
        -10.099715030064736
      ],
      [
        "gol",
        -10.099732002571589
      ],
      [
        "destinada",
        -10.099871240390652
      ],
      [
        "Ġabertura",
        -10.10271345345294
      ],
      [
        "ĠAcre",
        -10.10285170536034
      ],
      [
        "PRB",
        -10.10379441696569
      ],
      [
        "Ġusado",
        -10.103838800218542
      ],
      [
        "ĠexperiÃªncia",
        -10.104587125173198
      ],
      [
        "Ġdessas",
        -10.104771898540449
      ],
      [
        "ĠComunitÃ¡ri",
        -10.105101955290662
      ],
      [
        "ĠcarÃ¡ter",
        -10.105501982477303
      ],
      [
        "arÃ¡grafo",
        -10.106842264131693
      ],
      [
        "ĠdifÃŃcil",
        -10.107364351720484
      ],
      [
        "ĠvÃª",
        -10.108349908504914
      ],
      [
        "Ġantiga",
        -10.108615564869408
      ],
      [
        "Ġ38",
        -10.109865559175368
      ],
      [
        "ĠdistribuiÃ§Ã£o",
        -10.109949426445816
      ],
      [
        "Ġpais",
        -10.11033344435336
      ],
      [
        "Ġcomercial",
        -10.111261043429826
      ],
      [
        "Ġconfi",
        -10.11356803200005
      ],
      [
        "ĠPOR",
        -10.11381615555828
      ],
      [
        "Ġmulta",
        -10.11410235155754
      ],
      [
        "ĠTrans",
        -10.114336595853842
      ],
      [
        "soluÃ§Ã£o",
        -10.11437191458896
      ],
      [
        "Ġ43",
        -10.114677278378464
      ],
      [
        "MEN",
        -10.114743757397394
      ],
      [
        "ĠQuer",
        -10.115516170378877
      ],
      [
        "Ġdireta",
        -10.116012792110508
      ],
      [
        "QUE",
        -10.116519090483337
      ],
      [
        "manutenÃ§Ã£o",
        -10.116624873776294
      ],
      [
        "atrÃ¡s",
        -10.116717781257137
      ],
      [
        "estavam",
        -10.1174859175855
      ],
      [
        "lÃ¡",
        -10.117547689341768
      ],
      [
        "Ġarma",
        -10.117645081491135
      ],
      [
        "sul",
        -10.117778821712855
      ],
      [
        "Ġfonte",
        -10.11802748989204
      ],
      [
        "provisÃ³ria",
        -10.118325552161608
      ],
      [
        "uba",
        -10.119341085032138
      ],
      [
        "cimento",
        -10.121185516687156
      ],
      [
        "Ġaltera",
        -10.121484961818703
      ],
      [
        "MG",
        -10.122267403772227
      ],
      [
        "posto",
        -10.123054741622392
      ],
      [
        "ĠCentral",
        -10.124011181375687
      ],
      [
        "mÃ¡tica",
        -10.124260453378753
      ],
      [
        "ĠPrefeit",
        -10.124422249598071
      ],
      [
        "favorÃ¡vel",
        -10.12560359856212
      ],
      [
        "regiÃµes",
        -10.125873890994225
      ],
      [
        "ĠPROC",
        -10.126248130811913
      ],
      [
        "Ġsofre",
        -10.12635584586978
      ],
      [
        "ĠprÃ©",
        -10.12681119912808
      ],
      [
        "leiÃ§Ã£o",
        -10.128144373119886
      ],
      [
        "legais",
        -10.128302673859356
      ],
      [
        "ĠXX",
        -10.128525496617211
      ],
      [
        "Ġtomar",
        -10.128993957658256
      ],
      [
        "Ġ44",
        -10.12899774593295
      ],
      [
        "referido",
        -10.12910051969902
      ],
      [
        "|",
        -10.12937376508483
      ],
      [
        "Ġpequena",
        -10.130074479492592
      ],
      [
        "PSC",
        -10.131046067733443
      ],
      [
        "quer",
        -10.1312294421503
      ],
      [
        "Ġinstitui",
        -10.131360108281497
      ],
      [
        "Ġnormal",
        -10.132754827759742
      ],
      [
        "Ġred",
        -10.133246868047545
      ],
      [
        "Ġbens",
        -10.133477241909262
      ],
      [
        "apesar",
        -10.13358930408686
      ],
      [
        "cular",
        -10.134303351256213
      ],
      [
        "Ġcolega",
        -10.1343594638489
      ],
      [
        "Å",
        -10.134367455812232
      ],
      [
        "utilizaÃ§Ã£o",
        -10.134565487943515
      ],
      [
        "Ġjogos",
        -10.135921225100889
      ],
      [
        "ĠProcesso",
        -10.136065766508915
      ],
      [
        "Ġamigos",
        -10.136192442162036
      ],
      [
        "Apoio",
        -10.138610465796086
      ],
      [
        "ker",
        -10.138610810629697
      ],
      [
        "Celso",
        -10.1394150666409
      ],
      [
        "Ġdecreta",
        -10.139470527989731
      ],
      [
        "ĠGal",
        -10.140025364752477
      ],
      [
        "ĠQual",
        -10.140887075290568
      ],
      [
        "eleiÃ§Ãµes",
        -10.1411669419994
      ],
      [
        "efeitos",
        -10.142894175113728
      ],
      [
        "Ġtime",
        -10.14357218337254
      ],
      [
        "Ä",
        -10.143681482617763
      ],
      [
        "Ġchama",
        -10.143685543320087
      ],
      [
        "Ġnot",
        -10.143740734480565
      ],
      [
        "Ġpermitir",
        -10.1441309213811
      ],
      [
        "Ġ45",
        -10.144384062570587
      ],
      [
        "lla",
        -10.14461152244493
      ],
      [
        "ĠPlano",
        -10.144878221008328
      ],
      [
        "dizendo",
        -10.145396099483744
      ],
      [
        "fico",
        -10.145530028398827
      ],
      [
        "Ã©tica",
        -10.145799160384628
      ],
      [
        "Ġperda",
        -10.145959061498123
      ],
      [
        "Ġtramita",
        -10.146063365791246
      ],
      [
        "ĠPROPOSI",
        -10.146703165182236
      ],
      [
        "ĠSouza",
        -10.14685540291736
      ],
      [
        "Ġpasso",
        -10.147113365387726
      ],
      [
        "ausÃªncia",
        -10.148654725015025
      ],
      [
        "Ġperto",
        -10.14911144459283
      ],
      [
        "Ġdocumentos",
        -10.14915662355651
      ],
      [
        "±",
        -10.150296283807569
      ],
      [
        "militares",
        -10.151328620901408
      ],
      [
        "Ġmelhores",
        -10.1518132329361
      ],
      [
        "Ġreceita",
        -10.152386618215209
      ],
      [
        "«",
        -10.152673207332093
      ],
      [
        "ĠGomes",
        -10.15283829174107
      ],
      [
        "ĠConced",
        -10.152942992183965
      ],
      [
        "diretamente",
        -10.15301018880402
      ],
      [
        "Ġcapaz",
        -10.153125349695626
      ],
      [
        "Ġrevela",
        -10.153532082677527
      ],
      [
        "Ġ80",
        -10.154572298447746
      ],
      [
        "ĠGrosso",
        -10.155092231262824
      ],
      [
        "Ġinterior",
        -10.155458425761797
      ],
      [
        "ĠMunicipal",
        -10.155882356737155
      ],
      [
        "ĠoperaÃ§Ã£o",
        -10.156402533386087
      ],
      [
        "Ġfazem",
        -10.15658728344691
      ],
      [
        "Ķ",
        -10.156599541516584
      ],
      [
        "ĠMinistra",
        -10.156805514833376
      ],
      [
        "ĠcanÃ§Ã£o",
        -10.156830237238337
      ],
      [
        "ĠLopes",
        -10.157748846624516
      ],
      [
        "Estamos",
        -10.158067395380083
      ],
      [
        "Ġcento",
        -10.15981497603201
      ],
      [
        "CARLOS",
        -10.160021537892908
      ],
      [
        "ĠMilitar",
        -10.160131464291576
      ],
      [
        "ĠRocha",
        -10.161006288494528
      ],
      [
        "ĠEsc",
        -10.161325430605784
      ],
      [
        "Ġconsiderada",
        -10.161729053703104
      ],
      [
        "ciado",
        -10.161848743753136
      ],
      [
        "inclusÃ£o",
        -10.162200111405928
      ],
      [
        "aÃ§a",
        -10.16319017982254
      ],
      [
        "Ġrealizar",
        -10.164002887300166
      ],
      [
        "Ġdiscutir",
        -10.164834327042277
      ],
      [
        "ĠvÃŃdeo",
        -10.165007346949238
      ],
      [
        "Ġadministrativa",
        -10.16551435178424
      ],
      [
        "ĠPal",
        -10.16647169505505
      ],
      [
        "Ġregra",
        -10.167427566031066
      ],
      [
        "INA",
        -10.167434515759522
      ],
      [
        "operaÃ§Ãµes",
        -10.167772901581635
      ],
      [
        "tivos",
        -10.168055109633544
      ],
      [
        "ĠInter",
        -10.16813092527574
      ],
      [
        "ĠlanÃ§amento",
        -10.168429897625805
      ],
      [
        "Ġoito",
        -10.170433302102056
      ],
      [
        "ĠLista",
        -10.170537102647526
      ],
      [
        "ĠChi",
        -10.170608347136849
      ],
      [
        "Ġcerta",
        -10.17095333579562
      ],
      [
        "ĠChe",
        -10.171811924732689
      ],
      [
        "ĠTri",
        -10.171933561944655
      ],
      [
        "ĠpeÃ§o",
        -10.172341193733336
      ],
      [
        "Ġfar",
        -10.17321125882987
      ],
      [
        "GERAL",
        -10.17412662261832
      ],
      [
        "alunos",
        -10.174451177480105
      ],
      [
        "iam",
        -10.174648228346207
      ],
      [
        "Ġderrota",
        -10.175243834320122
      ],
      [
        "Ġcompromisso",
        -10.175519505308662
      ],
      [
        "ĠGar",
        -10.175774093032317
      ],
      [
        "Ġdecidi",
        -10.17609551750942
      ],
      [
        "Pausa",
        -10.176853981348165
      ],
      [
        "ĠorÃ§amentÃ¡ria",
        -10.177862191332318
      ],
      [
        "Ġlocalizado",
        -10.178076759282956
      ],
      [
        "ĠPorque",
        -10.178317477792367
      ],
      [
        "Ġseguir",
        -10.17882624230483
      ],
      [
        "Ġmetros",
        -10.179294577453538
      ],
      [
        "daquele",
        -10.179753477541997
      ],
      [
        "Ġtentar",
        -10.179858752917395
      ],
      [
        "ĠCatarina",
        -10.17999103098763
      ],
      [
        "Ġacabou",
        -10.180009734837924
      ],
      [
        "Ġdiferente",
        -10.18034778275775
      ],
      [
        "ĠAp",
        -10.181222537021728
      ],
      [
        "ĠmÃ©dio",
        -10.182037437110964
      ],
      [
        "Ġjovem",
        -10.182327274431474
      ],
      [
        "Ġopera",
        -10.182898669403157
      ],
      [
        "xclusividade",
        -10.182928179348446
      ],
      [
        "Ã¡reas",
        -10.18335718015567
      ],
      [
        "Ġvenda",
        -10.184164472508488
      ],
      [
        "Ã´nica",
        -10.184195569907832
      ],
      [
        "Ġrelativa",
        -10.184402795259322
      ],
      [
        "tenÃ§Ã£o",
        -10.184493543237853
      ],
      [
        "ĠVeja",
        -10.184907317857414
      ],
      [
        "exposto",
        -10.185823855255824
      ],
      [
        "Ġquarto",
        -10.187334011172366
      ],
      [
        "Ãºmula",
        -10.188240617586384
      ],
      [
        "Ġpropriedade",
        -10.188400170572208
      ],
      [
        "Con",
        -10.189046183128587
      ],
      [
        "Ġconseguiu",
        -10.19003444873448
      ],
      [
        "Apesar",
        -10.19049148891512
      ],
      [
        "esforÃ§o",
        -10.1905872275607
      ],
      [
        "cus",
        -10.191272465144856
      ],
      [
        "ĠdiferenÃ§a",
        -10.19184138345946
      ],
      [
        "Ġtroca",
        -10.193058611112647
      ],
      [
        "americana",
        -10.193535476848906
      ],
      [
        "Ġinterna",
        -10.193707242539649
      ],
      [
        "ĠProfessor",
        -10.193747941277833
      ],
      [
        "Ġescolas",
        -10.194395939453353
      ],
      [
        "Ġaprova",
        -10.19444028904003
      ],
      [
        "ĠReal",
        -10.194493572604234
      ],
      [
        "ĠLUIZ",
        -10.19510499402967
      ],
      [
        "Ġviola",
        -10.195191516837117
      ],
      [
        "tiveram",
        -10.195545734093605
      ],
      [
        "estabelecimento",
        -10.195735707208144
      ],
      [
        "Ġcompleta",
        -10.196166102821117
      ],
      [
        "Ġpropor",
        -10.196887579471497
      ],
      [
        "Ġfinanciamento",
        -10.196959434707203
      ],
      [
        "Ġimprensa",
        -10.19721213780674
      ],
      [
        "Ġquantidade",
        -10.197290147477672
      ],
      [
        "ĠDiretor",
        -10.198239748934798
      ],
      [
        "ĠCidade",
        -10.199673630094024
      ],
      [
        "Ġ42",
        -10.199738689192015
      ],
      [
        "Ġ1991",
        -10.199953924294263
      ],
      [
        "ĠCONSTITUIÃĩÃĥO",
        -10.200164500338223
      ],
      [
        "usada",
        -10.201654575088002
      ],
      [
        "plenÃ¡rio",
        -10.202124933620926
      ],
      [
        "ĠSabe",
        -10.202385894135984
      ],
      [
        "zinho",
        -10.202489254158827
      ],
      [
        "Ġquarta",
        -10.20262102027018
      ],
      [
        "falando",
        -10.202735128590744
      ],
      [
        "Ġatua",
        -10.202994667980684
      ],
      [
        "ĠZa",
        -10.20356869736854
      ],
      [
        "Ġentrega",
        -10.20454464652553
      ],
      [
        "ĠTemo",
        -10.204545378705182
      ],
      [
        "uplente",
        -10.205392845698068
      ],
      [
        "grafia",
        -10.205636620018549
      ],
      [
        "ĠAma",
        -10.205880215051346
      ],
      [
        "motivo",
        -10.205958349539046
      ],
      [
        "ĠFica",
        -10.206010325788402
      ],
      [
        "Ġ52",
        -10.206276467900906
      ],
      [
        "Ġestudos",
        -10.206278773729634
      ],
      [
        "Ġpagar",
        -10.20654542631098
      ],
      [
        "PPS",
        -10.206613012592468
      ],
      [
        "ejeiÃ§Ã£o",
        -10.20669615919481
      ],
      [
        "Ġlimite",
        -10.206739971897766
      ],
      [
        "ĠLou",
        -10.20681857686034
      ],
      [
        "Ġservi",
        -10.20795144286262
      ],
      [
        "Ġhonra",
        -10.20825944361523
      ],
      [
        "privada",
        -10.208846360968518
      ],
      [
        "ĠMaranhÃ£o",
        -10.209427450358977
      ],
      [
        "Ġlocalizada",
        -10.210306528921183
      ],
      [
        "ĠAlmeida",
        -10.210727437212066
      ],
      [
        "ĠmÃ¡",
        -10.211661679437784
      ],
      [
        "DF",
        -10.21230316294316
      ],
      [
        "ich",
        -10.212311935201477
      ],
      [
        "benefÃŃcio",
        -10.212379775464647
      ],
      [
        "Ġfixa",
        -10.212388751498686
      ],
      [
        "ĠParÃ¡",
        -10.21262299983573
      ],
      [
        "ĠPelo",
        -10.213763263566452
      ],
      [
        "ĠFA",
        -10.213798528682949
      ],
      [
        "Ġcre",
        -10.21394873324625
      ],
      [
        "burg",
        -10.21453097432072
      ],
      [
        "tida",
        -10.21483380726228
      ],
      [
        "Ġcomigo",
        -10.214870451479216
      ],
      [
        "nÂº",
        -10.214919224452222
      ],
      [
        "ĠcrianÃ§a",
        -10.21578017602438
      ],
      [
        "Ġexatamente",
        -10.21669785581774
      ],
      [
        "ĠUSP",
        -10.21671011089286
      ],
      [
        "OSÃī",
        -10.217190752970414
      ],
      [
        "ĠAh",
        -10.217779025993824
      ],
      [
        "ari",
        -10.219339127208867
      ],
      [
        "ativo",
        -10.219387404566948
      ],
      [
        "Ġescrito",
        -10.219435560324111
      ],
      [
        "Ġ1995",
        -10.21947232039114
      ],
      [
        "ĠRodrigues",
        -10.219862961938173
      ],
      [
        "ĠToda",
        -10.22047525604181
      ],
      [
        "constitucionai",
        -10.221230613945036
      ],
      [
        "Ġpior",
        -10.221359338294013
      ],
      [
        "Ġinicial",
        -10.221399277089107
      ],
      [
        "Ġganha",
        -10.221430379153087
      ],
      [
        "Ġunidades",
        -10.221947004996071
      ],
      [
        "Ġsur",
        -10.222065822691013
      ],
      [
        "atriz",
        -10.22278846867808
      ],
      [
        "mÃ¡ximo",
        -10.22305990355956
      ],
      [
        "ĠGrupo",
        -10.223751245290408
      ],
      [
        "Ġassumi",
        -10.22400060401337
      ],
      [
        "Ġinforma",
        -10.225059903582297
      ],
      [
        "side",
        -10.22600843190689
      ],
      [
        "existente",
        -10.227683053007022
      ],
      [
        "Ġhaja",
        -10.227717195485122
      ],
      [
        "Ġ119",
        -10.227982554099144
      ],
      [
        "ĠSU",
        -10.228128408502704
      ],
      [
        "ĠCarvalho",
        -10.22833065370242
      ],
      [
        "NR",
        -10.229454256779103
      ],
      [
        "Ġpermiti",
        -10.229486854213024
      ],
      [
        "line",
        -10.229875548748268
      ],
      [
        "Ġ58",
        -10.230993328377552
      ],
      [
        "Ġutilizado",
        -10.231712953777269
      ],
      [
        "ambos",
        -10.232149573652343
      ],
      [
        "RegiÃ£o",
        -10.232469022722958
      ],
      [
        "julgado",
        -10.232524029686695
      ],
      [
        "ĠKo",
        -10.23288187373872
      ],
      [
        "Ġacontece",
        -10.233152634361636
      ],
      [
        "Ġ48",
        -10.233399066719318
      ],
      [
        "ĠOnde",
        -10.233611793762831
      ],
      [
        "LideranÃ§a",
        -10.234042710167351
      ],
      [
        "ĠPri",
        -10.23434989278306
      ],
      [
        "bairro",
        -10.234708628282249
      ],
      [
        "criada",
        -10.235195542658053
      ],
      [
        "corrupÃ§Ã£o",
        -10.235435451776356
      ],
      [
        "hy",
        -10.235583217885898
      ],
      [
        "ĠcontribuiÃ§Ã£o",
        -10.236440524472863
      ],
      [
        "ĠMinha",
        -10.238313027983596
      ],
      [
        "chefe",
        -10.23915335247228
      ],
      [
        "Ġ64",
        -10.239795029515117
      ],
      [
        ".............",
        -10.239873536588217
      ],
      [
        "lizaÃ§Ã£o",
        -10.240269016624788
      ],
      [
        "ĠSuper",
        -10.240522069726458
      ],
      [
        "ĠAP",
        -10.241518700636616
      ],
      [
        "Ġresultados",
        -10.242614698241304
      ],
      [
        "ĠDaniel",
        -10.24318322081654
      ],
      [
        "Ġmundial",
        -10.243614815486067
      ],
      [
        "ĠgÃªnero",
        -10.244892584244829
      ],
      [
        "Ġantigo",
        -10.2451571853809
      ],
      [
        "ĠLEGISLATIV",
        -10.245617191691332
      ],
      [
        "ĠhistÃ³rico",
        -10.246167815553411
      ],
      [
        "ĠPubli",
        -10.246427655384636
      ],
      [
        "Ġaberto",
        -10.246787275930824
      ],
      [
        "Ġhumano",
        -10.247065487411255
      ],
      [
        "Ġestadual",
        -10.24713911133164
      ],
      [
        "missÃµes",
        -10.248140278783652
      ],
      [
        "Ġencontro",
        -10.248426360602604
      ],
      [
        "regras",
        -10.24941741955473
      ],
      [
        "irÃ¡",
        -10.249857126446296
      ],
      [
        "Ġdada",
        -10.25001375791913
      ],
      [
        "somos",
        -10.250025153175054
      ],
      [
        "ĠBoa",
        -10.250282910315285
      ],
      [
        "distrito",
        -10.250834878402644
      ],
      [
        "ĠReino",
        -10.251188076642675
      ],
      [
        "ĠRIO",
        -10.251402221765025
      ],
      [
        "Ġvivo",
        -10.251668568101028
      ],
      [
        "Ġevitar",
        -10.25174049878906
      ],
      [
        "Ġdeputado",
        -10.252569925556628
      ],
      [
        "ĠAli",
        -10.25276638792379
      ],
      [
        "icamente",
        -10.254285492351777
      ],
      [
        "ĠpolÃŃcia",
        -10.254500410216764
      ],
      [
        "Ġconv",
        -10.256988303249893
      ],
      [
        "ĠjurÃŃdico",
        -10.257192067150696
      ],
      [
        "ĠTer",
        -10.257402306535637
      ],
      [
        "bon",
        -10.257414705078
      ],
      [
        "ĠNordeste",
        -10.257656670707734
      ],
      [
        "atualmente",
        -10.258640150046146
      ],
      [
        "AmazÃ´nia",
        -10.258948348222246
      ],
      [
        "Ġfigura",
        -10.25918640213301
      ],
      [
        "ĠAugusto",
        -10.25953694703809
      ],
      [
        "Estadual",
        -10.25991066951456
      ],
      [
        "Talvez",
        -10.260324668075349
      ],
      [
        "Ġdocumento",
        -10.26056085725456
      ],
      [
        "ĠNew",
        -10.26072009513732
      ],
      [
        "requisitos",
        -10.261214277228795
      ],
      [
        "impacto",
        -10.261609263101308
      ],
      [
        "ĠMac",
        -10.262321785296464
      ],
      [
        "Figueiredo",
        -10.263362657453172
      ],
      [
        "Fazenda",
        -10.263902780700818
      ],
      [
        "ĠFamÃŃlia",
        -10.26429777806748
      ],
      [
        "Ġmerece",
        -10.264538045478378
      ],
      [
        "ĠWikipÃ©dia",
        -10.265119323360588
      ],
      [
        "ĠUS",
        -10.265140799337578
      ],
      [
        "ĠDECRET",
        -10.265306846216568
      ],
      [
        "Ġ41",
        -10.265609839396197
      ],
      [
        "essÃ£o",
        -10.265939743768117
      ],
      [
        "JudiciÃ¡ri",
        -10.266014434375824
      ],
      [
        "ĠQUE",
        -10.266363368593202
      ],
      [
        "Ġjudicial",
        -10.266472713784244
      ],
      [
        "ĠNelson",
        -10.266524956005732
      ],
      [
        "mil",
        -10.267408678955452
      ],
      [
        "ĠBal",
        -10.267442326836424
      ],
      [
        "Ġestabelecer",
        -10.268340621060176
      ],
      [
        "publicada",
        -10.26847606010126
      ],
      [
        "ĠSeguranÃ§a",
        -10.26893620238768
      ],
      [
        "Ġorienta",
        -10.269119809340648
      ],
      [
        "Teixeira",
        -10.269206333645965
      ],
      [
        "Ġespera",
        -10.2701229886117
      ],
      [
        "Ġgosta",
        -10.270493228100358
      ],
      [
        "Ġgrau",
        -10.270539970041026
      ],
      [
        "Ġ01",
        -10.271643341330115
      ],
      [
        "ĠRS",
        -10.271921832234073
      ],
      [
        "ĠAndrÃ©",
        -10.27233505948288
      ],
      [
        "ĠcidadÃ£o",
        -10.272358169035462
      ],
      [
        "Ġ39",
        -10.2736292916824
      ],
      [
        "DiscussÃ£o",
        -10.275146546141658
      ],
      [
        "Ġshow",
        -10.275304094820326
      ],
      [
        "Ġprocura",
        -10.27544148852924
      ],
      [
        "Ġcentral",
        -10.275874344840286
      ],
      [
        "ĠepisÃ³dio",
        -10.276728033558904
      ],
      [
        "Ġcri",
        -10.277227808397834
      ],
      [
        "ĠFun",
        -10.277912348902706
      ],
      [
        "candidato",
        -10.278585593112345
      ],
      [
        "pÃµe",
        -10.278702753282504
      ],
      [
        "Ġfac",
        -10.28080140873393
      ],
      [
        "raÃ§a",
        -10.281498156671152
      ],
      [
        "levou",
        -10.282650455471275
      ],
      [
        "vemos",
        -10.282784906099478
      ],
      [
        "preÃ§os",
        -10.283132340825864
      ],
      [
        "ĠSI",
        -10.283917007590802
      ],
      [
        "Ġespecifica",
        -10.284237850425232
      ],
      [
        "Ġanimais",
        -10.284417860633788
      ],
      [
        "ĠFutebol",
        -10.284574864535676
      ],
      [
        "Ġ1988",
        -10.285004821719747
      ],
      [
        "ĠNA",
        -10.285144729337487
      ],
      [
        "paciente",
        -10.285273697192135
      ],
      [
        "ĠDesde",
        -10.285573275400978
      ],
      [
        "Ġsala",
        -10.28628718531927
      ],
      [
        "Ġinvestiga",
        -10.286436819866662
      ],
      [
        "ĠChina",
        -10.286856240336476
      ],
      [
        "abaixo",
        -10.28731714544261
      ],
      [
        "Ġestilo",
        -10.289037186764702
      ],
      [
        "nacionais",
        -10.289051639684407
      ],
      [
        "ĠOlÃ¡",
        -10.28950133095363
      ],
      [
        "Ã¢nia",
        -10.289549397175133
      ],
      [
        "Ġmudar",
        -10.289791556458848
      ],
      [
        "ĠMO",
        -10.289936793668224
      ],
      [
        "ĠSÃ¡",
        -10.2902322109709
      ],
      [
        "Ġpratica",
        -10.290257684748182
      ],
      [
        "NÃ£o",
        -10.290940604863502
      ],
      [
        "Ġface",
        -10.292097311713292
      ],
      [
        "possam",
        -10.29221668090604
      ],
      [
        "deira",
        -10.292367928925584
      ],
      [
        "licitante",
        -10.293387719986471
      ],
      [
        "ĠAlberto",
        -10.293996826777798
      ],
      [
        "ÃŃdo",
        -10.294901408751224
      ],
      [
        "avaliaÃ§Ã£o",
        -10.29560234269798
      ],
      [
        "ĠNossa",
        -10.295607200738658
      ],
      [
        "á",
        -10.295840103172305
      ],
      [
        "tava",
        -10.29688888237118
      ],
      [
        "ĠciÃªncia",
        -10.297829819953137
      ],
      [
        "ĠZe",
        -10.298953604581769
      ],
      [
        "ĠPolÃŃtica",
        -10.299347690649666
      ],
      [
        "errado",
        -10.299915046699564
      ],
      [
        "Ġleva",
        -10.30016534189478
      ],
      [
        "Ġentrevista",
        -10.300274593238752
      ],
      [
        "rais",
        -10.301284821113512
      ],
      [
        "ney",
        -10.301770527503429
      ],
      [
        "ĠMG",
        -10.301804429970542
      ],
      [
        "ĠLuÃŃs",
        -10.30182333782536
      ],
      [
        "ĠMundo",
        -10.30251369668886
      ],
      [
        "ĠameaÃ§a",
        -10.30277633778626
      ],
      [
        "ĠAlemanha",
        -10.303475467971545
      ],
      [
        "Ġmesa",
        -10.303883017641086
      ],
      [
        "ĠAC",
        -10.304025454454449
      ],
      [
        "Ġfui",
        -10.304685489418748
      ],
      [
        "omissÃµes",
        -10.304964777320697
      ],
      [
        "ĠRequer",
        -10.305281114741211
      ],
      [
        "Ġoferece",
        -10.305558576518893
      ],
      [
        "Ġestes",
        -10.306585500777627
      ],
      [
        "vor",
        -10.306610433910128
      ],
      [
        "Ġacidente",
        -10.306637155561305
      ],
      [
        "ÃŃstico",
        -10.306796065873051
      ],
      [
        "oeste",
        -10.306807766334297
      ],
      [
        "Ġconseguir",
        -10.30755782415519
      ],
      [
        "tÃ¡rio",
        -10.307577635557102
      ],
      [
        "Ġrece",
        -10.308085241068529
      ],
      [
        "EMENTA",
        -10.308515471313486
      ],
      [
        "Ġdisciplina",
        -10.309019699402462
      ],
      [
        "Ġinicia",
        -10.309034552893449
      ],
      [
        "bus",
        -10.30910205129392
      ],
      [
        "Ġdemocracia",
        -10.309286682377506
      ],
      [
        "del",
        -10.310086762112274
      ],
      [
        "ĠCer",
        -10.310127571798056
      ],
      [
        "Ġvice",
        -10.310758094202503
      ],
      [
        "ĠGeral",
        -10.311045873742836
      ],
      [
        "Ġparticipa",
        -10.311102772272472
      ],
      [
        "Ġenfrenta",
        -10.311250862326467
      ],
      [
        "Ġpretende",
        -10.311835719114868
      ],
      [
        "relaÃ§Ãµes",
        -10.311886212678347
      ],
      [
        "tivesse",
        -10.312014908035904
      ],
      [
        "ĠFer",
        -10.312193992889831
      ],
      [
        "Ġlido",
        -10.31236422876498
      ],
      [
        "riam",
        -10.312375616785312
      ],
      [
        "Ġpedir",
        -10.312472127926954
      ],
      [
        "Ġrural",
        -10.312923363084565
      ],
      [
        "EUA",
        -10.313315023178832
      ],
      [
        "Ġexplorar",
        -10.313808933019796
      ],
      [
        "ĠfunÃ§Ãµes",
        -10.313824031924112
      ],
      [
        "Ġatender",
        -10.313832967335252
      ],
      [
        "Ġambiental",
        -10.314115240090556
      ],
      [
        "PSL",
        -10.314194178890896
      ],
      [
        "ĠmanhÃ£",
        -10.31433420921621
      ],
      [
        "ĠJesus",
        -10.315362618291228
      ],
      [
        "Ġefetiva",
        -10.315725617176785
      ],
      [
        "STA",
        -10.315931327566844
      ],
      [
        "atos",
        -10.31666952739904
      ],
      [
        "ĠART",
        -10.316770565403298
      ],
      [
        "ĠDepu",
        -10.316839723679696
      ],
      [
        "ĠMil",
        -10.316885293889358
      ],
      [
        "Geraldo",
        -10.317408476922568
      ],
      [
        "Ġfesta",
        -10.318044353515814
      ],
      [
        "PrevidÃªncia",
        -10.318045413881416
      ],
      [
        "Ġdaquel",
        -10.318659812901313
      ],
      [
        "ling",
        -10.31925755578304
      ],
      [
        "FundaÃ§Ã£o",
        -10.319292252630602
      ],
      [
        "Ġjornalista",
        -10.319694047189811
      ],
      [
        "deficiÃªncia",
        -10.319726327208986
      ],
      [
        "Ġcur",
        -10.32024212831905
      ],
      [
        "Ġespe",
        -10.320415371649108
      ],
      [
        "Ï",
        -10.320648452646092
      ],
      [
        "fronteira",
        -10.320823984606928
      ],
      [
        "ĠAto",
        -10.321298410853409
      ],
      [
        "ĠAlexandre",
        -10.322315811888323
      ],
      [
        "geraÃ§Ã£o",
        -10.322752838232583
      ],
      [
        "virtud",
        -10.323351582878566
      ],
      [
        "Ġimagem",
        -10.323531384377558
      ],
      [
        "tÃ¡ria",
        -10.323654749915072
      ],
      [
        "Ġtorno",
        -10.323909814721947
      ],
      [
        "decreto",
        -10.324339354158372
      ],
      [
        "CearÃ¡",
        -10.324692694841309
      ],
      [
        "Ġpaga",
        -10.324874221244391
      ],
      [
        "Ġunidade",
        -10.325119494183932
      ],
      [
        "ÃŃndice",
        -10.325147076099444
      ],
      [
        "ĠArthur",
        -10.32587637979793
      ],
      [
        "nais",
        -10.32680392442582
      ],
      [
        "ĠSerra",
        -10.326928792095396
      ],
      [
        "ĠRede",
        -10.327020973109324
      ],
      [
        "Ġpalavras",
        -10.327113452584864
      ],
      [
        "Ġinvestimento",
        -10.327464763619956
      ],
      [
        "TER",
        -10.327586010049345
      ],
      [
        "apresentou",
        -10.32772322868636
      ],
      [
        "Ġzona",
        -10.3279810856508
      ],
      [
        "Ġconcurso",
        -10.328135470796337
      ],
      [
        "Ġ62",
        -10.328581130490717
      ],
      [
        "ĠrÃ¡pido",
        -10.328609955913851
      ],
      [
        "imagens",
        -10.328855845357523
      ],
      [
        "nunciou",
        -10.328942055181884
      ],
      [
        "SRA",
        -10.329155197705534
      ],
      [
        "CIA",
        -10.32953682506822
      ],
      [
        "lizado",
        -10.329928082735517
      ],
      [
        "trecho",
        -10.3300130516189
      ],
      [
        "alteraÃ§Ã£o",
        -10.330245956901956
      ],
      [
        "ĠLisboa",
        -10.33041919254419
      ],
      [
        "Ġprocedimento",
        -10.330445273779567
      ],
      [
        "Departamento",
        -10.332219317352996
      ],
      [
        "pÃºblicas",
        -10.332788455713754
      ],
      [
        "Ġdetermina",
        -10.335568825380513
      ],
      [
        "ĠDom",
        -10.336088856818597
      ],
      [
        "conflito",
        -10.33646191003331
      ],
      [
        "evoluÃ§Ã£o",
        -10.336712187247086
      ],
      [
        "ĠLegislativa",
        -10.33829746468236
      ],
      [
        "Ġexpressa",
        -10.339212343493957
      ],
      [
        "exigÃªncia",
        -10.339693836313124
      ],
      [
        "mann",
        -10.339971229360138
      ],
      [
        "Ġpobre",
        -10.340527063119938
      ],
      [
        "ĠVai",
        -10.34159513270135
      ],
      [
        "Ġigreja",
        -10.342248509590076
      ],
      [
        "Ġpromover",
        -10.34228167093089
      ],
      [
        "advogado",
        -10.342845757682309
      ],
      [
        "ĠMichel",
        -10.343202028690651
      ],
      [
        "Ġconceito",
        -10.34324968215102
      ],
      [
        "Ġsai",
        -10.343266473052392
      ],
      [
        "ĠopiniÃ£o",
        -10.34337141431246
      ],
      [
        "ĠPan",
        -10.343592727988783
      ],
      [
        "ĠDESPACH",
        -10.34387931032127
      ],
      [
        "2020",
        -10.344341668497997
      ],
      [
        "hon",
        -10.345502999174345
      ],
      [
        "lis",
        -10.34552106069932
      ],
      [
        "Ġetc",
        -10.346319164545656
      ],
      [
        "relativo",
        -10.346526502772544
      ],
      [
        "ĠWal",
        -10.347849257759568
      ],
      [
        "referida",
        -10.347981630048432
      ],
      [
        "Ġentender",
        -10.34817272131624
      ],
      [
        "ĠMarcos",
        -10.348289177538277
      ],
      [
        "Ġfinanceiro",
        -10.34906732142975
      ],
      [
        "Ġguarda",
        -10.349414288506312
      ],
      [
        "Ī",
        -10.349587014691446
      ],
      [
        "leitura",
        -10.351726607112452
      ],
      [
        "ĠpeÃ§a",
        -10.351944099860711
      ],
      [
        "Ġanti",
        -10.353308205001152
      ],
      [
        "retorno",
        -10.353361823012143
      ],
      [
        "urgÃªncia",
        -10.353415115379564
      ],
      [
        "ĠVista",
        -10.353669773621924
      ],
      [
        "Ġrenova",
        -10.354080971283445
      ],
      [
        "Ġconsegue",
        -10.354652892663983
      ],
      [
        "ĠCur",
        -10.354870219607356
      ],
      [
        "mal",
        -10.355230800911542
      ],
      [
        "ĠorientaÃ§Ã£o",
        -10.355371943742352
      ],
      [
        "ĠAgrav",
        -10.355398780346256
      ],
      [
        "ĠPp",
        -10.355656293036905
      ],
      [
        "½",
        -10.356212979557188
      ],
      [
        "havend",
        -10.356367333653528
      ],
      [
        "PÃ¡gina",
        -10.356406757428664
      ],
      [
        "Ġamericano",
        -10.357082428932337
      ],
      [
        "ĠParis",
        -10.358003263527976
      ],
      [
        "doenÃ§a",
        -10.359127609367826
      ],
      [
        "ĠUr",
        -10.359489289368256
      ],
      [
        "juros",
        -10.359637032377826
      ],
      [
        "www",
        -10.360375821702476
      ],
      [
        "ResoluÃ§Ã£o",
        -10.360604808017952
      ],
      [
        "Ġbanco",
        -10.36065232471603
      ],
      [
        "privado",
        -10.36086638928368
      ],
      [
        "ĠjustiÃ§a",
        -10.361675070531616
      ],
      [
        "Ġataque",
        -10.361933675648702
      ],
      [
        "ĠOUTR",
        -10.362672829909693
      ],
      [
        "ĠdenÃºncia",
        -10.363722514754103
      ],
      [
        "substitutivo",
        -10.363946377630068
      ],
      [
        "ĠRodrigo",
        -10.364158361947416
      ],
      [
        "ĠQuanto",
        -10.364382914649696
      ],
      [
        "Jogos",
        -10.364431241405065
      ],
      [
        "quilo",
        -10.364719821666265
      ],
      [
        "Ġfeliz",
        -10.36497241672152
      ],
      [
        "benefÃŃcios",
        -10.365203681254012
      ],
      [
        "ocorreu",
        -10.365357984162886
      ],
      [
        "¾",
        -10.36537144409361
      ],
      [
        "estaÃ§Ã£o",
        -10.36560186240072
      ],
      [
        "ĠSobre",
        -10.365763860783138
      ],
      [
        "ĠsaÃŃd",
        -10.36637635248615
      ],
      [
        "humanos",
        -10.366399108375225
      ],
      [
        "bin",
        -10.36708694015215
      ],
      [
        "Moreira",
        -10.367197309461192
      ],
      [
        "gli",
        -10.367337684477532
      ],
      [
        "ĠGer",
        -10.368215538448718
      ],
      [
        "ĠcomeÃ§ar",
        -10.368588196754857
      ],
      [
        "Ġ1994",
        -10.369230638572178
      ],
      [
        "vontade",
        -10.36980906885492
      ],
      [
        "Ġcarga",
        -10.370632509988878
      ],
      [
        "ADA",
        -10.37083642416637
      ],
      [
        "ĠAM",
        -10.371105362160453
      ],
      [
        "assistÃªncia",
        -10.371881032962126
      ],
      [
        "Ġrua",
        -10.371962858915705
      ],
      [
        "ĠRei",
        -10.372629102071778
      ],
      [
        "Ġpreso",
        -10.373261092808296
      ],
      [
        "fiscalizaÃ§Ã£o",
        -10.373452817822454
      ],
      [
        "parceria",
        -10.3740843845032
      ],
      [
        "Ġ90",
        -10.374601617667272
      ],
      [
        "amanhÃ£",
        -10.375003539417172
      ],
      [
        "rÃ¡pida",
        -10.375489600795712
      ],
      [
        "PrÃªmio",
        -10.376101430028422
      ],
      [
        "Ġconstitui",
        -10.376829499242689
      ],
      [
        "Ġouvir",
        -10.37755777224136
      ],
      [
        "gor",
        -10.377653390871911
      ],
      [
        "Ġcontas",
        -10.377707770748543
      ],
      [
        "Ġpermanece",
        -10.377859951369578
      ],
      [
        "PpP",
        -10.378055125650668
      ],
      [
        "instalaÃ§Ã£o",
        -10.378839851231843
      ],
      [
        "ficado",
        -10.379398069334895
      ],
      [
        "assi",
        -10.379437098669507
      ],
      [
        "Proposta",
        -10.38000423991254
      ],
      [
        "ĠBor",
        -10.380188241954729
      ],
      [
        "Ġcuidado",
        -10.380669589686269
      ],
      [
        "Ġcoloca",
        -10.380779084113184
      ],
      [
        "investimentos",
        -10.381523266781985
      ],
      [
        "ENTE",
        -10.381646690177815
      ],
      [
        "ĠPARA",
        -10.382466008065402
      ],
      [
        "ĠForÃ§a",
        -10.383226686145488
      ],
      [
        "Ġjuiz",
        -10.383881415554344
      ],
      [
        "ĠNada",
        -10.384768160323524
      ],
      [
        "mulo",
        -10.384839194401424
      ],
      [
        "Ġquinta",
        -10.385549403725514
      ],
      [
        "Ġhumana",
        -10.38623252997722
      ],
      [
        "Ġtrabalhador",
        -10.38624604321138
      ],
      [
        "atu",
        -10.386514709419576
      ],
      [
        "ĠNeste",
        -10.387417906882586
      ],
      [
        "ĠCruz",
        -10.38815453313791
      ],
      [
        "Ġerro",
        -10.388164379684657
      ],
      [
        "emendas",
        -10.388333509489854
      ],
      [
        "Ġaplica",
        -10.38901108913928
      ],
      [
        "Ġcorpus",
        -10.3900266928262
      ],
      [
        "preciaÃ§Ã£o",
        -10.39007494531032
      ],
      [
        "FederaÃ§Ã£o",
        -10.390186533482227
      ],
      [
        "Ġdefende",
        -10.391075342281978
      ],
      [
        "Ġregistrado",
        -10.391104689355496
      ],
      [
        "ĠAltera",
        -10.39131584273774
      ],
      [
        "precisamos",
        -10.392509490171088
      ],
      [
        "Ġalega",
        -10.393151342594852
      ],
      [
        "dida",
        -10.393598284726194
      ],
      [
        "Ġatingi",
        -10.393733499748542
      ],
      [
        "prÃªmio",
        -10.393751491668578
      ],
      [
        "Ġreserva",
        -10.393899531186127
      ],
      [
        "Ġcompanhia",
        -10.394651106819603
      ],
      [
        "Ġrealiza",
        -10.39497162318159
      ],
      [
        "Ġmedo",
        -10.395236674421264
      ],
      [
        "avanÃ§o",
        -10.395441982704977
      ],
      [
        "americano",
        -10.3957926023477
      ],
      [
        "campeÃ£o",
        -10.395822051245384
      ],
      [
        "ĠCapi",
        -10.396153836574028
      ],
      [
        "Ġresulta",
        -10.396346002684997
      ],
      [
        "Ġreclama",
        -10.396436347080977
      ],
      [
        "existem",
        -10.396725423863202
      ],
      [
        "expressÃ£o",
        -10.397390765999884
      ],
      [
        "Amazonas",
        -10.397485471531253
      ],
      [
        "retirada",
        -10.398279154864218
      ],
      [
        "definiÃ§Ã£o",
        -10.398448353336784
      ],
      [
        "etapa",
        -10.399065072158452
      ],
      [
        "ĠfaÃ§a",
        -10.39918832247631
      ],
      [
        "ĠParlamento",
        -10.399496215684705
      ],
      [
        "ĠSin",
        -10.399499969078017
      ],
      [
        "ĠSai",
        -10.399506247483696
      ],
      [
        "apensado",
        -10.399553356500173
      ],
      [
        "ation",
        -10.39971129508405
      ],
      [
        "ĠfaÃ§o",
        -10.3999583477999
      ],
      [
        "consumo",
        -10.400214182711322
      ],
      [
        "gravada",
        -10.400872511869675
      ],
      [
        "equipamentos",
        -10.401292512283575
      ],
      [
        "ĠNeto",
        -10.401897040761176
      ],
      [
        "tinho",
        -10.402136804513123
      ],
      [
        "ĠlÃŃder",
        -10.40277963864208
      ],
      [
        "Ġpartida",
        -10.403100927783496
      ],
      [
        "Ġgosto",
        -10.403514738848685
      ],
      [
        "Ġvoz",
        -10.403595096255316
      ],
      [
        "tais",
        -10.403685151273798
      ],
      [
        "elementos",
        -10.404044359841311
      ],
      [
        "ĠJU",
        -10.404159126434337
      ],
      [
        "Ġconhece",
        -10.40422862249563
      ],
      [
        "Barbosa",
        -10.40459057061252
      ],
      [
        "Ġrespectiva",
        -10.405259154536688
      ],
      [
        "Ġjogador",
        -10.405721159821264
      ],
      [
        "agentes",
        -10.405887480430453
      ],
      [
        "Ġoferta",
        -10.406226241225772
      ],
      [
        "Ġeventos",
        -10.406397907160034
      ],
      [
        "Ġtermina",
        -10.407251314591244
      ],
      [
        "Ġexporta",
        -10.407598597623512
      ],
      [
        "ĠHar",
        -10.40801528379076
      ],
      [
        "contexto",
        -10.408399488774217
      ],
      [
        "ĠVila",
        -10.40852370329188
      ],
      [
        "Ġescolha",
        -10.408708874240425
      ],
      [
        "ĠMeio",
        -10.408907512322608
      ],
      [
        "Ġdispor",
        -10.408977937990777
      ],
      [
        "·",
        -10.409288307488302
      ],
      [
        "empresÃ¡rio",
        -10.411130038426233
      ],
      [
        "ĠRegional",
        -10.411202566581569
      ],
      [
        "Ġvelho",
        -10.41123129861069
      ],
      [
        "Ġinternacionais",
        -10.411392306283144
      ],
      [
        "Ġgera",
        -10.411404871630616
      ],
      [
        "ocalidades",
        -10.411532063286936
      ],
      [
        "all",
        -10.411600990239377
      ],
      [
        "Mar",
        -10.411744429588389
      ],
      [
        "Ġbe",
        -10.411885152730145
      ],
      [
        "Ġtinham",
        -10.41326352323418
      ],
      [
        "Ġdaqui",
        -10.413639562193456
      ],
      [
        "desempenho",
        -10.413723084787913
      ],
      [
        "Ġesti",
        -10.413744885092516
      ],
      [
        "ther",
        -10.414555249077562
      ],
      [
        "Ġ1993",
        -10.41473497730783
      ],
      [
        "the",
        -10.415101575719936
      ],
      [
        "ĠDeve",
        -10.415405599237571
      ],
      [
        "Ġplanta",
        -10.415749292997791
      ],
      [
        "http",
        -10.415813489727103
      ],
      [
        "Ġesposa",
        -10.416114231151829
      ],
      [
        "Ġcima",
        -10.416151070648295
      ],
      [
        "Ġvinte",
        -10.416478460951492
      ],
      [
        "Ġeleitoral",
        -10.416943020988253
      ],
      [
        "Ġsexta",
        -10.416964730608848
      ],
      [
        "Ġcarta",
        -10.41726974899807
      ],
      [
        "Ġadequa",
        -10.417280557554385
      ],
      [
        "tentativa",
        -10.418020226887208
      ],
      [
        "ĠIN",
        -10.41928120926217
      ],
      [
        "ĠTim",
        -10.420131292019224
      ],
      [
        "ĠCap",
        -10.420489970401231
      ],
      [
        "ĠjurisprudÃªncia",
        -10.420624255772156
      ],
      [
        "veÃŃculos",
        -10.420913936462876
      ],
      [
        "ĠalÃŃnea",
        -10.420916122136743
      ],
      [
        "RelaÃ§Ãµes",
        -10.421437429451158
      ],
      [
        "Ġhabita",
        -10.42186746694878
      ],
      [
        "Ġcomando",
        -10.42259981046202
      ],
      [
        "Ġfogo",
        -10.42293196583996
      ],
      [
        "AgÃªncia",
        -10.42295949572655
      ],
      [
        "Ġresto",
        -10.423565968631245
      ],
      [
        "ĠalcanÃ§",
        -10.424312399425364
      ],
      [
        "ĠMagalhÃ£es",
        -10.425119165463435
      ],
      [
        "Ġvive",
        -10.425165426881184
      ],
      [
        "Ġampla",
        -10.4255247519018
      ],
      [
        "reconhecimento",
        -10.42584249742125
      ],
      [
        "MAN",
        -10.426200276636733
      ],
      [
        "endente",
        -10.42647826062216
      ],
      [
        "ĠIsto",
        -10.426510152226836
      ],
      [
        "2002",
        -10.42693414973775
      ],
      [
        "Ġquebra",
        -10.42697288183822
      ],
      [
        "Ġprodutor",
        -10.4281975443632
      ],
      [
        "Ĵ",
        -10.428347479574107
      ],
      [
        "onda",
        -10.429068431228838
      ],
      [
        "ĠusuÃ¡rio",
        -10.429146780493658
      ],
      [
        "PRIMEIR",
        -10.429429907117743
      ],
      [
        "convidado",
        -10.430423849312268
      ],
      [
        "Ġposto",
        -10.430525222271774
      ],
      [
        "Ġdado",
        -10.431343826218432
      ],
      [
        "ĠSam",
        -10.431840838375669
      ],
      [
        "elli",
        -10.431989707599833
      ],
      [
        "Ġcorte",
        -10.432501815944006
      ],
      [
        "ð",
        -10.43275428717683
      ],
      [
        "Ġinclui",
        -10.43315749856094
      ],
      [
        "Ġven",
        -10.433243782442329
      ],
      [
        "ĠCarreira",
        -10.433672850244726
      ],
      [
        "francÃªs",
        -10.434106289068607
      ],
      [
        "rena",
        -10.434140523508464
      ],
      [
        "ĠMARCO",
        -10.43422848017547
      ],
      [
        "ĠTal",
        -10.435061830364653
      ],
      [
        "ĠClaro",
        -10.435088111340429
      ],
      [
        "Ġrelator",
        -10.436054431378611
      ],
      [
        "ĠlicenÃ§a",
        -10.436180486387732
      ],
      [
        "presidente",
        -10.436401682446508
      ],
      [
        "ĠJan",
        -10.437458862916843
      ],
      [
        "ĠExterior",
        -10.437675184702249
      ],
      [
        "apelo",
        -10.438172741130073
      ],
      [
        "decisÃµes",
        -10.439929896419883
      ],
      [
        "necessÃ¡ria",
        -10.440040903529052
      ],
      [
        "metade",
        -10.441583806521852
      ],
      [
        "Ġaumenta",
        -10.441659062385057
      ],
      [
        "Ġassinatura",
        -10.442015605375968
      ],
      [
        "administrativo",
        -10.44252896183712
      ],
      [
        "Ġposse",
        -10.442803527227
      ],
      [
        "ĠPER",
        -10.443402138943313
      ],
      [
        "ĠCPI",
        -10.443478879201676
      ],
      [
        "provÃŃncia",
        -10.44431118003212
      ],
      [
        "ĠFolha",
        -10.444651856497272
      ],
      [
        "ĠFerreira",
        -10.445334296729555
      ],
      [
        "Ġ200",
        -10.445886312174371
      ],
      [
        "Ġjunta",
        -10.446449734797833
      ],
      [
        "Enquanto",
        -10.446511181056264
      ],
      [
        "ĠClube",
        -10.44653106401138
      ],
      [
        "Ġexterior",
        -10.446766006963388
      ],
      [
        "Ġnove",
        -10.446780490468152
      ],
      [
        "Ġinstru",
        -10.446997108211804
      ],
      [
        "gula",
        -10.447079985606935
      ],
      [
        "ĠConstitucional",
        -10.447290042662353
      ],
      [
        "indicaÃ§Ã£o",
        -10.44793145138502
      ],
      [
        "Ġindi",
        -10.448371743470728
      ],
      [
        "Ġcursos",
        -10.44959896064626
      ],
      [
        "Ġencaminh",
        -10.44973750765982
      ],
      [
        "Ġseguro",
        -10.449795876486538
      ],
      [
        "ĠrÃ¡dio",
        -10.449879358467594
      ],
      [
        "............",
        -10.4501892017373
      ],
      [
        "Ġcontato",
        -10.450324801405923
      ],
      [
        "finalidade",
        -10.45100398285117
      ],
      [
        "ĠSO",
        -10.4510511302408
      ],
      [
        "ĠelÃ©trica",
        -10.451129511997587
      ],
      [
        "licitaÃ§Ã£o",
        -10.451356519757452
      ],
      [
        "ĠcompetiÃ§Ã£o",
        -10.45175471742662
      ],
      [
        "Ġconsidera",
        -10.452611726921036
      ],
      [
        "Ġcinema",
        -10.45278606839061
      ],
      [
        "incidÃªncia",
        -10.45289393900278
      ],
      [
        "Ġchance",
        -10.453358439538476
      ],
      [
        "Ġaceita",
        -10.454128740197795
      ],
      [
        "Ġcultural",
        -10.454581450743646
      ],
      [
        "ĠOrÃ§ament",
        -10.454842658320374
      ],
      [
        "Ġ1992",
        -10.455834767703656
      ],
      [
        "Ġlivros",
        -10.456541955346534
      ],
      [
        "Ġregistrar",
        -10.45702363611374
      ],
      [
        "Ġterceira",
        -10.457251186603076
      ],
      [
        "ella",
        -10.458306071820628
      ],
      [
        "funcionamento",
        -10.45883830200656
      ],
      [
        "ESTADO",
        -10.459183544353358
      ],
      [
        "Outra",
        -10.45963400655901
      ],
      [
        "ĠMello",
        -10.460332899023337
      ],
      [
        "onclusÃ£o",
        -10.46053219872146
      ],
      [
        "votos",
        -10.46079712259736
      ],
      [
        "MÃ£o",
        -10.4608266651836
      ],
      [
        "exploraÃ§Ã£o",
        -10.461407175572312
      ],
      [
        "Ġatende",
        -10.461690693091684
      ],
      [
        "ĠEspanha",
        -10.462534383177434
      ],
      [
        "vado",
        -10.46298724062476
      ],
      [
        "Ġentende",
        -10.46300590048238
      ],
      [
        "Ġimediata",
        -10.463244625343036
      ],
      [
        "Ġpersonagem",
        -10.463257106314988
      ],
      [
        "Ġinteiro",
        -10.463276191589248
      ],
      [
        "ĠMer",
        -10.463412715259777
      ],
      [
        "Ġveja",
        -10.464447307402914
      ],
      [
        "ĠConstitui",
        -10.465683486661268
      ],
      [
        "ĠPaul",
        -10.465836101700956
      ],
      [
        "Embora",
        -10.466348327913478
      ],
      [
        "tributÃ¡ria",
        -10.466388420117578
      ],
      [
        "ĠEli",
        -10.466545685547375
      ],
      [
        "Ġsenti",
        -10.466651054923757
      ],
      [
        "policiais",
        -10.467645076933822
      ],
      [
        "ĠdistÃ¢ncia",
        -10.46775838676694
      ],
      [
        "fundamento",
        -10.468405076641089
      ],
      [
        "Ġsabia",
        -10.468648192542618
      ],
      [
        "Ġprefeito",
        -10.468812669842636
      ],
      [
        "Ġjoga",
        -10.4699047914803
      ],
      [
        "comÃ©rcio",
        -10.470285383447004
      ],
      [
        "Ġitem",
        -10.470428520247914
      ],
      [
        "ĠespÃ©cies",
        -10.470471409122236
      ],
      [
        "Ġpermanente",
        -10.47051372315542
      ],
      [
        "Ġproduzir",
        -10.471230150151271
      ],
      [
        "ĠVida",
        -10.47137164233134
      ],
      [
        "Ġcal",
        -10.47167372419816
      ],
      [
        "trinta",
        -10.47189553473268
      ],
      [
        "cir",
        -10.472637510729642
      ],
      [
        "Ġquiser",
        -10.473292161969315
      ],
      [
        "Ġindividual",
        -10.473455574124824
      ],
      [
        "lex",
        -10.47354930366675
      ],
      [
        "geralmente",
        -10.473711198429385
      ],
      [
        "Ġadolescente",
        -10.476484108522522
      ],
      [
        "ĠDan",
        -10.476718024419956
      ],
      [
        "lizar",
        -10.477149806668924
      ],
      [
        "ĠYork",
        -10.477166405659498
      ],
      [
        "ĠMc",
        -10.477322913256248
      ],
      [
        "ĠMartins",
        -10.47741171379627
      ],
      [
        "tive",
        -10.4774193847153
      ],
      [
        "Ġpaz",
        -10.478058076447825
      ],
      [
        "Ġdiminui",
        -10.478683181704328
      ],
      [
        "ĠMuseu",
        -10.47916175574702
      ],
      [
        "ligaÃ§Ã£o",
        -10.479880310006012
      ],
      [
        "Ġpensar",
        -10.480080459375513
      ],
      [
        "mantid",
        -10.480938643116865
      ],
      [
        "Parlamentare",
        -10.481368082172708
      ],
      [
        "Couto",
        -10.48267518546471
      ],
      [
        "fizeram",
        -10.483123177656523
      ],
      [
        "ĠfÃ¡cil",
        -10.4832155810919
      ],
      [
        "ĠParte",
        -10.48356896459553
      ],
      [
        "Ġimplica",
        -10.48365928152793
      ],
      [
        "Bibliografia",
        -10.483862740192658
      ],
      [
        "ric",
        -10.484674034829636
      ],
      [
        "domÃŃnio",
        -10.485340298968495
      ],
      [
        "Ġaquilo",
        -10.485662504150705
      ],
      [
        "Ġconversa",
        -10.485972498337818
      ],
      [
        "Pernambuco",
        -10.486351738637271
      ],
      [
        "ordinÃ¡ria",
        -10.48684263852456
      ],
      [
        "ĠAntes",
        -10.486911625414852
      ],
      [
        "usando",
        -10.487160933447749
      ],
      [
        "ĠMelhor",
        -10.488628947946257
      ],
      [
        "ĠprÃ©vi",
        -10.48883275589496
      ],
      [
        "Ġ1913",
        -10.490042331691823
      ],
      [
        "Ġenorme",
        -10.490748687944166
      ],
      [
        "ĠAgricultura",
        -10.491270137022443
      ],
      [
        "Ġlonga",
        -10.491469342712664
      ],
      [
        "estudantes",
        -10.491480636516703
      ],
      [
        "consumidor",
        -10.492141831653772
      ],
      [
        "ĠNÃĥO",
        -10.492193082333516
      ],
      [
        "esteja",
        -10.49255440413605
      ],
      [
        "terminou",
        -10.492743048496916
      ],
      [
        "Ġinsti",
        -10.493151990734924
      ],
      [
        "professores",
        -10.493780182567557
      ],
      [
        "Ġobservado",
        -10.493844318966364
      ],
      [
        "ĠcrÃŃtica",
        -10.494008208035892
      ],
      [
        "bÃ¡sica",
        -10.494667941617198
      ],
      [
        "morreu",
        -10.49491575339923
      ],
      [
        "Vieira",
        -10.49536513962746
      ],
      [
        "Ġfamiliar",
        -10.495441848318912
      ],
      [
        "Ġtele",
        -10.495942898650927
      ],
      [
        "Ġpensa",
        -10.496502704028671
      ],
      [
        "ĠParece",
        -10.49657923670695
      ],
      [
        "Ġdemonstra",
        -10.49662573198297
      ],
      [
        "Ġclara",
        -10.497828358379005
      ],
      [
        "petrÃ³leo",
        -10.498089106768548
      ],
      [
        "nanimidade",
        -10.498653963680688
      ],
      [
        "trÃ¢nsito",
        -10.498943089869767
      ],
      [
        "ick",
        -10.499048471928427
      ],
      [
        "Ġlimita",
        -10.499149885056942
      ],
      [
        "aposentadoria",
        -10.50018586084456
      ],
      [
        "Ġjeito",
        -10.500260604060998
      ],
      [
        "iauÃŃ",
        -10.501314136059287
      ],
      [
        "companheiro",
        -10.502535973561052
      ],
      [
        "patrimÃ´nio",
        -10.502630251567911
      ],
      [
        "ĠMonte",
        -10.50270386229481
      ],
      [
        "Ġsenador",
        -10.503047664463065
      ],
      [
        "Ĩ",
        -10.503435318351176
      ],
      [
        "Ġindica",
        -10.503830850639863
      ],
      [
        "ĠNovo",
        -10.504140898992318
      ],
      [
        "arney",
        -10.504440563358289
      ],
      [
        "¸",
        -10.505225677861432
      ],
      [
        "escrita",
        -10.505361865879909
      ],
      [
        "postos",
        -10.505655423381702
      ],
      [
        "recebido",
        -10.506158221626226
      ],
      [
        "Ġinferior",
        -10.50617227088702
      ],
      [
        "Ġalternativa",
        -10.506503190810411
      ],
      [
        "Ġmensagem",
        -10.50665216586848
      ],
      [
        "Ġanteriores",
        -10.507385694265896
      ],
      [
        "ÃŃveis",
        -10.507536997034231
      ],
      [
        "Ġrapid",
        -10.50810513988374
      ],
      [
        "Ġofens",
        -10.508385833874916
      ],
      [
        "ĠMachado",
        -10.508465692903822
      ],
      [
        "bot",
        -10.509085650556289
      ],
      [
        "Ġpatr",
        -10.509586471449438
      ],
      [
        "ĠAurÃ©li",
        -10.510763544735855
      ],
      [
        "Ġintegral",
        -10.510825964163208
      ],
      [
        "Ġreferente",
        -10.511259536766971
      ],
      [
        "2001",
        -10.51163124513582
      ],
      [
        "Ġvolume",
        -10.511651895832882
      ],
      [
        "transferÃªncia",
        -10.51168258958948
      ],
      [
        "ocumentaÃ§Ã£o",
        -10.512738896309353
      ],
      [
        "ĠcoraÃ§Ã£o",
        -10.512889657595569
      ],
      [
        "Ġhabe",
        -10.513292586177451
      ],
      [
        "Ġpreocupa",
        -10.513346313070995
      ],
      [
        "µ",
        -10.513373683951068
      ],
      [
        "Ġdesen",
        -10.51429347077644
      ],
      [
        "passando",
        -10.514722569429235
      ],
      [
        "Ãģfrica",
        -10.514735581118147
      ],
      [
        "âĢĵâĢĵâĢĵâĢĵâĢĵ",
        -10.514748302113295
      ],
      [
        "Ġaberta",
        -10.51514867913891
      ],
      [
        "tte",
        -10.515912174700327
      ],
      [
        "Ġacompanh",
        -10.516160892659856
      ],
      [
        "investigaÃ§Ã£o",
        -10.516236070715609
      ],
      [
        "erra",
        -10.516238126563396
      ],
      [
        "camp",
        -10.51660260403109
      ],
      [
        "ĠGO",
        -10.5166969944955
      ],
      [
        "ĠCultural",
        -10.516745377690794
      ],
      [
        "»",
        -10.517277309707206
      ],
      [
        "Com",
        -10.517314396720687
      ],
      [
        "horÃ¡rio",
        -10.518590317704284
      ],
      [
        "ĠEdita",
        -10.518834123591288
      ],
      [
        "redor",
        -10.518955654387366
      ],
      [
        "produtores",
        -10.519106888946586
      ],
      [
        "Ġmostrar",
        -10.519121940714871
      ],
      [
        "ĠWilliam",
        -10.519379613101895
      ],
      [
        "Rodrigo",
        -10.52003078055929
      ],
      [
        "PLS",
        -10.520157898466334
      ],
      [
        "ĠPare",
        -10.520808398050631
      ],
      [
        "Ġaltura",
        -10.52124448787218
      ],
      [
        "desafio",
        -10.52183524914564
      ],
      [
        "Į",
        -10.522066045332911
      ],
      [
        "Candido",
        -10.522129598001705
      ],
      [
        "Ġolhos",
        -10.522178892653791
      ],
      [
        "ĠItÃ¡lia",
        -10.522255228826458
      ],
      [
        "ļ",
        -10.522302454965876
      ],
      [
        "ĠJapÃ£o",
        -10.522671138580458
      ],
      [
        "funcionÃ¡rios",
        -10.522918370349869
      ],
      [
        "Renan",
        -10.523111578620524
      ],
      [
        "cÃ³pia",
        -10.523157060859935
      ],
      [
        "tomada",
        -10.523806222392766
      ],
      [
        "ĠEspÃŃrit",
        -10.5248004608033
      ],
      [
[...]
