{
  "version": "1.0",
  "truncation": {
    "direction": "Right",
    "max_length": 1024,
    "strategy": "LongestFirst",
    "stride": 0
  },
  "padding": null,
  "added_tokens": [
    {
      "id": 0,
      "content": "[PAD]",
      "single_word": false,
      "lstrip": false,
      "rstrip": false,
      "normalized": false,
      "special": true
    },
    {
      "id": 1,
      "content": "[SEP]",
      "single_word": false,
      "lstrip": false,
      "rstrip": false,
      "normalized": false,
      "special": true
    },
    {
      "id": 2,
      "content": "[EOS]",
      "single_word": false,
      "lstrip": false,
      "rstrip": false,
      "normalized": false,
      "special": true
    },
    {
      "id": 3,
      "content": "[UNK]",
      "single_word": false,
      "lstrip": false,
      "rstrip": false,
      "normalized": false,
      "special": true
    }
  ],
  "normalizer": {
    "type": "Sequence",
    "normalizers": [
      {
        "type": "Strip",
        "strip_left": true,
        "strip_right": true
      },
      {
        "type": "NFKD"
      }
    ]
  },
  "pre_tokenizer": {
    "type": "ByteLevel",
    "add_prefix_space": true,
    "trim_offsets": true,
    "use_regex": true
  },
  "post_processor": {
    "type": "Sequence",
    "processors": [
      {
        "type": "ByteLevel",
        "add_prefix_space": true,
        "trim_offsets": true,
        "use_regex": true
      },
      {
        "type": "TemplateProcessing",
        "single": [
          {
            "Sequence": {
              "id": "A",
              "type_id": 0
            }
          },
          {
            "SpecialToken": {
              "id": "[EOS]",
              "type_id": 0
            }
          }
        ],
        "pair": [
          {
            "Sequence": {
              "id": "A",
              "type_id": 0
            }
          },
          {
            "SpecialToken": {
              "id": "[SEP]",
              "type_id": 0
            }
          },
          {
            "Sequence": {
              "id": "B",
              "type_id": 0
            }
          },
          {
            "SpecialToken": {
              "id": "[EOS]",
              "type_id": 0
            }
          }
        ],
        "special_tokens": {
          "[EOS]": {
            "id": "[EOS]",
            "ids": [
              2
            ],
            "tokens": [
              "[EOS]"
            ]
          },
          "[SEP]": {
            "id": "[SEP]",
            "ids": [
              1
            ],
            "tokens": [
              "[SEP]"
            ]
          }
        }
      }
    ]
  },
  "decoder": {
    "type": "ByteLevel",
    "add_prefix_space": true,
    "trim_offsets": true,
    "use_regex": true
  },
  "model": {
    "type": "Unigram",
    "unk_id": 3,
    "vocab": [
      [
        "[PAD]",
        0.0
      ],
      [
        "[SEP]",
        0.0
      ],
      [
        "[EOS]",
        0.0
      ],
      [
        "[UNK]",
        0.0
      ],
      [
        "Ġ",
        -2.207975494878191
      ],
      [
        "o",
        -3.007042898148391
      ],
      [
        "a",
        -3.1055437126423264
      ],
      [
        "s",
        -3.282767875768922
      ],
      [
        ",",
        -3.3974042365659933
      ],
      [
        "Ìģ",
        -3.4623292284699083
      ],
      [
        "e",
        -3.542580767506312
      ],
      [
        ".",
        -3.621012960890006
      ],
      [
        "Ġde",
        -3.73271130417438
      ],
      [
        "Ìĥ",
        -3.783058768485595
      ],
      [
        "Ì§",
        -4.221490647834727
      ],
      [
        "-",
        -4.676666722021547
      ],
      [
        "Ġque",
        -4.703786265182096
      ],
      [
        "Ġdo",
        -4.722499992231938
      ],
      [
        "r",
        -4.817333862424139
      ],
      [
        "Ġda",
        -4.877286868477007
      ],
      [
        "u",
        -4.918814330780613
      ],
      [
        "m",
        -4.971745254748839
      ],
      [
        "ÌĤ",
        -5.0883850467783915
      ],
      [
        "c",
        -5.133146617405298
      ],
      [
        "Ġna",
        -5.232828606156989
      ],
      [
        "n",
        -5.2518447527318735
      ],
      [
        "i",
        -5.272130696711233
      ],
      [
        "O",
        -5.295043673605445
      ],
      [
        "Ġem",
        -5.298985362577625
      ],
      [
        "\"",
        -5.351291954879194
      ],
      [
        "Ġno",
        -5.382343543153148
      ],
      [
        "(",
        -5.406748925758752
      ],
      [
        "Ġpara",
        -5.503074284657281
      ],
      [
        "l",
        -5.513940441862847
      ],
      [
        "Ġcom",
        -5.621247434759976
      ],
      [
        ")",
        -5.661871847386212
      ],
      [
        "t",
        -5.695444579195005
      ],
      [
        "ĠA",
        -5.75212436957505
      ],
      [
        ":",
        -5.845064671155674
      ],
      [
        "Ġum",
        -5.857002283116072
      ],
      [
        "ĠâĢĵ",
        -5.882285121578416
      ],
      [
        "/",
        -5.886903661054216
      ],
      [
        "d",
        -6.07400896505845
      ],
      [
        "do",
        -6.096148590166056
      ],
      [
        "Ġuma",
        -6.0961666591501675
      ],
      [
        "Ġpor",
        -6.110615814060337
      ],
      [
        "Ġse",
        -6.1266908254167305
      ],
      [
        "A",
        -6.143419636224509
      ],
      [
        "p",
        -6.150067754679654
      ],
      [
        "ncia",
        -6.173410970984349
      ],
      [
        "ÌĢ",
        -6.234157186577532
      ],
      [
        "da",
        -6.32362786224439
      ],
      [
        "rio",
        -6.329909013875021
      ],
      [
        "ria",
        -6.333662364216083
      ],
      [
        "ĠE",
        -6.350899991000869
      ],
      [
        "Ġdos",
        -6.43016109331581
      ],
      [
        "2",
        -6.451803152764864
      ],
      [
        "g",
        -6.4692889518173935
      ],
      [
        "?",
        -6.532911005145026
      ],
      [
        "Ġcomo",
        -6.543038689758051
      ],
      [
        "7",
        -6.579968479768764
      ],
      [
        "3",
        -6.59550962928323
      ],
      [
        "de",
        -6.6023551616429295
      ],
      [
        "Ġesta",
        -6.6071551975050475
      ],
      [
        "b",
        -6.6160379334830814
      ],
      [
        "ndo",
        -6.626133400887696
      ],
      [
        "Ġfoi",
        -6.634369573000486
      ],
      [
        "C",
        -6.640732017556044
      ],
      [
        "S",
        -6.645403826362957
      ],
      [
        "5",
        -6.687901980846021
      ],
      [
        "!",
        -6.694275286135978
      ],
      [
        "Ġmais",
        -6.702618630137849
      ],
      [
        "Ġou",
        -6.744866162009304
      ],
      [
        "8",
        -6.770934382808749
      ],
      [
        "ĠNa",
        -6.821120475251819
      ],
      [
        "ĠNo",
        -6.83063898703667
      ],
      [
        ";",
        -6.832399709834444
      ],
      [
        "h",
        -6.8424428858618676
      ],
      [
        "Ġpela",
        -6.848429901265861
      ],
      [
        "ĠDE",
        -6.858313339017153
      ],
      [
        "f",
        -6.915538010848746
      ],
      [
        "na",
        -6.915610553018405
      ],
      [
        "Ġpelo",
        -6.917922696018842
      ],
      [
        "Ġsua",
        -6.936276705117523
      ],
      [
        "ti",
        -6.955320940159032
      ],
      [
        "Ġ1",
        -6.96553242183681
      ],
      [
        "................",
        -6.972381247616916
      ],
      [
        "Ġser",
        -6.987760585088234
      ],
      [
        "y",
        -6.9897419835960655
      ],
      [
        "ĠSr",
        -7.008505895880877
      ],
      [
        "Ġdas",
        -7.031737509888993
      ],
      [
        "6",
        -7.079865034206408
      ],
      [
        "Ġsobre",
        -7.091016603406331
      ],
      [
        "ri",
        -7.095649506738111
      ],
      [
        "...",
        -7.0980662575944145
      ],
      [
        "te",
        -7.113683097570275
      ],
      [
        "Ġme",
        -7.135792674273548
      ],
      [
        "9",
        -7.137650980176117
      ],
      [
        "z",
        -7.154497567532374
      ],
      [
        "va",
        -7.176854548172512
      ],
      [
        "dos",
        -7.1770383711921735
      ],
      [
        "ĠâĢľ",
        -7.185127519166885
      ],
      [
        "Ġseu",
        -7.188407143383577
      ],
      [
        "mente",
        -7.193896463062872
      ],
      [
        "vel",
        -7.209563997329253
      ],
      [
        "ĠPresidente",
        -7.239965813093264
      ],
      [
        "mos",
        -7.250301264044529
      ],
      [
        "1",
        -7.267072503990301
      ],
      [
        "Ġtambe",
        -7.278244669628117
      ],
      [
        "k",
        -7.279241095432539
      ],
      [
        "la",
        -7.285978515772781
      ],
      [
        "ĠLei",
        -7.304366230674718
      ],
      [
        "ĠEm",
        -7.307825630184626
      ],
      [
        "ĠI",
        -7.362892360774087
      ],
      [
        "Ġre",
        -7.365002111480019
      ],
      [
        "Ġpro",
        -7.378799736067963
      ],
      [
        "cio",
        -7.380011412792971
      ],
      [
        "ĠDeputado",
        -7.381272488155313
      ],
      [
        "D",
        -7.381718966877703
      ],
      [
        "ni",
        -7.382238229829685
      ],
      [
        "Ġtem",
        -7.389263715507823
      ],
      [
        "Ġnos",
        -7.393794294262252
      ],
      [
        "ĠCa",
        -7.3992050738580755
      ],
      [
        "Ġmas",
        -7.409891170991207
      ],
      [
        "Ġele",
        -7.4174656637064835
      ],
      [
        "Ġ19",
        -7.417492783462651
      ],
      [
        "ram",
        -7.4241183366174095
      ],
      [
        "U",
        -7.439745746614827
      ],
      [
        "tica",
        -7.466355172872969
      ],
      [
        "L",
        -7.471888309288737
      ],
      [
        "M",
        -7.48012776215821
      ],
      [
        "N",
        -7.483981562525731
      ],
      [
        "E",
        -7.484842653058527
      ],
      [
        "Ġart",
        -7.513382064641338
      ],
      [
        "P",
        -7.516886896234325
      ],
      [
        "ĠSR",
        -7.525325723680071
      ],
      [
        "li",
        -7.5261194123362305
      ],
      [
        "4",
        -7.529118067055434
      ],
      [
        "I",
        -7.530506495438923
      ],
      [
        "R",
        -7.539282042697515
      ],
      [
        "ĠSa",
        -7.5403257105100945
      ],
      [
        "v",
        -7.540613574435344
      ],
      [
        "Ġpu",
        -7.541898268653384
      ],
      [
        "ĠFederal",
        -7.544347999638795
      ],
      [
        "em",
        -7.546057737991875
      ],
      [
        "),",
        -7.546688006114591
      ],
      [
        "Ġte",
        -7.551448668421379
      ],
      [
        "Ġisso",
        -7.559014964031071
      ],
      [
        "Ġvoce",
        -7.56294387873435
      ],
      [
        "das",
        -7.564663351078227
      ],
      [
        "rios",
        -7.568120918771642
      ],
      [
        "ve",
        -7.568319879848504
      ],
      [
        "ĠS",
        -7.572053269212947
      ],
      [
        "ncias",
        -7.576034917144192
      ],
      [
        "B",
        -7.58678108349274
      ],
      [
        "Ġanos",
        -7.589935011780865
      ],
      [
        "no",
        -7.592150029917594
      ],
      [
        "ĠBrasil",
        -7.597607128473527
      ],
      [
        "ĠEstado",
        -7.598153899584132
      ],
      [
        "ĠSenador",
        -7.607742758947104
      ],
      [
        ").",
        -7.643614557417463
      ],
      [
        "Ġate",
        -7.645670966087266
      ],
      [
        "x",
        -7.645927573630182
      ],
      [
        "ĠEu",
        -7.65659941979936
      ],
      [
        "T",
        -7.664202131464757
      ],
      [
        "Ġentre",
        -7.673112841232983
      ],
      [
        "que",
        -7.674829914149855
      ],
      [
        "lia",
        -7.676605595823622
      ],
      [
        "Ġmuito",
        -7.678829250149535
      ],
      [
        "Ġaos",
        -7.686385525438855
      ],
      [
        "ĠV",
        -7.688555472986797
      ],
      [
        "ĠSe",
        -7.69240329586183
      ],
      [
        "idade",
        -7.692660100835944
      ],
      [
        "ba",
        -7.697168796447489
      ],
      [
        "in",
        -7.705326159880176
      ],
      [
        "Ġma",
        -7.707085289939631
      ],
      [
        "Ġja",
        -7.709764867814094
      ],
      [
        "vi",
        -7.737191260380412
      ],
      [
        "%",
        -7.744136425540773
      ],
      [
        "F",
        -7.754888906243608
      ],
      [
        "blica",
        -7.756443556191474
      ],
      [
        "Ġ4",
        -7.767563725767092
      ],
      [
        "w",
        -7.768401445851353
      ],
      [
        "ĠDe",
        -7.775528761636618
      ],
      [
        "ter",
        -7.794654040062047
      ],
      [
        "ĠComissa",
        -7.79687221998927
      ],
      [
        "nte",
        -7.796994199039938
      ],
      [
        "0",
        -7.797954178024643
      ],
      [
        "j",
        -7.801779775478892
      ],
      [
        "cia",
        -7.804032545032408
      ],
      [
        "Ġbem",
        -7.821050402030488
      ],
      [
        "Ġforma",
        -7.82254775048653
      ],
      [
        "Ġpode",
        -7.860018312440268
      ],
      [
        "Ġcontra",
        -7.863262342302274
      ],
      [
        "dia",
        -7.866381476856478
      ],
      [
        "gu",
        -7.876525751470931
      ],
      [
        "Ġquando",
        -7.877778091830503
      ],
      [
        "Ġco",
        -7.893984949209122
      ],
      [
        "ci",
        -7.903531029069859
      ],
      [
        "Ġaqui",
        -7.905396077229906
      ],
      [
        "Ġ6",
        -7.908512579380576
      ],
      [
        "Ġmesmo",
        -7.9105294910022685
      ],
      [
        "ĠNacional",
        -7.921141003206095
      ],
      [
        "Ġpoli",
        -7.92480509378731
      ],
      [
        "G",
        -7.927998631972333
      ],
      [
        "Ġdia",
        -7.934764252892656
      ],
      [
        "ĠÂ§",
        -7.961510237749538
      ],
      [
        "Ġsem",
        -7.964333784387403
      ],
      [
        "Ġ10",
        -7.965358711423924
      ],
      [
        "Ġpre",
        -7.968347981629071
      ],
      [
        "Ġtodos",
        -7.972402133427915
      ],
      [
        "Ġha",
        -7.974929099844363
      ],
      [
        "Ġpai",
        -7.977203861048075
      ],
      [
        "Ġter",
        -7.980929156479867
      ],
      [
        "Ġainda",
        -7.982980859697276
      ],
      [
        "Ġca",
        -7.983681203016449
      ],
      [
        "Ġin",
        -7.998517242108909
      ],
      [
        "Ġ18",
        -7.999097536817571
      ],
      [
        "dio",
        -8.001530421091676
      ],
      [
        "min",
        -8.004998797978566
      ],
      [
        "ĠMa",
        -8.005749361488098
      ],
      [
        "ĠOs",
        -8.016473912224024
      ],
      [
        "Ġera",
        -8.024353436678306
      ],
      [
        "Ġseus",
        -8.031234269496926
      ],
      [
        "âĢĿ.",
        -8.038422042948266
      ],
      [
        "ĠPor",
        -8.040763340593097
      ],
      [
        "Ġcidade",
        -8.04317640987491
      ],
      [
        "Ġparte",
        -8.052278897914443
      ],
      [
        "ĠR",
        -8.052784911982567
      ],
      [
        "ES",
        -8.055952702536546
      ],
      [
        "Ġano",
        -8.06013011205279
      ],
      [
        "Ġvi",
        -8.061035166114603
      ],
      [
        "Ġforam",
        -8.06767013797408
      ],
      [
        "ĠRe",
        -8.069064695998003
      ],
      [
        "Ġfazer",
        -8.076314786748135
      ],
      [
        "Ġex",
        -8.080337259520563
      ],
      [
        "ĠPaulo",
        -8.08126558726365
      ],
      [
        "Ġcaso",
        -8.08840470242009
      ],
      [
        "Ġta",
        -8.092564087283899
      ],
      [
        "fi",
        -8.09941682595246
      ],
      [
        "ĠB",
        -8.112878258579041
      ],
      [
        "V",
        -8.11392020948801
      ],
      [
        "Ġservic",
        -8.117079137448277
      ],
      [
        "ĠPL",
        -8.118320172382768
      ],
      [
        "rias",
        -8.119222070234594
      ],
      [
        "Ġesse",
        -8.122063567088293
      ],
      [
        "ĠCom",
        -8.125301840500919
      ],
      [
        "ĠCo",
        -8.132478443406711
      ],
      [
        "Ġessa",
        -8.143318409276906
      ],
      [
        "ĠLi",
        -8.156487174498105
      ],
      [
        "Ġseja",
        -8.162182782477295
      ],
      [
        "tra",
        -8.167879236667115
      ],
      [
        "'",
        -8.16954715077392
      ],
      [
        "Ġtempo",
        -8.171635254827429
      ],
      [
        "ĠPara",
        -8.171715918581377
      ],
      [
        "Ġva",
        -8.172705883265834
      ],
      [
        "ir",
        -8.173112450500733
      ],
      [
        "ĠPROJETO",
        -8.179423081965123
      ],
      [
        "pi",
        -8.184670339854135
      ],
      [
        "Ġporque",
        -8.191169149982093
      ],
      [
        "ĠEsta",
        -8.191531345986059
      ],
      [
        "Ġvai",
        -8.19352295856402
      ],
      [
        "ĠLEI",
        -8.197118382430247
      ],
      [
        "mara",
        -8.20865324602115
      ],
      [
        "Ġmeu",
        -8.208797610206926
      ],
      [
        "nico",
        -8.216419148194104
      ],
      [
        "nia",
        -8.21963698206784
      ],
      [
        "ĠPRESIDENTE",
        -8.221176918744689
      ],
      [
        "Ġela",
        -8.224411099795793
      ],
      [
        "ĠP",
        -8.226736969448039
      ],
      [
        "ĠEle",
        -8.22791714905847
      ],
      [
        "Ġprimeiro",
        -8.22912970127542
      ],
      [
        "veis",
        -8.230121888389895
      ],
      [
        "H",
        -8.23087715006483
      ],
      [
        "pio",
        -8.23265043118907
      ],
      [
        "Ġpa",
        -8.234392188388192
      ],
      [
        "res",
        -8.23446627910199
      ],
      [
        "ĠDeputados",
        -8.23868239866802
      ],
      [
        "ĠMas",
        -8.238684663856805
      ],
      [
        "ĠMe",
        -8.245774867913555
      ],
      [
        "Ġsera",
        -8.246879033973114
      ],
      [
        "bi",
        -8.251303348239247
      ],
      [
        "Ġonde",
        -8.260167716060776
      ],
      [
        "der",
        -8.261412543719903
      ],
      [
        "ĠGoverno",
        -8.262314929924642
      ],
      [
        "ĠT",
        -8.262995706888573
      ],
      [
        "gi",
        -8.26564705552789
      ],
      [
        "ĠMinistro",
        -8.26568144498684
      ],
      [
        "ch",
        -8.271099896981285
      ],
      [
        "ĠVoce",
        -8.272685283642613
      ],
      [
        "ĠConstituic",
        -8.273710902078426
      ],
      [
        "âĢĿ",
        -8.281315540568693
      ],
      [
        "mento",
        -8.285823541233967
      ],
      [
        "ĠDo",
        -8.290572331926478
      ],
      [
        "Ġpessoas",
        -8.290984604991271
      ],
      [
        "Ġvez",
        -8.297814436782689
      ],
      [
        "Ġgrande",
        -8.298585852994634
      ],
      [
        "amento",
        -8.301351717831785
      ],
      [
        "Ġartigo",
        -8.304781707444125
      ],
      [
        "ĠHa",
        -8.306090453531667
      ],
      [
        "19",
        -8.306271218045094
      ],
      [
        "00",
        -8.306676209764309
      ],
      [
        "Ġoutros",
        -8.31014158331163
      ],
      [
        "Ġcon",
        -8.31169002389423
      ],
      [
        "Ġ12",
        -8.311850174972223
      ],
      [
        "Ġtrabalho",
        -8.323031464562424
      ],
      [
        "Ġapenas",
        -8.326907935399195
      ],
      [
        "Ġ11",
        -8.331360395017999
      ],
      [
        "blico",
        -8.333956335016236
      ],
      [
        "Ġoutras",
        -8.336906547230269
      ],
      [
        "Ġ15",
        -8.33995733587363
      ],
      [
        "ĠMo",
        -8.34160269713765
      ],
      [
        "ĠRELATOR",
        -8.345936846991911
      ],
      [
        "Ġeste",
        -8.34807924292542
      ],
      [
        "ver",
        -8.349956636975527
      ],
      [
        "Ġdois",
        -8.350667584018774
      ],
      [
        "tro",
        -8.350863894373637
      ],
      [
        "ĠArt",
        -8.352495709190991
      ],
      [
        "rea",
        -8.357000667231029
      ],
      [
        "Ġseguinte",
        -8.360672706959598
      ],
      [
        "ĠU",
        -8.362071632417289
      ],
      [
        "Ġsendo",
        -8.363477600608954
      ],
      [
        "Ġlei",
        -8.364563896836625
      ],
      [
        "tico",
        -8.365301501820687
      ],
      [
        "tar",
        -8.365611394956561
      ],
      [
        "ĠRefere",
        -8.37218083945324
      ],
      [
        "um",
        -8.376610216267212
      ],
      [
        "ntes",
        -8.381949607629943
      ],
      [
        "Ġordem",
        -8.382155583865522
      ],
      [
        "ĠRio",
        -8.383112342191387
      ],
      [
        "Ġnosso",
        -8.3861836733758
      ],
      [
        "ĠProjeto",
        -8.392052141292263
      ],
      [
        "ĠG",
        -8.394562557604516
      ],
      [
        "ge",
        -8.396985730039974
      ],
      [
        "ĠII",
        -8.397795065692804
      ],
      [
        "Ġfa",
        -8.40168965711787
      ],
      [
        "Ġapo",
        -8.40284331905511
      ],
      [
        "sta",
        -8.404829423640644
      ],
      [
        "ĠPai",
        -8.40555517782194
      ],
      [
        "nha",
        -8.410643771582887
      ],
      [
        "ĠJa",
        -8.4110914546566
      ],
      [
        "Ġminha",
        -8.416088973576036
      ],
      [
        "Ġnu",
        -8.417134768581802
      ],
      [
        "Ġsuas",
        -8.420720352724105
      ],
      [
        "ĠCasa",
        -8.422121465015493
      ],
      [
        "Ġmaior",
        -8.422818932339759
      ],
      [
        "Ġhoje",
        -8.426654537685081
      ],
      [
        "Ġfi",
        -8.430251198244818
      ],
      [
        "ja",
        -8.433144252885507
      ],
      [
        "ita",
        -8.434514760436144
      ],
      [
        "Ġtermos",
        -8.435966644804703
      ],
      [
        "Ġprocesso",
        -8.443606482768637
      ],
      [
        "ĠDO",
        -8.443747875748231
      ],
      [
        "Ġassim",
        -8.447365688852774
      ],
      [
        "Ġmeio",
        -8.448281178181325
      ],
      [
        "ĠW",
        -8.450016084248738
      ],
      [
        "nio",
        -8.451099739866507
      ],
      [
        "Ġ16",
        -8.452534726957925
      ],
      [
        "Ġprojeto",
        -8.4553217091367
      ],
      [
        "Ġ17",
        -8.455400419184596
      ],
      [
        "ĠJose",
        -8.45711168985736
      ],
      [
        "ng",
        -8.458235863771248
      ],
      [
        "ĠCon",
        -8.458404918735352
      ],
      [
        "Ġdesta",
        -8.459745207149831
      ],
      [
        "Ġ20",
        -8.460286677501522
      ],
      [
        "PSDB",
        -8.472212337915167
      ],
      [
        "10",
        -8.47714790650619
      ],
      [
        "Ġqual",
        -8.478866144125194
      ],
      [
        "ĠPu",
        -8.480387433050131
      ],
      [
        "Ġto",
        -8.484209783176425
      ],
      [
        "br",
        -8.48503212553328
      ],
      [
        "ĠRo",
        -8.48872272306108
      ],
      [
        "ĠLa",
        -8.492654068692952
      ],
      [
        "ĠD",
        -8.494017479773186
      ],
      [
        "ĠRa",
        -8.495000012459153
      ],
      [
        "enta",
        -8.496463435952176
      ],
      [
        "ĠSenado",
        -8.498659365884038
      ],
      [
        "Ġnome",
        -8.499348575916594
      ],
      [
        "Ġpra",
        -8.501772046318619
      ],
      [
        "Ġdireito",
        -8.503131172962375
      ],
      [
        "Ġmi",
        -8.503726458325243
      ],
      [
        "ĠDA",
        -8.504385804154113
      ],
      [
        "Ġpo",
        -8.505645044254333
      ],
      [
        "man",
        -8.506777773007816
      ],
      [
        "rito",
        -8.514479662830054
      ],
      [
        "ĠJu",
        -8.515549147100206
      ],
      [
        "Ġ13",
        -8.515808759195846
      ],
      [
        "Ġmu",
        -8.516793541063084
      ],
      [
        "nica",
        -8.517638118063983
      ],
      [
        "Ġprimeira",
        -8.519360499584407
      ],
      [
        "Ġtra",
        -8.521890237204097
      ],
      [
        "Ġla",
        -8.523639153155473
      ],
      [
        "Ġdeste",
        -8.526235869161605
      ],
      [
        "$",
        -8.52643055513561
      ],
      [
        "Ġsistema",
        -8.52876884810297
      ],
      [
        "Ġli",
        -8.529698223061741
      ],
      [
        "Ġqualquer",
        -8.530140463274044
      ],
      [
        "ĠTribunal",
        -8.535243145832474
      ],
      [
        "Ġhisto",
        -8.537650924284698
      ],
      [
        "fica",
        -8.541050356851711
      ],
      [
        "Ġ14",
        -8.541585459616133
      ],
      [
        "ĠâĢ¢",
        -8.543415093987782
      ],
      [
        "tor",
        -8.544711096766639
      ],
      [
        "ĠIn",
        -8.545280072032156
      ],
      [
        "qui",
        -8.545484245856212
      ],
      [
        "ĠSem",
        -8.545874441466324
      ],
      [
        "ĠComo",
        -8.551385002084833
      ],
      [
        "11",
        -8.552068807987192
      ],
      [
        "Ġdisse",
        -8.554197562626372
      ],
      [
        "Ġpalavra",
        -8.555529219908593
      ],
      [
        "Ġvoto",
        -8.556298103747185
      ],
      [
        "Ġtre",
        -8.56185365847995
      ],
      [
        "ck",
        -8.565309785948944
      ],
      [
        "Ġacordo",
        -8.566624217898603
      ],
      [
        "Ġvida",
        -8.569467947679081
      ],
      [
        "Ġcada",
        -8.569891509087594
      ],
      [
        "ĠLe",
        -8.57546887292944
      ],
      [
        "Ġdepois",
        -8.575523908122419
      ],
      [
        "ĠDa",
        -8.575940705191227
      ],
      [
        "ĠMiniste",
        -8.579569154033369
      ],
      [
        "Ġinformac",
        -8.580270546593479
      ],
      [
        "J",
        -8.582852951577589
      ],
      [
        "Ġtodo",
        -8.583911233980505
      ],
      [
        "ĠRepu",
        -8.591092830922692
      ],
      [
        "Ġdi",
        -8.591538587430593
      ],
      [
        "Ġprazo",
        -8.599191961558066
      ],
      [
        "men",
        -8.602766069244051
      ],
      [
        "ĠCarlos",
        -8.605834638037512
      ],
      [
        "09",
        -8.608925612707113
      ],
      [
        "ĠSim",
        -8.610071448796779
      ],
      [
        "ĠPT",
        -8.61078584809693
      ],
      [
        "lha",
        -8.623443167610866
      ],
      [
        "Ġagora",
        -8.625246488245386
      ],
      [
        "ĠRelator",
        -8.625457234731488
      ],
      [
        "sica",
        -8.625920237636954
      ],
      [
        "Ġato",
        -8.627903061135694
      ],
      [
        "via",
        -8.632269689241273
      ],
      [
        "Ġmate",
        -8.633622234984347
      ],
      [
        "ĠAl",
        -8.634007999576509
      ],
      [
        "ĠSenhor",
        -8.636252425210964
      ],
      [
        "Ġpresente",
        -8.637922975220357
      ],
      [
        "Ġcomec",
        -8.6408925270027
      ],
      [
        "gua",
        -8.643512763152732
      ],
      [
        "ĠPa",
        -8.644486142988463
      ],
      [
        "Ġver",
        -8.64865292593136
      ],
      [
        "ĠTe",
        -8.651765924258246
      ],
      [
        "Ġrelac",
        -8.652606595091829
      ],
      [
        "Ġdeve",
        -8.655700449129657
      ],
      [
        "ista",
        -8.657299883321839
      ],
      [
        "hi",
        -8.657352394062517
      ],
      [
        "Ġmelhor",
        -8.659433539026455
      ],
      [
        "Bloco",
        -8.6597908537919
      ],
      [
        "Ġsob",
        -8.66192373949645
      ],
      [
        "ando",
        -8.662663696592896
      ],
      [
        "Ġsegundo",
        -8.664323696735487
      ],
      [
        "lio",
        -8.666841055648034
      ],
      [
        "Ġmundo",
        -8.668386668085311
      ],
      [
        "durante",
        -8.671822690029181
      ],
      [
        "Ġdizer",
        -8.67191673192593
      ],
      [
        "ĠAs",
        -8.672143707733095
      ],
      [
        "Ġperi",
        -8.676465355325824
      ],
      [
        "ira",
        -8.676736547005843
      ],
      [
        "Ġmil",
        -8.679381884669816
      ],
      [
        "DO",
        -8.683691852851528
      ],
      [
        "th",
        -8.683751831722597
      ],
      [
        "ha",
        -8.685176624806967
      ],
      [
        "ĠJustic",
        -8.689700138859203
      ],
      [
        "Ġnossa",
        -8.689876582231985
      ],
      [
        "ĠMunici",
        -8.694566026123784
      ],
      [
        "RIO",
        -8.694949100199523
      ],
      [
        "vida",
        -8.703280431914152
      ],
      [
        "Ġsido",
        -8.708619662736627
      ],
      [
        "_",
        -8.711586304094132
      ],
      [
        "rem",
        -8.711723984870359
      ],
      [
        "ente",
        -8.717999292899133
      ],
      [
        "rie",
        -8.718452315606093
      ],
      [
        "nto",
        -8.721308752957441
      ],
      [
        "rga",
        -8.721553411037467
      ],
      [
        "Ġrecursos",
        -8.722994292129973
      ],
      [
        "Ġdezembro",
        -8.72420180302451
      ],
      [
        "par",
        -8.73234978380201
      ],
      [
        "decisa",
        -8.733565065175151
      ],
      [
        "Ġ24",
        -8.734583785474012
      ],
      [
        "tos",
        -8.735523198471041
      ],
      [
        "ĠF",
        -8.737731589251045
      ],
      [
        "Ġoutro",
        -8.74026003287819
      ],
      [
        "Ġnas",
        -8.7412197595809
      ],
      [
        "ing",
        -8.741477858914527
      ],
      [
        "ĠBa",
        -8.74174006520924
      ],
      [
        "Ġpopulac",
        -8.743404212645817
      ],
      [
        "ĠEstados",
        -8.743755313680264
      ],
      [
        "lhe",
        -8.744599097479036
      ],
      [
        "Ġpartir",
        -8.745301152323925
      ],
      [
        "cie",
        -8.745712808339864
      ],
      [
        "Ġestava",
        -8.746320445533051
      ],
      [
        "ĠJoa",
        -8.748116518927564
      ],
      [
        "Ġantes",
        -8.748736901934487
      ],
      [
        "Ġlanc",
        -8.751018643059234
      ],
      [
        "Ġtudo",
        -8.751141802960008
      ],
      [
        "=",
        -8.752359383450237
      ],
      [
        "dores",
        -8.752620830218032
      ],
      [
        "Ġfinal",
        -8.75329630511958
      ],
      [
        "orador",
        -8.75610597626282
      ],
      [
        "culo",
        -8.756396337408784
      ],
      [
        "cer",
        -8.756981974097734
      ],
      [
        "Ġfami",
        -8.757592450443287
      ],
      [
        "bra",
        -8.75788538466413
      ],
      [
        "Ġfato",
        -8.75892003032766
      ],
      [
        "mero",
        -8.759526608866357
      ],
      [
        "Ġrevisa",
        -8.763442840363941
      ],
      [
        "ĠPMDB",
        -8.764473021909138
      ],
      [
        "Ġpe",
        -8.766401136686289
      ],
      [
        "com",
        -8.768540719872561
      ],
      [
        "iz",
        -8.772739163211188
      ],
      [
        "dor",
        -8.773724009766937
      ],
      [
        "ĠSo",
        -8.775100573004131
      ],
      [
        "Ġempresa",
        -8.775374106565422
      ],
      [
        "Ġmomento",
        -8.775502163712778
      ],
      [
        "rac",
        -8.776448449619966
      ],
      [
        "ÌĪ",
        -8.7764576597927
      ],
      [
        "@",
        -8.776653245047669
      ],
      [
        "Ġvalor",
        -8.779723284353997
      ],
      [
        "Ġgrupo",
        -8.784349695250564
      ],
      [
        "gra",
        -8.786226740016618
      ],
      [
        "Ġgoverno",
        -8.786522082806442
      ],
      [
        "dito",
        -8.786810628316568
      ],
      [
        "Ġdesde",
        -8.786939698699337
      ],
      [
        "ĠLu",
        -8.788117079348517
      ],
      [
        "ĠVer",
        -8.788523353263932
      ],
      [
        "tal",
        -8.789851018440372
      ],
      [
        "Ġconta",
        -8.791547794981902
      ],
      [
        "2009",
        -8.793600723479695
      ],
      [
        "Ġcasa",
        -8.79735083620793
      ],
      [
        "15",
        -8.799405604507013
      ],
      [
        "pu",
        -8.804056387706577
      ],
      [
        "20",
        -8.80416452945259
      ],
      [
        "Ġnovo",
        -8.805901885431553
      ],
      [
        "ĠMar",
        -8.806063759232863
      ],
      [
        "Ġdias",
        -8.806273531233913
      ],
      [
        "rica",
        -8.808622718237114
      ],
      [
        "mar",
        -8.808883451636596
      ],
      [
        "TO",
        -8.811639667542632
      ],
      [
        "PT",
        -8.81322471684129
      ],
      [
        "ĠIsso",
        -8.816154557670975
      ],
      [
        "Ġti",
        -8.81632023539828
      ],
      [
        "Ġmilho",
        -8.817240685843396
      ],
      [
        "dica",
        -8.817731767860144
      ],
      [
        "eira",
        -8.819861132940755
      ],
      [
        "ĠUm",
        -8.82027503091445
      ],
      [
        "Ġ30",
        -8.820322717501494
      ],
      [
        "12",
        -8.820372081876048
      ],
      [
        "car",
        -8.822446766167504
      ],
      [
        "AS",
        -8.823178485308162
      ],
      [
        "ĠTa",
        -8.826956404617542
      ],
      [
        "Ġproposta",
        -8.82774525429143
      ],
      [
        "ĠUnia",
        -8.829747578572539
      ],
      [
        "Ġeles",
        -8.83046704364643
      ],
      [
        "OS",
        -8.833334812881793
      ],
      [
        "ina",
        -8.833360724535451
      ],
      [
        "Ġsempre",
        -8.83484452568779
      ],
      [
        "ĠSu",
        -8.835432117700636
      ],
      [
        "ĠVi",
        -8.836656565995748
      ],
      [
        "05",
        -8.83696751276056
      ],
      [
        "ismo",
        -8.837903809535584
      ],
      [
        "Ġinciso",
        -8.844552221984731
      ],
      [
        "Ġ21",
        -8.846712522516226
      ],
      [
        "Ġbrasileiro",
        -8.848537732876938
      ],
      [
        "Ġfaz",
        -8.848666483730653
      ],
      [
        "Ġcondic",
        -8.850555785074386
      ],
      [
        "lar",
        -8.85456016608823
      ],
      [
        "Ġ:(",
        -8.85583177709137
      ],
      [
        "votac",
        -8.856181370672859
      ],
      [
        "Ġduas",
        -8.856496405337388
      ],
      [
        "ĠâĢĶ",
        -8.861942331894907
      ],
      [
        "fer",
        -8.86225821865211
      ],
      [
        "ĠJo",
        -8.862370818533957
      ],
      [
        "mica",
        -8.862572201956745
      ],
      [
        "ros",
        -8.862798371165681
      ],
      [
        "pios",
        -8.8657997550696
      ],
      [
        "Ġmenos",
        -8.86671497485235
      ],
      [
        "ĠEnta",
        -8.86785194576245
      ],
      [
        "Ġpouco",
        -8.868145734029383
      ],
      [
        "ticas",
        -8.869005083608936
      ],
      [
        "ĠQue",
        -8.870429052441715
      ],
      [
        "ĠFoi",
        -8.871185968188136
      ],
      [
        "pre",
        -8.87145589657747
      ],
      [
        "and",
        -8.872846086289723
      ],
      [
        "Congresso",
        -8.874195626836341
      ],
      [
        "Ġale",
        -8.87695428188053
      ],
      [
        "03",
        -8.880581149139092
      ],
      [
        "Ġenta",
        -8.881823548964947
      ],
      [
        "Ġsau",
        -8.883970170385423
      ],
      [
        "Ġtinha",
        -8.884891636912393
      ],
      [
        "Ġ25",
        -8.887149666211311
      ],
      [
        "tiva",
        -8.887206477048695
      ],
      [
        "Ġ23",
        -8.888361010253918
      ],
      [
        "Ġquanto",
        -8.888822845801984
      ],
      [
        "TE",
        -8.890001740675686
      ],
      [
        "Ġali",
        -8.890539389609948
      ],
      [
        "18",
        -8.892081180491957
      ],
      [
        "Ġper",
        -8.892835600267606
      ],
      [
        "ĠLo",
        -8.893293128069173
      ],
      [
        "ĠPela",
        -8.893879642481195
      ],
      [
        "ĠSul",
        -8.894961869301701
      ],
      [
        "ĠFa",
        -8.895758072416639
      ],
      [
        "neste",
        -8.897017057776294
      ],
      [
        "tua",
        -8.902486940542513
      ],
      [
        "aprovac",
        -8.903052219247762
      ],
      [
        "Ġnesta",
        -8.903335462865703
      ],
      [
        "tri",
        -8.904909331418498
      ],
      [
        "Ġfim",
        -8.90824301581448
      ],
      [
        "Ġ22",
        -8.908438559347042
      ],
      [
        "08",
        -8.909051344163458
      ],
      [
        "ĠJ",
        -8.912252351598601
      ],
      [
        "Ġpelos",
        -8.912351862348709
      ],
      [
        "ĠPre",
        -8.914182275863094
      ],
      [
        "Ġimportante",
        -8.91557121321139
      ],
      [
        "ĠDi",
        -8.92149876593189
      ],
      [
        "07",
        -8.924516024861193
      ],
      [
        "Ġmarc",
        -8.926068955371697
      ],
      [
        "rei",
        -8.92610426387377
      ],
      [
        "Ġbase",
        -8.94003871635871
      ],
      [
        "ĠPoder",
        -8.941921201346906
      ],
      [
        "Ġtodas",
        -8.942660126486118
      ],
      [
        "Ġof",
        -8.944093660887757
      ],
      [
        "Ġvezes",
        -8.94529006740944
      ],
      [
        "âĢĵ",
        -8.946286321389026
      ],
      [
        "Ġsocial",
        -8.951358268729388
      ],
      [
        "Ġregia",
        -8.951520764024961
      ],
      [
        "ĠK",
        -8.958545290631378
      ],
      [
        "discussa",
        -8.958554619722804
      ],
      [
        "Ġexemplo",
        -8.95962523493225
      ],
      [
        "cha",
        -8.959910673877257
      ],
      [
        "Ġ2007",
        -8.960484217352903
      ],
      [
        "che",
        -8.960514832243689
      ],
      [
        "los",
        -8.96058956631455
      ],
      [
        "Ġfor",
        -8.960721037919512
      ],
      [
        "Ġmedida",
        -8.96113407997979
      ],
      [
        "Ġcausa",
        -8.96129013390757
      ],
      [
        "Ġfez",
        -8.963269575264505
      ],
      [
        "17",
        -8.965570445142937
      ],
      [
        "ĠAr",
        -8.965924897453183
      ],
      [
        "Ġmaio",
        -8.968653661102413
      ],
      [
        "âĢĿ,",
        -8.970666038295878
      ],
      [
        "K",
        -8.971428148189968
      ],
      [
        "Ġexternas",
        -8.972696499908123
      ],
      [
        "Ġdiz",
        -8.974628769355812
      ],
      [
        "06",
        -8.976305394609737
      ],
      [
        "Ligac",
        -8.977215232073998
      ],
      [
        "Ġnecessa",
        -8.978971426765195
      ],
      [
        "tas",
        -8.97908998209824
      ],
      [
        "ĠLuiz",
        -8.979173650030807
      ],
      [
        "nos",
        -8.97959426861918
      ],
      [
        "ĠMu",
        -8.98194970632737
      ],
      [
        "Ġtendo",
        -8.987294484598975
      ],
      [
        "Ġpois",
        -8.987635568861911
      ],
      [
        "ĠBo",
        -8.98862862970454
      ],
      [
        "RA",
        -8.98896258930119
      ],
      [
        "Ġlugar",
        -8.989274550529762
      ],
      [
        "con",
        -8.990633830740885
      ],
      [
        "Ġdata",
        -8.990707782443765
      ],
      [
        "digo",
        -8.990794718006873
      ],
      [
        "Ġ28",
        -8.99111541426263
      ],
      [
        "Ġrecurso",
        -8.991366199077465
      ],
      [
        "Ġmunici",
        -8.992632327257096
      ],
      [
        "zo",
        -8.99507099963566
      ],
      [
        "Ġ2009",
        -8.995155901200741
      ],
      [
        "Ġjulho",
        -8.996780730391732
      ],
      [
        "ry",
        -8.996950744723963
      ],
      [
        "Ġtoda",
        -8.997441659465984
      ],
      [
        "zar",
        -8.9978151767071
      ],
      [
        "ĠL",
        -8.998583662560025
      ],
      [
        "Ġquero",
        -8.999828399381101
      ],
      [
        "Ġsituac",
        -9.001566991452489
      ],
      [
        "16",
        -9.004848898765836
      ],
      [
        "Ġnacional",
        -9.005712119614461
      ],
      [
        "ĠMA",
        -9.006101397985987
      ],
      [
        "Ġpoder",
        -9.007246237793556
      ],
      [
        "les",
        -9.013276247889925
      ],
      [
        "Ġalguns",
        -9.013977696402778
      ],
      [
        "Ġsentido",
        -9.014279717991084
      ],
      [
        "ber",
        -9.014310833968793
      ],
      [
        "ĠM",
        -9.014324840965616
      ],
      [
        "Ġsub",
        -9.015405763354629
      ],
      [
        "Ġsabe",
        -9.016298194647565
      ],
      [
        "TA",
        -9.016691850592006
      ],
      [
        "fico",
        -9.01678099135347
      ],
      [
        "Ġsu",
        -9.017768361923888
      ],
      [
        "Ġsetembro",
        -9.018828763173612
      ],
      [
        "Ì",
        -9.022267929954658
      ],
      [
        "lin",
        -9.02281732677055
      ],
      [
        "Exa",
        -9.02318783084285
      ],
      [
        "Ġpovo",
        -9.023338718155308
      ],
      [
        "ĠSESS",
        -9.02600403306974
      ],
      [
        "Ġtrata",
        -9.026067733530734
      ],
      [
        "Ġtemos",
        -9.033275629397886
      ],
      [
        "Ġnem",
        -9.033948269504773
      ],
      [
        "Ġecono",
        -9.034850444001544
      ],
      [
        "mor",
        -9.035505821053
      ],
      [
        "ĠAn",
        -9.03682718685459
      ],
      [
        "Ġ2008",
        -9.037072130919464
      ],
      [
        "ĠGa",
        -9.037509277521016
      ],
      [
        "ĠSra",
        -9.038243445247986
      ],
      [
        "ton",
        -9.038311613752596
      ],
      [
        "ĠMi",
        -9.040978062545111
      ],
      [
        "Ġpodem",
        -9.041156853377112
      ],
      [
        "ĠExa",
        -9.041970874453549
      ],
      [
        "Ġvou",
        -9.042127675346569
      ],
      [
        "Â°",
        -9.042219844933545
      ],
      [
        "Ġcoisa",
        -9.043011749348803
      ],
      [
        "Ġfavor",
        -9.043509930365984
      ],
      [
        "Ġnova",
        -9.046408325527867
      ],
      [
        "lho",
        -9.048223910474524
      ],
      [
        "Ġuso",
        -9.049149950422198
      ],
      [
        "Ġsociedade",
        -9.050035768786003
      ],
      [
        "Z",
        -9.051674648453382
      ],
      [
        "ĠFi",
        -9.055481459416608
      ],
      [
        "ĠTi",
        -9.056117470963809
      ],
      [
        "Ġmesma",
        -9.056790539903108
      ],
      [
        "junho",
        -9.058875398222671
      ],
      [
        "Ġ2006",
        -9.059841097003462
      ],
      [
        "Ġseria",
        -9.06131590912403
      ],
      [
        "Ġdisso",
        -9.063902144969491
      ],
      [
        "Ġtipo",
        -9.064667429864128
      ],
      [
        "Ġteve",
        -9.064979393896476
      ],
      [
        "UTC",
        -9.066216798289748
      ],
      [
        "Ġtenho",
        -9.066565666816944
      ],
      [
        "04",
        -9.066581420255844
      ],
      [
        "ato",
        -9.066619862507975
      ],
      [
        "tulo",
        -9.0681916043608
      ],
      [
        "ĠMuito",
        -9.069094804156371
      ],
      [
        "13",
        -9.06912828835382
      ],
      [
        "Ġespe",
        -9.06930020060431
      ],
      [
        "ĠGrande",
        -9.069803112934036
      ],
      [
        "grafo",
        -9.070989211976354
      ],
      [
        "ĠEla",
        -9.072192843567278
      ],
      [
        "Ġnada",
        -9.073087439249823
      ],
      [
        "ĠVamos",
        -9.073149438757042
      ],
      [
        "Ġ26",
        -9.073770234923314
      ],
      [
        "Ġbrasileira",
        -9.074243583435996
      ],
      [
        "rda",
        -9.075896536069829
      ],
      [
        "Ġestou",
        -9.077559916409736
      ],
      [
        "ĠSanta",
        -9.077927080181931
      ],
      [
        "Ġprograma",
        -9.078062726401829
      ],
      [
        "Ġcargo",
        -9.078803330397234
      ],
      [
        "30",
        -9.081287987815664
      ],
      [
        "NA",
        -9.08692621363325
      ],
      [
        "Ġcor",
        -9.088347877049522
      ],
      [
        "Ġdesenvolvimento",
        -9.088998721060795
      ],
      [
        "Ġimporta",
        -9.089629352930691
      ],
      [
        "ĠPro",
        -9.090329696945204
      ],
      [
        "cios",
        -9.09068177225284
      ],
      [
        "ĠBe",
        -9.092650944819226
      ],
      [
        "ĠDecreto",
        -9.093563323763556
      ],
      [
        "Ġ2011",
        -9.09463200903912
      ],
      [
        "per",
        -9.098789052746106
      ],
      [
        "W",
        -9.098933340853607
      ],
      [
        "Ġini",
        -9.101270560346032
      ],
      [
        "Ġcre",
        -9.10290348776923
      ],
      [
        "ante",
        -9.102917214762993
      ],
      [
        "Ġconstitucional",
        -9.103923762373338
      ],
      [
        "Ġtanto",
        -9.104096331112489
      ],
      [
        "ura",
        -9.10480625886305
      ],
      [
        "vam",
        -9.105157832850784
      ],
      [
        "Ġba",
        -9.105185585385978
      ],
      [
        "gar",
        -9.1079209259822
      ],
      [
        "Ġrefere",
        -9.1080223163671
      ],
      [
        "Ġoutra",
        -9.108234425746264
      ],
      [
        "ĠSi",
        -9.108699864736057
      ],
      [
        "Ġbom",
        -9.10975907685339
      ],
      [
        "RI",
        -9.110426818079382
      ],
      [
        "000",
        -9.112146057721889
      ],
      [
        "ĠPoli",
        -9.11641631325695
      ],
      [
        "tion",
        -9.117099415387475
      ],
      [
        "X",
        -9.1194888259649
      ],
      [
        "questa",
        -9.119956555664253
      ],
      [
        "Ġ2010",
        -9.12147822530392
      ],
      [
        "ĠPe",
        -9.121937525372724
      ],
      [
        "art",
        -9.122227825503089
      ],
      [
        "ine",
        -9.12711336052864
      ],
      [
        "Ġpossi",
        -9.12750418345362
      ],
      [
        "Ġga",
        -9.12840125386817
      ],
      [
        "Ġvamos",
        -9.129853104687284
      ],
      [
        "ĠHo",
        -9.130777393420397
      ],
      [
        "Ġpessoa",
        -9.13242749407176
      ],
      [
        "tado",
        -9.13328095077244
      ],
      [
        "ĠJaneiro",
        -9.135559628295535
      ],
      [
        "ĠEste",
        -9.136330586242218
      ],
      [
        "Ġagosto",
        -9.137557607143515
      ],
      [
        "Ġoutubro",
        -9.137831893204485
      ],
      [
        "Ġprovide",
        -9.13933284656188
      ],
      [
        "seguranc",
        -9.139868711685027
      ],
      [
        "Ġtexto",
        -9.143025226877777
      ],
      [
        "Ġlado",
        -9.144624838846484
      ],
      [
        "Ġexiste",
        -9.145454745593216
      ],
      [
        "RIA",
        -9.146668155442608
      ],
      [
        "Art",
        -9.147874868554393
      ],
      [
        "ĠN",
        -9.148148523788848
      ],
      [
        "MA",
        -9.149165636940236
      ],
      [
        "ĠDia",
        -9.149366750029005
      ],
      [
        "zi",
        -9.150712194800295
      ],
      [
        "2015",
        -9.150813499439382
      ],
      [
        "ĠIII",
        -9.153612248313529
      ],
      [
        "Ġfeito",
        -9.153686012157152
      ],
      [
        "ĠPo",
        -9.154625847518194
      ],
      [
        "ximo",
        -9.15463557945837
      ],
      [
        "ĠEduardo",
        -9.154732043884902
      ],
      [
        "ĠSala",
        -9.154798981448796
      ],
      [
        "Ġproduc",
        -9.156514138247651
      ],
      [
        "IS",
        -9.156571062864629
      ],
      [
        "ĠCi",
        -9.158078499273351
      ],
      [
        "cnica",
        -9.15858308567937
      ],
      [
        "Ġ2005",
        -9.160123727417664
      ],
      [
        "tac",
        -9.16248385049182
      ],
      [
        "ral",
        -9.162765906301914
      ],
      [
        "Ġhavia",
        -9.16307168910336
      ],
      [
        "tre",
        -9.164048639490618
      ],
      [
        "PMDB",
        -9.167114595329796
      ],
      [
        "Ġdessa",
        -9.16719275180724
      ],
      [
        "ER",
        -9.169718463575984
      ],
      [
        "Ġabril",
        -9.171079166370664
      ],
      [
        "Ġsemana",
        -9.171565213014429
      ],
      [
        "Ġcara",
        -9.173050725405348
      ],
      [
        "ĠGo",
        -9.173223804431814
      ],
      [
        "Ġestado",
        -9.17519295061523
      ],
      [
        "RE",
        -9.17588686168529
      ],
      [
        "ĠNe",
        -9.17668671770156
      ],
      [
        "Ġ27",
        -9.177193959635728
      ],
      [
        "Ġpresidente",
        -9.178040136927022
      ],
      [
        "Ġprincipal",
        -9.179116074713868
      ],
      [
        "Ġdesse",
        -9.179321440949938
      ],
      [
        "lise",
        -9.179713564861512
      ],
      [
        "Ġjaneiro",
        -9.180283540543211
      ],
      [
        "ito",
        -9.181005989883792
      ],
      [
        "AL",
        -9.18181528018554
      ],
      [
        "Ġhabitantes",
        -9.18294974856383
      ],
      [
        "ĠBi",
        -9.184215105418788
      ],
      [
        "://",
        -9.185992105343216
      ],
      [
        "Ġve",
        -9.186933619313631
      ],
      [
        "Ġjuri",
        -9.188883324546442
      ],
      [
        "Ġcrianc",
        -9.189161992875988
      ],
      [
        "ĠTo",
        -9.190313824455872
      ],
      [
        "ĠPreside",
        -9.19032540035496
      ],
      [
        "Ġnovembro",
        -9.191687090016629
      ],
      [
        "Ġempresas",
        -9.193047234389123
      ],
      [
        "ju",
        -9.19458530270993
      ],
      [
        "ĠPARECER",
        -9.194836820634968
      ],
      [
        "Ġ29",
        -9.197547563283694
      ],
      [
        "ndi",
        -9.197775205183405
      ],
      [
        "Ġvolta",
        -9.197981405644022
      ],
      [
        "Ġeducac",
        -9.199287645929264
      ],
      [
        "Ġsim",
        -9.19996752637751
      ],
      [
        "DE",
        -9.200328128250996
      ],
      [
        "Ġvei",
        -9.203158304012227
      ],
      [
        "ĠPR",
        -9.203958179810495
      ],
      [
        "Ġforc",
        -9.20616007943969
      ],
      [
        "Ġcrime",
        -9.20645543017511
      ],
      [
        "Ġficar",
        -9.208581306529608
      ],
      [
        "ĠMaria",
        -9.209259124421528
      ],
      [
        "ticos",
        -9.210701075270842
      ],
      [
        "mer",
        -9.2114918379729
      ],
      [
        "tivo",
        -9.212474393631783
      ],
      [
        "ĠFe",
        -9.213054130325522
      ],
      [
        "Ġtenha",
        -9.2161269971589
      ],
      [
        "ĠCA",
        -9.216333791511907
      ],
      [
        "ĠHe",
        -9.2177662594861
      ],
      [
        "Q",
        -9.218023663421882
      ],
      [
        "Ġir",
        -9.218403548210762
      ],
      [
        "14",
        -9.218463192500046
      ],
      [
        "Ġsei",
        -9.21856417752771
      ],
      [
        "02",
        -9.218835790526745
      ],
      [
        "Ġexerci",
        -9.219592041626065
      ],
      [
        "Ġfalar",
        -9.219631402210345
      ],
      [
        "Ġatrave",
        -9.219935594048986
      ],
      [
        "DI",
        -9.220784459578562
      ],
      [
        "tes",
        -9.220899931811518
      ],
      [
        "Ġpec",
        -9.22367070679841
      ],
      [
        "50",
        -9.223876303738804
      ],
      [
        "est",
        -9.224769205787773
      ],
      [
        "nho",
        -9.225787271469498
      ],
      [
        "Ġana",
        -9.225846655866336
      ],
      [
        "chi",
        -9.229191121626863
      ],
      [
        "Ġpodera",
        -9.22964672369686
      ],
      [
        "Ġestamos",
        -9.230102542581236
      ],
      [
        "gina",
        -9.230191899122026
      ],
      [
        "ais",
        -9.230702768929673
      ],
      [
        "Ġestar",
        -9.23458012053302
      ],
      [
        "Ġfunc",
        -9.235392663493329
      ],
      [
        "ĠEssa",
        -9.235817415244297
      ],
      [
        "ĠMin",
        -9.23689309833752
      ],
      [
        "xi",
        -9.23762940002309
      ],
      [
        "LI",
        -9.237964098648792
      ],
      [
        "ten",
        -9.238249742869543
      ],
      [
        "tur",
        -9.238535459620138
      ],
      [
        "ner",
        -9.238664072338056
      ],
      [
        "ĠSau",
        -9.238984105633966
      ],
      [
        "ĠAme",
        -9.239076178009748
      ],
      [
        "ĠDr",
        -9.239090139700451
      ],
      [
        "Ġ2013",
        -9.239800779070336
      ],
      [
        "Ġprec",
        -9.24206420995797
      ],
      [
        "ĠEmenda",
        -9.242820943415984
      ],
      [
        "Ġpena",
        -9.24456431562422
      ],
      [
        "prio",
        -9.245515450572189
      ],
      [
        "Regimento",
        -9.246393136809106
      ],
      [
        "ida",
        -9.248302760592257
      ],
      [
        "ĠEsse",
        -9.248809123100596
      ],
      [
        "2013",
        -9.24955064829514
      ],
      [
        "EL",
        -9.251811844731488
      ],
      [
        "SP",
        -9.252616981256788
      ],
      [
        "rico",
        -9.252931862582155
      ],
      [
        "ĠFranc",
        -9.253848290966449
      ],
      [
        "Ġprova",
        -9.25490474372086
      ],
      [
        "ĠKa",
        -9.254958839364908
      ],
      [
        "Ġnum",
        -9.25556081708518
      ],
      [
        "ĠAle",
        -9.25729527618668
      ],
      [
        "Ġverdade",
        -9.25828322719186
      ],
      [
        "Ġquatro",
        -9.258394974202488
      ],
      [
        "mico",
        -9.258579657319034
      ],
      [
        "Ġvista",
        -9.258819357016533
      ],
      [
        "Ġhora",
        -9.26013417099722
      ],
      [
        "Ġenquanto",
        -9.260135987802688
      ],
      [
        "Ġponto",
        -9.264281191778975
      ],
      [
        "Ġrespeito",
        -9.2644720514046
      ],
      [
        "ĠNO",
        -9.268189962518392
      ],
      [
        "Y",
        -9.268456581224688
      ],
      [
        "Ġinstituic",
        -9.268833464135051
      ],
      [
        "Ġobjetivo",
        -9.27001838353119
      ],
      [
        "rado",
        -9.271411830750898
      ],
      [
        "Ġfevereiro",
        -9.272252263375648
      ],
      [
        "nal",
        -9.27249408484591
      ],
      [
        "feira",
        -9.273713398980233
      ],
      [
        "Ġfe",
        -9.27416380243256
      ],
      [
        "Ġdemais",
        -9.276098033836734
      ],
      [
        "ĠUma",
        -9.27640941186898
      ],
      [
        "gica",
        -9.276427235805976
      ],
      [
        "Ġsessa",
        -9.277170837618856
      ],
      [
        "Ġdentro",
        -9.27830710956638
      ],
      [
        "Ġpartido",
        -9.278558087034432
      ],
      [
        "dico",
        -9.278684298767416
      ],
      [
        "Ġprecisa",
        -9.279632071592
      ],
      [
        "Ġlocal",
        -9.280951742611204
      ],
      [
        "Ġ2012",
        -9.281671718713666
      ],
      [
        "Ġquais",
        -9.281870254102683
      ],
      [
        "cho",
        -9.281986053867069
      ],
      [
        "Ġproblema",
        -9.282979745613767
      ],
      [
        "Ġsala",
        -9.283061739495684
      ],
      [
        "cula",
        -9.284021195113246
      ],
      [
        "ĠBrasi",
        -9.284711498141942
      ],
      [
        "DA",
        -9.285297995201518
      ],
      [
        "Deputada",
        -9.28545723470462
      ],
      [
        "ĠPi",
        -9.285984134792836
      ],
      [
        "Ġalgo",
        -9.291294144618298
      ],
      [
        "Ġinteresse",
        -9.291515792549914
      ],
      [
        "Ġapoio",
        -9.293800945267291
      ],
      [
        "ĠInterno",
        -9.294180966915166
      ],
      [
        "ĠCe",
        -9.295270319232111
      ],
      [
        "Ġ(\"",
        -9.295608959585069
      ],
      [
        "2011",
        -9.297692116908124
      ],
      [
        "ment",
        -9.297879480035018
      ],
      [
        "Ġhoras",
        -9.30116830746736
      ],
      [
        "Ġmim",
        -9.302256000769129
      ],
      [
        "ĠSupremo",
        -9.302261369701732
      ],
      [
        "Ġaco",
        -9.30327430185229
      ],
      [
        "ĠRE",
        -9.303308670519796
      ],
      [
        "pri",
        -9.303869757562602
      ],
      [
        "Ġ2004",
        -9.305757120872537
      ],
      [
        "Ġcriac",
        -9.307175696437238
      ],
      [
        "Ġvota",
        -9.307650446830284
      ],
      [
        "ĠEducac",
        -9.31096781471501
      ],
      [
        "ĠNi",
        -9.311045841297055
      ],
      [
        "Ġtotal",
        -9.312261632642873
      ],
      [
        "Ð",
        -9.312807684774228
      ],
      [
        "Ġparecer",
        -9.313022918608446
      ],
      [
        "ĠCha",
        -9.313652097436275
      ],
      [
        "Ġfilme",
        -9.31755119067752
      ],
      [
        "ĠUnidos",
        -9.318352622471984
      ],
      [
        "logia",
        -9.31942263938718
      ],
      [
        "Ġfalta",
        -9.320101707248712
      ],
      [
        "Ġconforme",
        -9.320823804004094
      ],
      [
        "rcio",
        -9.320931590527367
      ],
      [
        "Ġ31",
        -9.3226769156178
      ],
      [
        "ĠTurma",
        -9.322690600431171
      ],
      [
        "Ġcri",
        -9.322993678668116
      ],
      [
        "Ġnunca",
        -9.324951738005248
      ],
      [
        "Ġespecial",
        -9.325455444827664
      ],
      [
        "cil",
        -9.325700825441608
      ],
      [
        "ĠConselho",
        -9.326482002184855
      ],
      [
        "nimo",
        -9.327691278095488
      ],
      [
        "Ġacesso",
        -9.327885351921548
      ],
      [
        "Ġsou",
        -9.328191647600343
      ],
      [
        "Ġjogo",
        -9.329210821010122
      ],
      [
        "Ġcerca",
        -9.331667784595997
      ],
      [
        "poca",
        -9.331980088309566
      ],
      [
        "ata",
        -9.333537752389054
      ],
      [
        "ĠQuando",
        -9.333947003377242
      ],
      [
        "ĠUniversidade",
        -9.337020561090045
      ],
      [
        "Ġ2015",
        -9.33838242347104
      ],
      [
        "pro",
        -9.33883694056421
      ],
      [
        "tima",
        -9.341422057033876
      ],
      [
        "LA",
        -9.342187078190456
      ],
      [
        "Ġrelato",
        -9.34231485911312
      ],
      [
        "Ġobrigado",
        -9.345115610880036
      ],
      [
        "ĠSilva",
        -9.34896492765307
      ],
      [
        "Ġcinco",
        -9.349103741834105
      ],
      [
        "ĠH",
        -9.350062203828012
      ],
      [
        "Ġfo",
        -9.350460072872098
      ],
      [
        "her",
        -9.350804042352497
      ],
      [
        "Ġequipe",
        -9.351989844436464
      ],
      [
        "ĠPlena",
        -9.35253533999532
      ],
      [
        "ras",
        -9.352592384759337
      ],
      [
        "Ġprinci",
        -9.353988559790473
      ],
      [
        "ĠCar",
        -9.354624408057838
      ],
      [
        "Ġmercado",
        -9.357451936816004
      ],
      [
        "ĠSocial",
        -9.35745328533588
      ],
      [
        "registro",
        -9.358944948626403
      ],
      [
        "ĠPedro",
        -9.359118180047997
      ],
      [
        "Ġregimental",
        -9.360858997726185
      ],
      [
        "Ġdefesa",
        -9.363405411279809
      ],
      [
        "96",
        -9.364153350886744
      ],
      [
        "Ġfora",
        -9.364565620647054
      ],
      [
        "Ġsegunda",
        -9.366252782949722
      ],
      [
        "âĢĻ",
        -9.36640325659492
      ],
      [
        "ĠTem",
        -9.367144303304512
      ],
      [
        "ĠOliveira",
        -9.369113825193994
      ],
      [
        "Ġpedido",
        -9.37003619013324
      ],
      [
        "Ġluta",
        -9.370108161958871
      ],
      [
        "AR",
        -9.370687258067688
      ],
      [
        "cre",
        -9.3709535638422
      ],
      [
        "25",
        -9.37136043110342
      ],
      [
        "inha",
        -9.376797614647495
      ],
      [
        "por",
        -9.377115038632418
      ],
      [
        "Ġrealizada",
        -9.377390018561591
      ],
      [
        "para",
        -9.377523389318254
      ],
      [
        "Ġkm",
        -9.378944829913188
      ],
      [
        "cada",
        -9.3792186543412
      ],
      [
        "ĠTotal",
        -9.379342801689663
      ],
      [
        "Ġdireitos",
        -9.37978689918873
      ],
      [
        "Ġpesquisa",
        -9.380307371651742
      ],
      [
        "gen",
        -9.380354537311156
      ],
      [
        "Ġ2003",
        -9.380533964695154
      ],
      [
        "devido",
        -9.380727778887024
      ],
      [
        "Ġextraordina",
        -9.380918054871406
      ],
      [
        "qua",
        -9.381614226503848
      ],
      [
        "Ġmorte",
        -9.381854664526053
      ],
      [
        "Ġthe",
        -9.383033725259288
      ],
      [
        "ĠEx",
        -9.383388410703366
      ],
      [
        "Ġedic",
        -9.385139051580582
      ],
      [
        "Ġemenda",
        -9.385458955150291
      ],
      [
        "remos",
        -9.388000878292116
      ],
      [
        "Ġfazendo",
        -9.389380782062206
      ],
      [
        "Ġcontrato",
        -9.389508019958924
      ],
      [
        "CA",
        -9.39039846752708
      ],
      [
        "ist",
        -9.391298607242504
      ],
      [
        "Ġvem",
        -9.391541570124277
      ],
      [
        "Ġposic",
        -9.392998329039282
      ],
      [
        "Ġobjeto",
        -9.39422914583753
      ],
      [
        "lan",
        -9.395712424697642
      ],
      [
        "Ġraza",
        -9.396267365939456
      ],
      [
        "97",
        -9.398007739095176
      ],
      [
        "Ġgra",
        -9.398036258428778
      ],
      [
        "CE",
        -9.39999818281803
      ],
      [
        "Ġfeita",
        -9.400550985036729
      ],
      [
        "ĠVe",
        -9.40380732683155
      ],
      [
        "Ġpassa",
        -9.403810686516632
      ],
      [
        "Ġnota",
        -9.405101601877671
      ],
      [
        "Ġmeses",
        -9.406190019244011
      ],
      [
        "98",
        -9.406354604616949
      ],
      [
        "len",
        -9.406758675660775
      ],
      [
        "ser",
        -9.406974846919098
      ],
      [
        "essa",
        -9.407050990373726
      ],
      [
        "ĠPP",
        -9.407699396275529
      ],
      [
        "Ġinter",
        -9.408468296857516
      ],
      [
        "Ġorigem",
        -9.409237122534632
      ],
      [
        "Ġproduto",
        -9.41227992644963
      ],
      [
        "amos",
        -9.412668064165352
      ],
      [
        "Ġge",
        -9.414468926214846
      ],
      [
        "bel",
        -9.41564778798827
      ],
      [
        "Ġ2014",
        -9.417196731276285
      ],
      [
        "Ġdispo",
        -9.417639190173384
      ],
      [
        "pria",
        -9.4199588027252
      ],
      [
        "Ġfilho",
        -9.420658032972517
      ],
      [
        "dita",
        -9.420795886650655
      ],
      [
        "Ġgeral",
        -9.42139136252921
      ],
      [
        "Ġterra",
        -9.422346226429385
      ],
      [
        "ĠSegundo",
        -9.422364981972184
      ],
      [
        "Ġfala",
        -9.423115923297148
      ],
      [
        "Ġdados",
        -9.42318100349162
      ],
      [
        "ĠComunicac",
        -9.425136979113596
      ],
      [
        "ĠFilho",
        -9.426656892375018
      ],
      [
        "ĠAgora",
        -9.42748107467424
      ],
      [
        "PTB",
        -9.427958047366682
      ],
      [
        "Ġinclusive",
        -9.428525219360502
      ],
      [
        "NCIA",
        -9.429687381543008
      ],
      [
        "ĠThe",
        -9.43256344186134
      ],
      [
        "TI",
        -9.43425252746246
      ],
      [
        "Ġpossui",
        -9.43501367914994
      ],
      [
        "ense",
        -9.43618924832672
      ],
      [
        "Ġfunciona",
        -9.436964906875344
      ],
      [
        "Ġfosse",
        -9.437605742730268
      ],
      [
        "for",
        -9.440650606711108
      ],
      [
        "radiodifusa",
        -9.440667088864238
      ],
      [
        "inho",
        -9.441238530776213
      ],
      [
        "Ġ2016",
        -9.441491613293822
      ],
      [
        "Ġresponsa",
        -9.441553379560457
      ],
      [
        "tura",
        -9.444023882105688
      ],
      [
        "Ġpagamento",
        -9.444097791281733
      ],
      [
        "Ġquase",
        -9.445139450967986
      ],
      [
        "blicos",
        -9.445713594573633
      ],
      [
        "Executivo",
        -9.44578094771776
      ],
      [
        "Ġqualidade",
        -9.44647765326364
      ],
      [
        "Ġlegal",
        -9.446573856183576
      ],
      [
        "Ġatividades",
        -9.44736347346754
      ],
      [
        "Ġtema",
        -9.44790438506729
      ],
      [
        "Ġ50",
        -9.448360869981414
      ],
      [
        "gia",
        -9.44868474238504
      ],
      [
        "reas",
        -9.44933104351398
      ],
      [
        "SE",
        -9.44968827848314
      ],
      [
        "RO",
        -9.451255853975065
      ],
      [
        "Ġins",
        -9.451458214657514
      ],
      [
        "ĠDeus",
        -9.454056019471125
      ],
      [
        "Ġnecessidade",
        -9.454324997956888
      ],
      [
        "bar",
        -9.455328726002586
      ],
      [
        "Ġalgumas",
        -9.456399739458094
      ],
      [
        "ĠFu",
        -9.457248378255484
      ],
      [
        "Ġpoderia",
        -9.457846815786937
      ],
      [
        "istas",
        -9.457853960364297
      ],
      [
        "PE",
        -9.459647281269802
      ],
      [
        "Ġfac",
        -9.459668204711384
      ],
      [
        "ĠVa",
        -9.459939200338924
      ],
      [
        "tina",
        -9.460346974802478
      ],
      [
        "Ġpelas",
        -9.460479144674466
      ],
      [
        "vio",
        -9.461835954602906
      ],
      [
        "2000",
        -9.46232827978698
      ],
      [
        "Ġminutos",
        -9.46634279301009
      ],
      [
        "Ġparticipac",
        -9.466601609047617
      ],
      [
        "The",
        -9.466715326341191
      ],
      [
        "Ġocorre",
        -9.46684142212222
      ],
      [
        "bilidade",
        -9.467137633738124
      ],
      [
        "ell",
        -9.46960026441183
      ],
      [
        "Ġmaioria",
        -9.470792085603668
      ],
      [
        "eiro",
        -9.472405388726294
      ],
      [
        "2008",
        -9.472584175105917
      ],
      [
        "Ġpossa",
        -9.472899427767937
      ],
      [
        "ĠZ",
        -9.474714059108688
      ],
      [
        "Ġlinha",
        -9.475232157641914
      ],
      [
        ".âĢĿ",
        -9.47563915421347
      ],
      [
        "Ġlhe",
        -9.476473316456024
      ],
      [
        "timo",
        -9.47686871076915
      ],
      [
        "Ġatual",
        -9.479575772329593
      ],
      [
        "Ġesses",
        -9.480016692407927
      ],
      [
        "Ġmal",
        -9.480077735458613
      ],
      [
        "Ġpublicac",
        -9.481138542935597
      ],
      [
        "Ġdinheiro",
        -9.481625435149931
      ],
      [
        "Ġcerto",
        -9.48266860631156
      ],
      [
        "bio",
        -9.482891445837854
      ],
      [
        "vis",
        -9.483152832868234
      ],
      [
        "Ġboa",
        -9.483251742229228
      ],
      [
        "Ġdeixa",
        -9.483346851574366
      ],
      [
        "ĠCie",
        -9.483925980061914
      ],
      [
        "Ġconhecido",
        -9.4839549730683
      ],
      [
        "Ġmodo",
        -9.48428706865815
      ],
      [
        "Ġirma",
        -9.48496890395058
      ],
      [
        "28",
        -9.485072319002084
      ],
      [
        "val",
        -9.48601614910802
      ],
      [
        "Ġdele",
        -9.487120702258917
      ],
      [
        "ĠSt",
        -9.4894412475056
      ],
      [
        "ltimo",
        -9.48977117004852
      ],
      [
        ");",
        -9.490452173334928
      ],
      [
        "lbum",
        -9.490507354648376
      ],
      [
        "ador",
        -9.491717624685682
      ],
      [
        "Ġrequerimento",
        -9.492073537850958
      ],
      [
        "ĠRu",
        -9.492463240776356
      ],
      [
        "ff",
        -9.492903707211488
      ],
      [
        "2007",
        -9.495482312643144
      ],
      [
        "Ġnesse",
        -9.497023447634078
      ],
      [
        "Ġaumento",
        -9.497544546871762
      ],
      [
        "Ġdeixar",
        -9.501701618905097
      ],
      [
        "Ġensino",
        -9.50215811166363
      ],
      [
        "gio",
        -9.50304914120228
      ],
      [
        "CI",
        -9.503110907958847
      ],
      [
        "ĠApo",
        -9.5033155059854
      ],
      [
        "Ġjunto",
        -9.5036969437191
      ],
      [
        "36",
        -9.504443693060775
      ],
      [
        "https",
        -9.505429455050786
      ],
      [
        "agravo",
        -9.506274534244117
      ],
      [
        "US",
        -9.50737730670724
      ],
      [
        "ĠPrograma",
        -9.507665692335443
      ],
      [
        "Ġnuma",
        -9.509802294460272
      ],
      [
        "Ġnorte",
        -9.510490837845063
      ],
      [
        "Ġreforma",
        -9.51083761945653
      ],
      [
        "ĠEM",
        -9.512034896277274
      ],
      [
        "ĠSua",
        -9.512553250076568
      ],
      [
        "ltima",
        -9.512926104463014
      ],
      [
        "ĠDu",
        -9.513049386602416
      ],
      [
        "rada",
        -9.513305462558415
      ],
      [
        "eleic",
        -9.513774263481976
      ],
      [
        "Ġredac",
        -9.5140747591415
      ],
      [
        "ĠNova",
        -9.514292359566722
      ],
      [
        "Ġcampo",
        -9.514861655070876
      ],
      [
        "Ġformula",
        -9.515423390902484
      ],
      [
        "ide",
        -9.516229533938208
      ],
      [
        "EN",
        -9.51711185603922
      ],
      [
        "ĠAssim",
        -9.517689373478458
      ],
      [
        "Ġnoite",
        -9.51910179813624
      ],
      [
        "ĠParecer",
        -9.5200438878185
      ],
      [
        "NI",
        -9.520730630488533
      ],
      [
        "40",
        -9.520734072533646
      ],
      [
        "Ġmuitas",
        -9.521653451673698
      ],
      [
        "ĠLula",
        -9.52224722880217
      ],
      [
        "Ġfica",
        -9.52327747919234
      ],
      [
        "Ġbo",
        -9.524259349706202
      ],
      [
        "Ġeram",
        -9.524453185263589
      ],
      [
        "ĠAssociac",
        -9.525530537607349
      ],
      [
        "Ġingle",
        -9.526121469678104
      ],
      [
        "ĠHisto",
        -9.526235614967936
      ],
      [
        "Ġlegislac",
        -9.526245744891217
      ],
      [
        "2010",
        -9.526247031671062
      ],
      [
        "\")",
        -9.526866379169002
      ],
      [
        "Ġconstruc",
        -9.527306418082794
      ],
      [
        "amenta",
        -9.527508680237672
      ],
      [
        "Ġsuperior",
        -9.530319877276044
      ],
      [
        "Ġcompete",
        -9.531193811995522
      ],
      [
        "entanto",
        -9.531343160699102
      ],
      [
        "Ġoperac",
        -9.5313490804429
      ],
      [
        "Ġsai",
        -9.531750951378443
      ],
      [
        "mula",
        -9.531812633195742
      ],
      [
        "ĠLegislativo",
        -9.532033067891645
      ],
      [
        "27",
        -9.532300744721972
      ],
      [
        "somente",
        -9.53244730995357
      ],
      [
        "Ġhomem",
        -9.534070060968729
      ],
      [
        "cional",
        -9.53435335700058
      ],
      [
        "ĠCor",
        -9.53615014636192
      ],
      [
        "ĠRi",
        -9.539290019726618
      ],
      [
        "ler",
        -9.539837810781782
      ],
      [
        "stica",
        -9.540074700160964
      ],
      [
        "mio",
        -9.54063552019766
      ],
      [
        "culos",
        -9.540674734253692
      ],
      [
        "Ġoficial",
        -9.543320331847053
      ],
      [
        "Ġcontrole",
        -9.544452798554426
      ],
      [
        "ĠBu",
        -9.54480406838948
      ],
      [
        "ara",
        -9.54515170634342
      ],
      [
        "Ġtarde",
        -9.545178650803548
      ],
      [
        "Ġ100",
        -9.545547969693098
      ],
      [
        "Ġlongo",
        -9.54617799754356
      ],
      [
        "Ġmembro",
        -9.546604065803049
      ],
      [
        "ĠGra",
        -9.54708382486746
      ],
      [
        "ger",
        -9.547089837117362
      ],
      [
        "ĠFernando",
        -9.547481062231236
      ],
      [
        "bal",
        -9.54930308268615
      ],
      [
        "Ġgrandes",
        -9.551392333847817
      ],
      [
        "cul",
        -9.554198391272497
      ],
      [
        "ĠDEM",
        -9.555764130338138
      ],
      [
        "Ġrealizac",
        -9.557524552284343
      ],
      [
        "zado",
        -9.558657756623974
      ],
      [
        "ĠTrabalho",
        -9.561281307712791
      ],
      [
        "net",
        -9.561733177772748
      ],
      [
        "OR",
        -9.562685204273082
      ],
      [
        "ĠBar",
        -9.563252095153032
      ],
      [
        "Ġtal",
        -9.56343500357388
      ],
      [
        "ĠRoberto",
        -9.56399528598905
      ],
      [
        "Ġacho",
        -9.564157423927153
      ],
      [
        "altera",
        -9.564254028144202
      ],
      [
        "Ġorc",
        -9.564350871198862
      ],
      [
        "Ġjulgamento",
        -9.565641275076343
      ],
      [
        "fl",
        -9.565841483129006
      ],
      [
        "dic",
        -9.566061623604424
      ],
      [
        "88",
        -9.566111088308732
      ],
      [
        "Ġsaber",
        -9.567736080615838
      ],
      [
        "AC",
        -9.569096274566537
      ],
      [
        "ĠSP",
        -9.56932017127392
      ],
      [
        "Ġpreciso",
        -9.570004552919032
      ],
      [
        "ncio",
        -9.571343969365945
      ],
      [
        "Ġdar",
        -9.572827202982412
      ],
      [
        "devera",
        -9.572994224978196
      ],
      [
        "ĠMaia",
        -9.575338497459104
      ],
      [
        "Ġpresenc",
        -9.575386893796782
      ],
      [
        "ĠHi",
        -9.576042406912215
      ],
      [
        "MI",
        -9.576928510086256
      ],
      [
        "Ġbrasileiros",
        -9.577651165305628
      ],
      [
        "passou",
        -9.5790353631974
      ],
      [
        "Ġessas",
        -9.579185069221214
      ],
      [
        "ĠEn",
        -9.579746689138348
      ],
      [
        "tan",
        -9.58045089414916
      ],
      [
        "ngua",
        -9.580723575614202
      ],
      [
        "ly",
        -9.581602288673254
      ],
      [
        "cas",
        -9.581654946282775
      ],
      [
        "Ġmembros",
        -9.581834909453196
      ],
      [
        "ĠBem",
        -9.584041757287457
      ],
      [
        "ĠMan",
        -9.584444174050493
      ],
      [
        "las",
        -9.584688412348578
      ],
      [
        "IN",
        -9.584690031669052
      ],
      [
        "Ġcorpo",
        -9.585909982846127
      ],
      [
        "cola",
        -9.586491579801832
      ],
      [
        "99",
        -9.586908058756906
      ],
      [
        "Ġajuda",
        -9.587387469355784
      ],
      [
        "PR",
        -9.588816985997774
      ],
      [
        "Ġbe",
        -9.591311843031589
      ],
      [
        "Ġsetor",
        -9.591394964254366
      ],
      [
        "45",
        -9.592871316342858
      ],
      [
        "tido",
        -9.5932908524312
      ],
      [
        "Ġenergia",
        -9.59400536655327
      ],
      [
        "Ġbenefi",
        -9.594423858763022
      ],
      [
        "46",
        -9.595055825394557
      ],
      [
        "Ġmulheres",
        -9.596138150725388
      ],
      [
        "Ġregime",
        -9.596321401583454
      ],
      [
        "ĠPortugal",
        -9.59641664611978
      ],
      [
        "Ġobras",
        -9.59753082059945
      ],
      [
        "35",
        -9.59755369372066
      ],
      [
        "Ġencontra",
        -9.598288873965224
      ],
      [
        "22",
        -9.599168783936324
      ],
      [
        "SA",
        -9.599863737851242
      ],
      [
        "cial",
        -9.60028057061572
      ],
      [
        "Ġdis",
        -9.600575078782107
      ],
      [
        "aram",
        -9.600832832458554
      ],
      [
        "Ġgente",
        -9.602453253212593
      ],
      [
        "Ġparece",
        -9.603166675039448
      ],
      [
        "Ġmaneira",
        -9.60539508580819
      ],
      [
        "lica",
        -9.60603680766904
      ],
      [
        "ele",
        -9.6060910962746
      ],
      [
        "ĠPode",
        -9.60649336347212
      ],
      [
        "gico",
        -9.606708764937588
      ],
      [
        "Ġeconomia",
        -9.607292869477911
      ],
      [
        "Ġassunto",
        -9.607536437722056
      ],
      [
        "ĠX",
        -9.608131219634222
      ],
      [
        "ĠPer",
        -9.608154550778812
      ],
      [
        "ĠPSB",
        -9.608613928113597
      ],
      [
        "Ġespac",
        -9.609591407061574
      ],
      [
        "Ġ2017",
        -9.611319685672054
      ],
      [
        "29",
        -9.611818840815932
      ],
      [
        "Ġdebate",
        -9.612390413800298
      ],
      [
        "ĠTra",
        -9.612844339935924
      ],
      [
        "ĠMinas",
        -9.61307656154954
      ],
      [
        "Í",
        -9.614109821290551
      ],
      [
        "Ġfrente",
        -9.61445580120723
      ],
      [
        "Ġestrutura",
        -9.615030016018874
      ],
      [
        "ĠMesa",
        -9.615828951262468
      ],
      [
        "Ġprincipalmente",
        -9.616842422939603
      ],
      [
        "Ġpar",
        -9.617458707158637
      ],
      [
        "Ġchamado",
        -9.618848976729751
      ],
      [
        "2012",
        -9.618990919495456
      ],
      [
        "Ġ32",
        -9.619309489175215
      ],
      [
        "legislativa",
        -9.61951122708174
      ],
      [
        "Ġauto",
        -9.619537431493052
      ],
      [
        "ÌĤ?",
        -9.620105501593624
      ],
      [
        "Ġefeito",
        -9.62029356596088
      ],
      [
        "ĠEstou",
        -9.620946289170488
      ],
      [
        "Ġconjunto",
        -9.62111543015515
      ],
      [
        "ite",
        -9.623119169973153
      ],
      [
        "BA",
        -9.623176376776703
      ],
      [
        "ĠDesenvolvimento",
        -9.623827148051182
      ],
      [
        "Ġpapel",
        -9.625423627127738
      ],
      [
        "ĠAnto",
        -9.626026337700363
      ],
      [
        "Ġforte",
        -9.626941800252126
      ],
      [
        "Ġmuitos",
        -9.627291362022628
      ],
      [
        "ĠFrancisco",
        -9.628144594113632
      ],
      [
        "mas",
        -9.62832180145381
      ],
      [
        "ndia",
        -9.628587035650217
      ],
      [
        "26",
        -9.628953772355803
      ],
      [
        "2016",
        -9.629099816615415
      ],
      [
        "ĠNorte",
        -9.62940514481721
      ],
      [
        "):",
        -9.63070230450322
      ],
      [
        "Ġautor",
        -9.63281994745649
      ],
      [
        "Ġatividade",
        -9.632960949477877
      ],
      [
        "Ġaquele",
        -9.633498927023885
      ],
      [
        "Ġindi",
        -9.63352114043719
      ],
      [
        "stria",
        -9.635198910163371
      ],
      [
        "ĠPartido",
        -9.63596871455388
      ],
      [
        "ĠIta",
        -9.63828460398938
      ],
      [
        "Ġobra",
        -9.638475394588127
      ],
      [
        "Ġcapital",
        -9.638685483231049
      ],
      [
        "ĠVI",
        -9.640327061733188
      ],
      [
        "01",
        -9.641229739090148
      ],
      [
        "90",
        -9.641346458257392
      ],
      [
        "reais",
        -9.641528029081163
      ],
      [
        "Ġaplicac",
        -9.641552644064571
      ],
      [
        "Ġbusca",
        -9.64165044007236
      ],
      [
        "Ġproblemas",
        -9.641882292445256
      ],
      [
        "Ġhouve",
        -9.641949354859742
      ],
      [
        "concessa",
        -9.646730060244932
      ],
      [
        "Ġbanda",
        -9.647444201992844
      ],
      [
        "ĠDJ",
        -9.647868578443944
      ],
      [
        "#",
        -9.648881425048469
      ],
      [
        "q",
        -9.649272450261185
      ],
      [
        "Ġaprovado",
        -9.649393348005528
      ],
      [
        "land",
        -9.64965240535563
      ],
      [
        "Ġand",
        -9.65037535834736
      ],
      [
        "Ġmovimento",
        -9.651423818307505
      ],
      [
        "Ġconhecimento",
        -9.651540479406629
      ],
      [
        "ula",
        -9.652209831836794
      ],
      [
        "Ġposso",
        -9.65461123050289
      ],
      [
        "bert",
        -9.656371132740436
      ],
      [
        "Ġ:)",
        -9.656740279660148
      ],
      [
        "Ġprofessor",
        -9.658151999289109
      ],
      [
        "Ġcoisas",
        -9.66046224777069
      ],
      [
        "Ġpequeno",
        -9.66046814671738
      ],
      [
        "Ġembora",
        -9.661114279691722
      ],
      [
        "Ġconstante",
        -9.6614517912598
      ],
      [
        "Ġalguma",
        -9.661582830085226
      ],
      [
        "FI",
        -9.661865893158394
      ],
      [
        "agem",
        -9.66301240056614
      ],
      [
        "Ġtrans",
        -9.665067981529758
      ],
      [
        "Ġ2019",
        -9.665081658125397
      ],
      [
        "responsabilidade",
        -9.665463421226203
      ],
      [
        "Ġoportunidade",
        -9.665627100353516
      ],
      [
        "Ġlivro",
        -9.665785867764834
      ],
      [
        "Ġ2000",
        -9.666101581385172
      ],
      [
        "Ġcusto",
        -9.667135005906523
      ],
      [
        "cal",
        -9.667588261285935
      ],
      [
        "Ġdeveria",
        -9.66778297896102
      ],
      [
        "Ġalgum",
        -9.668012336658968
      ],
      [
        "ã",
        -9.66849624516398
      ],
      [
        "ĠCOM",
        -9.668592989160132
      ],
      [
        "Ġpassado",
        -9.668642755944225
      ],
      [
        "23",
        -9.668862594807033
      ],
      [
        "ki",
        -9.669123281373656
      ],
      [
        "56",
        -9.670793083780936
      ],
      [
        "COMISSA",
        -9.671349205762745
      ],
      [
        "Ġ40",
        -9.671363410904728
      ],
      [
        "ĠPA",
        -9.671782258869928
      ],
      [
        "2014",
        -9.672452600506231
      ],
      [
        "Ġsuper",
        -9.67353935549693
      ],
      [
        "ĠCO",
        -9.673604830496988
      ],
      [
        "pol",
        -9.67372584142288
      ],
      [
        "ĠSeu",
        -9.673796103406996
      ],
      [
        "Ġorganizac",
        -9.67387729655199
      ],
      [
        "portanto",
        -9.674742014542463
      ],
      [
        "Ġinclui",
        -9.676081768423773
      ],
      [
        "ĠIV",
        -9.677331348921564
      ],
      [
        "Ġeletro",
        -9.679128273678549
      ],
      [
        "ĠAntonio",
        -9.67928484914417
      ],
      [
        "Distrito",
        -9.67990405640982
      ],
      [
        "xima",
        -9.680290778255038
      ],
      [
        "Ġpropo",
        -9.681768071634597
      ],
      [
        "ĠSecreta",
        -9.682034295961191
      ],
      [
        "Ġcanc",
        -9.682199900384546
      ],
      [
        "ĠTu",
        -9.682673500224794
      ],
      [
        "Ġ2020",
        -9.682959846207712
      ],
      [
        "ĠSan",
        -9.683125747463926
      ],
      [
        "ĠCri",
        -9.683318833645272
      ],
      [
        "let",
        -9.68423418177624
      ],
      [
        "RECURSO",
        -9.684750404699605
      ],
      [
        "rus",
        -9.685527060216074
      ],
      [
        "ĠAna",
        -9.686133040618408
      ],
      [
        "Defesa",
        -9.686228466930574
      ],
      [
        "ĠServic",
        -9.68648554912344
      ],
      [
        "Ġlista",
        -9.687492451736537
      ],
      [
        "ĠMarco",
        -9.68765145172686
      ],
      [
        "ĠCivil",
        -9.687747589211227
      ],
      [
        "disposto",
        -9.688032355216253
      ],
      [
        "Ġreuni",
        -9.690135880811251
      ],
      [
        "&",
        -9.690518219589189
      ],
      [
        "Ġescola",
        -9.691980298061909
      ],
      [
        "bol",
        -9.692066932504837
      ],
      [
        "...............",
        -9.692200508160813
      ],
      [
        "Ġ2002",
        -9.69220615934111
      ],
      [
        "21",
        -9.692251764486244
      ],
      [
        "Ġdez",
        -9.693389092546065
      ],
      [
        "*",
        -9.693991713965683
      ],
      [
        "til",
        -9.694119289080144
      ],
      [
        "Ġmulher",
        -9.694295146917996
      ],
      [
        "bil",
        -9.694933575181912
      ],
      [
        "iro",
        -9.69642381037411
      ],
      [
        "ĠGe",
        -9.697119089299498
      ],
      [
        "var",
        -9.697811212997596
      ],
      [
        "sociais",
        -9.700860016883244
      ],
      [
        "ĠEMENDA",
        -9.70092995306245
      ],
      [
        "Ġexecuc",
        -9.701631302956596
      ],
      [
        "Ġsenhor",
        -9.701964050899354
      ],
      [
        "Ġ1990",
        -9.702962519408244
      ],
      [
        "Ġnego",
        -9.702972507698616
      ],
      [
        "IC",
        -9.703828750297632
      ],
      [
        "ĠVice",
        -9.70456396962821
      ],
      [
        "Ġcomunidade",
        -9.705071567572192
      ],
      [
        "Ġcomunicac",
        -9.705211825869148
      ],
      [
        "Ġmodelo",
        -9.705385929658156
      ],
      [
        "DEM",
        -9.706395045552924
      ],
      [
        "ĠTecnologia",
        -9.707391779226782
      ],
      [
        "Ġentra",
        -9.707628675403509
      ],
      [
        "izac",
        -9.70776101099452
      ],
      [
        "blicas",
        -9.707908709322336
      ],
      [
        "Ġpessoal",
        -9.70841178616091
      ],
      [
        "ĠSE",
        -9.70842247906039
      ],
      [
        "47",
        -9.709128520531184
      ],
      [
        "ĠRosa",
        -9.710635892568591
      ],
      [
        "Ġmudanc",
        -9.712418462274098
      ],
      [
        "risco",
        -9.712652045949111
      ],
      [
        "ional",
        -9.712834020633276
      ],
      [
        "Ġcla",
        -9.713547650297178
      ],
      [
        "ex",
        -9.71356513069719
      ],
      [
        "Ġavanc",
        -9.7165680351476
      ],
      [
        "Ġalta",
        -9.717087336903935
      ],
      [
        "post",
        -9.717387833123876
      ],
      [
        "Ġnenhum",
        -9.71866429659266
      ],
      [
        "ĠPrimeira",
        -9.719565548384196
      ],
      [
        "ĠPDT",
        -9.719889808139897
      ],
      [
        "Ġalcanc",
        -9.719909952098847
      ],
      [
        "Ġvia",
        -9.720532398427904
      ],
      [
        "Ġ54",
        -9.72119271902762
      ],
      [
        "sim",
        -9.721808727414173
      ],
      [
        "Ġiniciativa",
        -9.722381890686863
      ],
      [
        "44",
        -9.723995388837318
      ],
      [
        "ĠAc",
        -9.724597107206112
      ],
      [
        "entes",
        -9.724856191223957
      ],
      [
        "nessa",
        -9.725738553875908
      ],
      [
        "ĠBrasileiro",
        -9.725828910048032
      ],
      [
        "Ġfu",
        -9.726032214533392
      ],
      [
        "sejam",
        -9.72648297968184
      ],
      [
        "ang",
        -9.727473555091636
      ],
      [
        "ĠGu",
        -9.727606613488836
      ],
      [
        "Campeonato",
        -9.728416621820845
      ],
      [
        "ĠExcele",
        -9.728473899199196
      ],
      [
        "ĠCorte",
        -9.728683708905209
      ],
      [
        "Ġtu",
        -9.730629178644197
      ],
      [
        "48",
        -9.73066719128381
      ],
      [
        "Ġespeci",
        -9.731710667113818
      ],
      [
        "Ġfinanceira",
        -9.731740238052517
      ],
      [
        "Ġreal",
        -9.73197114978168
      ],
      [
        "Ġficou",
        -9.73212781245426
      ],
      [
        "Ġ33",
        -9.732835113434968
      ],
      [
        "ĠREQUERIMENTO",
        -9.733260485903845
      ],
      [
        "prevista",
        -9.733758809500111
      ],
      [
        "stico",
        -9.735439393691133
      ],
      [
        "ĠDireito",
        -9.735683961676411
      ],
      [
        "PA",
        -9.736050700226128
      ],
      [
        "34",
        -9.73699393773617
      ],
      [
        "Ġcarreira",
        -9.737865539206068
      ],
      [
        "ĠObrigado",
        -9.738032829764265
      ],
      [
        "Ġsucesso",
        -9.73831113143534
      ],
      [
        "ĠPar",
        -9.7389657074327
      ],
      [
        "nel",
        -9.739613441972816
      ],
      [
        "ĠInstituto",
        -9.74146497271896
      ],
      [
        "sico",
        -9.74153382835772
      ],
      [
        "â",
        -9.7419691486918
      ],
      [
        "Ġexpressa",
        -9.743071938121712
      ],
      [
        "ĠPE",
        -9.744829768690929
      ],
      [
        "gem",
        -9.744938976598975
      ],
      [
        "mbito",
        -9.74540944978808
      ],
      [
        "Ġalgue",
        -9.746193948152415
      ],
      [
        "Ġtemporada",
        -9.74624511987811
      ],
      [
        "discurso",
        -9.749476473503256
      ],
      [
        "Ġcar",
        -9.749611706833832
      ],
      [
        "Ġ2001",
        -9.750043579352427
      ],
      [
        "Ġbilho",
        -9.750128856760988
      ],
      [
        "podemos",
        -9.750966343417376
      ],
      [
        "Ġanterior",
        -9.751857998759418
      ],
      [
        "nas",
        -9.75269752923274
      ],
      [
        "ĠCosta",
        -9.753129069793763
      ],
      [
        "Ġtornou",
        -9.753829976751762
      ],
      [
        "GO",
        -9.754095626709248
      ],
      [
        "Ġnobre",
        -9.754335583737872
      ],
      [
        "Ġvigor",
        -9.755575518229206
      ],
      [
        "Ġporta",
        -9.755644783858791
      ],
      [
        "possibilidade",
        -9.756936895185902
      ],
      [
        "Ġproposic",
        -9.758033027633385
      ],
      [
        "lida",
        -9.758364302057313
      ],
      [
        "Ġmandato",
        -9.75849870613653
      ],
      [
        "Ġclube",
        -9.75856679442894
      ],
      [
        "ĠCunha",
        -9.759159188621734
      ],
      [
        "Ġpauta",
        -9.75937213608145
      ],
      [
        "Ġcampanha",
        -9.760005023449349
      ],
      [
        "dispo",
        -9.760262715785544
      ],
      [
        "Ġdirec",
        -9.761059085000689
      ],
      [
        "ĠHu",
        -9.761363719763994
      ],
      [
        "Ġterrito",
        -9.762783106730495
      ],
      [
        "ĠFo",
        -9.763357216150691
      ],
      [
        "Ġchegar",
        -9.7634494622125
      ],
      [
        "ĠTambe",
        -9.764127810626848
      ],
      [
        "Ġfederal",
        -9.764586004500888
      ],
      [
        "Ġcerteza",
        -9.764946004345338
      ],
      [
        "log",
        -9.76654786282412
      ],
      [
        "Presidente",
        -9.766866496092874
      ],
      [
        "ley",
        -9.766940741170124
      ],
      [
        "Ġtransporte",
        -9.767205523644677
      ],
      [
        "Ġteria",
        -9.767221384098086
      ],
      [
        "Ġvalores",
        -9.768271364430229
      ],
      [
        "Ġtitular",
        -9.768464976488977
      ],
      [
        "ĠRequerimento",
        -9.769386467514492
      ],
      [
        "Depois",
        -9.769692598423966
      ],
      [
        "Ġalterac",
        -9.769776218806989
      ],
      [
        "ny",
        -9.77001579359491
      ],
      [
        "Ġexame",
        -9.770113327068394
      ],
      [
        "Ġprojetos",
        -9.770649275558698
      ],
      [
        "tem",
        -9.770861607472929
      ],
      [
        "cnico",
        -9.772861655396898
      ],
      [
        "Ġcentro",
        -9.77398889447501
      ],
      [
        "ĠGuerra",
        -9.775182184506836
      ],
      [
        "ĠBel",
        -9.775260255309613
      ],
      [
        "Ġprofissional",
        -9.77554444393687
      ],
      [
        "Ġresultado",
        -9.775714353288732
      ],
      [
        "lado",
        -9.775988617508272
      ],
      [
        "Ġoriginal",
        -9.77662634697468
      ],
      [
        "24",
        -9.7768685514752
      ],
      [
        "Geral",
        -9.776894328683676
      ],
      [
        "Ġacha",
        -9.77696441808046
      ],
      [
        "sticas",
        -9.778306409519208
      ],
      [
        "tel",
        -9.779554502972744
      ],
      [
        "Ġrealizado",
        -9.779727145272664
      ],
      [
        "idades",
        -9.779997444583625
      ],
      [
        "Ġfra",
        -9.78026894422167
      ],
      [
        "60",
        -9.780925211245757
      ],
      [
        "Ġmar",
        -9.781573158453805
      ],
      [
        "ĠCopa",
        -9.781915916081978
      ],
      [
        "Ġhaver",
        -9.782034771384714
      ],
      [
        "Ġprincipais",
        -9.782119195379815
      ],
      [
        "á",
        -9.78270160529802
      ],
      [
        "Ġemprego",
        -9.782937369527817
      ],
      [
        "Ġres",
        -9.78355333926766
      ],
      [
        "apreciac",
        -9.783709487435509
      ],
      [
        "LTIMA",
        -9.784259352229338
      ],
      [
        "Ġatenc",
        -9.785335662434193
      ],
      [
        "ava",
        -9.78577599314305
      ],
      [
        "Ġplena",
        -9.786078854729933
      ],
      [
        "ĠPortant",
        -9.786155546739389
      ],
      [
        "ĠSecretaria",
        -9.786449191941507
      ],
      [
        "80",
        -9.786893497947332
      ],
      [
        "ĠTV",
        -9.787477830584022
      ],
      [
        "Ġsul",
        -9.78810125434502
      ],
      [
        "ty",
        -9.7881476507836
      ],
      [
        "Ġ2018",
        -9.789329566580422
      ],
      [
        "Ġcaminho",
        -9.790862548434658
      ],
      [
        "Ġclaro",
        -9.791350137058938
      ],
      [
        "Ġrenda",
        -9.791765456508791
      ],
      [
        "2005",
        -9.791874136319777
      ],
      [
        "ĠEspecial",
        -9.792292890454544
      ],
      [
        "Ġrepresenta",
        -9.79470104573831
      ],
      [
        "trica",
        -9.79669976716925
      ],
      [
        "Ġideia",
        -9.796881222801368
      ],
      [
        "Ġinstrumento",
        -9.797139129533058
      ],
      [
        "Ġmotivo",
        -9.799123476983825
      ],
      [
        "Ġcrise",
        -9.800164299636924
      ],
      [
        "pia",
        -9.80026145356194
      ],
      [
        "nada",
        -9.80059897843934
      ],
      [
        "Ġautos",
        -9.800841258359997
      ],
      [
        "Ġvo",
        -9.800986743115716
      ],
      [
        "Ġconsiderado",
        -9.801153580193422
      ],
      [
        "Ġnatureza",
        -9.802131428941683
      ],
      [
        "iano",
        -9.803643401075227
      ],
      [
        "Ġpontos",
        -9.804026852545697
      ],
      [
        "Ġapresenta",
        -9.804576335838345
      ],
      [
        "Ġrei",
        -9.804617201007373
      ],
      [
        "lidade",
        -9.806902703318489
      ],
      [
        "Ġturno",
        -9.807261907200154
      ],
      [
        "gado",
        -9.808147452702832
      ],
      [
        "Ġhipo",
        -9.8110873393049
      ],
      [
        "Ġformac",
        -9.811574001283372
      ],
      [
        "Ġ1998",
        -9.81167626753895
      ],
      [
        "Ġfase",
        -9.8119009854979
      ],
      [
        "Ġinstitui",
        -9.812984357306632
      ],
      [
        "Ġlivre",
        -9.813539031144384
      ],
      [
        "Ġlogo",
        -9.814109761503108
      ],
      [
        "sito",
        -9.81518080666308
      ],
      [
        "dios",
        -9.815637233661157
      ],
      [
        "provimento",
        -9.817794173491247
      ],
      [
        "ĠSistema",
        -9.818639489922193
      ],
      [
        "Ġcontribuic",
        -9.818740320947615
      ],
      [
        "ĠFor",
        -9.819771388125702
      ],
      [
        "ĠQuero",
        -9.8198326676843
      ],
      [
        "ĠHenrique",
        -9.820151560453503
      ],
      [
        "Ordem",
        -9.820919452289726
      ],
      [
        "ĠRicardo",
        -9.8210908357256
      ],
      [
        "ĠQuem",
        -9.821448598876293
      ],
      [
        "Ġrede",
        -9.822248781849352
      ],
      [
        "chegou",
        -9.823131849284948
      ],
      [
        "ĠEles",
        -9.823326100696978
      ],
      [
        "ĠAndre",
        -9.82342347249421
      ],
      [
        "ĠMIN",
        -9.823731931916818
      ],
      [
        "leo",
        -9.823733331859982
      ],
      [
        "ĠAGRAV",
        -9.82482610756667
      ],
      [
        "lon",
        -9.826456573228883
      ],
      [
        "2019",
        -9.827023559741315
      ],
      [
        "ĠAlves",
        -9.828996960976482
      ],
      [
        "49",
        -9.830300696294188
      ],
      [
        "Ġautoria",
        -9.830440097015114
      ],
      [
        "Ġdiferentes",
        -9.831402308461849
      ],
      [
        "ĠSanto",
        -9.83222438060962
      ],
      [
        "tic",
        -9.832559947915282
      ],
      [
        "Ġcaput",
        -9.832600311446209
      ],
      [
        "Ġ35",
        -9.83303955494062
      ],
      [
        "ĠNA",
        -9.833554865188995
      ],
      [
        "Ġautoridade",
        -9.834437765391469
      ],
      [
        "Ġcaracteri",
        -9.835048870172832
      ],
      [
        "gan",
        -9.835125638305229
      ],
      [
        "ĠMINISTR",
        -9.835740905019543
      ],
      [
        "Ġleva",
        -9.835805030538506
      ],
      [
        "Ġsede",
        -9.836279676000183
      ],
      [
        "Ġtaxa",
        -9.837144965548504
      ],
      [
        "Ġsol",
        -9.837821775726644
      ],
      [
        "Ġpenal",
        -9.837889335241238
      ],
      [
        "ĠSA",
        -9.839403424719643
      ],
      [
        "ĠPereira",
        -9.83955967030196
      ],
      [
        "ĠAG",
        -9.839944109550284
      ],
      [
        "Ġcategoria",
        -9.840632180821832
      ],
      [
        "ĠSTF",
        -9.842296700198172
      ],
      [
        "Ġcriar",
        -9.842600370948444
      ],
      [
        "Ġguerra",
        -9.843073093935644
      ],
      [
        "oli",
        -9.84342526382846
      ],
      [
        "Ġpartida",
        -9.844065933770723
      ],
      [
        "Ġcontinua",
        -9.844926270156805
      ],
      [
        "ĠOh",
        -9.845117784892372
      ],
      [
        "Ġgesta",
        -9.845134114014328
      ],
      [
        "VI",
        -9.845449829509574
      ],
      [
        "ĠSantos",
        -9.845875029114632
      ],
      [
        "Ġcidada",
        -9.84589957635037
      ],
      [
        "uma",
        -9.847317272951267
      ],
      [
        "54",
        -9.847395137259932
      ],
      [
        "Ġquer",
        -9.84771556063702
      ],
      [
        "reunia",
        -9.847765304659362
      ],
      [
        "Ġmenor",
        -9.847939574623554
      ],
      [
        "Ġesca",
        -9.848525884146095
      ],
      [
        "Ġ37",
        -9.848760560234965
      ],
      [
        "Ġvisita",
        -9.849003835070894
      ],
      [
        "Ġseis",
        -9.85113016674316
      ],
      [
        "Cidadania",
        -9.852431913394122
      ],
      [
        "Ġversa",
        -9.852924377378748
      ],
      [
        "Ġsignifica",
        -9.853071828279818
      ],
      [
        "CURSO",
        -9.854424038773445
      ],
      [
        "Ġmarca",
        -9.85566663065367
      ],
      [
        "Ġplano",
        -9.85580306374432
      ],
      [
        "ĠMais",
        -9.855971155684257
      ],
      [
        "ĠRel",
        -9.856635132949464
      ],
      [
        "logo",
        -9.858039576744298
      ],
      [
        "cujo",
        -9.858190156431425
      ],
      [
        "Ġtorna",
        -9.858455537148297
      ],
      [
        "Ġinternacional",
        -9.859434261565845
      ],
      [
        "31",
        -9.8611280791161
      ],
      [
        "Ġusua",
        -9.861392565910531
      ],
      [
        "2017",
        -9.862889807922055
      ],
      [
        "Ġpla",
        -9.863589429502689
      ],
      [
        "acima",
        -9.86385580100744
      ],
      [
        "ĠPorto",
        -9.866075788731434
      ],
      [
        "ĠDias",
        -9.86746946576982
      ],
      [
        "trabalhadores",
        -9.868283314556798
      ],
      [
        "Ġconstitui",
        -9.870066002467652
      ],
      [
        "Ġdestaque",
        -9.871166623037038
      ],
      [
        "Ġtera",
        -9.871480643165452
      ],
      [
        "Ġvisa",
        -9.872380952997888
      ],
      [
        "Ġviole",
        -9.872723008356514
      ],
      [
        "Ġcrite",
        -9.87349252419594
      ],
      [
        "ĠPSD",
        -9.874461427503354
      ],
      [
        "94",
        -9.876017382050644
      ],
      [
        "ĠDilma",
        -9.876049537949084
      ],
      [
        "Ġfundo",
        -9.876235271073115
      ],
      [
        "mediante",
        -9.876366360458142
      ],
      [
        "Medida",
        -9.87727228937478
      ],
      [
        "Ġdifi",
        -9.877649714413904
      ],
      [
        "Ĥ",
        -9.87780722223074
      ],
      [
        "Ġprotec",
        -9.878184509527635
      ],
      [
        "ĠGi",
        -9.878591856868866
      ],
      [
        "Ġrecebe",
        -9.878763653004109
      ],
      [
        "cuja",
        -9.879198111016969
      ],
      [
        "Ġautoriza",
        -9.880475848456426
      ],
      [
        "ire",
        -9.881863234534308
      ],
      [
        "realmente",
        -9.883117582666822
      ],
      [
        "ĠVou",
        -9.883134601987813
      ],
      [
        "cias",
        -9.883180844754545
      ],
      [
        "Ġchega",
        -9.883269725254712
      ],
      [
        "MS",
        -9.88348904330384
      ],
      [
        "Of",
        -9.8845972554648
      ],
      [
        "ĠBanco",
        -9.884816649372954
      ],
      [
        "ĠBen",
        -9.884902450179414
      ],
      [
        "Ġatendimento",
        -9.886332100765834
      ],
      [
        "Ġexige",
        -9.887533324009237
      ],
      [
        "van",
        -9.888285097892606
      ],
      [
        "Ġeleito",
        -9.888627160014908
      ],
      [
        "port",
        -9.888674990510816
      ],
      [
        "Ġaquela",
        -9.889647225815455
      ],
      [
        "Ġpassar",
        -9.889929363228118
      ],
      [
        "ĠEra",
        -9.890061915394538
      ],
      [
        "Ġcultura",
        -9.891335867791348
      ],
      [
        "ĠGre",
        -9.891384649460305
      ],
      [
        "ĠMato",
        -9.891582132609305
      ],
      [
        "ĠLocal",
        -9.891594453518872
      ],
      [
        "95",
        -9.892352134048094
      ],
      [
        "Ģ",
        -9.892891713535564
      ],
      [
        "Ġinco",
        -9.89304168145832
      ],
      [
        "41",
        -9.894070026539318
      ],
      [
        "ĠNesse",
        -9.895618985264672
      ],
      [
        "Ġ60",
        -9.895695728096452
      ],
      [
        "category",
        -9.89859082897723
      ],
      [
        "Ġdesses",
        -9.89862669426448
      ],
      [
        "Ġmostra",
        -9.898908356937648
      ],
      [
        "Pen",
        -9.899423376594855
      ],
      [
        "61",
        -9.901409706982047
      ],
      [
        "ĠBrasileira",
        -9.901609154107316
      ],
      [
        "ĠMeu",
        -9.902379712546116
      ],
      [
        "recebeu",
        -9.902894582048086
      ],
      [
        "Ġescrito",
        -9.90319155083204
      ],
      [
        "lei",
        -9.903347030153196
      ],
      [
        "ĠInter",
        -9.903823172224302
      ],
      [
        "Ġresposta",
        -9.903928364307744
      ],
      [
        "ĠProviso",
        -9.90466409976559
      ],
      [
        "Ġrazo",
        -9.904945518728317
      ],
      [
        "Ġqueria",
        -9.905594365728303
      ],
      [
        "ĥ",
        -9.905845628337351
      ],
      [
        "ĠSou",
        -9.905995289534228
      ],
      [
        "PP",
        -9.906052090729467
      ],
      [
        "ĠBra",
        -9.907320519931153
      ],
      [
        "ĠMarcelo",
        -9.908789916804954
      ],
      [
        "Ġatra",
        -9.910038473676698
      ],
      [
        "ĠFundo",
        -9.910587575597424
      ],
      [
        "Gerais",
        -9.911467921083164
      ],
      [
        "ting",
        -9.91208755710156
      ],
      [
        "Ġ70",
        -9.912139108040671
      ],
      [
        "Ġnorma",
        -9.912615088304175
      ],
      [
        "Durante",
        -9.912728854151675
      ],
      [
        "Ġcapacidade",
        -9.913980226484323
      ],
      [
        "nero",
        -9.915754704817513
      ],
      [
        "Ġliberdade",
        -9.916531370546952
      ],
      [
        "ĠEntre",
        -9.916623177320751
      ],
      [
        "serem",
        -9.91737549437444
      ],
      [
        "Ġdeclarac",
        -9.918341328148502
      ],
      [
        "PAULO",
        -9.920314210815873
      ],
      [
        "Ġisto",
        -9.920509366514938
      ],
      [
        "Ġnovos",
        -9.920822469834016
      ],
      [
        "Ġcomunita",
        -9.92126972561944
      ],
      [
        "gal",
        -9.921435067955358
      ],
      [
        "Ġcriado",
        -9.922086607251158
      ],
      [
        "ĠBahia",
        -9.923260398676888
      ],
      [
        "tese",
        -9.92414983964444
      ],
      [
        "ido",
        -9.925110785147275
      ],
      [
        "Ġvotar",
        -9.92604742939414
      ],
      [
        "Ġmanter",
        -9.926207075288398
      ],
      [
        "Ġindu",
        -9.926621606747416
      ],
      [
        "Ġdenu",
        -9.92691770661684
      ],
      [
        "ĠLima",
        -9.927136112347805
      ],
      [
        "Ġreduc",
        -9.92783691734858
      ],
      [
        "ĠJorge",
        -9.928816393459108
      ],
      [
        "Ġgene",
        -9.92994789772745
      ],
      [
        "Ġnoti",
        -9.930008062987758
      ],
      [
        "ĠAdministrac",
        -9.93046415206758
      ],
      [
        "Ġsoluc",
        -9.930516552353565
      ],
      [
        "Ġexecutar",
        -9.9305940485131
      ],
      [
        "Ġterceiro",
        -9.931014679452874
      ],
      [
        "ĠComiss",
        -9.931053653531084
      ],
      [
        "2006",
        -9.931526446290588
      ],
      [
        "Ġdiversos",
        -9.93219496024077
      ],
      [
        "Ġfl",
        -9.932975850643698
      ],
      [
        "servidores",
        -9.933946953109247
      ],
      [
        "Ġconstrui",
        -9.933977353320325
      ],
      [
        "Ġhomens",
        -9.934062168273126
      ],
      [
        "ĠSENHOR",
        -9.934668001546996
      ],
      [
        "Ġmaterial",
        -9.934846744057168
      ],
      [
        "dura",
        -9.935973195181296
      ],
      [
        "Ġambiente",
        -9.936045915244248
      ],
      [
        "Ġincluindo",
        -9.93626363628706
      ],
      [
        "ĠMundial",
        -9.937077282823244
      ],
      [
        "Ġuni",
        -9.937283215102504
      ],
      [
        "Ġchamada",
        -9.937324906623644
      ],
      [
        "ĠRIC",
        -9.937540870864018
      ],
      [
        "nima",
        -9.938401996882686
      ],
      [
        "Ġmeta",
        -9.938586896778936
      ],
      [
        "doenc",
        -9.938889127898118
      ],
      [
        "Ġhomenage",
        -9.939639162040525
      ],
      [
        "ĠVale",
        -9.940585483749178
      ],
      [
        "Ġestudo",
        -9.940698950521236
      ],
      [
        "Ġapresentado",
        -9.943446946283824
      ],
      [
        "ĠHer",
        -9.943820005781044
      ],
      [
        "Ġsolicita",
        -9.944179385883745
      ],
      [
        "Ġbi",
        -9.944771845089376
      ],
      [
        "Ġ1997",
        -9.945248225667784
      ],
      [
        "Ġproviso",
        -9.9459037083444
      ],
      [
        "Ġtrabalhos",
        -9.947288193499944
      ],
      [
        "Ġamor",
        -9.94811674397829
      ],
      [
        "nior",
        -9.948537514276882
      ],
      [
        "Ġdiretor",
        -9.948847750582663
      ],
      [
        "ble",
        -9.949224194384575
      ],
      [
        "Ainda",
        -9.949826906895897
      ],
      [
        "Ġprofissionais",
        -9.949878618313146
      ],
      [
        "ME",
        -9.949968903442036
      ],
      [
        "ĠInternacional",
        -9.950035522980556
      ],
      [
        "ĠZe",
        -9.95031077329359
      ],
      [
        "ĠCE",
        -9.950642861058434
      ],
      [
        "maiores",
        -9.951527703800473
      ],
      [
        "Ġcivil",
        -9.951631904038432
      ],
      [
        "Ġreceber",
        -9.952028547957015
      ],
      [
        "rcito",
        -9.952244430959473
      ],
      [
        "ĠâĢĺ",
        -9.952253823425382
      ],
      [
        "Ġdiversas",
        -9.952977247370486
      ],
      [
        "dora",
        -9.953282635742235
      ],
      [
        "ĠMendes",
        -9.95335046688223
      ],
      [
        "Ġamigo",
        -9.95427049299699
      ],
      [
        "tratamento",
        -9.955755967493388
      ],
      [
        "Ġgarantia",
        -9.95629094182414
      ],
      [
        "pido",
        -9.958932420107107
      ],
      [
        "qu",
        -9.959413520519377
      ],
      [
        "Ġartigos",
        -9.959814074606747
      ],
      [
        "ĠTudo",
        -9.95990515577242
      ],
      [
        "ĠWe",
        -9.960177080300223
      ],
      [
        "Ġcena",
        -9.965937912379433
      ],
      [
        "ssimo",
        -9.966807743548616
      ],
      [
        "Ġfins",
        -9.967158247735238
      ],
      [
        "gostaria",
        -9.967242559019702
      ],
      [
        "ltimos",
        -9.967246251217
      ],
      [
        "Ġdispositivo",
        -9.967394260695032
      ],
      [
        "by",
        -9.9682492784122
      ],
      [
        "Ġpri",
        -9.970375212526628
      ],
      [
        "PCdoB",
        -9.970772143396175
      ],
      [
        "ĠJe",
        -9.971648552692676
      ],
      [
        "Ġfundamental",
        -9.971867890784734
      ],
      [
        "Ġcumprimento",
        -9.971882080591136
      ],
      [
        "tando",
        -9.972674414687216
      ],
      [
        "Ġcarro",
        -9.97328028499341
      ],
      [
        "ĠGovernador",
        -9.973314839574128
      ],
      [
        "ĠADV",
        -9.973932141906865
      ],
      [
        "ĠVoss",
        -9.974736940009718
      ],
      [
        "Ġfuturo",
        -9.975605911434595
      ],
      [
        "Ġcompra",
        -9.976771991869914
      ],
      [
        "vidas",
        -9.976861290854494
      ],
      [
        "ĠAL",
        -9.977314631103766
      ],
      [
        "ĠOfi",
        -9.977717349393115
      ],
      [
        "ĠAta",
        -9.978047046610197
      ],
      [
        "Ġevento",
        -9.978365235527598
      ],
      [
        "ĠParana",
        -9.979121809050117
      ],
      [
        "ĠInforma",
        -9.979632236187426
      ],
      [
        "ĠSesso",
        -9.980613019220172
      ],
      [
        "Ġafirma",
        -9.9818704002242
      ],
      [
        "Ġmuita",
        -9.982499984781748
      ],
      [
        "pronunciamento",
        -9.984442559363476
      ],
      [
        "ĠRJ",
        -9.98494669733966
      ],
      [
        "Ġpaciente",
        -9.985356304773015
      ],
      [
        "Ġdeles",
        -9.986518165877744
      ],
      [
        "Ġaudie",
        -9.9876390232138
      ],
      [
        "Ġfavora",
        -9.987943293042106
      ],
      [
        "Ġgrave",
        -9.988229380037598
      ],
      [
        "Ġalto",
        -9.9888750208536
      ],
      [
        "tados",
        -9.99009350583157
      ],
      [
        "Ġapresentar",
        -9.990240864576649
      ],
      [
        "Ġmilitar",
        -9.9903610533243
      ],
      [
        "Ġesti",
        -9.990585349946056
      ],
      [
        "ĠCla",
        -9.991783680431231
      ],
      [
        "Ġnatural",
        -9.992966943597136
      ],
      [
        "Ġjornal",
        -9.99363320062822
      ],
      [
        "ĠAte",
        -9.994689826329704
      ],
      [
        "Ġadministrac",
        -9.994918319525082
      ],
      [
        "metros",
        -9.995083318947774
      ],
      [
        "Ġnenhuma",
        -9.995887592463246
      ],
      [
        "mentos",
        -9.996265345020436
      ],
      [
        "ĠPEC",
        -9.996962213863547
      ],
      [
        "ĠSuperior",
        -9.997455101622077
      ],
      [
        "REG",
        -9.997818769333074
      ],
      [
        "lico",
        -9.997826527179509
      ],
      [
        "ĠAcho",
        -9.999090453642571
      ],
      [
        "Ġcrescimento",
        -9.9995149247705
      ],
      [
        "ĠCan",
        -10.000993295804678
      ],
      [
        "Ġanu",
        -10.001634699490916
      ],
      [
        "ĠEcono",
        -10.002260790575423
      ],
      [
        "Ġusado",
        -10.002603017895522
      ],
      [
        "Ġinflue",
        -10.002965817088208
      ],
      [
        "Ġacaba",
        -10.003362414350171
      ],
      [
        "ĠCentro",
        -10.003502119565422
      ],
      [
        "Ġusar",
        -10.00362929843107
      ],
      [
        "ĠMari",
        -10.003941991749244
      ],
      [
        "ĠFA",
        -10.004545326919994
      ],
      [
        "Ġnovas",
        -10.00493629249754
      ],
      [
        "Ġcabe",
        -10.004995343238573
      ],
      [
        "cita",
        -10.00530183369431
      ],
      [
        "Ġinsta",
        -10.005662114330336
      ],
      [
        "ĠOu",
        -10.00595106622136
      ],
      [
        "Ġaplica",
        -10.006468066078092
      ],
      [
        "Ġtributa",
        -10.007534047131545
      ],
      [
        "Ġningue",
        -10.007864393503478
      ],
      [
        "Ġsonora",
        -10.008021763868236
      ],
      [
        "ĠWikipe",
        -10.00805259391142
      ],
      [
        "Ġapresentac",
        -10.008422717061393
      ],
      [
        "the",
        -10.008620582318526
      ],
      [
        "Ġmon",
        -10.008748339117693
      ],
      [
        "Ġlu",
        -10.009124697377196
      ],
      [
        "EXTRAORDINA",
        -10.009239491095228
      ],
      [
        "rum",
        -10.009392402477854
      ],
      [
        "Ġvito",
        -10.010491335999946
      ],
      [
        "entidades",
        -10.010732907247506
      ],
      [
        "Ġsimples",
        -10.010760308792218
      ],
      [
        "NTE",
        -10.012112064492635
      ],
      [
        "ĠVoto",
        -10.012346660230383
      ],
      [
        "Ġ1999",
        -10.012485433663068
      ],
      [
        "Ġextra",
        -10.013043491788414
      ],
      [
        "Ġcontar",
        -10.013099047934826
      ],
      [
        "ĠPmdbP",
        -10.013760678241564
      ],
      [
        "Ġajudar",
        -10.01379899361176
      ],
      [
        "tecnologia",
        -10.015317087112416
      ],
      [
        "Ġimposto",
        -10.015370879315633
      ],
      [
        "devem",
        -10.015396823382856
      ],
      [
        "pes",
        -10.015522558267609
      ],
      [
        "Ġautorizac",
        -10.016108611244274
      ],
      [
        "substituic",
        -10.018006965812932
      ],
      [
        "ini",
        -10.021334194335044
      ],
      [
        "..............",
        -10.022120644183907
      ],
      [
        "Ġcombate",
        -10.02240967725858
      ],
      [
        "ĠCON",
        -10.022456363712273
      ],
      [
        "Ġbu",
        -10.02281536983308
      ],
      [
        "Ltd",
        -10.023559228486675
      ],
      [
        "ĠCampos",
        -10.024479847818158
      ],
      [
        "iam",
        -10.026682559172826
      ],
      [
        "bin",
        -10.028415765657318
      ],
      [
        "Ġprestac",
        -10.029112868610644
      ],
      [
        "Hoje",
        -10.029307286169985
      ],
      [
        "Ġvisto",
        -10.029469958491832
      ],
      [
        "ĠAqui",
        -10.029507910376331
      ],
      [
        "ĠTodos",
        -10.029950610913456
      ],
      [
        "Ġestabelece",
        -10.031810330404165
      ],
      [
        "MENTO",
        -10.03207104390686
      ],
      [
        "Anexo",
        -10.03252751162216
      ],
      [
        "Ġvir",
        -10.032855386738063
      ],
      [
        "ĠIgreja",
        -10.033322612819564
      ],
      [
        "Ġrepresentante",
        -10.033410670509452
      ],
      [
        "Ñ",
        -10.033461600653771
      ],
      [
        "Lei",
        -10.03497145229482
      ],
      [
        "ĠKi",
        -10.035163803095216
      ],
      [
        "Ġreceita",
        -10.035460367264122
      ],
      [
        "AI",
        -10.036296800336412
      ],
      [
        "ĠRoma",
        -10.03639539277012
      ],
      [
        "Ġfilhos",
        -10.037430611441328
      ],
      [
        "2003",
        -10.037939658667293
      ],
      [
        "RJ",
        -10.03801635707594
      ],
      [
        "Ġdiante",
        -10.038158196171343
      ],
      [
        "ĠBA",
        -10.038886320684748
      ],
      [
        "Ġdiferenc",
        -10.039510600631075
      ],
      [
        "Ġestavam",
        -10.040525578686978
      ],
      [
        "Ġtermo",
        -10.040594975807409
      ],
      [
        "designado",
        -10.0407313537553
      ],
      [
        "Ġdespes",
        -10.0410210144194
      ],
      [
        "Ġespecialmente",
        -10.04194728596286
      ],
      [
        "tores",
        -10.042634381414931
      ],
      [
        "vos",
        -10.042864516595156
      ],
      [
        "ĠDep",
        -10.043435368514368
      ],
      [
        "Ġju",
        -10.043499434492292
      ],
      [
        "Ġlevar",
        -10.04366916898694
      ],
      [
        "ĠNu",
        -10.044279398614794
      ],
      [
        "tida",
        -10.044395946789336
      ],
      [
        "PFL",
        -10.044477929645298
      ],
      [
        "line",
        -10.045597070203856
      ],
      [
        "Ġdisputa",
        -10.045634104424746
      ],
      [
        "ĠCu",
        -10.046722324884303
      ],
      [
        "shi",
        -10.047142684139745
      ],
      [
        "Ġconhecida",
        -10.047431691526455
      ],
      [
        "ĠCultura",
        -10.0477954945721
      ],
      [
        "juridicidade",
        -10.04791393746461
      ],
      [
        "ĠParlamentar",
        -10.04816790155032
      ],
      [
        "Ġcurso",
        -10.04925919863573
      ],
      [
        "Ġgarantir",
        -10.05003755028797
      ],
      [
        "Ġfutebol",
        -10.050237217378886
      ],
      [
        "ĠFEDERAL",
        -10.051012745157472
      ],
      [
        "ĠTerra",
        -10.05120160091331
      ],
      [
        "CH",
        -10.051355067134764
      ],
      [
        "Ġarti",
        -10.05167473311931
      ],
      [
        "Ġreco",
        -10.051748411547754
      ],
      [
        "Tenho",
        -10.051804460274711
      ],
      [
        "Ġfonte",
        -10.053293231432448
      ],
      [
        "ĠTemer",
        -10.05343275049818
      ],
      [
        "Ġconquista",
        -10.05388771128796
      ],
      [
        "Ġcabec",
        -10.054519085421484
      ],
      [
        "SC",
        -10.05468426165634
      ],
      [
        "URMA",
        -10.05643028529081
      ],
      [
        "leg",
        -10.058196388776878
      ],
      [
        "IDADE",
        -10.059581041885307
      ],
      [
        "prisa",
        -10.060324960561465
      ],
      [
        "Ġfilha",
        -10.06045551296597
      ],
      [
        "Ġrevista",
        -10.060662910980662
      ],
      [
        "Ġbastante",
        -10.06076305994093
      ],
      [
        "Ġvale",
        -10.061040155945651
      ],
      [
        "Ġconte",
        -10.061543541719256
      ],
      [
        "ĠRibeiro",
        -10.06210017842099
      ],
      [
        "Ġora",
        -10.063120856231649
      ],
      [
        "ĠSub",
        -10.063982927356708
      ],
      [
        "atuac",
        -10.06428736854423
      ],
      [
        "ela",
        -10.064572396381534
      ],
      [
        "nsito",
        -10.06458408937888
      ],
      [
        "Ġ55",
        -10.066280331049496
      ],
      [
        "Ġcarta",
        -10.066326483899129
      ],
      [
        "Ġaprovada",
        -10.066572770372748
      ],
      [
        "RS",
        -10.067062899815085
      ],
      [
        "Ġpublicado",
        -10.067370414617391
      ],
      [
        "Ġrealidade",
        -10.0674739914679
      ],
      [
        "Ġconteu",
        -10.067550907505264
      ],
      [
        "Apensa",
        -10.068978586037176
      ],
      [
        "Ġ53",
        -10.069570076508226
      ],
      [
        "Ġrel",
        -10.070547541773085
      ],
      [
        "esta",
        -10.07186357464054
      ],
      [
        "ficas",
        -10.071879622461234
      ],
      [
        "Ġliga",
        -10.072315244170412
      ],
      [
        "instalac",
        -10.07260915669075
      ],
      [
        "ssem",
        -10.07302400427216
      ],
      [
        "ĠBom",
        -10.073142857515116
      ],
      [
        "afirmou",
        -10.073257351639777
      ],
      [
        "dez",
        -10.073520489458357
      ],
      [
        "Ġvenda",
        -10.073638511866552
      ],
      [
        "âĢĲ",
        -10.073673250000866
      ],
      [
        "ĠTri",
        -10.075816333079322
      ],
      [
        "Ġnovamente",
        -10.075868853345082
      ],
      [
        "lares",
        -10.075994776696486
      ],
      [
        "ĠTrata",
        -10.076354098888023
      ],
      [
        "Ġsair",
        -10.076526829677071
      ],
      [
        "Ġpequena",
        -10.077371286421304
      ],
      [
        "Ġprogramas",
        -10.078012382333364
      ],
      [
        "STA",
        -10.078437448815205
      ],
      [
        "ĠWi",
        -10.078582321870472
      ],
      [
        "Ġconsegui",
        -10.078858589649494
      ],
      [
        "Ġcomum",
        -10.078940419427155
      ],
      [
        "ĠEi",
        -10.078969909281213
      ],
      [
        "ĠTre",
        -10.079007125755457
      ],
      [
        "GE",
        -10.080168156633126
      ],
      [
        "ĠMarc",
        -10.080511957958503
      ],
      [
        "jovens",
        -10.08078895731446
      ],
      [
        "Ġtais",
        -10.08180938033227
      ],
      [
        "Ġmissa",
        -10.0821207723904
      ],
      [
        "Ġclasse",
        -10.082254380352138
      ],
      [
        "Ġcandidato",
        -10.082371693499066
      ],
      [
        "ĠBer",
        -10.08286950763042
      ],
      [
        "Ġvoltar",
        -10.083052597126716
      ],
      [
        "ĠFla",
        -10.083992397370393
      ],
      [
        "ĠSegunda",
        -10.08420336288522
      ],
      [
        "Ġtrabalhar",
        -10.08437831508244
      ],
      [
        "GL",
        -10.084533971845506
      ],
      [
        "ĠJohn",
        -10.085491438421345
      ],
      [
        "ĠEl",
        -10.085495440354745
      ],
      [
        "pel",
        -10.08587179451574
      ],
      [
        "normas",
        -10.086235288913484
      ],
      [
        "ĠOrc",
        -10.0863667829772
      ],
      [
        "Ġcienti",
        -10.088481611430696
      ],
      [
        "ĠCamp",
        -10.088587821148169
      ],
      [
        "Ġusa",
        -10.088771401733744
      ],
      [
        "ĠAprova",
        -10.08911834831736
      ],
      [
        "ĠDiretor",
        -10.08930244091146
      ],
      [
        "IA",
        -10.089726345971735
      ],
      [
        "vendo",
        -10.089918718305931
      ],
      [
        "Ġfiscal",
        -10.090265451091543
      ],
      [
        "bancada",
        -10.09051516073604
      ],
      [
        "rgio",
        -10.091069659300723
      ],
      [
        "Ġseguida",
        -10.091255277730758
      ],
      [
        "Ġassiste",
        -10.092366839451664
      ],
      [
        "Ġepiso",
        -10.092914239829607
      ],
      [
        "Ġalema",
        -10.093115809755624
      ],
      [
        "ĠME",
        -10.093137672895176
      ],
      [
        "Ġcru",
        -10.093373658718717
      ],
      [
        "Ġquesto",
        -10.094938704783669
      ],
      [
        "Ġpopular",
        -10.09556757812392
      ],
      [
        "tto",
        -10.095891452617291
      ],
      [
        "2004",
        -10.098199098047814
      ],
      [
        "CN",
        -10.098386868659365
      ],
      [
        "Ġcha",
        -10.099533023148068
      ],
      [
        "Ġimportantes",
        -10.100240502150028
      ],
      [
        "NT",
        -10.10055698489761
      ],
      [
        "zada",
        -10.10135356353624
      ],
      [
        "Ġpropriedade",
        -10.102122854467172
      ],
      [
        "Ġmeus",
        -10.102486838567456
      ],
      [
        "ĠRO",
        -10.102842855827769
      ],
      [
        "ĠComplementar",
        -10.103830528207318
      ],
      [
        "cido",
        -10.104435201433622
      ],
      [
        "ĠMac",
        -10.10584845407264
      ],
      [
        "Ġinforma",
        -10.105917743125763
      ],
      [
        "Ġbeneficia",
        -10.106165100301627
      ],
      [
        "han",
        -10.106373861474651
      ],
      [
        "ĠPri",
        -10.106776029543171
      ],
      [
        "Ġministro",
        -10.107364437649109
      ],
      [
        "meros",
        -10.108001414860874
      ],
      [
        "Ġdeputado",
        -10.108708979925058
      ],
      [
        "Ġregra",
        -10.10881263201864
      ],
      [
        "Ġportugue",
        -10.109027351772117
      ],
      [
        "Ġentrar",
        -10.10982406603956
      ],
      [
        "Ġprejui",
        -10.110732755444351
      ],
      [
        "Ġsuficiente",
        -10.111040760227809
      ],
      [
        "ngel",
        -10.111186006387795
      ],
      [
        "Ġarma",
        -10.111919688074634
      ],
      [
        "Ġ38",
        -10.112877946847217
      ],
      [
        "ĠEuropa",
        -10.113245216604364
      ],
      [
        "Ġbaixa",
        -10.1137744466499
      ],
      [
        "AgR",
        -10.114005425803509
      ],
      [
        "zes",
        -10.114009517787812
      ],
      [
        "Ġvige",
        -10.11448741593441
      ],
      [
        "Ġquadro",
        -10.115304358969842
      ],
      [
        "Ġ1996",
        -10.116008942646642
      ],
      [
        "ĠPRO",
        -10.116407127184166
      ],
      [
        "deixou",
        -10.116431170993318
      ],
      [
        "Ġrevela",
        -10.116633504717171
      ],
      [
        "Ġencontrar",
        -10.116701449556077
      ],
      [
        "dina",
        -10.117254991684556
      ],
      [
        "Ġobrigac",
        -10.117353310558132
      ],
      [
        "Ġantigo",
        -10.117365781089235
      ],
      [
        "ĠEscola",
        -10.118728725599002
      ],
      [
        "micos",
        -10.118825494436344
      ],
      [
        "entidade",
        -10.120215056486526
      ],
      [
        "sic",
        -10.120228625842888
      ],
      [
        "entendimento",
        -10.120731373311022
      ],
      [
        "Ġide",
        -10.120899128418545
      ],
      [
        "ker",
        -10.121817883753192
      ],
      [
        "ndice",
        -10.122198835477052
      ],
      [
        "å",
        -10.122568930131289
      ],
      [
        "Ġfaixa",
        -10.12267930495165
      ],
      [
        "Ġsite",
        -10.12343924043732
      ],
      [
        "Ġperda",
        -10.124377778829244
      ],
      [
        "Ġaltera",
        -10.125093089941473
      ],
      [
        "Ġexperie",
        -10.125216040460696
      ],
      [
        "ĠRelato",
        -10.125462796224824
      ],
      [
        "tividade",
        -10.125986558368536
      ],
      [
        "Ġoutorga",
        -10.12674189939105
      ],
      [
        "Ġdepende",
        -10.128182369501117
      ],
      [
        "Ġelas",
        -10.128981827245529
      ],
      [
        "ĠAmazo",
        -10.12962478613072
      ],
      [
        "ias",
        -10.129781808270224
      ],
      [
        "espe",
        -10.130526534984291
      ],
      [
        "CIA",
        -10.132393248986537
      ],
      [
        "Certo",
        -10.132969962631996
      ],
      [
        "Portaria",
        -10.133007246068807
      ],
      [
        "ĠPenal",
        -10.133098298193532
      ],
      [
        "tenham",
        -10.133923966142213
      ],
      [
        "previsto",
        -10.134376969457096
      ],
      [
        "Ġchama",
        -10.13550916021268
      ],
      [
        "Ġcolocar",
        -10.135696929437714
      ],
      [
        "+",
        -10.13662157953664
      ],
      [
        "ĠDOS",
        -10.136722730422424
      ],
      [
        "Ġdisco",
        -10.136763607990371
      ],
      [
        "Ġbaixo",
        -10.137861628311182
      ],
      [
        "ĠSU",
        -10.137959153162472
      ],
      [
        "Ġlimite",
        -10.1393804076563
      ],
      [
        "tivos",
        -10.140442731634028
      ],
      [
        "conformidade",
        -10.141195217991644
      ],
      [
        "Ġconti",
        -10.141450597631849
      ],
      [
        "Ġaconteceu",
        -10.14263149357699
      ],
      [
        "elo",
        -10.143870620943622
      ],
      [
        "Ġdemanda",
        -10.143971977297843
      ],
      [
        "locais",
        -10.145146151974648
      ],
      [
        "Ġpermite",
        -10.14581777649041
      ],
      [
        "zer",
        -10.146193171096398
      ],
      [
        "entrada",
        -10.147956128936176
      ],
      [
        "Mar",
        -10.148053562584716
      ],
      [
        "Ġtratar",
        -10.148203717717935
      ],
      [
        "distribuic",
        -10.148795996536943
      ],
      [
        "Ġ80",
        -10.149015963029209
      ],
      [
        "PtbP",
        -10.149440796601448
      ],
      [
        "Ġ36",
        -10.150967713597828
      ],
      [
        "ĠSp",
        -10.151144530525958
      ],
      [
        "ĠChe",
        -10.152141574700549
      ],
      [
        "Ġacerca",
        -10.152766437518167
      ],
      [
        "Ġigual",
        -10.152986341429138
      ],
      [
        "Substitutivo",
        -10.15400540610784
      ],
      [
        "NC",
        -10.15585085948306
      ],
      [
        "PSOL",
        -10.15608299019716
      ],
      [
        "ĠComunita",
        -10.156571690812768
      ],
      [
        "ĠBR",
        -10.156629718588595
      ],
      [
        "Ġtelevisa",
        -10.1566684620964
      ],
      [
        "Ġcerta",
        -10.156986225107351
      ],
      [
        "talvez",
        -10.156989209948666
      ],
      [
        "Ġapre",
        -10.157265334267242
      ],
      [
        "Ġtornar",
        -10.158715980100308
      ],
      [
        "bli",
        -10.158865927389126
      ],
      [
        "ĠPU",
        -10.15995733946888
      ],
      [
        "Ġcontinuar",
        -10.163110272547774
      ],
      [
        "PRB",
        -10.163119652139263
      ],
      [
        "Ġreserva",
        -10.163983077093162
      ],
      [
        "Ġluz",
        -10.164649395460907
      ],
      [
        "ĠJU",
        -10.16501935501972
      ],
      [
        "Ġcria",
        -10.16553424787045
      ],
      [
        "Ġparticipar",
        -10.166076455942934
      ],
      [
        "destinada",
        -10.166324434370075
      ],
      [
        "Ġapresentada",
        -10.166336264637549
      ],
      [
        "ĠVal",
        -10.166391825782805
      ],
      [
        "press",
        -10.168081347227467
      ],
      [
        "Ġabertura",
        -10.16911393365799
      ],
      [
        "ĠPrimeiro",
        -10.169608005391533
      ],
      [
        "Ġordina",
        -10.169715683436497
      ],
      [
        "Ġdessas",
        -10.169793798596729
      ],
      [
        "Ġesforc",
        -10.170121843710682
      ],
      [
        "Ġpreso",
        -10.170575568886877
      ],
      [
        "tulos",
        -10.170631114174585
      ],
      [
        "manutenc",
        -10.170803742143136
      ],
      [
        "Ġhumano",
        -10.171297799496251
      ],
      [
        "Ġestu",
        -10.172465734874445
      ],
      [
        "Ġtomar",
        -10.174633646340835
      ],
      [
        "Ġantiga",
        -10.174701418331404
      ],
      [
        "Ġause",
        -10.176177534902507
      ],
      [
        "AM",
        -10.177434721533457
      ],
      [
        "enda",
        -10.177784441186253
      ],
      [
        "Ġmulta",
        -10.17932004606062
      ],
      [
        "Ġaprova",
        -10.179498507195808
      ],
      [
        "Ġbens",
        -10.180212719099844
      ],
      [
        "Ġdireta",
        -10.18042012383961
      ],
      [
        "ĠMal",
        -10.180695362991516
      ],
      [
        "ĠPOR",
        -10.181304542829468
      ],
      [
        "Ġtime",
        -10.181574949544666
      ],
      [
        "pida",
        -10.181738895960136
      ],
      [
        "DEPUTADO",
        -10.18206356534308
      ],
      [
        "tante",
        -10.1838183117079
      ],
      [
        "Prefeito",
        -10.18507080607285
      ],
      [
        "Ġataque",
        -10.187417151956293
      ],
      [
        "ĠTrans",
        -10.187790222416805
      ],
      [
        "Ġespi",
        -10.187846080330647
      ],
      [
        "gerac",
        -10.187971844057213
      ],
      [
        "Ġalega",
        -10.189054824696736
      ],
      [
        "Ġinvestigac",
        -10.18950630620233
      ],
      [
        "ĠProcesso",
        -10.189544227420992
      ],
      [
        "Ġerro",
        -10.18961273560356
      ],
      [
        "\",\"",
        -10.190070185032734
      ],
      [
        "cimento",
        -10.190115515933725
      ],
      [
        "Ġpermiti",
        -10.190364528455945
      ],
      [
        "inclusa",
        -10.190918977994665
      ],
      [
        "produtos",
        -10.19120624513724
      ],
      [
        "lis",
        -10.191630057316113
      ],
      [
        "ĠSal",
        -10.191915894367831
      ],
      [
        "Ġpergunta",
        -10.192754606553455
      ],
      [
        "legais",
        -10.194621010236396
      ],
      [
        "ĠOli",
        -10.194868379419734
      ],
      [
        "amente",
        -10.196400165141526
      ],
      [
        "Ġdisposic",
        -10.196489105253526
      ],
      [
        "Ġinve",
        -10.196577136152907
      ],
      [
        "PSC",
        -10.198238080358786
      ],
      [
        "ĠCentral",
        -10.198407280630034
      ],
      [
        "Ġmedi",
        -10.19845829748821
      ],
      [
        "INA",
        -10.198902960340025
      ],
      [
        "Ġcento",
        -10.199724380064517
      ],
      [
        "apesar",
        -10.200027104222308
      ],
      [
        "Ġcolega",
        -10.20066247967674
      ],
      [
        "metro",
        -10.200846153213234
      ],
      [
        "Ġjogos",
        -10.20139869400606
      ],
      [
        "Ġcomercial",
        -10.201425846443192
      ],
      [
        "Ġamigos",
        -10.20187080605722
      ],
      [
        "Ġanti",
        -10.202356639453672
      ],
      [
        "LIO",
        -10.20245266784452
      ],
      [
        "Ġdecreta",
        -10.20453427374186
      ],
      [
        "brica",
        -10.204829131814709
      ],
      [
        "Ġprovi",
        -10.205408606354474
      ],
      [
        "Ġtribuna",
        -10.20560888936506
      ],
      [
        "ĠJOSE",
        -10.20567475471857
      ],
      [
        "Ġopera",
        -10.206225159736151
      ],
      [
        "ĠPROPOSI",
        -10.206468199305464
      ],
      [
        "Ġsofre",
        -10.20758989989836
      ],
      [
        "uti",
        -10.207593384395985
      ],
      [
        "RES",
        -10.207595278601485
      ],
      [
        "Ġpasso",
        -10.207662854048277
      ],
      [
        "ĠPorque",
        -10.208162748547936
      ],
      [
        "Ġmante",
        -10.208582212734278
      ],
      [
        "Apoio",
        -10.2096211298712
      ],
      [
        "Ġrealizar",
        -10.21028690346592
      ],
      [
        "Ġdaquel",
        -10.21058493550738
      ],
      [
        "ano",
        -10.210959880765234
      ],
      [
        "ĠPlano",
        -10.211188248907966
      ],
      [
        "Ġinterna",
        -10.211668527639864
      ],
      [
        "Ġpermitir",
        -10.21219258575588
      ],
      [
        "Ġregio",
        -10.212508365094829
      ],
      [
        "Ġlegi",
        -10.212581305704456
      ],
      [
        "utilizac",
        -10.212898477872033
      ],
      [
        "ĠSouza",
        -10.213085722523983
      ],
      [
        "sal",
        -10.213607230659347
      ],
      [
        "CIO",
        -10.214491520944303
      ],
      [
        "Ġdever",
        -10.214513147740606
      ],
      [
        "ĠCelso",
        -10.214580083232528
      ],
      [
        "Ġperto",
        -10.2149188689636
      ],
      [
        "Ġdocumentos",
        -10.214990555998314
      ],
      [
        "lizac",
        -10.215588966910495
      ],
      [
        "2018",
        -10.215660719683529
      ],
      [
        "Ġmanifestac",
        -10.215953237927009
      ],
      [
        "Ġfazem",
        -10.216185689035507
      ],
      [
        "Ġsustenta",
        -10.216206837921934
      ],
      [
        "Ġmora",
        -10.216312477918294
      ],
      [
        "Ġperde",
        -10.217010030075544
      ],
      [
        "Ġtri",
        -10.217291167061845
      ],
      [
        "Ġvive",
        -10.21763922366345
      ],
      [
        "Ġmelhores",
        -10.217640188708373
      ],
      [
        "Ġdizendo",
        -10.217756056263436
      ],
      [
        "sicas",
        -10.217775900789016
      ],
      [
        "Ġdistribui",
        -10.218026843534323
      ],
      [
        "Ġdecidi",
        -10.218861707061617
      ],
      [
        "ĠGomes",
        -10.219233116539012
      ],
      [
        "ĠFami",
        -10.22017467053541
      ],
      [
        "ĠOla",
        -10.220240387472256
      ],
      [
        "militares",
        -10.22094830004065
      ],
      [
        "ĠGrosso",
        -10.221482676248565
      ],
      [
        "Ġinterior",
        -10.221987605012512
      ],
      [
        "ĠMunicipal",
        -10.222081847316808
      ],
      [
        "ĠConced",
        -10.22220701467186
      ],
      [
        "riamente",
        -10.223101628727663
      ],
      [
        "ĠMinistra",
        -10.223206445105486
      ],
      [
        "referido",
        -10.223269702172898
      ],
      [
        "ĠUS",
        -10.223339817090665
      ],
      [
        "mont",
        -10.223348577481032
      ],
      [
        "ĠQual",
        -10.224292001601748
      ],
      [
        "ĠLopes",
        -10.224329217079552
      ],
      [
        "Ġoito",
        -10.224606752626055
      ],
      [
        "ham",
        -10.225509649931892
      ],
      [
        "Ġcapaz",
        -10.225873010930762
      ],
      [
        "CARLOS",
        -10.226423233446098
      ],
      [
        "Ġconclui",
        -10.22647044503289
      ],
      [
        "ĠMilitar",
        -10.2265259916906
      ],
      [
        "Ġdiscutir",
        -10.226610425788058
      ],
      [
        "ģ",
        -10.22671630762388
      ],
      [
        "Ġsete",
        -10.227439076127707
      ],
      [
        "ĠRocha",
        -10.227957949526123
      ],
      [
        "Ġameac",
        -10.229234312166962
      ],
      [
        "hy",
        -10.229354351142533
      ],
      [
        "Ġconsiderada",
        -10.230555100003205
      ],
      [
        "ĠGeral",
        -10.230742316126657
      ],
      [
        "Ġconsidera",
        -10.231308235773204
      ],
      [
        "Ġtroca",
        -10.234302624760362
      ],
      [
        "Pausa",
        -10.235680727424882
      ],
      [
        "plica",
        -10.23726769268885
      ],
      [
        "ĠLista",
        -10.237495965943006
      ],
      [
        "Ġvaria",
        -10.238069210774176
      ],
      [
        "Ġadministrativa",
        -10.23856411747379
      ],
      [
        "cida",
        -10.239330373152566
      ],
      [
        "ĠKo",
        -10.23961355895527
      ],
      [
        "ĠPARA",
        -10.239714304719955
      ],
      [
        "Ġ01",
        -10.239850130090067
      ],
      [
        "Ġcompromisso",
        -10.240523457709516
      ],
      [
        "QUE",
        -10.241023948633597
      ],
      [
        "Ġconversa",
        -10.242079145233571
      ],
      [
        "ĠSol",
        -10.242340851066738
      ],
      [
        "nic",
        -10.242576017589023
      ],
      [
        "GERAL",
        -10.24271725143396
      ],
      [
        "ĠSabe",
        -10.243474034261675
      ],
      [
        "Ġ45",
        -10.243698719039005
      ],
      [
        "SRA",
        -10.244276773828703
      ],
      [
        "Ġlocalizado",
        -10.24519441230994
      ],
      [
        "Ġdiferente",
        -10.24549920609908
      ],
      [
        "ĠRS",
        -10.246078166401754
      ],
      [
        "ĠCatarina",
        -10.246335590746405
      ],
      [
        "Ġacabou",
        -10.246401416007794
      ],
      [
        "ssia",
        -10.246604192611748
      ],
      [
        "Ġavaliac",
        -10.246698468307102
      ],
      [
        "MG",
        -10.247392893542184
      ],
      [
        "Ġ1991",
        -10.248694550845244
      ],
      [
        "Ġjovem",
        -10.24870698352663
      ],
      [
        "Ġentrega",
        -10.24875939994978
      ],
      [
        "Ġrelativa",
        -10.248987517214154
      ],
      [
        "ĠReco",
        -10.249431519663604
      ],
      [
        "Ġseguir",
        -10.24950121832356
      ],
      [
        "Ġ39",
        -10.249564533683202
      ],
      [
        "indicac",
        -10.249973744305848
      ],
      [
        "Ġ52",
        -10.250022709105822
      ],
      [
        "exclusividade",
        -10.25002920327469
      ],
      [
        "exposto",
        -10.250688240192822
      ],
      [
        "ĠPubli",
        -10.251066248077995
      ],
      [
        "ĠVeja",
        -10.251510934437064
      ],
      [
        "Ġ34",
        -10.251800496032397
      ],
      [
        "nus",
        -10.252224371522868
      ],
      [
        "Ġcompetic",
        -10.252256536619605
      ],
      [
        "Ġconseguiu",
        -10.252654556696443
      ],
      [
        "Ġtentar",
        -10.25352212040734
      ],
      [
        "Ġquarto",
        -10.253718428521054
      ],
      [
        "Estamos",
        -10.253952980344083
      ],
      [
        "Ġconfi",
        -10.253994015171362
      ],
      [
        "dicos",
        -10.255378432104983
      ],
      [
        "ĠOr",
        -10.2562330322555
      ],
      [
        "Apesar",
        -10.256904607824875
      ],
      [
        "Ġpreve",
        -10.2579335098745
      ],
      [
        "Ġinvestimento",
        -10.258046844212098
      ],
      [
        "Â",
        -10.258992682422528
      ],
      [
        "ncer",
        -10.25938592712948
      ],
      [
        "NR",
        -10.259671788206443
      ],
      [
        "americana",
        -10.259901395752834
      ],
      [
        "CONSTITUIC",
        -10.260079700166536
      ],
      [
        "ĠProfessor",
        -10.260139489455282
      ],
      [
        "Ġcompleta",
        -10.260322068513211
      ],
      [
        "Ġescolas",
        -10.260783668992506
      ],
      [
        "ĠLUIZ",
        -10.261511787259083
      ],
      [
        "ĠJudicia",
        -10.261659284470168
      ],
      [
        "estabelecimento",
        -10.262127268664008
      ],
      [
        "Ġhonra",
        -10.262597966268778
      ],
      [
        "Ġcac",
        -10.263112116625011
      ],
      [
        "Ġfinanciamento",
        -10.263350965572272
      ],
      [
        "Ġimprensa",
        -10.26352589659632
      ],
      [
        "ĠCidade",
        -10.263652894935388
      ],
      [
        "Ġquantidade",
        -10.26369187714279
      ],
      [
        "Ġfundamento",
        -10.264318297010224
      ],
      [
        "Ġprocedimento",
        -10.264906435975115
      ],
      [
        "ĠCre",
        -10.26503707019641
      ],
      [
        "Ġpensa",
        -10.26551072742732
      ],
      [
        "Ġagr",
        -10.265910944393848
      ],
      [
        "Ġconce",
        -10.26606214272988
      ],
      [
        "ĠUni",
        -10.266583469420905
      ],
      [
        "Maranha",
        -10.266644675039617
      ],
      [
        "ontem",
        -10.267007634807095
      ],
      [
        "]",
        -10.267070126662436
      ],
      [
        "Ġexe",
        -10.267191937699648
      ],
      [
        "Ġ1995",
        -10.26758517270198
      ],
      [
        "Ġrenova",
        -10.267636526645523
      ],
      [
        "ĠLui",
        -10.267678699352686
      ],
      [
        "ginas",
        -10.268017344124612
      ],
      [
        "Ġinfra",
        -10.268910970973163
      ],
      [
        "Ġquarta",
        -10.26891482339112
      ],
      [
        "deira",
        -10.269133921787802
      ],
      [
        "Ł",
        -10.26940413763328
      ],
      [
        "Ġfr",
        -10.26951023957259
      ],
      [
        "Ġpagar",
        -10.269888365914682
      ],
      [
        "ĠDis",
        -10.271889245113464
      ],
      [
        "ĠFica",
        -10.272196563040358
      ],
      [
        "nato",
        -10.272271065328448
      ],
      [
        "Ġestudos",
        -10.272731943095486
      ],
      [
        "ĠMO",
        -10.27329251972819
      ],
      [
        "burg",
        -10.274326770161002
      ],
      [
        "Ġdela",
        -10.275566985007435
      ],
      [
        "ĠAlmeida",
        -10.27656708137798
      ],
      [
        "ĠSenhora",
        -10.276569687296394
      ],
      [
        "Ġestrate",
        -10.276744759446885
      ],
      [
        "falando",
        -10.2770461772065
      ],
      [
        "Ġlocalizada",
        -10.277298466410338
      ],
      [
        "Ġ90",
        -10.277697592273777
      ],
      [
        "voca",
        -10.27906190441698
      ],
      [
        "Ġassumi",
        -10.279086410856872
      ],
      [
        "ĠQUE",
        -10.280535846434915
      ],
      [
        "rita",
        -10.280674946919635
      ],
      [
        "Ġcomigo",
        -10.281218080501564
      ],
      [
        "ĠUSP",
        -10.281996710276369
      ],
      [
        "ĠParlamentare",
        -10.282864733055336
      ],
      [
        "Ġexatamente",
        -10.283078203117082
      ],
      [
        "Ġ48",
        -10.283179299103768
      ],
      [
        "Ġinicial",
        -10.28469763982887
      ],
      [
        "ĠReal",
        -10.28496172613585
      ],
      [
        "ĠToda",
        -10.285210928379858
      ],
      [
        "Ġcomissa",
        -10.286036222956987
      ],
      [
        "deres",
        -10.286044575456383
      ],
      [
        "ĠRodrigues",
        -10.286214487353632
      ],
      [
        "Ġ58",
        -10.286639205854922
      ],
      [
        "Lideran",
        -10.286671611348194
      ],
      [
        "Ġganha",
        -10.287066258245
      ],
      [
        "Ġunidades",
        -10.287855695317743
      ],
      [
        "frica",
        -10.288495921162983
      ],
      [
        "Ġrodovia",
        -10.2898208623157
      ],
      [
        "ĠGrupo",
        -10.29011785513444
      ],
      [
        "ima",
        -10.2909070233967
      ],
      [
        "atriz",
        -10.291617574591298
      ],
      [
        "Ġfinanceiro",
        -10.293080309640652
      ],
      [
        "ħ",
        -10.293338950596054
      ],
      [
        "Ġlicenc",
        -10.293343768875095
      ],
      [
        "ĠMG",
        -10.29361279416342
      ],
      [
        "Ġposto",
        -10.29372564203998
      ],
      [
        "ĠCarvalho",
        -10.29432105193499
      ],
      [
        "diretamente",
        -10.295234836476313
      ],
      [
        "ku",
        -10.295410818318883
      ],
      [
        "corrupc",
        -10.29594597745854
      ],
      [
        "Ġhaja",
        -10.296557587401272
      ],
      [
        "Ġjulgado",
        -10.296829151107715
      ],
      [
        "Ġouvi",
        -10.2979101658784
      ],
      [
        "Ġrua",
        -10.29841557891132
      ],
      [
        "pica",
        -10.298416057765486
      ],
      [
        "ambos",
        -10.298561372805732
      ],
      [
        "permissa",
        -10.299234577521778
      ],
      [
        "ĠOnde",
        -10.29984274425934
      ],
      [
        "Ġbanco",
        -10.300598734499646
      ],
      [
        "Na",
        -10.300990324352332
      ],
      [
        "rez",
        -10.30105431324853
      ],
      [
        "bairro",
        -10.301129698916869
      ],
      [
        "Ġ119",
        -10.301571572235307
      ],
      [
        "ĠPrevide",
        -10.302425223596632
      ],
      [
        "ĠQui",
        -10.303896911955125
      ],
      [
        "Ġefetiva",
        -10.304661028756472
      ],
      [
        "PL",
        -10.30474939221116
      ],
      [
        "ĠMinha",
        -10.305112154567626
      ],
      [
        "chefe",
        -10.305460644226388
      ],
      [
        "Ġsubstitui",
        -10.305993450181274
      ],
      [
        "ĠGoia",
        -10.307372942563775
      ],
      [
        "Ġencontro",
        -10.307407116658236
      ],
      [
        "ĠSenhore",
        -10.3074826954021
      ],
      [
        "Ġmundial",
        -10.308118405298076
      ],
      [
        "Ġresultados",
        -10.308133035840626
      ],
      [
        "atribuic",
        -10.308621002164443
      ],
      [
        "ĠDaniel",
        -10.30953846055536
      ],
      [
        "rejeic",
        -10.311120584988377
      ],
      [
        "Ġorientac",
        -10.311301374280676
      ],
      [
        "ÌĦ",
        -10.311928784606645
      ],
      [
        "Ġgosta",
        -10.31261616873784
      ],
      [
        "ĠTemo",
        -10.312641614445784
      ],
      [
        "onde",
        -10.312756415430115
      ],
      [
        "ĠPI",
        -10.312785413977243
      ],
      [
        "ĠLEGISLATIV",
        -10.312827673782731
      ],
      [
        "Ġaberto",
        -10.313341382979146
      ],
      [
        "Ġestadual",
        -10.313543426559132
      ],
      [
        "ĠChi",
        -10.313561616928054
      ],
      [
        "nis",
        -10.31372871327719
      ],
      [
        "ĠGal",
        -10.31410214832086
      ],
      [
        "ĠRegia",
        -10.31412221678082
      ],
      [
        "Ġamericano",
        -10.314794590714024
      ],
      [
        "ĠRelac",
        -10.315712001752958
      ],
      [
        "Ġacontece",
        -10.316079878191838
      ],
      [
        "tenc",
        -10.316584430428527
      ],
      [
        "Ġestabelecer",
        -10.31694872098195
      ],
      [
        "ĠReino",
        -10.317847762342254
      ],
      [
        "licitac",
        -10.318280736178997
      ],
      [
        "Ġvivo",
        -10.318450535385988
      ],
      [
        "Ġpaga",
        -10.32046503547416
      ],
      [
        "ĠMon",
        -10.32060745916296
      ],
      [
        "org",
        -10.321272698413996
      ],
      [
        "Li",
        -10.321807588160906
      ],
      [
        "tiveram",
        -10.322080382962362
      ],
      [
        "Ġfigura",
        -10.323312649675344
      ],
      [
        "Ġdeficie",
        -10.3233202482972
      ],
      [
        "vemos",
        -10.32347962460184
      ],
      [
        "ĠNordeste",
        -10.324037243360545
      ],
      [
        "Seguranc",
        -10.324563997343642
      ],
      [
        "ĠLU",
        -10.3258649175748
      ],
      [
        "ĠART",
        -10.326167976796672
      ],
      [
        "criada",
        -10.326359860102208
      ],
      [
        "Talvez",
        -10.326728370079609
      ],
      [
        "Ġcorre",
        -10.32679807885779
      ],
      [
        "Ġdocumento",
        -10.327585369904188
      ],
      [
        "impacto",
        -10.32802267593465
      ],
      [
        "ĠEstadual",
        -10.328425111326698
      ],
      [
        "Ġpior",
        -10.328505829278916
      ],
      [
        "ĠAugusto",
        -10.328962649413691
      ],
      [
        "Ġmerece",
        -10.329102781144233
      ],
      [
        "atualmente",
        -10.3293221391066
      ],
      [
        "Figueiredo",
        -10.329763898047911
      ],
      [
        "DF",
        -10.330162312970543
      ],
      [
        "eiros",
        -10.330409802553826
      ],
      [
        "ĠSuper",
        -10.33051392041345
      ],
      [
        "Ġ(...)",
        -10.330716639275078
      ],
      [
        "Ġindependente",
        -10.33112866370632
      ],
      [
        "ĠDECRET",
        -10.331707976037656
      ],
      [
        "ĠSer",
        -10.331790059030508
      ],
      [
        "ĠPelo",
        -10.332167126079936
      ],
      [
        "Ġcomenta",
        -10.332319708224343
      ],
      [
        "Ġevitar",
        -10.332432833089992
      ],
      [
        "ĠNelson",
        -10.3329261691521
      ],
      [
        "bora",
        -10.333204977054873
      ],
      [
        "Ġgrau",
        -10.333232052108588
      ],
      [
        "ĠFlo",
        -10.334033543281812
      ],
      [
        "Teixeira",
        -10.335095402355073
      ],
      [
        "Ġprocura",
        -10.336855211814145
      ],
      [
        "nci",
        -10.336959772363931
      ],
      [
        "Ġcolo",
        -10.337932828556944
      ],
      [
        "ĠFazenda",
        -10.338474309037538
      ],
      [
        "all",
        -10.338613850142815
      ],
      [
        "cies",
        -10.339525570022593
      ],
      [
        "cito",
        -10.339921532924729
      ],
      [
        "Ġpublicada",
        -10.339997383457028
      ],
      [
        "lias",
        -10.34117096483649
      ],
      [
        "Discussa",
        -10.341316598339787
      ],
      [
        "Ġshow",
        -10.341696134370354
      ],
      [
        "Ġjudicial",
        -10.34228388262293
      ],
      [
        "Ġcentral",
        -10.342723434665992
      ],
      [
        "somos",
        -10.34323999112632
      ],
      [
        "Ġimpe",
        -10.3441383570579
      ],
      [
        "ĠSin",
        -10.344883527322464
      ],
      [
        "dar",
        -10.346613485541775
      ],
      [
        "Ġconhece",
        -10.346770439369328
      ],
      [
        "Ġ49",
        -10.34689388371317
      ],
      [
        "Ġfui",
        -10.347091300880962
      ],
      [
        "ĠDesde",
        -10.3473090385007
      ],
      [
        "ĠNew",
        -10.34745450023276
      ],
      [
        "ĠChina",
        -10.34837265477804
      ],
      [
        "Pro",
        -10.349933279816014
      ],
      [
        "Ġpetro",
        -10.349938423050268
      ],
      [
        "Ġimo",
        -10.35006685952236
      ],
      [
        "Ġanimais",
        -10.350670008328835
      ],
      [
        "ĠFutebol",
        -10.350965612732375
      ],
      [
        "ciais",
        -10.352658564536116
      ],
      [
        "levou",
        -10.353525552701464
      ],
      [
        "Ġabaixo",
        -10.354071380243274
      ],
      [
        "oeste",
        -10.354759754506004
      ],
      [
        "Ġempre",
        -10.354939980678251
      ],
      [
        "Ġestilo",
        -10.35521745962429
      ],
      [
        "Ġmudar",
        -10.355632571846185
      ],
      [
        "Ġjurisprude",
        -10.35573981094427
      ],
      [
        "federai",
        -10.35575819194555
      ],
      [
        "Ġcompro",
        -10.355775558779774
      ],
      [
        "ĠEspi",
        -10.35592570472012
      ],
      [
        "Ġdisponi",
        -10.355965247077682
      ],
      [
        "licitante",
        -10.356636468337571
      ],
      [
        "Ġtraz",
        -10.359110490784529
      ],
      [
        "nsul",
        -10.360056707928557
      ],
      [
        "pec",
        -10.360441704945917
      ],
      [
        "PI",
        -10.361063262305413
      ],
      [
        "ĠNossa",
        -10.36111249773419
      ],
      [
        "EM",
        -10.361756056563095
      ],
      [
        "riz",
        -10.362759349964628
      ],
      [
        "medidas",
        -10.364034710011788
      ],
      [
        "ĠAure",
        -10.364071559596972
      ],
      [
        "ĠAlberto",
        -10.364261772170709
      ],
      [
        "xico",
        -10.364294655999432
      ],
      [
        "Ġmanha",
        -10.36458575260399
      ],
      [
        "Ġentrevista",
        -10.364828423061835
      ],
      [
        "mil",
        -10.365186227293105
      ],
      [
        "ney",
        -10.365195633329993
      ],
      [
        "Ġadvogado",
        -10.365249753939915
      ],
      [
        "Ġpretende",
        -10.366611303744223
      ],
      [
        "Ġterc",
        -10.366943218633596
      ],
      [
        "ĠAh",
        -10.367079690162628
      ],
      [
        "ricos",
        -10.36746195531144
      ],
      [
        "ĠMundo",
        -10.369215119920364
      ],
      [
        "ĠAlemanha",
        -10.369531220077617
      ],
      [
        "Ġilha",
        -10.370562776454086
      ],
      [
        "Ġ1988",
        -10.371086776634172
      ],
      [
        "usada",
        -10.371656099463165
      ],
      [
        "Ġacidente",
        -10.373017167037077
      ],
      [
        "Con",
        -10.373819779868873
      ],
      [
        "ĠRequer",
        -10.374048909768902
      ],
      [
        "ĠSerra",
        -10.374306721795074
      ],
      [
        "ric",
        -10.37448622863393
      ],
      [
        "Ġvice",
        -10.37451665095606
      ],
      [
        "ky",
        -10.374736238839157
      ],
      [
        "Ġatender",
        -10.374755366605337
      ],
      [
        "Ġquilo",
        -10.375891077780729
      ],
      [
        "nicos",
        -10.3760737332405
      ],
      [
        "Ġdemocracia",
        -10.37609374437026
      ],
      [
        "ĠBal",
        -10.377239543877774
      ],
      [
        "ĠRede",
        -10.377473156460448
      ],
      [
        "uplente",
        -10.377758690348797
      ],
      [
        "ĠRodrigo",
        -10.37789563742522
      ],
      [
        "Ġconseguir",
        -10.377994567773392
      ],
      [
        "Ġoferece",
        -10.37800110046669
      ],
      [
        "usp",
        -10.378141068665787
      ],
      [
        "alunos",
        -10.378322546586263
      ],
      [
        "Ġdistrito",
        -10.378401178231016
      ],
      [
        "ĠGil",
        -10.37852391771875
      ],
      [
        "Ġrural",
        -10.37929642034889
      ],
      [
        "Ġexplorar",
        -10.379470348190388
      ],
      [
        "Ġespera",
        -10.37973600602815
      ],
      [
        "requisitos",
        -10.37976598496097
      ],
      [
        "EUA",
        -10.380016930011235
      ],
      [
        "ĠWal",
        -10.38040246001768
      ],
      [
        "Ġfesta",
        -10.38050671775435
      ],
      [
        "PSL",
        -10.380520967985769
      ],
      [
        "ĠForc",
        -10.380533368914088
      ],
      [
        "BE",
        -10.381416361795257
      ],
      [
        "ĠFundac",
        -10.381468262781164
      ],
      [
        "ĠBoa",
        -10.381558543482164
      ],
      [
        "ĠJesus",
        -10.381779782012517
      ],
      [
        "Ġguarda",
        -10.38191121573391
      ],
      [
        "ĠMichel",
        -10.38204048543124
      ],
      [
        "ĠDepu",
        -10.38240715823321
      ],
      [
        "tomada",
        -10.382438132967613
      ],
      [
        "Ġmemo",
        -10.382732202747656
      ],
      [
        "Ġtrabalha",
        -10.383343213037191
      ],
      [
        "virtude",
        -10.383504227976982
      ],
      [
        "Ġestes",
        -10.383930518092294
      ],
      [
        "Resoluc",
        -10.385148939957851
      ],
      [
        "quia",
        -10.385291342188497
      ],
      [
        "ĠFer",
        -10.3856476566946
      ],
      [
        "Ġjornalista",
        -10.385776006445967
      ],
      [
        "Ġcai",
        -10.385849873177529
      ],
      [
        "ĠFU",
        -10.386133239348242
      ],
      [
        "Ġdeciso",
        -10.386465924757037
      ],
      [
        "preocupac",
        -10.386510953521816
      ],
      [
        "Ġmesa",
        -10.386564598411775
      ],
      [
        "Sessa",
        -10.386928840517442
      ],
      [
        "fronteira",
        -10.387126721398364
      ],
      [
        "ĠAge",
        -10.387424583537744
      ],
      [
        "ĠAlexandre",
        -10.388465363881831
      ],
      [
        "ung",
        -10.38964410644996
      ],
      [
        "Ġimagem",
        -10.389895829414169
      ],
      [
        "ĠLisboa",
        -10.390387289304652
      ],
      [
        "decreto",
        -10.39099889751426
      ],
      [
        "Ġunidade",
        -10.391920138589589
      ],
      [
        "Ġabsoluta",
        -10.392184766184991
      ],
      [
        "ĠArthur",
        -10.39227686983142
      ],
      [
        "pico",
        -10.392383654233354
      ],
      [
        "ĠPp",
        -10.39306014647099
      ],
      [
        "Ġpalavras",
        -10.393670069101386
      ],
      [
        "efeitos",
        -10.393741893571718
      ],
      [
        "apresentou",
        -10.394134686635963
      ],
      [
        "Ġconcurso",
        -10.394348431580884
      ],
      [
        "Ġzona",
        -10.39530133649193
      ],
      [
        "imagens",
        -10.395317104353486
      ],
      [
        "nunciou",
        -10.395509829505343
      ],
      [
        "privado",
        -10.397399017088922
      ],
      [
        "ĠVai",
        -10.397562987215718
      ],
      [
        "ngue",
        -10.397935578015584
      ],
      [
        "nacionais",
        -10.398146112769297
      ],
      [
        "Departamento",
        -10.398621085582702
      ],
      [
        "ĠZa",
        -10.398797302821944
      ],
      [
        "Ġpedir",
        -10.399382135001078
      ],
      [
        "lizado",
        -10.399588982620998
      ],
      [
        "Ġatribui",
        -10.400353215851144
      ],
      [
        "ĠCeara",
        -10.400369264428928
      ],
      [
        "possam",
        -10.40086766511278
      ],
      [
        "tivas",
        -10.400904092840332
      ],
      [
        "Ġdista",
        -10.400915248152808
      ],
      [
        "grafia",
        -10.400919913463564
      ],
      [
        "Ġdireto",
        -10.401300374870734
      ],
      [
        "Ġatende",
        -10.401718455204351
      ],
      [
        "Ġjui",
        -10.401946544156244
      ],
      [
        "Ġpromover",
        -10.402283798998234
      ],
      [
        "trecho",
        -10.402308847836355
      ],
      [
        "ĠSera",
        -10.402368019075356
      ],
      [
        "Ġface",
        -10.403230578837883
      ],
      [
        "Ġurge",
        -10.403357514199508
      ],
      [
        "Ġopinia",
        -10.404471973945874
      ],
      [
        "ĠLegislativa",
        -10.404612299996472
      ],
      [
        "Ġmetros",
        -10.404656694431123
      ],
      [
        "PSB",
        -10.404798415167177
      ],
      [
        "velmente",
        -10.405197304613818
      ],
      [
        "ĠMen",
        -10.40549109506496
      ],
      [
        "Ġsecreta",
        -10.405519967932968
      ],
      [
        "ĠMarcos",
        -10.40619149797795
      ],
      [
        "Ġacu",
        -10.406368235100688
      ],
      [
        "Ġretorno",
        -10.408136378220368
      ],
      [
        "ĠSobre",
        -10.408248681557932
      ],
      [
        "Ġigreja",
        -10.408616030258916
      ],
      [
        "Ġselec",
        -10.409521597691583
      ],
      [
        "Ġqui",
        -10.40953056429881
      ],
      [
        "Geraldo",
        -10.409611764288194
      ],
      [
        "Proposic",
        -10.40971301674799
      ],
      [
        "Ġconceito",
        -10.409760354930569
      ],
      [
        "Ġrecu",
        -10.409828305345892
      ],
      [
        "Ġetc",
        -10.410265949977097
      ],
      [
        "ĠDESPACH",
        -10.41028055446675
      ],
      [
        "existente",
        -10.41069235144368
      ],
      [
        "Ġobrigato",
        -10.410743203805378
      ],
      [
        "Ġjustic",
        -10.412182533213882
      ],
      [
        "Ġentender",
        -10.412461235860317
      ],
      [
        "ĠGar",
        -10.413539643157463
      ],
      [
        "ZA",
        -10.414633427164496
      ],
      [
        "Ġseguro",
        -10.41478607990098
      ],
      [
        "Ġ59",
        -10.41482357496314
      ],
      [
        "ĠAcre",
        -10.4159569475965
      ],
      [
        "Ġprovoc",
        -10.415981959443624
      ],
      [
        "·",
        -10.41830450605244
      ],
      [
        "ĠQuer",
        -10.418436440269184
      ],
      [
        "Ï",
        -10.419019610681092
      ],
      [
        "Ġconsegue",
        -10.419645630691925
      ],
      [
        "Ġ47",
        -10.4200221768436
      ],
      [
        "PDT",
        -10.420684525483177
      ],
      [
        "versa",
        -10.421174003952675
      ],
      [
        "Ġdemonstra",
        -10.421369954316978
      ],
      [
        "Ġreside",
        -10.421896791803483
      ],
      [
        "ĠVista",
        -10.421943740548818
      ],
      [
        "constitucionai",
        -10.422617102064436
      ],
      [
        "Ġdiminui",
        -10.422696971172044
      ],
      [
        "Ġamanha",
        -10.42332834058756
      ],
      [
        "elli",
        -10.423485826466042
      ],
      [
        "Ġtenta",
        -10.423640233921509
      ],
      [
        "ĠParis",
        -10.423847122577374
      ],
      [
        "ĠAto",
        -10.425074305994112
      ],
      [
        "Ġ[",
        -10.425972725866178
      ],
      [
        "Ġconsiderac",
        -10.426668921467874
      ],
      [
        "www",
        -10.426786670107177
      ],
      [
        "Ġfeliz",
        -10.42679741916762
      ],
      [
        "juros",
        -10.428549501748185
      ],
      [
        "ĠOUTR",
        -10.429073747571412
      ],
      [
        "ligac",
        -10.429322732556283
      ],
      [
        "Ġ64",
        -10.42964206584568
      ],
      [
        "Ġdetermina",
        -10.429987175937772
      ],
      [
        "substitutivo",
        -10.43025574810365
      ],
      [
        "ĠQuanto",
        -10.430884790749683
      ],
      [
        "ED",
        -10.431870113285765
      ],
      [
        "ĠAltera",
        -10.432725721561315
      ],
      [
        "Ġambiental",
        -10.432776536914083
      ],
      [
        "Ġfiz",
        -10.433065033205324
      ],
      [
        "Ġ02",
        -10.433250474169093
      ],
      [
        "Moreira",
        -10.433583330495946
      ],
      [
        "Ġquebra",
        -10.43403763343122
      ],
      [
        "referida",
        -10.434274001725408
      ],
      [
        "Ġrece",
        -10.436265187836426
      ],
      [
        "bia",
        -10.436533376104888
      ],
      [
        "Ġouvir",
        -10.436582494528343
      ],
      [
        "Ġ43",
        -10.4369512223261
      ],
      [
        "gou",
        -10.437444893862258
      ],
      [
        "ionais",
        -10.437868519504876
      ],
      [
        "Ġrecente",
        -10.43809864458588
      ],
      [
        "Ġresulta",
        -10.438809184582148
      ],
      [
        "Ġcarga",
        -10.438839973290449
      ],
      [
        "NAL",
        -10.440382775274513
      ],
      [
        "parceria",
        -10.440499390086448
      ],
      [
        "fiscalizac",
        -10.44138673870333
      ],
      [
        "ĠCome",
        -10.442022712854603
      ],
      [
        "Ġbrita",
        -10.444292985771568
      ],
      [
        "bado",
        -10.44444177948879
      ],
      [
        "Ġleitura",
        -10.444471283001675
      ],
      [
        "Ġitem",
        -10.44456308585427
      ],
      [
        "Ġtorno",
        -10.444766870139242
      ],
      [
        "Ġsom",
        -10.445175498319676
      ],
      [
        "Ġ42",
        -10.445230959373678
      ],
      [
        "Ġ57",
        -10.445600423280233
      ],
      [
        "Ġfreque",
        -10.445763719418077
      ],
      [
        "Ġage",
        -10.445823034356156
      ],
      [
        "Ġvontade",
        -10.445996178427237
      ],
      [
        "Proposta",
        -10.446934674258385
      ],
      [
        "apensado",
        -10.447259850041448
      ],
      [
        "Ġtrabalhador",
        -10.447575996412498
      ],
      [
        "Ġ1993",
        -10.448393583259303
      ],
      [
        "ĠAgrav",
        -10.448648707058428
      ],
      [
        "ĠBan",
        -10.449407994028984
      ],
      [
        "mulo",
        -10.450754230853253
      ],
      [
        "MARA",
        -10.451111006493509
      ],
      [
        "Ġatua",
        -10.451198593625014
      ],
      [
        "ĠSI",
        -10.451311582301011
      ],
      [
        "Ġquinta",
        -10.451398218110548
      ],
      [
        "ĠRei",
        -10.45150033876017
      ],
      [
        "Ġdivisa",
        -10.4520767868233
      ],
      [
        "Ġatingi",
        -10.452121941879753
      ],
      [
        "Ġreferente",
        -10.452619620793888
      ],
      [
        "Ġhumana",
        -10.45262796805114
      ],
      [
        "Ġdefende",
        -10.452909273037948
      ],
      [
        "ĠFederac",
        -10.45307957668582
      ],
      [
        "ĠNeste",
        -10.453611291243906
      ],
      [
        "Ġcuidado",
        -10.453855591819316
      ],
      [
        "Ġcontas",
        -10.454032270275984
      ],
      [
        "ĠColo",
        -10.45417803500304
      ],
      [
        "ĠCruz",
        -10.454633624894177
      ],
      [
        "TOR",
        -10.455494937708249
      ],
      [
        "Ġaparece",
        -10.455652922371124
      ],
      [
        "ĠRoge",
        -10.455835666800976
      ],
      [
        "Ġcorpus",
        -10.456445806769834
      ],
      [
        "EIRA",
        -10.456959644224282
      ],
      [
        "Ġamplia",
        -10.457004391258916
      ],
      [
        "Ġarmas",
        -10.457069205872624
      ],
      [
        "Ġjuiz",
        -10.457204581526655
      ],
      [
        "tinho",
        -10.458117273588927
      ],
      [
        "Ġ|",
        -10.458421567954808
      ],
      [
        "Ġdispor",
        -10.458572083510338
      ],
      [
        "gravada",
        -10.459256344484626
      ],
      [
        "Ġconve",
        -10.459664380569274
      ],
      [
        "Ġcur",
        -10.46051971714573
      ],
      [
        "Ġcompanhia",
        -10.461052347749764
      ],
      [
        "Ġvinte",
        -10.46130011835197
      ],
      [
        "Ġjoga",
        -10.462487868541144
      ],
      [
        "contratac",
        -10.462519414513938
      ],
      [
        "Ġ75",
        -10.463042637225794
      ],
      [
        "rida",
        -10.463135595952538
      ],
      [
        "Ġdemocra",
        -10.463351702985353
      ],
      [
        "Ġentende",
        -10.463499003124545
      ],
      [
        "Ġ1994",
        -10.463602698657494
      ],
      [
        "etapa",
        -10.4650305329857
      ],
      [
        "ĠParlamento",
        -10.465898368261673
      ],
      [
        "Ġregistrado",
        -10.466178694832545
      ],
      [
        "Ġfoto",
        -10.466242556761284
      ],
      [
        "consumo",
        -10.466686213327138
      ],
      [
        "ĠVila",
        -10.467958711686194
      ],
      [
        "Ġopc",
        -10.46801009907163
      ],
      [
        "ĠNeto",
        -10.468275519520594
      ],
      [
        "Ġpermanece",
        -10.46934113407643
      ],
      [
        "Ġoferta",
        -10.46960281673571
      ],
      [
        "Ġdaqui",
        -10.469604815704171
      ],
      [
        "Ġjogador",
        -10.46972216325579
      ],
      [
        "Ġgosto",
        -10.46983815863851
      ],
      [
        "Barbosa",
        -10.470418539673624
      ],
      [
        "precisamos",
        -10.470480572851626
      ],
      [
        "ĠImpe",
        -10.4706745453655
      ],
      [
        "Ġeventos",
        -10.471626298895655
      ],
      [
        "ĠAprecia",
        -10.471631640717566
      ],
      [
        "Ġrespectiva",
        -10.47167517708326
      ],
      [
        "extensa",
        -10.472290866171347
      ],
      [
        "Ġcomemora",
        -10.472358072487024
      ],
      [
        "retirada",
        -10.472386750520268
      ],
      [
        "agentes",
        -10.472429255305478
      ],
      [
        "ĠPan",
        -10.474223368581615
      ],
      [
        "Ġderrota",
        -10.474257409708043
      ],
      [
        "2020",
        -10.474659881427169
      ],
      [
        "contexto",
        -10.474803313420828
      ],
      [
        "ĠMeio",
        -10.4751246867729
      ],
      [
        "Ġseque",
        -10.475126136219476
      ],
      [
        "Ġescolha",
        -10.475139710679112
      ],
      [
        "Ġtinham",
        -10.475177831606532
      ],
      [
        "Ġclara",
        -10.475559399034887
      ],
      [
        "ficado",
        -10.476370412703254
      ],
      [
        "ĠAmazonas",
        -10.476486302566096
      ],
      [
        "vista",
        -10.476496685790936
      ],
      [
        "genas",
        -10.47696674101149
      ],
      [
        "Magalha",
        -10.477171281472865
      ],
      [
        "ĠRegional",
        -10.477549465609268
      ],
      [
        "Ġinternacionais",
        -10.477653753022087
      ],
      [
        "Ġvelho",
        -10.478245272172275
      ],
      [
        "Ġsur",
        -10.478743006656996
      ],
      [
        "ĠSec",
        -10.47967878068314
      ],
      [
        "Ġmulti",
        -10.479735760330977
      ],
      [
        "Ġfogo",
        -10.479745966498726
      ],
      [
        "Ġvoz",
        -10.4797609141008
      ],
      [
        "Ġesteja",
        -10.479958163753878
      ],
      [
        "BRA",
        -10.480107829141376
      ],
      [
        "desempenho",
        -10.481090618762606
      ],
      [
        "ĠParai",
        -10.48130520590946
      ],
      [
        "gresso",
        -10.481426263747412
      ],
      [
        "Ġcomando",
        -10.481584517571417
      ],
      [
        "Ī",
        -10.481849348078692
      ],
      [
        "ET",
        -10.482219376834658
      ],
      [
        "Ġesposa",
        -10.482478861033094
      ],
      [
        "http",
        -10.482805906695566
      ],
      [
        "Ġcorac",
        -10.482866147023142
      ],
      [
        "ĠMil",
        -10.4830357064414
      ],
      [
        "Ġeleitoral",
        -10.48334365437588
      ],
      [
        "Ġsexta",
        -10.483347476072032
      ],
      [
        "ĠBor",
        -10.483511035184728
      ],
      [
        "Ġprivada",
        -10.48364714234003
      ],
      [
        "regras",
        -10.48366788408067
      ],
      [
        "Ġposse",
        -10.483713089875437
      ],
      [
        "Ġfrance",
        -10.484141714597904
      ],
      [
        "ĠJapa",
        -10.484359321186815
      ],
      [
        "Ġpatrimo",
        -10.485371922761626
      ],
      [
        "ganhou",
        -10.486381173587551
      ],
      [
        "Ġutilizado",
        -10.4870153262858
      ],
      [
        "ĠNota",
        -10.48724951239842
      ],
      [
        "Ġ51",
        -10.487696377122916
      ],
      [
        "Ġprodutor",
        -10.488447097637216
      ],
      [
        "Ġcorte",
        -10.48961466690332
      ],
      [
        "Ġampla",
        -10.49006501126042
      ],
      [
        "Ġtentativa",
        -10.490778065549192
      ],
      [
        "Ġdecorre",
        -10.492076933172712
      ],
      [
        "reconhecimento",
        -10.49212142048617
      ],
      [
        "rais",
        -10.49276115262885
      ],
      [
        "ĠIsto",
        -10.492809346469029
      ],
      [
        "sobretudo",
        -10.492867630640111
      ],
      [
        "Ġcobra",
        -10.493269192384204
      ],
      [
        "polis",
        -10.493321464605916
      ],
      [
        "Ġmassa",
        -10.493988150520613
      ],
      [
        "ENTE",
        -10.494078508951564
      ],
      [
        "Ġdestaca",
        -10.495720559429756
      ],
      [
        "convidado",
        -10.496915755775882
      ],
      [
        "ĠPRIMEIR",
        -10.497189117247478
      ],
      [
        "ĠPessoa",
        -10.497368969444588
      ],
      [
        "ĠBarros",
        -10.498822670987296
      ],
      [
        "todo",
        -10.499287274874954
      ],
      [
        "habea",
        -10.499590891949614
      ],
      [
        "ocorreu",
        -10.499617489412836
      ],
      [
        "Ġtransfere",
        -10.499620487134068
      ],
      [
        "pula",
        -10.4998813111486
      ],
      [
        "ĠCarreira",
        -10.499935223231558
      ],
      [
        "ĠMARCO",
        -10.500625627640392
      ],
      [
        "Ġexigi",
        -10.50090756132892
      ],
      [
        "ĠClaro",
        -10.502233871985355
      ],
      [
        "Ġconhec",
        -10.50259291739762
      ],
      [
        "ĠJOA",
        -10.502646297702007
      ],
      [
        "Ĵ",
        -10.502754272042887
      ],
      [
        "ĠExterior",
        -10.504077500494304
      ],
      [
        "cadas",
        -10.506441979534689
      ],
      [
        "Jogos",
        -10.506857456181743
      ],
      [
        "Ġapro",
        -10.50701470221546
      ],
      [
        "ĠSte",
        -10.507112471332864
      ],
      [
        "apelo",
        -10.5071740736587
      ],
      [
        "Ġagra",
        -10.507387100668804
      ],
      [
        "¾",
        -10.507742400021764
      ],
      [
        "Ġtive",
        -10.50777979396484
      ],
      [
        "Ġassinatura",
        -10.508199492077331
      ],
      [
        "Ġrelator",
        -10.50858637254635
      ],
      [
        "Ġdomi",
        -10.508728757162054
      ],
      [
        "lite",
        -10.50875316562546
      ],
      [
        "berg",
        -10.509189038670993
      ],
      [
        "Ġquiser",
        -10.509921728415389
      ],
      [
        "ĠCPI",
        -10.510009726466356
      ],
      [
        "ĠNac",
        -10.510312352227963
      ],
      [
        "ĠFolha",
        -10.51041055626892
      ],
      [
        "Ġ62",
        -10.510712019980016
      ],
      [
        "Ġviu",
        -10.510942812053372
      ],
      [
        "ĠFerreira",
        -10.511448433907857
      ],
      [
        "aqueles",
        -10.51154628838154
      ],
      [
        "Vi",
        -10.511585731008308
      ],
      [
        "bus",
        -10.512394084523288
      ],
      [
        "ĠClube",
        -10.512917673487486
      ],
      [
        "Ġexposic",
        -10.51295035818702
      ],
      [
        "Enquanto",
        -10.513165031289232
      ],
      [
        "Ġexterior",
        -10.513167648341932
      ],
      [
        "Ġofi",
        -10.513449841446343
      ],
      [
        "ĠConstitucional",
        -10.513678797961342
      ],
      [
        "Ġcursos",
        -10.514213842967608
      ],
      [
        "Ġexplorac",
        -10.514461426207
      ],
      [
        "gicos",
        -10.515141206038107
      ],
      [
        "Ġincide",
        -10.515311529234946
      ],
      [
        "metade",
        -10.51532355128453
      ],
      [
        "Ġcontato",
        -10.515530723521469
      ],
      [
        "havend",
        -10.515950188316388
      ],
      [
        "IDA",
        -10.51664692888891
      ],
      [
        "Ĩ",
        -10.516721077223927
      ],
      [
        "Ġtende",
        -10.516839043454356
      ],
      [
        "nicas",
        -10.517493571629236
      ],
      [
        "Ġcultural",
        -10.51784919651071
      ],
      [
        "ĠNada",
        -10.520816588153869
      ],
      [
        "ĠKe",
        -10.52119936175488
      ],
      [
        "ĠVito",
        -10.521378068279605
      ],
      [
        "Ġvencedor",
        -10.521435471178082
      ],
      [
        "ica",
        -10.521480263945948
      ],
      [
        "Ġlivros",
        -10.522032909444428
      ],
      [
        "Ġ1992",
        -10.522236455978488
      ],
      [
        "conclusa",
        -10.52268348126487
      ],
      [
        "Ġprima",
        -10.522979336249454
      ],
      [
        "ĠVirgi",
        -10.522979476274
      ],
      [
        "mbia",
        -10.523015593180515
      ],
      [
        "Ġterceira",
        -10.523488845390474
      ],
      [
        "Ġmorto",
        -10.52351809465412
      ],
      [
        "ĠGer",
        -10.524201350912726
      ],
      [
        "Ġbebe",
        -10.524534037761118
      ],
      [
        "ĠDra",
        -10.52497480129419
      ],
      [
        "PB",
        -10.525573465485731
      ],
      [
        "ESTADO",
        -10.525812997525623
      ],
      [
        "Ġesco",
        -10.526321619160976
      ],
      [
        "ĠMello",
        -10.526558552893466
      ],
      [
        "Ġconseque",
        -10.527533542941836
      ],
      [
        "finalidade",
        -10.527880959007796
      ],
      [
        "Ġdiploma",
        -10.527987178369942
      ],
      [
        "Ġauxi",
        -10.528904612730136
      ],
      [
        "Ġqua",
        -10.528920809011806
      ],
      [
        "ĠEspanha",
        -10.528922991141902
      ],
      [
        "ĠExe",
        -10.529275157511266
      ],
      [
        "Ġinteiro",
        -10.529379278271511
      ],
      [
        "iana",
        -10.52954721243847
      ],
      [
        "Ġpersonagem",
        -10.52960757362059
      ],
      [
        "funcionamento",
        -10.529723232611648
      ],
      [
        "Ġsabia",
        -10.5297640337412
      ],
      [
        "Ġsauda",
        -10.53023608306748
      ],
      [
        "Outra",
        -10.53024237823072
      ],
      [
        "ĠFre",
        -10.531021674527777
      ],
      [
        "Ġmorreu",
        -10.531237285655012
      ],
      [
        "Ġveja",
        -10.531340037610413
      ],
      [
        "Ġproduzir",
        -10.531689785708204
      ],
      [
        "ĠBru",
        -10.532864051855816
      ],
      [
        "Ġservi",
        -10.53331154150418
      ],
      [
        "udio",
        -10.53345404870946
      ],
      [
        "Ġprefeito",
        -10.533964676355946
      ],
      [
        "ADA",
        -10.53407533519746
      ],
      [
        "Embora",
        -10.534921026291215
      ],
      [
        "mantid",
        -10.535832002408656
      ],
      [
        "ĠEdita",
        -10.535928999410803
      ],
      [
        "Ġcampea",
        -10.53635156513171
      ],
      [
        "duto",
        -10.536542614840156
      ],
      [
        "Ġcima",
        -10.53666444982369
      ],
      [
        "americano",
        -10.537358771452464
      ],
      [
        "Ġdanc",
        -10.537857195275048
      ],
      [
        "Ġpermanente",
        -10.537888374728542
      ],
      [
        "trinta",
        -10.53792258441306
      ],
      [
        "policiais",
        -10.53798875695458
      ],
      [
        "Ġinc",
        -10.54012374601145
      ],
      [
        "micas",
        -10.540252401375144
      ],
      [
        "Ġinu",
        -10.540691805944885
      ],
      [
        "sicos",
        -10.540876046465955
      ],
      [
        "ĠAP",
        -10.541293937121171
      ],
      [
        "Ġadministrativo",
        -10.54160670210078
      ],
      [
        "Ġmedo",
        -10.542623726402454
      ],
      [
        "suspensa",
        -10.54262834979018
      ],
      [
        "Ġcrista",
        -10.54269466849075
      ],
      [
        "Ġdeterminado",
        -10.5428839729732
      ],
      [
        "Ġsemelhante",
        -10.54339976647988
      ],
      [
        "Ġadolescente",
        -10.543464965105793
      ],
      [
        "ĠYork",
        -10.543518715993248
      ],
      [
        "Ġcoloca",
        -10.543690604713955
      ],
      [
        "ĠMartins",
        -10.54381261529754
      ],
      [
        "Ġinicia",
        -10.543825447710812
      ],
      [
        "ĠMelhor",
        -10.54419841879414
      ],
      [
        "Ġfrequ",
        -10.544216263140685
      ],
      [
        "Ġfloresta",
        -10.544299824636353
      ],
      [
        "Ġperder",
        -10.54458268975847
      ],
      [
        "Ġanual",
        -10.54491419399286
      ],
      [
        "Assunto",
        -10.545464312764736
      ],
      [
        "ĠMuseu",
        -10.54554246894644
      ],
      [
        "geralmente",
        -10.545681717508549
      ],
      [
        "Ġrever",
        -10.54580543522824
      ],
      [
        "Ġintenc",
        -10.545893322112695
      ],
      [
        "ĠVida",
        -10.546360346479291
      ],
      [
        "Ġgera",
        -10.546480919225722
      ],
      [
        "ĠPala",
        -10.547186757392044
      ],
      [
        "posic",
        -10.547195621038025
      ],
      [
        "Sarney",
        -10.547585136290754
      ],
      [
        "Couto",
        -10.5491750116988
      ],
      [
        "fizeram",
        -10.5492635415484
      ],
      [
        "Ġaquilo",
        -10.549436369987562
      ],
      [
        "ĠParte",
        -10.54945278115519
      ],
      [
        "Bibliografia",
        -10.550238088589378
      ],
      [
        "Ġcircunsta",
        -10.550872694380253
      ],
      [
        "Ġ46",
        -10.550952967339391
      ],
      [
        "Ġmilha",
        -10.551062539814437
      ],
      [
        "negociac",
        -10.551261152953993
      ],
      [
        "ĠConstitui",
        -10.552446842532904
      ],
      [
        "Pernambuco",
        -10.55262319080063
      ],
      [
        "Ġprofessores",
        -10.552630902131868
      ],
      [
        "Ġpensar",
        -10.5526723359355
      ],
      [
        "Ġpressa",
        -10.553010376191656
      ],
      [
        "equipamentos",
        -10.55310172403896
      ],
      [
        "Ġconflito",
        -10.55474798918785
      ],
      [
        "Ġpaz",
        -10.555017767196563
      ],
      [
        "Ġconsumidor",
        -10.555052311642411
      ],
      [
        "Ġcorrente",
        -10.5554513058052
      ],
      [
        "Ġ1913",
        -10.55589558428576
      ],
      [
        "Ġaceita",
        -10.556216814078986
      ],
      [
        "pra",
        -10.55647766798426
      ],
      [
        "Ġenorme",
        -10.557149999114264
      ],
      [
        "Ħ",
        -10.557201432840836
      ],
      [
        "2002",
        -10.55754875130411
      ],
      [
        "Ġlonga",
        -10.557654805051792
      ],
      [
        "ĠAgricultura",
        -10.557677188786432
      ],
      [
        "Ġobserva",
        -10.558082397212257
      ],
      [
        "estudantes",
        -10.558434474155916
      ],
      [
        "Ġregistrar",
        -10.558598738227982
      ],
      [
        "terminou",
        -10.55916343894363
      ],
      [
        "Ġfamiliar",
        -10.559332612953533
      ],
      [
        "ĠIN",
        -10.559621060299316
      ],
      [
        "elementos",
        -10.559668081253946
      ],
      [
        "ĠFac",
        -10.559671618632256
      ],
      [
        "ĠPiaui",
        -10.560347792727017
      ],
      [
        "quina",
        -10.560959797537537
      ],
      [
        "MP",
        -10.56109002485016
      ],
      [
        ".............",
        -10.561299091926928
      ],
      [
        "Ġ200",
        -10.561383183003857
      ],
      [
        "requer",
        -10.561461438290186
      ],
      [
        "Ġparcela",
        -10.561471999696188
      ],
      [
        "Vieira",
        -10.562288673290167
      ],
      [
        "ĠTro",
        -10.562460733439895
      ],
      [
        "ĠMonte",
        -10.562690695097182
      ],
      [
        "ĠReuni",
        -10.562694068782704
      ],
      [
        "tais",
        -10.56403922566473
      ],
      [
        "Ġinterpretac",
        -10.564434914210755
      ],
      [
        "ficos",
        -10.564520120950757
      ],
      [
        "Ġdeseja",
        -10.564929271027356
      ],
      [
        "nanimidade",
        -10.565056620078357
      ],
      [
        "presidente",
        -10.565112621129888
      ],
      [
        "Estatuto",
        -10.566489081310433
      ],
      [
        "Ġjeito",
        -10.566625191852212
      ],
      [
        "Ġconvenc",
        -10.567015149008714
      ],
      [
        "ĠParece",
        -10.567079723375333
      ],
      [
        "Ġcompetente",
        -10.567836517187487
      ],
      [
        "Ġplanta",
        -10.568240714831749
      ],
      [
        "companheiro",
        -10.56890200457997
      ],
      [
        "ĠMc",
        -10.568997588900835
      ],
      [
        "Ġsobrevive",
        -10.569237885646164
      ],
      [
        "Ġvolume",
        -10.569274707434266
      ],
      [
        "Ġviolac",
        -10.57037514380096
      ],
      [
        "Ġindica",
        -10.570411617554395
      ],
      [
        "Ġresta",
        -10.571527796364908
      ],
      [
        "Ġobservado",
        -10.571717435634952
      ],
[...]
