{
  "version": "1.0",
  "truncation": {
    "direction": "Right",
    "max_length": 1024,
    "strategy": "LongestFirst",
    "stride": 0
  },
  "padding": null,
  "added_tokens": [
    {
      "id": 0,
      "content": "[PAD]",
      "single_word": false,
      "lstrip": false,
      "rstrip": false,
      "normalized": false,
      "special": true
    },
    {
      "id": 1,
      "content": "[SEP]",
      "single_word": false,
      "lstrip": false,
      "rstrip": false,
      "normalized": false,
      "special": true
    },
    {
      "id": 2,
      "content": "[EOS]",
      "single_word": false,
      "lstrip": false,
      "rstrip": false,
      "normalized": false,
      "special": true
    },
    {
      "id": 3,
      "content": "[UNK]",
      "single_word": false,
      "lstrip": false,
      "rstrip": false,
      "normalized": false,
      "special": true
    }
  ],
  "normalizer": {
    "type": "Sequence",
    "normalizers": [
      {
        "type": "Strip",
        "strip_left": true,
        "strip_right": true
      },
      {
        "type": "NFD"
      }
    ]
  },
  "pre_tokenizer": {
    "type": "ByteLevel",
    "add_prefix_space": true,
    "trim_offsets": true,
    "use_regex": true
  },
  "post_processor": {
    "type": "Sequence",
    "processors": [
      {
        "type": "ByteLevel",
        "add_prefix_space": true,
        "trim_offsets": true,
        "use_regex": true
      },
      {
        "type": "TemplateProcessing",
        "single": [
          {
            "Sequence": {
              "id": "A",
              "type_id": 0
            }
          },
          {
            "SpecialToken": {
              "id": "[EOS]",
              "type_id": 0
            }
          }
        ],
        "pair": [
          {
            "Sequence": {
              "id": "A",
              "type_id": 0
            }
          },
          {
            "SpecialToken": {
              "id": "[SEP]",
              "type_id": 0
            }
          },
          {
            "Sequence": {
              "id": "B",
              "type_id": 0
            }
          },
          {
            "SpecialToken": {
              "id": "[EOS]",
              "type_id": 0
            }
          }
        ],
        "special_tokens": {
          "[EOS]": {
            "id": "[EOS]",
            "ids": [
              2
            ],
            "tokens": [
              "[EOS]"
            ]
          },
          "[SEP]": {
            "id": "[SEP]",
            "ids": [
              1
            ],
            "tokens": [
              "[SEP]"
            ]
          }
        }
      }
    ]
  },
  "decoder": {
    "type": "ByteLevel",
    "add_prefix_space": true,
    "trim_offsets": true,
    "use_regex": true
  },
  "model": {
    "type": "Unigram",
    "unk_id": 3,
    "vocab": [
      [
        "[PAD]",
        0.0
      ],
      [
        "[SEP]",
        0.0
      ],
      [
        "[EOS]",
        0.0
      ],
      [
        "[UNK]",
        0.0
      ],
      [
        "Ġ",
        -2.3516371551796382
      ],
      [
        "o",
        -3.0883950699363467
      ],
      [
        "a",
        -3.2025549276345835
      ],
      [
        ",",
        -3.3679576189852938
      ],
      [
        "Ìģ",
        -3.4213617436453916
      ],
      [
        "s",
        -3.5903330393431254
      ],
      [
        ".",
        -3.590671342020652
      ],
      [
        "Ġde",
        -3.684216464814437
      ],
      [
        "Ìĥ",
        -3.741906473149001
      ],
      [
        "e",
        -3.7784573487776
      ],
      [
        "Ì§",
        -4.180338894703407
      ],
      [
        "-",
        -4.640666038442141
      ],
      [
        "Ġque",
        -4.673079686883362
      ],
      [
        "Ġdo",
        -4.684171185131262
      ],
      [
        "Ġda",
        -4.846676229942318
      ],
      [
        "m",
        -5.025108191844527
      ],
      [
        "ÌĤ",
        -5.0471821777222345
      ],
      [
        "r",
        -5.087736315730471
      ],
      [
        "c",
        -5.1208837265886835
      ],
      [
        "u",
        -5.160308243852089
      ],
      [
        "Ġna",
        -5.197439552233519
      ],
      [
        "Ġem",
        -5.254826914202425
      ],
      [
        "Ġpara",
        -5.458164204986598
      ],
      [
        "Ġ(",
        -5.458372108077761
      ],
      [
        "es",
        -5.466400359345709
      ],
      [
        "\"",
        -5.473290647100921
      ],
      [
        "n",
        -5.492355858141245
      ],
      [
        "Ġcom",
        -5.585101250495335
      ],
      [
        "Ġno",
        -5.6034835625603385
      ],
      [
        ")",
        -5.61945738448734
      ],
      [
        "i",
        -5.652729245794863
      ],
      [
        "ĠA",
        -5.687919874101123
      ],
      [
        ":",
        -5.804273739060076
      ],
      [
        "Ġum",
        -5.816880760473493
      ],
      [
        "ĠâĢĵ",
        -5.840368512211297
      ],
      [
        "/",
        -5.845758219155137
      ],
      [
        "ĠO",
        -5.861865347528749
      ],
      [
        "l",
        -5.951423977877367
      ],
      [
        "Ġuma",
        -6.049153695079863
      ],
      [
        "Ġse",
        -6.0603918220222575
      ],
      [
        "Ġpor",
        -6.065743732259998
      ],
      [
        "Ġos",
        -6.069456799591386
      ],
      [
        "A",
        -6.0940773628881235
      ],
      [
        "O",
        -6.108143593630157
      ],
      [
        "do",
        -6.129391798514082
      ],
      [
        "ncia",
        -6.133922778804246
      ],
      [
        "ÌĢ",
        -6.193000943977797
      ],
      [
        "da",
        -6.219401290393304
      ],
      [
        "ria",
        -6.2895316632693365
      ],
      [
        "rio",
        -6.299128897091025
      ],
      [
        "ĠE",
        -6.3133552915981
      ],
      [
        "Ġdos",
        -6.332639183284515
      ],
      [
        "p",
        -6.337780613131887
      ],
      [
        "Ġas",
        -6.38491836662565
      ],
      [
        "t",
        -6.422484425877849
      ],
      [
        "Ġcomo",
        -6.491736576235102
      ],
      [
        "?",
        -6.503713239176912
      ],
      [
        "ndo",
        -6.553929660422423
      ],
      [
        "Ġesta",
        -6.566985848032859
      ],
      [
        "Ġfoi",
        -6.593125097756648
      ],
      [
        "d",
        -6.619035199155846
      ],
      [
        "ta",
        -6.650893222965292
      ],
      [
        "!",
        -6.653181992645267
      ],
      [
        "S",
        -6.66156042626854
      ],
      [
        "Ġmais",
        -6.662944111475349
      ],
      [
        "Ġou",
        -6.747317789960199
      ],
      [
        "de",
        -6.752449176804465
      ],
      [
        "h",
        -6.754182745494438
      ],
      [
        "na",
        -6.768372277532686
      ],
      [
        "ĠNa",
        -6.777534351161755
      ],
      [
        ";",
        -6.791056416642302
      ],
      [
        "ti",
        -6.791943160245689
      ],
      [
        "C",
        -6.794734774947472
      ],
      [
        "ĠDE",
        -6.804388806403267
      ],
      [
        "Ġpela",
        -6.816827520615551
      ],
      [
        "ĠnÂº",
        -6.828061682422657
      ],
      [
        "Ġ1",
        -6.843097805983508
      ],
      [
        "b",
        -6.859002871191773
      ],
      [
        "Ġpelo",
        -6.886650298722431
      ],
      [
        "Ġsua",
        -6.905074265386617
      ],
      [
        "Ġdas",
        -6.908190223374202
      ],
      [
        "................",
        -6.913574369245465
      ],
      [
        "Ġser",
        -6.942468093284992
      ],
      [
        "to",
        -6.9464498176530185
      ],
      [
        "ĠSr",
        -6.965850302059216
      ],
      [
        "y",
        -6.974526196683852
      ],
      [
        "Âº",
        -6.9787408722110555
      ],
      [
        "mente",
        -6.998505822457629
      ],
      [
        "ra",
        -7.00068410840154
      ],
      [
        "g",
        -7.0072401427132025
      ],
      [
        "ri",
        -7.0256195344453225
      ],
      [
        "Ġsobre",
        -7.049626746691391
      ],
      [
        "6",
        -7.058097152787239
      ],
      [
        "...",
        -7.0594073114400775
      ],
      [
        "dos",
        -7.061447656426747
      ],
      [
        "7",
        -7.0682734101606695
      ],
      [
        "Ġme",
        -7.078514645482265
      ],
      [
        "Ġ2",
        -7.126944699974654
      ],
      [
        "va",
        -7.136805354898282
      ],
      [
        "f",
        -7.142406674232651
      ],
      [
        "ĠâĢľ",
        -7.1432172005330035
      ],
      [
        "Ġseu",
        -7.15285046782801
      ],
      [
        "re",
        -7.154224463956702
      ],
      [
        "vel",
        -7.156820289353078
      ],
      [
        "la",
        -7.160098661257832
      ],
      [
        "mos",
        -7.162676444480077
      ],
      [
        "is",
        -7.18450060385768
      ],
      [
        "te",
        -7.196659745718664
      ],
      [
        "ĠPresidente",
        -7.1973690158886345
      ],
      [
        "ou",
        -7.221001709741573
      ],
      [
        "ar",
        -7.2250139802307665
      ],
      [
        "Ġtambe",
        -7.236914715138795
      ],
      [
        "8",
        -7.247321494493976
      ],
      [
        "ĠLei",
        -7.254722022699347
      ],
      [
        "2",
        -7.259275274568491
      ],
      [
        "1",
        -7.266839220293306
      ],
      [
        "ĠEm",
        -7.267459758210515
      ],
      [
        "ĠI",
        -7.268402086136044
      ],
      [
        "Ġre",
        -7.274454995629403
      ],
      [
        "Ġsa",
        -7.289339703562236
      ],
      [
        "lo",
        -7.295584080156555
      ],
      [
        "Ġnos",
        -7.305308465013528
      ],
      [
        "Ġpro",
        -7.319607254137592
      ],
      [
        "Ġeu",
        -7.332182174855184
      ],
      [
        "ni",
        -7.343374491129373
      ],
      [
        "cio",
        -7.347083584960608
      ],
      [
        "z",
        -7.348818019031
      ],
      [
        "E",
        -7.34970300916398
      ],
      [
        "ĠDeputado",
        -7.3497585884667025
      ],
      [
        "Ġ19",
        -7.350973366702188
      ],
      [
        "ram",
        -7.351593147634707
      ],
      [
        "Ġtem",
        -7.352660497482208
      ],
      [
        "Ġmas",
        -7.3617527607780655
      ],
      [
        "das",
        -7.362642259714834
      ],
      [
        "li",
        -7.370535888209075
      ],
      [
        "Ġele",
        -7.373813274586228
      ],
      [
        "3",
        -7.387268368214524
      ],
      [
        "ĠCa",
        -7.41220712923516
      ],
      [
        "U",
        -7.418219929228641
      ],
      [
        "Ġ3",
        -7.420455124338376
      ],
      [
        "tica",
        -7.4333660207147645
      ],
      [
        "ĠSa",
        -7.453493204062365
      ],
      [
        "no",
        -7.458978842024797
      ],
      [
        "Ġte",
        -7.459575361493902
      ],
      [
        "P",
        -7.475356909195792
      ],
      [
        "ĠSR",
        -7.480180379729237
      ],
      [
        "le",
        -7.482950181868139
      ],
      [
        "rios",
        -7.491029922223156
      ],
      [
        "Ġpu",
        -7.494449558098616
      ],
      [
        "ncias",
        -7.496197955261353
      ],
      [
        "D",
        -7.496511705475962
      ],
      [
        "v",
        -7.499192438479032
      ],
      [
        "Ġart",
        -7.501587049066144
      ],
      [
        "ĠFederal",
        -7.50316833687657
      ],
      [
        "),",
        -7.511969191359119
      ],
      [
        "di",
        -7.516251871887409
      ],
      [
        "Ġisso",
        -7.517990574634409
      ],
      [
        "ve",
        -7.520950886491768
      ],
      [
        "Ġvoce",
        -7.521801344433715
      ],
      [
        "5",
        -7.526161277285551
      ],
      [
        "ga",
        -7.529426149648705
      ],
      [
        "ĠNÂº",
        -7.533067903823239
      ],
      [
        "ĠNo",
        -7.536175723058411
      ],
      [
        "R",
        -7.5373380920866655
      ],
      [
        "ĠV",
        -7.537638384086305
      ],
      [
        "em",
        -7.538110089563414
      ],
      [
        "Ġanos",
        -7.542093885842103
      ],
      [
        "ĠS",
        -7.54230011891873
      ],
      [
        "L",
        -7.547847593134369
      ],
      [
        "N",
        -7.553224099283911
      ],
      [
        "ĠBrasil",
        -7.556137719711517
      ],
      [
        "ĠSenador",
        -7.558245998221526
      ],
      [
        "B",
        -7.565965623143194
      ],
      [
        "nte",
        -7.566770011583875
      ],
      [
        "ĠEstado",
        -7.567036272165204
      ],
      [
        "T",
        -7.572437262566604
      ],
      [
        "4",
        -7.57650301390794
      ],
      [
        "Ġate",
        -7.585660697876129
      ],
      [
        "k",
        -7.59280743935088
      ],
      [
        "I",
        -7.597521255400894
      ],
      [
        ").",
        -7.608271414159775
      ],
      [
        "ĠEu",
        -7.608298095516251
      ],
      [
        "ba",
        -7.62124065116616
      ],
      [
        "pe",
        -7.623061816415522
      ],
      [
        "lia",
        -7.632316116898286
      ],
      [
        "Ġma",
        -7.635375047897805
      ],
      [
        "Ġaos",
        -7.635578952491434
      ],
      [
        "Ġentre",
        -7.636033722049804
      ],
      [
        "x",
        -7.642300423814792
      ],
      [
        "Ġmuito",
        -7.647657588394901
      ],
      [
        "Ġ4",
        -7.649839995864738
      ],
      [
        "ĠSe",
        -7.650470700676504
      ],
      [
        "idade",
        -7.657625711531768
      ],
      [
        "Ġja",
        -7.661248155198468
      ],
      [
        "go",
        -7.661444455567839
      ],
      [
        "9",
        -7.673116927032019
      ],
      [
        "que",
        -7.6883225077405
      ],
      [
        "ĠDe",
        -7.68945938346317
      ],
      [
        "cia",
        -7.690602276094289
      ],
      [
        "%",
        -7.702748632400301
      ],
      [
        "M",
        -7.705558916595942
      ],
      [
        "w",
        -7.713809067142302
      ],
      [
        "in",
        -7.719260300488511
      ],
      [
        "blica",
        -7.725163217471632
      ],
      [
        "ado",
        -7.751212154744625
      ],
      [
        "ĠComissa",
        -7.754527581284837
      ],
      [
        "Ġ5",
        -7.769919452661162
      ],
      [
        "ter",
        -7.7730409583091635
      ],
      [
        "Ġforma",
        -7.773043368986638
      ],
      [
        "Ġbem",
        -7.779723650653482
      ],
      [
        "vi",
        -7.785769235033785
      ],
      [
        "\",",
        -7.790267805650684
      ],
      [
        "F",
        -7.802725848833182
      ],
      [
        "Ġco",
        -7.809297168894281
      ],
      [
        "Ġpode",
        -7.815047634349803
      ],
      [
        "Ġcontra",
        -7.819461363427932
      ],
      [
        "Ġ6",
        -7.825876698091738
      ],
      [
        "Ġquando",
        -7.836651702961548
      ],
      [
        "Ġ7",
        -7.852632522093899
      ],
      [
        "Ġ8",
        -7.859451668664283
      ],
      [
        "Ġaqui",
        -7.863536631017954
      ],
      [
        "Ġmesmo",
        -7.869391799138178
      ],
      [
        "Ġdia",
        -7.870357548593143
      ],
      [
        "(",
        -7.87571353820646
      ],
      [
        "ĠNacional",
        -7.879976229708483
      ],
      [
        "Ġpoli",
        -7.883571840157895
      ],
      [
        "Ġin",
        -7.893444582189323
      ],
      [
        "G",
        -7.912141770307782
      ],
      [
        "Ġca",
        -7.912597537359153
      ],
      [
        "ĠÂ§",
        -7.92035494425556
      ],
      [
        "Ġsem",
        -7.923436652452999
      ],
      [
        "Ġtodos",
        -7.924881342007321
      ],
      [
        "mi",
        -7.926634519506331
      ],
      [
        "Ġter",
        -7.927297076335407
      ],
      [
        "Ġha",
        -7.931186833170866
      ],
      [
        "Ġ10",
        -7.934496556777242
      ],
      [
        "gu",
        -7.93601193061459
      ],
      [
        "Ġpre",
        -7.937818406113406
      ],
      [
        "Ġainda",
        -7.941827257055815
      ],
      [
        "ci",
        -7.943358659447343
      ],
      [
        "Ġpai",
        -7.945693251913415
      ],
      [
        "ĠR",
        -7.95999931907553
      ],
      [
        "dia",
        -7.964929850044063
      ],
      [
        "min",
        -7.966237499631793
      ],
      [
        "Ġseus",
        -7.966273709429908
      ],
      [
        "Ġ18",
        -7.969046645972671
      ],
      [
        "Ġera",
        -7.987359646725681
      ],
      [
        "âĢĿ.",
        -7.998025723187425
      ],
      [
        "Ġcidade",
        -8.00232216098778
      ],
      [
        "Ġac",
        -8.006974332807165
      ],
      [
        "br",
        -8.007956281486617
      ],
      [
        "ES",
        -8.00949461448293
      ],
      [
        "Ġparte",
        -8.011125865447344
      ],
      [
        "Ġvi",
        -8.017073442575938
      ],
      [
        "rias",
        -8.023447045364039
      ],
      [
        "Ġforam",
        -8.026451363553365
      ],
      [
        "ĠRe",
        -8.029232276167496
      ],
      [
        "Ġfazer",
        -8.035117050951756
      ],
      [
        "ĠPaulo",
        -8.03898668202764
      ],
      [
        "Ġano",
        -8.03936122499443
      ],
      [
        "ntes",
        -8.04347844104876
      ],
      [
        "ĠPor",
        -8.043957158715731
      ],
      [
        "dio",
        -8.04481261853523
      ],
      [
        "Ġcaso",
        -8.046602327367886
      ],
      [
        "ĠC",
        -8.046654290848094
      ],
      [
        "Ġex",
        -8.05611169262014
      ],
      [
        "tu",
        -8.072128133890587
      ],
      [
        "\".",
        -8.074367438376141
      ],
      [
        "tra",
        -8.074799453183525
      ],
      [
        "Ġservic",
        -8.075956132312214
      ],
      [
        "fi",
        -8.082147945028645
      ],
      [
        "Ġessa",
        -8.08433999694132
      ],
      [
        "Ġva",
        -8.08557685066214
      ],
      [
        "ĠCom",
        -8.085892277997091
      ],
      [
        "bi",
        -8.089557917308865
      ],
      [
        "Ġesse",
        -8.093131083028165
      ],
      [
        "ĠMa",
        -8.103619234600725
      ],
      [
        "ir",
        -8.113560524214922
      ],
      [
        "Ġseja",
        -8.11412578998213
      ],
      [
        "ĠG",
        -8.115763786025589
      ],
      [
        "ĠPL",
        -8.120694030628542
      ],
      [
        "Ġpa",
        -8.121858172212102
      ],
      [
        "nia",
        -8.122275837100672
      ],
      [
        "ĠLi",
        -8.124278143013077
      ],
      [
        "Ġtempo",
        -8.12901637497108
      ],
      [
        "ĠPara",
        -8.130677915494326
      ],
      [
        "ĠPROJETO",
        -8.138267765367127
      ],
      [
        "nico",
        -8.147276067553257
      ],
      [
        "gi",
        -8.149408838035127
      ],
      [
        "Ġporque",
        -8.14999323283493
      ],
      [
        "Ġvai",
        -8.150328511823032
      ],
      [
        "ĠLEI",
        -8.158325694298656
      ],
      [
        "V",
        -8.160537307108843
      ],
      [
        "ĠU",
        -8.163153128623007
      ],
      [
        "mara",
        -8.165932790832123
      ],
      [
        "Ġmeu",
        -8.17324115194247
      ],
      [
        "nd",
        -8.173255817795335
      ],
      [
        "ĠDeputados",
        -8.173878368840604
      ],
      [
        "ĠPRESIDENTE",
        -8.179193957731423
      ],
      [
        "ĠP",
        -8.180921991408221
      ],
      [
        "ĠOs",
        -8.181117099976342
      ],
      [
        "Ġela",
        -8.183111383802466
      ],
      [
        "ĠMas",
        -8.18443192205101
      ],
      [
        "Ġprimeiro",
        -8.187987101383017
      ],
      [
        "veis",
        -8.19018172382201
      ],
      [
        "ĠMe",
        -8.191079156152183
      ],
      [
        "ĠEsta",
        -8.195631120336772
      ],
      [
        "Ġsera",
        -8.198350683425097
      ],
      [
        "pio",
        -8.198883268752732
      ],
      [
        "ĠEle",
        -8.199503223180297
      ],
      [
        "ver",
        -8.20189500844443
      ],
      [
        "H",
        -8.202048326349075
      ],
      [
        "ge",
        -8.209348765436172
      ],
      [
        "ĠB",
        -8.214309685232742
      ],
      [
        "Ġonde",
        -8.214901366252523
      ],
      [
        "pi",
        -8.216303123918255
      ],
      [
        "sta",
        -8.216808722228802
      ],
      [
        "ĠGoverno",
        -8.221163987032917
      ],
      [
        "ĠMinistro",
        -8.224191254254736
      ],
      [
        "Ġ9",
        -8.230774709474739
      ],
      [
        "ĠVoce",
        -8.231068507593557
      ],
      [
        "ĠConstituic",
        -8.23256752959061
      ],
      [
        "ĠT",
        -8.232793621148076
      ],
      [
        "tro",
        -8.233346991998314
      ],
      [
        "âĢĿ",
        -8.236974242103539
      ],
      [
        "Ġpessoas",
        -8.245539808685688
      ],
      [
        "za",
        -8.24724604492773
      ],
      [
        "ch",
        -8.247324952689926
      ],
      [
        "'",
        -8.248998778267993
      ],
      [
        "Ġvez",
        -8.252772638232411
      ],
      [
        "be",
        -8.255822326656846
      ],
      [
        "00",
        -8.258094132748997
      ],
      [
        "Ġgrande",
        -8.261815678944785
      ],
      [
        "Ġoutros",
        -8.262423698973945
      ],
      [
        "ĠCo",
        -8.268257277679231
      ],
      [
        "der",
        -8.271818794218177
      ],
      [
        "Ġartigo",
        -8.273785057369773
      ],
      [
        "fe",
        -8.274295543370267
      ],
      [
        "Ġapenas",
        -8.285760416187529
      ],
      [
        "19",
        -8.289086870150081
      ],
      [
        "Ġoutras",
        -8.291051768771702
      ],
      [
        "Ġtrabalho",
        -8.291739969813795
      ],
      [
        "Ġ12",
        -8.295839047525204
      ],
      [
        "Ġ11",
        -8.299198017614744
      ],
      [
        "ĠRELATOR",
        -8.303355754796478
      ],
      [
        "blico",
        -8.303977601014898
      ],
      [
        "res",
        -8.308433713818356
      ],
      [
        "Âª",
        -8.311464389196686
      ],
      [
        "ĠDo",
        -8.315696539475676
      ],
      [
        "Ġeste",
        -8.31626849545158
      ],
      [
        "Ġseguinte",
        -8.319358211501468
      ],
      [
        "Ġsendo",
        -8.323408984597215
      ],
      [
        "tico",
        -8.327056121403224
      ],
      [
        "Ġcon",
        -8.32792907611353
      ],
      [
        "Ġdois",
        -8.329694079527819
      ],
      [
        "ĠRefere",
        -8.331025763324298
      ],
      [
        "Ġsuas",
        -8.335705881492252
      ],
      [
        "Ġmaior",
        -8.338345977910462
      ],
      [
        "nha",
        -8.338693040165817
      ],
      [
        "ĠRio",
        -8.339729331221106
      ],
      [
        "Ġordem",
        -8.340999128078156
      ],
      [
        "Ġnosso",
        -8.342650043767458
      ],
      [
        "Ġ15",
        -8.343102073548037
      ],
      [
        "ĠArt",
        -8.347567064269237
      ],
      [
        "Ġapo",
        -8.34785041992876
      ],
      [
        "ja",
        -8.350699120179822
      ],
      [
        "ĠProjeto",
        -8.350897134731044
      ],
      [
        "amento",
        -8.352517267054896
      ],
      [
        "ĠLa",
        -8.35651430576074
      ],
      [
        "ĠII",
        -8.356716866791182
      ],
      [
        "Ġlei",
        -8.358286686445492
      ],
      [
        "Ġen",
        -8.36140443998651
      ],
      [
        "ĠPai",
        -8.363718087647994
      ],
      [
        "ck",
        -8.37086387525086
      ],
      [
        "ĠDO",
        -8.375435957818244
      ],
      [
        "ĠCasa",
        -8.379322060640463
      ],
      [
        "Ġfi",
        -8.379691477326693
      ],
      [
        "j",
        -8.38060983517705
      ],
      [
        "Ġminha",
        -8.384730411791121
      ],
      [
        "Ġhoje",
        -8.38550819521424
      ],
      [
        "Ġla",
        -8.386473063180976
      ],
      [
        "Ġnu",
        -8.38930600494612
      ],
      [
        "Ġtermos",
        -8.392843124380207
      ],
      [
        "ĠHa",
        -8.392883492391515
      ],
      [
        "Ġta",
        -8.401458778282535
      ],
      [
        "Ġprocesso",
        -8.40246332803061
      ],
      [
        "fica",
        -8.404689721438583
      ],
      [
        "Ġmeio",
        -8.406778291959242
      ],
      [
        "Ġassim",
        -8.407020261711605
      ],
      [
        "nio",
        -8.40970125902071
      ],
      [
        "Ġ16",
        -8.411825702099417
      ],
      [
        "mento",
        -8.4146195560031
      ],
      [
        "ĠRa",
        -8.416889824367262
      ],
      [
        "ĠSenhor",
        -8.419632267617716
      ],
      [
        "Ġdesta",
        -8.42229810965911
      ],
      [
        "rea",
        -8.42295259982282
      ],
      [
        "Ġprojeto",
        -8.42430209910852
      ],
      [
        "10",
        -8.424464079474328
      ],
      [
        "PSDB",
        -8.431191083923286
      ],
      [
        "Ġ17",
        -8.431693721231511
      ],
      [
        "Ġpra",
        -8.432923760101977
      ],
      [
        "sse",
        -8.433174324494011
      ],
      [
        "ĠPu",
        -8.437848883069536
      ],
      [
        "ĠJu",
        -8.438335343745889
      ],
      [
        "ll",
        -8.444102706511226
      ],
      [
        "ĠJa",
        -8.445894524370319
      ],
      [
        "Ġpo",
        -8.446810064794459
      ],
      [
        "qui",
        -8.447165531728796
      ],
      [
        "Ġnas",
        -8.44726295644618
      ],
      [
        "Ġqual",
        -8.448118167702093
      ],
      [
        "ĠJose",
        -8.455286801890386
      ],
      [
        "ĠMo",
        -8.455740363930094
      ],
      [
        "0",
        -8.463746396168915
      ],
      [
        "Ġnome",
        -8.463809244621412
      ],
      [
        "ina",
        -8.46391497226962
      ],
      [
        "tar",
        -8.464597270076421
      ],
      [
        "Ġli",
        -8.470763430578632
      ],
      [
        "Ġdireito",
        -8.472155314493184
      ],
      [
        "ĠF",
        -8.473006269659935
      ],
      [
        "Ġmu",
        -8.473346663303763
      ],
      [
        "ĠSenado",
        -8.476502158192565
      ],
      [
        "Ġ20",
        -8.477402638709247
      ],
      [
        "nica",
        -8.478183260895117
      ],
      [
        "Ġprimeira",
        -8.478215308911906
      ],
      [
        "rito",
        -8.480873559994512
      ],
      [
        "Ġdisse",
        -8.48362759590113
      ],
      [
        "$",
        -8.485278660493716
      ],
      [
        "Ġsistema",
        -8.48761879701724
      ],
      [
        "Ġqualquer",
        -8.488991034203018
      ],
      [
        "ĠDA",
        -8.493147261502164
      ],
      [
        "ĠTribunal",
        -8.494087829035072
      ],
      [
        "Ġtre",
        -8.49658153612912
      ],
      [
        "Ġhisto",
        -8.496587657760305
      ],
      [
        "Ġfa",
        -8.496754818976786
      ],
      [
        "dor",
        -8.497058887087649
      ],
      [
        "ĠLe",
        -8.499369989488267
      ],
      [
        "ĠâĢ¢",
        -8.502259859392481
      ],
      [
        "Ġdeste",
        -8.503997028682473
      ],
      [
        "ĠComo",
        -8.504044448252282
      ],
      [
        "ĠD",
        -8.507604864962431
      ],
      [
        "Ġvida",
        -8.508983189210399
      ],
      [
        "ĠSem",
        -8.511390248381854
      ],
      [
        "Ġvoto",
        -8.515445779486273
      ],
      [
        "Ġtra",
        -8.518189134125992
      ],
      [
        "Ġ13",
        -8.520467148009638
      ],
      [
        "ng",
        -8.524213943161444
      ],
      [
        "11",
        -8.52433767873053
      ],
      [
        "Ġpalavra",
        -8.52441385726639
      ],
      [
        "Ġcada",
        -8.525265036089436
      ],
      [
        "Ġacordo",
        -8.525476158762045
      ],
      [
        "man",
        -8.52930072862011
      ],
      [
        "Ġdepois",
        -8.53443898621897
      ],
      [
        "09",
        -8.534529865131619
      ],
      [
        "ĠW",
        -8.535739150575786
      ],
      [
        "Ġ14",
        -8.538346347073862
      ],
      [
        "ĠMiniste",
        -8.538415042732957
      ],
      [
        "Ġinformac",
        -8.539025713398942
      ],
      [
        "ĠAs",
        -8.541121813870857
      ],
      [
        "ĠRo",
        -8.545273671913838
      ],
      [
        "sica",
        -8.5474143096527
      ],
      [
        "Ġtodo",
        -8.549549036491086
      ],
      [
        "ĠRepu",
        -8.549958823995365
      ],
      [
        "um",
        -8.553233591189294
      ],
      [
        "ĠPT",
        -8.555783343412008
      ],
      [
        "Ġprazo",
        -8.558035933079836
      ],
      [
        "Ġato",
        -8.560064085327623
      ],
      [
        "lha",
        -8.561797731215927
      ],
      [
        "ĠCarlos",
        -8.563091904243164
      ],
      [
        "via",
        -8.565403853948077
      ],
      [
        "ĠSim",
        -8.566485978599424
      ],
      [
        "Ġmi",
        -8.57199157430218
      ],
      [
        "ĠTe",
        -8.575027870665078
      ],
      [
        "Ġsi",
        -8.581075094026644
      ],
      [
        "gra",
        -8.583081292124307
      ],
      [
        "ĠRelator",
        -8.583456693046358
      ],
      [
        "Ġagora",
        -8.584117795333889
      ],
      [
        "Ġpresente",
        -8.590472671159617
      ],
      [
        "ĠIn",
        -8.59189401750317
      ],
      [
        "Ġmate",
        -8.59300583634101
      ],
      [
        "tos",
        -8.594230269664225
      ],
      [
        "men",
        -8.596977402793854
      ],
      [
        "Ġdeve",
        -8.598499219022743
      ],
      [
        "Ġcomec",
        -8.599000484159424
      ],
      [
        "Ġsob",
        -8.603436996504113
      ],
      [
        "Ġperi",
        -8.603681986737529
      ],
      [
        "Ġmelhor",
        -8.606605899526564
      ],
      [
        "Ġrelac",
        -8.611659057949302
      ],
      [
        "Ġlanc",
        -8.617135175949922
      ],
      [
        "nde",
        -8.617429013037114
      ],
      [
        "Bloco",
        -8.618730515731489
      ],
      [
        "ita",
        -8.62187110519156
      ],
      [
        "Ġsegundo",
        -8.62317822634994
      ],
      [
        "Ġmundo",
        -8.627348286987633
      ],
      [
        "Ġdizer",
        -8.63068450157058
      ],
      [
        "durante",
        -8.630697937755466
      ],
      [
        "lio",
        -8.634408174067582
      ],
      [
        "Ġver",
        -8.635579130681505
      ],
      [
        "Ġmil",
        -8.635950292235995
      ],
      [
        "ĠBa",
        -8.64272061358141
      ],
      [
        "Ġnossa",
        -8.645716661240064
      ],
      [
        "ĠJustic",
        -8.648544187230408
      ],
      [
        "_",
        -8.650348391736394
      ],
      [
        "gua",
        -8.65067643599513
      ],
      [
        "RIO",
        -8.651307744284738
      ],
      [
        "ĠDa",
        -8.651361273034382
      ],
      [
        "th",
        -8.654352442914186
      ],
      [
        "ĠMunici",
        -8.654466605203615
      ],
      [
        "ĠPa",
        -8.655316671809528
      ],
      [
        "per",
        -8.65573245821587
      ],
      [
        "enta",
        -8.661336701854944
      ],
      [
        "ando",
        -8.666149846582044
      ],
      [
        "dores",
        -8.667207017834956
      ],
      [
        "Ġsido",
        -8.669098393019206
      ],
      [
        "ĠEstados",
        -8.671495694055784
      ],
      [
        "ĠAl",
        -8.67303244709607
      ],
      [
        "Ġrecursos",
        -8.674102587274154
      ],
      [
        "rem",
        -8.674987289377356
      ],
      [
        "il",
        -8.676493518501506
      ],
      [
        "Ġdi",
        -8.679836277845618
      ],
      [
        "rga",
        -8.679850580997511
      ],
      [
        "orador",
        -8.68157483967079
      ],
      [
        "Ġdezembro",
        -8.683069378786008
      ],
      [
        "jo",
        -8.684196723365766
      ],
      [
        "ente",
        -8.688926605058079
      ],
      [
        "nto",
        -8.691215272069883
      ],
      [
        "decisa",
        -8.692466779323052
      ],
      [
        "ĠJoa",
        -8.692515833166533
      ],
      [
        "tiva",
        -8.699078260412481
      ],
      [
        "ĠTa",
        -8.702038612559656
      ],
      [
        "Ġpopulac",
        -8.702088009563232
      ],
      [
        "com",
        -8.702441713828854
      ],
      [
        "Ġpartir",
        -8.704468384240808
      ],
      [
        "culo",
        -8.704996978113934
      ],
      [
        "Ġestava",
        -8.705738955840694
      ],
      [
        "Ġantes",
        -8.70645878885956
      ],
      [
        "tor",
        -8.70806080475146
      ],
      [
        "ste",
        -8.708338545120512
      ],
      [
        "ĠLu",
        -8.708452828389992
      ],
      [
        "Ġoutro",
        -8.709492889812134
      ],
      [
        "Ġtudo",
        -8.710141025587152
      ],
      [
        "Ġcasa",
        -8.71082785367162
      ],
      [
        "ĠSo",
        -8.711048584025011
      ],
      [
        "=",
        -8.711328466172654
      ],
      [
        "ĠPMDB",
        -8.712336954097212
      ],
      [
        "Ġfami",
        -8.716910564701452
      ],
      [
        "ĠVi",
        -8.717581545305151
      ],
      [
        "mero",
        -8.719678516533428
      ],
      [
        "Ġfato",
        -8.720946418160672
      ],
      [
        "Ġra",
        -8.72138577795616
      ],
      [
        "Ġrevisa",
        -8.722304010282594
      ],
      [
        "pu",
        -8.727812488668432
      ],
      [
        "ros",
        -8.729772138687766
      ],
      [
        "ing",
        -8.73198337919621
      ],
      [
        "ĠCon",
        -8.732004985119136
      ],
      [
        "Ġce",
        -8.732623254483
      ],
      [
        "Ġmomento",
        -8.734329213287678
      ],
      [
        "Ġvalor",
        -8.735187176254495
      ],
      [
        "ĠVer",
        -8.73633379379997
      ],
      [
        "Ġdias",
        -8.737765014141594
      ],
      [
        "ÌĪ",
        -8.738159256631713
      ],
      [
        "ĠGa",
        -8.738378108067629
      ],
      [
        "Ġgrupo",
        -8.742614888311094
      ],
      [
        "Ġdesde",
        -8.742738477808329
      ],
      [
        "Ġempresa",
        -8.744301630005927
      ],
      [
        "Ġgoverno",
        -8.745391273018667
      ],
      [
        "lar",
        -8.746649994733966
      ],
      [
        "Ġeles",
        -8.747792793021791
      ],
      [
        "Ġconta",
        -8.74848397678893
      ],
      [
        "ĠFa",
        -8.74936809730992
      ],
      [
        "20",
        -8.751649363100881
      ],
      [
        "Ġ24",
        -8.753305273931694
      ],
      [
        "TO",
        -8.75468737166165
      ],
      [
        "ista",
        -8.758420228900958
      ],
      [
        "AS",
        -8.759192687620605
      ],
      [
        "cer",
        -8.76687585304732
      ],
      [
        "12",
        -8.767289711161913
      ],
      [
        "ha",
        -8.768074587022184
      ],
      [
        "2009",
        -8.769331225082984
      ],
      [
        "Ġfinal",
        -8.77203932237163
      ],
      [
        "nos",
        -8.77363577566757
      ],
      [
        "rica",
        -8.77438821184515
      ],
      [
        "OS",
        -8.774397969564157
      ],
      [
        "Ġnovo",
        -8.774668412687205
      ],
      [
        "ĠIsso",
        -8.77485142064838
      ],
      [
        "Ġmilho",
        -8.77611661860952
      ],
      [
        "15",
        -8.780128641628446
      ],
      [
        "pre",
        -8.780810105786474
      ],
      [
        "Ġti",
        -8.783603029487391
      ],
      [
        "ĠUm",
        -8.784278700071146
      ],
      [
        "ĠPre",
        -8.785263818953396
      ],
      [
        "ĠUnia",
        -8.785506433509186
      ],
      [
        "J",
        -8.785802984027821
      ],
      [
        "Ġproposta",
        -8.78661619428669
      ],
      [
        "PT",
        -8.787554981785156
      ],
      [
        "rie",
        -8.787874740586945
      ],
      [
        "car",
        -8.791338226346927
      ],
      [
        "Ġsempre",
        -8.793735272846456
      ],
      [
        "ticas",
        -8.794886625545587
      ],
      [
        "Ġpelos",
        -8.800646778765264
      ],
      [
        "Ġenta",
        -8.802610077297883
      ],
      [
        "Ġinciso",
        -8.803401400515956
      ],
      [
        "pios",
        -8.80445522225564
      ],
      [
        "Ġfaz",
        -8.806296469655269
      ],
      [
        "Ġcondic",
        -8.808148148401942
      ],
      [
        "cie",
        -8.81627046516507
      ],
      [
        "08",
        -8.816319153008818
      ],
      [
        "Ġduas",
        -8.81667681220275
      ],
      [
        "mar",
        -8.817103511993668
      ],
      [
        "Ġbrasileiro",
        -8.817567282109321
      ],
      [
        "rac",
        -8.81776390798119
      ],
      [
        "ĠâĢĶ",
        -8.819435027878145
      ],
      [
        "rei",
        -8.82148154115669
      ],
      [
        "votac",
        -8.821987929137155
      ],
      [
        "ĠDi",
        -8.82205988573522
      ],
      [
        "ĠQue",
        -8.825144024802238
      ],
      [
        "Ġmenos",
        -8.825576441758853
      ],
      [
        "tri",
        -8.826201936570177
      ],
      [
        "Ġpouco",
        -8.827004217425028
      ],
      [
        "ĠEnta",
        -8.827306886853219
      ],
      [
        "ĠFoi",
        -8.829540739034588
      ],
      [
        "Ġ30",
        -8.829676636715838
      ],
      [
        "mica",
        -8.832284200343627
      ],
      [
        "Congresso",
        -8.832775658116557
      ],
      [
        "18",
        -8.834270776212206
      ],
      [
        "vida",
        -8.83436799667134
      ],
      [
        "lhe",
        -8.835766589428525
      ],
      [
        "Ġsu",
        -8.838047897901884
      ],
      [
        "Ġtinha",
        -8.841621446695523
      ],
      [
        "Ġquanto",
        -8.84649689844225
      ],
      [
        "Ġali",
        -8.846763049028631
      ],
      [
        "son",
        -8.84844876125718
      ],
      [
        "ĠSul",
        -8.852375993141484
      ],
      [
        "ĠPela",
        -8.852709975986944
      ],
      [
        "Ġba",
        -8.852795956371768
      ],
      [
        "07",
        -8.85326391700747
      ],
      [
        "DO",
        -8.854615656703388
      ],
      [
        "Ġale",
        -8.856484262019901
      ],
      [
        "neste",
        -8.856999084372935
      ],
      [
        "05",
        -8.857506114049661
      ],
      [
        "nu",
        -8.857769432899563
      ],
      [
        "Ġnesta",
        -8.862269329306088
      ],
      [
        "ĠM",
        -8.863768528027826
      ],
      [
        "ĠMar",
        -8.864250922749413
      ],
      [
        "aprovac",
        -8.865128148863837
      ],
      [
        "Ġsau",
        -8.865249386908637
      ],
      [
        "Ġfim",
        -8.866317515600667
      ],
      [
        "cha",
        -8.868678061672268
      ],
      [
        "Ġmarc",
        -8.871045029646295
      ],
      [
        "TE",
        -8.872306849339985
      ],
      [
        "ĠTi",
        -8.873412610001584
      ],
      [
        "Ġper",
        -8.87599187570313
      ],
      [
        "TA",
        -8.877228126903864
      ],
      [
        "dica",
        -8.882599874297211
      ],
      [
        "tal",
        -8.883895957853065
      ],
      [
        "Ġimportante",
        -8.8846668729886
      ],
      [
        "Ġ@",
        -8.887201405265795
      ],
      [
        "Ġbase",
        -8.891695594735177
      ],
      [
        "Ġtodas",
        -8.892034991208456
      ],
      [
        "ĠPoder",
        -8.893288624931694
      ],
      [
        "Ġpe",
        -8.893815264161123
      ],
      [
        "ĠHo",
        -8.898969489898073
      ],
      [
        "Ġof",
        -8.899063137696206
      ],
      [
        "Z",
        -8.901854434119278
      ],
      [
        "ry",
        -8.902007232676711
      ],
      [
        "ĠSu",
        -8.90567695760503
      ],
      [
        "ĠHe",
        -8.906373169332177
      ],
      [
        "ĠBo",
        -8.907487736755918
      ],
      [
        "Ġ2007",
        -8.909606780766545
      ],
      [
        "Ġsocial",
        -8.910177120247333
      ],
      [
        "Ġregia",
        -8.910429667630568
      ],
      [
        "17",
        -8.91080882815067
      ],
      [
        "Ġvezes",
        -8.91141997590716
      ],
      [
        "Ġcausa",
        -8.911806300108623
      ],
      [
        "ĠMu",
        -8.914898024742435
      ],
      [
        "discussa",
        -8.917399211003017
      ],
      [
        "ĠK",
        -8.917590316938774
      ],
      [
        "fer",
        -8.917851654648391
      ],
      [
        "Ġexemplo",
        -8.918480476922028
      ],
      [
        "Ġfor",
        -8.921012629502858
      ],
      [
        "âĢĵ",
        -8.921574586974831
      ],
      [
        "Ġfez",
        -8.921948871929047
      ],
      [
        "Ġcons",
        -8.924429532304057
      ],
      [
        "Ġcre",
        -8.924801147508763
      ],
      [
        "Ġmaio",
        -8.928282260439936
      ],
      [
        "Ġ23",
        -8.928735776468388
      ],
      [
        "par",
        -8.92925509267169
      ],
      [
        "che",
        -8.929328677802939
      ],
      [
        "tivo",
        -8.929634652521482
      ],
      [
        "Ġexternas",
        -8.930340501178595
      ],
      [
        "Ġpovo",
        -8.931070159077864
      ],
      [
        "06",
        -8.931262149629063
      ],
      [
        "Ġdiz",
        -8.931614162593913
      ],
      [
        "âĢĿ,",
        -8.931796117857465
      ],
      [
        "Ġpoder",
        -8.93198299316633
      ],
      [
        "Ġ2009",
        -8.93366269702699
      ],
      [
        "03",
        -8.935298202903157
      ],
      [
        "ĠLuiz",
        -8.937560433909779
      ],
      [
        "Ligac",
        -8.93771580754387
      ],
      [
        "Ġnecessa",
        -8.937725379983764
      ],
      [
        "Ġ21",
        -8.940075607638876
      ],
      [
        "RA",
        -8.940453199355822
      ],
      [
        "Ġlugar",
        -8.944342211896355
      ],
      [
        "zo",
        -8.944619076802457
      ],
      [
        "ĠBe",
        -8.945132720785505
      ],
      [
        "Ġtendo",
        -8.94654490786641
      ],
      [
        "digo",
        -8.946624552821545
      ],
      [
        "Ġquero",
        -8.947111461929412
      ],
      [
        "Ġpois",
        -8.947609877398863
      ],
      [
        "K",
        -8.947828544524445
      ],
      [
        "dito",
        -8.950213894956125
      ],
      [
        "Ġmunici",
        -8.951474663324534
      ],
      [
        "Ġal",
        -8.95192370043132
      ],
      [
        "Ġmedida",
        -8.952814546116329
      ],
      [
        "tas",
        -8.953907355911092
      ],
      [
        "16",
        -8.954022908956405
      ],
      [
        "Ġjulho",
        -8.955632185737574
      ],
      [
        "ĠExÂª",
        -8.957666111234719
      ],
      [
        "Ġrecurso",
        -8.96042529081126
      ],
      [
        "Ġsituac",
        -8.961485365006574
      ],
      [
        "Ġnacional",
        -8.961766392231345
      ],
      [
        "ĠFi",
        -8.962015931562942
      ],
      [
        "Ġ25",
        -8.964003109091339
      ],
      [
        "Ġsabe",
        -8.965560263809792
      ],
      [
        "Ġtoda",
        -8.966666748953417
      ],
      [
        "Ġespe",
        -8.970858059849553
      ],
      [
        "Ġ22",
        -8.972343215886745
      ],
      [
        "Ġalguns",
        -8.972830770785208
      ],
      [
        "con",
        -8.972878810167023
      ],
      [
        "Ġsentido",
        -8.97301605926027
      ],
      [
        "rda",
        -8.97305107413692
      ],
      [
        "Ġtrata",
        -8.97321598407052
      ],
      [
        "eira",
        -8.974148269003164
      ],
      [
        "ĠMi",
        -8.974296045096875
      ],
      [
        "30",
        -8.97474410091956
      ],
      [
        "Ġsetembro",
        -8.977676258607987
      ],
      [
        "lho",
        -8.981666714016677
      ],
      [
        "Ġim",
        -8.982633134659855
      ],
      [
        "Ì",
        -8.983264328054728
      ],
      [
        "Ġvou",
        -8.983899245265766
      ],
      [
        "it",
        -8.98480439326644
      ],
      [
        "Ġ2008",
        -8.98520236355922
      ],
      [
        "Ġ:(",
        -8.986070746770437
      ],
      [
        "fico",
        -8.986409734700832
      ],
      [
        "Ġtemos",
        -8.98922710418174
      ],
      [
        "vam",
        -8.991325126153635
      ],
      [
        "ssi",
        -8.991909289582885
      ],
      [
        "Ġecono",
        -8.99355202249021
      ],
      [
        "ĠAr",
        -8.995412555278907
      ],
      [
        "Ġnem",
        -8.995987721348707
      ],
      [
        "tt",
        -8.99934480164508
      ],
      [
        "ton",
        -8.999764801295989
      ],
      [
        "Ġ28",
        -9.000821932219234
      ],
      [
        "Â°",
        -9.001364608326343
      ],
      [
        "lin",
        -9.001716823794416
      ],
      [
        "Ġdata",
        -9.00198288596012
      ],
      [
        "Ġpodem",
        -9.00273374201169
      ],
      [
        "Ġuso",
        -9.005765747997327
      ],
      [
        "Ġfavor",
        -9.00672851190534
      ],
      [
        "cios",
        -9.008109359314345
      ],
      [
        "ĠSESS",
        -9.008145401452795
      ],
      [
        "Ġsociedade",
        -9.008886228410656
      ],
      [
        "Ġnova",
        -9.009505064056182
      ],
      [
        "Exa",
        -9.010601900224191
      ],
      [
        "ER",
        -9.011349358761866
      ],
      [
        "Ġ2006",
        -9.011840093653316
      ],
      [
        "Ġcoisa",
        -9.012153248930668
      ],
      [
        "los",
        -9.012204334630798
      ],
      [
        "tua",
        -9.01279220504072
      ],
      [
        "Ġmesma",
        -9.015635084425645
      ],
      [
        "junho",
        -9.01784190827528
      ],
      [
        "Ġto",
        -9.018970987002588
      ],
      [
        "Ġcor",
        -9.01992707412392
      ],
      [
        "Ġseria",
        -9.020772237862571
      ],
      [
        "nce",
        -9.021087037241278
      ],
      [
        "Ġtipo",
        -9.021506370634816
      ],
      [
        "Ġsub",
        -9.02220364436977
      ],
      [
        "Ġdisso",
        -9.02263816079295
      ],
      [
        "ber",
        -9.023679167302603
      ],
      [
        "Ġteve",
        -9.023965674666597
      ],
      [
        "UTC",
        -9.02506131510596
      ],
      [
        "ĠN",
        -9.025257118084507
      ],
      [
        "ĠPe",
        -9.025376325137833
      ],
      [
        "Ġtenho",
        -9.02549021310335
      ],
      [
        "ĠMuito",
        -9.027843459906489
      ],
      [
        "ĠGrande",
        -9.02877256723804
      ],
      [
        "13",
        -9.029807357023808
      ],
      [
        "grafo",
        -9.02981255142148
      ],
      [
        "ĠEla",
        -9.030233502693685
      ],
      [
        "ĠPi",
        -9.030997532986037
      ],
      [
        "ĠVamos",
        -9.032071992515752
      ],
      [
        "Ġnada",
        -9.032337830346384
      ],
      [
        "04",
        -9.032454087978898
      ],
      [
        "ĠSanta",
        -9.03682900690527
      ],
      [
        "Ġestou",
        -9.036919538395264
      ],
      [
        "Ġimporta",
        -9.03741572103678
      ],
      [
        "Ġcargo",
        -9.03794972021824
      ],
      [
        "ira",
        -9.038869194262151
      ],
      [
        "tulo",
        -9.039401822057604
      ],
      [
        "Ġ2011",
        -9.040022465744084
      ],
      [
        "ĠEste",
        -9.040936445067535
      ],
      [
        "Ġbrasileira",
        -9.043180238559165
      ],
      [
        "ĠJ",
        -9.04417438808429
      ],
      [
        "Ġprograma",
        -9.04682448080421
      ],
      [
        "Ġdesenvolvimento",
        -9.04781987630215
      ],
      [
        "ine",
        -9.04881336116306
      ],
      [
        "ĠPro",
        -9.051058426509638
      ],
      [
        "Ġ26",
        -9.051910376443407
      ],
      [
        "ĠDecreto",
        -9.05240795124803
      ],
      [
        "DE",
        -9.055612181373188
      ],
      [
        "gar",
        -9.057756685711734
      ],
      [
        "ĠPo",
        -9.05790238228442
      ],
      [
        "Ġconstitucional",
        -9.059168012454544
      ],
      [
        "Ġrefere",
        -9.061927939687871
      ],
      [
        "000",
        -9.062482549005509
      ],
      [
        "Ġtanto",
        -9.062964201104794
      ],
      [
        "Ġdu",
        -9.06353822836703
      ],
      [
        "Ġexiste",
        -9.066325667800248
      ],
      [
        "zar",
        -9.066708839303123
      ],
      [
        "Ġbom",
        -9.06746709183209
      ],
      [
        "Ġini",
        -9.067500554836627
      ],
      [
        "tion",
        -9.067637426155068
      ],
      [
        "Ġ2010",
        -9.069353855178171
      ],
      [
        "Ġoutra",
        -9.077609302311128
      ],
      [
        "zi",
        -9.077661793965149
      ],
      [
        "Ġvamos",
        -9.085570018604056
      ],
      [
        "MA",
        -9.085827576564974
      ],
      [
        "Ġpossi",
        -9.086421831134375
      ],
      [
        "Ġlado",
        -9.087341344351142
      ],
      [
        "ĠJaneiro",
        -9.094426934290906
      ],
      [
        "Ġpessoa",
        -9.095822992225576
      ],
      [
        "tre",
        -9.09586056177256
      ],
      [
        "Ġagosto",
        -9.096402769417672
      ],
      [
        "Ġoutubro",
        -9.096676628362244
      ],
      [
        "W",
        -9.096742930252653
      ],
      [
        "Ġprovide",
        -9.098143032958712
      ],
      [
        "ĠSi",
        -9.09866685854222
      ],
      [
        "seguranc",
        -9.098704539075989
      ],
      [
        "Ġtexto",
        -9.10187633157154
      ],
      [
        "ĠNe",
        -9.106216801774664
      ],
      [
        "Ð",
        -9.10623704768247
      ],
      [
        "Ġve",
        -9.106845913143468
      ],
      [
        "ĠBi",
        -9.109131583565514
      ],
      [
        "Ġfeito",
        -9.109528512773204
      ],
      [
        "ĠGo",
        -9.109831017647952
      ],
      [
        "Ġ2005",
        -9.110013205086712
      ],
      [
        "ĠEduardo",
        -9.11001675127267
      ],
      [
        "RIA",
        -9.110576746618657
      ],
      [
        "ment",
        -9.111824628839308
      ],
      [
        "ĠIII",
        -9.112437287109245
      ],
      [
        "ĠSala",
        -9.112930267560492
      ],
      [
        "ĠDia",
        -9.114090231531597
      ],
      [
        "Ġproduc",
        -9.114552480732268
      ],
      [
        "02",
        -9.114575133729645
      ],
      [
        "ximo",
        -9.115075630304064
      ],
      [
        "Ġcri",
        -9.119059978949569
      ],
      [
        "Ġquem",
        -9.119279226180833
      ],
      [
        "chi",
        -9.119498306798098
      ],
      [
        "ka",
        -9.11978540937074
      ],
      [
        "Ġhavia",
        -9.1219422076979
      ],
      [
        "Ġvolta",
        -9.122027250053348
      ],
      [
        "Art",
        -9.12249909604879
      ],
      [
        "nho",
        -9.125486494241644
      ],
      [
        "Ġana",
        -9.126367748253095
      ],
      [
        "2015",
        -9.126541156128294
      ],
      [
        "cho",
        -9.127214186562068
      ],
      [
        "cnica",
        -9.127643994542836
      ],
      [
        "Ġdessa",
        -9.128784489533633
      ],
      [
        "Ġabril",
        -9.130108522940532
      ],
      [
        "Ġcara",
        -9.13289460512178
      ],
      [
        "Ġpresidente",
        -9.132896728796297
      ],
      [
        "lise",
        -9.135342236504766
      ],
      [
        "mon",
        -9.13655408149718
      ],
      [
        "Ġempresas",
        -9.136634614974351
      ],
      [
        "Ġprincipal",
        -9.137797521602112
      ],
      [
        "ĠCA",
        -9.13780000716996
      ],
      [
        "14",
        -9.138804350769844
      ],
      [
        "Ġjaneiro",
        -9.13914514547788
      ],
      [
        "ĠPR",
        -9.13962159383026
      ],
      [
        "Ġhabitantes",
        -9.141818301043507
      ],
      [
        "ĠPoli",
        -9.141966766595376
      ],
      [
        "PMDB",
        -9.142619988681398
      ],
      [
        "ral",
        -9.142928192616129
      ],
      [
        "Ġestado",
        -9.14293369943706
      ],
      [
        "://",
        -9.144855257690676
      ],
      [
        "vis",
        -9.147536843660896
      ],
      [
        "Ġcrianc",
        -9.148017173234836
      ],
      [
        "Ġsemana",
        -9.148262656015245
      ],
      [
        "ĠPreside",
        -9.14894771210494
      ],
      [
        "Ġsei",
        -9.149808474962162
      ],
      [
        "Ġnovembro",
        -9.1505450916156
      ],
      [
        "DA",
        -9.150554997549472
      ],
      [
        "Ġpec",
        -9.15195726098922
      ],
      [
        "ĠPARECER",
        -9.153681504043709
      ],
      [
        "Ġvei",
        -9.154073274373191
      ],
      [
        "ticos",
        -9.155695232907284
      ],
      [
        "Ġeducac",
        -9.15802409885849
      ],
      [
        "ĠH",
        -9.162582894787816
      ],
      [
        "50",
        -9.1634397330233
      ],
      [
        "Ġsim",
        -9.164267700865592
      ],
      [
        "Ġforc",
        -9.165043867017603
      ],
      [
        "ĠAle",
        -9.16586814800399
      ],
      [
        "prio",
        -9.166444712102448
      ],
      [
        "Ġtenha",
        -9.167599732910496
      ],
      [
        "Ġ27",
        -9.168412399825568
      ],
      [
        "ĠJo",
        -9.16891585239877
      ],
      [
        "ĠCe",
        -9.171038539085892
      ],
      [
        "ĠDr",
        -9.174980262216224
      ],
      [
        "Ġexerci",
        -9.177963281608166
      ],
      [
        "Ġficar",
        -9.178115769425665
      ],
      [
        "Ġatrave",
        -9.178763345294188
      ],
      [
        "Ġfalar",
        -9.18113711608106
      ],
      [
        "questa",
        -9.181777562580264
      ],
      [
        "Ġ2013",
        -9.182298839725442
      ],
      [
        "Ġnum",
        -9.182972975226535
      ],
      [
        "Ġpodera",
        -9.188123644366982
      ],
      [
        "ĠBu",
        -9.188726041824683
      ],
      [
        "Ġjuri",
        -9.188880096952696
      ],
      [
        "Ġestamos",
        -9.189767096453808
      ],
      [
        "ĠSau",
        -9.189773234086072
      ],
      [
        "ĠKa",
        -9.190063458149622
      ],
      [
        "Ġestar",
        -9.194013039094743
      ],
      [
        "xi",
        -9.194035242691037
      ],
      [
        "ĠEssa",
        -9.194079948040466
      ],
      [
        "ĠAme",
        -9.195487155977029
      ],
      [
        "Ġdesse",
        -9.195920834897736
      ],
      [
        "gina",
        -9.196061753692195
      ],
      [
        "ĠMin",
        -9.196760677182548
      ],
      [
        "ĠTo",
        -9.19926026495581
      ],
      [
        "art",
        -9.199424367444506
      ],
      [
        "RE",
        -9.20091440059138
      ],
      [
        "ĠEmenda",
        -9.201641560067593
      ],
      [
        "sio",
        -9.203324355881987
      ],
      [
        "ner",
        -9.20511486166613
      ],
      [
        "Regimento",
        -9.205289236697547
      ],
      [
        "Ġfunc",
        -9.206074482529106
      ],
      [
        "Ġpena",
        -9.209120708574105
      ],
      [
        "Ġprova",
        -9.209302234662513
      ],
      [
        "Ġquatro",
        -9.209632831148152
      ],
      [
        "LI",
        -9.21012370395738
      ],
      [
        "ĠFranc",
        -9.210346491725678
      ],
      [
        "ĠEsse",
        -9.21179542684036
      ],
      [
        "iv",
        -9.211991616877404
      ],
      [
        "X",
        -9.212064922435648
      ],
      [
        "ĠNO",
        -9.21252841965684
      ],
      [
        "Ġvista",
        -9.213529951877597
      ],
      [
        "NA",
        -9.215282565132233
      ],
      [
        "ĠMA",
        -9.215923465195262
      ],
      [
        "ten",
        -9.21706130405782
      ],
      [
        "Ġverdade",
        -9.217745762294516
      ],
      [
        "sen",
        -9.218813083310405
      ],
      [
        "Ġenquanto",
        -9.219011509124524
      ],
      [
        "Ġir",
        -9.21991979965238
      ],
      [
        "Ġprec",
        -9.220074553569903
      ],
      [
        "rico",
        -9.220088189487248
      ],
      [
        "Ġfo",
        -9.223482297774286
      ],
      [
        "Ġrespeito",
        -9.223570169836403
      ],
      [
        "ĠAn",
        -9.224073173713672
      ],
      [
        "2013",
        -9.225179313647892
      ],
      [
        "ĠLo",
        -9.227034387927793
      ],
      [
        "Ġinstituic",
        -9.227160607725452
      ],
      [
        "ĠCar",
        -9.228102024099613
      ],
      [
        "ĠUma",
        -9.22852521358972
      ],
      [
        "Ġ2012",
        -9.228773838159032
      ],
      [
        "Ġobjetivo",
        -9.228863068045635
      ],
      [
        "Ġhora",
        -9.229960957169656
      ],
      [
        "SP",
        -9.23041830396845
      ],
      [
        "mico",
        -9.23055683424476
      ],
      [
        "Ġfevereiro",
        -9.231096950344462
      ],
      [
        "ĠCi",
        -9.231137041356703
      ],
      [
        "Ġsessa",
        -9.231900076410508
      ],
      [
        "feira",
        -9.232318105545682
      ],
      [
        "IS",
        -9.232811997088447
      ],
      [
        "Ġponto",
        -9.233337570074552
      ],
      [
        "Ġprecisa",
        -9.23347512175459
      ],
      [
        "gica",
        -9.23437064435656
      ],
      [
        "Ġdemais",
        -9.235729572526138
      ],
      [
        "Ġvota",
        -9.236401347500015
      ],
      [
        "Ġdentro",
        -9.23713670624921
      ],
      [
        "Ġ29",
        -9.237844069696592
      ],
      [
        "Ġpartido",
        -9.238416799810771
      ],
      [
        "Ġsala",
        -9.23842770261909
      ],
      [
        "Ġlocal",
        -9.238583387344509
      ],
      [
        "Ġquais",
        -9.240989865711738
      ],
      [
        "ĠBrasi",
        -9.243287777546046
      ],
      [
        "ĠMaria",
        -9.244957517937682
      ],
      [
        "Deputada",
        -9.24583530465572
      ],
      [
        "Ġhoras",
        -9.249535766258337
      ],
      [
        "Ġinteresse",
        -9.250372188583118
      ],
      [
        "Ġalgo",
        -9.250855651035634
      ],
      [
        "Ġproblema",
        -9.252022147978968
      ],
      [
        "Ġapoio",
        -9.252468188648123
      ],
      [
        "ĠInterno",
        -9.253028613772557
      ],
      [
        "DI",
        -9.253755726127231
      ],
      [
        "tima",
        -9.254946851741366
      ],
      [
        "Ġ2004",
        -9.257168856903416
      ],
      [
        "ĠGu",
        -9.258156229549964
      ],
      [
        "mor",
        -9.25911488822326
      ],
      [
        "ĠSupremo",
        -9.26110975404944
      ],
      [
        "Ġparecer",
        -9.261377430660405
      ],
      [
        "Ġmim",
        -9.26154747544957
      ],
      [
        "ran",
        -9.264886512177243
      ],
      [
        "dico",
        -9.264984542598745
      ],
      [
        "ĠEducac",
        -9.265333304532955
      ],
      [
        "Ġcu",
        -9.267091729118336
      ],
      [
        "Ġcriac",
        -9.269771303985346
      ],
      [
        "Ġtotal",
        -9.270948080128806
      ],
      [
        "Ġespecial",
        -9.271770291393173
      ],
      [
        "ante",
        -9.272097658210432
      ],
      [
        "ĠFe",
        -9.27275272115702
      ],
      [
        "2011",
        -9.273275766337967
      ],
      [
        "pro",
        -9.273834504291411
      ],
      [
        "ĠUnidos",
        -9.274572919629849
      ],
      [
        "Ġ2015",
        -9.277224172270776
      ],
      [
        "98",
        -9.27815122546933
      ],
      [
        "Ġfalta",
        -9.278956638409722
      ],
      [
        "Ġconforme",
        -9.27967605140325
      ],
      [
        "ismo",
        -9.279690541081344
      ],
      [
        "ĠEx",
        -9.28116136053058
      ],
      [
        "ĠTurma",
        -9.281534711456228
      ],
      [
        "EL",
        -9.282820574787443
      ],
      [
        "Ġnunca",
        -9.283810746254945
      ],
      [
        "ĠConselho",
        -9.285328069895767
      ],
      [
        "Ġfilme",
        -9.285857572374615
      ],
      [
        "Ġacesso",
        -9.286569252941664
      ],
      [
        "ĠNi",
        -9.288687546359082
      ],
      [
        "Ġge",
        -9.289095092871698
      ],
      [
        "poca",
        -9.289609098794235
      ],
      [
        "Ġcerca",
        -9.29048439546429
      ],
      [
        "ĠQuando",
        -9.291860988719014
      ],
      [
        "logia",
        -9.293641636471447
      ],
      [
        "Ġmercado",
        -9.293860455127524
      ],
      [
        "Ġpelas",
        -9.29537805939503
      ],
      [
        "nimo",
        -9.29563229464592
      ],
      [
        "ĠUniversidade",
        -9.295884486147296
      ],
      [
        "RI",
        -9.296159427952142
      ],
      [
        "Ġsou",
        -9.298132851578265
      ],
      [
        "Ġjogo",
        -9.298313808741328
      ],
      [
        "cil",
        -9.298951977284714
      ],
      [
        "Ġrelato",
        -9.30057643598308
      ],
      [
        "para",
        -9.303447024185012
      ],
      [
        "Ġobrigado",
        -9.30397063036031
      ],
      [
        "ke",
        -9.303982118193725
      ],
      [
        "rcio",
        -9.30486714937276
      ],
      [
        "Ġcinco",
        -9.30508252670124
      ],
      [
        "ĠSilva",
        -9.307824944844215
      ],
      [
        "97",
        -9.30922863051438
      ],
      [
        "remos",
        -9.310231992758384
      ],
      [
        "Ġ0",
        -9.310843315793086
      ],
      [
        "Ġequipe",
        -9.310875778635106
      ],
      [
        "ĠPlena",
        -9.311365235800354
      ],
      [
        "Ġga",
        -9.311827379405711
      ],
      [
        "Ġprinci",
        -9.31240563644666
      ],
      [
        "Ġdireitos",
        -9.314611163499084
      ],
      [
        "Ġfora",
        -9.31718188196087
      ],
      [
        "ĠPedro",
        -9.31732364767838
      ],
      [
        "Ġregimental",
        -9.31970356227793
      ],
      [
        "for",
        -9.321681531083524
      ],
      [
        "cula",
        -9.321830725478408
      ],
      [
        "Ġdefesa",
        -9.322365123048206
      ],
      [
        "bar",
        -9.322726983173569
      ],
      [
        "Ġsegunda",
        -9.325109449244051
      ],
      [
        "âĢĻ",
        -9.325251294821916
      ],
      [
        "Ġcrime",
        -9.32657562814771
      ],
      [
        "ĠOliveira",
        -9.327962468150712
      ],
      [
        "idades",
        -9.329105563419096
      ],
      [
        "Ġpedido",
        -9.32950931262214
      ],
      [
        "Y",
        -9.329724076902105
      ],
      [
        "Ġ2003",
        -9.330630746070527
      ],
      [
        "Ġluta",
        -9.33111374711896
      ],
      [
        "ĠTem",
        -9.331483255401244
      ],
      [
        "Ġthe",
        -9.333040029258996
      ],
      [
        "Ġkm",
        -9.333270214842807
      ],
      [
        "ju",
        -9.333508212214248
      ],
      [
        "gen",
        -9.334268625795271
      ],
      [
        "LA",
        -9.33684095515275
      ],
      [
        "tura",
        -9.336972204125296
      ],
      [
        "Ġrealizada",
        -9.337067081994372
      ],
      [
        "por",
        -9.33732137022572
      ],
      [
        "ĠTotal",
        -9.338175070995332
      ],
      [
        "Ġpesquisa",
        -9.338460127797871
      ],
      [
        "AL",
        -9.338784158897274
      ],
      [
        "cada",
        -9.33962650252414
      ],
      [
        "Ġextraordina",
        -9.339762729778656
      ],
      [
        "devido",
        -9.34051030493145
      ],
      [
        "Ġpassa",
        -9.341251064762618
      ],
      [
        "Ġmorte",
        -9.3422644047367
      ],
      [
        "len",
        -9.342656794417138
      ],
      [
        "Ġedic",
        -9.342828696156024
      ],
      [
        "Ġfazendo",
        -9.34822754464389
      ],
      [
        "Ġvem",
        -9.34980550635396
      ],
      [
        "96",
        -9.350744939749369
      ],
      [
        "Ġobjeto",
        -9.35308376502033
      ],
      [
        "Ġraza",
        -9.356015617649556
      ],
      [
        "Ġcontrato",
        -9.356050205642797
      ],
      [
        "ĠPP",
        -9.356482673645178
      ],
      [
        "ĠZ",
        -9.35897022834539
      ],
      [
        "Ġfeita",
        -9.359396616761522
      ],
      [
        "istas",
        -9.360182659086393
      ],
      [
        "Ġdispo",
        -9.362946737708835
      ],
      [
        "Ġ2014",
        -9.36330995297435
      ],
      [
        "Ġfe",
        -9.36378863282729
      ],
      [
        "Ġmeses",
        -9.366125384368477
      ],
      [
        "Executivo",
        -9.366714455130683
      ],
      [
        "Ġposic",
        -9.367409209245125
      ],
      [
        "CE",
        -9.368044882214283
      ],
      [
        "Ġorigem",
        -9.36808139160394
      ],
      [
        "pria",
        -9.369203215741292
      ],
      [
        "ĠSocial",
        -9.370661330017116
      ],
      [
        "Ġtema",
        -9.37212675181438
      ],
      [
        "qua",
        -9.372282099899031
      ],
      [
        "25",
        -9.37276630758732
      ],
      [
        "blicos",
        -9.374386353043963
      ],
      [
        "ĠThe",
        -9.37470882698575
      ],
      [
        "Ġgeral",
        -9.374792844267212
      ],
      [
        "Ġemenda",
        -9.378071534008736
      ],
      [
        "reas",
        -9.378635732204405
      ],
      [
        "ĠVa",
        -9.380541523316538
      ],
      [
        "ĠSegundo",
        -9.381213846206188
      ],
      [
        "Ġterra",
        -9.383963459240158
      ],
      [
        "ĠComunicac",
        -9.38397945290514
      ],
      [
        "Ġdados",
        -9.384894747357889
      ],
      [
        "ĠFilho",
        -9.385525991245723
      ],
      [
        "vio",
        -9.385677993427256
      ],
      [
        "ĠAgora",
        -9.386371103462205
      ],
      [
        "Ġ2016",
        -9.386683102389073
      ],
      [
        "Ġocorre",
        -9.386942192513718
      ],
      [
        "Ġinclusive",
        -9.387369904778712
      ],
      [
        "NCIA",
        -9.38785123993268
      ],
      [
        "PTB",
        -9.388176703678196
      ],
      [
        "eleic",
        -9.38852504069551
      ],
      [
        "Ġfac",
        -9.388846772145971
      ],
      [
        "Ġbo",
        -9.389470929545976
      ],
      [
        "tes",
        -9.39257581285197
      ],
      [
        "ser",
        -9.393542042746756
      ],
      [
        "Ġpossui",
        -9.393582321411284
      ],
      [
        "40",
        -9.39468189929773
      ],
      [
        "Ġfosse",
        -9.396914772145193
      ],
      [
        "ff",
        -9.39691980996073
      ],
      [
        "Ġatividades",
        -9.397783495896258
      ],
      [
        "28",
        -9.399057029051692
      ],
      [
        "SE",
        -9.399253426679053
      ],
      [
        "radiodifusa",
        -9.399515882657948
      ],
      [
        "culos",
        -9.399577660611484
      ],
      [
        "ĠRu",
        -9.400931435741224
      ],
      [
        "Ġesses",
        -9.401094726431074
      ],
      [
        "Ġpagamento",
        -9.403011341055707
      ],
      [
        "Ġquase",
        -9.403802943010255
      ],
      [
        "Ġnota",
        -9.404235897201346
      ],
      [
        "Ġlegal",
        -9.404280271725684
      ],
      [
        "Ġqualidade",
        -9.405557106126986
      ],
      [
        "Ġci",
        -9.406641853627027
      ],
      [
        "Ġalgumas",
        -9.406648388413563
      ],
      [
        "ense",
        -9.408764929703528
      ],
      [
        "Ġpossa",
        -9.40893793812012
      ],
      [
        "Ġpoderia",
        -9.409076469146624
      ],
      [
        "ard",
        -9.409391407234846
      ],
      [
        "ĠRE",
        -9.40939548873249
      ],
      [
        "bilidade",
        -9.40954511033254
      ],
      [
        "Ġproduto",
        -9.409596720000982
      ],
      [
        "Ġfala",
        -9.410939562812352
      ],
      [
        "ĠSra",
        -9.411369790710536
      ],
      [
        "Ġgra",
        -9.411610506617803
      ],
      [
        "ĠDeus",
        -9.41231171548532
      ],
      [
        "Ġnecessidade",
        -9.413174356490757
      ],
      [
        "Ġfica",
        -9.413837384821576
      ],
      [
        "AC",
        -9.414545097432908
      ],
      [
        "Ġfilho",
        -9.414803165580231
      ],
      [
        "mer",
        -9.416236844367711
      ],
      [
        "Ġminutos",
        -9.422020812373828
      ],
      [
        "ĠL",
        -9.423326349547205
      ],
      [
        "ĠApo",
        -9.42336771046465
      ],
      [
        "Ġdar",
        -9.42602252385208
      ],
      [
        "Ġparticipac",
        -9.426026271256225
      ],
      [
        "RO",
        -9.428160099837235
      ],
      [
        "ĠCie",
        -9.429239787761343
      ],
      [
        "Ġmaioria",
        -9.429592866564729
      ],
      [
        "Ġdis",
        -9.43166803245702
      ],
      [
        "Ġ(\"",
        -9.432771243467812
      ],
      [
        "Ġresponsa",
        -9.433553188885702
      ],
      [
        "Ġlinha",
        -9.433874437204462
      ],
      [
        "Ġfunciona",
        -9.434447855574696
      ],
      [
        "ura",
        -9.435229893117832
      ],
      [
        "2000",
        -9.43680560233665
      ],
      [
        ".âĢĿ",
        -9.4380529115558
      ],
      [
        "88",
        -9.438985055600272
      ],
      [
        "Ġpublicac",
        -9.440042523522
      ],
      [
        "Ġdinheiro",
        -9.440480772069654
      ],
      [
        "gia",
        -9.441207623194147
      ],
      [
        "Ġ31",
        -9.44160850671861
      ],
      [
        "Ġcerto",
        -9.441729127067225
      ],
      [
        "stica",
        -9.441732360989684
      ],
      [
        "TI",
        -9.442045215887903
      ],
      [
        "The",
        -9.442345341877406
      ],
      [
        "Ġconhecido",
        -9.442798783752906
      ],
      [
        "Ġmodo",
        -9.442852938259206
      ],
      [
        "Ġne",
        -9.442989631365611
      ],
      [
        "Ġirma",
        -9.443297943224149
      ],
      [
        "ndi",
        -9.4438655094843
      ],
      [
        "PE",
        -9.44537158356121
      ],
      [
        "US",
        -9.446928544775124
      ],
      [
        "2008",
        -9.448058301199996
      ],
      [
        "lbum",
        -9.449338058790948
      ],
      [
        "Ġboa",
        -9.449456529290336
      ],
      [
        "les",
        -9.450457378774082
      ],
      [
        "Ġmal",
        -9.450500500149372
      ],
      [
        "Ġ50",
        -9.450774479032663
      ],
      [
        "Ġrequerimento",
        -9.450917714540813
      ],
      [
        ");",
        -9.452036836896886
      ],
      [
        "AR",
        -9.452142395158814
      ],
      [
        "ĠSua",
        -9.454684274173667
      ],
      [
        "\")",
        -9.455619154261685
      ],
      [
        "ltimo",
        -9.456179235424434
      ],
      [
        "Ġnesse",
        -9.456192059306709
      ],
      [
        "Ġaumento",
        -9.456330922875496
      ],
      [
        "timo",
        -9.45966080078722
      ],
      [
        "https",
        -9.460455936749067
      ],
      [
        "Ġensino",
        -9.461013892434664
      ],
      [
        "ler",
        -9.461785427467063
      ],
      [
        "ĠGra",
        -9.4622194477015
      ],
      [
        "and",
        -9.46308724396654
      ],
      [
        "bio",
        -9.464656833709938
      ],
      [
        "Ġnuma",
        -9.464726140435856
      ],
      [
        "her",
        -9.465134000920653
      ],
      [
        "agravo",
        -9.465579973616697
      ],
      [
        "ĠEM",
        -9.465867053547663
      ],
      [
        "22",
        -9.466762607665151
      ],
      [
        "ĠNova",
        -9.46701125480204
      ],
      [
        "Ġnorte",
        -9.468285827930366
      ],
      [
        "Ġreforma",
        -9.468324842535218
      ],
      [
        "ncio",
        -9.46874946740734
      ],
      [
        "Ġformula",
        -9.469331497277675
      ],
      [
        "ĠPrograma",
        -9.47071186682202
      ],
      [
        "2007",
        -9.470917471092038
      ],
      [
        "ĠHi",
        -9.471582147677845
      ],
      [
        "Ġjunto",
        -9.47269272069809
      ],
      [
        "Ġredac",
        -9.472959725038864
      ],
      [
        "ĠParecer",
        -9.47354260564425
      ],
      [
        "Ġcampo",
        -9.473726997782745
      ],
      [
        "Ġmuitas",
        -9.474108116927816
      ],
      [
        "Ġeram",
        -9.474427273648056
      ],
      [
        "Ġlhe",
        -9.47478480338997
      ],
      [
        "Ġtal",
        -9.475334367483502
      ],
      [
        "gio",
        -9.475755196508706
      ],
      [
        "Ġgrandes",
        -9.475791083784705
      ],
      [
        "nas",
        -9.475855960616542
      ],
      [
        "Ġnoite",
        -9.476297343227255
      ],
      [
        "ĠCha",
        -9.476484894564798
      ],
      [
        "ĠAssim",
        -9.476573373512762
      ],
      [
        "ĠGe",
        -9.478464528904986
      ],
      [
        "ltima",
        -9.480120578686597
      ],
      [
        "registro",
        -9.48049860100365
      ],
      [
        "ĠLula",
        -9.481098155706396
      ],
      [
        "sia",
        -9.482588168707222
      ],
      [
        "Ġatual",
        -9.483205561284162
      ],
      [
        "ĠHisto",
        -9.483753623264317
      ],
      [
        "inha",
        -9.484195252170831
      ],
      [
        "ĠAssociac",
        -9.48443269135432
      ],
      [
        "Ġingle",
        -9.485041771399263
      ],
      [
        "Ġlegislac",
        -9.48509040794746
      ],
      [
        "Ġconstruc",
        -9.48615110019078
      ],
      [
        "Ġinter",
        -9.487069218898668
      ],
      [
        "Ġdeixa",
        -9.487152812662268
      ],
      [
        "somente",
        -9.487506309943504
      ],
      [
        "Ġoperac",
        -9.488244079670237
      ],
      [
        "Ġcompete",
        -9.488391699104763
      ],
      [
        "Ġsuperior",
        -9.489146066044572
      ],
      [
        "ĠLegislativo",
        -9.490877751294274
      ],
      [
        "entanto",
        -9.49096899400924
      ],
      [
        "bel",
        -9.491452974105382
      ],
      [
        "Ġdeixar",
        -9.49183183235384
      ],
      [
        "Ġhomem",
        -9.492927720725996
      ],
      [
        "Ġregime",
        -9.493041768780689
      ],
      [
        "ĠLocal",
        -9.493832596427763
      ],
      [
        "ĠCor",
        -9.493890244097672
      ],
      [
        "Ġessas",
        -9.494363098088945
      ],
      [
        "ĠPer",
        -9.496003962035124
      ],
      [
        "ĠY",
        -9.49648502318267
      ],
      [
        "Ġoficial",
        -9.499771876728676
      ],
      [
        "2010",
        -9.501808777980797
      ],
      [
        "27",
        -9.50225295211562
      ],
      [
        "Ġcontrole",
        -9.50329797509828
      ],
      [
        "ĠSt",
        -9.503550738648766
      ],
      [
        "Ġtarde",
        -9.5038420367932
      ],
      [
        "amos",
        -9.504890058983102
      ],
      [
        "las",
        -9.505271266816454
      ],
      [
        "ĠDEM",
        -9.505323833193652
      ],
      [
        "29",
        -9.505518590643952
      ],
      [
        "ĠFernando",
        -9.505686635919329
      ],
      [
        "Ġlongo",
        -9.50590573516628
      ],
      [
        "ĠSP",
        -9.506107159014766
      ],
      [
        "Ġsetor",
        -9.50702327591819
      ],
      [
        "Ġencontra",
        -9.5085921118658
      ],
      [
        "ĠBar",
        -9.509601477120231
      ],
      [
        "lan",
        -9.510981941968842
      ],
      [
        "Ġautor",
        -9.513361586014144
      ],
      [
        "CI",
        -9.513852952694208
      ],
      [
        "Ġ100",
        -9.51399970200741
      ],
      [
        "NO",
        -9.515524613123738
      ],
      [
        "Ġmembro",
        -9.51565222616269
      ],
      [
        "Ġbrasileiros",
        -9.515718886582214
      ],
      [
        "Ġrealizac",
        -9.51647901135166
      ],
      [
        "Ġand",
        -9.516962192605869
      ],
      [
        "ĠPA",
        -9.517348433816998
      ],
      [
        "Ġmuitos",
        -9.518570306243957
      ],
      [
        "BA",
        -9.519683595572673
      ],
      [
        "ĠTrabalho",
        -9.520125999146185
      ],
      [
        "altera",
        -9.521108940229764
      ],
      [
        "Ġorc",
        -9.521587369112977
      ],
      [
        "ĠRoberto",
        -9.521677163417166
      ],
      [
        "ly",
        -9.521705243523398
      ],
      [
        "Ġdez",
        -9.522467636942585
      ],
      [
        "ide",
        -9.522528113584888
      ],
      [
        "ĠX",
        -9.52278939338171
      ],
      [
        "ĠRi",
        -9.522994985762953
      ],
      [
        "Ġjulgamento",
        -9.524492414956915
      ],
      [
        "Ġsaber",
        -9.52543202615063
      ],
      [
        "bal",
        -9.525923626518312
      ],
      [
        "Ġpar",
        -9.528161359546216
      ],
      [
        "80",
        -9.52861405878669
      ],
      [
        "Ġpreciso",
        -9.52891407261919
      ],
      [
        "Ġmembros",
        -9.530219192671
      ],
      [
        "Ġsai",
        -9.531167431779396
      ],
      [
        "ĠMaia",
        -9.53360478251285
      ],
      [
        "Ġespac",
        -9.533971127464786
      ],
      [
        "Ġpresenc",
        -9.534568943379078
      ],
      [
        "ngua",
        -9.534772392489142
      ],
      [
        "passou",
        -9.536134649851771
      ],
      [
        "IN",
        -9.53749772595103
      ],
      [
        "land",
        -9.539597492973776
      ],
      [
        "Ġdele",
        -9.539600827507142
      ],
      [
        "ĠFo",
        -9.54104608117584
      ],
      [
        "ĠBem",
        -9.542855294564426
      ],
      [
        "eiro",
        -9.544341281017257
      ],
      [
        "Ġcorpo",
        -9.544707676287093
      ],
      [
        "ĠTra",
        -9.546048167111822
      ],
      [
        "Ġobras",
        -9.546548602947553
      ],
      [
        "36",
        -9.550200436536084
      ],
      [
        "99",
        -9.550204266358376
      ],
      [
        "mula",
        -9.55241761373941
      ],
      [
        "Ġauto",
        -9.552742540823411
      ],
      [
        "Ġenergia",
        -9.552856089518686
      ],
      [
        "46",
        -9.553145171966388
      ],
      [
        "01",
        -9.553481599470288
      ],
      [
        "ĠMan",
        -9.553749657991512
      ],
      [
        "cas",
        -9.553967564412645
      ],
      [
        "ĠPortugal",
        -9.554440608949712
      ],
      [
        "Ġbenefi",
        -9.555104244823216
      ],
      [
        "45",
        -9.555283502226414
      ],
      [
        "den",
        -9.556804677382054
      ],
      [
        "val",
        -9.556983291406022
      ],
      [
        "Ġ2017",
        -9.55735720761746
      ],
      [
        "Ġmulheres",
        -9.558433213177372
      ],
      [
        "tido",
        -9.559213344049498
      ],
      [
        "Ġacho",
        -9.559796005840466
      ],
      [
        "ĠPSB",
        -9.56006724503723
      ],
      [
        "Ġgente",
        -9.561401888821685
      ],
      [
        "sar",
        -9.562170069031286
      ],
      [
        "Ġajuda",
        -9.563055800479608
      ],
      [
        "Ġmaneira",
        -9.5642332925818
      ],
      [
        "ndia",
        -9.564383398229753
      ],
      [
        "lica",
        -9.565903421570816
      ],
      [
        "Ġeconomia",
        -9.566227721891265
      ],
      [
        "PR",
        -9.566375280797322
      ],
      [
        "Ġassunto",
        -9.56638172005721
      ],
      [
        "ĠMinas",
        -9.571117111692097
      ],
      [
        "mas",
        -9.571779859879936
      ],
      [
        "amenta",
        -9.572148802321738
      ],
      [
        "Ġdebate",
        -9.572754479498494
      ],
      [
        "ĠMesa",
        -9.57293593545062
      ],
      [
        "Í",
        -9.572954504703464
      ],
      [
        "Ġfrente",
        -9.573444335353404
      ],
      [
        "ĠPode",
        -9.5736615983204
      ],
      [
        "SA",
        -9.574593755718867
      ],
      [
        "Ġprincipalmente",
        -9.57594499720708
      ],
      [
        "gico",
        -9.576252677825702
      ],
      [
        "Ġreuni",
        -9.576349757889467
      ],
      [
        "stria",
        -9.576545615859832
      ],
      [
        "90",
        -9.577038632729645
      ],
      [
        "Ġestrutura",
        -9.5770731009393
      ],
      [
        "ON",
        -9.577428248748143
      ],
      [
        "legislativa",
        -9.578355916251027
      ],
      [
        "inho",
        -9.578377468376267
      ],
      [
        "Ġchamado",
        -9.579000909569949
      ],
      [
        "ĠEstou",
        -9.579634079403627
      ],
      [
        "Ġconjunto",
        -9.57996529626383
      ],
      [
        "35",
        -9.581794437087344
      ],
      [
        "Ġindi",
        -9.582512832721193
      ],
      [
        "ĠDesenvolvimento",
        -9.582672213625196
      ],
      [
        "OR",
        -9.58322483235555
      ],
      [
        "ÌĤ?",
        -9.583382868012576
      ],
      [
        "Ġpapel",
        -9.583869549051686
      ],
      [
        "ger",
        -9.58535209888009
      ],
      [
        "Ġforte",
        -9.585793977526786
      ],
      [
        "Ġparece",
        -9.586046049382215
      ],
      [
        "Ġproblemas",
        -9.586320437062192
      ],
      [
        "ki",
        -9.586551345413715
      ],
      [
        "ĠAnto",
        -9.586635001530158
      ],
      [
        "ĠFrancisco",
        -9.587004985861192
      ],
      [
        "56",
        -9.58721771458037
      ],
      [
        "ĠNorte",
        -9.587731378098928
      ],
      [
        "IM",
        -9.591945496055189
      ],
      [
        "2012",
        -9.59454219992144
      ],
      [
        "ĠPartido",
        -9.59482398875313
      ],
      [
        "Ġobra",
        -9.595606402498428
      ],
      [
        "reais",
        -9.5965063267807
      ],
      [
        "):",
        -9.596571378369363
      ],
      [
        "ĠEn",
        -9.597144179348904
      ],
      [
        "blicas",
        -9.599020282499836
      ],
      [
        "Ġhouve",
        -9.599778824719392
      ],
      [
        "ional",
        -9.599891025566798
      ],
      [
        "ĠAna",
        -9.600038063636704
      ],
      [
        "devera",
        -9.600217030302854
      ],
      [
        "Ġcoisas",
        -9.600709006292336
      ],
      [
        "Ġaplicac",
        -9.60092840696389
      ],
      [
        "Ġbusca",
        -9.601026124699011
      ],
      [
        "Ġatividade",
        -9.601483006057864
      ],
      [
        "26",
        -9.603584379391917
      ],
      [
        "ĠIta",
        -9.603908043306676
      ],
      [
        "ĠIV",
        -9.604068663997896
      ],
      [
        "2016",
        -9.604677758247083
      ],
      [
        "concessa",
        -9.605254778753409
      ],
      [
        "Ġcapital",
        -9.605811120994227
      ],
      [
        "Ġ2000",
        -9.606117156513454
      ],
      [
        "cial",
        -9.606502334717458
      ],
      [
        "ĠDJ",
        -9.60652731602205
      ],
      [
        "Ġbanda",
        -9.606542994369258
      ],
      [
        "60",
        -9.608837326990669
      ],
      [
        "Ġni",
        -9.609015622213182
      ],
      [
        "Ġaprovado",
        -9.60929501872707
      ],
      [
        "Ġ2019",
        -9.609883672342626
      ],
      [
        "Ġmovimento",
        -9.610277208338774
      ],
      [
        "Ġconhecimento",
        -9.610400752836805
      ],
      [
        "rus",
        -9.6111903865938
      ],
      [
        "ĠVI",
        -9.61271886471107
      ],
      [
        "Ġprofessor",
        -9.613220742420737
      ],
      [
        "Ġposso",
        -9.61362580606087
      ],
      [
        "Ġ:)",
        -9.613900403537995
      ],
      [
        "ĠSE",
        -9.615422995535448
      ],
      [
        "ã",
        -9.6159286504707
      ],
      [
        "gem",
        -9.616553339509844
      ],
      [
        "Ġefeito",
        -9.61683306515685
      ],
      [
        "Ġconstante",
        -9.618208585603805
      ],
      [
        "Ġvia",
        -9.618632793707464
      ],
      [
        "MI",
        -9.6189003060908
      ],
      [
        "Ġpequeno",
        -9.619351347743686
      ],
      [
        "agem",
        -9.61938922257574
      ],
      [
        "ĠMarco",
        -9.619616415547554
      ],
      [
        "gado",
        -9.61976131102683
      ],
      [
        "Ġembora",
        -9.619843211833697
      ],
      [
        "48",
        -9.620982178745878
      ],
      [
        "37",
        -9.621380630879507
      ],
      [
        "Ġsenhor",
        -9.62174356688374
      ],
      [
        "ras",
        -9.621927053334028
      ],
      [
        "cional",
        -9.62236122331908
      ],
      [
        "ĠSan",
        -9.622576185640574
      ],
      [
        "ĠCOM",
        -9.62384371173295
      ],
      [
        "Ġoportunidade",
        -9.624471777935533
      ],
      [
        "responsabilidade",
        -9.624603673596289
      ],
      [
        "Ġcusto",
        -9.626114340080433
      ],
      [
        "Ġorganizac",
        -9.626406101730977
      ],
      [
        "Ġaquele",
        -9.626631417438976
      ],
      [
        "Ġalguma",
        -9.62676567215622
      ],
      [
        "lidade",
        -9.627133416527537
      ],
      [
        "Ġdeveria",
        -9.6271607667348
      ],
      [
        "IC",
        -9.628096523052792
      ],
      [
        "Ġpassado",
        -9.628130611337673
      ],
      [
        "ĠTu",
        -9.630032282585828
      ],
      [
        "38",
        -9.63102982928714
      ],
      [
        "Ġalgum",
        -9.63120662582909
      ],
      [
        "COMISSA",
        -9.631224865502418
      ],
      [
        "cal",
        -9.631792876562375
      ],
      [
        "NI",
        -9.631825014491742
      ],
      [
        "ĠFu",
        -9.63185970222877
      ],
      [
        "Ġinclui",
        -9.63327765662054
      ],
      [
        "portanto",
        -9.633891510139817
      ],
      [
        "Ġaco",
        -9.634061989338957
      ],
      [
        "Ġ2020",
        -9.634353243484334
      ],
      [
        "Ġlivro",
        -9.634799075976249
      ],
      [
        "ĠAntonio",
        -9.63672267993724
      ],
      [
        "bert",
        -9.636885912916544
      ],
      [
        "ĠSecreta",
        -9.63782285441432
      ],
      [
        "Ġeletro",
        -9.638242699391958
      ],
      [
        "xima",
        -9.638359068599316
      ],
      [
        "Distrito",
        -9.638747088786124
      ],
      [
        "Q",
        -9.639695398086438
      ],
      [
        "cola",
        -9.641354928132682
      ],
      [
        "nea",
        -9.641447993384972
      ],
      [
        "ĠAc",
        -9.642279494588026
      ],
      [
        "RECURSO",
        -9.643618738385843
      ],
      [
        "Ġ2002",
        -9.643816568428525
      ],
      [
        "ador",
        -9.64466692999593
      ],
      [
        "Defesa",
        -9.645103200743938
      ],
      [
        "ĠServic",
        -9.64533218086514
      ],
      [
        "Ġcla",
        -9.645966571327907
      ],
      [
        "ida",
        -9.64633796484883
      ],
      [
        "ĠCivil",
        -9.646601653689697
      ],
      [
        "disposto",
        -9.647735629019246
      ],
      [
        "2014",
        -9.648003864333656
      ],
      [
        "zado",
        -9.649102044248025
      ],
      [
        "Ġmulher",
        -9.649356435293228
      ],
      [
        "ĠDu",
        -9.649752432739124
      ],
      [
        "aram",
        -9.65033757874156
      ],
      [
        "Ġentra",
        -9.650749331978092
      ],
      [
        "Ġcar",
        -9.651605574695102
      ],
      [
        "nel",
        -9.654321969983869
      ],
      [
        "net",
        -9.655101924958185
      ],
      [
        "dita",
        -9.65764654609349
      ],
      [
        "58",
        -9.658106698008613
      ],
      [
        "sociais",
        -9.65873847969234
      ],
      [
        "bol",
        -9.6587595100004
      ],
      [
        "ĠVice",
        -9.658879490091854
      ],
      [
        "Ġexecuc",
        -9.659055040700704
      ],
      [
        "Ġfra",
        -9.659732481108586
      ],
      [
        "ĠEMENDA",
        -9.65977462910054
      ],
      [
        "Ġ1990",
        -9.659828466650998
      ],
      [
        "fl",
        -9.66058527803214
      ],
      [
        "57",
        -9.66073955907683
      ],
      [
        "Ġpessoal",
        -9.661994501857194
      ],
      [
        "Ġcomunidade",
        -9.663921834307953
      ],
      [
        "Ġcomunicac",
        -9.664092872781335
      ],
      [
        "ĠPar",
        -9.664282162782465
      ],
      [
        "Ġmodelo",
        -9.664541970664244
      ],
      [
        "ĠTecnologia",
        -9.666236440894366
      ],
      [
        "Ġnego",
        -9.667062509168334
      ],
      [
        "izac",
        -9.66796341437981
      ],
      [
        "stico",
        -9.668476674091126
      ],
      [
        "55",
        -9.66962133401028
      ],
      [
        "PA",
        -9.669652481974346
      ],
      [
        "ĠPDT",
        -9.670599239574573
      ],
      [
        "FI",
        -9.6707501808756
      ],
      [
        "lida",
        -9.671032277806953
      ],
      [
        "Ġmudanc",
        -9.67126133346006
      ],
      [
        "ĠRosa",
        -9.671567755426665
      ],
      [
        "risco",
        -9.67156820139362
      ],
      [
        "Ġ40",
        -9.674152572073671
      ],
      [
        "Ġavanc",
        -9.675431297007725
      ],
      [
        "nessa",
        -9.67783968531722
      ],
      [
        "ĠPrimeira",
        -9.67841016140671
      ],
      [
        "Ġalcanc",
        -9.678760050491196
      ],
      [
        "Ġsuper",
        -9.67966163900445
      ],
      [
        "Â²",
        -9.679728405312169
      ],
      [
        "Ġiniciativa",
        -9.681315560017554
      ],
      [
        "q",
        -9.681800949134534
      ],
      [
        "Ġnenhum",
        -9.681837065224352
      ],
      [
        "Ġquer",
        -9.683174976396018
      ],
      [
        "Ġalta",
        -9.683408338224684
      ],
      [
        "21",
        -9.683963268048718
      ],
      [
        "possibilidade",
        -9.68456554104796
      ],
      [
        "sim",
        -9.684620101047896
      ],
      [
        "34",
        -9.68463516315964
      ],
      [
        "ĠBrasileiro",
        -9.684740809758724
      ],
      [
        "Ġho",
        -9.685219881193945
      ],
      [
        "ĠExcele",
        -9.685397859839805
      ],
      [
        "Ġescola",
        -9.685718335200384
      ],
      [
        "lt",
        -9.68642724182277
      ],
      [
        "Campeonato",
        -9.687261218186888
      ],
      [
        "ĠCorte",
        -9.68775765575825
      ],
      [
        "dic",
        -9.689636571004678
      ],
      [
        "Ġlista",
        -9.690357650076953
      ],
      [
        "Ġficou",
        -9.69049821520045
      ],
      [
        "Ġfinanceira",
        -9.690590632437328
      ],
      [
        "Ġespeci",
        -9.69064239287472
      ],
      [
        "44",
        -9.69108728704942
      ],
      [
        "LO",
        -9.691684773929254
      ],
      [
        "ĠREQUERIMENTO",
        -9.692105169308697
      ],
      [
        "Ġprojetos",
        -9.692625581063345
      ],
      [
        "prevista",
        -9.692908204596549
      ],
      [
        "Ġpropo",
        -9.692996411698308
      ],
      [
        "Ġcanc",
        -9.694467237403405
      ],
      [
        "Ġcarreira",
        -9.69673728572788
      ],
      [
        "ĠObrigado",
        -9.696766026975975
      ],
      [
        "Ġreal",
        -9.698600119486532
      ],
      [
        "sticas",
        -9.698890160989407
      ],
      [
        "ĠInstituto",
        -9.699393787754712
      ],
      [
        "Ġexpressa",
        -9.701952564369464
      ],
      [
        "DEM",
        -9.70202455017491
      ],
      [
        "dios",
        -9.702143191718594
      ],
      [
        "Ġ2001",
        -9.702249022399132
      ],
      [
        "Ġsucesso",
        -9.7025633871804
      ],
      [
        "ley",
        -9.702614061528774
      ],
      [
        "Ġtrans",
        -9.703919606829562
      ],
      [
        "sico",
        -9.704033482762588
      ],
      [
        "mbito",
        -9.704343070314096
      ],
      [
        "Ġalgue",
        -9.70506867983741
      ],
      [
        "Ġtemporada",
        -9.705223335445265
      ],
      [
        "Ġres",
        -9.706277547470266
      ],
      [
        "Ġanterior",
        -9.70674989817794
      ],
      [
        "discurso",
        -9.708374872840151
      ],
      [
        "Ġbilho",
        -9.708998119014014
      ],
      [
        "Ġterrito",
        -9.709701132243946
      ],
      [
        "Ġtornou",
        -9.711889401877814
      ],
      [
        "ĠCosta",
        -9.712219073557836
      ],
      [
        "sito",
        -9.712946003898727
      ],
      [
        "ĠNA",
        -9.71319747176783
      ],
      [
        "podemos",
        -9.7135592803306
      ],
      [
        "Ġvigor",
        -9.71375906661727
      ],
      [
        "Ġnobre",
        -9.713903819452714
      ],
      [
        "Ġfu",
        -9.71476012511522
      ],
      [
        "MENTO",
        -9.71574906723283
      ],
      [
        "Ġchega",
        -9.716840848501835
      ],
      [
        "Ġproposic",
        -9.71703643167627
      ],
      [
        "sejam",
        -9.717101227812924
      ],
      [
        "Ġrei",
        -9.717305269475876
      ],
      [
        "Ġclube",
        -9.717417377611588
      ],
      [
        "Ġmandato",
        -9.717817068224996
      ],
      [
        "ĠCunha",
        -9.71801530654605
      ],
      [
        "Ġteria",
        -9.718030411464154
      ],
      [
        "Ġpauta",
        -9.718211371899825
      ],
      [
        "Ġcampanha",
        -9.718867330589475
      ],
      [
        "Ġrepresenta",
        -9.719331675905188
      ],
      [
        "ĠRequerimento",
        -9.720785196161104
      ],
      [
        "Ġdirec",
        -9.721059188196898
      ],
      [
        "49",
        -9.722228925670937
      ],
      [
        "ĠTambe",
        -9.72297845329159
      ],
      [
        "Ġfederal",
        -9.723441905643652
      ],
      [
        "23",
        -9.723708937414608
      ],
      [
        "Ġcerteza",
        -9.723802587647366
      ],
      [
        "32",
        -9.724935967466426
      ],
      [
        "ĠDireito",
        -9.725326684118071
      ],
      [
        "Ġtransporte",
        -9.726050858085127
      ],
      [
        "59",
        -9.726364048399567
      ],
      [
        "Ġtitular",
        -9.726424865450616
      ],
      [
        "ris",
        -9.726947203645192
      ],
      [
        "39",
        -9.728093462983171
      ],
      [
        "Depois",
        -9.728777914765244
      ],
      [
        "Ġexame",
        -9.728963951227572
      ],
      [
        "Î",
        -9.729419936479395
      ],
      [
        "Ġalterac",
        -9.730087367017402
      ],
      [
        "Ġapresenta",
        -9.730653260221896
      ],
      [
        "Ġporta",
        -9.7308026626654
      ],
      [
        "Ġcentro",
        -9.732780228472995
      ],
      [
        "ĠGuerra",
        -9.734038972470394
      ],
      [
        "Ġprofissional",
        -9.734473993779648
      ],
      [
        "Ġoriginal",
        -9.735054743731403
      ],
      [
        "ĠEles",
        -9.735811067820022
      ],
      [
        "Ġvalores",
        -9.73736796262109
      ],
      [
        "Ġ2018",
        -9.737443324374928
      ],
      [
        "var",
        -9.738703223078025
      ],
      [
        "Ġacha",
        -9.739281522849764
      ],
      [
        "Ġrealizado",
        -9.740200830768812
      ],
      [
        "47",
        -9.74047374026373
      ],
      [
        "ĠTV",
        -9.74088085803437
      ],
      [
        "Ġprincipais",
        -9.740963636021151
      ],
      [
        "cias",
        -9.741887974708888
      ],
      [
        "Ġemprego",
        -9.742023191465538
      ],
      [
        "Presidente",
        -9.74210207845117
      ],
      [
        "LTIMA",
        -9.743104039340595
      ],
      [
        "ĠAG",
        -9.74312183976867
      ],
      [
        "cnico",
        -9.743159837104018
      ],
      [
        "dy",
        -9.743161860330186
      ],
      [
        "Ġatenc",
        -9.744624770877246
      ],
      [
        "Ġresultado",
        -9.74488285948138
      ],
      [
        "Ġplena",
        -9.744930888336272
      ],
      [
        "ĠPortant",
        -9.74503024994112
      ],
      [
        "ĠSecretaria",
        -9.745563384072826
      ],
      [
        "Ġpontos",
        -9.745662248969372
      ],
      [
        "dispo",
        -9.745754861260236
      ],
      [
        "á",
        -9.746534536324727
      ],
      [
        "gan",
        -9.746690690948231
      ],
      [
        "Ġpi",
        -9.747041259670738
      ],
      [
        "trica",
        -9.747380776113062
      ],
      [
        "24",
        -9.747442475907556
      ],
      [
        "Ġchegar",
        -9.748109084452611
      ],
      [
        "bil",
        -9.748742220088657
      ],
      [
        "Ġautos",
        -9.74877545243794
      ],
      [
        "Ġhaver",
        -9.749644416773364
      ],
      [
        "Ġcaminho",
        -9.749654831661756
      ],
      [
        "Ġrenda",
        -9.750526756524488
      ],
      [
        "Ġmarca",
        -9.750585547220824
      ],
      [
        "ĠEspecial",
        -9.751476534635506
      ],
      [
        "apreciac",
        -9.751819105794349
      ],
      [
        "42",
        -9.752948340082831
      ],
      [
        "Geral",
        -9.75335929083951
      ],
      [
        "Ġclaro",
        -9.753765983439123
      ],
      [
        "pt",
        -9.755379384227956
      ],
      [
        "Ġideia",
        -9.75576817473006
      ],
      [
        "Ġinstrumento",
        -9.755769170356269
      ],
      [
        "til",
        -9.756337280889609
      ],
      [
        "Ġlogo",
        -9.75662783891782
      ],
      [
        "pia",
        -9.757697135914542
      ],
      [
        "Ġcrise",
        -9.759101490479429
      ],
      [
        "Ġnatureza",
        -9.76097614625352
      ],
      [
        "ĠSA",
        -9.761255474795744
      ],
      [
        "Ġconsiderado",
        -9.762269459482184
      ],
      [
        "Ġmenor",
        -9.765782322213012
      ],
      [
        "Ġturno",
        -9.765941682386844
      ],
      [
        "Ġ1998",
        -9.766901772215087
      ],
      [
        "Ġtera",
        -9.766977945979818
      ],
      [
        "2005",
        -9.768145418432262
      ],
      [
        "Ġfase",
        -9.77045462212008
      ],
      [
        "Ġhipo",
        -9.770470443624683
      ],
      [
        "ĠHu",
        -9.77119232841248
      ],
      [
        "Ġlivre",
        -9.772403066037333
      ],
      [
        "ĠZe",
        -9.774122846842744
      ],
      [
        "Ġ54",
        -9.77418166819417
      ],
      [
        "ĠCopa",
        -9.774786806730376
      ],
      [
        "shi",
        -9.77541206039771
      ],
      [
        "ĠHenrique",
        -9.77555070990614
      ],
      [
        "ĠQuero",
        -9.775631875315907
      ],
      [
        "tic",
        -9.777221357827749
      ],
      [
        "ĠSistema",
        -9.777484226345422
      ],
      [
        "Ġcontribuic",
        -9.777710304454382
      ],
      [
        "provimento",
        -9.777738791291704
      ],
      [
        "33",
        -9.779067314574569
      ],
      [
        "ĠQuem",
        -9.77968902402344
      ],
      [
        "Ordem",
        -9.779755807750202
      ],
      [
        "ĠRicardo",
        -9.779966761064768
      ],
      [
        "ĠAndre",
        -9.780663401915294
      ],
      [
        "Ġsul",
        -9.780710598944347
      ],
      [
        "ĠAGRAV",
        -9.78080658691832
      ],
      [
        "chegou",
        -9.781912869471949
      ],
      [
        "Ġformac",
        -9.78238203577324
      ],
      [
        "ĠMIN",
        -9.782396905426245
      ],
      [
        "nada",
        -9.78280404166244
      ],
      [
        "Ġdiferentes",
        -9.783609860393984
      ],
      [
        "Ġaltera",
        -9.785234126982392
      ],
      [
        "ĠCri",
        -9.78557280298422
      ],
      [
        "Ġleva",
        -9.785864491697907
      ],
      [
        "Ġsede",
        -9.786568015888616
      ],
      [
        "Ġcontinua",
        -9.787086264104056
      ],
      [
        "ĠAlves",
        -9.78782843726238
      ],
      [
        "Ġpri",
        -9.788029332293256
      ],
      [
        "31",
        -9.788775047274548
      ],
      [
        "Ġautoria",
        -9.78934196201905
      ],
      [
        "Ġcaput",
        -9.791443131448284
      ],
      [
        "ĠBra",
        -9.7914961594905
      ],
      [
        "Ġinsta",
        -9.79247022149598
      ],
      [
        "Ġcaracteri",
        -9.793803822558193
      ],
      [
        "ĠSTF",
        -9.794170430926783
      ],
      [
        "ĠSantos",
        -9.794581018027124
      ],
      [
        "ĠMINISTR",
        -9.794585589377332
      ],
      [
        "Ġrede",
        -9.794603794914996
      ],
      [
        "Ġautoriza",
        -9.79465374998723
      ],
      [
        "mio",
        -9.795514761387546
      ],
      [
        "uma",
        -9.79596782219007
      ],
      [
        "Ġtaxa",
        -9.795984891518566
      ],
      [
        "Ġdenu",
        -9.798170882502191
      ],
      [
        "ĠPereira",
        -9.798426216219228
      ],
      [
        "Ġcategoria",
        -9.799483244860689
      ],
      [
        "Ġmar",
        -9.79981081531693
      ],
      [
        "Ġversa",
        -9.800138071098074
      ],
      [
        "Ġguerra",
        -9.800890844667816
      ],
      [
        "ex",
        -9.801603341075278
      ],
      [
        "Ġpartida",
        -9.802261887492463
      ],
      [
        "2019",
        -9.8024313804767
      ],
      [
        "ĠSanto",
        -9.802488885999532
      ],
      [
        "Ġgesta",
        -9.8038556811926
      ],
      [
        "Ġsignifica",
        -9.804033659971088
      ],
      [
        "Ġcidada",
        -9.804070632952504
      ],
      [
        "ĠDias",
        -9.804293778522494
      ],
      [
        "sal",
        -9.804358605783008
      ],
      [
        "port",
        -9.80481063266701
      ],
      [
        "Ġvisita",
        -9.80775194645376
      ],
      [
        "let",
        -9.808800802699468
      ],
      [
        "Ġcriar",
        -9.808996079665384
      ],
      [
        "Ġtorna",
        -9.809516267182175
      ],
      [
        "tem",
        -9.811155560806387
      ],
      [
        "Cidadania",
        -9.811357841263792
      ],
      [
        "SO",
        -9.811564163811312
      ],
      [
        "Ġuni",
        -9.811843774063828
      ],
      [
        "CURSO",
        -9.813091051208689
      ],
      [
        "Ġbi",
        -9.813825257190675
      ],
      [
        "ĠRel",
        -9.817330284075933
      ],
      [
        "ĠMais",
        -9.818257431313397
      ],
      [
        "Ġinternacional",
        -9.81827156740546
      ],
      [
        "Ġusua",
        -9.820096639937342
      ],
      [
        "cujo",
        -9.82035856749823
      ],
      [
        "Ġ#",
        -9.82042205370909
      ],
      [
        "Ġseis",
        -9.821230365682617
      ],
      [
        "acima",
        -9.821276535863548
      ],
      [
        "Ġconstitui",
        -9.82164497563991
      ],
      [
        "Ġpenal",
        -9.823324178102029
      ],
      [
        "ĠNos",
        -9.824573847509596
      ],
      [
        "Ġplano",
        -9.82481641135402
      ],
      [
        "Ġvisa",
        -9.82514158832524
      ],
      [
        "ĠWe",
        -9.825268118511485
      ],
      [
        "ĠPSD",
        -9.827968710054702
      ],
      [
        "Medida",
        -9.828467093688664
      ],
      [
        "Ġrecebe",
        -9.829408633825263
      ],
      [
        "Ġins",
        -9.830160527154929
      ],
      [
        "Ġdestaque",
        -9.83031155503472
      ],
      [
        "logo",
        -9.830462142209132
      ],
      [
        "Ĥ",
        -9.830630480034657
      ],
      [
        "ĠPorto",
        -9.830776326687516
      ],
      [
        "Ġautoridade",
        -9.830825412722024
      ],
      [
        "Ġcrite",
        -9.832391276732682
      ],
      [
        "Ġviole",
        -9.832656105190832
      ],
      [
        "91",
        -9.83340087279088
      ],
      [
        "Ġnorma",
        -9.833865672947312
      ],
      [
        "Ġmostra",
        -9.834625382460384
      ],
      [
        "ĠDilma",
        -9.834919315405372
      ],
      [
        "mediante",
        -9.83516450532735
      ],
      [
        "41",
        -9.835721787719196
      ],
      [
        "Ġesca",
        -9.835750365255048
      ],
      [
        "Ġdifi",
        -9.837163930534611
      ],
      [
        "Ġprotec",
        -9.8374840376299
      ],
      [
        "sur",
        -9.838197512879718
      ],
      [
        "Ġdesses",
        -9.838217530735502
      ],
      [
        "2017",
        -9.838479680673606
      ],
      [
        "Ġisto",
        -9.838892111116069
      ],
      [
        "Ġfundo",
        -9.839580356820228
      ],
      [
        "Ġeleito",
        -9.84009324793304
      ],
      [
        "ĠPE",
        -9.840131031468973
      ],
      [
        "ny",
        -9.840924997252865
      ],
      [
        "ME",
        -9.841013228152184
      ],
      [
        "ĠParlamentar",
        -9.841067868364489
      ],
      [
        "cuja",
        -9.842471498067743
      ],
      [
        "MS",
        -9.84360875625516
      ],
      [
        "ĠBanco",
        -9.84364064039482
      ],
      [
        "ĠOh",
        -9.84416274844619
      ],
      [
        "realmente",
        -9.845124946669776
      ],
      [
        "Ġatendimento",
        -9.845176626532064
      ],
      [
        "Ġinco",
        -9.84552993144395
      ],
      [
        "Ġexige",
        -9.846376125854798
      ],
      [
        "ĠSeu",
        -9.847919333852388
      ],
      [
        "Ġaquela",
        -9.848491320282063
      ],
      [
        "Ġnovos",
        -9.848674885640383
      ],
      [
        "ĠVou",
        -9.84897862504677
      ],
      [
        "53",
        -9.84973057124071
      ],
      [
        "Ġcultura",
        -9.8502074795452
      ],
      [
        "Ġindu",
        -9.851723754725214
      ],
      [
        "trabalhadores",
        -9.851874487718977
      ],
      [
        "ĠMeu",
        -9.853223417618764
      ],
      [
        "rum",
        -9.85331259583045
      ],
      [
        "61",
        -9.854436751760428
      ],
      [
        "ĠNesse",
        -9.85493470699667
      ],
      [
        "Ġpassar",
        -9.855106977819304
      ],
      [
        "Ġfl",
        -9.855634594974411
      ],
      [
        "ĠGre",
        -9.85583300477493
      ],
      [
        "Ġtrabalhos",
        -9.856392345510317
      ],
      [
        "recebeu",
        -9.856698465907035
      ],
      [
        "VI",
        -9.856957409744355
      ],
      [
        "tese",
        -9.85736130062214
      ],
      [
        "category",
        -9.85743551395917
      ],
      [
        "ĠMato",
        -9.857486958409618
      ],
      [
        "tel",
        -9.858952648121347
      ],
      [
        "ĠBrasileira",
        -9.860252568306
      ],
      [
        "ĥ",
        -9.86202434620526
      ],
      [
        "nima",
        -9.862569498864955
      ],
      [
        "Ġresposta",
        -9.862783807280094
      ],
      [
        "ĠProviso",
        -9.8633645810247
      ],
      [
        "Ġ32",
        -9.863733372539697
      ],
      [
        "Ġrazo",
        -9.864500675699531
      ],
      [
        "Ġaplica",
        -9.866028471905524
      ],
      [
        "Ġartigos",
        -9.86752617081732
      ],
      [
        "Ġatra",
        -9.8679990012884
      ],
      [
        "nero",
        -9.86897136211748
      ],
      [
        "ĠFundo",
        -9.869151994434516
      ],
      [
        "Gerais",
        -9.870064561886634
      ],
      [
        "Durante",
        -9.871575558234634
      ],
      [
        "ĠBen",
        -9.871857665527743
      ],
      [
        "Ġcapacidade",
        -9.872825156469798
      ],
      [
        "ĠMarcelo",
        -9.875257194501865
      ],
      [
        "Ġliberdade",
        -9.875396664263013
      ],
      [
        "Ġdeclarac",
        -9.875476616818345
      ],
      [
        "54",
        -9.87619160332405
      ],
      [
        "ĠEntre",
        -9.87632757497311
      ],
      [
        "PAULO",
        -9.87715594070038
      ],
      [
        "Ġqueria",
        -9.877156272689897
      ],
      [
        "Do",
        -9.87840186947575
      ],
      [
        "ĠRIC",
        -9.879631723107163
      ],
      [
        "Ġcomunita",
        -9.880100710264106
      ],
      [
        "Ġnoti",
        -9.880196380496422
      ],
      [
        "ĠEra",
        -9.88038273880089
      ],
      [
        "PP",
        -9.881389553757144
      ],
      [
        "tados",
        -9.881817184597065
      ],
      [
        "ĠBahia",
        -9.882084007979724
      ],
      [
        "vidas",
        -9.883317762337226
      ],
      [
        "ano",
        -9.884726393835724
      ],
      [
        "nior",
        -9.885090170810262
      ],
      [
        "ĠLima",
        -9.885608863629956
      ],
      [
        "Ġcriado",
        -9.88599064334599
      ],
      [
        "Ġexecutar",
        -9.886609533940364
      ],
      [
        "Ġreduc",
        -9.886694982815646
      ],
      [
        "REG",
        -9.887039330811032
      ],
      [
        "Ġmanter",
        -9.887108341044469
      ],
      [
        "Ġescrito",
        -9.88724673305256
      ],
      [
        "lei",
        -9.887651650923786
      ],
      [
        "ĠJorge",
        -9.887666836468128
      ],
      [
        "Ġgene",
        -9.88847660684026
      ],
      [
        "Ġpla",
        -9.889137965397952
      ],
      [
        "Ġcha",
        -9.889281977647007
      ],
      [
        "ĠAdministrac",
        -9.889308835471718
      ],
      [
        "Ġsoluc",
        -9.889568558552911
      ],
      [
        "Ġdiversos",
        -9.889670391001792
      ],
      [
        "Ġterceiro",
        -9.88989705687058
      ],
      [
        "ĠAte",
        -9.89124912036059
      ],
      [
        "Ġhe",
        -9.892222020726022
      ],
      [
        "ĠInter",
        -9.89233820827582
      ],
      [
        "Ġvotar",
        -9.892488366381516
      ],
      [
        "Ġhomens",
        -9.892916075547356
      ],
      [
        "Ġhomenage",
        -9.8931042048972
      ],
      [
        "Ġ60",
        -9.893176499728837
      ],
      [
        "ĠSENHOR",
        -9.893511962294246
      ],
      [
        "Ġsol",
        -9.894346157373796
      ],
      [
        "Ġambiente",
        -9.89489055806353
      ],
      [
        "Ġincluindo",
        -9.895241959133337
      ],
      [
        "Ġmaterial",
        -9.895520802348578
      ],
      [
        "ĠComiss",
        -9.895675140689542
      ],
      [
        "ĠMundial",
        -9.895922907595551
      ],
      [
        "Ġconstrui",
        -9.89639480470966
      ],
      [
        "reunia",
        -9.897152970527586
      ],
      [
        "rte",
        -9.897266347447136
      ],
      [
        "doenc",
        -9.8973136298393
      ],
      [
        "Ġchamada",
        -9.897771936329494
      ],
      [
        "ĠVale",
        -9.897854059224995
      ],
      [
        "Ġdiretor",
        -9.90021729639358
      ],
      [
        "Ġ1997",
        -9.90036802895048
      ],
      [
        "ĠCO",
        -9.900882613789427
      ],
      [
        "ĠCons",
        -9.90220269971386
      ],
      [
        "Ġapresentado",
        -9.902685111361954
      ],
      [
        "log",
        -9.904171187077688
      ],
      [
        "Ġproviso",
        -9.904318673815364
      ],
      [
        "ty",
        -9.905971165565932
      ],
      [
        "the",
        -9.906400976927952
      ],
      [
        "serem",
        -9.906640518890413
      ],
      [
        "2006",
        -9.906973455685264
      ],
      [
        "Ġmilitar",
        -9.907732594577524
      ],
      [
        "Ġprofissionais",
        -9.90875171389178
      ],
      [
        "ĠInternacional",
        -9.90888015329985
      ],
      [
        "Ainda",
        -9.908886303470275
      ],
      [
        "Ġestudo",
        -9.909707198826558
      ],
      [
        "ltimos",
        -9.909867783931656
      ],
      [
        "Ġdiversas",
        -9.909920834501817
      ],
      [
        "ĠâĢĺ",
        -9.91109917299284
      ],
      [
        "Ġamor",
        -9.911104488494422
      ],
      [
        "Apensa",
        -9.911701946281124
      ],
      [
        "rcito",
        -9.911778242535016
      ],
      [
        "ĠMendes",
        -9.91222147176402
      ],
      [
        "ĠCla",
        -9.912965743086994
      ],
      [
        "ite",
        -9.913655202164126
      ],
      [
        "servidores",
        -9.913936747850832
      ],
      [
        "Ġcivil",
        -9.914018215403786
      ],
      [
        "Ġsolicita",
        -9.91444805751017
      ],
      [
        "Ġcena",
        -9.91471218566376
      ],
      [
        "mentos",
        -9.915040917506206
      ],
      [
        "ĠCan",
        -9.915111588952463
      ],
      [
        "tratamento",
        -9.91597906137638
      ],
      [
        "Ġdeles",
        -9.91704274718526
      ],
      [
        "ble",
        -9.917787202811612
      ],
      [
        "ĠTudo",
        -9.918797626741856
      ],
      [
        "pido",
        -9.918842335528272
      ],
      [
        "Ġafirma",
        -9.919806685375828
      ],
      [
        "dora",
        -9.922664896819136
      ],
      [
        "Ġextra",
        -9.922766910780645
      ],
      [
        "Ġju",
        -9.923077089898246
      ],
      [
        "Ġamigo",
        -9.923362699838073
      ],
      [
        "ĠJe",
        -9.923700557575948
      ],
      [
        "Ġreceber",
        -9.92531351252589
      ],
      [
        "Ġfins",
        -9.92554157858525
      ],
      [
        "by",
        -9.926978087943809
      ],
      [
        "ĠRJ",
        -9.928085529402582
      ],
      [
        "gostaria",
        -9.928589101018128
      ],
      [
        "Ġtri",
        -9.92862987030514
      ],
      [
        "dura",
        -9.928654171706954
      ],
      [
        "PCdoB",
        -9.929616822112434
      ],
      [
        "ĠBA",
        -9.92971528708742
      ],
      [
        "ĠInforma",
        -9.929850783402845
      ],
      [
        "ĠGovernador",
        -9.930415122186869
      ],
      [
        "Ġfundamental",
        -9.930719881740115
      ],
      [
        "Ġcumprimento",
        -9.930814046326748
      ],
      [
        "ssimo",
        -9.931993192093898
      ],
      [
        "Ġgarantia",
        -9.932533685698766
      ],
      [
        "NC",
        -9.932644369732904
      ],
      [
        "ĠADV",
        -9.93278164097402
      ],
      [
        "ĠAL",
        -9.932961208386187
      ],
      [
        "ĠVoss",
        -9.933249650325862
      ],
      [
        "Ġfuturo",
        -9.934444711306345
      ],
      [
        "Ġfavora",
        -9.935912750173427
      ],
      [
        "van",
        -9.936363492601258
      ],
      [
        "Ġnovas",
        -9.936776310895947
      ],
      [
        "AI",
        -9.937339577469968
      ],
      [
        "ĠCE",
        -9.938157425045116
      ],
      [
        "ĠParana",
        -9.938644752328292
      ],
      [
        "ĠSesso",
        -9.939170504170193
      ],
      [
        "oli",
        -9.939749061474586
      ],
      [
        "Ġmotivo",
        -9.939816937859684
      ],
      [
        "Ġcompra",
        -9.940011419238882
      ],
      [
        "Ġarma",
        -9.941613092443973
      ],
      [
        "pronunciamento",
        -9.943287257971122
      ],
      [
        "Ġpaciente",
        -9.94401428112232
      ],
      [
        "94",
        -9.945446711330272
      ],
      [
        "Ġdaquel",
        -9.945646830568396
      ],
      [
        "Ġaudie",
        -9.94649667153033
      ],
      [
        "Ġinstitui",
        -9.94653076320162
      ],
      [
        "\",\"",
        -9.94662848026198
      ],
      [
        "Ġgrave",
        -9.947152308479644
      ],
      [
        "Ġevento",
        -9.94740291271702
      ],
      [
        "ang",
        -9.947410171135513
      ],
      [
        "..............",
        -9.948245603557387
      ],
      [
        "Of",
        -9.948619676581554
      ],
      [
        "Ġnenhuma",
        -9.9490648614879
      ],
      [
        "NTE",
        -9.949077052874957
      ],
      [
        "Ġjornal",
        -9.949241509218323
      ],
      [
        "ĠEd",
        -9.950188748286838
      ],
      [
        "Ġacaba",
        -9.951322966726384
      ],
      [
        "Ġmuita",
        -9.951436060482044
      ],
      [
        "ĠOfi",
        -9.952675138140084
      ],
      [
        "Ġadministrac",
        -9.95352289111588
      ],
      [
        "Ġliga",
        -9.953870617788
      ],
      [
        "Ġalto",
        -9.954600456566904
      ],
      [
        "ĠPEC",
        -9.955244363202649
      ],
      [
        "Ġcombate",
        -9.955490286390232
      ],
      [
        "Ġlu",
        -9.955841820911466
      ],
      [
        "Ġtributa",
        -9.955975787170152
      ],
      [
        "ĠSuperior",
        -9.956291389497352
      ],
      [
        "Ġapresentar",
        -9.956481752595582
      ],
      [
        "Ġob",
        -9.956513186920835
      ],
      [
        "Ġnatural",
        -9.957193245676786
      ],
      [
        "Ġcrescimento",
        -9.958358835713652
      ],
      [
        "ĠFA",
        -9.959075184276038
      ],
      [
        "ĠAcho",
        -9.959334301549813
      ],
      [
        "Ġcabe",
        -9.960381843894828
      ],
      [
        "entidades",
        -9.960540004118968
      ],
      [
        "ĠEcono",
        -9.960635710012282
      ],
      [
        "ĠCentro",
        -9.962367159784208
      ],
      [
        "ĠMari",
        -9.962841797093668
      ],
      [
        "ĠBel",
        -9.963090342930268
      ],
      [
        "Ġcerta",
        -9.963197697749392
      ],
      [
        "isto",
        -9.963251525894046
      ],
      [
        "ĠPri",
        -9.963408118919585
      ],
      [
        "metros",
        -9.96350449997944
      ],
      [
        "Ġ1999",
        -9.96504488748304
      ],
      [
        "Ġusado",
        -9.965300471843394
      ],
      [
        "Ġdispositivo",
        -9.96644168393878
      ],
      [
        "Ġningue",
        -9.96675905765698
      ],
      [
        "Ġsonora",
        -9.966792352101349
      ],
      [
        "iam",
        -9.967194699180606
      ],
      [
        "95",
        -9.96735682256555
      ],
      [
        "Ġapresentac",
        -9.967624651168896
      ],
      [
        "Ġvir",
        -9.96782000781129
      ],
      [
        "EXTRAORDINA",
        -9.968084174502524
      ],
      [
        "Ġsimples",
        -9.96944591822319
      ],
      [
        "vos",
        -9.969872635543432
      ],
      [
        "Ġusar",
        -9.970571125609244
      ],
      [
        "ĠVoto",
        -9.971504505185326
      ],
      [
        "Ġcontar",
        -9.971668222118367
      ],
      [
        "ĠAqui",
        -9.972469485058552
      ],
      [
        "ĠPmdbP",
        -9.9726138369628
      ],
      [
        "Ġanu",
        -9.974048850596349
      ],
      [
        "tecnologia",
        -9.974214437853588
      ],
      [
        "Ġbu",
        -9.974514599087238
      ],
      [
        "Ġvito",
        -9.974723335854325
      ],
      [
        "Ġusa",
        -9.97478505086658
      ],
      [
        "Ġautorizac",
        -9.975374496968213
      ],
      [
        "Ġimposto",
        -9.97550667813668
      ],
      [
        "Ġfilhos",
        -9.976519692254852
      ],
      [
        "Ġajudar",
        -9.976840778665418
      ],
      [
        "ĠCON",
        -9.976850169601873
      ],
      [
        "tando",
        -9.976888895287455
      ],
      [
        "Ġtu",
        -9.977746076802369
      ],
      [
        "ĠME",
        -9.978294038516731
      ],
      [
        "ĠCampos",
        -9.979061659017775
      ],
      [
        "Ġconti",
        -9.979208578872028
      ],
      [
        "Ltd",
        -9.979422805462562
      ],
      [
        "substituic",
        -9.98425350555365
      ],
      [
        "ĠKi",
        -9.984749277959306
      ],
      [
        "Ġvo",
        -9.9853040487759
      ],
      [
        "cita",
        -9.985736882623367
      ],
      [
        "Ġefetiva",
        -9.985897376851828
      ],
      [
        "Â",
        -9.987030059719306
      ],
      [
        "Ġestabelece",
        -9.987117688663725
      ],
      [
        "CO",
        -9.987133577358458
      ],
      [
        "Ġconsegui",
        -9.987578079852142
      ],
      [
        "Ġarti",
        -9.98799200030935
      ],
      [
        "Hoje",
        -9.988048153423051
      ],
      [
        "Ġprestac",
        -9.98848202120681
      ],
      [
        "Ġvisto",
        -9.988766743090626
      ],
      [
        "ĠTodos",
        -9.988900276216691
      ],
      [
        "ĠRoma",
        -9.989071055309406
      ],
      [
        "Ġdespes",
        -9.989095059345509
      ],
      [
        "Anexo",
        -9.991349755160224
      ],
      [
        "ĠIgreja",
        -9.992167298244812
      ],
      [
        "Ñ",
        -9.992306284058497
      ],
      [
        "Ġdisputa",
        -9.99261077676391
      ],
      [
        "bli",
        -9.993709991921836
      ],
      [
        "43",
        -9.993772379977983
      ],
      [
        "93",
        -9.99385179670594
      ],
      [
        "ĠNu",
        -9.994182294110807
      ],
      [
        "Ġreceita",
        -9.994293469835691
      ],
      [
        "â",
        -9.994528122508385
      ],
      [
        "nsito",
        -9.995128882298422
      ],
      [
        "Ġmeus",
        -9.995582403033255
      ],
      [
        "bin",
        -9.99833497365724
      ],
      [
        "Ġdiferenc",
        -9.998367399292698
      ],
      [
        "Ġdiante",
        -9.998462729504828
      ],
      [
        "Ġestavam",
        -9.998964821514338
      ],
      [
        "lado",
        -9.999304859491636
      ],
      [
        "line",
        -9.999540955419716
      ],
      [
        "designado",
        -9.99957603283614
      ],
      [
        "Ġlevar",
        -10.000908867713322
      ],
      [
        "Ġespecialmente",
        -10.00115772749473
      ],
      [
        "Ġ37",
        -10.001556550517854
      ],
      [
        "PFL",
        -10.003322154176006
      ],
      [
        "Ġconquista",
        -10.006141673091609
      ],
      [
        "Ġconhecida",
        -10.006258695711992
      ],
      [
        "ĠSou",
        -10.00628056841904
      ],
      [
        "juridicidade",
        -10.00675867167531
      ],
      [
        "Lei",
        -10.00736379158076
      ],
      [
        "ĠBer",
        -10.007613567031438
      ],
      [
        "ĠCultura",
        -10.008024987570266
      ],
      [
        "Ġinvesti",
        -10.008173263835031
      ],
      [
        "Ġcurso",
        -10.008260747773084
      ],
      [
        "Ġfutebol",
        -10.008725690330168
      ],
      [
        "devem",
        -10.009003031744909
      ],
      [
        "tivos",
        -10.00933383446026
      ],
      [
        "Ġtermo",
        -10.009471873518295
      ],
      [
        "ĠSrÂª",
        -10.00958228897435
      ],
      [
        "ĠFEDERAL",
        -10.009857428426614
      ],
      [
        "Ġprogramas",
        -10.009957277401062
      ],
      [
        "ĠTerra",
        -10.011236828614368
      ],
      [
        "RJ",
        -10.011356985042244
      ],
      [
        "pp",
        -10.011765652575535
      ],
      [
        "Tenho",
        -10.011835748011066
      ],
      [
        "ĠTemer",
        -10.01208806631153
      ],
      [
        "Ġpopular",
        -10.012972328966322
      ],
      [
        "Ġconte",
        -10.013152739056212
      ],
      [
        "2003",
        -10.013186237346758
      ],
      [
        "Ġcabec",
        -10.013460329344968
      ],
      [
        "prisa",
        -10.013856288049364
      ],
      [
        "URMA",
        -10.015271796535252
      ],
      [
        "zes",
        -10.016354599992653
      ],
      [
        "NT",
        -10.016729299673765
      ],
      [
        "ĠAta",
        -10.01676515482652
      ],
      [
        "ĠDep",
        -10.016791936176984
      ],
      [
        "normas",
        -10.019111924391025
      ],
      [
        "Ġfilha",
        -10.01944636337125
      ],
      [
        "Ġrevista",
        -10.01959570847458
      ],
      [
        "Ġbastante",
        -10.019709098495044
      ],
      [
        "ĠRibeiro",
        -10.020960707967694
      ],
      [
        "Ġelas",
        -10.022172213767352
      ],
      [
        "Ġhi",
        -10.022457539139884
      ],
      [
        "Ġvale",
        -10.023604806999664
      ],
      [
        "ĠBom",
        -10.023792840569504
      ],
      [
        "Ġconteu",
        -10.024873106913477
      ],
      [
        "ĠChe",
        -10.025602760021243
      ],
      [
        "meros",
        -10.025944938113982
      ],
      [
        "Ġrealidade",
        -10.026440259786389
      ],
      [
        "Ġimportantes",
        -10.026865477219376
      ],
      [
        "Ġaprovada",
        -10.026912233193803
      ],
      [
        "Ġpublicado",
        -10.027198337920762
      ],
      [
        "Ġcarta",
        -10.027620377543794
      ],
      [
        "Ġtais",
        -10.027886238092306
      ],
      [
        "Ġinflue",
        -10.028319133652676
      ],
      [
        "afirmou",
        -10.029069528380765
      ],
      [
        "Ġrepresentante",
        -10.029374207569631
      ],
      [
        "ĠFla",
        -10.030565888232816
      ],
      [
        "Ġgarantir",
        -10.031457307724022
      ],
      [
        "instalac",
        -10.031478484815947
      ],
      [
        "ĠTrata",
        -10.031967225260631
      ],
      [
        "Ġ33",
        -10.032279296933597
      ],
      [
        "Ġvenda",
        -10.032536345002423
      ],
      [
        "press",
        -10.03262817917475
      ],
      [
        "Ġcomum",
        -10.033224212246196
      ],
      [
        "Ġexe",
        -10.03374774685314
      ],
      [
        "GE",
        -10.035037037950485
      ],
      [
        "Ġnovamente",
        -10.035170805346
      ],
      [
        "ficas",
        -10.035516936201544
      ],
      [
        "ĠTri",
        -10.035614979843496
      ],
      [
        "ssem",
        -10.03571453628427
      ],
      [
        "Ġmissa",
        -10.037141939734944
      ],
      [
        "atuac",
        -10.038980769470186
      ],
      [
        "ĠTre",
        -10.03898925650723
      ],
      [
        "jovens",
        -10.03963384983605
      ],
      [
        "voca",
        -10.040500725690954
      ],
      [
        "posic",
        -10.04098335323816
      ],
      [
        "Ġide",
        -10.04102411031976
      ],
      [
        "Ġdepende",
        -10.041121937498962
      ],
      [
        "Ġclasse",
        -10.041444546757551
      ],
      [
        "ĠEi",
        -10.041449308429527
      ],
      [
        "Ġsair",
        -10.041465338218249
      ],
      [
        "Ġassiste",
        -10.042045761557654
      ],
      [
        "ĠSegunda",
        -10.043064333248262
      ],
      [
        "ĠJohn",
        -10.044187868755134
      ],
      [
        "Ġcienti",
        -10.044956133581287
      ],
      [
        "rgio",
        -10.045261817599194
      ],
      [
        "âĢĳ",
        -10.045754909064565
      ],
      [
        "Ġ&",
        -10.046254720430523
      ],
      [
        "Ġtrabalhar",
        -10.048180404536504
      ],
      [
        "Ġfiscal",
        -10.04902122472874
      ],
      [
        "IA",
        -10.04904108822922
      ],
      [
        "Ġseguida",
        -10.04913675870617
      ],
      [
        "Pen",
        -10.04988375259323
      ],
      [
        "ĠDiretor",
        -10.050081108608063
      ],
      [
        "ĠBR",
        -10.050360744721912
      ],
      [
        "ĠCu",
        -10.05115444900387
      ],
      [
        "ĠMac",
        -10.051371086412836
      ],
      [
        "Ġepiso",
        -10.051533743001196
      ],
      [
        "Ġalema",
        -10.051905747870649
      ],
      [
        "Ġcria",
        -10.052036453728409
      ],
      [
        "Ġcorre",
        -10.053001285367092
      ],
      [
        "micos",
        -10.05404455634632
      ],
      [
        "tividade",
        -10.054357825257329
      ],
      [
        "Ġfonte",
        -10.054387468145238
      ],
      [
        "Ġvoltar",
        -10.054395767121616
      ],
      [
        "Ġora",
        -10.054790300393508
      ],
      [
        "Ġbe",
        -10.056901201049234
      ],
      [
        "Ġmante",
        -10.057395221676872
      ],
      [
        "RS",
        -10.058205381280956
      ],
      [
        "Ġquesto",
        -10.05840234948203
      ],
      [
        "ĠComplementar",
        -10.058637844931146
      ],
      [
        "Ġopera",
        -10.059472867322167
      ],
      [
        "]",
        -10.06095861126387
      ],
      [
        "bancada",
        -10.060959732181166
      ],
      [
        "Ġpropriedade",
        -10.060967456542832
      ],
      [
        "Ġministro",
        -10.061018002673046
      ],
      [
        "Ġ35",
        -10.064033594044036
      ],
      [
        "Ġrevela",
        -10.06415386835626
      ],
      [
        "produtos",
        -10.064971191013004
      ],
      [
        "GO",
        -10.065004995481743
      ],
      [
        "Ġbeneficia",
        -10.065093980592923
      ],
      [
        "Ġpequena",
        -10.06524199808983
      ],
      [
        "Ġportugue",
        -10.066536764259176
      ],
      [
        "ker",
        -10.066543841660769
      ],
      [
        "Ġsuficiente",
        -10.06697215420455
      ],
      [
        "ĠTom",
        -10.067768149481452
      ],
      [
        "Ġdeputado",
        -10.068010784905583
      ],
      [
        "CH",
        -10.069340999164652
      ],
      [
        "Ġprejui",
        -10.06958365671955
      ],
      [
        "Ġ1996",
        -10.07066558648088
      ],
      [
        "CIA",
        -10.071883588316457
      ],
      [
        "Ġcandidato",
        -10.071960267939094
      ],
      [
        "ĠEuropa",
        -10.07209305998732
      ],
      [
        "Ġvige",
        -10.07226247768414
      ],
      [
        "Ġentrar",
        -10.072275973674683
      ],
      [
        "ĠTer",
        -10.072690299849391
      ],
      [
        "AgR",
        -10.072788170912125
      ],
      [
        "Ġbaixa",
        -10.07292110210438
      ],
      [
        "ĠOrc",
        -10.07330699714118
      ],
      [
        "2004",
        -10.073662568911637
      ],
      [
        "Ġexperie",
        -10.074031745733093
      ],
      [
        "Ġquadro",
        -10.074148508977093
      ],
      [
        "riz",
        -10.074574453952213
      ],
      [
        "deixou",
        -10.07527601200036
      ],
      [
        "tenham",
        -10.075321249091813
      ],
      [
        "ĠSub",
        -10.075557376835755
      ],
      [
        "Ġobrigac",
        -10.076222341112766
      ],
      [
        "Ġantigo",
        -10.076596947552058
      ],
      [
        "ĠEscola",
        -10.077841511335263
      ],
      [
        "AM",
        -10.077924798284064
      ],
      [
        "Ġoutorga",
        -10.078699138466614
      ],
      [
        "Ġencontrar",
        -10.079500238339442
      ],
      [
        "ĠEl",
        -10.079597708649263
      ],
      [
        "entendimento",
        -10.079685369061972
      ],
      [
        "han",
        -10.079816632538703
      ],
      [
        "ĠRelato",
        -10.08013956408368
      ],
      [
        "GL",
        -10.080188490205904
      ],
      [
        "å",
        -10.08141361353602
      ],
      [
        "Ġfaixa",
        -10.08153214496781
      ],
      [
        "Ġchama",
        -10.081545381030043
      ],
      [
        "ĠDOS",
        -10.081566983931513
      ],
      [
        "ĠChi",
        -10.081706097267723
      ],
      [
        "ndice",
        -10.082237361275578
      ],
      [
        "Ġdever",
        -10.083294940535785
      ],
      [
        "ini",
        -10.083682490294102
      ],
      [
        "Ġsite",
        -10.084310491173945
      ],
      [
        "ĠFor",
        -10.08550984391597
      ],
      [
        "Ġrel",
        -10.08582023656582
      ],
      [
        "ias",
        -10.087683041469612
      ],
      [
        "Substitutivo",
        -10.087773622115344
      ],
      [
        "Ġdisco",
        -10.08840342927333
      ],
      [
        "ĠAmazo",
        -10.088464654136342
      ],
      [
        "lares",
        -10.08931013960869
      ],
      [
        "entidade",
        -10.089339408169522
      ],
      [
        "ģ",
        -10.089884985566622
      ],
      [
        "Certo",
        -10.09055050839834
      ],
      [
        "Ġperda",
        -10.090682348741137
      ],
      [
        "SC",
        -10.090800002083496
      ],
      [
        "ĠPenal",
        -10.091982431752395
      ],
      [
        "Portaria",
        -10.092060602315776
      ],
      [
        "Ġbaixo",
        -10.094120396080006
      ],
      [
        "distribuic",
        -10.095478836940918
      ],
      [
        "conformidade",
        -10.100039904622964
      ],
      [
        "Ġaconteceu",
        -10.100207484215794
      ],
      [
        "tulos",
        -10.100405112397846
      ],
      [
        "Ġdessas",
        -10.101051931285433
      ],
      [
        "Mar",
        -10.10121406855858
      ],
      [
        "ĠSU",
        -10.102793060589308
      ],
      [
        "Ġdemanda",
        -10.103050402361983
      ],
      [
        "previsto",
        -10.103418182135805
      ],
      [
        "Ġaprova",
        -10.103675939976652
      ],
      [
        "Ġcolocar",
        -10.10387053090611
      ],
      [
        "locais",
        -10.103991361355716
      ],
      [
        "ĠSp",
        -10.104409101604054
      ],
      [
        "PtbP",
        -10.10446945193848
      ],
      [
        "Ġreserva",
        -10.104643914874906
      ],
      [
        "Ġpermite",
        -10.104660950743437
      ],
      [
        "Ġtratar",
        -10.104848725621869
      ],
      [
        "INA",
        -10.10495165257318
      ],
      [
        "Ġindependente",
        -10.105397265727277
      ],
      [
        "ngel",
        -10.105997147071482
      ],
      [
        "dez",
        -10.10675994548558
      ],
      [
        "ting",
        -10.107575472001262
      ],
      [
        "Ġigual",
        -10.109032950240044
      ],
      [
        "Ġacerca",
        -10.111609760391625
      ],
      [
        "PSOL",
        -10.115012648950444
      ],
      [
        "ĠComunita",
        -10.115414944508508
      ],
      [
        "Ġtelevisa",
        -10.11551393953824
      ],
      [
        "talvez",
        -10.115833672710249
      ],
      [
        "Ġregra",
        -10.117800577432778
      ],
      [
        "Ġcompro",
        -10.118405076116334
      ],
      [
        "cido",
        -10.11967272505095
      ],
      [
        "ĠJU",
        -10.120323875447488
      ],
      [
        "Ġtornar",
        -10.122394844395698
      ],
      [
        "entrada",
        -10.1233664435704
      ],
      [
        "Ġ38",
        -10.123406138254536
      ],
      [
        "PRB",
        -10.123774052659115
      ],
      [
        "ĠSal",
        -10.125072914719004
      ],
      [
        "ĠPU",
        -10.12513963071626
      ],
      [
        "ĠPRO",
        -10.127183503576632
      ],
      [
        "Ġabertura",
        -10.127957944138338
      ],
      [
        "zada",
        -10.128086829161374
      ],
      [
        "ĠPrimeiro",
        -10.12847048982268
      ],
      [
        "Ġordina",
        -10.12851436967486
      ],
      [
        "Ġesforc",
        -10.128971292844373
      ],
      [
        "manutenc",
        -10.1296486642266
      ],
      [
        "Ġ70",
        -10.130278695888816
      ],
      [
        "Ġparticipar",
        -10.130921523370668
      ],
      [
        "Ġpermiti",
        -10.132565532769148
      ],
      [
        "Ġestu",
        -10.133253569681342
      ],
      [
        "Ġluz",
        -10.133267341857495
      ],
      [
        "sicas",
        -10.133709287710085
      ],
      [
        "Ġcontinuar",
        -10.134022480942628
      ],
      [
        "ĠVal",
        -10.134848597654775
      ],
      [
        "maiores",
        -10.135151478160008
      ],
      [
        "Ġjogos",
        -10.13633895624582
      ],
      [
        "Ġdireta",
        -10.136642649699825
      ],
      [
        "Ġmulta",
        -10.138176623341208
      ],
      [
        "Ġbens",
        -10.13888527257128
      ],
      [
        "Ġalega",
        -10.139712304254946
      ],
      [
        "ĠGil",
        -10.139973615310256
      ],
      [
        "ĠPOR",
        -10.14000448940332
      ],
      [
        "...............",
        -10.140010102558074
      ],
      [
        "Ġtime",
        -10.141080812023556
      ],
      [
        "Ġlimite",
        -10.141845708974833
      ],
      [
        "52",
        -10.142512886937528
      ],
      [
        "Ġause",
        -10.143915810962437
      ],
      [
        "Ġinvestigac",
        -10.144818983767406
      ],
      [
        "ĠProcesso",
        -10.145104885803692
      ],
      [
        "ĠTrans",
        -10.14638047363724
      ],
      [
        "ĠMal",
        -10.147412797829611
      ],
      [
        "Ġprovi",
        -10.147615680442147
      ],
      [
        "Ġamigos",
        -10.147804584483422
      ],
      [
        "Ġerro",
        -10.14812627347282
      ],
      [
        "inclusa",
        -10.149673144465751
      ],
      [
        "Ġcento",
        -10.151410885037858
      ],
      [
        "Prefeito",
        -10.152169718012772
      ],
      [
        "Ġpergunta",
        -10.152295277836249
      ],
      [
        "legais",
        -10.153398822763936
      ],
      [
        "LIO",
        -10.154391768758806
      ],
      [
        "Ġdisposic",
        -10.15528593539543
      ],
      [
        "Ġapresentada",
        -10.155508796828672
      ],
      [
        "ĠCentral",
        -10.156060295185975
      ],
      [
        "Ġinforma",
        -10.156667801216116
      ],
      [
        "PSC",
        -10.157271735189031
      ],
      [
        "lias",
        -10.157598516999988
      ],
      [
        "RES",
        -10.158374450629502
      ],
      [
        "Ġtribuna",
        -10.158422645569903
      ],
      [
        "apesar",
        -10.15891515374277
      ],
      [
        "plica",
        -10.159151028622846
      ],
      [
        "Ġcolega",
        -10.159518771421263
      ],
      [
        "Ġdecidi",
        -10.159655781467055
      ],
      [
        "ĠGeral",
        -10.159835935907534
      ],
      [
        "Ġespi",
        -10.160021756467968
      ],
      [
        "ku",
        -10.160084054569037
      ],
      [
        "pida",
        -10.160262303797357
      ],
      [
        "gerac",
        -10.161033583456666
      ],
      [
        "cimento",
        -10.161821269934698
      ],
      [
        "Ġsofre",
        -10.161917499675676
      ],
      [
        "Ġcomercial",
        -10.162240702979794
      ],
      [
        "Ġsustenta",
        -10.16312362631662
      ],
      [
        "Ġdecreta",
        -10.163123978740652
      ],
      [
        "ĠJOSE",
        -10.164522405382163
      ],
      [
        "Ġdocumentos",
        -10.164813044259876
      ],
      [
        "ĠPROPOSI",
        -10.165312883844877
      ],
      [
        "ĠUS",
        -10.166281296749755
      ],
      [
        "Ġinterna",
        -10.166408727534952
      ],
      [
        "ĠPorque",
        -10.166802218566518
      ],
      [
        "Apoio",
        -10.167356713426608
      ],
      [
        "destinada",
        -10.168559662523334
      ],
      [
        "Ġperde",
        -10.16871168493886
      ],
      [
        "Ġdistribui",
        -10.168813090361434
      ],
      [
        "Ġoito",
        -10.169719727528438
      ],
      [
        "Ġregio",
        -10.170043509853915
      ],
      [
        "ĠPlano",
        -10.171367515451603
      ],
      [
        "Ġlegi",
        -10.171840264048612
      ],
      [
        "CIO",
        -10.171972537807545
      ],
      [
        "ĠSouza",
        -10.172234472490285
      ],
      [
        "Ġpasso",
        -10.17249762396754
      ],
      [
        "ĠCelso",
        -10.173212336934531
      ],
      [
        "Ġanti",
        -10.173704522816678
      ],
      [
        "Ġmanifestac",
        -10.175127176535174
      ],
      [
        "metro",
        -10.175129960087313
      ],
      [
        "ji",
        -10.175541039019826
      ],
      [
        "Ġdizendo",
        -10.17659926634018
      ],
      [
        "Ġrealizar",
        -10.17698773026682
      ],
      [
        "utilizac",
        -10.177259347332374
      ],
      [
        "Ġperto",
        -10.177369987083392
      ],
      [
        "ĠGomes",
        -10.178159557726516
      ],
      [
        "Ġfazem",
        -10.178520173206849
      ],
      [
        "Ġhumano",
        -10.17883298234525
      ],
      [
        "Ġantiga",
        -10.179275665355206
      ],
      [
        "lon",
        -10.179315403414964
      ],
      [
        "Ġcapaz",
        -10.179800706968727
      ],
      [
        "Ġpermitir",
        -10.179825230405129
      ],
      [
        "ADO",
        -10.180311488203992
      ],
      [
        "ĠGrosso",
        -10.180336429493382
      ],
      [
        "Ġsete",
        -10.180537766063408
      ],
      [
        "Ġinterior",
        -10.18076364660079
      ],
      [
        "ĠFami",
        -10.180851450738
      ],
      [
        "ĠMunicipal",
        -10.180980758524033
      ],
      [
        "ĠConced",
        -10.181567105159058
      ],
      [
        "ĠMinistra",
        -10.18205160592045
      ],
      [
        "ĠLopes",
        -10.18305502104103
      ],
      [
        "Ġvaria",
        -10.18308532347594
      ],
      [
        "ĠQual",
        -10.183438706902727
      ],
      [
        "ĠRS",
        -10.183462025027444
      ],
      [
        "dicos",
        -10.184653915431308
      ],
      [
        "CARLOS",
        -10.185268508716524
      ],
      [
        "ĠMilitar",
        -10.18536501839048
      ],
      [
        "Ġdeficie",
        -10.185542425592098
      ],
      [
        "ginas",
        -10.185737106695983
      ],
      [
        "Ġconclui",
        -10.186317005590176
      ],
      [
        "ĠRocha",
        -10.18681395844766
      ],
      [
        "Ġseguir",
        -10.186981178200416
      ],
      [
        "ĠKo",
        -10.187389542493795
      ],
      [
        "Ġameac",
        -10.188122458991188
      ],
      [
        "ncer",
        -10.18900610495686
      ],
      [
        "Ġdiscutir",
        -10.189650745606905
      ],
      [
        "Ġadministrativa",
        -10.190823615656946
      ],
      [
        "__",
        -10.191183856757617
      ],
      [
        "2018",
        -10.19122033297321
      ],
      [
        "tores",
        -10.191782997018633
      ],
      [
        "Ġ[",
        -10.19182918361076
      ],
      [
        "Ġconsiderada",
        -10.192329921845207
      ],
      [
        "ĠAprova",
        -10.1933323576403
      ],
      [
        "Ġtroca",
        -10.193638050230778
      ],
      [
        "Pausa",
        -10.194519031345775
      ],
      [
        "Ġconsidera",
        -10.19468526413215
      ],
      [
        "Ġmelhores",
        -10.194880841311548
      ],
      [
        "post",
        -10.195840107423766
      ],
      [
        "ĠLista",
        -10.196569297234456
      ],
      [
        "Ġmento",
        -10.19659492876041
      ],
      [
        "Ġmeta",
        -10.197070287422356
      ],
      [
        "cida",
        -10.197920535210418
      ],
      [
        "ĠPARA",
        -10.197992453986751
      ],
      [
        "riamente",
        -10.198914943779162
      ],
      [
        "Ġcolo",
        -10.199003218077836
      ],
      [
        "GERAL",
        -10.199126978442695
      ],
      [
        "Ġcompromisso",
        -10.199368167350007
      ],
      [
        "medidas",
        -10.200798523248372
      ],
      [
        "Ġescolas",
        -10.200923031949202
      ],
      [
        "Ġconversa",
        -10.201971569331864
      ],
      [
        "Ġ1991",
        -10.20294723558546
      ],
      [
        "referido",
        -10.203180602624368
      ],
      [
        "ĠPubli",
        -10.203289580764872
      ],
      [
        "Ġrelativa",
        -10.20504437852345
      ],
      [
        "Ġlocalizado",
        -10.20512600255981
      ],
      [
        "ĠCatarina",
        -10.20518009289274
      ],
      [
        "Ġacabou",
        -10.205256046611217
      ],
      [
        "tivas",
        -10.205275380694356
      ],
      [
        "Ġavaliac",
        -10.205562098348802
      ],
      [
        "Ġama",
        -10.207165844470458
      ],
      [
        "Ġpensa",
        -10.20747245791937
      ],
      [
        "Ġjovem",
        -10.207572396902805
      ],
      [
        "ĠSabe",
        -10.2080670204695
      ],
      [
        "exclusividade",
        -10.208873886679434
      ],
      [
        "Ġconseguiu",
        -10.210062730149051
      ],
      [
        "mera",
        -10.21065432423523
      ],
      [
        "Ġcompetic",
        -10.21117988432824
      ],
      [
        "pica",
        -10.211753874614066
      ],
      [
        "Ġdiferente",
        -10.211869203197631
      ],
      [
        "ionais",
        -10.2119011104812
      ],
      [
        "Ġquarto",
        -10.212567381940332
      ],
      [
        "Ġentrega",
        -10.213044445568451
      ],
      [
        "CN",
        -10.213713508703735
      ],
      [
        "IDADE",
        -10.214138785538966
      ],
      [
        "exposto",
        -10.214399646249133
      ],
      [
        "NR",
        -10.214931571879928
      ],
      [
        "Apesar",
        -10.215794372208604
      ],
      [
        "Ġrenova",
        -10.216310964331448
      ],
      [
        "ido",
        -10.216408142209778
      ],
      [
        "Ġatua",
        -10.216566533774609
      ],
      [
        "Ġtomar",
        -10.216727573494124
      ],
      [
        "Ġassumi",
        -10.21694197874729
      ],
      [
        "ĠOli",
        -10.217088898546944
      ],
      [
        "ĠVeja",
        -10.217205640672876
      ],
      [
        "Ġestudos",
        -10.21764112776176
      ],
      [
        "Ġcompleta",
        -10.217661863382173
      ],
      [
        "ĠSol",
        -10.217716751421223
      ],
      [
        "americana",
        -10.218677277203067
      ],
      [
        "CONSTITUIC",
        -10.21878617256218
      ],
      [
        "ĠProfessor",
        -10.218993867589331
      ],
      [
        "Ł",
        -10.219662445071927
      ],
      [
        "RG",
        -10.219917927961982
      ],
      [
        "ĠJudicia",
        -10.220514281141666
      ],
      [
        "ĠLUIZ",
        -10.220602381865426
      ],
      [
        "leg",
        -10.22075284868248
      ],
      [
        "ontem",
        -10.220920398073767
      ],
      [
        "estabelecimento",
        -10.220971950555322
      ],
      [
        "Ġhonra",
        -10.22147420019875
      ],
      [
        "Ġ1995",
        -10.221927792391966
      ],
      [
        "MG",
        -10.22218460824108
      ],
      [
        "Ġfinanciamento",
        -10.22219565129762
      ],
      [
        "Ġimprensa",
        -10.22238030217408
      ],
      [
        "Estamos",
        -10.222416755685716
      ],
      [
        "Ġquantidade",
        -10.222536525916674
      ],
      [
        "Ġtentar",
        -10.223236765769675
      ],
      [
        "indicac",
        -10.223951431439495
      ],
      [
        "gens",
        -10.224686857642368
      ],
      [
        "QUE",
        -10.225384317497232
      ],
      [
        "Maranha",
        -10.22551950475324
      ],
      [
        "rk",
        -10.226990471506774
      ],
      [
        "Ġquarta",
        -10.227805191406128
      ],
      [
        "Ġpatrimo",
        -10.228376315987855
      ],
      [
        "ĠLui",
        -10.228522542585663
      ],
      [
        "Na",
        -10.22957539902314
      ],
      [
        "Ġcac",
        -10.229691197547918
      ],
      [
        "Ġouvi",
        -10.2308091588737
      ],
      [
        "ĠFica",
        -10.230953745950623
      ],
      [
        "Ġ36",
        -10.23114229900833
      ],
      [
        "Ġpagar",
        -10.232094933809504
      ],
      [
        "Ġreco",
        -10.232691350828778
      ],
      [
        "militares",
        -10.234593153427648
      ],
      [
        "ĠMG",
        -10.235400686210768
      ],
      [
        "ĠAlmeida",
        -10.23542155050925
      ],
      [
        "Ġestrate",
        -10.235591986166266
      ],
      [
        "ĠCidade",
        -10.235686153136292
      ],
      [
        "ĠReco",
        -10.23570742264756
      ],
      [
        "Ġcarro",
        -10.23602853832892
      ],
      [
        "ham",
        -10.236340957488208
      ],
      [
        "Ġlocalizada",
        -10.236703717685394
      ],
      [
        "Ġunidades",
        -10.237592234091204
      ],
      [
        "ĠPelo",
        -10.238384699333457
      ],
      [
        "Ġganha",
        -10.23935385892466
      ],
      [
        "ĠOla",
        -10.240071152792847
      ],
      [
        "Ġcomigo",
        -10.24022251406723
      ],
      [
        "Ġbasead",
        -10.240235686577392
      ],
      [
        "Ġinicial",
        -10.240780956065189
      ],
      [
        "ĠUSP",
        -10.240963470065347
      ],
      [
        "falando",
        -10.241846680163563
      ],
      [
        "Ġexatamente",
        -10.241942458867292
      ],
      [
        "mir",
        -10.242196376993029
      ],
      [
        "Ģ",
        -10.24390415320515
      ],
      [
        "tiveram",
        -10.244140538424093
      ],
      [
        "Ġcomissa",
        -10.24495417563076
      ],
      [
        "ĠRodrigues",
        -10.245108885898052
      ],
      [
        "ħ",
        -10.245417174883524
      ],
      [
        "ĠReal",
        -10.245462029296156
      ],
      [
        "Lideran",
        -10.24552685274308
      ],
      [
        "grafia",
        -10.245717910742988
      ],
      [
        "frica",
        -10.246195242625015
      ],
      [
        "atriz",
        -10.24672544952693
      ],
      [
        "Ġrodovia",
        -10.248665299993934
      ],
      [
        "ĠGrupo",
        -10.2489684741957
      ],
      [
        "Ġresultados",
        -10.249985323038551
      ],
      [
        "Ġconfi",
        -10.250241926241934
      ],
      [
        "BE",
        -10.251017063274388
      ],
      [
        "ux",
        -10.25123543882497
      ],
      [
        "lizac",
        -10.251597666534074
      ],
      [
        "nato",
        -10.25314424237523
      ],
      [
        "ĠCarvalho",
        -10.253165783899798
      ],
      [
        "corrupc",
        -10.254790651449504
      ],
      [
        "ĠSenhora",
        -10.255157516831115
      ],
      [
        "Ġsubstitui",
        -10.255374532723843
      ],
      [
        "Ġhaja",
        -10.255503027711216
      ],
      [
        "Ġ48",
        -10.255547979915695
      ],
      [
        "Ġjulgado",
        -10.255853852396475
      ],
      [
        "Ġtado",
        -10.256414437912088
      ],
      [
        "Ġfundamento",
        -10.25701335246657
      ],
      [
        "ambos",
        -10.257396196028951
      ],
      [
        "ĠToda",
        -10.258124348849917
      ],
      [
        "permissa",
        -10.258349755075802
      ],
      [
        "nicos",
        -10.25904145855782
      ],
      [
        "EM",
        -10.259641738720196
      ],
      [
        "Ġlicenc",
        -10.259860276317454
      ],
      [
        "ĠGoia",
        -10.259911325998896
      ],
      [
        "bairro",
        -10.2599882313079
      ],
      [
        "ĠSin",
        -10.260963872102757
      ],
      [
        "ĠPrevide",
        -10.261269724875069
      ],
      [
        "Ġpior",
        -10.262333328448427
      ],
      [
        "ĠQui",
        -10.262448433120898
      ],
      [
        "ĠMinha",
        -10.263953019733332
      ],
      [
        "Ġmundial",
        -10.264148356778826
      ],
      [
        "diretamente",
        -10.264198314023444
      ],
      [
        "leo",
        -10.26420678232109
      ],
      [
        "Ġ119",
        -10.264746783101682
      ],
      [
        "chefe",
        -10.265342184924217
      ],
      [
        "nus",
        -10.265421680935496
      ],
      [
        "Ġprocedimento",
        -10.26560083256812
      ],
      [
        "Ġgosta",
        -10.266092312365624
      ],
      [
        "Ġinvestimento",
        -10.26699163065038
      ],
      [
        "ĠDaniel",
        -10.268409089057377
      ],
      [
        "SRA",
        -10.268510930746537
      ],
      [
        "Ġacontece",
        -10.26871142260478
      ],
      [
        "rejeic",
        -10.269965231251266
      ],
      [
        "Ġinfra",
        -10.270133216223366
      ],
      [
        "Ġorientac",
        -10.270994080787773
      ],
      [
        "Ġestes",
        -10.27112315185115
      ],
      [
        "Ġencontro",
        -10.27174321634735
      ],
      [
        "Ġaberto",
        -10.27207689217806
      ],
      [
        "ĠLEGISLATIV",
        -10.272525607104834
      ],
      [
        "Ġestadual",
        -10.272614630937092
      ],
      [
        "Ġempre",
        -10.27287841614164
      ],
      [
        "ĠRegia",
        -10.272962212124549
      ],
      [
        "cies",
        -10.273289940770256
      ],
      [
        "Ġclara",
        -10.27344739418026
      ],
      [
        "ÌĦ",
        -10.273848884383469
      ],
      [
        "Ġamericano",
        -10.275013525253268
      ],
      [
        "ĠOnde",
        -10.275417166374975
      ],
      [
        "ficado",
        -10.276615689215989
      ],
      [
        "ĠReino",
        -10.27670797307583
      ],
      [
        "ĠWikipe",
        -10.276953605576766
      ],
      [
        "Ġpaga",
        -10.277200283922417
      ],
      [
        "ĠAugusto",
        -10.277475388613828
      ],
      [
        "licitac",
        -10.277595296733748
      ],
      [
        "ĠPI",
        -10.277621518106562
      ],
      [
        "lico",
        -10.27763307872802
      ],
      [
        "Ġ01",
        -10.278169983502428
      ],
      [
        "Ġvivo",
        -10.278333869274109
      ],
      [
        "ĠRelac",
        -10.278503407420354
      ],
      [
        "ĠSI",
        -10.278840167226573
      ],
      [
        "ĠART",
        -10.279508269994938
      ],
      [
        "Ġestabelecer",
        -10.279569371372151
      ],
      [
        "PL",
        -10.279746208405063
      ],
      [
        "deres",
        -10.28076241596068
      ],
      [
        "Ġagra",
        -10.281089079375905
      ],
      [
        "Ġfigura",
        -10.281997314938684
      ],
      [
        "atribuic",
        -10.28287547545326
      ],
      [
        "ĠNordeste",
        -10.282902587118675
      ],
      [
        "rita",
        -10.282973821819471
      ],
      [
        "Ġfinanceiro",
        -10.283343777674355
      ],
      [
        "ĠLU",
        -10.283350705867903
      ],
      [
        "Seguranc",
        -10.28341496257779
      ],
      [
        "Ġposto",
        -10.283802582540366
      ],
      [
        "enda",
        -10.28506864919038
      ],
      [
        "Talvez",
        -10.28557301683458
      ],
      [
        "ĠSuper",
        -10.286649957968852
      ],
      [
        "Ġgrau",
        -10.28672408716928
      ],
      [
        "somos",
        -10.28708324309218
      ],
      [
        "ĠEstadual",
        -10.287270354681231
      ],
      [
        "impacto",
        -10.287318847070765
      ],
      [
        "efeitos",
        -10.287521870411158
      ],
      [
        "Ġmerece",
        -10.287991086975516
      ],
      [
        "Ġcomenta",
        -10.288044976073111
      ],
      [
        "bia",
        -10.28833892537949
      ],
      [
        "Figueiredo",
        -10.28860858310892
      ],
      [
        "Ġconhece",
        -10.289840262391088
      ],
      [
        "izou",
        -10.290246332716002
      ],
      [
        "Ġqua",
        -10.290488717289628
      ],
      [
        "ĠDECRET",
        -10.290552792661124
      ],
      [
        "ĠDis",
        -10.290829845222078
      ],
      [
        "ĠSer",
        -10.291615373621074
      ],
      [
        "Ġpalavras",
        -10.291644091137318
      ],
      [
        "ĠNelson",
        -10.291772033227566
      ],
      [
        "nÂº",
        -10.291791340966824
      ],
      [
        "Ġ80",
        -10.2920901067917
      ],
      [
        "atualmente",
        -10.293478548619754
      ],
      [
        "Ġbanco",
        -10.293509945404114
      ],
      [
        "ĠQUE",
        -10.293583046063556
      ],
      [
        "Ġevitar",
        -10.293738708802694
      ],
      [
        "Teixeira",
        -10.2939400801349
      ],
      [
        "Ġvive",
        -10.295187887764476
      ],
      [
        "ĠSec",
        -10.295410423191871
      ],
      [
        "ĠOu",
        -10.295869656636995
      ],
      [
        "Ġdocumento",
        -10.29663441077702
      ],
      [
        "ĠFlo",
        -10.297062037510369
      ],
      [
        "ĠFazenda",
        -10.29731668625828
      ],
      [
        "ĠMon",
        -10.298224805368529
      ],
      [
        "Ġpublicada",
        -10.299962649664806
      ],
      [
        "Discussa",
        -10.30016126467973
      ],
      [
        "Ġshow",
        -10.300529147493126
      ],
      [
        "Ġjudicial",
        -10.300815622122828
      ],
      [
        "Ġcentral",
        -10.30086960800872
      ],
      [
        "DF",
        -10.302023935351263
      ],
      [
        "Ġfui",
        -10.30259399066841
      ],
      [
        "Ġjoga",
        -10.304430704934417
      ],
      [
        "Ġataque",
        -10.30579555114462
      ],
      [
        "ZA",
        -10.305796031729926
      ],
      [
        "ĠDesde",
        -10.305953337102569
      ],
      [
        "ricos",
        -10.306188626428929
      ],
      [
        "Ġesti",
        -10.306347773441834
      ],
      [
        "ĠCre",
        -10.306635322948582
      ],
      [
        "levou",
        -10.307220370472704
      ],
      [
        "cito",
        -10.307443217370391
      ],
      [
        "ĠRO",
        -10.30769701838283
      ],
      [
        "Ġmedi",
        -10.308131271624458
      ],
      [
        "Ġprocura",
        -10.308423160076524
      ],
      [
        "ĠNew",
        -10.308797703862975
      ],
      [
        "Ġpetro",
        -10.30907168354936
      ],
      [
        "alunos",
        -10.309121383196633
      ],
      [
        "Ġanimais",
        -10.30951974182478
      ],
      [
        "ĠFutebol",
        -10.30982086755292
      ],
      [
        "neo",
        -10.31156237688587
      ],
      [
        "Ġabaixo",
        -10.312664836423982
      ],
      [
        "deira",
        -10.313314381035072
      ],
      [
        "Li",
        -10.31348362596392
      ],
      [
        "Ġtrabalha",
        -10.314062498721862
      ],
      [
        "ĠEspi",
        -10.314507899784337
      ],
      [
        "Ġestilo",
        -10.314572080770835
      ],
      [
        "Ġjurisprude",
        -10.314584486707538
      ],
      [
        "federai",
        -10.31460186457332
      ],
      [
        "Ġdisponi",
        -10.31476426923446
      ],
      [
        "EIRA",
        -10.315096035368128
      ],
      [
        "tz",
        -10.315447623169892
      ],
      [
        "ĠChina",
        -10.315485834732108
      ],
      [
        "requisitos",
        -10.315532154199122
      ],
      [
        "Ġrua",
        -10.315918442555796
      ],
      [
        "Ġpreso",
        -10.315926427524436
      ],
      [
        "ĠTemo",
        -10.316103097443602
      ],
      [
        "Ġquilo",
        -10.316869182863355
      ],
      [
        "PI",
        -10.317417997418175
      ],
      [
        "licitante",
        -10.318060148253949
      ],
      [
        "Ġtraz",
        -10.3197274348367
      ],
      [
        "ĠNossa",
        -10.320149433259436
      ],
      [
        "criada",
        -10.320339776058306
      ],
      [
        "ney",
        -10.321476882547929
      ],
      [
        "Ġaparece",
        -10.321980645240918
      ],
      [
        "ĠAlberto",
        -10.322146807570618
      ],
      [
        "ĠAure",
        -10.323269199887802
      ],
      [
        "lizado",
        -10.32349407078217
      ],
      [
        "xico",
        -10.32355307269365
      ],
      [
        "Ġentrevista",
        -10.323697929351315
      ],
      [
        "Ġmanha",
        -10.323743753393757
      ],
      [
        "ĠRequer",
        -10.323938473027376
      ],
      [
        "Ġmemo",
        -10.324068541679535
      ],
      [
        "Ġadvogado",
        -10.324105197662
      ],
      [
        "ĠRodrigo",
        -10.324254795215014
      ],
      [
        "ED",
        -10.324653453383483
      ],
      [
        "Ġmudar",
        -10.325243067212776
      ],
      [
        "Ġpretende",
        -10.325430427688085
      ],
      [
        "Ġterc",
        -10.325991527539408
      ],
      [
        "ĠPla",
        -10.326337196212627
      ],
      [
        "Ġ1988",
        -10.32716631267716
      ],
      [
        "ĠPp",
        -10.327556688988892
      ],
      [
        "Sessa",
        -10.328034992391975
      ],
      [
        "Ġespera",
        -10.32837223598865
      ],
      [
        "ĠAlemanha",
        -10.328386693852089
      ],
      [
        "ĠMundo",
        -10.328618539902331
      ],
      [
        "Ġqui",
        -10.329506569228526
      ],
      [
        "tenc",
        -10.330084776070136
      ],
      [
        "quia",
        -10.33011030243661
      ],
      [
        "Ġpedir",
        -10.331036955277014
      ],
      [
        "Ġ*",
        -10.331192465321648
      ],
      [
        "Ġacidente",
        -10.331887464574583
      ],
      [
        "lis",
        -10.33191721320309
      ],
      [
        "ĠSerra",
        -10.332518233008786
      ],
      [
        "Ġvice",
        -10.333000970584733
      ],
      [
        "Ġmesa",
        -10.334199482436135
      ],
      [
        "ĠMichel",
        -10.33454158603797
      ],
      [
        "Ġatender",
        -10.334681175849456
      ],
      [
        "Ġdemocracia",
        -10.335030164933087
      ],
      [
        "Ġoferece",
        -10.33575115119843
      ],
      [
        "ĠAge",
        -10.335916013156464
      ],
      [
        "ĠAh",
        -10.33644134265915
      ],
      [
        "ĠForc",
        -10.336851833018663
      ],
      [
        "Ġmetros",
        -10.33701037253129
      ],
      [
        "burg",
        -10.337110263984869
      ],
      [
        "Ġdistrito",
        -10.33724561914226
      ],
      [
        "ĠDepu",
        -10.337506779481412
      ],
      [
        "Ġapa",
        -10.337676561780096
      ],
      [
        "Ġdetermina",
        -10.338176734469426
      ],
      [
        "Ġrural",
        -10.338205001042011
      ],
      [
        "ngue",
        -10.338278514783084
      ],
      [
        "Ġrece",
        -10.338501423178016
      ],
      [
        "Ġanual",
        -10.338818898139095
      ],
      [
        "Ġexplorar",
        -10.338836987839947
      ],
      [
        "EUA",
        -10.339011697925452
      ],
      [
        "ĠRede",
        -10.339300270787856
      ],
      [
        "Ġresulta",
        -10.339363317939572
      ],
      [
        "PSL",
        -10.339364726425552
      ],
      [
        "Ġfesta",
        -10.339611431837533
      ],
      [
        "ĠJesus",
        -10.34061728727523
      ],
      [
        "Ġguarda",
        -10.34075014841894
      ],
      [
        "Ġinicia",
        -10.340873533539485
      ],
      [
        "Ġfeliz",
        -10.34127358964436
      ],
      [
        "ĠAlexandre",
        -10.341351751690596
      ],
      [
        "ĠFer",
        -10.341705390229436
      ],
      [
        "virtude",
        -10.342354661770328
      ],
      [
        "Ġgol",
        -10.342524012213612
      ],
      [
        "Ġilha",
        -10.34383987567961
      ],
      [
        "Resoluc",
        -10.343993741831124
      ],
      [
        "Ġjornalista",
        -10.345009091350086
      ],
      [
        "ĠPra",
        -10.345111270404958
      ],
      [
        "Ġdeciso",
        -10.345283219041846
      ],
      [
        "ĠMarcos",
        -10.345330561319344
      ],
      [
        "preocupac",
        -10.34535563688013
      ],
      [
        "fronteira",
        -10.345971388634585
      ],
      [
        "Ġabsoluta",
        -10.346587468838932
      ],
      [
        "ĠLisboa",
        -10.34760262306046
      ],
      [
        "ĠZa",
        -10.348093832205834
      ],
      [
        "ĠCol",
        -10.348405498221448
      ],
      [
        "Ġdista",
        -10.348637106867374
      ],
      [
        "ĠFundac",
        -10.34877205222544
      ],
      [
        "Ġimagem",
        -10.349023067365724
      ],
      [
        "Ġatribui",
        -10.349373818776822
      ],
      [
        "decreto",
        -10.349592734096133
      ],
      [
        "Ġquebra",
        -10.349620762971371
      ],
      [
        "Ġenca",
        -10.349936565331728
      ],
      [
        "Ġ49",
        -10.35081620423214
      ],
      [
        "ĠArthur",
        -10.351121385643804
      ],
      [
        "ĠVai",
        -10.351573309414883
      ],
      [
        "Ġconcurso",
        -10.353174306700891
      ],
      [
        "apresentou",
        -10.353670780792523
      ],
      [
        "Ġzona",
        -10.35396756154944
      ],
      [
        "imagens",
        -10.354180711705345
      ],
      [
        "Ġtenta",
        -10.354205749450117
      ],
      [
        "nunciou",
        -10.354356423947683
      ],
      [
        "pico",
        -10.354654129785208
      ],
      [
        "Ġsecreta",
        -10.355818170112448
      ],
      [
        "Ġconseguir",
        -10.355876211425254
      ],
      [
        "Ġconve",
        -10.356044406483758
      ],
      [
        "privado",
        -10.35632330634283
      ],
      [
        "ĠMarc",
        -10.357278035943995
      ],
      [
        "Ġinve",
        -10.357380287189212
      ],
      [
        "Departamento",
        -10.357465849987364
      ],
      [
        "Ġindica",
        -10.358220226410868
      ],
      [
        "ĠCeara",
        -10.35921053179406
      ],
      [
        "Ħ",
        -10.35961129930878
      ],
      [
        "ele",
        -10.359880703238204
      ],
      [
        "ĠMen",
        -10.360490145539732
      ],
      [
        "Ġurge",
        -10.36077708728231
      ],
      [
        "Ġunidade",
        -10.360939250925076
      ],
      [
        "*",
        -10.361193237286034
      ],
      [
        "ĠImpe",
        -10.361432069481754
      ],
      [
        "Ġjui",
        -10.362018920921438
      ],
      [
        "Ġatende",
        -10.362200809482216
      ],
      [
        "Ġface",
        -10.362955356996482
      ],
      [
        "Ġpromover",
        -10.362958964965149
      ],
      [
        "Mor",
        -10.363012404867767
      ],
      [
        "Ġparticipa",
        -10.363038530881974
      ],
      [
        "trecho",
        -10.36315259300584
      ],
      [
        "Ġopinia",
        -10.36333543484908
      ],
      [
        "ĠLegislativa",
        -10.363468175972178
      ],
      [
        "Ġcai",
        -10.36363488388571
      ],
      [
        "Ġtermina",
        -10.364510066255946
      ],
      [
        "Ġdestaca",
        -10.36528471249311
      ],
      [
        "Ġdemonstra",
        -10.365631601903946
      ],
      [
        "Ġtrabalhador",
        -10.365707432128918
      ],
      [
        "cadas",
        -10.366158770697195
      ],
      [
        "ĠBoa",
        -10.36693290886832
      ],
      [
        "sol",
        -10.366936590215603
      ],
      [
        "Ġretorno",
        -10.366993164678364
      ],
      [
        "ĠBal",
        -10.367082790205734
      ],
      [
        "Ġigreja",
        -10.367471951744315
      ],
      [
        "·",
        -10.367494424878918
      ],
      [
        "Ġentende",
        -10.367646066678091
      ],
      [
        "oeste",
        -10.367931618393044
      ],
      [
        "ĠSobre",
        -10.367986918535964
      ],
      [
        "ĠAcre",
        -10.368000505499698
      ],
      [
        "velmente",
        -10.368251663573758
      ],
      [
        "Ġetc",
        -10.368449843700503
      ],
      [
        "Ġconceito",
        -10.36849552140636
      ],
      [
        "Ġgera",
        -10.36852675235289
      ],
      [
        "ĠSera",
        -10.368817075881513
      ],
      [
        "ĠDESPACH",
        -10.369125233609036
      ],
      [
        "Proposic",
        -10.369320540039322
      ],
      [
        "Ġdireto",
        -10.36956998904417
      ],
      [
        "Ġobrigato",
        -10.3696082628069
      ],
      [
        "Ġ45",
        -10.369646913513758
      ],
      [
        "vemos",
        -10.370444910644643
      ],
      [
        "Ġjustic",
        -10.371037511818352
      ],
      [
        "Geraldo",
        -10.371679588531771
      ],
      [
        "Ġcontas",
        -10.372734506812382
      ],
      [
        "Ġreside",
        -10.373190374822087
      ],
      [
        "Ġprima",
        -10.373340504117955
      ],
      [
        "Ġexigi",
        -10.373555149579197
      ],
      [
        "Ġseguro",
        -10.37365045434832
      ],
      [
        "Ġprovoc",
        -10.37502348550605
      ],
      [
        "Ġbra",
        -10.375054586108892
      ],
      [
        "rida",
        -10.375217078911286
      ],
      [
        "Ġtive",
        -10.375294583562091
      ],
      [
        "Ġentender",
        -10.375885089863544
      ],
      [
        "Ï",
        -10.376854215917517
      ],
      [
        "regras",
        -10.376926112322268
      ],
      [
        "Con",
        -10.377262557392504
      ],
      [
        "ung",
        -10.37829516094267
      ],
      [
        "Ġconsegue",
        -10.378476697216714
      ],
      [
        "Ġatingi",
        -10.37879721653421
      ],
      [
        "usada",
        -10.379645540234725
      ],
      [
        "esta",
        -10.379655106270414
      ],
      [
        "Ġfreque",
        -10.379850105139887
      ],
      [
        "PSB",
        -10.380227693383231
      ],
      [
        "bora",
        -10.380817045556174
      ],
      [
        "ĠVista",
        -10.381292268206566
      ],
      [
        "Ġamanha",
        -10.382475452640596
      ],
      [
        "Ġdiminui",
        -10.382505171642718
      ],
      [
        "Jogos",
        -10.382510109329376
      ],
      [
        "Ġpreve",
        -10.382957270429053
      ],
      [
        "°",
        -10.383557619203398
      ],
      [
        "Ġ90",
        -10.384201509383002
      ],
      [
        "ĠParis",
        -10.384282300700736
      ],
      [
        "Ġambiental",
        -10.385467294140303
      ],
      [
        "www",
        -10.38564330480499
      ],
      [
        "Ġconsiderac",
        -10.3858036564023
      ],
      [
        "Ġsom",
        -10.38698614669897
      ],
      [
        "Ġjogador",
        -10.387244986865696
      ],
      [
        "ĠOUTR",
        -10.387919324393687
      ],
      [
        "juros",
        -10.388078079086284
      ],
      [
        "mia",
        -10.38816616778831
      ],
      [
        "apensado",
        -10.38861249319933
      ],
      [
        "Ġselec",
        -10.388650936187087
      ],
      [
        "ĠAltera",
        -10.388699335061832
      ],
      [
        "Ġfiz",
        -10.38913254177942
      ],
      [
        "substitutivo",
        -10.389192301639005
      ],
      [
        "ĠQuanto",
        -10.389716611773204
      ],
      [
        "ĠQuer",
        -10.390942510783391
      ],
      [
        "lista",
        -10.39153641274343
      ],
      [
        "Ġage",
        -10.393397912210704
      ],
      [
        "Moreira",
        -10.393771740985375
      ],
      [
        "In",
        -10.395249253158154
      ],
      [
        "PDT",
        -10.396128069999088
      ],
      [
        "rb",
        -10.396211227748998
      ],
      [
        "org",
        -10.39679996762147
      ],
      [
        "Ĩ",
        -10.397786821948236
      ],
      [
        "ico",
        -10.397854091182058
      ],
      [
        "nacionais",
        -10.398211895506693
      ],
      [
        "aqueles",
        -10.398322104468694
      ],
      [
        "Ġcarga",
        -10.399148915599286
      ],
      [
        "NS",
        -10.399260486293956
      ],
      [
        "parceria",
        -10.399345818104203
      ],
      [
        "Ġdefende",
        -10.399768833929608
      ],
      [
        "Ġouvir",
        -10.400022711630532
      ],
      [
        "Ġ1993",
        -10.40008954980846
      ],
      [
        "berg",
        -10.40130072186937
      ],
      [
        "ĠWal",
        -10.401737472791396
      ],
      [
        "Ġitem",
        -10.40242205039172
      ],
      [
        "rez",
        -10.40276881027033
      ],
      [
        "Ġbrita",
        -10.403109900176824
      ],
      [
        "tomada",
        -10.40319389450335
      ],
      [
        "Ġleitura",
        -10.403338068800428
      ],
      [
        "eiros",
        -10.40348512570827
      ],
      [
        "Ġfrance",
        -10.404285186738525
      ],
      [
        "fiscalizac",
        -10.404614817258434
      ],
      [
        "Ġvontade",
        -10.404864769985448
      ],
      [
        "Ġtorno",
        -10.405027574301942
      ],
      [
        "ligac",
        -10.405518972383542
      ],
      [
        "Proposta",
        -10.406006161192447
      ],
      [
        "Ġdemocra",
        -10.406210089157332
      ],
      [
        "nicas",
        -10.406522910083195
      ],
      [
        "ĠRei",
        -10.407002079674074
      ],
      [
        "ĠAgrav",
        -10.408009885568964
      ],
      [
        "Ġarmas",
        -10.408231405588385
      ],
      [
        "MARA",
        -10.409751016567276
      ],
      [
        "Ġdaqui",
        -10.409901330432286
      ],
      [
        "contratac",
        -10.41005880988514
      ],
      [
        "Ġquinta",
        -10.410245438208792
      ],
      [
        "mulo",
        -10.410850572839362
      ],
      [
        "ĠCruz",
        -10.410896077805628
      ],
      [
        "Ġdivisa",
        -10.410932374560568
      ],
      [
        "Ġhumana",
        -10.411471898968395
      ],
      [
        "Ġjuiz",
        -10.411562045872577
      ],
      [
        "Ġdela",
        -10.41252073567968
      ],
      [
        "ĠFederac",
        -10.412758570210292
      ],
      [
        "Ġ|",
        -10.41285849840118
      ],
      [
        "ĠNeste",
        -10.413043207235722
      ],
      [
        "Ġprodutor",
        -10.413265183969232
      ],
      [
        "Ġderrota",
        -10.41346281376143
      ],
      [
        "Ġeventos",
        -10.41376795481652
      ],
      [
        "referida",
        -10.41389282599322
      ],
      [
        "Ġvinte",
        -10.414172759527943
      ],
      [
        "Ġcuidado",
        -10.414294267088907
      ],
      [
        "ssia",
        -10.41430716323752
      ],
      [
        "Ġcorpus",
        -10.415285132246977
      ],
      [
        "ĠRoge",
        -10.417514857610106
      ],
      [
        "Ġ02",
        -10.417571791231694
      ],
      [
        "Ġfoto",
        -10.418209873192565
      ],
      [
        "Ġamplia",
        -10.41822319405591
      ],
      [
        "gravada",
        -10.41832369795144
      ],
      [
        "Ġ1994",
        -10.41834190943235
      ],
      [
        "Ġdispor",
        -10.418949935731677
      ],
      [
        "Ġopc",
        -10.419451489777334
      ],
      [
        "Ġcompanhia",
        -10.419897030649212
      ],
      [
        "possam",
        -10.420204767249082
      ],
      [
        "TOR",
        -10.420306303496956
      ],
      [
        "Ġpermanece",
        -10.420714944777824
      ],
      [
        "retirada",
        -10.421325649200046
      ],
      [
        "zen",
        -10.422734349212636
      ],
      [
        "elli",
        -10.42354188069136
      ],
      [
        "agentes",
        -10.423938883722276
      ],
      [
        "etapa",
        -10.424025580653945
      ],
      [
        "Ġapre",
        -10.424072551714056
      ],
      [
        "Ĵ",
        -10.424633338043934
      ],
      [
        "ĠParlamento",
        -10.424742369955537
      ],
      [
        "Ġdevo",
        -10.425406250107404
      ],
      [
        "NAL",
        -10.42546743164387
      ],
      [
        "consumo",
        -10.425582613776095
      ],
      [
        "ĠParai",
        -10.426581143584038
      ],
      [
        "Ġregistrado",
        -10.427200475712985
      ],
      [
        "Ġcapita",
        -10.427519393057908
      ],
      [
        "Ġpais",
        -10.427853401877185
      ],
      [
        "genas",
        -10.428098913025192
      ],
      [
        "Ġoferta",
        -10.428326543036384
      ],
      [
        "Ġcomemora",
        -10.428548351825084
      ],
      [
        "Ġgosto",
        -10.428808036627768
      ],
      [
        "Ī",
        -10.428848327144731
      ],
      [
        "ĠVila",
        -10.428877398694132
      ],
      [
        "zer",
        -10.429103166074762
      ],
      [
        "Ġvoz",
        -10.429253741969942
      ],
      [
        "Barbosa",
        -10.429262219816582
      ],
      [
        "NIA",
        -10.429501730793342
      ],
      [
        "Ġesteja",
        -10.429641508418287
      ],
      [
        "Ġrespectiva",
        -10.430377317195816
      ],
      [
        "ĠNeto",
        -10.430490753281797
      ],
      [
        "ĠAprecia",
        -10.43049919202856
      ],
      [
        "Ġapro",
        -10.430811891242444
      ],
      [
        "ĠWi",
        -10.43105587263017
      ],
      [
        "extensa",
        -10.431389743911565
      ],
      [
        "ĠKe",
        -10.431698621560418
      ],
      [
        "precisamos",
        -10.431832836473523
      ],
      [
        "constitucionai",
        -10.432740834915174
      ],
      [
        "Ġtinham",
        -10.43302487223414
      ],
      [
        "ĠMeio",
        -10.433096467130072
      ],
      [
        "contexto",
        -10.433656132977138
      ],
      [
        "Ġescolha",
        -10.434005946688565
      ],
      [
        "Ġapura",
        -10.43480118711454
      ],
      [
        "ĠRegional",
        -10.43483547362354
      ],
      [
        "Ġ53",
        -10.435076660485832
      ],
      [
        "ĠAmazonas",
        -10.435343605047931
      ],
      [
        "DEPUTADO",
        -10.435634658606611
      ],
      [
        "Magalha",
        -10.436025511689296
      ],
      [
        "versa",
        -10.43610820920959
      ],
      [
        "Ġcoloca",
        -10.436271087989743
      ],
      [
        "VO",
        -10.436317865323726
      ],
      [
        "Ġinternacionais",
        -10.436489312585524
      ],
      [
        "Ġvelho",
        -10.437103771632456
      ],
      [
        "Ġ55",
        -10.43731430235604
      ],
      [
        "udio",
        -10.43807895486755
      ],
      [
        "bado",
        -10.438650239266597
      ],
      [
        "tinho",
        -10.438741974382388
      ],
      [
        "Ġdecorre",
        -10.438804871861796
      ],
      [
        "BRA",
        -10.438901540526372
      ],
      [
        "gresso",
        -10.438986029169367
      ],
      [
        "desempenho",
        -10.439485137159531
      ],
      [
        "bus",
        -10.439494845639002
      ],
      [
        "Ġfogo",
        -10.440137258752609
      ],
      [
        "ĠJapa",
        -10.441095834515664
      ],
      [
        "Ġcomando",
        -10.44119157928115
      ],
      [
        "Ġesposa",
        -10.441324282418314
      ],
      [
        "Ġcorac",
        -10.44179737783115
      ],
      [
        "Ġeleitoral",
        -10.44220209008869
      ],
      [
        "ganhou",
        -10.442248402893938
      ],
      [
        "Ġsexta",
        -10.442267436025912
      ],
      [
        "ET",
        -10.442323718039743
      ],
      [
        "Pro",
        -10.442571062817931
      ],
      [
        "ric",
        -10.442986237466991
      ],
      [
        "polis",
        -10.444379770400245
      ],
      [
        "Ġampla",
        -10.446098379113034
      ],
      [
        "Ġreferente",
        -10.44676462749882
      ],
      [
        "Ġviu",
        -10.447419828573734
      ],
      [
        "lite",
        -10.4476424786225
      ],
      [
        "micas",
        -10.447680674110648
      ],
      [
        "Ġcorte",
        -10.448045616320526
      ],
      [
        "gicos",
        -10.449113021176531
      ],
      [
        "Ġ64",
        -10.449443360384103
      ],
      [
        "Ġtentativa",
        -10.449808381059396
      ],
      [
        "Ġposse",
        -10.45003828793073
      ],
      [
        "2020",
        -10.450281892974514
      ],
      [
        "postos",
        -10.45083127917607
      ],
      [
        "Ġrelator",
        -10.450893916798442
      ],
      [
        "Ġofi",
        -10.450910140144758
      ],
      [
        "reconhecimento",
        -10.450965357260694
      ],
      [
        "ĠPan",
        -10.451075932288404
      ],
      [
        "ĠSte",
        -10.45132149985447
      ],
      [
        "Ġincide",
        -10.451649319072718
      ],
      [
        "http",
        -10.451833018295028
      ],
      [
        "Ġobserva",
        -10.45185300354576
      ],
      [
        "ocorreu",
        -10.45188973036027
      ],
      [
        "sobretudo",
        -10.451923083044408
      ],
      [
        "ĠIsto",
        -10.452223261930364
      ],
      [
        "ĠPRE",
        -10.452969268854622
      ],
      [
        "zinho",
        -10.453473729284058
      ],
      [
        "ĠColo",
        -10.454007112740875
      ],
      [
        "¾",
        -10.454831239799894
      ],
      [
        "havend",
        -10.45551617484024
      ],
      [
        "Ġcursos",
        -10.45599436055077
      ],
      [
        "ĠPRIMEIR",
        -10.456037656619827
      ],
      [
        "tante",
        -10.456784225172632
      ],
      [
        "Ġutilizado",
        -10.457235316622764
      ],
      [
        "Ġlivros",
        -10.45735061789444
      ],
      [
        "Ġmilha",
        -10.457505282342314
      ],
      [
        "ĠPessoa",
        -10.457632757243204
      ],
      [
        "ĠBarros",
        -10.45770791451967
      ],
      [
        "apelo",
        -10.457934855490723
      ],
      [
        "ð",
        -10.458000211124824
      ],
      [
        "vista",
        -10.458385061993363
      ],
      [
        "Ġtransfere",
        -10.45849978305058
      ],
      [
        "habea",
        -10.458549901695353
      ],
      [
        "ĠCarreira",
        -10.458837556484102
      ],
      [
        "cedentes",
        -10.458963231087264
      ],
      [
        "Ġaumenta",
        -10.45907436192102
      ],
      [
        "Ġseque",
        -10.45958859879152
      ],
      [
        "ĠMO",
        -10.461065142819455
      ],
      [
        "ĠClaro",
        -10.461181417991318
      ],
      [
        "ĠJOA",
        -10.4616214911999
      ],
      [
        "ĠAli",
        -10.461697530059752
      ],
      [
        "ĠExterior",
        -10.462921183576356
      ],
      [
        "Vi",
        -10.46409081796076
      ],
      [
        "convidado",
        -10.465012540253596
      ],
      [
        "pula",
        -10.46521755820896
      ],
      [
        "Ġconhec",
        -10.466500599574948
      ],
      [
        "Ġassinatura",
        -10.466804792098888
      ],
      [
        "ica",
        -10.46824978503595
      ],
      [
        "metade",
        -10.468493958139035
      ],
      [
        "Ġinu",
        -10.468675863569697
      ],
      [
        "ĠCPI",
        -10.46919890348339
      ],
      [
        "Ġquiser",
        -10.469211793355734
      ],
      [
        "ĠFolha",
        -10.469933630662672
      ],
      [
        "Ġconfirm",
        -10.469954113950283
      ],
      [
        "ĠFerreira",
        -10.470324210413583
      ],
      [
        "Ġconsumidor",
        -10.471698954716784
      ],
      [
        "Ġexposic",
        -10.471961757637198
      ],
      [
        "Ġexterior",
        -10.47201237220938
      ],
      [
        "Enquanto",
        -10.472034620998256
      ],
      [
        "ĠConstitucional",
        -10.472535963204736
      ],
      [
        "ĠEli",
        -10.472924632623734
      ],
      [
        "Ġexplorac",
        -10.473529467961294
      ],
      [
        "Ġtende",
        -10.4739120287987
      ],
      [
        "ĠNac",
        -10.474017002046343
      ],
      [
        "Ġcultural",
        -10.474269084958092
      ],
      [
        "equipamentos",
        -10.474887483844377
      ],
      [
        "ĠMil",
        -10.474973791207509
      ],
      [
        "Ġfamiliar",
        -10.47631657991004
      ],
      [
        "sicos",
        -10.476348246779333
      ],
      [
        "ĠExe",
        -10.476735370714096
      ],
      [
        "Ġservi",
        -10.47727649813843
      ],
      [
        "ficos",
        -10.47729537184985
      ],
      [
        "Ġconseque",
        -10.477670770473006
      ],
      [
        "Ġaceita",
        -10.47866328416132
      ],
      [
        "Ġchance",
        -10.478764117683363
      ],
      [
        "Ġfixa",
        -10.478944886422438
      ],
      [
        "Ġdade",
        -10.479607974952554
      ],
      [
        "Ġvencedor",
        -10.4803102192903
      ],
      [
        "ĠMARCO",
        -10.480420537701262
      ],
      [
        "plant",
        -10.480846705811702
      ],
      [
        "Ġcontato",
        -10.481029427280845
      ],
      [
        "ĠAma",
        -10.48123382939379
      ],
      [
        "conclusa",
        -10.481581827642511
      ],
      [
        "ĠVirgi",
        -10.481824497134475
      ],
      [
        "Ġterceira",
        -10.482319253047018
      ],
      [
        "Ġonda",
        -10.482458772430787
      ],
      [
        "elementos",
        -10.48314676954835
      ],
      [
        "Ġimo",
        -10.484576448668156
      ],
      [
        "ĠUni",
        -10.48490437764329
      ],
      [
        "nis",
        -10.48531773742864
      ],
      [
        "Ġbebe",
        -10.485470575693496
      ],
      [
        "Ġdiploma",
        -10.48574095021079
      ],
      [
        "ĠMello",
        -10.48595844328862
      ],
      [
        "ESTADO",
        -10.486063300166972
      ],
      [
        "Ġsauda",
        -10.48637314573651
      ],
      [
        "ĠNada",
        -10.48707907506912
      ],
      [
        "existente",
        -10.487090577051614
      ],
      [
        "Ġcima",
        -10.487134865842496
      ],
      [
        "Ġauxi",
        -10.487727247232067
      ],
      [
        "ĠEspanha",
        -10.487767652805807
      ],
      [
        "Ġinteiro",
        -10.488192192869946
      ],
      [
        "ĠCorre",
        -10.488229261565664
      ],
      [
        "funcionamento",
        -10.488432576029004
      ],
      [
        "Ġpersonagem",
        -10.488503043787384
      ],
      [
        "Ġmorreu",
        -10.489033867237827
      ],
      [
        "PB",
        -10.48904852912204
      ],
      [
        "Ġcampea",
        -10.489362782035048
      ],
      [
        ".............",
        -10.489378401073727
      ],
      [
        "ĠNota",
        -10.489526713378249
      ],
      [
        "Ġsabia",
        -10.489684476359038
      ],
      [
        "Ġveja",
        -10.490210958399713
      ],
      [
        "Outra",
        -10.490295626150893
      ],
      [
        "Ġproduzir",
        -10.490386576006967
      ],
      [
        "mantid",
        -10.49190360974642
      ],
      [
        "ĠVito",
        -10.492157661549806
      ],
      [
        "Ġ62",
        -10.492416420032882
      ],
      [
        "Ġprefeito",
        -10.492823566031252
      ],
      [
        "policiais",
        -10.492946089375202
      ],
      [
        "Ġ58",
        -10.493185497835302
      ],
      [
        "RN",
        -10.49322833429402
      ],
      [
        "nsul",
        -10.494076395593838
      ],
      [
        "Embora",
        -10.4945005132825
      ],
      [
        "ĠEdita",
        -10.496141943643137
      ],
      [
        "ĠClube",
        -10.496408042565474
      ],
      [
        "trinta",
        -10.496860108436508
      ],
      [
        "Ġ46",
        -10.497175585628703
      ],
      [
        "Ġpermanente",
        -10.49743217997704
      ],
      [
        "Ġindividual",
        -10.498935953383274
      ],
      [
        "Ġesco",
        -10.499231964855484
      ],
      [
        "µ",
        -10.499419302551107
      ],
      [
        "negociac",
        -10.5002921506832
      ],
      [
        "ĠMelhor",
        -10.50035101331424
      ],
      [
        "ENTE",
        -10.500438567869368
      ],
      [
        "Ġadministrativo",
        -10.500536923188225
      ],
      [
        "ĠParlamentare",
        -10.50081244126951
      ],
      [
        "humanos",
        -10.501009270009872
      ],
      [
        "Ġcrista",
        -10.501333486275506
      ],
      [
        "suspensa",
        -10.501473026923517
      ],
      [
        "ĠAto",
        -10.501838288473744
      ],
      [
        "ĠYork",
        -10.502420752289137
      ],
      [
        "Ġcur",
        -10.502618368075412
      ],
      [
        "Ġadolescente",
        -10.502802642930806
      ],
      [
        "Ġ1992",
        -10.502897954988608
      ],
      [
        "finalidade",
        -10.502901224193996
      ],
      [
        "Ġmedo",
        -10.503158992450157
      ],
      [
        "Ġ39",
        -10.503472086580764
      ],
      [
        "Ġimplica",
        -10.504092301367413
      ],
      [
        "Ġdeterminado",
        -10.504252457291692
      ],
      [
        "Assunto",
        -10.50430721349689
      ],
      [
        "ĠMuseu",
        -10.504357657679265
      ],
      [
        "ĠPala",
        -10.50508897136988
      ],
      [
        "Sarney",
        -10.506433666918172
[...]
