{
  "version": "1.0",
  "truncation": {
    "direction": "Right",
    "max_length": 2048,
    "strategy": "LongestFirst",
    "stride": 0
  },
  "padding": null,
  "added_tokens": [
    {
      "id": 0,
      "content": "[PAD]",
      "single_word": false,
      "lstrip": false,
      "rstrip": false,
      "normalized": false,
      "special": true
    },
    {
      "id": 1,
      "content": "[SEP]",
      "single_word": false,
      "lstrip": false,
      "rstrip": false,
      "normalized": false,
      "special": true
    },
    {
      "id": 2,
      "content": "[EOS]",
      "single_word": false,
      "lstrip": false,
      "rstrip": false,
      "normalized": false,
      "special": true
    },
    {
      "id": 3,
      "content": "[UNK]",
      "single_word": false,
      "lstrip": false,
      "rstrip": false,
      "normalized": false,
      "special": true
    }
  ],
  "normalizer": {
    "type": "Sequence",
    "normalizers": [
      {
        "type": "Strip",
        "strip_left": true,
        "strip_right": true
      },
      {
        "type": "NFKD"
      }
    ]
  },
  "pre_tokenizer": {
    "type": "ByteLevel",
    "add_prefix_space": true,
    "trim_offsets": true,
    "use_regex": true
  },
  "post_processor": {
    "type": "Sequence",
    "processors": [
      {
        "type": "ByteLevel",
        "add_prefix_space": true,
        "trim_offsets": true,
        "use_regex": true
      },
      {
        "type": "TemplateProcessing",
        "single": [
          {
            "Sequence": {
              "id": "A",
              "type_id": 0
            }
          },
          {
            "SpecialToken": {
              "id": "[EOS]",
              "type_id": 0
            }
          }
        ],
        "pair": [
          {
            "Sequence": {
              "id": "A",
              "type_id": 0
            }
          },
          {
            "SpecialToken": {
              "id": "[SEP]",
              "type_id": 0
            }
          },
          {
            "Sequence": {
              "id": "B",
              "type_id": 0
            }
          },
          {
            "SpecialToken": {
              "id": "[EOS]",
              "type_id": 0
            }
          }
        ],
        "special_tokens": {
          "[EOS]": {
            "id": "[EOS]",
            "ids": [
              2
            ],
            "tokens": [
              "[EOS]"
            ]
          },
          "[SEP]": {
            "id": "[SEP]",
            "ids": [
              1
            ],
            "tokens": [
              "[SEP]"
            ]
          }
        }
      }
    ]
  },
  "decoder": {
    "type": "ByteLevel",
    "add_prefix_space": true,
    "trim_offsets": true,
    "use_regex": true
  },
  "model": {
    "type": "Unigram",
    "unk_id": 3,
    "vocab": [
      [
        "[PAD]",
        0.0
      ],
      [
        "[SEP]",
        0.0
      ],
      [
        "[EOS]",
        0.0
      ],
      [
        "[UNK]",
        0.0
      ],
      [
        "Ġ",
        -2.004226952727457
      ],
      [
        "Ì",
        -2.69602899265368
      ],
      [
        "a",
        -3.0407179283415857
      ],
      [
        "o",
        -3.047750944268614
      ],
      [
        ",",
        -3.4015644800889255
      ],
      [
        "s",
        -3.4775783881184843
      ],
      [
        "ģ",
        -3.4941589626185205
      ],
      [
        "e",
        -3.6030791994193017
      ],
      [
        ".",
        -3.6262456344793783
      ],
      [
        "Ġde",
        -3.7815218715046512
      ],
      [
        "ĥ",
        -3.8004742636239257
      ],
      [
        "§",
        -4.239380220152235
      ],
      [
        "d",
        -4.563273463753529
      ],
      [
        "-",
        -4.7398585251988194
      ],
      [
        "Ġque",
        -4.7435957711213845
      ],
      [
        "Ġdo",
        -4.759117722691936
      ],
      [
        "m",
        -5.024826044206126
      ],
      [
        "u",
        -5.0747048565799595
      ],
      [
        "ÌĤ",
        -5.164044259688588
      ],
      [
        "Ġna",
        -5.272428086693747
      ],
      [
        "Ġem",
        -5.3358167302416035
      ],
      [
        "\"",
        -5.384038765722121
      ],
      [
        "O",
        -5.40739501551246
      ],
      [
        "Ġno",
        -5.420550914480668
      ],
      [
        ")",
        -5.4413159353508185
      ],
      [
        "(",
        -5.4417686283149465
      ],
      [
        "A",
        -5.512397995080281
      ],
      [
        "Ġpara",
        -5.5267166654947815
      ],
      [
        "i",
        -5.630252365724349
      ],
      [
        "Ġcom",
        -5.681986427377062
      ],
      [
        "n",
        -5.780161163221468
      ],
      [
        "r",
        -5.80755224138597
      ],
      [
        "c",
        -5.824953817251059
      ],
      [
        ":",
        -5.865343868173381
      ],
      [
        "/",
        -5.906090704970232
      ],
      [
        "ĠâĢĵ",
        -5.909027522506513
      ],
      [
        "Ġum",
        -5.917855449747014
      ],
      [
        "Ġuma",
        -6.131808385324808
      ],
      [
        "Ġpor",
        -6.145404788907117
      ],
      [
        "ncia",
        -6.290643341424008
      ],
      [
        "ÌĢ",
        -6.3059388237876455
      ],
      [
        "E",
        -6.3226054953148125
      ],
      [
        "rio",
        -6.361633211084687
      ],
      [
        "t",
        -6.394619041999773
      ],
      [
        "l",
        -6.395521806486034
      ],
      [
        "Ġdos",
        -6.429882582266863
      ],
      [
        "ria",
        -6.562941458716299
      ],
      [
        "Ġcomo",
        -6.572495617871494
      ],
      [
        "?",
        -6.627068093946081
      ],
      [
        "Ġfoi",
        -6.655171427771217
      ],
      [
        "S",
        -6.665058157132938
      ],
      [
        "Ġesta",
        -6.687637567097484
      ],
      [
        "Ġmais",
        -6.728163603173373
      ],
      [
        "1",
        -6.747984899433458
      ],
      [
        "!",
        -6.769454789700857
      ],
      [
        "Ġdas",
        -6.821095137127303
      ],
      [
        ";",
        -6.862210713999307
      ],
      [
        "Ġpela",
        -6.880576761179462
      ],
      [
        "2",
        -6.9031139782567
      ],
      [
        "ĠDE",
        -6.92097028606746
      ],
      [
        "ĠNo",
        -6.931415629906061
      ],
      [
        "ĠNa",
        -6.944747891306328
      ],
      [
        "Ġpelo",
        -6.950600210603113
      ],
      [
        "Ġsua",
        -6.972318695410879
      ],
      [
        "Ġser",
        -7.0184316576271435
      ],
      [
        "ĠSr",
        -7.025589189030887
      ],
      [
        "ndo",
        -7.031231335848142
      ],
      [
        "C",
        -7.118741926633618
      ],
      [
        "Ġsobre",
        -7.1275652847040885
      ],
      [
        "p",
        -7.133413648104984
      ],
      [
        "...",
        -7.18092659529232
      ],
      [
        "................",
        -7.19038229215376
      ],
      [
        "ĠâĢľ",
        -7.21126738041627
      ],
      [
        "Ġseu",
        -7.21213880135952
      ],
      [
        "3",
        -7.222159673109664
      ],
      [
        "ĠPresidente",
        -7.2656128779982705
      ],
      [
        "vel",
        -7.27609313273814
      ],
      [
        "Ġtambe",
        -7.300904328406354
      ],
      [
        "ĠLei",
        -7.335221567812839
      ],
      [
        "ĠEm",
        -7.361573164262335
      ],
      [
        "Ġnos",
        -7.378047106847429
      ],
      [
        "dos",
        -7.389714807053709
      ],
      [
        "ĠDeputado",
        -7.410487909676563
      ],
      [
        "Ġmas",
        -7.414328673641524
      ],
      [
        "I",
        -7.421946541912654
      ],
      [
        "Ġtem",
        -7.424122746957957
      ],
      [
        "h",
        -7.468500028714246
      ],
      [
        "5",
        -7.477177824375783
      ],
      [
        "4",
        -7.4880997382105505
      ],
      [
        "Ġele",
        -7.489430504066224
      ],
      [
        "b",
        -7.53241399099646
      ],
      [
        "ĠSR",
        -7.544981289517843
      ],
      [
        "tica",
        -7.553468310861707
      ],
      [
        "ncias",
        -7.558722882715772
      ],
      [
        "ĠFederal",
        -7.564421101678032
      ],
      [
        "Ġart",
        -7.570562227313671
      ],
      [
        "R",
        -7.574102150794898
      ],
      [
        "de",
        -7.576052277894599
      ],
      [
        "cio",
        -7.584519484761664
      ],
      [
        "mente",
        -7.586944371774303
      ],
      [
        "Ġvoce",
        -7.58760969773148
      ],
      [
        "D",
        -7.597291410179988
      ],
      [
        "Ġisso",
        -7.609390447584229
      ],
      [
        "rios",
        -7.60959870699932
      ],
      [
        "Ġte",
        -7.6143717659206445
      ],
      [
        "ĠSenador",
        -7.618195111924411
      ],
      [
        "ĠBrasil",
        -7.624200299121831
      ],
      [
        "ĠEstado",
        -7.625391520067279
      ],
      [
        "mos",
        -7.651532797069832
      ],
      [
        "f",
        -7.674072770108978
      ],
      [
        "Ġpu",
        -7.6778361133443855
      ],
      [
        "g",
        -7.682695145704885
      ],
      [
        "Ġanos",
        -7.701265657760107
      ],
      [
        "Ġentre",
        -7.703162293345585
      ],
      [
        "Ġmuito",
        -7.707246597273414
      ],
      [
        "ĠEu",
        -7.72318667677361
      ],
      [
        "Ġja",
        -7.748880814826574
      ],
      [
        "V",
        -7.759200788062673
      ],
      [
        "v",
        -7.762881347035368
      ],
      [
        "ĠSa",
        -7.770958471221231
      ],
      [
        "%",
        -7.771153789562469
      ],
      [
        "das",
        -7.773537245352596
      ],
      [
        "Ġate",
        -7.775150443484998
      ],
      [
        "blica",
        -7.793913785251091
      ],
      [
        "6",
        -7.816928338919924
      ],
      [
        "ĠComissa",
        -7.820155800623002
      ],
      [
        "Ġpro",
        -7.82527090240149
      ],
      [
        "y",
        -7.831927340075801
      ],
      [
        "Ġbem",
        -7.849514060913842
      ],
      [
        "P",
        -7.889518906520413
      ],
      [
        "Ġquando",
        -7.901091681412687
      ],
      [
        "8",
        -7.902962994968329
      ],
      [
        "z",
        -7.911786730084758
      ],
      [
        "Ġpode",
        -7.9258576738937485
      ],
      [
        "ĠCa",
        -7.926194359817316
      ],
      [
        "Ġforma",
        -7.931104669950031
      ],
      [
        "Ġmesmo",
        -7.931495835845109
      ],
      [
        "7",
        -7.937823967006695
      ],
      [
        "ĠNacional",
        -7.94135844951974
      ],
      [
        "Ġaqui",
        -7.9420616473388606
      ],
      [
        "lia",
        -7.951633623673395
      ],
      [
        "Ġsem",
        -7.955923813413648
      ],
      [
        "Ġdia",
        -7.973963416984532
      ],
      [
        "N",
        -7.975990212346989
      ],
      [
        "era",
        -7.978759960161655
      ],
      [
        "Ġpoli",
        -7.979938936840744
      ],
      [
        "ĠÂ§",
        -7.9841868612925
      ],
      [
        "Ġtodos",
        -7.991888047296817
      ],
      [
        "Ġcontra",
        -7.993114553288827
      ],
      [
        "Ġter",
        -7.997913850272715
      ],
      [
        "9",
        -8.001300548437309
      ],
      [
        "Ġainda",
        -8.00462828400857
      ],
      [
        "Ġpai",
        -8.021406115010377
      ],
      [
        "Ġseus",
        -8.028810661475786
      ],
      [
        "ti",
        -8.037901630527584
      ],
      [
        "M",
        -8.040324884341604
      ],
      [
        "L",
        -8.053826434812652
      ],
      [
        "ri",
        -8.056405657278274
      ],
      [
        "B",
        -8.067424316300919
      ],
      [
        "ĠSe",
        -8.072638136463143
      ],
      [
        "Ìģ-",
        -8.081680104054225
      ],
      [
        "Ġha",
        -8.087570483765743
      ],
      [
        "Ġforam",
        -8.088316524850969
      ],
      [
        "Ġparte",
        -8.091459648927179
      ],
      [
        "ĠOs",
        -8.09491918783261
      ],
      [
        "âĢĿ.",
        -8.098845077874776
      ],
      [
        "ĠPaulo",
        -8.104493897920385
      ],
      [
        "Ġfazer",
        -8.106970477203362
      ],
      [
        "rias",
        -8.126804121689274
      ],
      [
        "T",
        -8.134133635791576
      ],
      [
        "dio",
        -8.13615414104653
      ],
      [
        "Ġservic",
        -8.141903279077017
      ],
      [
        "Ġ10",
        -8.142831659127191
      ],
      [
        "Ġcidade",
        -8.146456258780775
      ],
      [
        "k",
        -8.149283617759734
      ],
      [
        "ĠPor",
        -8.149510795307512
      ],
      [
        "Ġano",
        -8.178662327843785
      ],
      [
        "cia",
        -8.179032673942798
      ],
      [
        "Ġesse",
        -8.184821241482723
      ],
      [
        "Ġseja",
        -8.190129623536246
      ],
      [
        "que",
        -8.194079535793229
      ],
      [
        "ĠPROJETO",
        -8.200227568212437
      ],
      [
        "ĠPL",
        -8.200318962759297
      ],
      [
        "Ġtempo",
        -8.202154276662844
      ],
      [
        "Ġva",
        -8.202451031880083
      ],
      [
        "li",
        -8.207926746593166
      ],
      [
        "Ġporque",
        -8.21447130829531
      ],
      [
        "Ġvai",
        -8.215881683503548
      ],
      [
        "Ġmeu",
        -8.222083365319065
      ],
      [
        "ĠPara",
        -8.225768318996689
      ],
      [
        "Ġessa",
        -8.239174685714639
      ],
      [
        "ĠDeputados",
        -8.239338176649643
      ],
      [
        "ĠDe",
        -8.239498179188796
      ],
      [
        "ĠLEI",
        -8.239751157193549
      ],
      [
        "Ġcaso",
        -8.244726976000102
      ],
      [
        "ĠPRESIDENTE",
        -8.244943403097478
      ],
      [
        "veis",
        -8.250168946978512
      ],
      [
        "Ġprimeiro",
        -8.251189889431725
      ],
      [
        "pio",
        -8.260325878978895
      ],
      [
        "nico",
        -8.273405309669172
      ],
      [
        "mara",
        -8.273741588728553
      ],
      [
        "ĠMas",
        -8.28048163834167
      ],
      [
        "ĠGoverno",
        -8.283468197966986
      ],
      [
        "ĠMinistro",
        -8.287575342237629
      ],
      [
        "Ġsera",
        -8.291547630434438
      ],
      [
        "ĠConstituic",
        -8.294798155728571
      ],
      [
        "ĠVoce",
        -8.301666193665215
      ],
      [
        "ĠEle",
        -8.304778641267356
      ],
      [
        "Ġpessoas",
        -8.308867815642545
      ],
      [
        "Ĥ",
        -8.310980878119798
      ],
      [
        "Ġonde",
        -8.311866979081074
      ],
      [
        "ĠEsta",
        -8.313787521095813
      ],
      [
        "U",
        -8.32259955272319
      ],
      [
        "Ġvez",
        -8.32521135138455
      ],
      [
        "Ġoutros",
        -8.326869957025997
      ],
      [
        "Ġgrande",
        -8.328565710925355
      ],
      [
        "Ġartigo",
        -8.333905978486799
      ],
      [
        "'",
        -8.33910075074121
      ],
      [
        "idade",
        -8.34788780802915
      ],
      [
        "Ġapenas",
        -8.349520859686459
      ],
      [
        "Ġtrabalho",
        -8.352355105155786
      ],
      [
        "Ġoutras",
        -8.35626345209289
      ],
      [
        "blico",
        -8.368371820809056
      ],
      [
        "ĠRELATOR",
        -8.370653313301402
      ],
      [
        "Ġdois",
        -8.371716612253978
      ],
      [
        "um",
        -8.373730363934948
      ],
      [
        "ES",
        -8.374902953735472
      ],
      [
        "Ġsendo",
        -8.375238562107963
      ],
      [
        "dia",
        -8.385722524304041
      ],
      [
        "Ġnas",
        -8.386767332936293
      ],
      [
        "Ġsuas",
        -8.392997019800921
      ],
      [
        "ĠRio",
        -8.395194544067959
      ],
      [
        "nio",
        -8.402246653527055
      ],
      [
        "ĠRefere",
        -8.402609599459872
      ],
      [
        "Ġordem",
        -8.409868086172729
      ],
      [
        "G",
        -8.41621173886091
      ],
      [
        "Ġela",
        -8.42620690337356
      ],
      [
        "ĠII",
        -8.426600909124573
      ],
      [
        "ĠProjeto",
        -8.433140178806006
      ],
      [
        "ĠAs",
        -8.436879347732377
      ],
      [
        "Ġmaior",
        -8.448672428978483
      ],
      [
        "Ġminha",
        -8.451072178203367
      ],
      [
        "Ġtermos",
        -8.452131836919476
      ],
      [
        "Ġhoje",
        -8.452415454952058
      ],
      [
        "tico",
        -8.454932149663726
      ],
      [
        "Ġeste",
        -8.456099430425718
      ],
      [
        "ram",
        -8.46104447583731
      ],
      [
        "ĠCasa",
        -8.461246716471681
      ],
      [
        "ĠPai",
        -8.461343805277837
      ],
      [
        "Ġprocesso",
        -8.467549728841643
      ],
      [
        "Ġmeio",
        -8.47066279496309
      ],
      [
        "Ġassim",
        -8.479406084618462
      ],
      [
        "Ġprojeto",
        -8.48318176955996
      ],
      [
        "ĠArt",
        -8.48401543792653
      ],
      [
        "PSDB",
        -8.490451532186814
      ],
      [
        "ĠDO",
        -8.492372908094472
      ],
      [
        "nia",
        -8.494385182497538
      ],
      [
        "Ġ11",
        -8.506289026469915
      ],
      [
        "Ġdesta",
        -8.50664072288891
      ],
      [
        "ĠCom",
        -8.509449161573558
      ],
      [
        "Ġqual",
        -8.5211694527605
      ],
      [
        "Ġnosso",
        -8.524219651255244
      ],
      [
        "Ġlei",
        -8.527265657629455
      ],
      [
        "ĠJose",
        -8.532861378056449
      ],
      [
        "Ġdireito",
        -8.533806472060483
      ],
      [
        "ĠSenado",
        -8.543541575349705
      ],
      [
        "âĢĿ",
        -8.545322124486074
      ],
      [
        "Ġqualquer",
        -8.551124574755296
      ],
      [
        "ĠTribunal",
        -8.557799194730265
      ],
      [
        "ĠComo",
        -8.558674726450489
      ],
      [
        "$",
        -8.561158030490025
      ],
      [
        "Ġprimeira",
        -8.56601732135794
      ],
      [
        "ĠâĢ¢",
        -8.570738111095832
      ],
      [
        "j",
        -8.571988027281616
      ],
      [
        "Ġpalavra",
        -8.58499134686966
      ],
      [
        "Ġhisto",
        -8.58586300179488
      ],
      [
        "Ġnome",
        -8.588297293403166
      ],
      [
        "Ġacordo",
        -8.588732660472042
      ],
      [
        "Ġapo",
        -8.59004075799731
      ],
      [
        "Ġsistema",
        -8.595540667616378
      ],
      [
        "Ġpra",
        -8.596571050937824
      ],
      [
        "Ġdeste",
        -8.597245792985849
      ],
      [
        "Ġdepois",
        -8.597489474427237
      ],
      [
        "F",
        -8.602637156947008
      ],
      [
        "Ġinformac",
        -8.603405024744546
      ],
      [
        "ĠMiniste",
        -8.603726835771273
      ],
      [
        "ĠPu",
        -8.61194936806615
      ],
      [
        "Ġvi",
        -8.612412345967584
      ],
      [
        "Ġtodo",
        -8.614691503810175
      ],
      [
        "Ġ12",
        -8.615884818158941
      ],
      [
        "Ġprazo",
        -8.617690005773175
      ],
      [
        "Ġseguinte",
        -8.622743538584071
      ],
      [
        "ĠDA",
        -8.629497270703272
      ],
      [
        "Ġdisse",
        -8.629608268947981
      ],
      [
        "ĠRepu",
        -8.631248579339521
      ],
      [
        "ĠCarlos",
        -8.632823641085498
      ],
      [
        "Ġvida",
        -8.640532371176088
      ],
      [
        "Ġcada",
        -8.647466307244155
      ],
      [
        "Ġagora",
        -8.649159211016404
      ],
      [
        "ĠSenhor",
        -8.656282747783603
      ],
      [
        "Ġpresente",
        -8.656532582550641
      ],
      [
        "Ġdeve",
        -8.657866785130835
      ],
      [
        "ĠSem",
        -8.658819619967838
      ],
      [
        "Ġcomec",
        -8.660050652764367
      ],
      [
        "ĠSim",
        -8.661325618816303
      ],
      [
        "ĠRelator",
        -8.66136427694994
      ],
      [
        "Ġrelac",
        -8.680807438050444
      ],
      [
        "Bloco",
        -8.68096951363368
      ],
      [
        "Ġmate",
        -8.686848674610705
      ],
      [
        "durante",
        -8.690350981492657
      ],
      [
        "Ġsegundo",
        -8.690599913777016
      ],
      [
        "fica",
        -8.6909895456476
      ],
      [
        "...............",
        -8.691541626333125
      ],
      [
        "Ġ15",
        -8.692069459160319
      ],
      [
        "Ġdizer",
        -8.692878324836709
      ],
      [
        "Ġ20",
        -8.693106961305071
      ],
      [
        "Ġtre",
        -8.693271378898643
      ],
      [
        "Ġmundo",
        -8.695544638844732
      ],
      [
        "ĠMunici",
        -8.697624561138781
      ],
      [
        "ĠPT",
        -8.702127449259551
      ],
      [
        "ĠJustic",
        -8.71193927270693
      ],
      [
        "Ġmelhor",
        -8.713394129847176
      ],
      [
        "Ġsido",
        -8.725850825095206
      ],
      [
        "Ġpre",
        -8.731031504859434
      ],
      [
        "J",
        -8.732348438972359
      ],
      [
        "nica",
        -8.733343527127403
      ],
      [
        "Ġrecursos",
        -8.73586021844808
      ],
      [
        "0",
        -8.737769352076775
      ],
      [
        "ĠEstados",
        -8.74377079797337
      ],
      [
        "2009",
        -8.743948292096375
      ],
      [
        "Ġdezembro",
        -8.744349221832742
      ],
      [
        "RIO",
        -8.747591579969624
      ],
      [
        "sica",
        -8.752709202057995
      ],
      [
        "Ġvoto",
        -8.75958345515537
      ],
      [
        "Ġestava",
        -8.761643226237565
      ],
      [
        "Ġperi",
        -8.764679103416052
      ],
      [
        "ĠCo",
        -8.766154693852268
      ],
      [
        "Ġsob",
        -8.768086094769249
      ],
      [
        "Ġpartir",
        -8.76813202048242
      ],
      [
        "Ġpopulac",
        -8.769790280427793
      ],
      [
        "Ġmil",
        -8.772969187250153
      ],
      [
        "Ġin",
        -8.776596723048446
      ],
      [
        "Ġtudo",
        -8.778300430608683
      ],
      [
        "x",
        -8.78189305910737
      ],
      [
        "Ġoutro",
        -8.783975703086286
      ],
      [
        "_",
        -8.78569851016734
      ],
      [
        "Ġrevisa",
        -8.786462126991847
      ],
      [
        "Ġfami",
        -8.798241406435993
      ],
      [
        "ĠJoa",
        -8.799281029325662
      ],
      [
        "Ġlanc",
        -8.802871594334922
      ],
      [
        "lio",
        -8.80476493456752
      ],
      [
        "ĠMa",
        -8.804906009725173
      ],
      [
        "Ġnossa",
        -8.804968339392437
      ],
      [
        "âĢĵ",
        -8.805432666200963
      ],
      [
        "mero",
        -8.80615915696285
      ],
      [
        "ÌĪ",
        -8.807083290681595
      ],
      [
        "Ġdesde",
        -8.807738070588487
      ],
      [
        "Ġgoverno",
        -8.80950124712307
      ],
      [
        "Ġempresa",
        -8.813011680892963
      ],
      [
        "decisa",
        -8.817893533513576
      ],
      [
        "min",
        -8.817928468509962
      ],
      [
        "@",
        -8.820129423171956
      ],
      [
        "=",
        -8.82168185353792
      ],
      [
        "ĠPMDB",
        -8.822201341101628
      ],
      [
        "Ġdias",
        -8.823590618535919
      ],
      [
        "PT",
        -8.826860064382277
      ],
      [
        "Ġmilho",
        -8.83905664336499
      ],
      [
        "ĠUm",
        -8.83938831646471
      ],
      [
        "ĠIsso",
        -8.839643837610048
      ],
      [
        "Ġnovo",
        -8.839794177407814
      ],
      [
        "Ġ13",
        -8.83984690777038
      ],
      [
        "11",
        -8.842508290005336
      ],
      [
        "ĠUnia",
        -8.843856543624806
      ],
      [
        "orador",
        -8.85112168133419
      ],
      [
        "votac",
        -8.85260981693877
      ],
      [
        "Ġenta",
        -8.85807256987201
      ],
      [
        "ĠDo",
        -8.85847187149217
      ],
      [
        "Ġsempre",
        -8.859659202940282
      ],
      [
        "00",
        -8.859859736574377
      ],
      [
        "ter",
        -8.864471145856042
      ],
      [
        "rito",
        -8.86530106399877
      ],
      [
        "pios",
        -8.865895228705657
      ],
      [
        "Ġinciso",
        -8.866029811029607
      ],
      [
        "10",
        -8.866032779077546
      ],
      [
        "Ġ14",
        -8.867002243554147
      ],
      [
        "Ġfinal",
        -8.872076328220428
      ],
      [
        "Ġ16",
        -8.874543386689881
      ],
      [
        "Ġco",
        -8.874593832777496
      ],
      [
        "Ġcondic",
        -8.87622995981674
      ],
      [
        "Ġpelos",
        -8.878285558231289
      ],
      [
        "Ġmomento",
        -8.878386604318866
      ],
      [
        "Ġeles",
        -8.879205776829966
      ],
      [
        "Ġbrasileiro",
        -8.880070045776659
      ],
      [
        "ticas",
        -8.880101715699046
      ],
      [
        "Ġduas",
        -8.881212989393148
      ],
      [
        "Ġato",
        -8.882421292702123
      ],
      [
        "culo",
        -8.883645135939648
      ],
      [
        "Ġvalor",
        -8.890116086099423
      ],
      [
        "Ġpouco",
        -8.890194967738385
      ],
      [
        "Ġpa",
        -8.890855627015124
      ],
      [
        "Ġex",
        -8.891330065224002
      ],
      [
        "ĠEnta",
        -8.891526120612536
      ],
      [
        "ĠFoi",
        -8.892549184214948
      ],
      [
        "ĠâĢĶ",
        -8.894586332197667
      ],
      [
        "09",
        -8.898442363735704
      ],
      [
        "Ġantes",
        -8.899725106533232
      ],
      [
        "Ġmenos",
        -8.902267881393737
      ],
      [
        "aprovac",
        -8.912348745019884
      ],
      [
        "ĠPela",
        -8.915429922200433
      ],
      [
        "Ġquanto",
        -8.916951823155253
      ],
      [
        "Congresso",
        -8.920156066909323
      ],
      [
        "Ġnesta",
        -8.922133077913735
      ],
      [
        "Ġfim",
        -8.928823993953731
      ],
      [
        "ĠMe",
        -8.930089845367856
      ],
      [
        "Ġ24",
        -8.930678128800366
      ],
      [
        "Ġsau",
        -8.933251437906257
      ],
      [
        "Ġtinha",
        -8.933743190912162
      ],
      [
        "ĠSul",
        -8.935319061160572
      ],
      [
        "Ġfato",
        -8.93774190597424
      ],
      [
        "Ġproposta",
        -8.94083747058971
      ],
      [
        "Ġimportante",
        -8.941295330852377
      ],
      [
        "ĠLi",
        -8.94365561232377
      ],
      [
        "neste",
        -8.94404861983198
      ],
      [
        "Ġgrupo",
        -8.944933105778633
      ],
      [
        "Ġ17",
        -8.948890334020696
      ],
      [
        "Ġtodas",
        -8.956257837385738
      ],
      [
        "amento",
        -8.957567520655479
      ],
      [
        "Ġ30",
        -8.961848308778503
      ],
      [
        "ĠPoder",
        -8.962780807879593
      ],
      [
        "Ġvezes",
        -8.963436730921673
      ],
      [
        "mica",
        -8.963623298314067
      ],
      [
        "Ġcasa",
        -8.966369475133988
      ],
      [
        "Ġdar",
        -8.969697891129524
      ],
      [
        "Ġfaz",
        -8.970322917542916
      ],
      [
        "Ġver",
        -8.97104728038957
      ],
      [
        "Ġ18",
        -8.977260445886854
      ],
      [
        "gua",
        -8.98038267524578
      ],
      [
        "Ġexemplo",
        -8.98128423738779
      ],
      [
        "Ġregia",
        -8.984143621478308
      ],
      [
        "âĢĿ,",
        -8.984642409448137
      ],
      [
        "Ġfez",
        -8.986289647490326
      ],
      [
        "rga",
        -8.98791700070924
      ],
      [
        "Ġconta",
        -8.989970792046885
      ],
      [
        "Ġexternas",
        -8.990150251679697
      ],
      [
        "Ligac",
        -8.990328945046528
      ],
      [
        "cie",
        -8.993655912134132
      ],
      [
        "Exa",
        -8.996773989879403
      ],
      [
        "discussa",
        -8.997330558798872
      ],
      [
        "Ġale",
        -8.997758996202668
      ],
      [
        "Ġnecessa",
        -8.997766198457008
      ],
      [
        "Ġmaio",
        -9.002266293819147
      ],
      [
        "ĠLuiz",
        -9.002663093425666
      ],
      [
        "der",
        -9.00743754769706
      ],
      [
        "Ġmarc",
        -9.007624708999568
      ],
      [
        "Ġpois",
        -9.011772170681756
      ],
      [
        "Ġlugar",
        -9.012455308943764
      ],
      [
        "digo",
        -9.01561653989353
      ],
      [
        "Ġjulho",
        -9.017186833742326
      ],
      [
        "Ġmunici",
        -9.017296877192068
      ],
      [
        "Ġrecurso",
        -9.017531632036905
      ],
      [
        "Ġ2007",
        -9.01950177769558
      ],
      [
        "Ġbase",
        -9.019876533734951
      ],
      [
        "Ġquero",
        -9.020375060122497
      ],
      [
        "Ġsituac",
        -9.021709573776992
      ],
      [
        "Ġdiz",
        -9.022348438694657
      ],
      [
        "Ġtendo",
        -9.023146293333497
      ],
      [
        "ĠSra",
        -9.028243074161711
      ],
      [
        "Ġtoda",
        -9.03192478156927
      ],
      [
        "Ġpoder",
        -9.034963472948991
      ],
      [
        "Ġalguns",
        -9.03564966036168
      ],
      [
        "Ġsocial",
        -9.03636570877007
      ],
      [
        "Ġdata",
        -9.036535613662217
      ],
      [
        "Ġsentido",
        -9.038005910528598
      ],
      [
        "Ġsetembro",
        -9.039571424965684
      ],
      [
        "ĠSESS",
        -9.043028616676148
      ],
      [
        "Ġnada",
        -9.048980914523812
      ],
      [
        "Ġ:(",
        -9.056073957271192
      ],
      [
        "Ġvou",
        -9.05692131114503
      ],
      [
        "Â°",
        -9.065001524746933
      ],
      [
        "Ġpovo",
        -9.065491898493672
      ],
      [
        "Ġpodem",
        -9.068452349034072
      ],
      [
        "questa",
        -9.070557341946834
      ],
      [
        "Ġseria",
        -9.070577777980484
      ],
      [
        "Ġ19",
        -9.070718437874596
      ],
      [
        "Ġsociedade",
        -9.072218436525915
      ],
      [
        "Ġcoisa",
        -9.07261017193189
      ],
      [
        "Ġnem",
        -9.073850641577378
      ],
      [
        "Ġmesma",
        -9.07532810778801
      ],
      [
        "junho",
        -9.07709856567924
      ],
      [
        "Ġnova",
        -9.083610020334394
      ],
      [
        "UTC",
        -9.084890443320266
      ],
      [
        "Ġfavor",
        -9.086775789377
      ],
      [
        "Ġtemos",
        -9.087278700422956
      ],
      [
        "Ġnacional",
        -9.08896246625612
      ],
      [
        "ĠMuito",
        -9.092496925153442
      ],
      [
        "ĠVer",
        -9.09277532191876
      ],
      [
        "Ġtenho",
        -9.0931127598135
      ],
      [
        "Ġteve",
        -9.095333221488811
      ],
      [
        "mento",
        -9.096376095270887
      ],
      [
        "Ġ21",
        -9.096465371012192
      ],
      [
        "Ġ2008",
        -9.096611022358774
      ],
      [
        "ĠGrande",
        -9.096702421908583
      ],
      [
        "ĠVamos",
        -9.097181771301033
      ],
      [
        "2015",
        -9.100956912440338
      ],
      [
        "Ġ2009",
        -9.10385402871023
      ],
      [
        "Ġbrasileira",
        -9.107728253010183
      ],
      [
        "ĠHa",
        -9.110055187483033
      ],
      [
        "Ġ2006",
        -9.111344886986531
      ],
      [
        "Ġdesenvolvimento",
        -9.112474555239189
      ],
      [
        "Ġecono",
        -9.114169678542911
      ],
      [
        "Ġdisso",
        -9.114323735393366
      ],
      [
        "Ġestou",
        -9.115843239810108
      ],
      [
        "ĠDecreto",
        -9.116147305657387
      ],
      [
        "12",
        -9.11974835993222
      ],
      [
        "rica",
        -9.127255366992529
      ],
      [
        "tulo",
        -9.128629650960844
      ],
      [
        "ĠExa",
        -9.129341672363472
      ],
      [
        "PMDB",
        -9.130573531527048
      ],
      [
        "ĠJa",
        -9.131008418373373
      ],
      [
        "Ġtanto",
        -9.135495386185276
      ],
      [
        "Ġoutra",
        -9.136428973126227
      ],
      [
        "Ġconstitucional",
        -9.137837745583278
      ],
      [
        "Ġ23",
        -9.145532836539594
      ],
      [
        "com",
        -9.14737004586167
      ],
      [
        "Ġmedida",
        -9.148086082317002
      ],
      [
        "Ġbom",
        -9.148092563482155
      ],
      [
        "Ģ",
        -9.150283575365943
      ],
      [
        "ĠSanta",
        -9.1507165688391
      ],
      [
        "Ġcausa",
        -9.151827045408218
      ],
      [
        "Ġprograma",
        -9.152564275907814
      ],
      [
        "Ġsei",
        -9.15506007552255
      ],
      [
        "ĠJaneiro",
        -9.155693383713746
      ],
      [
        "fico",
        -9.15789380595206
      ],
      [
        "Ġoutubro",
        -9.158262445529106
      ],
      [
        "Ġagosto",
        -9.159049869765406
      ],
      [
        "Ġ25",
        -9.159603427584168
      ],
      [
        "vida",
        -9.161788996124509
      ],
      [
        "Ġpessoa",
        -9.166540989568178
      ],
      [
        "ĠEla",
        -9.167899943780634
      ],
      [
        "Ġ22",
        -9.168836646906732
      ],
      [
        "Ġtexto",
        -9.1707155935797
      ],
      [
        "Ġtra",
        -9.17226326112966
      ],
      [
        "Ġpossi",
        -9.172839605909054
      ],
      [
        "w",
        -9.175386322133248
      ],
      [
        "Ġ2011",
        -9.175751723818816
      ],
      [
        "ĠJu",
        -9.176168776558884
      ],
      [
        "Ġvamos",
        -9.177397605581293
      ],
      [
        "Art",
        -9.177419787585336
      ],
      [
        "Ġproduc",
        -9.178821550116234
      ],
      [
        "Ġhavia",
        -9.182396399839046
      ],
      [
        "Ġtipo",
        -9.184741565541303
      ],
      [
        "ĠIII",
        -9.185777977733984
      ],
      [
        "Ġfor",
        -9.186270647258532
      ],
      [
        "ximo",
        -9.18763762569942
      ],
      [
        "Ġespe",
        -9.187643002888477
      ],
      [
        "ĠEduardo",
        -9.189287359315678
      ],
      [
        "ĠSala",
        -9.191991159022384
      ],
      [
        "Ġabril",
        -9.193776084042492
      ],
      [
        "Ġ2010",
        -9.193973216553632
      ],
      [
        "Ġdessa",
        -9.194051971390245
      ],
      [
        "ĠQue",
        -9.199013710580669
      ],
      [
        "2013",
        -9.200266628003392
      ],
      [
        "DO",
        -9.201565250468311
      ],
      [
        "Ġjaneiro",
        -9.201669375042515
      ],
      [
        "Ġhabitantes",
        -9.2019618206739
      ],
      [
        "Ġestado",
        -9.2032300587049
      ],
      [
        "Ġexiste",
        -9.203441209918864
      ],
      [
        "Ġempresas",
        -9.204278480424966
      ],
      [
        "://",
        -9.204605681469106
      ],
      [
        "Ġprincipal",
        -9.205405773714991
      ],
      [
        "Ġprovide",
        -9.20672071774576
      ],
      [
        "Ġdesse",
        -9.20748899249429
      ],
      [
        "05",
        -9.20795059502512
      ],
      [
        "Ġrefere",
        -9.208038566248346
      ],
      [
        "grafo",
        -9.21170375312308
      ],
      [
        "Ġcrianc",
        -9.212042920775785
      ],
      [
        "Ġnovembro",
        -9.212144280156124
      ],
      [
        "Ġ2005",
        -9.214836630552693
      ],
      [
        "Ġpresidente",
        -9.215297622047204
      ],
      [
        "cnica",
        -9.216181338820508
      ],
      [
        "seguranc",
        -9.217466883541311
      ],
      [
        "Ġfalar",
        -9.2177547526361
      ],
      [
        "ĠEste",
        -9.218332628346229
      ],
      [
        "Ġsemana",
        -9.21895439330219
      ],
      [
        "ĠPARECER",
        -9.219392616298416
      ],
      [
        "Ġtrata",
        -9.227659545085446
      ],
      [
        "Ġforc",
        -9.23048805165032
      ],
      [
        "Ġsabe",
        -9.231936622989426
      ],
      [
        "000",
        -9.232509706413376
      ],
      [
        "Ġlado",
        -9.232708745886068
      ],
      [
        "nos",
        -9.23538466165668
      ],
      [
        "ando",
        -9.23743491029941
      ],
      [
        "Ġestar",
        -9.243866816968756
      ],
      [
        "ci",
        -9.243892701594186
      ],
      [
        "cios",
        -9.244006593823949
      ],
      [
        "2011",
        -9.244586695102432
      ],
      [
        "Ġestamos",
        -9.248794848755896
      ],
      [
        "Ġexerci",
        -9.251292661546248
      ],
      [
        "Ġfi",
        -9.252727090345234
      ],
      [
        "Ġimporta",
        -9.26241592951816
      ],
      [
        "Ġpodera",
        -9.263208091267288
      ],
      [
        "ĠEmenda",
        -9.263212002992304
      ],
      [
        "Ġfeito",
        -9.264284377322983
      ],
      [
        "Ġpena",
        -9.268761624750784
      ],
      [
        "Ġficar",
        -9.27186273617259
      ],
      [
        "ticos",
        -9.273753490703829
      ],
      [
        "ĠEsse",
        -9.273776932987271
      ],
      [
        "Ġeducac",
        -9.27588625361352
      ],
      [
        "ĠPoli",
        -9.279938661386849
      ],
      [
        "H",
        -9.280490530348557
      ],
      [
        "Ġverdade",
        -9.280914804697607
      ],
      [
        "Ġenquanto",
        -9.28149259257196
      ],
      [
        "03",
        -9.28201267483447
      ],
      [
        "X",
        -9.284992668190656
      ],
      [
        "Ġnum",
        -9.285130457832144
      ],
      [
        "Ġinstituic",
        -9.285466589593952
      ],
      [
        "Ġtenha",
        -9.285674551489723
      ],
      [
        "Ġfunc",
        -9.291379310233628
      ],
      [
        "Ġrespeito",
        -9.292201736176244
      ],
      [
        "Ġfevereiro",
        -9.292659827975184
      ],
      [
        "ĠPreside",
        -9.294341417034463
      ],
      [
        "Ġfa",
        -9.294559415400483
      ],
      [
        "15",
        -9.296168509303063
      ],
      [
        "Ġsessa",
        -9.296598576310169
      ],
      [
        "ĠDia",
        -9.296831444056949
      ],
      [
        "Ġjuri",
        -9.297590790075672
      ],
      [
        "Ġponto",
        -9.298815471808824
      ],
      [
        "Ġquais",
        -9.30043676472237
      ],
      [
        "prio",
        -9.30079045845378
      ],
      [
        "08",
        -9.30081929924044
      ],
      [
        "Ġquatro",
        -9.300876573746768
      ],
      [
        "Ġdentro",
        -9.301578396201966
      ],
      [
        "ĠRe",
        -9.301961030057395
      ],
      [
        "dito",
        -9.30229682211461
      ],
      [
        "Regimento",
        -9.302835641322629
      ],
      [
        "Deputada",
        -9.303031972901612
      ],
      [
        "07",
        -9.306304711271386
      ],
      [
        "mico",
        -9.308579661173049
      ],
      [
        "Ġmim",
        -9.308983692504974
      ],
      [
        "ĠEssa",
        -9.309944611281717
      ],
      [
        "ĠUma",
        -9.310397467471912
      ],
      [
        "Ġproblema",
        -9.312012455191972
      ],
      [
        "ĠBrasi",
        -9.31214981142143
      ],
      [
        "ĠInterno",
        -9.313517536824524
      ],
      [
        "Ġdemais",
        -9.313873300445904
      ],
      [
        "Ġlocal",
        -9.31439304961105
      ],
      [
        "Ġapoio",
        -9.314654189866182
      ],
      [
        "Ġhora",
        -9.31520450557362
      ],
      [
        "Ġhoras",
        -9.317130556859825
      ],
      [
        "Ġ(\"",
        -9.320562972934306
      ],
      [
        "Ġprecisa",
        -9.321440146188223
      ],
      [
        "feira",
        -9.322444236508876
      ],
      [
        "Ġcara",
        -9.32262283987891
      ],
      [
        "OS",
        -9.325260508975274
      ],
      [
        "Ġini",
        -9.325277986927857
      ],
      [
        "ĠSupremo",
        -9.32653575605636
      ],
      [
        "Ġsala",
        -9.326615287306916
      ],
      [
        "uma",
        -9.330140669428516
      ],
      [
        "Ġ2013",
        -9.33046031697361
      ],
      [
        "Ġcriac",
        -9.330756769467882
      ],
      [
        "lise",
        -9.331379216786097
      ],
      [
        "ĠDr",
        -9.334743845403848
      ],
      [
        "ĠUnidos",
        -9.334875708243178
      ],
      [
        "Ġvista",
        -9.33704054297652
      ],
      [
        "Ġpo",
        -9.33756663950567
      ],
      [
        "ĠTurma",
        -9.34347208185536
      ],
      [
        "Ġconforme",
        -9.343739382526552
      ],
      [
        "Ġalgo",
        -9.343995274975576
      ],
      [
        "Ġ26",
        -9.348135627610286
      ],
      [
        "Ġnunca",
        -9.348531297114189
      ],
      [
        "Ġfilme",
        -9.349266064620446
      ],
      [
        "ĠEducac",
        -9.349539580853037
      ],
      [
        "Ġacesso",
        -9.349644588286198
      ],
      [
        "ĠConselho",
        -9.350316685804357
      ],
      [
        "Ġcargo",
        -9.35250146104583
      ],
      [
        "Ġ2012",
        -9.354059912192149
      ],
      [
        "Ġ2004",
        -9.356781823298896
      ],
      [
        "ntes",
        -9.357464258030904
      ],
      [
        "ĠQuando",
        -9.358533523665562
      ],
      [
        "Ġjogo",
        -9.360145838743302
      ],
      [
        "nimo",
        -9.363103607616488
      ],
      [
        "Ġali",
        -9.363185614750272
      ],
      [
        "ĠUniversidade",
        -9.36414247692863
      ],
      [
        "Ġobrigado",
        -9.36635096711846
      ],
      [
        "ĠMaria",
        -9.367480603148092
      ],
      [
        "06",
        -9.370714403192926
      ],
      [
        "ĠSilva",
        -9.3729809951185
      ],
      [
        "Ġequipe",
        -9.373663955570333
      ],
      [
        "Ġfalta",
        -9.373728683722131
      ],
      [
        "Ġpelas",
        -9.37403673374372
      ],
      [
        "Ġ28",
        -9.3743846251898
      ],
      [
        "ĠSau",
        -9.376412522956542
      ],
      [
        "Ġatrave",
        -9.376447709504594
      ],
      [
        "ĠPR",
        -9.37758418070127
      ],
      [
        "Ġcerca",
        -9.37784360250526
      ],
      [
        "Ġparecer",
        -9.379036101210206
      ],
      [
        "ĠAle",
        -9.379353290960848
      ],
      [
        "Ġespecial",
        -9.3796320049468
      ],
      [
        "Ġcinco",
        -9.37979511760399
      ],
      [
        "Ġsou",
        -9.379906043976163
      ],
      [
        "Ġcre",
        -9.37993176207786
      ],
      [
        "ĠTe",
        -9.381284773524756
      ],
      [
        "ĠPlena",
        -9.38202339006532
      ],
      [
        "ĠRa",
        -9.38204051209447
      ],
      [
        "Ġvolta",
        -9.38332171795217
      ],
      [
        "Ġrelato",
        -9.384096604699694
      ],
      [
        "Ġdireitos",
        -9.384563960955466
      ],
      [
        "Ġtotal",
        -9.386624966654782
      ],
      [
        "Ġobjetivo",
        -9.387211640607802
      ],
      [
        "Ġregimental",
        -9.387547180174275
      ],
      [
        "Ġdefesa",
        -9.388473049922451
      ],
      [
        "Ġpedido",
        -9.388731367128244
      ],
      [
        "Ġsegunda",
        -9.38929685385816
      ],
      [
        "reas",
        -9.38931588551737
      ],
      [
        "Ġfora",
        -9.392296747299923
      ],
      [
        "ĠPedro",
        -9.39375896628156
      ],
      [
        "poca",
        -9.39382595597712
      ],
      [
        "Ġrealizada",
        -9.39592070088884
      ],
      [
        "ĠOliveira",
        -9.396685833055642
      ],
      [
        "Ġdados",
        -9.39676133108079
      ],
      [
        "Ġextraordina",
        -9.399558532577045
      ],
      [
        "ĠTotal",
        -9.400205717245267
      ],
      [
        "..............",
        -9.400666517780763
      ],
      [
        "Ġ27",
        -9.40257813054162
      ],
      [
        "Ġprinci",
        -9.40595606035701
      ],
      [
        "Ġmorte",
        -9.407141417712891
      ],
      [
        "devido",
        -9.409386870462756
      ],
      [
        "Ġthe",
        -9.4113482035583
      ],
      [
        "dico",
        -9.412081620395597
      ],
      [
        "Ġ29",
        -9.4132698305406
      ],
      [
        "Ġfazendo",
        -9.414203505414964
      ],
      [
        "Ġmercado",
        -9.41512659750433
      ],
      [
        "2000",
        -9.415489896856226
      ],
      [
        "Ġobjeto",
        -9.416510069459129
      ],
      [
        "Ġprec",
        -9.41735276745326
      ],
      [
        "Ġsim",
        -9.419200368527536
      ],
      [
        "Ġpec",
        -9.419723037431794
      ],
      [
        "Ġquer",
        -9.423823637434696
      ],
      [
        "Ġmeses",
        -9.424514158025625
      ],
      [
        "Ġve",
        -9.427226375249717
      ],
      [
        "Ġorigem",
        -9.427868877908825
      ],
      [
        "dica",
        -9.429845264342886
      ],
      [
        "rcio",
        -9.430441311450322
      ],
      [
        "2008",
        -9.430501487017468
      ],
      [
        "Ġ2003",
        -9.43204629916793
      ],
      [
        "ĠTem",
        -9.433261161055398
      ],
      [
        "via",
        -9.4363853739769
      ],
      [
        "Ġraza",
        -9.4385728624806
      ],
      [
        "Ġvota",
        -9.439052157311256
      ],
      [
        "Ġpesquisa",
        -9.439652929035734
      ],
      [
        "blicos",
        -9.44105469267215
      ],
      [
        "AS",
        -9.441950360866809
      ],
      [
        "PTB",
        -9.442365433091194
      ],
      [
        "The",
        -9.442382082670523
      ],
      [
        "Ġkm",
        -9.442395745080816
      ],
      [
        "20",
        -9.445779671273808
      ],
      [
        "Ġvem",
        -9.446141413695551
      ],
      [
        "Ġ2015",
        -9.44624786509212
      ],
      [
        "ĠSegundo",
        -9.446467943261778
      ],
      [
        "Ġluta",
        -9.447097923970665
      ],
      [
        "ĠComunicac",
        -9.447294741039396
      ],
      [
        "2007",
        -9.448035472487698
      ],
      [
        "ĠFilho",
        -9.448324107636097
      ],
      [
        "Ġgeral",
        -9.45092028105107
      ],
      [
        "ĠAgora",
        -9.451604488901484
      ],
      [
        "Ġinclusive",
        -9.452451378926678
      ],
      [
        "Ġedic",
        -9.452522233505835
      ],
      [
        "Ġfosse",
        -9.4558851518202
      ],
      [
        "Ġatividades",
        -9.456823904300569
      ],
      [
        "ĠSocial",
        -9.457926938795577
      ],
      [
        "Ġtal",
        -9.45937300607031
      ],
      [
        "radiodifusa",
        -9.45951988673932
      ],
      [
        "Ġdeixar",
        -9.460998070810186
      ],
      [
        "Executivo",
        -9.46232722202619
      ],
      [
        "ĠPP",
        -9.465772615509223
      ],
      [
        "Ġpagamento",
        -9.46718761660527
      ],
      [
        "Ġqualidade",
        -9.467433414650818
      ],
      [
        "amos",
        -9.468410569856072
      ],
      [
        "2010",
        -9.468867755049269
      ],
      [
        "Ġquase",
        -9.46910780956936
      ],
      [
        "nte",
        -9.47152857908699
      ],
      [
        "Ġalgumas",
        -9.472179297780528
      ],
      [
        "Ġnecessidade",
        -9.473029086602256
      ],
      [
        "ĠDeus",
        -9.478961686274063
      ],
      [
        "Ġminutos",
        -9.482584637015044
      ],
      [
        "Ġpoderia",
        -9.482823967102576
      ],
      [
        "Ġparticipac",
        -9.48817382513288
      ],
      [
        "ĠCie",
        -9.48890334541418
      ],
      [
        "Ġesses",
        -9.489670271333296
      ],
      [
        "Ġmaioria",
        -9.49053415370926
      ],
      [
        "ĠPre",
        -9.495265859419778
      ],
      [
        "Ġ2014",
        -9.49527297378986
      ],
      [
        "Ġfilho",
        -9.495948541377864
      ],
      [
        "gina",
        -9.502435087557677
      ],
      [
        "Ġpublicac",
        -9.503413125537255
      ],
      [
        "Ġdinheiro",
        -9.503444113032735
      ],
      [
        "ĠLe",
        -9.50396558415984
      ],
      [
        "rico",
        -9.504020691506414
      ],
      [
        "Ġposic",
        -9.504861523182653
      ],
      [
        "ĠDa",
        -9.505018053376682
      ],
      [
        "br",
        -9.50699674191906
      ],
      [
        "Ġvei",
        -9.509102783234669
      ],
      [
        "Ġcon",
        -9.509715362003517
      ],
      [
        "Ġconhecido",
        -9.510048350923816
      ],
      [
        "Ġrequerimento",
        -9.510720253364193
      ],
      [
        "SP",
        -9.51231499111356
      ],
      [
        "Ġ50",
        -9.514080902908702
      ],
      [
        "Ġcri",
        -9.516266533855417
      ],
      [
        "Ġmodo",
        -9.518582954922255
      ],
      [
        "Ġaumento",
        -9.518796511478142
      ],
      [
        "https",
        -9.52124241207066
      ],
      [
        "Ġcrime",
        -9.521739138398438
      ],
      [
        "ĠAme",
        -9.522161956657987
      ],
      [
        "ĠIn",
        -9.52266576418795
      ],
      [
        "Ġemenda",
        -9.524567537700836
      ],
      [
        "Ġinteresse",
        -9.524771132734614
      ],
      [
        "Ġdele",
        -9.524883560505575
      ],
      [
        "cada",
        -9.525231666200934
      ],
      [
        "ĠMin",
        -9.525333632949264
      ],
      [
        "Ġensino",
        -9.525805173464684
      ],
      [
        "Ġessas",
        -9.526807702547098
      ],
      [
        "agravo",
        -9.526907746413212
      ],
      [
        "Ġ2016",
        -9.52696612500099
      ],
      [
        "dores",
        -9.527603303998996
      ],
      [
        "Ġboa",
        -9.535519329889045
      ],
      [
        "ĠParecer",
        -9.536080734808388
      ],
      [
        "res",
        -9.536201681186364
      ],
      [
        "eleic",
        -9.536641836833216
      ],
      [
        "Ġredac",
        -9.537393767055356
      ],
      [
        "ĠPrograma",
        -9.537479294056672
      ],
      [
        "Ġcerto",
        -9.538278536425487
      ],
      [
        "Ġirma",
        -9.538334361011811
      ],
      [
        "Ġmuitas",
        -9.538676571104762
      ],
      [
        "altera",
        -9.538812677658736
      ],
      [
        "ĠAssim",
        -9.54017826150086
      ],
      [
        "lbum",
        -9.54069365870012
      ],
      [
        "somente",
        -9.540712976550582
      ],
      [
        "gio",
        -9.542151439769093
      ],
      [
        "Ġpartido",
        -9.542859766280465
      ],
      [
        ");",
        -9.542944362297169
      ],
      [
        "Ġnoite",
        -9.543507909018013
      ],
      [
        "ĠLula",
        -9.543693990503808
      ],
      [
        "cil",
        -9.544283972456723
      ],
      [
        "Ġlegislac",
        -9.54502090656844
      ],
      [
        "gica",
        -9.545258975293484
      ],
      [
        "Ġgrandes",
        -9.545983585897918
      ],
      [
        "Ġlegal",
        -9.54609511995215
      ],
      [
        "entanto",
        -9.54654952896103
      ],
      [
        "04",
        -9.546733163304465
      ],
      [
        "Ġnuma",
        -9.547091835937666
      ],
      [
        "Ġconstruc",
        -9.550422812172584
      ],
      [
        "Ġnorte",
        -9.55043403460484
      ],
      [
        "ĠLegislativo",
        -9.550670650900242
      ],
      [
        "ltimo",
        -9.55089331157971
      ],
      [
        "Ġsuperior",
        -9.550976767787256
      ],
      [
        "Ġcompete",
        -9.551655874961511
      ],
      [
        "13",
        -9.551891964562923
      ],
      [
        "ĠAssociac",
        -9.552457041198917
      ],
      [
        "art",
        -9.55358938418495
      ],
      [
        "Ġresponsa",
        -9.553901258404007
      ],
      [
        "Ġoperac",
        -9.555369271236296
      ],
      [
        "ĠNova",
        -9.55577597578874
      ],
      [
        "and",
        -9.55808611127502
      ],
      [
        "Ġhomem",
        -9.559390413750542
      ],
      [
        "ĠEM",
        -9.561266188887492
      ],
      [
        "pria",
        -9.565126655669944
      ],
      [
        "2012",
        -9.56680006851982
      ],
      [
        "Ġcontrole",
        -9.567712906399946
      ],
      [
        "Ġsaber",
        -9.568678283157896
      ],
      [
        "Ġtarde",
        -9.569007852075432
      ],
      [
        "Ġfac",
        -9.57010385942599
      ],
      [
        "02",
        -9.570610423956026
      ],
      [
        "ĠFernando",
        -9.571267832369337
      ],
      [
        "2016",
        -9.57239244179488
      ],
      [
        "ha",
        -9.575408179335916
      ],
      [
        "RIA",
        -9.575989407372642
      ],
      [
        "Ġlongo",
        -9.576420382659986
      ],
      [
        "anos",
        -9.578446441546518
      ],
      [
        "Ġjunto",
        -9.578875023244178
      ],
      [
        "Ġrealizac",
        -9.578991131574483
      ],
      [
        "ĠSu",
        -9.581212490583695
      ],
      [
        "Ġmembro",
        -9.581942099598251
      ],
      [
        "Ġdez",
        -9.582174379418772
      ],
      [
        "passou",
        -9.583540266857687
      ],
      [
        "Ġbrasileiros",
        -9.585261051237673
      ],
      [
        "Ġpossui",
        -9.585324065816303
      ],
      [
        "ĠTrabalho",
        -9.585972084360677
      ],
      [
        "ĠRoberto",
        -9.58715719652096
      ],
      [
        "Ġjulgamento",
        -9.588100437677518
      ],
      [
        "ÌĤ?",
        -9.591852356104557
      ],
      [
        "Ġdispo",
        -9.591942159389802
      ],
      [
        "NCIA",
        -9.59204244971684
      ],
      [
        "Ġpreciso",
        -9.592108262769548
      ],
      [
        "Ġdeixa",
        -9.59418322649091
      ],
      [
        "Ġpassa",
        -9.594317050413451
      ],
      [
        ".âĢĿ",
        -9.594967719895426
      ],
      [
        "ĠBem",
        -9.595429505604878
      ],
      [
        "Ġpossa",
        -9.59757401886364
      ],
      [
        "Ġ100",
        -9.59819387353774
      ],
      [
        "Ġmuitos",
        -9.59835320565377
      ],
      [
        "ĠMaia",
        -9.59870781784077
      ],
      [
        "ĠLu",
        -9.598913348116795
      ],
      [
        "ĠLa",
        -9.604882547877214
      ],
      [
        "Ġmembros",
        -9.606316872179027
      ],
      [
        "Ġreforma",
        -9.606638671738926
      ],
      [
        "ĠSP",
        -9.610111168350134
      ],
      [
        "Ġsetor",
        -9.610727037040997
      ],
      [
        "Ġproduto",
        -9.611207358792416
      ],
      [
        "Ġoficial",
        -9.612434397279465
      ],
      [
        "Ġge",
        -9.614155127286867
      ],
      [
        "ĠPortugal",
        -9.619084213415343
      ],
      [
        "2014",
        -9.619091118435236
      ],
      [
        "Ġmulheres",
        -9.620412579886697
      ],
      [
        "Ġenergia",
        -9.620515703349051
      ],
      [
        "Ġregime",
        -9.62120421237374
      ],
      [
        "stica",
        -9.622196778048153
      ],
      [
        "Ġ31",
        -9.626684563413132
      ],
      [
        "Ġcontrato",
        -9.627195708181038
      ],
      [
        "culos",
        -9.627821377974945
      ],
      [
        "Ġassunto",
        -9.628414672873268
      ],
      [
        "devera",
        -9.629085215416133
      ],
      [
        "ĠNO",
        -9.62929591875467
      ],
      [
        "Ġmaneira",
        -9.63140320731116
      ],
      [
        "los",
        -9.632032589194854
      ],
      [
        "ĠMesa",
        -9.635391185763575
      ],
      [
        "ĠMinas",
        -9.63557551689337
      ],
      [
        "Ġespac",
        -9.63570053642312
      ],
      [
        "Ġfrente",
        -9.636966576144912
      ],
      [
        "Ġlhe",
        -9.637226740216422
      ],
      [
        "Ġpe",
        -9.637660974303987
      ],
      [
        "registro",
        -9.637665741724437
      ],
      [
        "legislativa",
        -9.638161982105109
      ],
      [
        "Ġchamado",
        -9.639713747111596
      ],
      [
        "Ġeconomia",
        -9.63974004576158
      ],
      [
        "Ġprincipalmente",
        -9.639957365443454
      ],
      [
        "ltima",
        -9.64118408217512
      ],
      [
        "Ġorc",
        -9.64140131165627
      ],
      [
        "Ġprova",
        -9.64290663124511
      ],
      [
        "Ġatual",
        -9.644646749463574
      ],
      [
        "Ġobras",
        -9.645046397140696
      ],
      [
        "Ġdebate",
        -9.645243249806995
      ],
      [
        "Ġsai",
        -9.645820319832612
      ],
      [
        "ÌĤ-",
        -9.646083546972571
      ],
      [
        "ĠEstou",
        -9.646240871830395
      ],
      [
        "Ġfeita",
        -9.646436411824372
      ],
      [
        "Ġpapel",
        -9.646464005826129
      ],
      [
        "ĠDesenvolvimento",
        -9.64671988724071
      ],
      [
        "Ġconjunto",
        -9.646794998381068
      ],
      [
        "Ġfala",
        -9.647804912348285
      ],
      [
        "Ġproblemas",
        -9.649787395040118
      ],
      [
        "reais",
        -9.6504612670484
      ],
      [
        "ĠNorte",
        -9.650968522397408
      ],
      [
        "ĠFrancisco",
        -9.651956339673132
      ],
      [
        "Ġeram",
        -9.652255410412067
      ],
      [
        "ĠPSB",
        -9.652446928699009
      ],
      [
        "ĠApo",
        -9.654701955991614
      ],
      [
        "ĠHisto",
        -9.65478021356694
      ],
      [
        "Ġpresenc",
        -9.6561027689288
      ],
      [
        "ĠDEM",
        -9.657360605893652
      ],
      [
        "Ġchegar",
        -9.65765891864241
      ],
      [
        "ch",
        -9.658291379523645
      ],
      [
        "ĠSua",
        -9.661257439209589
      ],
      [
        "Ġaplicac",
        -9.661523347251348
      ],
      [
        "ĠPartido",
        -9.661533551894882
      ],
      [
        "Ġbenefi",
        -9.661548210813306
      ],
      [
        "Ġcoisas",
        -9.664741826722238
      ],
      [
        "Ġaprovado",
        -9.668075543036323
      ],
      [
        "Ġhouve",
        -9.67053043543808
      ],
      [
        "lhe",
        -9.67135832622176
      ],
      [
        "#",
        -9.675144090313433
      ],
      [
        "Ġbanda",
        -9.676585188761988
      ],
      [
        "Ġnesse",
        -9.677768102059844
      ],
      [
        "ĠPa",
        -9.677833367262773
      ],
      [
        "blicas",
        -9.678482753207064
      ],
      [
        "DA",
        -9.678898195847182
      ],
      [
        "Ġacho",
        -9.680276314182665
      ],
      [
        "Ġparece",
        -9.680511371102757
      ],
      [
        "Ġposso",
        -9.680766926041771
      ],
      [
        "Ġba",
        -9.681160875833385
      ],
      [
        "Ġconhecimento",
        -9.683100003926132
      ],
      [
        "Ġterra",
        -9.683378496578625
      ],
      [
        "ĠDJ",
        -9.684180354651955
      ],
      [
        "Ġembora",
        -9.684919908041037
      ],
      [
        "Ġocorre",
        -9.685058635111565
      ],
      [
        "Ġalgum",
        -9.685245279001354
      ],
      [
        "Ġpassado",
        -9.685441284851327
      ],
      [
        "ĠThe",
        -9.686124640537322
      ],
      [
        "ĠIV",
        -9.687511252748973
      ],
      [
        "Ġgente",
        -9.687722050343895
      ],
      [
        "gico",
        -9.688915928048509
      ],
      [
        "Ġoportunidade",
        -9.689423805188197
      ],
      [
        "responsabilidade",
        -9.69137423832526
      ],
      [
        "Ġdeveria",
        -9.691461871483318
      ],
      [
        "COMISSA",
        -9.69196996600521
      ],
      [
        "Ġalguma",
        -9.692548860522304
      ],
      [
        "Ġ2017",
        -9.6931443045361
      ],
      [
        "Ġnota",
        -9.69524266945461
      ],
      [
        "Ġobra",
        -9.69556972431318
      ],
      [
        "Ġatividade",
        -9.695931796604484
      ],
      [
        "Ġbusca",
        -9.69642347582798
      ],
      [
        "\")",
        -9.69708335512868
      ],
      [
        "Ġinclui",
        -9.69729591746767
      ],
      [
        "amente",
        -9.697618459153576
      ],
      [
        "Ġlivro",
        -9.697674135267237
      ],
      [
        "RECURSO",
        -9.704126865644012
      ],
      [
        "Defesa",
        -9.705142341008344
      ],
      [
        "ja",
        -9.705465161928952
      ],
      [
        "ĠAntonio",
        -9.705516960630112
      ],
      [
        "&",
        -9.709152838592484
      ],
      [
        "ĠSecreta",
        -9.709300504492496
      ],
      [
        "):",
        -9.70981888334546
      ],
      [
        "ĠServic",
        -9.710543718969229
      ],
      [
        "19",
        -9.71392556338249
      ],
      [
        "sejam",
        -9.71742297329177
      ],
      [
        "Ġajuda",
        -9.717843378235594
      ],
      [
        "sociais",
        -9.718677921807522
      ],
      [
        "ĠEMENDA",
        -9.722806663141917
      ],
      [
        "Ġmulher",
        -9.72294484119102
      ],
      [
        "portanto",
        -9.723383700944614
      ],
      [
        "ĠW",
        -9.724192770628228
      ],
      [
        "ĠTecnologia",
        -9.726019241216424
      ],
      [
        "Ġexecuc",
        -9.726383929583552
      ],
      [
        "Distrito",
        -9.727349778575796
      ],
      [
        "podemos",
        -9.727493452572794
      ],
      [
        "Ġingle",
        -9.7287250572376
      ],
      [
        "Ġorganizac",
        -9.728993537517384
      ],
      [
        "ĠCivil",
        -9.730879332000184
      ],
      [
        "Ġcomunicac",
        -9.730879529326115
      ],
      [
        "stico",
        -9.731219227150222
      ],
      [
        "Ġ1990",
        -9.73136576278445
      ],
      [
        "16",
        -9.731927574470314
      ],
      [
        "tima",
        -9.732183247413396
      ],
      [
        "Ġlinha",
        -9.732699520108037
      ],
      [
        "Ġ2020",
        -9.73285701152128
      ],
      [
        "Ġpessoal",
        -9.73302248386569
      ],
      [
        "Ġmudanc",
        -9.734205644054306
      ],
      [
        "Ġavanc",
        -9.735236763793324
      ],
      [
        "Ġnenhum",
        -9.736080235071936
      ],
      [
        "q",
        -9.73750779975275
      ],
      [
        "Ġforte",
        -9.739286871940577
      ],
      [
        "Ġ2002",
        -9.740208143393208
      ],
      [
        "ela",
        -9.740454041147808
      ],
      [
        "Geral",
        -9.740708244952875
      ],
      [
        "Ġiniciativa",
        -9.740933388592897
      ],
      [
        "Ġtema",
        -9.74120456279748
      ],
      [
        "Ġformula",
        -9.741460216811507
      ],
      [
        "ĠPrimeira",
        -9.743149866474685
      ],
      [
        "âĢĻ",
        -9.74511893449863
      ],
      [
        "Campeonato",
        -9.747054011000364
      ],
      [
        "ĠBrasileiro",
        -9.747487128943204
      ],
      [
        "2005",
        -9.747621711562736
      ],
      [
        "ĠVice",
        -9.749535215235726
      ],
      [
        "ĠExcele",
        -9.751158521089453
      ],
      [
        "Ġfunciona",
        -9.752950398195276
      ],
      [
        "ĠREQUERIMENTO",
        -9.753564750839985
      ],
      [
        "Ġescola",
        -9.755964478790442
      ],
      [
        "Ġcarreira",
        -9.75650049678022
      ],
      [
        "Ġ2019",
        -9.756691159581427
      ],
      [
        "prevista",
        -9.757206804227865
      ],
      [
        "K",
        -9.757235804679135
      ],
      [
        "ĠObrigado",
        -9.75916385438823
      ],
      [
        "vi",
        -9.75993740051342
      ],
      [
        "ĠCA",
        -9.760816386084718
      ],
      [
        "Ġeletro",
        -9.761642701876058
      ],
      [
        "qui",
        -9.76211922843225
      ],
      [
        "ĠK",
        -9.76264557173395
      ],
      [
        "ĠAnto",
        -9.762784337982934
      ],
      [
        "Ìģ?",
        -9.762952264340376
      ],
      [
        "Ġcampo",
        -9.763438281940378
      ],
      [
        "sticas",
        -9.764268660663417
      ],
      [
        "mbito",
        -9.764872969417045
      ],
      [
        "ĠCorte",
        -9.765089915726865
      ],
      [
        "dios",
        -9.765751375623784
      ],
      [
        "2019",
        -9.765941655962392
      ],
      [
        "ĠPDT",
        -9.766407689988922
      ],
      [
        "dispo",
        -9.766696689699874
      ],
      [
        "Ġbilho",
        -9.768615525927522
      ],
      [
        "vam",
        -9.768769105596188
      ],
      [
        "ĠInstituto",
        -9.769481571209504
      ],
      [
        "Ġ2000",
        -9.77042673855425
      ],
      [
        "Ġtemporada",
        -9.770981990902262
      ],
      [
        "Ġsenhor",
        -9.77100212929161
      ],
      [
        "Ġanterior",
        -9.771029217632863
      ],
      [
        "Ġprojetos",
        -9.771704074901688
      ],
      [
        "Ġtornou",
        -9.771862864422932
      ],
      [
        "Ġalgue",
        -9.772293814687922
      ],
      [
        "Ġficou",
        -9.774485582642166
      ],
      [
        "ĠCosta",
        -9.776621149979292
      ],
      [
        "Ġmandato",
        -9.776885692428932
      ],
      [
        "ĠCunha",
        -9.777631202616057
      ],
      [
        "Ġproposic",
        -9.780035221129356
      ],
      [
        "Ġespeci",
        -9.780201998520315
      ],
      [
        "Ġcampanha",
        -9.781807430081315
      ],
      [
        "disposto",
        -9.783561537058969
      ],
      [
        "Ġcapital",
        -9.783743145482877
      ],
      [
        "ĠMarco",
        -9.783750745398532
      ],
      [
        "*",
        -9.784017947865028
      ],
      [
        "cnico",
        -9.785814702633
      ],
      [
        "Ġalterac",
        -9.785991669072562
      ],
      [
        "Ġterrito",
        -9.78625786703904
      ],
      [
        "serem",
        -9.786705067602
      ],
      [
        "Ġcerteza",
        -9.786814732802052
      ],
      [
        "ĠTambe",
        -9.787617995258357
      ],
      [
        "concessa",
        -9.787940516247998
      ],
      [
        "Ġvalores",
        -9.790469353076867
      ],
      [
        "Depois",
        -9.790697425613732
      ],
      [
        "Ġtitular",
        -9.792704967598128
      ],
      [
        "ĠRequerimento",
        -9.793371899543864
      ],
      [
        "Ġtransporte",
        -9.794755574001025
      ],
      [
        "ira",
        -9.798339135068623
      ],
      [
        "Ġ2001",
        -9.798696291978397
      ],
      [
        "Ġexame",
        -9.799979945603328
      ],
      [
        "ĠGuerra",
        -9.800600323952644
      ],
      [
        "Ġprincipais",
        -9.80075840462658
      ],
      [
        "Ġresultado",
        -9.800844334031384
      ],
      [
        "ĠFranc",
        -9.80147058714483
      ],
      [
        "Ġvigor",
        -9.801504176315811
      ],
      [
        "reunia",
        -9.80230987813511
      ],
      [
        "Ġencontra",
        -9.802777287088338
      ],
      [
        "Ġatenc",
        -9.802929455841928
      ],
      [
        "LTIMA",
        -9.80295770573118
      ],
      [
        "Ġplena",
        -9.80473231722981
      ],
      [
        "2017",
        -9.805376187178226
      ],
      [
        "apreciac",
        -9.806058006680566
      ],
      [
        "Ġ40",
        -9.806997405018157
      ],
      [
        "ĠPortant",
        -9.80726386192408
      ],
      [
        "Ġpauta",
        -9.807634836738004
      ],
      [
        "DEM",
        -9.808030139684435
      ],
      [
        "Ġautos",
        -9.80846151505702
      ],
      [
        "ĠEles",
        -9.80933638246194
      ],
      [
        "ĠSecretaria",
        -9.810186779818205
      ],
      [
        "Ġsede",
        -9.81030463927734
      ],
      [
        "Ġfederal",
        -9.811078825607549
      ],
      [
        "discurso",
        -9.813454464770622
      ],
      [
        "Ġqueria",
        -9.81349561781761
      ],
      [
        "ĠTV",
        -9.815098263797996
      ],
      [
        "Ġpontos",
        -9.815527018569975
      ],
      [
        "amenta",
        -9.81578166294309
      ],
      [
        "Ġclaro",
        -9.81701946755291
      ],
      [
        "ing",
        -9.817670146958706
      ],
      [
        "Ġcorpo",
        -9.818581035532736
      ],
      [
        "Ġconsiderado",
        -9.81956241631574
      ],
      [
        "Ġhaver",
        -9.819901358269728
      ],
      [
        "Ġnatureza",
        -9.820827808934633
      ],
      [
        "Ġmodelo",
        -9.82104697463393
      ],
      [
        "Presidente",
        -9.822046032419566
      ],
      [
        "Ġcrise",
        -9.823301085313805
      ],
      [
        "ĠFa",
        -9.82411977103727
      ],
      [
        "Ġcriar",
        -9.824289368969842
      ],
      [
        "Ġnobre",
        -9.826020953360333
      ],
      [
        "Ġrenda",
        -9.828330553595451
      ],
      [
        "Ġcaminho",
        -9.828524908842487
      ],
      [
        "ĠPode",
        -9.82930809487134
      ],
      [
        "Ġ:)",
        -9.82980668156132
      ],
      [
        "Ġefeito",
        -9.830367333368642
      ],
      [
        "provimento",
        -9.835723347258838
      ],
      [
        "Ġformac",
        -9.836319388506858
      ],
      [
        "Ġturno",
        -9.837064477901851
      ],
      [
        "Ordem",
        -9.839509553289238
      ],
      [
        "Ġteria",
        -9.8405565414599
      ],
      [
        "17",
        -9.841044904100658
      ],
      [
        "Ġmovimento",
        -9.84107305444017
      ],
      [
        "Ġcontribuic",
        -9.841201843574062
      ],
      [
        "ĠQuero",
        -9.842681143793564
      ],
      [
        "chegou",
        -9.842765253636172
      ],
      [
        "ĠMo",
        -9.843381760549477
      ],
      [
        "Ġdiferentes",
        -9.84478768148978
      ],
      [
        "ĠCopa",
        -9.845305973387632
      ],
      [
        "ĠRicardo",
        -9.84572860035734
      ],
      [
        "Ġ1998",
        -9.846902086541329
      ],
      [
        "ĠAlves",
        -9.847886231282589
      ],
      [
        "Ġfase",
        -9.848472758727969
      ],
      [
        "ĠQuem",
        -9.848611900802268
      ],
      [
        "ĠAGRAV",
        -9.85108519490556
      ],
      [
        "ĠVa",
        -9.85228341903472
      ],
      [
        "ĠHenrique",
        -9.853070653303009
      ],
      [
        "Ġautoria",
        -9.856407172707362
      ],
      [
        "Ġlista",
        -9.857352887465524
      ],
      [
        "Ġ2018",
        -9.857762013415416
      ],
      [
        "Ġcaput",
        -9.857850611225828
      ],
      [
        "ĠPereira",
        -9.858009286682949
      ],
      [
        "ĠDias",
        -9.860559785132622
      ],
      [
        "Ġmal",
        -9.860915897776938
      ],
      [
        "Ġexpressa",
        -9.862010781236329
      ],
      [
        "Ġprofissional",
        -9.863746157725332
      ],
      [
        "Ġpartida",
        -9.864174300594655
      ],
      [
        "cias",
        -9.864803600791904
      ],
      [
        "ĠSantos",
        -9.86504363031525
      ],
      [
        "ĠSistema",
        -9.865467383521464
      ],
      [
        "ĠEspecial",
        -9.866484447418095
      ],
      [
        "ncio",
        -9.867301048481938
      ],
      [
        "Ġauto",
        -9.86733363752965
      ],
      [
        "14",
        -9.868870195590816
      ],
      [
        "vio",
        -9.868999713465602
      ],
      [
        "stria",
        -9.869488286136502
      ],
      [
        "Cidadania",
        -9.870895213480551
      ],
      [
        "Ġvotar",
        -9.871928752986374
      ],
      [
        "ĠAna",
        -9.872822575940988
      ],
      [
        "Ġcidada",
        -9.872890442212508
      ],
      [
        "Ġguerra",
        -9.873509965287749
      ],
      [
        "Ġpropo",
        -9.874291543388086
      ],
      [
        "2006",
        -9.875034938681408
      ],
      [
        "Ġmenor",
        -9.87555869522152
      ],
      [
        "Ġaquele",
        -9.876283963920171
      ],
      [
        "cujo",
        -9.877161939524786
      ],
      [
        "ĠSanto",
        -9.87761292893621
      ],
      [
        "W",
        -9.87892596183012
      ],
      [
        "bio",
        -9.879626224619416
      ],
      [
        "ĠNA",
        -9.879710502913932
      ],
      [
        "Ġrede",
        -9.880695295182274
      ],
      [
        "30",
        -9.881181679706614
      ],
      [
        "ĠEra",
        -9.882438014772532
      ],
      [
        "tes",
        -9.882689176070649
      ],
      [
        "recebeu",
        -9.883410729858005
      ],
      [
        "trabalhadores",
        -9.884092181767354
      ],
      [
        "ĠSTF",
        -9.884297073555947
      ],
      [
        "acima",
        -9.88605746991085
      ],
      [
        "ĠRosa",
        -9.888109372526287
      ],
      [
        "Ġcanc",
        -9.888131602831097
      ],
      [
        "ĠMIN",
        -9.888695773458842
      ],
      [
        "Medida",
        -9.889018727283377
      ],
      [
        "Ġseis",
        -9.889756639639256
      ],
      [
        "Ġprofessor",
        -9.889771298127169
      ],
      [
        "Ġlogo",
        -9.88986426539092
      ],
      [
        "ndia",
        -9.891358581756569
      ],
      [
        "Ġinternacional",
        -9.891817066849924
      ],
      [
        "tese",
        -9.893373444981036
      ],
      [
        "ate",
        -9.893582696242
      ],
      [
        "ĠMais",
        -9.893830330315378
      ],
      [
        "Ġdestaque",
        -9.893857276899082
      ],
      [
        "Ġplano",
        -9.893981774888683
      ],
      [
        "Ġgesta",
        -9.894646823647328
      ],
      [
        "PR",
        -9.8952325226502
      ],
      [
        "realmente",
        -9.89645988566557
      ],
      [
        "ĠPro",
        -9.896703192609015
      ],
      [
        "Ġsucesso",
        -9.897024809410397
      ],
      [
        "mediante",
        -9.897324079547444
      ],
      [
        "ĠDilma",
        -9.898782751948692
      ],
      [
        "nessa",
        -9.900852719361632
      ],
      [
        "cuja",
        -9.901147778050904
      ],
      [
        "medidas",
        -9.901669787856582
      ],
      [
        "Ġdesses",
        -9.90201822181972
      ],
      [
        "ĠMA",
        -9.903317859042945
      ],
      [
        "possibilidade",
        -9.905034658330797
      ],
      [
        "Ġcultura",
        -9.90793177238308
      ],
      [
        "ĠBanco",
        -9.908066628988395
      ],
      [
        ".............",
        -9.90828745398654
      ],
      [
        "Ġpenal",
        -9.909041801718253
      ],
      [
        "Ġviole",
        -9.909082084778747
      ],
      [
        "Ġversa",
        -9.909364902955645
      ],
      [
        "Ġconstante",
        -9.909879604627356
      ],
      [
        "seguintes",
        -9.910367582538912
      ],
      [
        "Ġfinanceira",
        -9.910425561419537
      ],
      [
        "Ġcusto",
        -9.9106496260777
      ],
      [
        "Ġatendimento",
        -9.911000191588066
      ],
      [
        "Ġsul",
        -9.911778664668388
      ],
      [
        "ĠPSD",
        -9.912417176992555
      ],
      [
        "Ġnovos",
        -9.9158059509147
      ],
      [
        "ĠAG",
        -9.91581498130855
      ],
      [
        "xima",
        -9.916429102784344
      ],
      [
        "ĠVou",
        -9.916965544582444
      ],
      [
        "Ġexige",
        -9.917187906421846
      ],
      [
        "category",
        -9.917227211638002
      ],
      [
        "ĠNesse",
        -9.91725178534094
      ],
      [
        "timo",
        -9.917282065592234
      ],
      [
        "Ġcrite",
        -9.917757125823725
      ],
      [
        "ĠOh",
        -9.918517493762666
      ],
      [
        "antes",
        -9.919429418178694
      ],
      [
        "ĠDireito",
        -9.919642260237902
      ],
      [
        "Ġresposta",
        -9.922565990277183
      ],
      [
        "ĠProviso",
        -9.923096907832814
      ],
      [
        "ĠBrasileira",
        -9.923254332885309
      ],
      [
        "Ġusua",
        -9.92436361312389
      ],
      [
        "produtos",
        -9.924922785273507
      ],
      [
        "ĠPorto",
        -9.926255468215004
      ],
      [
        "Ġtrabalhos",
        -9.926897422028144
      ],
      [
        "Ġcomunidade",
        -9.92711351392588
      ],
      [
        "Gerais",
        -9.929287856202237
      ],
      [
        "Ġautor",
        -9.930270630311403
      ],
      [
        "Durante",
        -9.931385129262326
      ],
      [
        "metros",
        -9.933656622823474
      ],
      [
        "Ġisto",
        -9.934924956949788
      ],
      [
        "ĠFundo",
        -9.93501600816408
      ],
      [
        "Ġdeclarac",
        -9.935913309488877
      ],
      [
        "Ġmanter",
        -9.93689073383713
      ],
      [
        "ĠSeu",
        -9.93742399501138
      ],
      [
        "PAULO",
        -9.937548609013628
      ],
      [
        "Ġideia",
        -9.938782478482604
      ],
      [
        "Ġprotec",
        -9.93880849764736
      ],
      [
        "Ġcapacidade",
        -9.93975507652347
      ],
      [
        "Ġcomunita",
        -9.93999129446557
      ],
      [
        "Ġliberdade",
        -9.9403374475844
      ],
      [
        "Ġhipo",
        -9.94133750872482
      ],
      [
        "ini",
        -9.941554399502824
      ],
      [
        "Ġindi",
        -9.94175035013854
      ],
      [
        "Ġdeles",
        -9.942503748300169
      ],
      [
        "Ġpequeno",
        -9.942625382501523
      ],
      [
        "Ġvisa",
        -9.942933536603755
      ],
      [
        "ĠMarcelo",
        -9.943899839676869
      ],
      [
        "pensado",
        -9.945341910435598
      ],
      [
        "Ġartigos",
        -9.94650606940266
      ],
      [
        "maiores",
        -9.94664066806561
      ],
      [
        "ĠBahia",
        -9.946768280983695
      ],
      [
        "Ġexecutar",
        -9.947462514894198
      ],
      [
        "Ġdiversos",
        -9.949803747401385
      ],
      [
        "Ġreduc",
        -9.95000618757989
      ],
      [
        "fi",
        -9.950062778595475
      ],
      [
        "servidores",
        -9.950147794053295
      ],
      [
        "ĠLima",
        -9.950621085840972
      ],
      [
        "ano",
        -9.950786409142763
      ],
      [
        "ĠAdministrac",
        -9.95200047108117
      ],
      [
        "ĠSENHOR",
        -9.953342624327396
      ],
      [
        "Ġterceiro",
        -9.953798006000357
      ],
      [
        "aqueles",
        -9.956481970046468
      ],
      [
        "Ġhomens",
        -9.95706491649806
      ],
      [
        "por",
        -9.95739630298497
      ],
      [
        "ĠMundial",
        -9.957612262926837
      ],
      [
        "Ġchamada",
        -9.958091951370852
      ],
      [
        "ĠMu",
        -9.95911099476044
      ],
      [
        "ĠJorge",
        -9.959618813203392
      ],
      [
        "doenc",
        -9.960776501941377
      ],
      [
        "Ġambiente",
        -9.961964060266254
      ],
      [
        "Ġalcanc",
        -9.963198908924676
      ],
      [
        "Ġclube",
        -9.964017965114875
      ],
      [
        "Ġproviso",
        -9.964096891058178
      ],
      [
        "á",
        -9.965188081818368
      ],
      [
        "Ġescrito",
        -9.966325542997224
      ],
      [
        "Ġincluindo",
        -9.967290290016836
      ],
      [
        "Ainda",
        -9.968159808862602
      ],
      [
        "Ġdiversas",
        -9.970177589339114
      ],
      [
        "ĠInternacional",
        -9.97128286498351
      ],
      [
        "ĠMINISTR",
        -9.971832444948571
      ],
      [
        "ĠComiss",
        -9.97188109120066
      ],
      [
        "ĠPE",
        -9.971933674520894
      ],
      [
        "ĠMendes",
        -9.971957370016764
      ],
      [
        "Ġestudo",
        -9.972142146377651
      ],
      [
        "ver",
        -9.972161552941458
      ],
      [
        "Ġporta",
        -9.972982048053854
      ],
      [
        "nior",
        -9.974049467116131
      ],
      [
        "ltimos",
        -9.974179980012762
      ],
      [
        "Ġprofissionais",
        -9.97540900772822
      ],
      [
        "Ġ60",
        -9.975922623446095
      ],
      [
        "Ġdiretor",
        -9.979302031976024
      ],
      [
        "Ġ1997",
        -9.97970498820942
      ],
      [
        "ĠRel",
        -9.981222074952315
      ],
      [
        "Ġestrutura",
        -9.98131299199051
      ],
      [
        "risco",
        -9.985389962740948
      ],
      [
        "Ġamigo",
        -9.9854074299192
      ],
      [
        "Ġalta",
        -9.98615055982449
      ],
      [
        "Ġlivre",
        -9.987132578972457
      ],
      [
        "Ġrealizado",
        -9.987652706748095
      ],
      [
        "PCdoB",
        -9.989412933078732
      ],
      [
        "Ġfins",
        -9.989533315322658
      ],
      [
        "ĠSi",
        -9.990161875080863
      ],
      [
        "Ġajudar",
        -9.990253885942868
      ],
      [
        "ĠTudo",
        -9.991130272690608
      ],
      [
        "aram",
        -9.991441206265955
      ],
      [
        "ĠRIC",
        -9.991558651798275
      ],
      [
        "Ġreal",
        -9.99202365423642
      ],
      [
        "Z",
        -9.992308058214451
      ],
      [
        "ĠVoss",
        -9.993379889192909
      ],
      [
        "2003",
        -9.995108519779956
      ],
      [
        "Ġsoluc",
        -9.995591047553477
      ],
      [
        "th",
        -9.99708655240343
      ],
      [
        "Lei",
        -9.998071536612958
      ],
      [
        "Ġnovas",
        -9.998734886141776
      ],
      [
        "ĠGovernador",
        -9.99975725993698
      ],
      [
        "ĠGo",
        -9.999887204295616
      ],
      [
        "Ġ54",
        -9.99998110265238
      ],
      [
        "ĠADV",
        -10.001567546128982
      ],
      [
        "pronunciamento",
        -10.003363864647
      ],
      [
        "rcito",
        -10.00686573054912
      ],
      [
        "Ġmuita",
        -10.007653203650037
      ],
      [
        "Ġaudie",
        -10.007827090428796
      ],
      [
        "Ġentra",
        -10.008321854119249
      ],
      [
        "Ġcontar",
        -10.008591985762031
      ],
      [
        "Ġtera",
        -10.010062500668164
      ],
      [
        "Ġfundamental",
        -10.011486297737058
      ],
      [
        "Ġsignifica",
        -10.011533353262738
      ],
      [
        "Ġadministrac",
        -10.01158762561563
      ],
      [
        "Ġoriginal",
        -10.011880088653005
      ],
      [
        "substituic",
        -10.012327563337625
      ],
      [
        "Ġaco",
        -10.012372123575402
      ],
      [
        "ĠâĢĺ",
        -10.012834425064694
      ],
      [
        "Ġdifi",
        -10.012969209985815
      ],
      [
        "ĠSesso",
        -10.01307210397157
      ],
      [
        "Ġevento",
        -10.013221262156408
      ],
      [
        "tratamento",
        -10.013326438234849
      ],
      [
        "MENTO",
        -10.014583796500064
      ],
      [
        "Ġautoridade",
        -10.014620755449153
      ],
      [
        "Ġnego",
        -10.016349912749927
      ],
      [
        "lica",
        -10.016801131778564
      ],
      [
        "sico",
        -10.017423001991595
      ],
      [
        "Ġcrescimento",
        -10.018191080534496
      ],
      [
        "ĠAcho",
        -10.018829278971474
      ],
      [
        "ĠSuperior",
        -10.019029484849773
      ],
      [
        "Ġvoltar",
        -10.019318973704197
      ],
      [
        "gostaria",
        -10.020411847018469
      ],
      [
        "Ġnenhuma",
        -10.020936418295731
      ],
      [
        "Ġapresenta",
        -10.021732565748128
      ],
      [
        "ngua",
        -10.02203504352529
      ],
      [
        "Ġapresentac",
        -10.02302588619109
      ],
      [
        "entidades",
        -10.0236077533837
      ],
      [
        "ĠInforma",
        -10.02379786835421
      ],
      [
        "logo",
        -10.025003489898026
      ],
      [
        "Ġsonora",
        -10.026584737900125
      ],
      [
        "tado",
        -10.027658783933592
      ],
      [
        "EXTRAORDINA",
        -10.027876827849475
      ],
      [
        "ĠAc",
        -10.028547413985148
      ],
      [
        "Ġautorizac",
        -10.030628951359612
      ],
      [
        "ĠParana",
        -10.031364353083406
      ],
      [
        "Ġcla",
        -10.032209155589817
      ],
      [
        "Ġmilitar",
        -10.032327105551117
      ],
      [
        "Ġapresentar",
        -10.032387471035266
      ],
      [
        "Ġcentro",
        -10.032510765282742
      ],
      [
        "Ġningue",
        -10.033318931053056
      ],
      [
        "ĠVoto",
        -10.033433687371486
      ],
      [
        "Ġsimples",
        -10.034163938276931
      ],
      [
        "Ġrepresenta",
        -10.034692371695922
      ],
      [
        "sim",
        -10.035932709834
      ],
      [
        "Ġimposto",
        -10.03705220072131
      ],
      [
        "Ltd",
        -10.037097307299984
      ],
      [
        "Ġcivil",
        -10.037200755162086
      ],
      [
        "Ġcategoria",
        -10.037451060479372
      ],
      [
        "normas",
        -10.0380494351445
      ],
      [
        "ĠTa",
        -10.03874010464014
      ],
      [
        "Ġreuni",
        -10.043382913556258
      ],
      [
        "Ġfilhos",
        -10.04353064623884
      ],
      [
        "ĠCampos",
        -10.043621732276184
      ],
      [
        "ĠAte",
        -10.0440489490434
      ],
      [
        "Ġprestac",
        -10.045387706314097
      ],
      [
        "Hoje",
        -10.0476870900767
      ],
      [
        "ĠCOM",
        -10.047834596545131
      ],
      [
        "Ġinstitui",
        -10.04809025851251
      ],
      [
        "ĠAndre",
        -10.04819382592284
      ],
      [
        "2004",
        -10.048471048028642
      ],
      [
        "ĠPmdbP",
        -10.048710057412414
      ],
      [
        "Ġpar",
        -10.04968132745776
      ],
      [
        "ĠFe",
        -10.049789204713532
      ],
      [
        "Ġconstrui",
        -10.0499918034694
      ],
      [
        "ĠVI",
        -10.050130955873538
      ],
      [
        "Ġmeus",
        -10.05023756160525
      ],
      [
        "Ġfo",
        -10.050599554572957
      ],
      [
        "Anexo",
        -10.051248912533511
      ],
      [
        "Ġdespes",
        -10.052112152678184
      ],
      [
        "Ġnorma",
        -10.052552064400636
      ],
      [
        "Ġpassar",
        -10.053594292175594
      ],
      [
        "Ġemprego",
        -10.055320168507905
      ],
      [
        "Ġtaxa",
        -10.055495703868267
      ],
      [
        "Ġinstrumento",
        -10.055711149769044
      ],
      [
        "RJ",
        -10.056152226382572
      ],
      [
        "ĠSA",
        -10.056729935855053
      ],
      [
        "Ġ1999",
        -10.057248699621212
      ],
      [
        "ĠIgreja",
        -10.057730245772383
      ],
      [
        "atuac",
        -10.057855406373784
      ],
      [
        "Ġdirec",
        -10.059315570430446
      ],
      [
        "designado",
        -10.061559157137022
      ],
      [
        "Ġmaterial",
        -10.06312300062691
      ],
      [
        "Ġvo",
        -10.06335424597151
      ],
      [
        "Ġcriado",
        -10.06356393083122
      ],
      [
        "Ġlevar",
        -10.063615460484575
      ],
      [
        "trica",
        -10.063785685566408
      ],
      [
        "PFL",
        -10.064464814648336
      ],
      [
        "Ġtrabalhar",
        -10.065399451349448
      ],
      [
        "Ġespecialmente",
        -10.065592390037509
      ],
      [
        "devem",
        -10.066124135409684
      ],
      [
        "ssimo",
        -10.066534903381685
      ],
      [
        "Ġcurso",
        -10.06654350951526
      ],
      [
        "juridicidade",
        -10.066648167702326
      ],
      [
        "Tenho",
        -10.066983627235029
      ],
      [
        "ĠCentro",
        -10.067120388879223
      ],
      [
        "ĠParlamentar",
        -10.067506928658604
      ],
      [
        "ĠTodos",
        -10.067909947862368
      ],
      [
        "Ġestavam",
        -10.068011936902048
      ],
      [
        "Ġcombate",
        -10.069114169282576
      ],
      [
        "ĠRJ",
        -10.069158906450394
      ],
      [
        "ĠFEDERAL",
        -10.069652975289909
      ],
      [
        "Y",
        -10.069808012917562
      ],
      [
        "Ġtributa",
        -10.070151697109251
      ],
      [
        "Ġfavora",
        -10.070515789088264
      ],
      [
        "Ġusar",
        -10.070774659604265
      ],
      [
        "Ġconhecida",
        -10.07324402216762
      ],
      [
        "Ġdela",
        -10.073359034578925
      ],
      [
        "Ġprogramas",
        -10.073407267915591
      ],
      [
        "ĠCultura",
        -10.0740793046805
      ],
      [
        "Ġdiante",
        -10.074288484918238
      ],
      [
        "ĠTemer",
        -10.074860127683618
      ],
      [
        "Ġfutebol",
        -10.075433400091836
      ],
      [
        "ĠVale",
        -10.075787336696612
      ],
      [
        "Ġgarantir",
        -10.076105465861566
      ],
      [
        "URMA",
        -10.077124573944532
      ],
      [
        "ĠRE",
        -10.07729822920249
      ],
      [
        "ĠTerra",
        -10.078772478609894
      ],
      [
        "ante",
        -10.079039647462748
      ],
      [
        "Ġbastante",
        -10.079190727651865
      ],
      [
        "Ġfundo",
        -10.08064416595885
      ],
      [
        "ĠRibeiro",
        -10.08073535088866
      ],
      [
        "Ġcabec",
        -10.081756358473458
      ],
      [
        "Ġatra",
        -10.083317067326206
      ],
      [
        "ficas",
        -10.08390028529114
      ],
      [
        "ĠEcono",
        -10.084413523535966
      ],
      [
        "ĠEntre",
        -10.0844951763366
      ],
      [
        "Ġaprovada",
        -10.084620189382193
      ],
      [
        "Ġsair",
        -10.08481234780654
      ],
      [
        "Ġfilha",
        -10.084861170308924
      ],
      [
        "bi",
        -10.08497692115488
      ],
      [
        "ista",
        -10.085261779134251
      ],
      [
        "Ġelas",
        -10.085530027703452
      ],
      [
        "Ġrealidade",
        -10.085572215652528
      ],
      [
        "Ġdever",
        -10.086571099885555
      ],
      [
        "ĠH",
        -10.08698802068339
      ],
      [
        "ĠPEC",
        -10.088278335389935
      ],
      [
        "Ġgarantia",
        -10.089086788001714
      ],
      [
        "prisa",
        -10.089660406904624
      ],
      [
        "Ġfuturo",
        -10.089754106848174
      ],
      [
        "Ġpublicado",
        -10.09033960482516
      ],
      [
        "Ġcumprimento",
        -10.090370181836866
      ],
      [
        "âĢĲ",
        -10.092308049657928
      ],
      [
        "instalac",
        -10.092706331050678
      ],
      [
        "tra",
        -10.092963373164572
      ],
      [
        "Ġnovamente",
        -10.093619403794714
      ],
      [
        "Ġimportantes",
        -10.09461217971084
      ],
      [
        "Ġconteu",
        -10.0947101310394
      ],
      [
        "Ġtermo",
        -10.096675679932874
      ],
      [
        "jovens",
        -10.099423811834674
      ],
      [
        "Ġreceber",
        -10.101312087049353
      ],
      [
        "Ġcena",
        -10.10133832595764
      ],
      [
        "Ġmissa",
        -10.102136696911876
      ],
      [
        "ĠCon",
        -10.10246067053368
      ],
      [
        "Ġmostra",
        -10.103972906502175
      ],
      [
        "afirmou",
        -10.107241915883684
      ],
      [
        "Ġseguida",
        -10.10919963192948
      ],
      [
        "Ġtais",
        -10.10962486752669
      ],
      [
        "ĠSegunda",
        -10.109711293879467
      ],
      [
        "pido",
        -10.112604230116355
      ],
      [
        "Ġapresentado",
        -10.113679265337398
      ],
      [
        "men",
        -10.114801129241956
      ],
      [
        "ĠDiretor",
        -10.114931728873003
      ],
      [
        "ĠMi",
        -10.116863955775802
      ],
      [
        "ĠDi",
        -10.11756103955573
      ],
      [
        "Ġepiso",
        -10.119027916903782
      ],
      [
        "ĠMeu",
        -10.12071798353248
      ],
      [
        "micos",
        -10.120783025135076
      ],
      [
        "Ġcolocar",
        -10.120814256368698
      ],
      [
        "Ġalema",
        -10.121422635714172
      ],
      [
        "AL",
        -10.121984178304324
      ],
      [
        "ĠBo",
        -10.122073431331597
      ],
      [
        "Ġalto",
        -10.12435975648366
      ],
      [
        "Ġjornal",
        -10.125447708752546
      ],
      [
        "Ġindu",
        -10.1255256755043
      ],
      [
        "Ġprejui",
        -10.12959334036514
      ],
      [
        "18",
        -10.129812982829668
      ],
      [
        "Ġmotivo",
        -10.130052329946112
      ],
      [
        "Ġfiscal",
        -10.13120079119799
      ],
      [
        "Ġrazo",
        -10.132820418830027
      ],
      [
        "Ġaquela",
        -10.132859959312723
      ],
      [
        "Ġportugue",
        -10.1328689537136
      ],
      [
        "AgR",
        -10.133665399400416
      ],
      [
        "nsito",
        -10.133741265748638
      ],
      [
        "Ġaplica",
        -10.134133957579085
      ],
      [
        "Ġafirma",
        -10.1342723698872
      ],
      [
        "Ġvisto",
        -10.134924863144697
      ],
      [
        "ĠEuropa",
        -10.135799879124574
      ],
      [
        "ĠComplementar",
        -10.13622322053157
      ],
      [
        "Ġobrigac",
        -10.137313964013192
      ],
      [
        "Ġperda",
        -10.137445377500008
      ],
      [
        "bancada",
        -10.137540997151536
      ],
      [
        "Ġnatural",
        -10.138486774268973
      ],
      [
        "tenham",
        -10.138819873504456
      ],
      [
        "efeitos",
        -10.139456452249652
      ],
      [
        "Ġsuficiente",
        -10.139864114208253
      ],
      [
        "Ġsub",
        -10.139903916052653
      ],
      [
        "ĠOrc",
        -10.139955517476226
      ],
      [
        "deixou",
        -10.140070054078356
      ],
      [
        "Ġeleito",
        -10.141047092167318
      ],
      [
        "Ġquesto",
        -10.142357563075752
      ],
      [
        "Ġcomum",
        -10.144643232599131
      ],
      [
        "Ġencontrar",
        -10.14650330291282
      ],
      [
        "nero",
        -10.146518143304451
      ],
      [
        "entidade",
        -10.146738632181602
      ],
      [
        "ato",
        -10.147580487260171
      ],
      [
        "PP",
        -10.148400254542915
      ],
      [
        "Ġamor",
        -10.148520046520613
      ],
      [
        "TO",
        -10.14995312972125
      ],
      [
        "Ġ1996",
        -10.151181611346535
      ],
      [
        "pia",
        -10.151203612610551
      ],
      [
        "Ġfaixa",
        -10.151772990459412
      ],
      [
        "car",
        -10.151847407893753
      ],
      [
        "Portaria",
        -10.153098451512022
      ],
      [
        "Ġtratar",
        -10.153569377649209
      ],
      [
        "Ġdispositivo",
        -10.15419885319322
      ],
      [
        "ĠTrata",
        -10.15433021479134
      ],
      [
        "nas",
        -10.15485571409988
      ],
      [
        "ĠPenal",
        -10.15532397878712
      ],
      [
        "Ġautoriza",
        -10.15671252242475
      ],
      [
        "emos",
        -10.157386328735456
      ],
      [
        "ĠMato",
        -10.158332113706672
      ],
      [
        "rgio",
        -10.158415914389709
      ],
      [
        "conformidade",
        -10.159924478714442
      ],
      [
        "Ġaconteceu",
        -10.160071951533633
      ],
      [
        "2018",
        -10.161869185999135
      ],
      [
        "Ġexperie",
        -10.162174166512427
      ],
      [
        "Ġcienti",
        -10.16316072685569
      ],
      [
        "REG",
        -10.1634601515077
      ],
      [
        "locais",
        -10.16382991297551
      ],
      [
        "entendimento",
        -10.164958378828446
      ],
      [
        "Ġvito",
        -10.165353059166993
      ],
      [
        "Ġbaixo",
        -10.16666221379293
      ],
      [
        "Ġdessas",
        -10.166684903063144
      ],
      [
        "ĠRelato",
        -10.166988822729596
      ],
      [
        "ĠBe",
        -10.167051781289464
      ],
      [
        "previsto",
        -10.16785537166281
      ],
      [
        "Ġconstitui",
        -10.169026949135448
      ],
      [
        "Ġpermite",
        -10.16916904915504
      ],
      [
        "distribuic",
        -10.17093154013066
      ],
      [
        "rac",
        -10.170978530220552
      ],
      [
        "tulos",
        -10.17209563034842
      ],
      [
        "Ġacerca",
        -10.172436266679163
      ],
      [
        "Ġvia",
        -10.173265527170388
      ],
      [
        "Substitutivo",
        -10.17403627806394
      ],
      [
        "PSOL",
        -10.174287998795084
      ],
      [
        "ĠBom",
        -10.174877099814784
      ],
      [
        "ĠComunita",
        -10.175232381209302
      ],
      [
        "talvez",
        -10.175798310320806
      ],
      [
        "ĠDOS",
        -10.17596021464388
      ],
      [
        "PRB",
        -10.176167180794188
      ],
      [
        "Ġparticipar",
        -10.176746459585788
      ],
      [
        "DEPUTADO",
        -10.177138882083389
      ],
      [
        "Ġoutorga",
        -10.17830294728121
      ],
      [
        "Ġtelevisa",
        -10.178824418398213
      ],
      [
        "enta",
        -10.179919924189536
      ],
      [
        "gi",
        -10.180585006356075
      ],
      [
        "vidas",
        -10.18348816088037
      ],
      [
        "ĠAta",
        -10.183501040391926
      ],
      [
        "Ġrealizar",
        -10.187170179255483
      ],
      [
        "manutenc",
        -10.189834041262303
      ],
      [
        "Ġesforc",
        -10.191212686881933
      ],
      [
        "Ġpermitir",
        -10.191237155632836
      ],
      [
        "mar",
        -10.192515904905187
      ],
      [
        "Ġpopular",
        -10.193228787594515
      ],
      [
        "ĠSE",
        -10.19404596819597
      ],
      [
        "Ġgrave",
        -10.1941027813718
      ],
      [
        "destinada",
        -10.194179297983627
      ],
      [
        "ĠPrimeiro",
        -10.197118341695726
      ],
      [
        "Ġabertura",
        -10.199136816820005
      ],
      [
        "gerac",
        -10.200496493094128
      ],
      [
        "Ġrei",
        -10.202292874848789
      ],
      [
        "Ġdireta",
        -10.202558957054649
      ],
      [
        "Ġentrar",
        -10.20285870171288
      ],
      [
        "ĠAqui",
        -10.203016270732723
      ],
      [
        "Ġinvestigac",
        -10.205150365233989
      ],
      [
        "Ġcaracteri",
        -10.205716746516682
      ],
      [
        "Ġjogos",
        -10.208990691388667
      ],
      [
        "ĠOfi",
        -10.209413636670831
      ],
      [
        "Ġmulta",
        -10.210321386058148
      ],
      [
        "ĠAmazo",
        -10.210798958730551
      ],
      [
        "Ġassiste",
        -10.211155983096424
      ],
      [
        "Ġdenu",
        -10.21150427481027
      ],
      [
        "Prefeito",
        -10.211509687590356
      ],
      [
        "Ġcento",
        -10.21247663955627
      ],
      [
        "legais",
        -10.213172366958188
      ],
      [
        "Ġcabe",
        -10.213465359925436
      ],
      [
        "\",\"",
        -10.213934343616735
      ],
      [
        "PSC",
        -10.214752558422605
      ],
      [
        "tre",
        -10.214753598081163
      ],
      [
        "ĠCi",
        -10.21523269240071
      ],
      [
        "Ġause",
        -10.215588634846608
      ],
      [
        "Ġamigos",
        -10.21607918346056
      ],
      [
        "Ġide",
        -10.216497047139294
      ],
      [
        "Ġclasse",
        -10.218424735046236
      ],
      [
        "Ġtornar",
        -10.218441096762827
      ],
      [
        "apesar",
        -10.218631171983311
      ],
      [
        "Ġrepresentante",
        -10.218896697061725
      ],
      [
        "dade",
        -10.218997985923654
      ],
      [
        "Ġcarta",
        -10.219009672614762
      ],
      [
        "iz",
        -10.21916721990348
      ],
      [
        "Ġsite",
        -10.219866888081627
      ],
      [
        "Ġtentar",
        -10.219880718161193
      ],
      [
        "Ġdisposic",
        -10.219899699842864
      ],
      [
        "Ġordina",
        -10.221259679110243
      ],
      [
        "sicas",
        -10.221825572988502
      ],
      [
        "referido",
        -10.221987487556447
      ],
      [
        "possam",
        -10.222442995550027
      ],
      [
        "ĠDep",
        -10.222615218124186
      ],
      [
        "Ġcolega",
        -10.223314825697612
      ],
      [
        "casos",
        -10.223913858524751
      ],
      [
        "ĠCentral",
        -10.22452058508027
      ],
      [
        "ĠProcesso",
        -10.225138040066875
      ],
      [
        "PtbP",
        -10.226721816579015
      ],
      [
        "ĠPROPOSI",
        -10.228188552934729
      ],
      [
        "ĠJOSE",
        -10.228258913837998
      ],
      [
        "Ġtribuna",
        -10.228700088743198
      ],
      [
        "ĠTi",
        -10.229074476265582
      ],
      [
        "ĠSouza",
        -10.231694922468344
      ],
      [
        "Ġdocumentos",
        -10.23181678972904
      ],
      [
        "Ġ32",
        -10.232206474707263
      ],
      [
        "Ġnoti",
        -10.232533972036554
      ],
      [
        "............",
        -10.232597340017684
      ],
      [
        "ĠPorque",
        -10.2344130929153
      ],
      [
        "militares",
        -10.234652983215645
      ],
      [
        "Ġdiscutir",
        -10.235530435605474
      ],
      [
        "Ġmanifestac",
        -10.23573617981194
      ],
      [
        "ĠVi",
        -10.235822393925163
      ],
      [
        "ĠCelso",
        -10.236265456100403
      ],
      [
        "Ġ70",
        -10.236307173770626
      ],
      [
        "Ġquadro",
        -10.23637234005882
      ],
      [
        "utilizac",
        -10.236379449023158
      ],
      [
        "CURSO",
        -10.237359884224997
      ],
      [
        "Ġmelhores",
        -10.237655039641991
      ],
      [
        "ĠGomes",
        -10.237852233826496
      ],
      [
        "Estamos",
        -10.239404558881107
      ],
      [
        "Ġdizendo",
        -10.239996972939151
      ],
      [
        "essa",
        -10.240427232518076
      ],
      [
        "ĠMunicipal",
        -10.240968466456971
      ],
      [
        "ĠPlano",
        -10.241588864836846
      ],
      [
        "Ġfazem",
        -10.24205772710759
      ],
      [
        "Ġdemanda",
        -10.24256251131558
      ],
      [
        "dicos",
        -10.24265352809816
      ],
      [
        "ĠLopes",
        -10.242774831539643
      ],
      [
        "ĠGrosso",
        -10.243439461568116
      ],
      [
        "ĠJohn",
        -10.244871302287873
      ],
      [
        "CARLOS",
        -10.245057939271003
      ],
      [
        "ĠMinistra",
        -10.245286633679877
      ],
      [
        "Ġusado",
        -10.246334845205883
      ],
      [
        "Ġbens",
        -10.246618334993874
      ],
      [
        "ĠRocha",
        -10.247154733886523
      ],
      [
        "Ġconsiderada",
        -10.248131005965291
      ],
      [
        "ĠEscola",
        -10.249034657060829
      ],
      [
        "ĠMilitar",
        -10.249130578580024
      ],
      [
        "rem",
        -10.24915184727394
      ],
      [
        "Ġpaciente",
        -10.249422822048803
      ],
      [
        "Ġameac",
        -10.25092360387756
      ],
      [
        "Ġregio",
        -10.252019975154594
      ],
      [
        "tos",
        -10.252209949723952
      ],
      [
        "Ġconclui",
        -10.25260800595682
      ],
      [
        "Of",
        -10.254063481397552
      ],
      [
        "Pausa",
        -10.25469779427745
      ],
      [
        "Ġperto",
        -10.255338403392686
      ],
      [
        "Ġministro",
        -10.25571271698954
      ],
      [
        "Ġpequena",
        -10.256379648603234
      ],
      [
        "Ġreceita",
        -10.257125663550422
      ],
      [
        "atos",
        -10.258144551251302
      ],
      [
        "inha",
        -10.258469697440267
      ],
      [
        "Ġcompromisso",
        -10.259200423780811
      ],
      [
        "Ġfonte",
        -10.261195743029202
      ],
      [
        "GERAL",
        -10.26135614942385
      ],
      [
        "Ġcapaz",
        -10.262956555111684
      ],
      [
        "Ġrevista",
        -10.263269066410135
      ],
      [
        "indicac",
        -10.26363785581378
      ],
      [
        "Ġhomenage",
        -10.263744400858233
      ],
      [
        "Ġlocalizado",
        -10.263748957304957
      ],
      [
        "ĠConced",
        -10.263924783659435
      ],
      [
        "exposto",
        -10.2649742479761
      ],
      [
        "ĠCatarina",
        -10.264982670747136
      ],
      [
        "Ġacabou",
        -10.265353638959327
      ],
      [
        "Ġdecreta",
        -10.265779645737531
      ],
      [
        "Ġconseguiu",
        -10.266323569007886
      ],
      [
        "meros",
        -10.268017385073668
      ],
      [
        "exclusividade",
        -10.268703989419402
      ],
      [
        "ente",
        -10.268896209256404
      ],
      [
        "Ġtorna",
        -10.269975867542309
      ],
      [
        "ĠBa",
        -10.270226052975351
      ],
      [
        "Ġcompetic",
        -10.270944044943551
      ],
      [
        "Ġescolas",
        -10.27106954188885
      ],
      [
        "Ġbaixa",
        -10.271360967489972
      ],
      [
        "Ġrelativa",
        -10.271607468192544
      ],
      [
        "Ġdiferenc",
        -10.272364876446398
      ],
      [
        "Ġavaliac",
        -10.272437015337854
      ],
      [
        "cha",
        -10.272765912838048
      ],
      [
        "Ġcandidato",
        -10.273168637408858
      ],
      [
        "mula",
        -10.273182284432147
      ],
      [
        "ĠTemo",
        -10.274064819032429
      ],
      [
        "Ġcontinuar",
        -10.274679796167655
      ],
      [
        "25",
        -10.27483650055667
      ],
      [
        "ĠBA",
        -10.27493669264348
      ],
      [
        "Ġsete",
        -10.275118268130626
      ],
      [
        "falando",
        -10.275177573464116
      ],
      [
        "MG",
        -10.275471336144388
      ],
      [
        "Apesar",
        -10.275525972155132
      ],
      [
        "ĠIta",
        -10.275910819376596
      ],
      [
        "Ġquarto",
        -10.276247878207668
      ],
      [
        "ĠLista",
        -10.27649793343779
      ],
      [
        "Ġigual",
        -10.2772285334535
      ],
      [
        "CONSTITUIC",
        -10.277282265419718
      ],
      [
        "ĠRS",
        -10.277326075809214
      ],
      [
        "Ġjovem",
        -10.277893388747977
      ],
      [
        "Ġdiferente",
        -10.27964511825586
      ],
      [
        "Ġaltera",
        -10.279794399581052
      ],
      [
        "Ġpagar",
        -10.280278881959036
      ],
      [
        "Ġestudos",
        -10.280404026097072
      ],
      [
        "estabelecimento",
        -10.281170815033011
      ],
      [
        "Ġimprensa",
        -10.282180491022675
      ],
      [
        "Ġquantidade",
        -10.282340996331254
      ],
      [
        "lias",
        -10.284065327644184
      ],
      [
        "US",
        -10.284315379015236
      ],
      [
        "Maranha",
        -10.284988560086394
      ],
      [
        "inclusa",
        -10.285171516609251
      ],
      [
        "Ġseguir",
        -10.285287112208769
      ],
      [
        "Ġ1991",
        -10.286197113659776
      ],
      [
        "ginas",
        -10.28698306098349
      ],
      [
        "ĠVeja",
        -10.28796557674096
      ],
      [
        "ĠLUIZ",
        -10.288396255337933
      ],
      [
        "Ġfinanciamento",
        -10.291386429141092
      ],
      [
        "Ġquarta",
        -10.291873688491124
      ],
      [
        "ĠAl",
        -10.292814492571184
      ],
      [
        "Ġlocalizada",
        -10.295487278213832
      ],
      [
        "SE",
        -10.296189611791528
      ],
      [
        "ĠAprova",
        -10.29666610733747
      ],
      [
        "Ġaprova",
        -10.296861600083885
      ],
      [
        "deres",
        -10.296925770473113
      ],
      [
        "Ġunidades",
        -10.298293109878635
      ],
      [
        "Apoio",
        -10.298417729605353
      ],
      [
        "atribuic",
        -10.299320318032532
      ],
      [
        "01",
        -10.300077062675069
      ],
      [
        "Ġcomigo",
        -10.300248433971024
      ],
      [
        "ĠOla",
        -10.30063096816106
      ],
      [
        "+",
        -10.30077496265486
      ],
      [
        "ĠAlmeida",
        -10.301618687652226
      ],
      [
        "Ġexatamente",
        -10.301777844388315
      ],
      [
        "ontem",
        -10.302770203625704
      ],
      [
        "ĠParlamentare",
        -10.302982732755398
      ],
      [
        "regras",
        -10.303042940965936
      ],
      [
        "Ġoito",
        -10.30333465714593
      ],
      [
        "cies",
        -10.304000766059367
      ],
      [
        "Ġ1995",
        -10.304276331860796
      ],
      [
        "ĠPU",
        -10.304417200773877
      ],
      [
        "ĠRodrigues",
        -10.304849235541123
      ],
      [
        "entrada",
        -10.30585080931937
      ],
      [
        "rus",
        -10.3059277144697
      ],
      [
        "|",
        -10.306005670843382
      ],
      [
        "Ġvenda",
        -10.3071726080455
      ],
      [
        "SRA",
        -10.307790995934171
      ],
      [
        "Ġcomissa",
        -10.307942943097594
      ],
      [
        "Ġentrega",
        -10.30821669047089
      ],
      [
        "RS",
        -10.308380831271208
      ],
      [
        "ĠCO",
        -10.30889319930021
      ],
      [
        "remos",
        -10.309365377986513
      ],
      [
        "Ġestrate",
        -10.310645686997978
      ],
      [
        "Ġdado",
        -10.310757911414177
      ],
      [
        "Ġsofre",
        -10.311826370862915
      ],
      [
        "Lideran",
        -10.31207861303574
      ],
      [
        "ĠCarvalho",
        -10.31295807203328
      ],
      [
        "ĠRu",
        -10.31305666202641
      ],
      [
        "Ġluz",
        -10.31318406946181
      ],
      [
        "Ġpropriedade",
        -10.313368833631172
      ],
      [
        "Ġhaja",
        -10.313396386106902
      ],
      [
        "Ġresultados",
        -10.313758925046622
      ],
      [
        "Ġvisita",
        -10.313872772325716
      ],
      [
        "Ġdaquel",
        -10.315675343615826
      ],
      [
        "Ġtomar",
        -10.316860099815248
      ],
      [
        "Ġinicial",
        -10.317092854228967
      ],
      [
        "Ġdisputa",
        -10.3178188312134
      ],
      [
        "alunos",
        -10.317989428938956
      ],
      [
        "Ġjulgado",
        -10.31855034399829
      ],
      [
        "ambos",
        -10.32025273166674
      ],
      [
        "ĠGrupo",
        -10.320341991143628
      ],
      [
        "Ġestu",
        -10.320591624730191
      ],
      [
        "lar",
        -10.320608388899496
      ],
      [
        "ĠPrevide",
        -10.321150078310213
      ],
      [
        "sito",
        -10.321209664949883
      ],
      [
        "Ġ119",
        -10.322185680727912
      ],
      [
        "pida",
        -10.322690918377727
      ],
      [
        "til",
        -10.323345583972031
      ],
      [
        "Ġinterior",
        -10.323475589211382
      ],
      [
        "sta",
        -10.323678253741855
      ],
      [
        "ĠOnde",
        -10.324643496172753
      ],
      [
        "[",
        -10.325564176626678
      ],
      [
        "nicos",
        -10.32607770342712
      ],
      [
        "ĠFami",
        -10.32672138155468
      ],
      [
        "criada",
        -10.327646244613314
      ],
      [
        "Ġapresentada",
        -10.328518252615154
      ],
      [
        "Certo",
        -10.329197231505848
      ],
      [
        "corrupc",
        -10.33007562106284
      ],
      [
        "rejeic",
        -10.330241593660618
      ],
      [
        "Ġmundial",
        -10.330762832709269
      ],
      [
        "ĠLEGISLATIV",
        -10.33085991678156
      ],
      [
        "Ġorientac",
        -10.331847013722632
      ],
      [
        "ĠUS",
        -10.331853085752211
      ],
      [
        "ĠJudicia",
        -10.3322332155459
      ],
      [
        "Ġestadual",
        -10.332398250216524
      ],
      [
        "ĠPo",
        -10.33245564757662
      ],
      [
        "Ġcor",
        -10.333276658052128
      ],
      [
        "Ġestabelece",
        -10.333438822701687
      ],
      [
        "ĠHe",
        -10.334626934671268
      ],
      [
        "las",
        -10.335258957950398
      ],
      [
        "tecnologia",
        -10.335828925105014
      ],
      [
        "Ġcompra",
        -10.33598150043919
      ],
      [
        "requisitos",
        -10.33706652669932
      ],
      [
        "che",
        -10.337438484897223
      ],
      [
        "Ġlimite",
        -10.337451051692996
      ],
      [
        "ĠSenhora",
        -10.337494992921055
      ],
      [
        "ĠLui",
        -10.337595667900478
      ],
      [
        "ĠMinha",
        -10.33763780402606
      ],
      [
        "NR",
        -10.337806572677907
      ],
      [
        "ĠSou",
        -10.337826851147224
      ],
      [
        "ĠToda",
        -10.337875844947614
      ],
      [
        "ĠPOR",
        -10.338552486235033
      ],
      [
        "Ġregra",
        -10.339110114103445
      ],
      [
        "atualmente",
        -10.339407356290694
      ],
      [
        "lei",
        -10.339714759088643
      ],
      [
        "ĠUSP",
        -10.340266351551495
      ],
      [
        "ĠWikipe",
        -10.3413720154255
      ],
      [
        "Ġdecidi",
        -10.342577797893384
      ],
      [
        "Ġevitar",
        -10.343157721004197
      ],
      [
        "Seguranc",
        -10.343348279609817
      ],
      [
        "LIO",
        -10.343366784713682
      ],
      [
        "chefe",
        -10.343603238962556
      ],
      [
        "Talvez",
        -10.34541444407727
      ],
      [
        "ĠZe",
        -10.34569226093031
      ],
      [
        "BA",
        -10.345797795956022
      ],
      [
        "Ġ80",
        -10.346277317181736
      ],
      [
        "Ġpasso",
        -10.346336335347464
      ],
      [
        "ĠSenhore",
        -10.346638777290936
      ],
      [
        "Q",
        -10.34672968905492
      ],
      [
        "ĠEstadual",
        -10.347060071011397
      ],
      [
        "ĠRegia",
        -10.347625076096596
      ],
      [
        "Ġacha",
        -10.34784180690668
      ],
      [
        "ĠReino",
        -10.348223190353869
      ],
      [
        "ĠNordeste",
        -10.348338399820353
      ],
      [
        "Figueiredo",
        -10.348404814219196
      ],
      [
        "Ġencontro",
        -10.34845675239568
      ],
      [
        "ĠAugusto",
        -10.349186827054933
      ],
      [
        "chi",
        -10.349285873650304
      ],
      [
        "Ġmar",
        -10.349373892317857
      ],
      [
        "Ġchega",
        -10.350155621985216
      ],
      [
        "votos",
        -10.351343815484634
      ],
      [
        "somos",
        -10.351345332305048
      ],
      [
        "Ġgra",
        -10.352302522593565
      ],
      [
        "diretamente",
        -10.35247247549275
      ],
      [
        "Ġantigo",
        -10.352536495409709
      ],
      [
        "ĠDECRET",
        -10.35350136881837
      ],
      [
        "Teixeira",
        -10.353740441734264
      ],
      [
        "Ġvir",
        -10.355104216525712
      ],
      [
        "licitac",
        -10.355723388074326
      ],
      [
        "Ġfui",
        -10.35720230754691
      ],
      [
        "Ġrecebe",
        -10.357219889449508
      ],
      [
        "Ġpublicada",
        -10.357597598576776
      ],
      [
        "Ġestabelecer",
        -10.357801977068943
      ],
      [
        "Ġleva",
        -10.358199286829423
      ],
      [
        "Ġdocumento",
        -10.358998303369994
      ],
      [
        "ĠNelson",
        -10.359306248933493
      ],
      [
        "Discussa",
        -10.35995473012743
      ],
      [
        "ĠPA",
        -10.360261252577637
      ],
      [
        "Ġper",
        -10.360862862526332
      ],
      [
        "ĠChina",
        -10.360959908785148
      ],
      [
        "Ġcac",
        -10.361201055198988
      ],
      [
        "Ġcarro",
        -10.361265179129331
      ],
      [
        "ĠPe",
        -10.361651644448337
      ],
      [
        "ĠDaniel",
        -10.363030837902697
      ],
      [
        "ĠFazenda",
        -10.363854508713237
      ],
      [
        "Ġdada",
        -10.364227039163316
      ],
      [
        "licitante",
        -10.364659594474826
      ],
      [
        "ĠFica",
        -10.364864420366876
      ],
      [
        "Ġterc",
        -10.365456220107031
      ],
      [
        "existente",
        -10.365606210589712
      ],
      [
        "Ġpalavras",
        -10.365668822465526
      ],
      [
        "TE",
        -10.365703088308662
      ],
      [
        "Ġprovi",
        -10.366205034359648
      ],
      [
        "Ġadministrativa",
        -10.367155495070897
      ],
      [
        "Ġsubstitui",
        -10.367559562651442
      ],
      [
        "Ġanimais",
        -10.36931158237895
      ],
      [
        "Ġhumano",
        -10.369574506983875
      ],
      [
        "PSB",
        -10.369794827256566
      ],
      [
        "ĠAh",
        -10.370175912600493
      ],
      [
        "Ġ35",
        -10.371520415840331
      ],
      [
        "ĠDesde",
        -10.371829384934298
      ],
      [
        "levou",
        -10.372201227531034
      ],
      [
        "para",
        -10.3723186773427
      ],
      [
        "gem",
        -10.372638611059235
      ],
      [
        "federai",
        -10.374471870691533
      ],
      [
        "Ġabaixo",
        -10.375090963300469
      ],
      [
        "Ġatender",
        -10.37779528272019
      ],
      [
        "ava",
        -10.378013991231748
      ],
      [
        "ĠFutebol",
        -10.380270679040226
      ],
      [
        "ocalidades",
        -10.38079417379758
      ],
      [
        "ĠReal",
        -10.38097406047917
      ],
      [
        "ĠMG",
        -10.381255933848523
      ],
      [
        "Ġinfra",
        -10.383590198256792
      ],
      [
        "ĠSabe",
        -10.38370932500376
      ],
      [
        "Ġdeputado",
        -10.384736207253246
      ],
      [
        "Ġmesa",
        -10.38511395260147
      ],
      [
        "PDT",
        -10.385479654134334
      ],
      [
        "ĠAlberto",
        -10.388030846973027
      ],
      [
        "ĠMundo",
        -10.389885297639408
      ],
      [
        "ĠRelac",
        -10.39005905886409
      ],
      [
        "Ġ37",
        -10.391121638386515
      ],
      [
        "ĠNossa",
        -10.391395251294954
      ],
      [
        "Ġsu",
        -10.39141010915572
      ],
      [
        "PE",
        -10.392295679103132
      ],
      [
        "Ġmanha",
        -10.394139163326788
      ],
      [
        "Ġexplorar",
        -10.394366086655046
      ],
      [
        "Ġacidente",
        -10.396069574062494
      ],
      [
        "ĠAlemanha",
        -10.3971356361894
      ],
      [
        "ĠFla",
        -10.397175043229057
      ],
      [
        "ĠART",
        -10.397251749676627
      ],
      [
        "ĠDepu",
        -10.397273609857402
      ],
      [
        "Ġquilo",
        -10.398154123931242
      ],
      [
        "Ġdeficie",
        -10.39872370011051
      ],
      [
        "ĠGoia",
        -10.399082219781272
      ],
      [
        "PSL",
        -10.399303319619648
      ],
      [
        "ĠForc",
        -10.400490343532244
      ],
      [
        "Ġ1988",
        -10.400573120456302
      ],
      [
        "Ġentender",
        -10.40088385441793
      ],
      [
        "virtude",
        -10.40215875152188
      ],
      [
        "EUA",
        -10.403302643668532
      ],
      [
        "Resoluc",
        -10.404488112203572
      ],
      [
        "Ġacontece",
        -10.404902884080782
      ],
      [
        "ligac",
        -10.4052252535653
      ],
      [
        "ĠGeral",
        -10.405575399586862
      ],
      [
        "Ġdemocracia",
        -10.40578878695292
      ],
      [
        "Ġrural",
        -10.40772865220962
      ],
      [
        "ĠJesus",
        -10.408601577721306
      ],
      [
        "Ġouvir",
        -10.409605382013773
      ],
      [
        "humanos",
        -10.409970479853486
      ],
      [
        "ĠAlexandre",
        -10.410170095814747
      ],
      [
        "Ġpromover",
        -10.410357242015138
      ],
      [
        "Ġcontas",
        -10.411296468547524
      ],
      [
        "28",
        -10.411425554559973
      ],
      [
        "impacto",
        -10.411506707711652
      ],
      [
        "ĠVai",
        -10.411577314877942
      ],
      [
        "preocupac",
        -10.411820462958412
      ],
      [
        "ĠFundac",
        -10.411860803026148
      ],
      [
        "Ġmudar",
        -10.412159874517794
      ],
      [
        "Ġtime",
        -10.412287918917611
      ],
      [
        "ĠTra",
        -10.412326459525662
      ],
      [
        "Ġvice",
        -10.412807137793592
      ],
      [
        "Ġposto",
        -10.413833943523338
      ],
      [
        "imagens",
        -10.413911932637143
      ],
      [
        "Ġjudicial",
        -10.414001741881352
      ],
      [
        "apresentou",
        -10.414205354886604
      ],
      [
        "ĠCE",
        -10.415229401459774
      ],
      [
        "inho",
        -10.415490368095815
      ],
      [
        "ĠNac",
        -10.415563256108587
      ],
      [
        "Ġpior",
        -10.41628035199021
      ],
      [
        "Ġimagem",
        -10.416378013163664
      ],
      [
        "per",
        -10.416471817310851
      ],
      [
        "Ġdisponi",
        -10.416615259437728
      ],
      [
        "tiveram",
        -10.416786082251978
      ],
      [
        "ĠQual",
        -10.416950145372864
      ],
      [
        "ĠLisboa",
        -10.417241689169284
      ],
      [
        "Departamento",
        -10.417321445407072
      ],
      [
        "gia",
        -10.418164249268074
      ],
      [
        "ele",
        -10.418447670897644
      ],
      [
        "Ġconcurso",
        -10.418582354847455
      ],
      [
        "dando",
        -10.418737338733584
      ],
      [
        "Ġconversa",
        -10.418758860235902
      ],
      [
        "Ġpermiti",
        -10.41900790720226
      ],
      [
        "Ġpedir",
        -10.419540252485945
      ],
      [
        "Ġdepende",
        -10.42115106519575
      ],
      [
        "privado",
        -10.421579049628525
      ],
      [
        "Ġoferece",
        -10.42192054539754
      ],
      [
        "ĠCeara",
        -10.422320295978857
      ],
      [
        "Ġopinia",
        -10.423091516289404
      ],
      [
        "ĠLegislativa",
        -10.423253974638326
      ],
      [
        "ĠSerra",
        -10.423603043059623
      ],
      [
        "Ġvivo",
        -10.424038015106664
      ],
      [
        "Ġdaqui",
        -10.424296800541857
      ],
      [
        "tio",
        -10.424327309361862
      ],
      [
        "imo",
        -10.424372562066576
      ],
      [
        "decreto",
        -10.42467423824112
      ],
      [
        "lida",
        -10.425741819464488
      ],
      [
        "ĠMarcos",
        -10.42589671710678
      ],
      [
        "investimentos",
        -10.42603033282562
      ],
      [
        "ler",
        -10.426396845286684
      ],
      [
        "Ġvige",
        -10.426417550513236
      ],
      [
        "2020",
        -10.426673921657484
      ],
      [
        "Proposic",
        -10.427811959719078
      ],
      [
        "Ġetc",
        -10.428021360948556
      ],
      [
        "ĠArthur",
        -10.428109870997949
      ],
      [
        "Ġjui",
        -10.428309949740797
      ],
      [
        "Ġcerta",
        -10.42860609632549
      ],
      [
        "ĠDESPACH",
        -10.42891517548047
      ],
      [
        "Ġretorno",
        -10.430473471918043
      ],
      [
        "ĠTo",
        -10.430860932714712
      ],
      [
        "DF",
        -10.431482459141872
      ],
      [
        "ĠPp",
        -10.432414746432991
      ],
      [
        "ĠPelo",
        -10.433078058125098
      ],
      [
        "ĠPARA",
        -10.433221763535132
      ],
      [
        "Ġ33",
        -10.43557524545598
      ],
      [
        "Ġjustic",
        -10.43604193741058
      ],
      [
        "Ġconsegue",
        -10.43702596370854
      ],
      [
        "nacionais",
        -10.43707519917618
      ],
      [
        "Ìģ!",
        -10.438217965478453
      ],
      [
        "Ġestes",
        -10.43835058296151
      ],
      [
        "ocorreu",
        -10.4388123795234
      ],
      [
        "Ġacaba",
        -10.439468888933424
      ],
      [
        "fiscalizac",
        -10.439502937134304
      ],
      [
        "Ġgrau",
        -10.439700278588658
      ],
      [
        "Ġunidade",
        -10.440497361389518
      ],
      [
        "Ġconsiderac",
        -10.441055992848224
      ],
      [
        "ĠVista",
        -10.441235119730296
      ],
      [
        "permissa",
        -10.441988484159854
      ],
      [
        "ĠPI",
        -10.442106396679774
      ],
      [
        "Ġamanha",
        -10.442650529928796
      ],
      [
        "www",
        -10.445460687095943
      ],
      [
        "ÌĦ",
        -10.44587743990528
      ],
      [
        "gu",
        -10.446065680157217
      ],
      [
        "Ġdiminui",
        -10.446435977637138
      ],
      [
        "ĠRodrigo",
        -10.44669097366417
      ],
      [
        "Geraldo",
        -10.446873236666054
      ],
      [
        "ĠOUTR",
        -10.448152180184264
      ],
      [
        "Ġprocedimento",
        -10.44854787708503
      ],
      [
        "CE",
        -10.449057088532324
      ],
      [
        "ĠSobre",
        -10.44932153206874
      ],
      [
        "29",
        -10.44942709209463
      ],
      [
        "Ġarmas",
        -10.451746374787492
      ],
      [
        "ĠFi",
        -10.451874304734606
      ],
      [
        "Moreira",
        -10.452240611322647
      ],
      [
        "ĠMar",
        -10.453806231012662
      ],
      [
        "ĠParis",
        -10.453993305862248
      ],
      [
        "Ġouvi",
        -10.454159720504226
      ],
      [
        "ĠFo",
        -10.454581505442334
      ],
      [
        "ĠPubli",
        -10.45573404684124
      ],
      [
        "lares",
        -10.456728938780271
      ],
      [
        "Ġfiz",
        -10.45699152746532
      ],
      [
        "Ġmerece",
        -10.457526310606664
      ],
      [
        "Ġdeciso",
        -10.45813957595158
      ],
      [
        "Ġfeliz",
        -10.458178067191756
      ],
      [
        "ĠAge",
        -10.458674319829193
      ],
      [
        "Ġfundamento",
        -10.459304281924942
      ],
      [
        "Ġinvestimento",
        -10.45949080555068
      ],
      [
        "ĠQuanto",
        -10.459710958914606
      ],
      [
        "parceria",
        -10.459850362018924
      ],
      [
        "ĠAto",
        -10.46020643382747
      ],
      [
        "Ġdispor",
        -10.460475624038557
      ],
      [
        "ĠNos",
        -10.460671757971175
      ],
      [
        "havend",
        -10.462056913764398
      ],
      [
        "ĠBoa",
        -10.462163108375732
      ],
      [
        "Ġleitura",
        -10.462568778390215
      ],
      [
        "ĠKa",
        -10.46279375164182
      ],
      [
        "ĠQUE",
        -10.462856767733337
      ],
      [
        "elementos",
        -10.463804943571516
      ],
      [
        "Ġurge",
        -10.464568567983765
      ],
      [
        "ĠBR",
        -10.464897160412496
      ],
      [
        "Proposta",
        -10.465247049821285
      ],
      [
        "ĠAltera",
        -10.4657226148234
      ],
      [
        "nicas",
        -10.465892613057507
      ],
      [
        "equipamentos",
        -10.466425874245765
      ],
      [
        "Ġambiental",
        -10.466540537728802
      ],
      [
        "oli",
        -10.466805670010448
      ],
      [
        "Ġhonra",
        -10.4671828868957
      ],
      [
        "ĠAgrav",
        -10.46738590152484
      ],
      [
        "Ġcarga",
        -10.467758797694142
      ],
      [
        "Ġvontade",
        -10.4682014323999
      ],
      [
        "Ġconseguir",
        -10.468657821750334
      ],
      [
        "Ġtrabalhador",
        -10.469095839329414
      ],
      [
        "Ġvale",
        -10.469149295987322
      ],
      [
        "Ġbrita",
        -10.469272953755056
      ],
      [
        "PpP",
        -10.469423637353753
      ],
      [
        "precisamos",
        -10.46950873026938
      ],
      [
        "Ġsuper",
        -10.470291639256676
      ],
      [
        "emendas",
        -10.472505036091954
      ],
      [
        "americano",
        -10.473229168305547
      ],
      [
        "ĠCidade",
        -10.473528651377464
      ],
      [
        "ĠSera",
        -10.474265012430374
      ],
      [
        "Ġdivisa",
        -10.475141643817668
      ],
      [
        "Ġeventos",
        -10.476534837452787
      ],
      [
        "Ġcomercial",
        -10.476775098472698
      ],
      [
        "ĠFederac",
        -10.476955424926109
      ],
      [
        "ĠNeste",
        -10.478462822940314
      ],
      [
        "Ġcorpus",
        -10.47881358118975
      ],
      [
        "Ġcontinua",
        -10.479165368713822
      ],
      [
        "Ġcompanhia",
        -10.479762295669577
      ],
      [
        "IDADE",
        -10.479792299646771
      ],
      [
        "constitucionai",
        -10.48041082341813
      ],
      [
        "contratac",
        -10.480618900784544
      ],
      [
        "ĠEspi",
        -10.480723082621113
      ],
      [
        "ndice",
        -10.480849111332418
      ],
      [
        "Ġmedo",
        -10.481363096168437
      ],
      [
        "tac",
        -10.481729088314856
      ],
      [
        "Ġface",
        -10.482024338265225
      ],
      [
        "Ġpretende",
        -10.482174153765596
      ],
      [
        "Jogos",
        -10.48217711248973
      ],
      [
        "Ġamericano",
        -10.482858418121236
      ],
      [
        "juros",
        -10.483032673749076
      ],
      [
        "agentes",
        -10.48410602529227
      ],
      [
        "ĠParlamento",
        -10.484556642173612
      ],
      [
        "Ġfinanceiro",
        -10.484939681639563
      ],
      [
        "retirada",
        -10.485336847582372
      ],
      [
        "ssem",
        -10.485563690289627
      ],
      [
        "pro",
        -10.485698147972176
      ],
      [
        "Ġmarca",
        -10.486229124923328
      ],
      [
        "Ġconsidera",
        -10.48649657409922
      ],
      [
        "etapa",
        -10.486849674456076
      ],
      [
        "Ġ90",
        -10.487011074740156
      ],
      [
        "Ġregistrado",
        -10.487036147203908
      ],
      [
        "Ġataque",
        -10.487126530248409
      ],
      [
        "onde",
        -10.487635252595728
      ],
      [
        "ĠSan",
        -10.487922264550958
      ],
      [
        "genas",
        -10.488754433305006
      ],
      [
        "Barbosa",
        -10.489323667949684
      ],
      [
        "extensa",
        -10.489778822216682
      ],
      [
        "Ġjurisprude",
        -10.490242512734058
      ],
      [
        "Ġrespectiva",
        -10.490670038509334
      ],
      [
        "Ġcomando",
        -10.491014307991913
      ],
      [
        "Ġdisco",
        -10.491422536171823
      ],
      [
        "Ġdistrito",
        -10.491597403901862
      ],
      [
        "ton",
        -10.491660431185313
      ],
      [
        "ĠNeto",
        -10.491938294228497
      ],
      [
        "ĠAL",
        -10.492779132288709
      ],
      [
        "contexto",
        -10.49353984799149
      ],
      [
        "Ġescolha",
        -10.49360958683525
      ],
      [
        "Ġestac",
        -10.493989829862194
      ],
      [
        "Ġentrevista",
        -10.494195308633604
      ],
      [
        "ganhou",
        -10.494231077634684
      ],
      [
        "ĠAr",
        -10.495602239614374
      ],
      [
        "Magalha",
        -10.495822775467571
      ],
      [
        "Ġinternacionais",
        -10.496207987031353
      ],
      [
        "Ġestilo",
        -10.4962273716909
      ],
      [
        "Ġvinte",
        -10.496284409324874
      ],
      [
        "ĠAC",
        -10.496522716143607
      ],
      [
        "Ġviu",
        -10.497063856528344
      ],
      [
        "Ġ1993",
        -10.498458091899574
      ],
      [
        "Ġtinham",
        -10.498529266978885
      ],
      [
        "Ġcorac",
        -10.498694925319004
      ],
      [
        "ĠAmazonas",
        -10.49909418723912
      ],
      [
        "ĠNada",
        -10.499106598634496
      ],
      [
        "Ġ1994",
        -10.499338725630649
      ],
      [
        "ĠRegional",
        -10.4993593026244
      ],
      [
        "ĠAprecia",
        -10.49974011914405
      ],
      [
        "Ġitem",
        -10.499864312699556
      ],
      [
        "50",
        -10.501161078565149
      ],
      [
        "Ġabsoluta",
        -10.50120806586525
      ],
      [
        "ĠQuer",
        -10.501537980741867
      ],
      [
        "...........",
        -10.502743842736702
      ],
      [
        "ĠMeio",
        -10.503312449502758
      ],
      [
        "Ġvelho",
        -10.503489887233592
      ],
      [
        "Ġindependente",
        -10.503583673973086
      ],
      [
        "Ġpatrimo",
        -10.504297383557498
      ],
      [
        "Ġbanco",
        -10.50547775842674
      ],
      [
        "ĠRO",
        -10.50625761446885
      ],
      [
        "substitutivo",
        -10.506462764039348
      ],
      [
        "Ġsexta",
        -10.506608212677756
      ],
      [
        "Ġfesta",
        -10.507434240693412
      ],
      [
        "2002",
        -10.508580775268427
      ],
      [
        "Ġrodovia",
        -10.508690187000685
      ],
      [
        "http",
        -10.509028981054769
      ],
      [
        "Ġtentativa",
        -10.509120282612288
      ],
      [
        "Ġjogador",
        -10.509302899662002
      ],
      [
        "gravada",
        -10.50942782049563
      ],
      [
        "Ġeleitoral",
        -10.509667756956151
      ],
      [
        "Ġmostrar",
        -10.51008491167479
      ],
      [
        "reconhecimento",
        -10.510845284598377
      ],
      [
        "Ġjuiz",
        -10.511535065018531
      ],
      [
        "Ġampla",
        -10.512695856816244
      ],
      [
        "Ġpetro",
        -10.512732156738812
      ],
      [
        "Ġesposa",
        -10.512767390514208
      ],
      [
        "sobretudo",
        -10.51333134106842
      ],
      [
        "Ġinsta",
        -10.513793634984562
      ],
      [
        "Ġpreso",
        -10.513995090223112
      ],
      [
        "Ġdista",
        -10.513998524040437
      ],
      [
        "Ġ49",
        -10.514121757286262
      ],
      [
        "Ġdefende",
        -10.514749825568442
      ],
      [
        "Ġfogo",
        -10.514975245409047
      ],
      [
        "DE",
        -10.51508402914022
      ],
      [
        "ĠPRIMEIR",
        -10.515823825937789
      ],
      [
        "Ġesteja",
        -10.516496984879089
      ],
      [
        "habea",
        -10.51672932591056
      ],
      [
        "Ġcentral",
        -10.516820831502338
      ],
      [
        "Ġtorno",
        -10.51730088269878
      ],
      [
        "vemos",
        -10.517864600512924
      ],
      [
        "Ġtransfere",
        -10.518250414828218
      ],
      [
        "metade",
        -10.518383171258831
      ],
      [
        "ĠIsto",
        -10.518773033771591
      ],
      [
        "ĠBarros",
        -10.518795482430038
      ],
      [
        "Ġcursos",
        -10.519010831676043
      ],
      [
        "Ġlicenc",
        -10.51917861175096
      ],
      [
        "ĠCarreira",
        -10.519985697904174
      ],
      [
        "Ġdemocra",
        -10.520210669164028
      ],
      [
        "ĠAure",
        -10.520229681063975
      ],
      [
        "Ġfrance",
        -10.520550901245995
      ],
      [
        "finalidade",
        -10.521450514918534
      ],
      [
        "Ġquinta",
        -10.522283011029652
      ],
      [
        "ĠExterior",
        -10.523538968824107
      ],
      [
        "apensado",
        -10.523917319510527
      ],
      [
        "ĠClaro",
        -10.5246085313999
      ],
      [
        "Ġprocura",
        -10.525879101718742
      ],
      [
        "polis",
        -10.526405633412228
      ],
      [
        "Ġopc",
        -10.526475882878788
      ],
      [
        "ĠJOA",
        -10.526878380690356
      ],
      [
        "ki",
        -10.526966235966963
      ],
      [
        "Ġoferta",
        -10.528521959883406
      ],
      [
        "Ġtive",
        -10.528645306447668
      ],
      [
        "daquele",
        -10.528756892097435
      ],
      [
        "Ġrelator",
        -10.530051245552007
      ],
      [
        "ĠRede",
        -10.530543454084851
      ],
      [
        "Ġcontato",
        -10.530975132979814
      ],
      [
        "ĠFerreira",
        -10.531117981326608
      ],
      [
        "Ġexposic",
        -10.531341565946766
      ],
      [
        "Enquanto",
        -10.53158785737966
      ],
      [
        "ner",
        -10.53184655509306
      ],
      [
        "Ġexplorac",
        -10.532000541787392
      ],
      [
        "Ġexterior",
        -10.532073089162571
      ],
      [
        "Ġarma",
        -10.532115284803693
      ],
      [
        "Ġigreja",
        -10.5323098507329
      ],
      [
        "ficos",
        -10.533118858851736
      ],
      [
        "ĠConstitucional",
        -10.533679810289131
      ],
      [
        "Ġlivros",
        -10.53485199524504
      ],
      [
        "Ġconsegui",
        -10.535207734494236
      ],
      [
        "Ġquiser",
        -10.535689060556198
      ],
      [
        "Ġsustenta",
        -10.536199084913514
      ],
      [
        "Ġantiga",
        -10.536439384129713
      ],
      [
        "tua",
        -10.537117556314287
      ],
      [
        "Ġdistribui",
        -10.538064166398827
      ],
      [
        "Ġassinatura",
        -10.538467495013718
      ],
      [
        "Ġatingi",
        -10.538681934618074
      ],
      [
        "ĠCPI",
        -10.539302333849596
      ],
      [
        "ĠGe",
        -10.539771147106263
      ],
      [
        "Ġespera",
        -10.540350096478049
      ],
      [
        "RE",
        -10.54220651958594
      ],
      [
        "ĠFolha",
        -10.542373076863788
      ],
      [
        "Ġshow",
        -10.54279212107347
      ],
      [
        "ĠParai",
        -10.542814492824723
      ],
      [
        "requer",
        -10.543025496120343
      ],
      [
        "funcionamento",
        -10.543133741988935
      ],
      [
        "ĠCruz",
        -10.544322992006837
      ],
      [
        "Outra",
        -10.544354689358896
      ],
      [
        "Ġmetros",
        -10.544960008005123
      ],
      [
        "ĠMello",
        -10.54524008541145
      ],
      [
        "ssia",
        -10.5457261189354
      ],
      [
        "Ġvencedor",
        -10.546339319870189
      ],
      [
        "Ġterceira",
        -10.546426459953516
      ],
      [
        "Embora",
        -10.54701890344442
      ],
      [
        "Ġ(...)",
        -10.548041493535898
      ],
      [
        "presidente",
        -10.548446464220444
      ],
      [
        "Ġhumana",
        -10.549687031668594
      ],
      [
        "ĠVila",
        -10.54973497585355
      ],
      [
        "Ġmorreu",
        -10.550311387733622
      ],
      [
        "Ġinteiro",
        -10.550350472679536
      ],
      [
        "ĠExe",
        -10.550534852495831
      ],
      [
        "Ġseguro",
        -10.550697478140284
      ],
      [
        "ĠEx",
        -10.55104051536454
      ],
      [
        "Ġpersonagem",
        -10.552152605559131
      ],
      [
        "Ġsabia",
        -10.55215332617194
      ],
      [
        "isso",
        -10.552261724843516
      ],
      [
        "geralmente",
        -10.55231713332224
      ],
      [
        "Ġjornalista",
        -10.552413109306972
      ],
      [
        "Ð",
        -10.552556787337071
      ],
      [
        "Ġanti",
        -10.553167328883386
      ],
      [
        "policiais",
        -10.553214919105816
      ],
      [
        "Ġregistrar",
        -10.553243694262422
      ],
      [
        "Ġcultural",
        -10.553670319345985
      ],
      [
        "xi",
        -10.553697016517384
      ],
      [
        "ĠJo",
        -10.553988944295106
      ],
      [
        "ESTADO",
        -10.554023571560696
      ],
      [
        "ĠBi",
        -10.555560947273174
      ],
      [
        "frica",
        -10.555660070630877
      ],
      [
        "Ġpermanente",
        -10.555883982893649
      ],
      [
        "ĠEdita",
        -10.556169314613502
      ],
      [
        "trinta",
        -10.55656879020258
      ],
      [
        "tion",
        -10.556698448153984
      ],
      [
        "Ġpermanece",
        -10.55694603332378
      ],
      [
        "Ġbeneficia",
        -10.5574896771946
      ],
      [
        "ĠEspanha",
        -10.557667552184071
      ],
      [
        "zes",
        -10.558387957210266
      ],
      [
        "metro",
        -10.55858520578679
      ],
      [
        "Ġadvogado",
        -10.560583066743208
      ],
      [
        "cargos",
        -10.560836297635223
      ],
      [
        "Ġprodutor",
        -10.561600012531612
      ],
      [
        "ĠAntes",
        -10.561754589788857
      ],
      [
        "ĠOli",
        -10.561852318098785
      ],
      [
        "Ġganhar",
        -10.562056065735892
      ],
      [
        "ĠClube",
        -10.563047265564366
      ],
      [
        "nha",
        -10.564176236091804
      ],
      [
        "Assunto",
        -10.565179661450806
      ],
      [
        "Ġrua",
        -10.565569217058714
      ],
      [
        "Ġadolescente",
        -10.565599613272738
      ],
      [
        "Ġobrigato",
        -10.56584849742842
      ],
      [
        "Ġpressa",
        -10.565925488481328
      ],
      [
        "Ġcampea",
        -10.565966030783349
      ],
      [
        "Sarney",
        -10.566216235309184
      ],
      [
        "micas",
        -10.566796717712252
      ],
      [
        "Ġfigura",
        -10.56744512688028
      ],
      [
        "fizeram",
        -10.568008398275614
      ],
      [
        "90",
        -10.568253552868743
      ],
      [
        "Bibliografia",
        -10.568872706167587
      ],
      [
        "Ġaberto",
        -10.569609342720613
      ],
      [
        "Ġtroca",
        -10.569654359898374
      ],
      [
        "Ġacontecer",
        -10.570703149595564
      ],
      [
        "Ġalega",
        -10.57103442772746
      ],
      [
        "Pernambuco",
        -10.571260837873112
      ],
      [
        "Ġacabar",
        -10.57133745137887
      ],
      [
        "ry",
        -10.571442408283128
      ],
      [
        "Ġconceito",
        -10.571628057625436
      ],
      [
        "estudantes",
        -10.5725970169266
      ],
      [
        "ĠRequer",
        -10.573491923302758
      ],
      [
        "Ġprofessores",
        -10.573518422425945
      ],
      [
        "Vieira",
        -10.57360857964466
      ],
      [
        "ismo",
        -10.574176043100648
      ],
      [
        "Ġpais",
        -10.574481175658812
      ],
      [
        "Ġenorme",
        -10.57578962345133
      ],
      [
        "ĠAgricultura",
        -10.576310873873958
      ],
      [
        "ĠMartins",
        -10.57643492593404
      ],
      [
        "Ġconsumidor",
        -10.577977994747908
      ],
      [
        "Ġzona",
        -10.578630172321793
      ],
      [
        "Ġleis",
        -10.579256870294277
      ],
      [
        "terminou",
        -10.57961168911244
      ],
      [
        "Sessa",
        -10.579833337409283
      ],
      [
        "Ġqu",
        -10.580580337575844
      ],
      [
        "ricos",
        -10.581140596659049
      ],
      [
        "Ġ1913",
        -10.581986597518185
      ],
      [
        "Ġproduzir",
        -10.582120884022489
      ],
      [
        "Ġquerem",
        -10.58241254435868
      ],
      [
        "ĠPiaui",
        -10.582777707727857
      ],
      [
        "Ġgosto",
        -10.582983818115974
      ],
      [
        "Ġinflue",
        -10.5830389870415
      ],
      [
        "dicas",
        -10.58331007486729
      ],
      [
        "Ġ1992",
        -10.584976938342578
      ],
      [
        "Estatuto",
        -10.585124427700965
      ],
      [
        "Ġaumentar",
        -10.5851914852888
      ],
      [
        "Ġjeito",
        -10.585255390778276
      ],
      [
        "ĠMelhor",
        -10.58566006310648
      ],
      [
        "Ġinterpretac",
        -10.585680652234853
      ],
      [
        "uplente",
        -10.585765549039468
      ],
      [
        "MARA",
        -10.58593304670364
      ],
      [
        "99",
        -10.586188204716931
      ],
      [
        "Ġviolac",
        -10.58657602993448
      ],
      [
        "ber",
        -10.586605066410076
      ],
      [
        "Ġinforma",
        -10.58663046959904
      ],
      [
        "nanimidade",
        -10.586866190810834
      ],
      [
        "desempenho",
        -10.587008979378218
      ],
      [
        "ĠYork",
        -10.587079579550776
      ],
      [
        "PLS",
        -10.587220608560852
      ],
      [
        "ĠMARCO",
        -10.587290493301673
      ],
      [
        "ĠParte",
        -10.587518982909048
      ],
      [
        "ĠProfessor",
        -10.588135126433476
      ],
      [
        "ĠReuni",
        -10.588336761454531
      ],
      [
        "rei",
        -10.588947853166973
      ],
      [
        "ĠRoma",
        -10.591190595102306
      ],
      [
        "Ġinferior",
        -10.591232983571976
      ],
      [
        "Ġmensagem",
        -10.591646495921992
      ],
      [
        "Ġanteriores",
        -10.591791575625006
      ],
      [
        "2001",
        -10.592317861106268
      ],
      [
        "Ġ45",
        -10.592944172759676
      ],
      [
        "ĠMachado",
        -10.593544133882048
      ],
      [
        "Ġconte",
        -10.593746454530349
      ],
      [
        "ĠNew",
        -10.593989606430824
      ],
      [
        "cola",
        -10.594827693812228
      ],
      [
        "consumo",
        -10.595434943446437
      ],
      [
        "companheiro",
        -10.59551114141581
      ],
      [
        "Ġrepresentac",
        -10.595647894610156
      ],
      [
        "Ġvolume",
        -10.596228619641057
      ],
      [
        "crimes",
        -10.59631309295385
      ],
      [
        "aposentadoria",
        -10.596551234246224
      ],
      [
        "ĠJapa",
        -10.597283836578066
      ],
      [
        "bairro",
        -10.598257437614746
      ],
      [
        "Ġdanc",
        -10.598546784301403
      ],
      [
        "ĠCultural",
        -10.5986333866643
      ],
      [
        "produtores",
        -10.59901852349314
      ],
      [
        "fontes",
        -10.599027215333296
      ],
      [
        "Ġposse",
        -10.599276842194069
      ],
      [
        "xico",
        -10.599359821934216
      ],
      [
        "Ġutilizado",
        -10.59946822029446
      ],
      [
        "âĢĵâĢĵâĢĵâĢĵâĢĵ",
        -10.599784161781578
      ],
      [
        "Ġpaz",
        -10.599849190893831
      ],
      [
        "Ġtivesse",
        -10.600751363485038
      ],
      [
        "ĠTre",
        -10.601241806000491
      ],
      [
        "tro",
        -10.60144206620176
      ],
      [
        "Ġsolicita",
        -10.601783686315503
      ],
      [
        "Ġcinema",
        -10.603291672786897
      ],
      [
        "Ġpassando",
        -10.604042071606717
      ],
      [
        "Ġage",
        -10.604402284105792
      ],
      [
        "ĠMichel",
        -10.604508552212414
      ],
      [
        "Ġpergunta",
        -10.60457937416705
      ],
      [
        "nasceu",
        -10.605036494255392
      ],
      [
        "ly",
        -10.60517286086704
      ],
      [
        "timas",
        -10.605673424513505
      ],
      [
        "Ġaltura",
        -10.606132415544346
      ],
      [
        "ĠParece",
        -10.60657417412536
      ],
      [
        "Ġconquista",
        -10.60702568711718
      ],
      [
        "Candido",
        -10.607496975465972
      ],
      [
        "Ġres",
        -10.60765831587704
      ],
      [
        "Rodrigo",
        -10.608004163084605
      ],
      [
        "Ġchama",
        -10.60859821260396
      ],
      [
        "gicos",
        -10.609197277654568
      ],
      [
        "Ġerro",
        -10.60975391610594
      ],
      [
        "Ġcima",
        -10.61046059698511
      ],
      [
        "Ġ200",
        -10.610511982973858
      ],
      [
        "Ġsecreta",
        -10.610899094803717
      ],
      [
        "Ġsenador",
        -10.610965282129891
      ],
      [
        "nossos",
        -10.612202999793125
      ],
      [
        "Ġilha",
        -10.612577038280856
      ],
      [
        "Ġbatalha",
        -10.612638191117387
      ],
      [
        "ĠCla",
        -10.613128242544215
      ],
      [
        "Ġolhos",
        -10.613236708191817
      ],
      [
        "ĠMarc",
        -10.613489265196748
      ],
      [
        "Ġpensar",
        -10.614728531972254
      ],
      [
        "aspectos",
        -10.615636363153357
      ],
      [
        "Ġcomenta",
        -10.615824984654251
      ],
      [
        "aproximadamente",
        -10.615904228068016
      ],
      [
        "Ġgene",
        -10.616494155674594
      ],
      [
        "Ġtamanho",
        -10.616945092300226
      ],
      [
        "Ġofens",
        -10.617375902373032
      ],
      [
        "Ġparticipou",
        -10.617675545140676
      ],
      [
        "Ġcaixa",
        -10.618052243619784
      ],
      [
        "Ġvaria",
        -10.618568382115829
      ],
      [
        "ense",
        -10.618890334383526
      ],
      [
        "Ġcompleta",
        -10.619745533427093
      ],
      [
        "Ġselec",
        -10.6202686884249
      ],
      [
        "Ġaquilo",
        -10.62075848572402
      ],
      [
        "conduta",
        -10.620840193649812
      ],
      [
        "Ġmorrer",
        -10.620983981022814
      ],
      [
        "Ġrepercuss",
        -10.621099466237814
      ],
      [
        "21",
        -10.622325773436872
      ],
      [
        "iretrizes",
        -10.623036169071412
      ],
      [
        "Ġfamiliar",
        -10.62395346937698
      ],
      [
        "Ġincide",
        -10.624192014608491
      ],
      [
        "Ġocorrer",
        -10.624465940999782
      ],
      [
        "Ġefetiva",
        -10.624798991601295
      ],
      [
        "Ġcria",
        -10.625227808557174
      ],
      [
        "Ġmemo",
        -10.625380577356744
      ],
      [
        "Ġplaneta",
        -10.625491342208116
      ],
      [
        "recebimento",
        -10.62555331004171
      ],
      [
        "Ġbreve",
        -10.626090626524602
      ],
      [
        "Ġatribui",
        -10.626252369358676
      ],
      [
        "Ġclima",
        -10.626543221337355
      ],
      [
        "Ġperder",
        -10.626833717690785
      ],
      [
        "velmente",
        -10.626833747410222
      ],
      [
        "Eduardo",
        -10.627452522105276
      ],
      [
        "Ġintegral",
        -10.628391060556185
      ],
      [
        "ĠVida",
        -10.628456670860515
      ],
      [
        "Ġpensa",
        -10.62894159789522
      ],
      [
        "Ġmilha",
        -10.6294299483093
      ],
      [
        "ĠAmbiente",
        -10.629643057455908
      ],
      [
        "Excelenti",
        -10.62981824970139
      ],
      [
        "Acordo",
        -10.629982555530685
      ],
      [
        "Ġespi",
        -10.63002523865486
      ],
      [
        "Ġinicia",
        -10.63025747062785
      ],
      [
        "ĠJoaquim",
        -10.6302903276389
      ],
      [
        "usando",
        -10.631167390761911
      ],
      [
        "aquisic",
        -10.632011781422433
      ],
      [
        "Ġinter",
        -10.632922902200496
      ],
      [
        "Ġreferente",
        -10.633550874117574
      ],
      [
        "gra",
        -10.633940388958596
      ],
      [
        "Ġ01",
        -10.634015470099198
      ],
      [
        "true",
        -10.634359683051152
      ],
      [
        "ĠJU",
        -10.634911368248943
      ],
      [
        "queremos",
        -10.63585258016898
      ],
      [
        "tor",
        -10.635865729840354
      ],
      [
        "Ġinu",
        -10.636051615048189
      ],
      [
        "negociac",
        -10.637487277245734
      ],
      [
        "apelo",
        -10.637707859281138
      ],
      [
        "lico",
        -10.6377427902563
      ],
      [
        "teoria",
        -10.637894052458876
      ],
      [
        "ĠMiguel",
        -10.63797018668335
      ],
      [
        "Ġinternet",
        -10.639199218480115
      ],
      [
        "Ġbe",
        -10.639517013389533
      ],
      [
        "mantid",
        -10.639901306239192
      ],
      [
        "ĠMauro",
        -10.640555813959953
      ],
      [
        "Ġofi",
        -10.641312486114424
      ],
      [
        "Ġprima",
        -10.641640568141357
      ],
      [
        "Ġpaga",
        -10.641674461767936
      ],
      [
        "Ġestiver",
        -10.641906277732238
      ],
      [
        "implantac",
        -10.642512351449549
      ],
      [
        "Ġ48",
        -10.6426674464749
      ],
      [
        "naquele",
        -10.64274924973751
      ],
      [
        "Ġganha",
        -10.643590104183096
      ],
      [
        "vamos",
        -10.644078258768912
      ],
      [
        "Mesmo",
        -10.644148017891796
      ],
      [
        "Ġvigorar",
        -10.644258273443787
      ],
      [
        "ĠContas",
        -10.645791523494962
      ],
      [
        "40",
        -10.645804260061292
      ],
      [
        "Ġassumi",
        -10.64755558456217
      ],
      [
        "GL",
        -10.648882285401198
      ],
      [
        "Ġcircunsta",
        -10.649136111085904
      ],
      [
        "autoridades",
        -10.649636101788326
      ],
      [
        "existem",
        -10.649652300915722
      ],
      [
        "esta",
        -10.64973045194977
      ],
      [
        "Ġprivada",
        -10.650743094300156
      ],
      [
        "Couto",
        -10.650915854907383
      ],
      [
        "Ġclara",
        -10.651196024528232
      ],
      [
        "Ġtrazer",
        -10.651239020583292
      ],
      [
        "ocasia",
        -10.651403312446233
      ],
      [
        "Ġsentenc",
        -10.65187857223359
      ],
      [
        "Ġcomposic",
        -10.651937837381812
      ],
      [
        "Nunca",
        -10.652761265794645
      ],
      [
        "Ġindivi",
        -10.653042662100722
      ],
      [
        "Ġdireto",
        -10.653096891406674
      ],
      [
        "ĠNota",
        -10.65316157134394
      ],
      [
        "Chefe",
        -10.653187199445588
      ],
      [
        "suspensa",
        -10.653831052470128
      ],
      [
        "ĠFaria",
        -10.654398072191372
      ],
      [
        "Ġsolo",
        -10.655121943193658
      ],
      [
        "convidado",
        -10.655374029345932
      ],
      [
        "ĠPROC",
        -10.655376521262967
      ],
      [
        "Ġabrir",
        -10.656722450664716
      ],
      [
        "casamento",
        -10.657152291052444
      ],
      [
        "CIA",
        -10.657217796132516
      ],
      [
        "ser",
        -10.657531583997931
      ],
      [
        "Ġamplia",
        -10.657930487742828
      ],
      [
        "acrescenta",
        -10.658677022332148
      ],
      [
        "Ġminuto",
        -10.658832903116606
      ],
      [
        "bil",
        -10.659134925276112
      ],
      [
        "dificuldades",
        -10.659204151836809
      ],
      [
        "Ġgovernador",
        -10.65956208622528
      ],
      [
        "ĠPresident",
        -10.660091035962088
      ],
      [
        "Ġportuguesa",
        -10.66128010706953
      ],
      [
        "Afonso",
        -10.66182689110862
      ],
      [
        "produzido",
        -10.662047201945123
      ],
      [
        "ncipe",
        -10.662635169256925
      ],
      [
        "Ġ38",
        -10.663531520733146
      ],
      [
        "Ġintenc",
        -10.664116692673264
      ],
      [
        "%)",
        -10.664329754370256
      ],
      [
        "les",
        -10.664663819064828
      ],
      [
        "ĠEl",
        -10.665567955517565
      ],
      [
        "ley",
        -10.66679540083665
      ],
      [
        "dispositivos",
        -10.666989915672934
      ],
      [
        "Ġouro",
        -10.667390750111874
      ],
      [
        "Ġgaroto",
        -10.667558786780976
      ],
      [
        "Ġgrac",
        -10.667993097013795
      ],
      [
        "ĠChico",
        -10.668743036013934
      ],
      [
        "Ġmusical",
        -10.669081113042358
      ],
      [
        "ĠImpe",
        -10.669334488470495
      ],
      [
        "mer",
        -10.669949704092051
      ],
      [
        "Ġprestar",
        -10.670151038083684
      ],
      [
        "Ġnove",
        -10.672024904238596
      ],
      [
        "ĠNi",
        -10.67204180318222
      ],
      [
        "ĠEspere",
        -10.673423643500508
      ],
      [
        "Ġtraz",
        -10.673610716943552
      ],
      [
        "ĠSec",
        -10.673834428959854
      ],
      [
        "Ġvive",
        -10.67405152376621
      ],
      [
        "Ġfilmes",
        -10.67438439579293
      ],
      [
        "ĠPaim",
        -10.674401519365038
      ],
      [
        "cnicos",
        -10.674462290833826
      ],
      [
        "Ġrel",
        -10.674583519233805
      ],
      [
        "Ġdefinic",
        -10.674667329428306
      ],
      [
        "Ġlonga",
        -10.674735670852408
      ],
      [
        "ĠPessoal",
        -10.675486861593845
      ],
      [
        "conclusa",
        -10.676082389622476
      ],
      [
        "Ġdocumentac",
        -10.676094551810142
      ],
      [
        "Ġbrasileiras",
        -10.676333785388584
      ],
      [
        "98",
        -10.676859562052876
      ],
      [
        "Ġmunicipal",
        -10.676869289279114
      ],
      [
        "Ġpegar",
        -10.677246854790674
      ],
      [
        "voltou",
        -10.677581318792926
      ],
      [
        "referida",
        -10.67767980106228
      ],
      [
        "inicialmente",
        -10.67773209118361
      ],
      [
        "duos",
        -10.677947454076577
      ],
      [
        "Ġprefeito",
        -10.678199484497206
      ],
      [
        "Ġincluir",
        -10.679091667966782
      ],
      [
        "tar",
        -10.679530536792395
      ],
      [
        "ĠCar",
        -10.680294110102826
      ],
      [
        "ita",
        -10.680701070600511
      ],
      [
        "Ġporte",
        -10.681839877457824
      ],
      [
        "lideranc",
        -10.681908024558531
      ],
      [
        "Ġutilizada",
        -10.682408726646845
      ],
      [
        "DIAS",
        -10.683413345632417
      ],
      [
        "limites",
        -10.68363215014477
      ],
      [
        "rum",
        -10.683916186214182
      ],
      [
        "ħ",
        -10.684256079897986
      ],
      [
        "Ġchance",
        -10.68461220788017
      ],
      [
        "Ġatende",
        -10.685010494990408
      ],
      [
        "Ġeliminac",
        -10.685456197175908
      ],
      [
        "Ġchamar",
        -10.6856795621469
      ],
      [
        "Ġobservado",
        -10.686116003273945
      ],
      [
        "Ġpreve",
        -10.686193679667374
      ],
      [
        "encaminhamento",
        -10.686244341675714
      ],
      [
        "ĠMuseu",
        -10.686672604078
      ],
      [
        "oficiais",
        -10.686851620247964
      ],
      [
        "ĠJUSTIC",
        -10.68705032610913
      ],
      [
        "Ġseparado",
        -10.687062256382609
      ],
      [
        "inscric",
        -10.687491015814151
      ],
      [
        "ĠFac",
        -10.688208825999505
      ],
      [
        "Desculpe",
        -10.68932559267092
      ],
      [
        "Ġvoz",
        -10.689867368080709
      ],
      [
        "ĠCastro",
        -10.690143394657746
      ],
      [
        "tiva",
        -10.69042549931882
      ],
      [
        "Ġdiploma",
        -10.690479165832588
      ],
      [
        "Ġnomeado",
        -10.691022659853116
      ],
      [
        "Ġparticular",
        -10.691847398310063
      ],
      [
        "ili",
        -10.692139845499362
      ],
      [
        "Ġescreveu",
        -10.692974376329474
      ],
      [
        "tentando",
        -10.693447282076928
      ],
      [
        "Ġtrouxe",
        -10.693602420916388
      ],
      [
        "embargo",
        -10.693675299447856
      ],
      [
        "Ġprecisam",
        -10.693862880608853
      ],
      [
        "Ġ55",
        -10.694089735174522
      ],
      [
        "Ġservidor",
        -10.69419152952613
      ],
      [
        "Ġconseque",
        -10.69453012356112
      ],
      [
        "Ġviagem",
        -10.69470227580652
      ],
      [
        "ĠROBERT",
        -10.69684311869111
      ],
      [
        "Ġaceita",
        -10.697019496928178
      ],
      [
        "Ġpotencial",
        -10.697438742194484
      ],
      [
        "ĠInformac",
        -10.697574620029116
      ],
      [
        "Ġlonge",
        -10.697884398914066
      ],
      [
        "Ġaberta",
        -10.698181354129687
      ],
      [
        "ĠVerde",
        -10.69853669351222
      ],
      [
        "NTE",
        -10.699208250483975
      ],
      [
        "velocidade",
        -10.699441210389656
      ],
      [
        "Ġexe",
        -10.69962617432317
      ],
      [
        "fronteira",
        -10.69970520488549
      ],
      [
        "GTE",
        -10.69978402059264
      ],
      [
        "Ġdeterminado",
        -10.70059463125339
      ],
      [
        "Ġtotalmente",
        -10.70063289981061
      ],
      [
        "Ġinterno",
        -10.700647489957314
      ],
      [
        "Ġguarda",
        -10.701352843819745
      ],
      [
        "Ġsimplesmente",
        -10.701464925782018
      ],
      [
        "ĠCaso",
        -10.70220621287442
      ],
      [
        "Ġtirar",
        -10.70237508918736
      ],
      [
        "tomada",
        -10.70256894426171
      ],
      [
        "ĠGlobo",
        -10.702666549619549
      ],
      [
        "Ġesteve",
        -10.702765477079794
      ],
      [
        "ĠNu",
        -10.703458180814168
      ],
      [
        "Ġmelhorar",
        -10.7035205890839
      ],
      [
        "Ġpadra",
        -10.7038805762408
      ],
      [
        "ĠVirgi",
        -10.704282875423306
      ],
      [
        "Ġreside",
        -10.704318268296309
      ],
      [
        "RELATOR",
        -10.704621976480675
      ],
      [
        "juntamente",
        -10.70463361107727
      ],
      [
        "constitucional",
        -10.704730190801998
      ],
      [
        "posteriormente",
        -10.706054629101766
      ],
      [
        "Ġ1980",
        -10.706270289862568
      ],
      [
        "Ġcumprir",
        -10.706363595549568
      ],
      [
        "\"),",
        -10.70639236713229
      ],
      [
        "Ġdelas",
        -10.706619560332404
      ],
      [
        "Ġgosta",
        -10.706632372164496
      ],
      [
        "trecho",
        -10.706639081529202
      ],
      [
        "Deputado",
        -10.706976038562583
      ],
      [
        "tramitac",
        -10.707246360261006
      ],
      [
        "tivo",
        -10.707423203239236
      ],
      [
        "entrou",
        -10.707727836877812
      ],
      [
        "ĠCapita",
        -10.708039327398057
      ],
      [
        "Ġrevela",
        -10.708911583442177
      ],
      [
        "..........",
        -10.709489664571132
      ],
      [
        "previstos",
        -10.709758215573196
      ],
      [
        "Ġpromoc",
        -10.71081166212153
      ],
      [
        "nios",
        -10.71115909873819
      ],
      [
        "REGIMENTA",
        -10.7115802572458
      ],
      [
        "ĠUnido",
        -10.712318808840765
      ],
      [
        "Geografia",
        -10.71274949272946
      ],
      [
        "Ġresolver",
        -10.712797705639366
      ],
      [
        "Ġplanos",
        -10.71387187716076
      ],
      [
        "tornando",
        -10.71505511829286
      ],
      [
        "Ġtiver",
        -10.716360563752318
      ],
      [
        "Ġnomes",
        -10.717147058449804
      ],
      [
        "cho",
        -10.717161359080968
      ],
      [
        "ĠJunior",
        -10.717288510820731
      ],
      [
        "Ġexercer",
        -10.717689782789046
      ],
      [
        "Ġcorrente",
        -10.717836756081216
      ],
      [
        "Ġveja",
        -10.718704869123489
      ],
      [
        "tal",
        -10.718920775834182
      ],
      [
        "Ġagricultura",
        -10.72006367768268
      ],
      [
        "Ġobserva",
        -10.720071432517445
      ],
      [
        "Ġaniversa",
        -10.720236506054787
      ],
      [
        "Ġclassificac",
        -10.7206833142537
      ],
      [
        "ĠVII",
        -10.72118338660572
      ],
      [
        "Ġlido",
        -10.721545544518884
      ],
      [
        "STF",
        -10.721669965820103
      ],
      [
        "Atualmente",
        -10.722519943880895
      ],
      [
        "ĠTu",
        -10.723395284503727
      ],
      [
        "ORDINA",
        -10.723691348866412
      ],
      [
        "Ġminhas",
        -10.723881518203475
      ],
      [
        "ĠArgentina",
        -10.723893920987884
      ],
      [
        "desafio",
        -10.72452271695852
      ],
      [
        "Ġdetermina",
        -10.72454658583246
      ],
      [
        "Ġempre",
        -10.725336972384993
      ],
      [
        "adequac",
        -10.725441116974968
      ],
      [
        "ĠSEC",
        -10.726082410103263
      ],
      [
        "Ġreserva",
        -10.726550743224609
      ],
      [
        "Ġverdadeira",
        -10.726909354361498
      ],
      [
        "guas",
        -10.727226681882586
      ],
      [
        "Ġmorto",
        -10.727345221406498
      ],
      [
        "Ġconflito",
        -10.727617208912656
      ],
      [
        "Ġdomingo",
        -10.72769462429976
      ],
      [
        "vejo",
        -10.727895316919833
      ],
      [
        "ĠNovo",
        -10.728071231611407
      ],
      [
        "Ġrecente",
        -10.72897926311582
      ],
      [
        "Ġanual",
        -10.729243649169888
      ],
      [
        "cnicas",
        -10.729421768267718
      ],
      [
        "ĠBorges",
        -10.729728342266991
      ],
      [
        "ĠSU",
        -10.729948591898312
      ],
      [
        "Ġ52",
        -10.730124286834457
      ],
      [
        "mulo",
        -10.730170685330997
      ],
      [
        "fls",
        -10.73106616768616
      ],
      [
        "Ġconhece",
        -10.731284309045774
      ],
      [
        "Ġ1989",
        -10.73149570699758
      ],
      [
        "lho",
        -10.732705925276282
      ],
      [
        "perante",
        -10.733129582659348
      ],
      [
        "Ġconstruir",
        -10.73354102693745
      ],
      [
        "Ġbanca",
        -10.73359264757181
      ],
      [
        "ĠExiste",
        -10.73373533776155
      ],
      [
        "agente",
        -10.733783695681886
      ],
      [
        "Ġagri",
        -10.734021491135609
      ],
      [
        "ĠPri",
        -10.73417369103478
      ],
      [
        "Ġ43",
        -10.73472325215658
      ],
      [
        "Faculdade",
        -10.73475962193695
      ],
      [
        "Ġacredito",
        -10.73497442139734
      ],
      [
        "Ġfreque",
        -10.735054080493734
      ],
      [
        "Cavalcanti",
        -10.735061325092808
      ],
      [
        "Ġcoberto",
        -10.735558722958732
      ],
      [
        "Ġdeixe",
        -10.7356032191655
      ],
      [
        "Ġcanal",
        -10.735614402567574
      ],
      [
        "emissora",
        -10.735886756201287
      ],
      [
        "Ġjuntos",
        -10.73648076279498
      ],
      [
        "ĠGilmar",
        -10.73664767033272
      ],
      [
        "con",
        -10.737848091901718
      ],
      [
        "mudou",
        -10.738038751448707
      ],
      [
        "Ġdefender",
        -10.738387374874277
      ],
      [
        "Alguns",
        -10.738395815293458
      ],
      [
        "ĠIndu",
        -10.739011503335137
      ],
      [
        "ĠCha",
        -10.739099776878811
      ],
      [
        "gravante",
        -10.739905982827889
      ],
      [
        "Calheiros",
        -10.740685399182816
      ],
      [
        "ĠSuper",
        -10.740823838395832
      ],
      [
        "Ġrealiza",
        -10.740847478154622
      ],
      [
        "ĠCarta",
        -10.740895516466232
      ],
      [
        "Ġadministrativo",
        -10.74112508612833
      ],
      [
        "Ġpolicial",
        -10.74142046856127
      ],
      [
        "Ġexclusivament",
        -10.741584768287032
      ],
      [
        "materiais",
        -10.742175857093908
      ],
      [
        "Ġedifi",
        -10.742176618761253
      ],
      [
        "ĠDavid",
        -10.742647705112851
      ],
      [
        "Ġteor",
        -10.742992844420735
      ],
      [
        "senhores",
        -10.743546604747989
      ],
      [
        "estaduais",
        -10.744023530242051
      ],
      [
        "verdadeiro",
        -10.744280939603316
      ],
      [
        "ĠMan",
        -10.744803501128478
      ],
      [
        "ĠPar",
        -10.744875209852577
      ],
      [
        "nima",
        -10.745067848063108
      ],
      [
        "Direitos",
        -10.745385239773732
      ],
      [
        "Ġrenova",
        -10.74578599441662
      ],
      [
        "Ġcompetente",
        -10.745795957008092
      ],
      [
        "22",
        -10.745811273049393
      ],
      [
        "TVR",
        -10.74582028234383
      ],
      [
        "Ġdivulgac",
        -10.746071666322054
      ],
      [
        "recuperac",
        -10.746984176660035
      ],
      [
        "drogas",
        -10.747397871854378
      ],
      [
        "Ġreforc",
        -10.747787472238937
      ],
      [
        "ck",
        -10.747841840262604
      ],
      [
        "setores",
        -10.749751091694293
      ],
      [
        "Ġintegrar",
        -10.7501176245468
      ],
      [
        "Ġmassa",
        -10.750157510937164
      ],
      [
        "Ġcriou",
        -10.750462275702588
      ],
      [
        "Ġerrado",
        -10.750628094479968
      ],
      [
        "ex",
        -10.751271153860689
      ],
      [
        "feminino",
        -10.751288783152274
      ],
      [
        "Recurso",
        -10.75133465555236
      ],
      [
        "Ġmeta",
        -10.751428814029287
      ],
      [
        "Ġ2021",
        -10.752034008848826
      ],
      [
        "Localida",
        -10.75225196810254
      ],
      [
        "ĠPessoa",
        -10.752331254619913
      ],
      [
        "Ġindo",
        -10.752529994441735
      ],
      [
        "estrangeiro",
        -10.752606634184394
      ],
      [
        "Ġ62",
        -10.753074444279587
      ],
      [
        "Ġcompleto",
        -10.753531190969642
      ],
      [
        "Ġlembrar",
        -10.753619604255716
      ],
      [
        "fatos",
        -10.75365324208156
      ],
      [
        "Energia",
        -10.754135556399302
      ],
      [
        "ĠOrganizac",
        -10.754360279422698
      ],
      [
        "Ġ39",
        -10.754484500447196
      ],
      [
        "Sujeita",
        -10.754603808262893
      ],
      [
        "Ġresto",
        -10.7547397846407
      ],
      [
        "ĠPaes",
        -10.75524217688007
      ],
      [
        "Ġcomportamento",
        -10.755247877972002
      ],
      [
        "ĠRei",
        -10.755301983808152
      ],
      [
        "Ġ64",
        -10.756356272132852
      ],
      [
        "sicos",
        -10.757351670803123
      ],
      [
        "Ġpodia",
        -10.757536763396692
      ],
      [
        "23",
        -10.758606519222283
      ],
      [
        "Ġescolar",
        -10.759165118688218
      ],
      [
        "ĠGra",
        -10.75999624350851
      ],
      [
        "mas",
        -10.760945000631136
      ],
      [
        "ĠInglaterra",
        -10.761342908050375
      ],
      [
        "Ġdestino",
        -10.761416378870686
      ],
      [
        "Ġdis",
        -10.761455910867388
      ],
      [
        "Ġarts",
        -10.76231018516206
      ],
      [
        "Ġescrita",
        -10.763148157470352
      ],
      [
        "Ġconhecer",
        -10.763921370353938
      ],
      [
        "Ġcolocado",
        -10.764715690678894
      ],
      [
        "Ġcafe",
        -10.764732259741963
      ],
      [
        "lado",
        -10.765120374299382
      ],
      [
        "IS",
        -10.765444726952431
      ],
      [
        "Ġcha",
        -10.765519590114051
      ],
      [
        "Ġaplicada",
        -10.765742475356218
      ],
      [
        "Ġatras",
        -10.766551302850225
      ],
      [
        "Ġ34",
        -10.766737269131402
      ],
      [
        "BLICA",
        -10.766777585084954
      ],
      [
        "Arnaldo",
        -10.767077965896378
      ],
      [
        "Ġjogar",
        -10.767121713172996
      ],
      [
        "Ġaparte",
        -10.76745822374701
      ],
      [
        "fl",
        -10.768216108521916
      ],
      [
        "tura",
        -10.76876222239991
      ],
      [
        "Ġadoc",
        -10.769051870810191
      ],
      [
        "ĠPaulista",
        -10.770541168575429
      ],
      [
        "Ġbasead",
        -10.770574475496504
      ],
      [
        "entes",
        -10.771132752571262
      ],
      [
        "Ġreconhece",
        -10.771186075217226
      ],
      [
        "Ġbebe",
        -10.77119493778068
      ],
      [
        "sujeito",
        -10.77123195969773
      ],
      [
        "lculo",
        -10.771755978849988
      ],
      [
        "Ġ36",
        -10.771813250304714
      ],
      [
        "Ġ02",
        -10.771835248098244
      ],
      [
        "Ġcadeira",
        -10.772339369171515
      ],
      [
        "Ġparlamentar",
        -10.77311844683312
      ],
      [
        "ĠGeorge",
        -10.773486996269073
      ],
      [
        "ĠLondres",
        -10.773857625185036
      ],
      [
        "Ġpudesse",
        -10.774027104050871
      ],
      [
        "ĠPPS",
        -10.77435213759569
      ],
      [
        "ĠQuadro",
        -10.774787931269325
      ],
      [
        "riamente",
        -10.776378242422805
      ],
      [
        "ĠSubstantiv",
        -10.776547036635035
      ],
      [
        "efetivo",
        -10.776705832373258
      ],
      [
        "extremamente",
        -10.777067208378972
      ],
      [
        "Ġjoga",
        -10.777089624077512
      ],
      [
        "Ł",
        -10.777503263004672
      ],
      [
        "Ġgarota",
        -10.77768308241886
      ],
      [
        "Ġmante",
        -10.777707562859453
      ],
      [
        "Ġacontecendo",
        -10.77805645467753
      ],
      [
        "ĠManuel",
        -10.778096393028852
      ],
      [
        "Ġexigi",
        -10.778786967839238
      ],
      [
        "imediatamente",
        -10.7802890245992
      ],
      [
        "Ġargumento",
        -10.78087553255323
      ],
      [
        "Ġsanc",
        -10.780961583941572
      ],
      [
        "pre",
        -10.781198354062086
      ],
      [
        "naquela",
        -10.781401868038357
      ],
      [
        "todo",
        -10.78166717227223
      ],
      [
        "Assembleia",
        -10.781874712294352
      ],
      [
        "Ġobter",
        -10.7824642452873
      ],
      [
        "gicas",
        -10.782470174850545
      ],
      [
        "Ġcomprar",
        -10.782531138981048
      ],
      [
        "Ġviver",
        -10.782876993578826
      ],
      [
        "Ġfoto",
        -10.783310856232417
      ],
      [
        "ĠDecis",
        -10.783755985483468
      ],
      [
        "EDUARD",
        -10.783868839472074
      ],
      [
        "ĠIX",
        -10.784575838175025
      ],
      [
        "Ġpronto",
        -10.78467157236218
      ],
      [
        "ĠNem",
        -10.784749643978616
      ],
      [
        "Ġreduzir",
        -10.784754553323026
      ],
      [
        "Ġdecorre",
        -10.784960400066153
      ],
      [
        "ĠSC",
        -10.786628933912665
      ],
      [
        "ĠRi",
        -10.786735964769932
      ],
      [
        "Ġoposic",
        -10.787108216690765
      ],
      [
        "segmento",
        -10.787341869760237
      ],
      [
        "Ġanteriormente",
        -10.78796590384743
      ],
      [
        "Ġescritor",
        -10.789950499016408
      ],
      [
        "ficando",
        -10.79033400729278
      ],
      [
        "CIO",
        -10.790499045343108
      ],
      [
        "ste",
        -10.790538940508135
      ],
      [
        "RO",
        -10.79080216970818
      ],
      [
        "Ġdomi",
        -10.790861446610782
      ],
      [
        "ĠFreitas",
        -10.791120058015911
      ],
      [
        "cobranc",
        -10.79141121736843
      ],
      [
        "lhes",
        -10.791535442713204
      ],
      [
        "Biografia",
        -10.792463246552048
      ],
      [
        "Ġindividual",
        -10.79305762592093
      ],
      [
        "Ġdente",
        -10.793583146406473
      ],
      [
        "especiais",
        -10.794202576951266
      ],
      [
        "recebido",
        -10.794906869392667
      ],
      [
        "tido",
        -10.795429385950133
      ],
      [
        "esse",
        -10.79548441078202
      ],
      [
        "recorrente",
        -10.795657661076442
      ],
      [
        "devidamente",
        -10.795882365017322
      ],
      [
        "mios",
        -10.796145300645131
      ],
      [
        "integrantes",
        -10.796170643974936
      ],
      [
        "ĠAcre",
        -10.796452209020323
      ],
      [
        "Ġpreside",
        -10.79655419160198
      ],
      [
        "ĠRoge",
        -10.797202707517409
      ],
      [
        "SC",
        -10.797479692398111
      ],
      [
        "inconstitucional",
        -10.79756948401134
      ],
      [
        "Ġdeterminar",
        -10.798369085859717
      ],
      [
        "milhare",
        -10.799379248727456
      ],
      [
        "ĠAPRECIA",
        -10.79954237482254
      ],
      [
        "bado",
        -10.79977081315869
      ],
      [
        "Ġsorte",
        -10.80005748507786
      ],
      [
        "Ġcontribui",
        -10.800240498984817
      ],
      [
        "ĠPois",
        -10.800621577747348
      ],
      [
        "ĠPreceden",
        -10.801122339355135
      ],
      [
        "ĠArau",
        -10.801322417468734
      ],
      [
        "EIRA",
        -10.801427960661004
      ],
      [
        "remunerac",
        -10.80256614037524
      ],
      [
        "Ġreleva",
        -10.802594011143444
      ],
      [
        "perdeu",
        -10.802671124086745
      ],
      [
        "artista",
        -10.803510237046789
      ],
      [
        "Ġcoloca",
        -10.803560756613956
      ],
      [
        "MDB",
        -10.804292539547829
      ],
      [
        "24",
        -10.804359801936313
      ],
      [
        "Ġperde",
        -10.80488529964803
      ],
      [
        "Ġbuscar",
        -10.80509880073737
      ],
      [
        "Ġindireta",
        -10.805229876627862
      ],
      [
        "ĠTributa",
        -10.805414167073042
      ],
      [
        "ĠPesquisa",
        -10.805603225411703
      ],
      [
        "istas",
        -10.805604181430152
      ],
      [
        "Ġdecidir",
        -10.805665464958206
      ],
      [
        "GO",
        -10.80724243881655
      ],
      [
        "Rousseff",
        -10.80744522751509
      ],
      [
        "Ġtrabalha",
        -10.807523695555398
      ],
      [
        "Ġsexo",
        -10.808065583689704
      ],
      [
        "Ġtradic",
        -10.808556484295604
      ],
      [
        "sticos",
        -10.808804995934516
      ],
      [
        "Ġobrigada",
        -10.80900218969486
      ],
      [
        "prios",
        -10.809365559483965
      ],
      [
        "Bolsonaro",
        -10.809838839506394
      ],
      [
        "PL",
        -10.810443128778592
      ],
      [
        "Ġassociac",
        -10.810632149853706
      ],
      [
        "ĠLiga",
        -10.810694862856346
      ],
      [
        "cula",
        -10.810985973026076
      ],
      [
        "Ġ42",
        -10.81120771238139
      ],
      [
        "Edson",
        -10.81128501435762
      ],
      [
        "Ġurbana",
        -10.811431691891588
      ],
      [
        "Ġ41",
        -10.81191987124112
      ],
      [
        "Ġtriste",
        -10.811971959213777
      ],
      [
        "udio",
        -10.81222971822227
      ],
      [
        "masculino",
        -10.81266000437968
      ],
      [
        "Ġcenso",
        -10.812683646736136
      ],
      [
        "Ġsegue",
        -10.81416623877425
      ],
      [
        "Registro",
        -10.81491053656505
      ],
      [
        "ditos",
        -10.814972326318166
      ],
      [
        "SEGUND",
        -10.815224093217552
      ],
      [
        "Ġ53",
        -10.815930414788513
      ],
      [
        "rurais",
        -10.816102035071658
      ],
      [
        "passagem",
        -10.816174970629154
      ],
      [
        "ĠGRANDE",
        -10.816287289503467
      ],
      [
        "PROPOST",
        -10.816445267720814
      ],
      [
        "Ġtende",
        -10.8168037347386
      ],
      [
        "]",
        -10.817025990366329
      ],
      [
        "grupos",
        -10.817080431955372
      ],
      [
        "Ġcomemora",
        -10.817127246235328
      ],
      [
        "Bezerra",
        -10.817438572922374
      ],
      [
        "ĠSalvador",
        -10.818105195262476
      ],
      [
        "Ġindica",
        -10.818629210591942
      ],
      [
        "ilustre",
        -10.81865001602304
      ],
      [
        "Ġdigital",
        -10.819388291105462
      ],
      [
        "Ġvaga",
        -10.819681711405469
      ],
      [
        "oradores",
        -10.820187711360054
      ],
      [
        "Ġleve",
        -10.82089707728419
      ],
      [
        "Ġsinal",
        -10.821592346295416
      ],
      [
        "ĠMelo",
        -10.821793057995258
      ],
      [
        "Ġliga",
        -10.82203090019052
      ],
      [
        "Ġauxi",
        -10.822183243745474
      ],
      [
        "Ġmedalha",
        -10.82260573632531
      ],
      [
        "lha",
        -10.824791992942345
      ],
      [
        "Pinheiro",
        -10.825045823599254
      ],
      [
        "melhoria",
        -10.825125113112549
      ],
      [
        "Ġnot",
        -10.826487010954734
      ],
      [
        "Ġparcela",
        -10.82657688650358
      ],
      [
        "ĠMinori",
        -10.826727633313972
      ],
      [
        "provavelmente",
        -10.826870807062535
      ],
      [
        "ĠSILVA",
        -10.826938905872831
      ],
      [
        "partidos",
        -10.827028774344246
      ],
      [
        "tem",
        -10.82707730093768
      ],
      [
        "ĠNesta",
        -10.827729802842237
      ],
      [
        "ĠIna",
        -10.827821099348109
      ],
      [
        "Entretanto",
        -10.828581508842
      ],
      [
        "ĠToff",
        -10.830180392101864
      ],
      [
        "zar",
        -10.830217183101368
      ],
      [
        "ĠInternet",
        -10.830551837199929
      ],
      [
        "Ġtradicional",
        -10.830678158553871
      ],
      [
        "dez",
        -10.830984718336545
      ],
      [
        "Ġpri",
        -10.831564925175078
      ],
      [
        "Ġtelefone",
        -10.831857969418904
      ],
      [
        "Ġconjunta",
        -10.83296189612841
      ],
      [
        "oeste",
        -10.83392096746591
      ],
      [
        "ĠATA",
        -10.83405408067106
      ],
      [
        "Ġaparece",
        -10.834374245423462
      ],
      [
        "ĠSantana",
        -10.83442303429288
      ],
      [
        "Ġcai",
        -10.834683045930964
      ],
      [
        "teis",
        -10.834972804447924
      ],
      [
        "Ġenderec",
        -10.83513354819723
      ],
      [
        "Ġhouver",
        -10.8353387979761
      ],
      [
        "EMENTA",
        -10.835806665603668
      ],
      [
        "Ġculpa",
        -10.837106713366106
      ],
      [
        "Ġarti",
        -10.837435205835666
      ],
      [
        "Diante",
        -10.8377742682877
      ],
      [
        "Ġintervenc",
        -10.837995553213238
      ],
      [
        "ocorrido",
        -10.839549264138306
      ],
      [
        "incentivo",
        -10.839929664821607
      ],
      [
        "ĠRECEBI",
        -10.84005875450132
      ],
      [
        "pertencente",
        -10.840942182149895
      ],
      [
        "Ġcampeonato",
        -10.841351498979863
      ],
      [
        "Ġuniversidade",
        -10.841501988265415
      ],
      [
        "ISBN",
        -10.841913764098216
      ],
      [
        "ĠAM",
        -10.842076036728312
      ],
      [
        "Ġtabela",
        -10.84214769868381
      ],
      [
        "Ġparticipa",
        -10.842557046237696
      ],
      [
        "Ġseque",
        -10.842765139018448
      ],
      [
        "estabelecido",
        -10.84325006176716
      ],
      [
        "XIX",
        -10.84332573210093
      ],
      [
        "Ġregular",
        -10.843543416485684
      ],
      [
        "Ġsemelhante",
        -10.84408364357308
      ],
      [
        "Ġredes",
        -10.844289806928906
      ],
      [
        "Ġdeliberac",
        -10.844851468289225
      ],
      [
        "tri",
        -10.844862391590578
      ],
      [
        "Ġassegurar",
        -10.844892850787897
      ],
      [
        "Ġassinado",
        -10.845132058327248
      ],
      [
        "Ġtrans",
        -10.845694865377697
      ],
      [
        "Ġcapita",
        -10.8458342454238
      ],
      [
        "proferid",
        -10.845943845245236
      ],
      [
        "Ġtecnolo",
        -10.84622444515704
      ],
      [
        "ĠFILH",
        -10.846515476572328
      ],
      [
        "Ġaumenta",
        -10.847241376402623
      ],
      [
        "usada",
        -10.847438770153104
      ],
      [
        "Ġdemonstra",
        -10.8480363486894
      ],
      [
        "Ġlugares",
        -10.848194597865676
      ],
      [
        "Ġaposentado",
        -10.848277918154189
      ],
      [
        "mais",
        -10.848789023322606
      ],
      [
        "Trabalhadores",
        -10.849041833913816
      ],
      [
        "tic",
        -10.84905547551572
      ],
      [
        "Ġsugest",
        -10.84912600114751
      ],
      [
        "Ġ1970",
        -10.849430985438698
      ],
      [
        "especialista",
        -10.84961138610295
      ],
      [
        "Ġenfrentar",
        -10.84965974961926
      ],
      [
        "personagens",
        -10.849671404085624
      ],
      [
        "Ġcomposta",
        -10.8507651969421
      ],
      [
        "nunciou",
        -10.851360940899038
      ],
      [
        "Ġ300",
        -10.85150347247444
      ],
      [
        "pico",
        -10.851544581636078
      ],
      [
        "ruas",
        -10.851619026901908
      ],
      [
        "ĠParque",
        -10.851712511292048
      ],
      [
        "ina",
        -10.852009218833675
      ],
      [
        "negou",
        -10.853185176633758
      ],
      [
        "ĠFM",
        -10.85338687942831
      ],
      [
        "quina",
        -10.853463636915988
      ],
      [
        "Ġ44",
        -10.853739748623967
      ],
      [
        "representantes",
        -10.854026726230549
      ],
      [
        "ĠEmpresa",
        -10.854633108467356
      ],
      [
        "ĠFelipe",
        -10.85463358117264
      ],
      [
        "menores",
        -10.855454226702982
      ],
      [
        "Ġcorte",
        -10.855609397419078
      ],
      [
        "passageiro",
        -10.85576476773446
      ],
      [
        "26",
        -10.856331692663275
      ],
      [
        "ĠContrato",
        -10.857329254511306
      ],
      [
        "ĠCristo",
        -10.857483811118692
      ],
      [
        "Ġorigina",
        -10.857550240395536
      ],
      [
        "naturais",
        -10.857700902298651
      ],
      [
        "Ġsec",
        -10.857863157959338
      ],
      [
        "ĠOra",
        -10.85833412825756
      ],
      [
        "km",
        -10.858407666536229
      ],
      [
        "Ġ58",
        -10.860379852599362
      ],
      [
        "Humanos",
        -10.861304252805509
      ],
      [
        "ĠAP",
        -10.86136318107786
      ],
      [
        "Ġfinalmente",
        -10.86139942822014
      ],
      [
        "ĠJustifica",
        -10.861610249733388
      ],
      [
        "Ġenfrenta",
        -10.862150056185907
      ],
      [
        "ĠNatal",
        -10.862703186644486
      ],
      [
        "submetid",
        -10.862748849944788
      ],
      [
        "Viana",
        -10.862874198575062
      ],
      [
        "Ġonda",
        -10.862958251625589
      ],
      [
        "land",
        -10.863610827419704
      ],
      [
        "ĠDeve",
        -10.863730462157266
      ],
      [
        "ĠPec",
        -10.8640540279697
      ],
      [
        "dentre",
        -10.86447142730482
      ],
      [
        "Ġcrista",
        -10.864479366942003
      ],
      [
        "tados",
        -10.864539087734787
      ],
      [
        "Ġglobal",
        -10.865352417251891
      ],
      [
        "Ġfloresta",
        -10.866217634912056
      ],
      [
        "ĠPala",
        -10.866920335518277
      ],
      [
        "Ħ",
        -10.866930415585038
      ],
      [
        "Ġinfrac",
        -10.866992994107516
      ],
      [
        "Ġpeso",
        -10.868258562501756
      ],
      [
        "redor",
        -10.868287309205067
      ],
      [
        "recorrid",
        -10.868296993259738
      ],
      [
        "Ġescala",
        -10.868343232397438
      ],
      [
        "dizem",
        -10.868511597842549
      ],
      [
        "Ronaldo",
        -10.86918142064014
      ],
      [
        "Ġdupla",
        -10.869620624238834
      ],
      [
        "Ġbasta",
        -10.870461615820313
      ],
      [
        "Ġvila",
[...]
