{
  "version": "1.0",
  "truncation": {
    "direction": "Right",
    "max_length": 1024,
    "strategy": "LongestFirst",
    "stride": 0
  },
  "padding": null,
  "added_tokens": [
    {
      "id": 0,
      "content": "[PAD]",
      "single_word": false,
      "lstrip": false,
      "rstrip": false,
      "normalized": false,
      "special": true
    },
    {
      "id": 1,
      "content": "[SEP]",
      "single_word": false,
      "lstrip": false,
      "rstrip": false,
      "normalized": false,
      "special": true
    },
    {
      "id": 2,
      "content": "[EOS]",
      "single_word": false,
      "lstrip": false,
      "rstrip": false,
      "normalized": false,
      "special": true
    },
    {
      "id": 3,
      "content": "[UNK]",
      "single_word": false,
      "lstrip": false,
      "rstrip": false,
      "normalized": false,
      "special": true
    }
  ],
  "normalizer": {
    "type": "Sequence",
    "normalizers": [
      {
        "type": "Strip",
        "strip_left": true,
        "strip_right": true
      },
      {
        "type": "NFC"
      }
    ]
  },
  "pre_tokenizer": {
    "type": "ByteLevel",
    "add_prefix_space": true,
    "trim_offsets": true,
    "use_regex": true
  },
  "post_processor": {
    "type": "Sequence",
    "processors": [
      {
        "type": "ByteLevel",
        "add_prefix_space": true,
        "trim_offsets": true,
        "use_regex": true
      },
      {
        "type": "TemplateProcessing",
        "single": [
          {
            "Sequence": {
              "id": "A",
              "type_id": 0
            }
          },
          {
            "SpecialToken": {
              "id": "[EOS]",
              "type_id": 0
            }
          }
        ],
        "pair": [
          {
            "Sequence": {
              "id": "A",
              "type_id": 0
            }
          },
          {
            "SpecialToken": {
              "id": "[SEP]",
              "type_id": 0
            }
          },
          {
            "Sequence": {
              "id": "B",
              "type_id": 0
            }
          },
          {
            "SpecialToken": {
              "id": "[EOS]",
              "type_id": 0
            }
          }
        ],
        "special_tokens": {
          "[EOS]": {
            "id": "[EOS]",
            "ids": [
              2
            ],
            "tokens": [
              "[EOS]"
            ]
          },
          "[SEP]": {
            "id": "[SEP]",
            "ids": [
              1
            ],
            "tokens": [
              "[SEP]"
            ]
          }
        }
      }
    ]
  },
  "decoder": {
    "type": "ByteLevel",
    "add_prefix_space": true,
    "trim_offsets": true,
    "use_regex": true
  },
  "model": {
    "type": "Unigram",
    "unk_id": 3,
    "vocab": [
      [
        "[PAD]",
        0.0
      ],
      [
        "[SEP]",
        0.0
      ],
      [
        "[EOS]",
        0.0
      ],
      [
        "[UNK]",
        0.0
      ],
      [
        "Ġ",
        -1.9229419687640323
      ],
      [
        "a",
        -3.1621130971912166
      ],
      [
        "s",
        -3.180049312273894
      ],
      [
        "o",
        -3.29145008420144
      ],
      [
        "e",
        -3.34977337768791
      ],
      [
        ",",
        -3.4516983792484623
      ],
      [
        ".",
        -3.6642995966969383
      ],
      [
        "Ġde",
        -3.771261781807727
      ],
      [
        "r",
        -4.0728362493264285
      ],
      [
        "i",
        -4.15482068586434
      ],
      [
        "u",
        -4.366039831178082
      ],
      [
        "n",
        -4.491009736165772
      ],
      [
        "m",
        -4.584359934523977
      ],
      [
        "l",
        -4.657833492185784
      ],
      [
        "d",
        -4.70741154667995
      ],
      [
        "t",
        -4.739216618542073
      ],
      [
        "-",
        -4.745363590470756
      ],
      [
        "Ġdo",
        -4.763737958318629
      ],
      [
        "Ġque",
        -4.781584399249333
      ],
      [
        "c",
        -4.824966238639707
      ],
      [
        "Ġda",
        -4.9493008620291725
      ],
      [
        "A",
        -5.105208833656029
      ],
      [
        "p",
        -5.112547567081279
      ],
      [
        "O",
        -5.29328400683216
      ],
      [
        "Ġem",
        -5.3420395616619984
      ],
      [
        "\"",
        -5.4214486187402855
      ],
      [
        "g",
        -5.422527689071451
      ],
      [
        ")",
        -5.469379257472433
      ],
      [
        "(",
        -5.474266603425676
      ],
      [
        "b",
        -5.50141627589451
      ],
      [
        "Ġpara",
        -5.58030805351752
      ],
      [
        "Ġcom",
        -5.593119006727186
      ],
      [
        "v",
        -5.641684133016877
      ],
      [
        "Ġno",
        -5.7279752587419175
      ],
      [
        "S",
        -5.750063194316851
      ],
      [
        ":",
        -5.914467357666815
      ],
      [
        "E",
        -5.923347093887754
      ],
      [
        "I",
        -5.932781989653522
      ],
      [
        "f",
        -5.935118367618703
      ],
      [
        "ĠâĢĵ",
        -5.955669438042852
      ],
      [
        "Ġum",
        -5.957147350964325
      ],
      [
        "/",
        -5.957623733186603
      ],
      [
        "Ġna",
        -5.964939772925371
      ],
      [
        "ĠÃ©",
        -5.994928551066106
      ],
      [
        "R",
        -6.036978747398241
      ],
      [
        "ĠnÃ£o",
        -6.047782507423854
      ],
      [
        "C",
        -6.06888984775315
      ],
      [
        "3",
        -6.0931482203254035
      ],
      [
        "P",
        -6.099223333682801
      ],
      [
        "Ġuma",
        -6.1704398630479
      ],
      [
        "Ġpor",
        -6.2005671793931345
      ],
      [
        "4",
        -6.207146597217871
      ],
      [
        "h",
        -6.222546553637644
      ],
      [
        "5",
        -6.236780281073965
      ],
      [
        "2",
        -6.247176182499114
      ],
      [
        "Ã§Ã£o",
        -6.262073501552797
      ],
      [
        "de",
        -6.2794045193474215
      ],
      [
        "6",
        -6.307516960125875
      ],
      [
        "1",
        -6.337444827425465
      ],
      [
        "N",
        -6.369524382500879
      ],
      [
        "7",
        -6.381673805901581
      ],
      [
        "8",
        -6.39547205907569
      ],
      [
        "z",
        -6.443358250457415
      ],
      [
        "li",
        -6.474483149917923
      ],
      [
        "?",
        -6.5480171304464125
      ],
      [
        "Ã©",
        -6.548676866028467
      ],
      [
        "ĠÃł",
        -6.5528466671630685
      ],
      [
        "Ġdos",
        -6.557708137538194
      ],
      [
        "ndo",
        -6.559205984970218
      ],
      [
        "M",
        -6.565718049650885
      ],
      [
        "9",
        -6.56841051995055
      ],
      [
        "L",
        -6.58226391469835
      ],
      [
        "Ġcomo",
        -6.590463134328237
      ],
      [
        "V",
        -6.595766551626284
      ],
      [
        "Ġcon",
        -6.596700779287618
      ],
      [
        "ÃŃ",
        -6.60546018809011
      ],
      [
        "G",
        -6.620124203269702
      ],
      [
        "B",
        -6.641437607235114
      ],
      [
        "...",
        -6.647210731783073
      ],
      [
        "in",
        -6.671620294436606
      ],
      [
        "T",
        -6.673611686074841
      ],
      [
        "y",
        -6.702416249433826
      ],
      [
        "D",
        -6.706416273548291
      ],
      [
        "Ġfoi",
        -6.707100649403461
      ],
      [
        "!",
        -6.717527844252
      ],
      [
        "U",
        -6.721585997136037
      ],
      [
        "Ã¡",
        -6.773602370340031
      ],
      [
        "Ġmais",
        -6.773603991868388
      ],
      [
        "F",
        -6.8141343185029974
      ],
      [
        "Ã£o",
        -6.825209485969419
      ],
      [
        "Ġin",
        -6.898948551708358
      ],
      [
        ";",
        -6.902592156895286
      ],
      [
        "ĠDE",
        -6.902720885514647
      ],
      [
        "Ġpela",
        -6.9185447606036075
      ],
      [
        "ĠnÂº",
        -6.9435066566320085
      ],
      [
        "................",
        -6.969142002482588
      ],
      [
        "mente",
        -6.9803830906146676
      ],
      [
        "Ġpelo",
        -6.986472221501865
      ],
      [
        "vi",
        -6.992247508169935
      ],
      [
        "Ġ19",
        -7.00212151288574
      ],
      [
        "Ġsua",
        -7.011953100609482
      ],
      [
        "dos",
        -7.023433545981559
      ],
      [
        "Ã³",
        -7.02406722428535
      ],
      [
        "k",
        -7.059448029389049
      ],
      [
        "Ġser",
        -7.062042652883884
      ],
      [
        "ĠSr",
        -7.083877768170963
      ],
      [
        "Âº",
        -7.085778498357957
      ],
      [
        "aÃ§Ã£o",
        -7.109414142263329
      ],
      [
        "res",
        -7.129711555745441
      ],
      [
        "Ġsobre",
        -7.131042410713704
      ],
      [
        "idade",
        -7.131971552348519
      ],
      [
        "ter",
        -7.136725929902461
      ],
      [
        "Ġdas",
        -7.159030859044048
      ],
      [
        "mos",
        -7.188128605421296
      ],
      [
        "que",
        -7.209085502781781
      ],
      [
        "ria",
        -7.224543062748996
      ],
      [
        "ram",
        -7.226420905089613
      ],
      [
        "Ġseu",
        -7.238060029775729
      ],
      [
        "ĠâĢľ",
        -7.246969307506983
      ],
      [
        "Ġpro",
        -7.260290765112902
      ],
      [
        "tor",
        -7.285014170897533
      ],
      [
        "cia",
        -7.291027246042065
      ],
      [
        "ĠestÃ¡",
        -7.293217967714023
      ],
      [
        "tra",
        -7.293853217204228
      ],
      [
        "ĠPresidente",
        -7.315114609687047
      ],
      [
        "ĠEm",
        -7.31575466123703
      ],
      [
        "x",
        -7.338617497702289
      ],
      [
        "ĠNÃ£o",
        -7.34213008533624
      ],
      [
        "ĠtambÃ©m",
        -7.350700160146307
      ],
      [
        "ver",
        -7.355815118516546
      ],
      [
        "Ġpre",
        -7.361338215389752
      ],
      [
        "ĠLei",
        -7.367380801196475
      ],
      [
        "das",
        -7.3743948492664995
      ],
      [
        "Ã§Ãµes",
        -7.385841028170603
      ],
      [
        "ente",
        -7.418591987866538
      ],
      [
        "cio",
        -7.421531872300662
      ],
      [
        "Ġtem",
        -7.429827117150396
      ],
      [
        "nte",
        -7.432883815587436
      ],
      [
        "Ġele",
        -7.433751767700915
      ],
      [
        "J",
        -7.438328139607574
      ],
      [
        "Ã§a",
        -7.439189577408486
      ],
      [
        "j",
        -7.445294316361094
      ],
      [
        "ĠDeputado",
        -7.450870264717276
      ],
      [
        "ĠRe",
        -7.45783573359917
      ],
      [
        "Ġart",
        -7.458930956746476
      ],
      [
        "Ġmas",
        -7.461599510064342
      ],
      [
        "ela",
        -7.464385855597062
      ],
      [
        "min",
        -7.468174293256348
      ],
      [
        "fi",
        -7.477557452762705
      ],
      [
        "ita",
        -7.479304742484437
      ],
      [
        "era",
        -7.500708134378797
      ],
      [
        "0",
        -7.512898334008996
      ],
      [
        "Ġnos",
        -7.515370774769293
      ],
      [
        "Ġex",
        -7.518455896712565
      ],
      [
        "w",
        -7.521955269154681
      ],
      [
        "Ġco",
        -7.529572014466769
      ],
      [
        "mento",
        -7.57092300399278
      ],
      [
        "Ġca",
        -7.575348693718821
      ],
      [
        "est",
        -7.581474968374147
      ],
      [
        "ĠSR",
        -7.583231626926075
      ],
      [
        "ĠsÃ£o",
        -7.595464317566339
      ],
      [
        "br",
        -7.599022343942815
      ],
      [
        "Ãª",
        -7.601592943934648
      ],
      [
        "ĠSe",
        -7.605194469242356
      ],
      [
        "ĠFederal",
        -7.61523612576914
      ],
      [
        "tado",
        -7.624111155790269
      ],
      [
        "Ġisso",
        -7.629962478621092
      ],
      [
        "ĠÃī",
        -7.630339288284155
      ],
      [
        "ĠNo",
        -7.633726460635332
      ],
      [
        "ida",
        -7.6375333591268735
      ],
      [
        "ĠW",
        -7.642064840620094
      ],
      [
        "tro",
        -7.642232275854923
      ],
      [
        "ĠCa",
        -7.644366635402507
      ],
      [
        "ĠNÂº",
        -7.645063057267922
      ],
      [
        "tar",
        -7.648217791096124
      ],
      [
        "iro",
        -7.6522730956623395
      ],
      [
        "ĠDe",
        -7.661486437381329
      ],
      [
        "Ġanos",
        -7.664504932043696
      ],
      [
        "ĠEstado",
        -7.66490811722659
      ],
      [
        "ĠBrasil",
        -7.665942763088655
      ],
      [
        "Ãªncia",
        -7.666034941717037
      ],
      [
        "um",
        -7.666936112465489
      ],
      [
        "ĠEu",
        -7.670477242432259
      ],
      [
        "ĠSenador",
        -7.691324062848352
      ],
      [
        "ĠMa",
        -7.692896769261747
      ],
      [
        "Ġentre",
        -7.699557661895915
      ],
      [
        "ando",
        -7.712047598337135
      ],
      [
        "ĠCon",
        -7.713477098125805
      ],
      [
        "ĠIn",
        -7.717749891873254
      ],
      [
        "ito",
        -7.722644182793241
      ],
      [
        "ĠvocÃª",
        -7.731019607198691
      ],
      [
        "Ã",
        -7.739090615933376
      ],
      [
        "Ġmuito",
        -7.747469607817624
      ],
      [
        "ĠNa",
        -7.760553105458872
      ],
      [
        "dor",
        -7.761133237713325
      ],
      [
        "sta",
        -7.762285333455869
      ],
      [
        "%",
        -7.769310269724976
      ],
      [
        "lha",
        -7.771271444296184
      ],
      [
        "car",
        -7.777350505351514
      ],
      [
        "ula",
        -7.777457816904436
      ],
      [
        "ido",
        -7.79198041255318
      ],
      [
        "qui",
        -7.79902569565505
      ],
      [
        "ĠAl",
        -7.800527690704234
      ],
      [
        "Ġforma",
        -7.800665149163773
      ],
      [
        "per",
        -7.80371969909424
      ],
      [
        "ĠatÃ©",
        -7.807265662805692
      ],
      [
        "ju",
        -7.811857241680951
      ],
      [
        "ĠjÃ¡",
        -7.813410390709999
      ],
      [
        "ina",
        -7.814785895770083
      ],
      [
        "tri",
        -7.818320939732338
      ],
      [
        "pre",
        -7.827568866528624
      ],
      [
        "ant",
        -7.829329119022116
      ],
      [
        "iz",
        -7.847276154070567
      ],
      [
        "Ġaqui",
        -7.854004666400728
      ],
      [
        "Ġter",
        -7.860895779516252
      ],
      [
        "ĠComissÃ£o",
        -7.862146530062438
      ],
      [
        "Ġvi",
        -7.865332951434343
      ],
      [
        "Ġbem",
        -7.890911710700895
      ],
      [
        "ĠCom",
        -7.894701429541332
      ],
      [
        "ent",
        -7.900914238060503
      ],
      [
        "Ġsem",
        -7.901738815380375
      ],
      [
        "Ã¡rio",
        -7.904132638593602
      ],
      [
        "X",
        -7.905561924477974
      ],
      [
        "Ġesta",
        -7.906582727921473
      ],
      [
        "par",
        -7.907675557487941
      ],
      [
        "por",
        -7.9139539345162895
      ],
      [
        "and",
        -7.916564181161855
      ],
      [
        "Ġ10",
        -7.92098242799336
      ],
      [
        "Ã´",
        -7.921700127413489
      ],
      [
        "Ġpode",
        -7.930624934102951
      ],
      [
        "ĠMo",
        -7.932731530520726
      ],
      [
        "H",
        -7.941586297930604
      ],
      [
        "ico",
        -7.942677812469995
      ],
      [
        "tiva",
        -7.944568341670744
      ],
      [
        "Ãº",
        -7.945302832087211
      ],
      [
        "fer",
        -7.948074815093548
      ],
      [
        "Ġquando",
        -7.948410901775649
      ],
      [
        "ten",
        -7.948671579383085
      ],
      [
        "RI",
        -7.948917593473526
      ],
      [
        "ist",
        -7.949577848251042
      ],
      [
        "ĠPa",
        -7.952562194267536
      ],
      [
        "enta",
        -7.95908191342644
      ],
      [
        "tos",
        -7.966635572935367
      ],
      [
        "ing",
        -7.976187733645526
      ],
      [
        "Z",
        -7.97977519462278
      ],
      [
        "Ġmesmo",
        -7.981131387268181
      ],
      [
        "ĠPor",
        -7.988346251029855
      ],
      [
        "ica",
        -7.990695708170451
      ],
      [
        "ĠNacional",
        -7.991889839469975
      ],
      [
        "man",
        -7.994035828347821
      ],
      [
        "qu",
        -7.994932206876436
      ],
      [
        "Ġdia",
        -7.997315054325219
      ],
      [
        "Ġcontra",
        -7.998868075869293
      ],
      [
        "ES",
        -8.012265220694182
      ],
      [
        "ĠÂ§",
        -8.032217595535363
      ],
      [
        "ch",
        -8.03283828954118
      ],
      [
        "aÃ§Ãµes",
        -8.035369953790742
      ],
      [
        "Ġtodos",
        -8.040234287221686
      ],
      [
        "19",
        -8.045632499227375
      ],
      [
        "Q",
        -8.046988827997046
      ],
      [
        "nha",
        -8.050899435999032
      ],
      [
        "ĠMe",
        -8.052659780995077
      ],
      [
        "Ġainda",
        -8.053810775330351
      ],
      [
        "rado",
        -8.053958102395978
      ],
      [
        "Ġpa",
        -8.05833061714314
      ],
      [
        "ĠSÃ£o",
        -8.060097818553727
      ],
      [
        "ĠDi",
        -8.06069360079151
      ],
      [
        "Ġ18",
        -8.061655724328286
      ],
      [
        "ĠOs",
        -8.072862276405594
      ],
      [
        "Ġsu",
        -8.08266365107248
      ],
      [
        "pro",
        -8.085108194768342
      ],
      [
        "DO",
        -8.095362842790001
      ],
      [
        "fica",
        -8.097130191937218
      ],
      [
        "Ġdis",
        -8.098514971053724
      ],
      [
        "ĠH",
        -8.100027347012125
      ],
      [
        "rem",
        -8.107308707565839
      ],
      [
        "00",
        -8.107483934873065
      ],
      [
        "tivo",
        -8.107958713540489
      ],
      [
        "Ġseus",
        -8.108648224779179
      ],
      [
        "âĢĿ.",
        -8.108936901203899
      ],
      [
        "tal",
        -8.109594444748126
      ],
      [
        "_",
        -8.113173318985872
      ],
      [
        "ĠAn",
        -8.114250179924749
      ],
      [
        "Ġcidade",
        -8.115800319151596
      ],
      [
        "Ġparte",
        -8.123201279245277
      ],
      [
        "ja",
        -8.132333504414074
      ],
      [
        "amento",
        -8.133866006140465
      ],
      [
        "ĠhÃ¡",
        -8.136064729460788
      ],
      [
        "Ġforam",
        -8.13974870345444
      ],
      [
        "ĠPaulo",
        -8.14266002801319
      ],
      [
        "rÃ¡",
        -8.14464197410426
      ],
      [
        "Ġfazer",
        -8.147279064661273
      ],
      [
        "ber",
        -8.155452622255881
      ],
      [
        "ante",
        -8.155787363817652
      ],
      [
        "ĠVi",
        -8.155915659073262
      ],
      [
        "Ġcaso",
        -8.16125367215045
      ],
      [
        "ĠPL",
        -8.167440360678125
      ],
      [
        "Ġper",
        -8.168123480531282
      ],
      [
        "ĠDa",
        -8.171727472784323
      ],
      [
        "rio",
        -8.172772111561521
      ],
      [
        "Ġpo",
        -8.178041803061072
      ],
      [
        "RA",
        -8.182656488644266
      ],
      [
        "Ġessa",
        -8.184092161335917
      ],
      [
        "ĠBe",
        -8.18494873188612
      ],
      [
        "Ġano",
        -8.18949887275163
      ],
      [
        "ĠTe",
        -8.19093929972033
      ],
      [
        "for",
        -8.191624529311989
      ],
      [
        "Ġtempo",
        -8.192932107395855
      ],
      [
        "ĠArt",
        -8.20561303656555
      ],
      [
        "dia",
        -8.207847188675153
      ],
      [
        "mar",
        -8.207879318282334
      ],
      [
        "Ġesse",
        -8.209362628771794
      ],
      [
        "ĠsÃ³",
        -8.211821641215238
      ],
      [
        "ista",
        -8.212239927609925
      ],
      [
        "ura",
        -8.213550885660455
      ],
      [
        "ex",
        -8.214301572725772
      ],
      [
        "bra",
        -8.216188220099253
      ],
      [
        "nal",
        -8.22202835755224
      ],
      [
        "cer",
        -8.231034958279821
      ],
      [
        "ĠMar",
        -8.234223483462278
      ],
      [
        "Ġseja",
        -8.234929487451703
      ],
      [
        "con",
        -8.23980559799947
      ],
      [
        "'",
        -8.240253964956725
      ],
      [
        "PRESIDENTE",
        -8.24270783638051
      ],
      [
        "com",
        -8.242748496203612
      ],
      [
        "ĠEle",
        -8.244904187567892
      ],
      [
        "ĠPro",
        -8.248119517325495
      ],
      [
        "cor",
        -8.248173862978254
      ],
      [
        "gen",
        -8.248977064115115
      ],
      [
        "PROJETO",
        -8.24899499298233
      ],
      [
        "ata",
        -8.248997670707263
      ],
      [
        "ĠAs",
        -8.249690731142273
      ],
      [
        "Ġ11",
        -8.252755569536536
      ],
      [
        "Ġvai",
        -8.255660988086175
      ],
      [
        "Ġmeu",
        -8.2583970250092
      ],
      [
        "Ġres",
        -8.266595818128446
      ],
      [
        "ĠLEI",
        -8.267746403240496
      ],
      [
        "Ġporque",
        -8.279736508045975
      ],
      [
        "ĠDo",
        -8.280898233110161
      ],
      [
        "men",
        -8.282385712104983
      ],
      [
        "Ãµes",
        -8.289377526282632
      ],
      [
        "TO",
        -8.290064967539651
      ],
      [
        "ĠLe",
        -8.29032828460679
      ],
      [
        "Ġpe",
        -8.292506326921425
      ],
      [
        "nado",
        -8.29452791107112
      ],
      [
        "ĠÃłs",
        -8.297709645556445
      ],
      [
        "Ġprimeiro",
        -8.29985146509915
      ],
      [
        "ava",
        -8.300028940591298
      ],
      [
        "Ġlei",
        -8.307394861391321
      ],
      [
        "Ġsub",
        -8.307806484875798
      ],
      [
        "ck",
        -8.308524160164886
      ],
      [
        "Ã§o",
        -8.309051175957572
      ],
      [
        "ĠMas",
        -8.311010171610173
      ],
      [
        "antes",
        -8.315158208483945
      ],
      [
        "ĠDeputados",
        -8.316187088371612
      ],
      [
        "lar",
        -8.321410760887415
      ],
      [
        "ĠBa",
        -8.329394933127434
      ],
      [
        "RELATOR",
        -8.329773458042851
      ],
      [
        "MA",
        -8.33144316877127
      ],
      [
        "ĠGoverno",
        -8.332987263296676
      ],
      [
        "ĠMinistro",
        -8.334113826969151
      ],
      [
        "ĠLi",
        -8.334387430951772
      ],
      [
        "Ġnas",
        -8.34113248449984
      ],
      [
        "Ġgrande",
        -8.341552613003094
      ],
      [
        "ix",
        -8.342910932290986
      ],
      [
        "ĠVocÃª",
        -8.346845991750262
      ],
      [
        "ĠConstituiÃ§Ã£o",
        -8.348354636572319
      ],
      [
        "Ġ12",
        -8.352100951345177
      ],
      [
        "Ġinter",
        -8.355445237996461
      ],
      [
        "Ġpessoas",
        -8.363152661223113
      ],
      [
        "Ãģ",
        -8.363619247221262
      ],
      [
        "âĢĿ",
        -8.363843885309887
      ],
      [
        "AL",
        -8.366555298702187
      ],
      [
        "Ġvez",
        -8.367779092447861
      ],
      [
        "Ġ15",
        -8.369163298583652
      ],
      [
        "Ġonde",
        -8.370818509550844
      ],
      [
        "Ġartigo",
        -8.37313760051489
      ],
      [
        "Ġdesta",
        -8.375150207594789
      ],
      [
        "Ġeste",
        -8.37718871146278
      ],
      [
        "Ã¢",
        -8.378324484086441
      ],
      [
        "Ġoutros",
        -8.383028171106522
      ],
      [
        "ĠSenhor",
        -8.383489229121233
      ],
      [
        "Ġnome",
        -8.384770434050875
      ],
      [
        "ora",
        -8.386772280628033
      ],
      [
        "tas",
        -8.387251315532321
      ],
      [
        "cha",
        -8.388219790537997
      ],
      [
        "Ġtrabalho",
        -8.389802879028169
      ],
      [
        "ĠestÃ£o",
        -8.396037643467471
      ],
      [
        "ĠAr",
        -8.396284523258274
      ],
      [
        "Ġ20",
        -8.39632070237839
      ],
      [
        "Ġapenas",
        -8.397632747388164
      ],
      [
        "Ġminha",
        -8.397982812799697
      ],
      [
        "lin",
        -8.39835804727271
      ],
      [
        "gue",
        -8.406035548083153
      ],
      [
        "Ġoutras",
        -8.409212519226648
      ],
      [
        "ĠCÃ¢mara",
        -8.410519819863701
      ],
      [
        "ĠFa",
        -8.411313044498332
      ],
      [
        "ĠnÃ³s",
        -8.41337181989169
      ],
      [
        "ĠK",
        -8.415054086102664
      ],
      [
        "ismo",
        -8.417222327254473
      ],
      [
        "Ġsendo",
        -8.422451383562597
      ],
      [
        "CI",
        -8.422878013375488
      ],
      [
        "Âª",
        -8.423387950567987
      ],
      [
        "Ġver",
        -8.424586123883914
      ],
      [
        "ĠNe",
        -8.426125390398889
      ],
      [
        "Ġdois",
        -8.432833216004813
      ],
      [
        "OS",
        -8.433405828619847
      ],
      [
        "Ã¡ria",
        -8.434747474002334
      ],
      [
        "ĠTo",
        -8.437982124272668
      ],
      [
        "ĠLa",
        -8.439115738248127
      ],
      [
        "Ġte",
        -8.442487037956852
      ],
      [
        "lado",
        -8.44401649341069
      ],
      [
        "che",
        -8.444291075760153
      ],
      [
        "ĠRio",
        -8.447930968010212
      ],
      [
        "izaÃ§Ã£o",
        -8.448497465288733
      ],
      [
        "ĠMi",
        -8.448512846072806
      ],
      [
        "Ġordem",
        -8.452868926768128
      ],
      [
        "Ġqual",
        -8.453004212194154
      ],
      [
        "Ġnosso",
        -8.455628953709613
      ],
      [
        "ste",
        -8.456180834973893
      ],
      [
        "TE",
        -8.456554812950571
      ],
      [
        "ĠProjeto",
        -8.462749503219847
      ],
      [
        "vol",
        -8.466913578708828
      ],
      [
        "ĠCasa",
        -8.46811774076069
      ],
      [
        "ĠII",
        -8.469658329559039
      ],
      [
        "10",
        -8.473807500960612
      ],
      [
        "tica",
        -8.475255870351456
      ],
      [
        "ton",
        -8.47713619075737
      ],
      [
        "uro",
        -8.478798484577398
      ],
      [
        "ntes",
        -8.479030758810966
      ],
      [
        "log",
        -8.481819354543724
      ],
      [
        "ĠHa",
        -8.483011905695955
      ],
      [
        "pen",
        -8.48497201934877
      ],
      [
        "ĠPara",
        -8.489762756081308
      ],
      [
        "lhe",
        -8.491459698538968
      ],
      [
        "gar",
        -8.493263301877864
      ],
      [
        "Ġhoje",
        -8.49739778634793
      ],
      [
        "Ġmaior",
        -8.497799060893179
      ],
      [
        "mor",
        -8.502757005123414
      ],
      [
        "Ġsuas",
        -8.503317643775457
      ],
      [
        "th",
        -8.504359409618225
      ],
      [
        "tou",
        -8.505462341284808
      ],
      [
        "ĠserÃ¡",
        -8.506743829504236
      ],
      [
        "Ġtermos",
        -8.507960079715968
      ],
      [
        "inha",
        -8.509579668772368
      ],
      [
        "nos",
        -8.51027939016635
      ],
      [
        "tada",
        -8.512098447317973
      ],
      [
        "ĠReferÃªncias",
        -8.513626438633512
      ],
      [
        "Ġprocesso",
        -8.514298763519804
      ],
      [
        "Ġassim",
        -8.515336779363423
      ],
      [
        "Ġci",
        -8.516258811879089
      ],
      [
        "Ġmeio",
        -8.518656415429968
      ],
      [
        "tura",
        -8.520876440859219
      ],
      [
        "Y",
        -8.521298428253502
      ],
      [
        "Ġprojeto",
        -8.523331785388162
      ],
      [
        "ĠserviÃ§o",
        -8.523983804847292
      ],
      [
        "ira",
        -8.527909744573385
      ],
      [
        "Ġ16",
        -8.529824413501363
      ],
      [
        "ite",
        -8.530115632130233
      ],
      [
        "Ġvida",
        -8.530210541137384
      ],
      [
        "AS",
        -8.531148448872099
      ],
      [
        "ĠSenado",
        -8.534099303838914
      ],
      [
        "Ã£",
        -8.539698624790201
      ],
      [
        "cional",
        -8.539766626272321
      ],
      [
        "PSDB",
        -8.543652396146243
      ],
      [
        "ĠFi",
        -8.546045715074584
      ],
      [
        "Ġ17",
        -8.54740851064473
      ],
      [
        "rei",
        -8.55111670703725
      ],
      [
        "lho",
        -8.553047779440034
      ],
      [
        "Ġfo",
        -8.55449924576086
      ],
      [
        "ati",
        -8.55633927388338
      ],
      [
        "inho",
        -8.560758493420668
      ],
      [
        "ĠDA",
        -8.562258656910249
      ],
      [
        "Ġ14",
        -8.566521781781944
      ],
      [
        "11",
        -8.567213203744759
      ],
      [
        "rada",
        -8.570622978450142
      ],
      [
        "ĠFe",
        -8.570806812946675
      ],
      [
        "Ġdireito",
        -8.57095604677857
      ],
      [
        "bar",
        -8.574140784607355
      ],
      [
        "ĠCar",
        -8.575103721955603
      ],
      [
        "val",
        -8.57601970191937
      ],
      [
        "Ġ13",
        -8.580161312828624
      ],
      [
        "ĠBo",
        -8.583920363143056
      ],
      [
        "Ġprimeira",
        -8.590124958866792
      ],
      [
        "ĠSem",
        -8.59243443118071
      ],
      [
        "Ġtrans",
        -8.59466044667414
      ],
      [
        "can",
        -8.59658133571895
      ],
      [
        "ĠDO",
        -8.597009335260145
      ],
      [
        "$",
        -8.597140791271787
      ],
      [
        "Ġqualquer",
        -8.600952258706062
      ],
      [
        "Ġdisse",
        -8.602182844915731
      ],
      [
        "ger",
        -8.60247409243272
      ],
      [
        "ĠTribunal",
        -8.605949963548262
      ],
      [
        "tico",
        -8.609058725857393
      ],
      [
        "RE",
        -8.611238862171547
      ],
      [
        "ĠâĢ¢",
        -8.614121908213983
      ],
      [
        "ĠMu",
        -8.614804004310281
      ],
      [
        "dores",
        -8.61711998188427
      ],
      [
        "Ġdeste",
        -8.618442134536973
      ],
      [
        "ĠComo",
        -8.61879209454872
      ],
      [
        "ĠSim",
        -8.619611813916306
      ],
      [
        "EL",
        -8.619669767858017
      ],
      [
        "lan",
        -8.619823659160755
      ],
      [
        "ĠJosÃ©",
        -8.620233746280473
      ],
      [
        "Ġmelhor",
        -8.622585951932859
      ],
      [
        "Ġpalavra",
        -8.625668257674368
      ],
      [
        "Ġdeve",
        -8.625774252164327
      ],
      [
        "Ġseguinte",
        -8.632210605534437
      ],
      [
        "Ġtodo",
        -8.632618544477953
      ],
      [
        "ĠPaÃŃs",
        -8.633665079041503
      ],
      [
        "ĠpÃºblica",
        -8.63624414150363
      ],
      [
        "Ġacordo",
        -8.637413541283022
      ],
      [
        "Ġsistema",
        -8.644581955762337
      ],
      [
        "les",
        -8.646064475934212
      ],
      [
        "Ġdepois",
        -8.646238578189005
      ],
      [
        "art",
        -8.649533219834174
      ],
      [
        "ĠÃ¡rea",
        -8.654912363449506
      ],
      [
        "DA",
        -8.655733399775393
      ],
      [
        "tes",
        -8.656095770832836
      ],
      [
        "Ġcasa",
        -8.658910676632527
      ],
      [
        "iva",
        -8.659649364920071
      ],
      [
        "ĠJu",
        -8.659836035879977
      ],
      [
        "12",
        -8.663268089813675
      ],
      [
        "cos",
        -8.66463147140051
      ],
      [
        "Ġfr",
        -8.664883800175346
      ],
      [
        "ĠMinistÃ©rio",
        -8.665026966109465
      ],
      [
        "Ġcada",
        -8.666048091167637
      ],
      [
        "ĠJo",
        -8.669059001022818
      ],
      [
        "Ġprazo",
        -8.669772333974658
      ],
      [
        "DE",
        -8.673767010785436
      ],
      [
        "OR",
        -8.674468022778667
      ],
      [
        "ĠCarlos",
        -8.681411299814123
      ],
      [
        "cal",
        -8.681479643328196
      ],
      [
        "09",
        -8.685742033614419
      ],
      [
        "ĠapÃ³s",
        -8.686499724138214
      ],
      [
        "Ġpra",
        -8.686691613835722
      ],
      [
        "Ġmil",
        -8.688226970679649
      ],
      [
        "Ã¡vel",
        -8.689383170458557
      ],
      [
        "ĠpÃºblico",
        -8.692906701374412
      ],
      [
        "ĠRelator",
        -8.693317574637437
      ],
      [
        "Ġagora",
        -8.696108892794458
      ],
      [
        "vel",
        -8.697895920774005
      ],
      [
        "ĠpolÃŃtica",
        -8.697985798426075
      ],
      [
        "Ġpresente",
        -8.699962615814457
      ],
      [
        "ĠVer",
        -8.701498737972484
      ],
      [
        "ind",
        -8.706747997573132
      ],
      [
        "Ġsob",
        -8.70763249907835
      ],
      [
        "ĠEsta",
        -8.712414361357283
      ],
      [
        "ĠCO",
        -8.719213644534943
      ],
      [
        "fl",
        -8.71930938815604
      ],
      [
        "Ġimportante",
        -8.71954429649388
      ],
      [
        "ĠSu",
        -8.72194550393859
      ],
      [
        "15",
        -8.726863403210386
      ],
      [
        "ĠPT",
        -8.729538981529451
      ],
      [
        "Bloco",
        -8.730513595587995
      ],
      [
        "ĠRepÃºblica",
        -8.730695283538637
      ],
      [
        "ĠCo",
        -8.732758484979668
      ],
      [
        "13",
        -8.733018335377707
      ],
      [
        "nica",
        -8.73501074086392
      ],
      [
        "Ġsegundo",
        -8.735033423370657
      ],
      [
        "Ġmundo",
        -8.737666919231243
      ],
      [
        "Ġgra",
        -8.737921291758076
      ],
      [
        "ki",
        -8.740612811796021
      ],
      [
        "durante",
        -8.742375225878483
      ],
      [
        "Ġdizer",
        -8.743004736389214
      ],
      [
        "ĠJa",
        -8.743463715961154
      ],
      [
        "rim",
        -8.74497291658337
      ],
      [
        "ser",
        -8.75012216034663
      ],
      [
        "Ġfato",
        -8.75215364927623
      ],
      [
        "Ġconta",
        -8.752847799513741
      ],
      [
        "Ġestava",
        -8.758161414247311
      ],
      [
        "Ġnossa",
        -8.760663677103452
      ],
      [
        "Ġvoto",
        -8.760667841727532
      ],
      [
        "Ġ24",
        -8.762815358139855
      ],
      [
        "ĠmatÃ©ria",
        -8.764698500756316
      ],
      [
        "ĠJustiÃ§a",
        -8.770104610143827
      ],
      [
        "los",
        -8.773344701532935
      ],
      [
        "Ì",
        -8.776399428265961
      ],
      [
        "tre",
        -8.778915909794136
      ],
      [
        "ĠRE",
        -8.780871301631713
      ],
      [
        "las",
        -8.781122691248681
      ],
      [
        "rar",
        -8.781231349398505
      ],
      [
        "IS",
        -8.785589373900171
      ],
      [
        "gua",
        -8.785694054911051
      ],
      [
        "ĠPre",
        -8.786806943923242
      ],
      [
        "Ġsido",
        -8.791718006094662
      ],
      [
        "dezembro",
        -8.792182124398641
      ],
      [
        "enda",
        -8.79301571746474
      ],
      [
        "orador",
        -8.79457365404365
      ],
      [
        "zar",
        -8.794800221986065
      ],
      [
        "nia",
        -8.795574856847113
      ],
      [
        "Ġ22",
        -8.79612424970853
      ],
      [
        "Ġrecursos",
        -8.79625749555702
      ],
      [
        "ral",
        -8.799555918456083
      ],
      [
        "ini",
        -8.800271265653665
      ],
      [
        "ĠPR",
        -8.800925109651557
      ],
      [
        "2009",
        -8.804380557392793
      ],
      [
        "ĠLu",
        -8.805091370539749
      ],
      [
        "Ġpoder",
        -8.805968589832624
      ],
      [
        "Ġoutro",
        -8.80604935423703
      ],
      [
        "Ġfinal",
        -8.809410689031616
      ],
      [
        "Ġpartir",
        -8.812110413441086
      ],
      [
        "ĠtrÃªs",
        -8.81371150423006
      ],
      [
        "tur",
        -8.813998292975818
      ],
      [
        "20",
        -8.820880110400937
      ],
      [
        "ĠEstados",
        -8.823115680994286
      ],
      [
        "dade",
        -8.825041735797116
      ],
      [
        "=",
        -8.825054148219731
      ],
      [
        "cial",
        -8.827491564112455
      ],
      [
        "PT",
        -8.828186644392101
      ],
      [
        "ĠentÃ£o",
        -8.828343096082584
      ],
      [
        "Ġfi",
        -8.829308223674635
      ],
      [
        "dado",
        -8.833932144236352
      ],
      [
        "ĠDes",
        -8.83466018066327
      ],
      [
        "K",
        -8.83641365642882
      ],
      [
        "ĠnÃºmero",
        -8.840276543840114
      ],
      [
        "Ġvalor",
        -8.841132368603155
      ],
      [
        "decisÃ£o",
        -8.841308804101807
      ],
      [
        "ler",
        -8.84170048257717
      ],
      [
        "Ġprograma",
        -8.8433858165101
      ],
      [
        "Ġmomento",
        -8.846322377895236
      ],
      [
        "@",
        -8.847373243855884
      ],
      [
        "NT",
        -8.84856237770228
      ],
      [
        "Ġgrupo",
        -8.851113911919436
      ],
      [
        "ĠJoÃ£o",
        -8.854555904884197
      ],
      [
        "revisÃ£o",
        -8.854963610212232
      ],
      [
        "Ġtudo",
        -8.855911931931638
      ],
      [
        "Ġgoverno",
        -8.857253401189725
      ],
      [
        "W",
        -8.857984074124749
      ],
      [
        "Ġ30",
        -8.85956193367826
      ],
      [
        "Ġato",
        -8.85967427328108
      ],
      [
        "Ġ21",
        -8.863895251265578
      ],
      [
        "Ġdesde",
        -8.865348941606532
      ],
      [
        "ĠfamÃŃlia",
        -8.867671365618387
      ],
      [
        "18",
        -8.869071095303228
      ],
      [
        "bilidade",
        -8.870555033653
      ],
      [
        "pol",
        -8.87215080175665
      ],
      [
        "ĠPMDB",
        -8.872656687676129
      ],
      [
        "Ġfor",
        -8.875914521163777
      ],
      [
        "Ġnovo",
        -8.875954587482886
      ],
      [
        "ĠGo",
        -8.878163479788538
      ],
      [
        "ĠlÃ¡",
        -8.879525502668427
      ],
      [
        "len",
        -8.879835178957146
      ],
      [
        "ĠpaÃŃs",
        -8.885635957588333
      ],
      [
        "ĠIsso",
        -8.886733777423254
      ],
      [
        "Ġdias",
        -8.887414559205034
      ],
      [
        "ĠUniÃ£o",
        -8.89017306827977
      ],
      [
        "ell",
        -8.89237915013425
      ],
      [
        "ĠMA",
        -8.892499634085699
      ],
      [
        "ĠUm",
        -8.892742822385884
      ],
      [
        "ĠEx",
        -8.892828308193984
      ],
      [
        "ang",
        -8.893679447889983
      ],
      [
        "03",
        -8.89467032545854
      ],
      [
        "Ġfaz",
        -8.8959397093661
      ],
      [
        "amente",
        -8.897808130497832
      ],
      [
        "į",
        -8.898026881150251
      ],
      [
        "Ġproposta",
        -8.898339505583692
      ],
      [
        "ĠHo",
        -8.898600606091414
      ],
      [
        "ĠpopulaÃ§Ã£o",
        -8.901662747922211
      ],
      [
        "Ġ23",
        -8.902638220720622
      ],
      [
        "ĠdÃ¡",
        -8.90390058006724
      ],
      [
        "02",
        -8.9045056585349
      ],
      [
        "ĠGu",
        -8.904665313050426
      ],
      [
        "ry",
        -8.906970337803688
      ],
      [
        "Ġbi",
        -8.907032796959935
      ],
      [
        "Ġsempre",
        -8.908540037052633
      ],
      [
        "05",
        -8.909383693606982
      ],
      [
        "gado",
        -8.91244100230871
      ],
      [
        "Ġali",
        -8.913234007318747
      ],
      [
        "Ġinciso",
        -8.915936641044189
      ],
      [
        "Ġbrasileiro",
        -8.916302264512643
      ],
      [
        "Ġeles",
        -8.920630686525033
      ],
      [
        "Ġduas",
        -8.927410578645533
      ],
      [
        "nas",
        -8.927647318898984
      ],
      [
        "ĠrelaÃ§Ã£o",
        -8.9276693353529
      ],
      [
        "ĠQue",
        -8.927714124691652
      ],
      [
        "Ġ:(",
        -8.929253338150927
      ],
      [
        "tion",
        -8.930229276293423
      ],
      [
        "07",
        -8.932995192917751
      ],
      [
        "ÃĥO",
        -8.933483966634492
      ],
      [
        "let",
        -8.93637082034457
      ],
      [
        "Ġmenos",
        -8.936799362109848
      ],
      [
        "ĠâĢĶ",
        -8.938077071906676
      ],
      [
        "ĠmilhÃµes",
        -8.938695920326884
      ],
      [
        "Ġpouco",
        -8.938889531714464
      ],
      [
        "Ġtinha",
        -8.940329227503774
      ],
      [
        "ĠEntÃ£o",
        -8.94184155319557
      ],
      [
        "Congresso",
        -8.943754384629688
      ],
      [
        "nesta",
        -8.945209371660875
      ],
      [
        "Ġpar",
        -8.946367723396014
      ],
      [
        "ĠvotaÃ§Ã£o",
        -8.95622888180654
      ],
      [
        "enti",
        -8.961268692770512
      ],
      [
        "âĢĵ",
        -8.961315472970353
      ],
      [
        "ĠFoi",
        -8.963025048716508
      ],
      [
        "17",
        -8.963518974687453
      ],
      [
        "Ġquanto",
        -8.963614389166256
      ],
      [
        "Ġbrasileira",
        -8.964272608132447
      ],
      [
        "tan",
        -8.966047383155512
      ],
      [
        "aprovaÃ§Ã£o",
        -8.966342835858253
      ],
      [
        "ĠPela",
        -8.967063605497835
      ],
      [
        "AÃĩÃĥO",
        -8.968026101311317
      ],
      [
        "06",
        -8.97021546932491
      ],
      [
        "Ġfavor",
        -8.971273933058146
      ],
      [
        "08",
        -8.971487305298396
      ],
      [
        "ago",
        -8.971507083470131
      ],
      [
        "ĠSul",
        -8.971630088612946
      ],
      [
        "neste",
        -8.973693969044527
      ],
      [
        "ense",
        -8.97397892719788
      ],
      [
        "nada",
        -8.975696557160525
      ],
      [
        "16",
        -8.97858586612251
      ],
      [
        "uma",
        -8.979987235676743
      ],
      [
        "via",
        -8.980054152706742
      ],
      [
        "ĠDr",
        -8.98062465802524
      ],
      [
        "ras",
        -8.98180169517048
      ],
      [
        "ĠperÃŃodo",
        -8.983623249633197
      ],
      [
        "Ġfim",
        -8.984467074843252
      ],
      [
        "Ġ25",
        -8.987492925322208
      ],
      [
        "agem",
        -8.987986237180504
      ],
      [
        "Ġbom",
        -8.988664083812152
      ],
      [
        "ÃĩÃĥO",
        -8.989659790784803
      ],
      [
        "Ġempresa",
        -8.990070568071982
      ],
      [
        "tel",
        -8.99119875947522
      ],
      [
        "ĠSt",
        -8.991765971893267
      ],
      [
        "ĠMan",
        -8.992218405656667
      ],
      [
        "Ġcausa",
        -8.997701696804016
      ],
      [
        "Ġpelos",
        -8.998003861456244
      ],
      [
        "ĠÃºnico",
        -9.000650432513606
      ],
      [
        "ÃŃn",
        -9.000653923119431
      ],
      [
        "ĠPoder",
        -9.001083794804444
      ],
      [
        "alÃ©m",
        -9.001496962186435
      ],
      [
        "ĠhistÃ³ria",
        -9.001638474530937
      ],
      [
        "ĠPi",
        -9.004347625921145
      ],
      [
        "ĠSi",
        -9.004759548301061
      ],
      [
        "ĠinformaÃ§Ãµes",
        -9.007594285487627
      ],
      [
        "cada",
        -9.007851532632063
      ],
      [
        "ĠCl",
        -9.008995762772214
      ],
      [
        "Ġbase",
        -9.010575410864089
      ],
      [
        "ĠsaÃºde",
        -9.012472237226488
      ],
      [
        "tÃ£o",
        -9.015119056547972
      ],
      [
        "Ġtodas",
        -9.015842320564436
      ],
      [
        "Ġvezes",
        -9.016621849349685
      ],
      [
        "vam",
        -9.018240982643016
      ],
      [
        "tÃ³rio",
        -9.018432492565749
      ],
      [
        "Ġcri",
        -9.018732505456589
      ],
      [
        "Ġ27",
        -9.019053651307296
      ],
      [
        "gio",
        -9.021627218468875
      ],
      [
        "Ġsocial",
        -9.022238272265833
      ],
      [
        "ĠregiÃ£o",
        -9.024473078216738
      ],
      [
        "04",
        -9.029885903405054
      ],
      [
        "iti",
        -9.030098529286644
      ],
      [
        "Ġexemplo",
        -9.030342607116218
      ],
      [
        "Ġmaio",
        -9.031563265149014
      ],
      [
        "Ġtrata",
        -9.03269239392717
      ],
      [
        "Ġfez",
        -9.033345101527946
      ],
      [
        "Ġcor",
        -9.033968640583655
      ],
      [
        "missÃ£o",
        -9.037250640377485
      ],
      [
        "âĢĿ,",
        -9.037813270646636
      ],
      [
        "ĠTr",
        -9.039141383415275
      ],
      [
        "PE",
        -9.039280579466242
      ],
      [
        "Ġnacional",
        -9.041929326597206
      ],
      [
        "Ġseria",
        -9.043616714027962
      ],
      [
        "Ġexternas",
        -9.0438164678071
      ],
      [
        "ĠLuiz",
        -9.044767104850171
      ],
      [
        "ĠtÃªm",
        -9.04507338815264
      ],
      [
        "bal",
        -9.045565021311894
      ],
      [
        "ĠquestÃ£o",
        -9.046805546377906
      ],
      [
        "Ġdiz",
        -9.046962918473673
      ],
      [
        "nho",
        -9.047321802086
      ],
      [
        "50",
        -9.047515039445052
      ],
      [
        "istas",
        -9.048032761615076
      ],
      [
        "LigaÃ§Ãµes",
        -9.051389399121597
      ],
      [
        "Ġlugar",
        -9.051608742595487
      ],
      [
        "Ġtendo",
        -9.056492142802226
      ],
      [
        "Ġrecurso",
        -9.05867329145238
      ],
      [
        "Ġpois",
        -9.059464742724174
      ],
      [
        "net",
        -9.06117023328865
      ],
      [
        "Ġtoda",
        -9.061673218947169
      ],
      [
        "ĠPer",
        -9.063690310405972
      ],
      [
        "Ġ2007",
        -9.064176519975366
      ],
      [
        "julho",
        -9.06488050028819
      ],
      [
        "ĠTi",
        -9.066393600634
      ],
      [
        "ĠHe",
        -9.06714339356857
      ],
      [
        "ĠExÂª",
        -9.069602401840465
      ],
      [
        "Ġpovo",
        -9.070129559525776
      ],
      [
        "Ġestado",
        -9.07207860161054
      ],
      [
        "til",
        -9.076775048326745
      ],
      [
        "sentido",
        -9.078957091105272
      ],
      [
        "Ġ26",
        -9.079697023819092
      ],
      [
        "ESSÃĥO",
        -9.079999056258233
      ],
      [
        "Ġ28",
        -9.08011264008832
      ],
      [
        "Ġsol",
        -9.082454178558391
      ],
      [
        "Ġquero",
        -9.083946359708031
      ],
      [
        "Ġalguns",
        -9.08469286865676
      ],
      [
        "setembro",
        -9.086497583950871
      ],
      [
        "Ġnova",
        -9.0900144410418
      ],
      [
        "Ġdata",
        -9.090049175162164
      ],
      [
        "30",
        -9.092557170912174
      ],
      [
        "eram",
        -9.09322134653946
      ],
      [
        "Ġvou",
        -9.09540537679997
      ],
      [
        "ĠBi",
        -9.097461755977047
      ],
      [
        "temos",
        -9.097553274951249
      ],
      [
        "Art",
        -9.09798301255148
      ],
      [
        "ĠtÃ£o",
        -9.098519863119977
      ],
      [
        "Ġnem",
        -9.106159012065229
      ],
      [
        "Ġmar",
        -9.106740488626404
      ],
      [
        "ĠCor",
        -9.108406768100158
      ],
      [
        "Ġcoisa",
        -9.110800363433928
      ],
      [
        "Â°",
        -9.11322723653067
      ],
      [
        "dispÃµe",
        -9.116238649578293
      ],
      [
        "posiÃ§Ã£o",
        -9.116954114668804
      ],
      [
        "chi",
        -9.118196893781583
      ],
      [
        "gan",
        -9.119144921289443
      ],
      [
        "Ġsociedade",
        -9.120748360044256
      ],
      [
        "Ġdisso",
        -9.120842298246751
      ],
      [
        "ris",
        -9.122207475150786
      ],
      [
        "Ġtipo",
        -9.12364094724973
      ],
      [
        "Ġmesma",
        -9.127387399316762
      ],
      [
        "Ġvolta",
        -9.12776427852755
      ],
      [
        "Ġpodem",
        -9.127832622349247
      ],
      [
        "junho",
        -9.129568675260671
      ],
      [
        "var",
        -9.131848707998827
      ],
      [
        "Muito",
        -9.132524649032476
      ],
      [
        "cado",
        -9.133929765823522
      ],
      [
        "US",
        -9.136416487315929
      ],
      [
        "UTC",
        -9.136955062892198
      ],
      [
        "Ġmedida",
        -9.136980553410552
      ],
      [
        "Ġtenho",
        -9.137088271089317
      ],
      [
        "CE",
        -9.137134999083289
      ],
      [
        "14",
        -9.137372125752387
      ],
      [
        "Ġteve",
        -9.138042240191773
      ],
      [
        "Ġsabe",
        -9.138585557861774
      ],
      [
        "ĠBu",
        -9.139088634070816
      ],
      [
        "ĠGrande",
        -9.140511279185104
      ],
      [
        "mas",
        -9.140798392674537
      ],
      [
        "Exa",
        -9.141599051914325
      ],
      [
        "ĠVamos",
        -9.142945705643347
      ],
      [
        "Ġ2008",
        -9.14415423355258
      ],
      [
        "Ġ2009",
        -9.144201745332875
      ],
      [
        "iano",
        -9.14449876700808
      ],
      [
        "ĠÃºltimo",
        -9.145303465684927
      ],
      [
        "ĠEla",
        -9.146366842159212
      ],
      [
        "Ġestou",
        -9.149027885087616
      ],
      [
        "ĠSanta",
        -9.15005253894547
      ],
      [
        "Decreto",
        -9.15136940841722
      ],
      [
        "Ġ2006",
        -9.15383912088273
      ],
      [
        "Ġfilme",
        -9.157335980952896
      ],
      [
        "Ġnada",
        -9.157999194405056
      ],
      [
        "ano",
        -9.1588579847556
      ],
      [
        "Ġdesenvolvimento",
        -9.159592910671757
      ],
      [
        "her",
        -9.16105305228788
      ],
      [
        "2015",
        -9.161682837794814
      ],
      [
        "ance",
        -9.163281448456924
      ],
      [
        "Ġquais",
        -9.169107613143792
      ],
      [
        "Ġestar",
        -9.172451779936782
      ],
      [
        "q",
        -9.172767252398714
      ],
      [
        "Ġoutra",
        -9.172834223604156
      ],
      [
        "ĠCha",
        -9.174790150493209
      ],
      [
        "bel",
        -9.17643563736124
      ],
      [
        "Ġvamos",
        -9.177233902392882
      ],
      [
        "ĵ",
        -9.177385220402908
      ],
      [
        "ĠVI",
        -9.177902427954042
      ],
      [
        "Ġsim",
        -9.178961862876992
      ],
      [
        "Ġconstitucional",
        -9.182518318405885
      ],
      [
        "ĠPA",
        -9.182636246891189
      ],
      [
        "90",
        -9.183852953119397
      ],
      [
        "PMDB",
        -9.184514241274623
      ],
      [
        "Ġnum",
        -9.18722147299163
      ],
      [
        "000",
        -9.19014165525607
      ],
      [
        "Ġpessoa",
        -9.1927084748398
      ],
      [
        "Ãī",
        -9.193624584357728
      ],
      [
        "Ġsei",
        -9.20153535583707
      ],
      [
        "ĠmarÃ§o",
        -9.202460933111434
      ],
      [
        "ly",
        -9.205428672806748
      ],
      [
        "ĠJaneiro",
        -9.206249097382356
      ],
      [
        "Ġagosto",
        -9.208270225374076
      ],
      [
        "Ġoutubro",
        -9.208538704587523
      ],
      [
        "ĠEste",
        -9.209083415243285
      ],
      [
        "Ġtexto",
        -9.213780927805738
      ],
      [
        "Ġ2011",
        -9.214495295401653
      ],
      [
        "98",
        -9.214805920874438
      ],
      [
        "Ð",
        -9.21798420430402
      ],
      [
        "ĠTem",
        -9.21921496316099
      ],
      [
        "ĠprÃ³prio",
        -9.219620826568296
      ],
      [
        "ĠEM",
        -9.21980106063229
      ],
      [
        "ĠmunicÃŃpio",
        -9.221956214133373
      ],
      [
        "Ġvota",
        -9.22612335963262
      ],
      [
        "ÃŃvel",
        -9.228367456967709
      ],
      [
        "ĠIII",
        -9.228893964093912
      ],
      [
        "Ġ2010",
        -9.231632474020248
      ],
      [
        "leg",
        -9.231811011690716
      ],
      [
        "Ġhavia",
        -9.233127117014256
      ],
      [
        "Ġpassa",
        -9.235154056107342
      ],
      [
        "ĠEduardo",
        -9.2370396944293
      ],
      [
        "Ġdessa",
        -9.237402153871944
      ],
      [
        "Ġabril",
        -9.24180751894389
      ],
      [
        "Ġluta",
        -9.243522525488364
      ],
      [
        "ĠtÃ©cnica",
        -9.243932869082393
      ],
      [
        "\")",
        -9.246822036740458
      ],
      [
        "Ġsemana",
        -9.248883746325273
      ],
      [
        "Ġprincipal",
        -9.249642284582787
      ],
      [
        "Ġjaneiro",
        -9.25094547332746
      ],
      [
        "ĠMin",
        -9.251676151452417
      ],
      [
        "Ġdesse",
        -9.25171494701166
      ],
      [
        "org",
        -9.253317586632164
      ],
      [
        "habitantes",
        -9.253358759273222
      ],
      [
        "ice",
        -9.256658154173923
      ],
      [
        "://",
        -9.25667156652742
      ],
      [
        "01",
        -9.259023998643311
      ],
      [
        "Ġempresas",
        -9.259432576319895
      ],
      [
        "ĠtÃŃtulo",
        -9.259761715785164
      ],
      [
        "ĠSala",
        -9.259868557651988
      ],
      [
        "Ġ2005",
        -9.260300608001849
      ],
      [
        "SP",
        -9.26050591104703
      ],
      [
        "Ġpresidente",
        -9.262010282124558
      ],
      [
        "Ġnovembro",
        -9.262407196478712
      ],
      [
        "2013",
        -9.26245189346158
      ],
      [
        "ĠÃ¡gua",
        -9.264581692615607
      ],
      [
        "ĠPARECER",
        -9.265543634801878
      ],
      [
        "ĠNO",
        -9.26601416486791
      ],
      [
        "ĠcondiÃ§Ãµes",
        -9.270410600998678
      ],
      [
        "ĠproduÃ§Ã£o",
        -9.270723226586108
      ],
      [
        "99",
        -9.273551099736467
      ],
      [
        "ĠEst",
        -9.274457034346954
      ],
      [
        "MunicÃŃpio",
        -9.274603369850295
      ],
      [
        "Ġreco",
        -9.27492884317635
      ],
      [
        "ĠsituaÃ§Ã£o",
        -9.2765744956684
      ],
      [
        "Ġsou",
        -9.277681458750202
      ],
      [
        "Ã¢ncia",
        -9.278907385149388
      ],
      [
        "ĠseguranÃ§a",
        -9.281325494455777
      ],
      [
        "NÃ³s",
        -9.282890943345844
      ],
      [
        "Ġprecisa",
        -9.283160289865004
      ],
      [
        "Ġtenha",
        -9.284156895847914
      ],
      [
        "Ġatual",
        -9.289198251661748
      ],
      [
        "ĠEstÃ¡",
        -9.29163258096238
      ],
      [
        "Ġfeito",
        -9.292280952209955
      ],
      [
        "ĠMaria",
        -9.296258698182417
      ],
      [
        "Ġtanto",
        -9.297987617358933
      ],
      [
        "Ġfalar",
        -9.2988389637973
      ],
      [
        "estamos",
        -9.300547617521564
      ],
      [
        "Ġvista",
        -9.302901330506678
      ],
      [
        "gia",
        -9.303891407362933
      ],
      [
        "ĠEssa",
        -9.305663307244286
      ],
      [
        "PSB",
        -9.307131443718513
      ],
      [
        "Ġ29",
        -9.307621621057994
      ],
      [
        "40",
        -9.307877426060571
      ],
      [
        "lei",
        -9.309535141359095
      ],
      [
        "sim",
        -9.310641550026324
      ],
      [
        "2011",
        -9.311398911329167
      ],
      [
        "ĠEmenda",
        -9.314339134111773
      ],
      [
        "Ġespecial",
        -9.31551016866742
      ],
      [
        "PR",
        -9.315625500605456
      ],
      [
        "Regimento",
        -9.316861071819789
      ],
      [
        "Ġalgo",
        -9.317422698935797
      ],
      [
        "Ġtotal",
        -9.319356144939846
      ],
      [
        "ĠEsse",
        -9.321204450738817
      ],
      [
        "Ġquatro",
        -9.321392405598294
      ],
      [
        "Ġjunto",
        -9.321570877445446
      ],
      [
        "ĠeducaÃ§Ã£o",
        -9.32276660126236
      ],
      [
        "ĠCi",
        -9.32406588063514
      ],
      [
        "aÃŃ",
        -9.326041861692625
      ],
      [
        "Ġverdade",
        -9.327281882147076
      ],
      [
        "ĠNi",
        -9.327535820993493
      ],
      [
        "ĠinÃŃcio",
        -9.328712184767197
      ],
      [
        "ĠChi",
        -9.329455894664653
      ],
      [
        "Ġpai",
        -9.330177302428371
      ],
      [
        "Ġenquanto",
        -9.33085482420513
      ],
      [
        "Ġponto",
        -9.332326879817934
      ],
      [
        "Â",
        -9.332563057385414
      ],
      [
        "SE",
        -9.332621310571156
      ],
      [
        "providÃªncias",
        -9.334593388240044
      ],
      [
        "Ġrespeito",
        -9.335168035290724
      ],
      [
        "ĠBar",
        -9.339093851719351
      ],
      [
        "Ġobjetivo",
        -9.34072519899714
      ],
      [
        "Ġrepresenta",
        -9.340914476089132
      ],
      [
        "Ġpena",
        -9.341803069508543
      ],
      [
        "ĠUma",
        -9.342268091857743
      ],
      [
        "Ġfevereiro",
        -9.342959059678469
      ],
      [
        "Ġboa",
        -9.344493867641075
      ],
      [
        "Ġpesquisa",
        -9.344810054005013
      ],
      [
        "Ġcargo",
        -9.346615149751395
      ],
      [
        "Ġlocal",
        -9.346710764898072
      ],
      [
        "feira",
        -9.350010430487954
      ],
      [
        "Ġdentro",
        -9.350129755867997
      ],
      [
        "Supremo",
        -9.350198448815709
      ],
      [
        "sessÃ£o",
        -9.353107675249245
      ],
      [
        "cimento",
        -9.35349300918532
      ],
      [
        "ĠÃĢ",
        -9.353781396082727
      ],
      [
        "Deputada",
        -9.354078051356312
      ],
      [
        "ĠSE",
        -9.354127937620683
      ],
      [
        "ĠPresidÃªncia",
        -9.354645321716209
      ],
      [
        "Ġdemais",
        -9.357698003640335
      ],
      [
        "Ġmim",
        -9.357953333133269
      ],
      [
        "ĠsÃ©rie",
        -9.360403236154829
      ],
      [
        "ĠPE",
        -9.360921926578516
      ],
      [
        "ĠVal",
        -9.362139415480032
      ],
      [
        "Ġhoras",
        -9.363047806287838
      ],
      [
        "Ġapoio",
        -9.36390486288003
      ],
      [
        "ĠInterno",
        -9.364479359819224
      ],
      [
        "25",
        -9.36697707519198
      ],
      [
        "Ġ31",
        -9.367562455049676
      ],
      [
        "Ġnorma",
        -9.368071453609764
      ],
      [
        "Ġ2013",
        -9.371508547491516
      ],
      [
        "Ġ(\"",
        -9.373430716969583
      ],
      [
        "Ġcara",
        -9.37361871042389
      ],
      [
        "Ġesco",
        -9.377045554165582
      ],
      [
        "Ģ",
        -9.377232357666912
      ],
      [
        "ĠPÃºblico",
        -9.38002530723122
      ],
      [
        "criaÃ§Ã£o",
        -9.381804056134287
      ],
      [
        "ĠpossÃŃvel",
        -9.38191045603451
      ],
      [
        "Ġficar",
        -9.38272743834836
      ],
      [
        "ĠBrasÃŃlia",
        -9.38464011994992
      ],
      [
        "â",
        -9.386782146271424
      ],
      [
        "PDT",
        -9.387712714552254
      ],
      [
        "ĠUnidos",
        -9.389649923079284
      ],
      [
        "Ġfalta",
        -9.390816641452425
      ],
      [
        "Ġconforme",
        -9.39156985880345
      ],
      [
        "Ġproblema",
        -9.392337600272034
      ],
      [
        "ĠTurma",
        -9.393412112236964
      ],
      [
        "Ġ2012",
        -9.39451815212925
      ],
      [
        "Ġnunca",
        -9.39567115776358
      ],
      [
        "Ġjogo",
        -9.397037361827618
      ],
      [
        "ĠConselho",
        -9.397189912578105
      ],
      [
        "zado",
        -9.39784909729975
      ],
      [
        "ĠQuando",
        -9.398094692169575
      ],
      [
        "tic",
        -9.39829220176516
      ],
      [
        "ĠpaÃŃses",
        -9.39998164651268
      ],
      [
        "van",
        -9.401392494451724
      ],
      [
        "Ġ2004",
        -9.401544211427945
      ],
      [
        "ĠEl",
        -9.40159978014734
      ],
      [
        "Ġleva",
        -9.402316436029226
      ],
      [
        "Ġparecer",
        -9.402442742316092
      ],
      [
        "onde",
        -9.403109436424511
      ],
      [
        "Ġthe",
        -9.40574376512912
      ],
      [
        "ĠUniversidade",
        -9.40774661560634
      ],
      [
        "Ġcerca",
        -9.408270796182617
      ],
      [
        "Ġmembro",
        -9.408704540907843
      ],
      [
        "ĠmÃºsica",
        -9.41354783075158
      ],
      [
        "lida",
        -9.414831983722944
      ],
      [
        "rin",
        -9.415296964731048
      ],
      [
        "ĠsÃ©culo",
        -9.415639157551276
      ],
      [
        "Ġobrigado",
        -9.415744918707285
      ],
      [
        "Ġeleito",
        -9.416309974660814
      ],
      [
        "defesa",
        -9.417521451981504
      ],
      [
        "ĠSilva",
        -9.4210388447839
      ],
      [
        "Ġequipe",
        -9.422648442060815
      ],
      [
        "ĠEducaÃ§Ã£o",
        -9.423436059875568
      ],
      [
        "devido",
        -9.425673653769326
      ],
      [
        "ĠKa",
        -9.426099459857811
      ],
      [
        "ĠPedro",
        -9.426906501096637
      ],
      [
        "CÃ³digo",
        -9.427015566637175
      ],
      [
        "MENTO",
        -9.427862654582391
      ],
      [
        "ĠSocial",
        -9.4280428416472
      ],
      [
        "Ġcinco",
        -9.429057128053191
      ],
      [
        "registro",
        -9.429655541264006
      ],
      [
        "tanto",
        -9.429778781843275
      ],
      [
        "ĠatravÃ©s",
        -9.430800898720555
      ],
      [
        "nico",
        -9.431531162318189
      ],
      [
        "Ġregimental",
        -9.431567918220749
      ],
      [
        "Ġsegunda",
        -9.436995146827778
      ],
      [
        "âĢĻ",
        -9.437110072101053
      ],
      [
        "gem",
        -9.438171621222992
      ],
      [
        "Ġpedido",
        -9.439649274554018
      ],
      [
        "ĠOliveira",
        -9.439824547099644
      ],
      [
        "PlenÃ¡rio",
        -9.440183778078415
      ],
      [
        "Ġkm",
        -9.441463166179904
      ],
      [
        "serviÃ§os",
        -9.44246177574008
      ],
      [
        "vin",
        -9.4451185774784
      ],
      [
        "Ġrealizada",
        -9.448127267262416
      ],
      [
        "Ġhouve",
        -9.44898405861136
      ],
      [
        "ĠTotal",
        -9.450659467458454
      ],
      [
        "Ġmal",
        -9.450845116029338
      ],
      [
        "Ġvem",
        -9.45206786006136
      ],
      [
        "Ġmorte",
        -9.452526912538952
      ],
      [
        "Ġdebate",
        -9.45319011123859
      ],
      [
        "28",
        -9.456397395080826
      ],
      [
        "ĠforÃ§a",
        -9.457352913395818
      ],
      [
        "Ġdireitos",
        -9.45748097933912
      ],
      [
        "ĠJÃ¡",
        -9.45777315962026
      ],
      [
        "ĠAb",
        -9.458655649936835
      ],
      [
        "Ġ50",
        -9.459991300833972
      ],
      [
        "Ġfazendo",
        -9.460132873970087
      ],
      [
        "Ġbusca",
        -9.461289128454302
      ],
      [
        "Ġfora",
        -9.46250263348371
      ],
      [
        "ĠprÃ³pria",
        -9.46375737779799
      ],
      [
        "Ġobjeto",
        -9.464934356249117
      ],
      [
        "29",
        -9.46774737907488
      ],
      [
        "Ġdeixa",
        -9.468132173526522
      ],
      [
        "ĠrazÃ£o",
        -9.468218185291455
      ],
      [
        "Ġencontra",
        -9.470662807649791
      ],
      [
        "vÃ¡rios",
        -9.472750663559232
      ],
      [
        "2000",
        -9.473585630695204
      ],
      [
        "tec",
        -9.473791301267635
      ],
      [
        "Ġacesso",
        -9.47383420229256
      ],
      [
        "ĠexercÃŃcio",
        -9.47442498508511
      ],
      [
        "Ġgeral",
        -9.475250400744532
      ],
      [
        "Ġatividade",
        -9.4757310819747
      ],
      [
        "ĠSaÃºde",
        -9.47641412003786
      ],
      [
        "Ġmeses",
        -9.476535933635288
      ],
      [
        "origem",
        -9.477010566303957
      ],
      [
        "Executivo",
        -9.478634096554028
      ],
      [
        "Ġ2003",
        -9.479590129672534
      ],
      [
        "Ġmercado",
        -9.482608911928097
      ],
      [
        "The",
        -9.485025914824003
      ],
      [
        "Ġfica",
        -9.485158832326968
      ],
      [
        "ĠÃ©poca",
        -9.485881116113328
      ],
      [
        "Ġ2015",
        -9.48656229540709
      ],
      [
        "Ġfilho",
        -9.48890921038035
      ],
      [
        "2008",
        -9.489076764282103
      ],
      [
        "ĠPP",
        -9.490238328730271
      ],
      [
        "Ã¡veis",
        -9.492106178187202
      ],
      [
        "ĠSegundo",
        -9.493073474604
      ],
      [
        "Ġdele",
        -9.493157906614115
      ],
      [
        "Ġocorre",
        -9.493196489587373
      ],
      [
        "AlÃ©m",
        -9.494866706014736
      ],
      [
        "ĠSra",
        -9.497317328562318
      ],
      [
        "ĠFilho",
        -9.49780941537527
      ],
      [
        "ĠAgora",
        -9.498271779659811
      ],
      [
        "Ġinclusive",
        -9.49959054082056
      ],
      [
        "ĠSub",
        -9.501961734330909
      ],
      [
        "Ġdados",
        -9.5039027027136
      ],
      [
        "Ġcultura",
        -9.50497885303741
      ],
      [
        "Ġfala",
        -9.505823103852643
      ],
      [
        "PTB",
        -9.50614371764073
      ],
      [
        "Ġfosse",
        -9.509992933422769
      ],
      [
        "Ġanterior",
        -9.510805691362885
      ],
      [
        "radiodifusÃ£o",
        -9.511528595917328
      ],
      [
        "2007",
        -9.511717597212057
      ],
      [
        "bit",
        -9.512269830750574
      ],
      [
        "Ġcrime",
        -9.512512401978258
      ],
      [
        ".âĢĿ",
        -9.514769407462174
      ],
      [
        "Ġpagamento",
        -9.514914945787863
      ],
      [
        "serÃ£o",
        -9.515280991926062
      ],
      [
        "Ġquase",
        -9.51537755229027
      ],
      [
        "Ġlegal",
        -9.516372386119476
      ],
      [
        "Ġobra",
        -9.516842378021082
      ],
      [
        "ĠRi",
        -9.51687303160578
      ],
      [
        "Ġsenhor",
        -9.517856068770811
      ],
      [
        "Ġqualidade",
        -9.518115381420198
      ],
      [
        "zada",
        -9.520460649454265
      ],
      [
        "STF",
        -9.522486324125165
      ],
      [
        "quer",
        -9.523756213773868
      ],
      [
        "altera",
        -9.524712221537396
      ],
      [
        "Ġnecessidade",
        -9.525033564384762
      ],
      [
        "ĠAG",
        -9.525290691125582
      ],
      [
        "ĠDeus",
        -9.526764169127544
      ],
      [
        "Ġpoderia",
        -9.52770960443723
      ],
      [
        "Ġalgumas",
        -9.5302343835574
      ],
      [
        "ĠpolÃŃtico",
        -9.532748353890035
      ],
      [
        "Ġ2014",
        -9.534273052072471
      ],
      [
        "Ġinteresse",
        -9.535323085088454
      ],
      [
        "Ġpartido",
        -9.53712178062955
      ],
      [
        "Ġminutos",
        -9.538140740193825
      ],
      [
        "ĠCOM",
        -9.538708640518154
      ],
      [
        "2010",
        -9.540699469965864
      ],
      [
        "Ġmaioria",
        -9.540846724841078
      ],
      [
        "ĠDia",
        -9.542318749110004
      ],
      [
        "cida",
        -9.542714968418045
      ],
      [
        "iana",
        -9.543337809182038
      ],
      [
        "ĠSan",
        -9.545486061757048
      ],
      [
        "Ġpelas",
        -9.547140059884034
      ],
      [
        "ong",
        -9.549383098574328
      ],
      [
        "Ġpossa",
        -9.549784730101202
      ],
      [
        "ĠCiÃªncia",
        -9.550541825527205
      ],
      [
        "ff",
        -9.55170067108612
      ],
      [
        "Ġlinha",
        -9.551894810039338
      ],
      [
        "Ġdinheiro",
        -9.552305310670144
      ],
      [
        "Ġcerto",
        -9.553935538253286
      ],
      [
        "Ġmodo",
        -9.554519063986502
      ],
      [
        "Ġformula",
        -9.554611072727168
      ],
      [
        "Ġconhecido",
        -9.554638263487568
      ],
      [
        "ĠNos",
        -9.555713394813557
      ],
      [
        "Ġrede",
        -9.555943015429374
      ],
      [
        "essÃµes",
        -9.557710949489866
      ],
      [
        "Ġesses",
        -9.557850122453448
      ],
      [
        "Ĥ",
        -9.55996115290326
      ],
      [
        "Ġemenda",
        -9.56023391325187
      ],
      [
        "Ġrequerimento",
        -9.56278043847912
      ],
      [
        "tido",
        -9.562790015666383
      ],
      [
        "Ġ2016",
        -9.562902794822428
      ],
      [
        "land",
        -9.565047709494936
      ],
      [
        "emos",
        -9.566470590783016
      ],
      [
        "Ġnesse",
        -9.56778643364442
      ],
      [
        "Ġsolicita",
        -9.567802081517044
      ],
      [
        "aumento",
        -9.567945280195666
      ],
      [
        ");",
        -9.568581425979213
      ],
      [
        "Ġparece",
        -9.569665652130032
      ],
      [
        "Ġautor",
        -9.569712954807487
      ],
      [
        "ĠHÃ¡",
        -9.570051879161303
      ],
      [
        "Ġplano",
        -9.57284476732456
      ],
      [
        "Ġensino",
        -9.572880151843286
      ],
      [
        "Ġdeixar",
        -9.573174506917503
      ],
      [
        "agravo",
        -9.573300813941376
      ],
      [
        "ĠNova",
        -9.575485410076086
      ],
      [
        "Ġdez",
        -9.575827959128825
      ],
      [
        "https",
        -9.577437487232658
      ],
      [
        "Ġnorte",
        -9.577704584126248
      ],
      [
        "ĠLÃŃder",
        -9.578574502198403
      ],
      [
        "iam",
        -9.579039291438638
      ],
      [
        "culo",
        -9.579081945517812
      ],
      [
        "americano",
        -9.580113160325428
      ],
      [
        "ĠPrograma",
        -9.580987427706072
      ],
      [
        "nÃŃvel",
        -9.58197513920391
      ],
      [
        "Ġproduto",
        -9.582673129203156
      ],
      [
        "Ġreforma",
        -9.583954494492442
      ],
      [
        "mÃ¡tica",
        -9.583997251127158
      ],
      [
        "ĠprÃ¡tica",
        -9.58402641493151
      ],
      [
        "anÃ¡lise",
        -9.585318343590837
      ],
      [
        "ĠreuniÃ£o",
        -9.585516160987952
      ],
      [
        "Ġcampo",
        -9.586043815530992
      ],
      [
        "Ġnuma",
        -9.586317020450036
      ],
      [
        "Ġ100",
        -9.586668552290329
      ],
      [
        "ĠÃºltima",
        -9.586788131932511
      ],
      [
        "Ġespera",
        -9.587078469260703
      ],
      [
        "EIRA",
        -9.587136678726324
      ],
      [
        "ĠAssim",
        -9.588233985987392
      ],
      [
        "ĠmÃ£e",
        -9.590032953003508
      ],
      [
        "ĠLula",
        -9.593173495022228
      ],
      [
        "ĠParecer",
        -9.594077640328887
      ],
      [
        "Ġmuitas",
        -9.594488272580216
      ],
      [
        "Ġmarca",
        -9.594659405292502
      ],
      [
        "Ġnoite",
        -9.595398071754914
      ],
      [
        "redaÃ§Ã£o",
        -9.597238520791748
      ],
      [
        "entanto",
        -9.599272280710592
      ],
      [
        "Ġsuperior",
        -9.601066804639611
      ],
      [
        "ĠSua",
        -9.601864353510766
      ],
      [
        "requer",
        -9.602702553737736
      ],
      [
        "ĠLegislativo",
        -9.602739882069288
      ],
      [
        "somente",
        -9.604259419537511
      ],
      [
        "Ġhomem",
        -9.604786404126113
      ],
      [
        "Ġregime",
        -9.604894680296496
      ],
      [
        "ĠparticipaÃ§Ã£o",
        -9.605374612616012
      ],
      [
        "ĠThe",
        -9.605456430695344
      ],
      [
        "ĠPÃºblica",
        -9.605864343013614
      ],
      [
        "ĠDJ",
        -9.612152410774424
      ],
      [
        "Ġoficial",
        -9.614322213425316
      ],
      [
        "Ġcontrole",
        -9.615173761340726
      ],
      [
        "Ġsetor",
        -9.616442800398524
      ],
      [
        "ĠcrÃ©dito",
        -9.616742297817067
      ],
      [
        "Ġlongo",
        -9.616940155792433
      ],
      [
        "Ġtarde",
        -9.61757931376083
      ],
      [
        "Ġprova",
        -9.61765655039161
      ],
      [
        "ĠFernando",
        -9.61856074423946
      ],
      [
        "ĠRoberto",
        -9.62053916207334
      ],
      [
        "cionais",
        -9.62279896202074
      ],
      [
        "Ġcorpo",
        -9.624563916996811
      ],
      [
        "ĠAssociaÃ§Ã£o",
        -9.627040003220436
      ],
      [
        "ĠSÃ³",
        -9.627953527458288
      ],
      [
        "ĠlegislaÃ§Ã£o",
        -9.630347202126062
      ],
      [
        "Ġcontrato",
        -9.630830571745694
      ],
      [
        "ĠTrabalho",
        -9.63199287922282
      ],
      [
        "passou",
        -9.633634700406365
      ],
      [
        "2012",
        -9.633744043456026
      ],
      [
        "Ġgrandes",
        -9.634023032274454
      ],
      [
        "nessa",
        -9.634701963276862
      ],
      [
        "ĠIV",
        -9.63622763028704
      ],
      [
        "Ġjulgamento",
        -9.636293065435517
      ],
      [
        "Ġfeita",
        -9.63747628324072
      ],
      [
        "Ġacho",
        -9.638369710361602
      ],
      [
        "Ġacha",
        -9.640289629718463
      ],
      [
        "Ġauto",
        -9.640865894661411
      ],
      [
        "Ġpreciso",
        -9.641055974456744
      ],
      [
        "ĠpublicaÃ§Ã£o",
        -9.641246586021625
      ],
      [
        "2016",
        -9.641990290794562
      ],
      [
        "Ã¼",
        -9.643261300514745
      ],
      [
        "ĠMarco",
        -9.644706208364036
      ],
      [
        "Ġsaber",
        -9.648620187580798
      ],
      [
        "har",
        -9.64912867984033
      ],
      [
        "ĠMaia",
        -9.649400560702269
      ],
      [
        "economia",
        -9.650938743249547
      ],
      [
        "relatÃ³rio",
        -9.652386633459756
      ],
      [
        "Ã§",
        -9.652665979073994
      ],
      [
        "ĠextraordinÃ¡rio",
        -9.654412496067634
      ],
      [
        "Ġbrasileiros",
        -9.65452772995078
      ],
      [
        "Ġessas",
        -9.656011239961394
      ],
      [
        "Ġentra",
        -9.65920677920713
      ],
      [
        "ĠPortugal",
        -9.661611422117083
      ],
      [
        "Ġconstante",
        -9.6641749917417
      ],
      [
        "Ġenergia",
        -9.664716694899452
      ],
      [
        "conjunto",
        -9.66511537041322
      ],
      [
        "realizaÃ§Ã£o",
        -9.667139316378268
      ],
      [
        "ĠconstruÃ§Ã£o",
        -9.667144550257833
      ],
      [
        "ĠespÃ©cie",
        -9.667148109808776
      ],
      [
        "mÃŃnimo",
        -9.667832609614589
      ],
      [
        "mulheres",
        -9.668227284602294
      ],
      [
        "ĠdiscussÃ£o",
        -9.670234816668588
      ],
      [
        "Ġhora",
        -9.671001844302872
      ],
      [
        "Ġafirma",
        -9.67161624920756
      ],
      [
        "ĠnecessÃ¡rio",
        -9.671736101168316
      ],
      [
        "ĠPode",
        -9.672652327037635
      ],
      [
        "Ġpossui",
        -9.672782008642663
      ],
      [
        "Ġrei",
        -9.673535022092796
      ],
      [
        "Ġmaneira",
        -9.676246458150162
      ],
      [
        "QUE",
        -9.676285792885109
      ],
      [
        "Ġpessoal",
        -9.677564733509389
      ],
      [
        "Ġgente",
        -9.67761558534488
      ],
      [
        "ĠÃ¡lbum",
        -9.678267644657346
      ],
      [
        "ĠcrianÃ§as",
        -9.678333433191144
      ],
      [
        "Ġdecidi",
        -9.678516279496886
      ],
      [
        "ĠBem",
        -9.680080807738108
      ],
      [
        "Ġterra",
        -9.680970487496328
      ],
      [
        "Ġ54",
        -9.680991130873602
      ],
      [
        "vÃ¡rias",
        -9.681197949160602
      ],
      [
        "ĠediÃ§Ã£o",
        -9.681595201295988
      ],
      [
        "ficado",
        -9.68217894812167
      ],
      [
        "Ġ32",
        -9.684134257531603
      ],
      [
        "ĠMinas",
        -9.684456625743682
      ],
      [
        "Partido",
        -9.684677063927593
      ],
      [
        "2014",
        -9.686449359752745
      ],
      [
        "Ġfrente",
        -9.686651623888858
      ],
      [
        "Ġassunto",
        -9.687476208140277
      ],
      [
        "Ġprincipalmente",
        -9.687833664550425
      ],
      [
        "essÃ£o",
        -9.688447446250713
      ],
      [
        "Ġapresenta",
        -9.688822983769828
      ],
      [
        "Ġchamado",
        -9.688861080344
      ],
      [
        "possibilidade",
        -9.688927470241207
      ],
      [
        "ĠMesa",
        -9.689620137319146
      ],
      [
        "ĠDEM",
        -9.68983499561894
      ],
      [
        "legislativa",
        -9.690223113646583
      ],
      [
        "ĠEstou",
        -9.691652496585164
      ],
      [
        "tÃ³ria",
        -9.69178554093498
      ],
      [
        "poderÃ¡",
        -9.691978555933908
      ],
      [
        "Ġespe",
        -9.69280450902168
      ],
      [
        "Í",
        -9.693823247296232
      ],
      [
        "ĠDesenvolvimento",
        -9.694530477199262
      ],
      [
        "ĠespaÃ§o",
        -9.69522816368174
      ],
      [
        "Ġpapel",
        -9.69530608394105
      ],
      [
        "Î",
        -9.695756501904002
      ],
      [
        "Ġporta",
        -9.697694452252922
      ],
      [
        "Ġforte",
        -9.698574684282203
      ],
      [
        "Ġteria",
        -9.698917447684387
      ],
      [
        "ĠFrancisco",
        -9.699134553457904
      ],
      [
        "Ġ40",
        -9.699151281720033
      ],
      [
        "ĠNorte",
        -9.699192070733323
      ],
      [
        "DEM",
        -9.701263024151842
      ],
      [
        "Ġcapital",
        -9.703278917312186
      ],
      [
        "Ġreal",
        -9.704628665363373
      ],
      [
        "presenÃ§a",
        -9.704956605744911
      ],
      [
        "ĠvÃ£o",
        -9.705416888941173
      ],
      [
        "Ġtal",
        -9.705976708122384
      ],
      [
        "Ġarma",
        -9.70659854496578
      ],
      [
        "Ġouvi",
        -9.70743022516634
      ],
      [
        "reais",
        -9.708193843509166
      ],
      [
        "Ġaltera",
        -9.708821759334942
      ],
      [
        "ĩ",
        -9.70969154033848
      ],
      [
        "Ġlhe",
        -9.71152243553374
      ],
      [
        "Ġmuitos",
        -9.71254536868368
      ],
      [
        "Ġmostra",
        -9.713464823917484
      ],
      [
        "remos",
        -9.714226090855185
      ],
      [
        "lada",
        -9.714319087464682
      ],
      [
        "Ġproblemas",
        -9.714784384879282
      ],
      [
        "lla",
        -9.716224929032816
      ],
      [
        "concessÃ£o",
        -9.718081215594156
      ],
      [
        "Ġbanda",
        -9.71808517205784
      ],
      [
        "dÃ©cada",
        -9.718995549672332
      ],
      [
        "#",
        -9.719609266464175
      ],
      [
        "Ġprofessor",
        -9.720374194039742
      ],
      [
        "Ġconhecimento",
        -9.722262376811528
      ],
      [
        "Ġestrutura",
        -9.723029671762058
      ],
      [
        "prÃ³ximo",
        -9.724018969761117
      ],
      [
        "ĠSP",
        -9.72408510436331
      ],
      [
        "execuÃ§Ã£o",
        -9.72426761389852
      ],
      [
        "Ġvia",
        -9.724322950896184
      ],
      [
        "ĠPRO",
        -9.724927830206784
      ],
      [
        "Ġposso",
        -9.725399867493962
      ],
      [
        "Ġalguma",
        -9.72541384600118
      ],
      [
        "MunicÃŃpios",
        -9.726315273231162
      ],
      [
        "Ġ2017",
        -9.729187402842808
      ],
      [
        "Ġembora",
        -9.729323995170413
      ],
      [
        "aprovado",
        -9.732864677732948
      ],
      [
        "ĠRIC",
        -9.73357012169151
      ],
      [
        "Ġlivro",
        -9.733688870339886
      ],
      [
        "responsabilidade",
        -9.734331184592536
      ],
      [
        "Ġdeveria",
        -9.73493540514036
      ],
      [
        "Ġoportunidade",
        -9.736333748548722
      ],
      [
        "Ġcoisas",
        -9.736894593428003
      ],
      [
        "Ġpassado",
        -9.737349310852794
      ],
      [
        "COMISSÃĥO",
        -9.737917335976224
      ],
      [
        "Ġ:)",
        -9.738715647583136
      ],
      [
        "ĠAntonio",
        -9.74027640568514
      ],
      [
        "Ġalgum",
        -9.741838307081071
      ],
      [
        "ã",
        -9.743581750978136
      ],
      [
        "ssem",
        -9.743815793773402
      ],
      [
        "Ġsignifica",
        -9.7440169272392
      ],
      [
        "assi",
        -9.744139023489367
      ],
      [
        "):",
        -9.744400901427914
      ],
      [
        "ĠcompetÃªncia",
        -9.744729342370768
      ],
      [
        "Ġescola",
        -9.744859833300362
      ],
      [
        "ĠfunÃ§Ã£o",
        -9.74486048793411
      ],
      [
        "ĠimportÃ¢ncia",
        -9.748136786851893
      ],
      [
        "atividades",
        -9.748252967604518
      ],
      [
        "gestÃ£o",
        -9.749063963021326
      ],
      [
        "ĠmÃ©dia",
        -9.749574409942802
      ],
      [
        "IDADE",
        -9.75029098841327
      ],
      [
        "ĠApÃ³s",
        -9.750549882930729
      ],
      [
        "Distrito",
        -9.750606516443044
      ],
      [
        "sejam",
        -9.750997614045485
      ],
      [
        "ĠRel",
        -9.752347232241387
      ],
      [
        "Ġautoriza",
        -9.753818461313363
      ],
      [
        "previsto",
        -9.755321638642716
      ],
      [
        "RECURSO",
        -9.755771742767717
      ],
      [
        "Ġmulher",
        -9.756398461379868
      ],
      [
        "Defesa",
        -9.756941417152412
      ],
      [
        "uti",
        -9.756959794893197
      ],
      [
        "disposto",
        -9.758051802644204
      ],
      [
        "ĠCivil",
        -9.758454084203892
      ],
      [
        "Ġajuda",
        -9.760300296076236
      ],
      [
        "Ġ1990",
        -9.76081082518136
      ],
      [
        "&",
        -9.761318202324931
      ],
      [
        "portanto",
        -9.764047407027729
      ],
      [
        "ĠSer",
        -9.764421751019883
      ],
      [
        "*",
        -9.764714322224506
      ],
      [
        "cÃ³rdÃ£o",
        -9.769186581087276
      ],
      [
        "sociais",
        -9.7705978288937
      ],
      [
        "ĠVice",
        -9.771399303949757
      ],
      [
        "ĠEMENDA",
        -9.771636775656756
      ],
      [
        "Ġlista",
        -9.771911530727138
      ],
      [
        "nÃ£o",
        -9.772772167590077
      ],
      [
        "Ġmodelo",
        -9.775750856220991
      ],
      [
        "ĠTecnologia",
        -9.778086630953696
      ],
      [
        "Ġ2020",
        -9.77883310752055
      ],
      [
        "discussÃ£o",
        -9.7797048708066
      ],
      [
        "pensado",
        -9.78134599035536
      ],
      [
        "ĠmudanÃ§a",
        -9.784250184310288
      ],
      [
        "Presidente",
        -9.785073216190304
      ],
      [
        "Ġ2002",
        -9.785628495487522
      ],
      [
        "obras",
        -9.786319513799166
      ],
      [
        "Geral",
        -9.78641908864793
      ],
      [
        "risco",
        -9.787627876542802
      ],
      [
        "mÃªs",
        -9.787977657247064
      ],
      [
        "Ġtitular",
        -9.78810209381524
      ],
      [
        "Ġ2019",
        -9.789234514100391
      ],
      [
        "Ġ60",
        -9.78981641122857
      ],
      [
        "Ġalta",
        -9.790118390471193
      ],
      [
        "ĠPrimeira",
        -9.790312736185465
      ],
      [
        "ĠprincÃŃpio",
        -9.790905266840104
      ],
      [
        "Ġmedi",
        -9.790982235198411
      ],
      [
        "REG",
        -9.79101598895894
      ],
      [
        "exame",
        -9.791214629341278
      ],
      [
        "ĠquÃª",
        -9.7912874037026
      ],
      [
        "Ġefeito",
        -9.791293865579355
      ],
      [
        "Â²",
        -9.791608951946158
      ],
      [
        "Ġqueria",
        -9.79196081388122
      ],
      [
        "ĠComunicaÃ§Ã£o",
        -9.792666647995867
      ],
      [
        "lÃ³gica",
        -9.79273507038612
      ],
      [
        "Ġnenhum",
        -9.792883593736542
      ],
      [
        "iniciativa",
        -9.792959714330111
      ],
      [
        "ĠpÃ¡gina",
        -9.793906428313544
      ],
      [
        "ĠinglÃªs",
        -9.794013682879214
      ],
      [
        "Ġexiste",
        -9.794420889569322
      ],
      [
        "ServiÃ§o",
        -9.795318771389203
      ],
      [
        "ĠBrasileiro",
        -9.795765949723563
      ],
      [
        "ĠSeu",
        -9.79592841412452
      ],
      [
        "Ġjoga",
        -9.797899331813255
      ],
      [
        "podemos",
        -9.798198152493796
      ],
      [
        "ley",
        -9.798278899604584
      ],
      [
        "Campeonato",
        -9.799123142116112
      ],
      [
        "mÃ©rito",
        -9.799336634231008
      ],
      [
        "Ġficou",
        -9.801278676802738
      ],
      [
        "Ġfinanceira",
        -9.802452764601808
      ],
      [
        "prevista",
        -9.803398994366257
      ],
      [
        "Ġlogo",
        -9.8034804689035
      ],
      [
        "ĠREQUERIMENTO",
        -9.803967300091715
      ],
      [
        "carreira",
        -9.805007894245447
      ],
      [
        "ĠInstituto",
        -9.80576485784089
      ],
      [
        "ĠCorte",
        -9.807599502100024
      ],
      [
        "Ġtema",
        -9.807725764569271
      ],
      [
        "ĠObrigado",
        -9.808628167793604
      ],
      [
        "2005",
        -9.808650527897502
      ],
      [
        "age",
        -9.808885497995105
      ],
      [
        "emprego",
        -9.809103265402502
      ],
      [
        "ĠTV",
        -9.810116611612042
      ],
      [
        "ģ",
        -9.81379292291473
      ],
      [
        "Ġprofissional",
        -9.813882542031466
      ],
      [
        "Ġexplic",
        -9.814082939334478
      ],
      [
        "tive",
        -9.81458169217202
      ],
      [
        "Ġ2000",
        -9.814980359937502
      ],
      [
        "Ġtemporada",
        -9.816054585430864
      ],
      [
        "Ġsucesso",
        -9.817447359936349
      ],
      [
        "ĠGar",
        -9.818724273352885
      ],
      [
        "jurÃŃdica",
        -9.819617748894183
      ],
      [
        "bilhÃµes",
        -9.819873497406563
      ],
      [
        "discurso",
        -9.820105986679025
      ],
      [
        "ĠAmÃ©rica",
        -9.82076877774911
      ],
      [
        "ĠExcelÃªncia",
        -9.823191335137782
      ],
      [
        "ontem",
        -9.823779327390463
      ],
      [
        "tia",
        -9.823798409362327
      ],
      [
        "pressÃ£o",
        -9.824367365850042
      ],
      [
        "ĠCosta",
        -9.824859190212097
      ],
      [
        "Ã¢mbito",
        -9.825064919731506
      ],
      [
        "ĠTh",
        -9.825124834173936
      ],
      [
        "TambÃ©m",
        -9.825421098613775
      ],
      [
        "Ġvigor",
        -9.826341349921872
      ],
      [
        "Ġchegar",
        -9.826359926908747
      ],
      [
        "Ġhaver",
        -9.826697739051658
      ],
      [
        "Ġnobre",
        -9.82673478220794
      ],
      [
        "Ġclube",
        -9.829279825238045
      ],
      [
        "mandato",
        -9.82938796374414
      ],
      [
        "posiÃ§Ãµes",
        -9.829777620758572
      ],
      [
        "ĠCunha",
        -9.83036531005476
      ],
      [
        "Ġcampanha",
        -9.83075296609995
      ],
      [
        "ĠMIN",
        -9.831186884804724
      ],
      [
        "Ġaquele",
        -9.832099723567454
      ],
      [
        "ĠRequerimento",
        -9.832646456503683
      ],
      [
        "Ġpauta",
        -9.833772797438872
      ],
      [
        "econÃ´mica",
        -9.834304125314878
      ],
      [
        "tornou",
        -9.83484227075298
      ],
      [
        "Ġconsta",
        -9.83540327545774
      ],
      [
        "Ġcerteza",
        -9.83566463088135
      ],
      [
        "motivo",
        -9.836844695205937
      ],
      [
        "Ġtransporte",
        -9.837923376080555
      ],
      [
        "2019",
        -9.83851230417034
      ],
      [
        "ĠTu",
        -9.838664797103634
      ],
      [
        "Depois",
        -9.840453955813215
      ],
      [
        "membros",
        -9.840946158066538
      ],
      [
        "Ġresultado",
        -9.84213274320368
      ],
      [
        "Ġ2001",
        -9.843158447162107
      ],
      [
        "comeÃ§ou",
        -9.843586882040295
      ],
      [
        "ÃļLTI",
        -9.843749946677452
      ],
      [
        "Ġfederal",
        -9.844532572536034
      ],
      [
        "Ġoriginal",
        -9.84485161690621
      ],
      [
        "Ġrefere",
        -9.845214861357857
      ],
      [
        "vendo",
        -9.84557561710413
      ],
      [
        "Ġcentro",
        -9.845729640002316
      ],
      [
        "Ġinfra",
        -9.845835958860622
      ],
      [
        "ĠGuerra",
        -9.845909136526023
      ],
      [
        "ĠalguÃ©m",
        -9.846533256574332
      ],
      [
        "Ġmovimento",
        -9.84710727478956
      ],
      [
        "serem",
        -9.847560345875882
      ],
      [
        "shi",
        -9.848376912329192
      ],
      [
        "ĠaplicaÃ§Ã£o",
        -9.848734612935154
      ],
      [
        "Ġsede",
        -9.849740551933811
      ],
      [
        "Ġrealizado",
        -9.850079919143928
      ],
      [
        "ĠterritÃ³rio",
        -9.85126566567454
      ],
      [
        "Ġprojetos",
        -9.851267704617465
      ],
      [
        "Ġtribuna",
        -9.851775632257404
      ],
      [
        "Ġprincipais",
        -9.852825672383098
      ],
      [
        "valores",
        -9.853226249069332
      ],
      [
        "Ġfiscal",
        -9.853877388902658
      ],
      [
        "ĠCopa",
        -9.853958770076698
      ],
      [
        "ĠSecretaria",
        -9.854761461352908
      ],
      [
        "Ġcombate",
        -9.857465195877
      ],
      [
        "ÃĩÃķES",
        -9.858052474593144
      ],
      [
        "Ã³rgÃ£o",
        -9.858225491602608
      ],
      [
        "Ġ1998",
        -9.858692710798747
      ],
      [
        "comunicaÃ§Ã£o",
        -9.859376776192596
      ],
      [
        "Ġcriar",
        -9.859924861426071
      ],
      [
        "Ġindica",
        -9.860341040602732
      ],
      [
        "ĥ",
        -9.861050706266475
      ],
      [
        "CURSO",
        -9.861201732479737
      ],
      [
        "Ġclaro",
        -9.862338440274778
      ],
      [
        "ĠEspecial",
        -9.862645443674728
      ],
      [
        "ĠinformaÃ§Ã£o",
        -9.865123135633125
      ],
      [
        "Ġconsiderado",
        -9.866571250080575
      ],
      [
        "Ġideia",
        -9.867283601442177
      ],
      [
        "Ġrenda",
        -9.868575223529207
      ],
      [
        "ENTE",
        -9.869746940171956
      ],
      [
        "Ġfiz",
        -9.87062824240729
      ],
      [
        "Ġcrise",
        -9.872569406946436
      ],
      [
        "Ġnatureza",
        -9.872838248968916
      ],
      [
        "Ġperde",
        -9.87428897021981
      ],
      [
        "ĠcomeÃ§a",
        -9.875536539216792
      ],
      [
        "Ġautos",
        -9.875900923234976
      ],
      [
        "2017",
        -9.876159830826
      ],
      [
        "deverÃ¡",
        -9.878000490656891
      ],
      [
        "Ġturno",
        -9.87809703188745
      ],
      [
        "Ġfase",
        -9.878511609676822
      ],
      [
        "apreciaÃ§Ã£o",
        -9.878896717646908
      ],
      [
        "han",
        -9.879762575207405
      ],
      [
        "Ġpontos",
        -9.879961125243431
      ],
      [
        "salÃ¡rio",
        -9.880314566703866
      ],
      [
        "ĠatenÃ§Ã£o",
        -9.881184740537869
      ],
      [
        "Rodrigo",
        -9.883018394167792
      ],
      [
        "Ġlivre",
        -9.884356082153092
      ],
      [
        "provimento",
        -9.886951953184068
      ],
      [
        "Ġpenal",
        -9.88759550440603
      ],
      [
        "Ġnota",
        -9.887702596334275
      ],
      [
        "aquela",
        -9.88793444469886
      ],
      [
        "Ġdisputa",
        -9.889691726898144
      ],
      [
        "ĠQuero",
        -9.891479229061824
      ],
      [
        "Ordem",
        -9.891587260406334
      ],
      [
        "ĠRicardo",
        -9.891847374061816
      ],
      [
        "chegou",
        -9.893781619673817
      ],
      [
        "Ġprocura",
        -9.894207646341158
      ],
      [
        "institui",
        -9.894621070993932
      ],
      [
        "ĠQuem",
        -9.89740278812672
      ],
      [
        "Ġ2018",
        -9.898258830499598
      ],
      [
        "ĠSistema",
        -9.898781601039085
      ],
      [
        "ĠSanto",
        -9.899369411660905
      ],
      [
        "ĠAlves",
        -9.89967399914652
      ],
      [
        "Ġautoria",
        -9.90044809219657
      ],
      [
        "ĠHenrique",
        -9.901979317808827
      ],
      [
        "Ġisto",
        -9.902009626870356
      ],
      [
        "Ġsul",
        -9.902580359476238
      ],
      [
        "Ġcaput",
        -9.90330947752115
      ],
      [
        "Ġcaminho",
        -9.903829426507778
      ],
      [
        "ĠAGRAV",
        -9.904447348646691
      ],
      [
        "existÃªncia",
        -9.90455193202512
      ],
      [
        "Ġdiferentes",
        -9.906355704418642
      ],
      [
        "stÃµes",
        -9.90637403762059
      ],
      [
        "ĠMINISTR",
        -9.906447719803454
      ],
      [
        "Ġguerra",
        -9.906762875598329
      ],
      [
        "ĠDireito",
        -9.90817125683658
      ],
      [
        "ĠPereira",
        -9.910853162387882
      ],
      [
        "Ġcategoria",
        -9.911345374844649
      ],
      [
        "ĠEles",
        -9.91251339648464
      ],
      [
        "fusÃ£o",
        -9.913335474537329
      ],
      [
        "candidato",
        -9.913347059994395
      ],
      [
        "ĠEsc",
        -9.913658713065995
      ],
      [
        "SOL",
        -9.913878525295734
      ],
      [
        "Ġigual",
        -9.914526403377591
      ],
      [
        "lÃ³gico",
        -9.915583680843165
      ],
      [
        "grafia",
        -9.915966414409828
      ],
      [
        "Ġcivil",
        -9.916131624607754
      ],
      [
        "ĠParlamentar",
        -9.91822085796241
      ],
      [
        "Ġmenor",
        -9.91911258484561
      ],
      [
        "ĠSantos",
        -9.92026476787545
      ],
      [
        "ĠOh",
        -9.920402090197465
      ],
      [
        "ĠÃºnica",
        -9.920842156234608
      ],
      [
        "acima",
        -9.922555803292086
      ],
      [
        "Cidadania",
        -9.922809374699929
      ],
      [
        "Ġcomunidade",
        -9.923402251622685
      ],
      [
        "ļ",
        -9.92417410123489
      ],
      [
        "ĠformaÃ§Ã£o",
        -9.925245868110046
      ],
      [
        "ĠMal",
        -9.925337625122362
      ],
      [
        "PolÃŃcia",
        -9.927160293646448
      ],
      [
        "cujo",
        -9.92891045381982
      ],
      [
        "Ġinicia",
        -9.92983719275034
      ],
      [
        "Ġseis",
        -9.930163186488128
      ],
      [
        "Ġinternacional",
        -9.93020475042333
      ],
      [
        "Ġatingi",
        -9.93107682419021
      ],
      [
        "ĠMais",
        -9.931747088912946
      ],
      [
        "ĠAna",
        -9.931797819035332
      ],
      [
        "ĠDias",
        -9.932047677245995
      ],
      [
        "Ġvisita",
        -9.93272489337748
      ],
      [
        "Ġextra",
        -9.93304505855584
      ],
      [
        "Ã³rgÃ£os",
        -9.934344821268972
      ],
      [
        "soluÃ§Ã£o",
        -9.934888898859768
      ],
      [
        "Ġtornar",
        -9.937123461168431
      ],
      [
        "ĠirmÃ£o",
        -9.937412064448944
      ],
      [
        "Ġenfrenta",
        -9.938520178277445
      ],
      [
        "trabalhadores",
        -9.938800159343648
      ],
      [
        "Ġhomenage",
        -9.939279923196352
      ],
      [
        "ĠRosa",
        -9.939350243450397
      ],
      [
        "Medida",
        -9.940385107627431
      ],
      [
        "Ġchega",
        -9.940954246177268
      ],
      [
        "ĠPorto",
        -9.941798464439955
      ],
      [
        "ĠEra",
        -9.942828937073788
      ],
      [
        "Ġestabelece",
        -9.943048163409054
      ],
      [
        "ĠreferÃªncia",
        -9.944427460389386
      ],
      [
        "Ġpequeno",
        -9.944833490178626
      ],
      [
        "CH",
        -9.946460180369044
      ],
      [
        "ĠDilma",
        -9.946869712136472
      ],
      [
        "2006",
        -9.948187590175396
      ],
      [
        "mediante",
        -9.948814087533004
      ],
      [
        "Ġdiretor",
        -9.9504083002401
      ],
      [
        "Ġacaba",
        -9.951393083020472
      ],
      [
        "Ġassumi",
        -9.951965746956304
      ],
      [
        "pÃµe",
        -9.95219774191417
      ],
      [
        "ĠinstituiÃ§Ãµes",
        -9.95228113020748
      ],
      [
        "ĠmÃ£o",
        -9.952392895368858
      ],
      [
        "ĠVou",
        -9.952412519141411
      ],
      [
        "visÃ£o",
        -9.953578972359294
      ],
      [
        "realmente",
        -9.95394932100968
      ],
      [
        "ĠHistÃ³ria",
        -9.954674806988915
      ],
      [
        "SÃĥO",
        -9.955367866290224
      ],
      [
        "ĠBanco",
        -9.955381721875746
      ],
      [
        "destaque",
        -9.95636564168631
      ],
      [
        "Ġatendimento",
        -9.957038045660925
      ],
      [
        "ĠPSD",
        -9.957979914314071
      ],
      [
        "contrÃ¡rio",
        -9.95800171962006
      ],
      [
        "Ġdar",
        -9.958431062368916
      ],
      [
        "Ġservi",
        -9.960508096409251
      ],
      [
        "cuja",
        -9.96121179653682
      ],
      [
        "parÃ¡grafo",
        -9.961455659046072
      ],
      [
        "Ġcontinua",
        -9.96435118353257
      ],
      [
        "Ġjornal",
        -9.96456197043049
      ],
      [
        "Ġfundo",
        -9.964886607832405
      ],
      [
        "ĠNesse",
        -9.966530028998584
      ],
      [
        "DF",
        -9.9666897779851
      ],
      [
        "Ġcriado",
        -9.967171148415842
      ],
      [
        "category",
        -9.969297661394007
      ],
      [
        "ĠEntre",
        -9.969645698097528
      ],
      [
        "corrÃªncia",
        -9.971298826804372
      ],
      [
        "recebeu",
        -9.97196317931445
      ],
      [
        "Ġresposta",
        -9.97465694327591
      ],
      [
        "Ġmanter",
        -9.974920130570256
      ],
      [
        "ÃŃstica",
        -9.975318366073456
      ],
      [
        "ĠlanÃ§ado",
        -9.975703247940965
      ],
      [
        "Ġdesses",
        -9.976112606162944
      ],
      [
        "ung",
        -9.977287531206688
      ],
      [
        "critÃ©rio",
        -9.978203913029295
      ],
      [
        "ĠMato",
        -9.978505696545902
      ],
      [
        "ĠMarcelo",
        -9.979485181011292
      ],
      [
        "violÃªncia",
        -9.979632978261677
      ],
      [
        "uplente",
        -9.980570644525086
      ],
      [
        "Ġocupa",
        -9.98065597275063
      ],
      [
        "Gerais",
        -9.98142611523653
      ],
      [
        "Ġpassar",
        -9.981474890018104
      ],
      [
        "ĠFundo",
        -9.98323092782156
      ],
      [
        "Durante",
        -9.98349153782045
      ],
      [
        "Ġcapacidade",
        -9.984685821871194
      ],
      [
        "Of",
        -9.98521436415311
      ],
      [
        "ĠTrata",
        -9.98590145339936
      ],
      [
        "Ġespecifica",
        -9.98625737996265
      ],
      [
        "cular",
        -9.98693563611863
      ],
      [
        "PAULO",
        -9.98700475827909
      ],
      [
        "Ġliberdade",
        -9.987259003614458
      ],
      [
        "Ġreuni",
        -9.988403854267863
      ],
      [
        "ĠPubli",
        -9.988544111323368
      ],
      [
        "Ġ1997",
        -9.98944395278654
      ],
      [
        "Ġtraz",
        -9.989485385781292
      ],
      [
        "ĠADV",
        -9.990285645933705
      ],
      [
        "Ġimped",
        -9.990513015658712
      ],
      [
        "ĠRÃ¡dio",
        -9.990672245202836
      ],
      [
        "Ġoferece",
        -9.9914810785658
      ],
      [
        "homens",
        -9.99304410845412
      ],
      [
        "ĠBahia",
        -9.993974988072452
      ],
      [
        "Ġnovos",
        -9.996111858315883
      ],
      [
        "ARDO",
        -9.997175630184014
      ],
      [
        "ĠBrasileira",
        -9.997196352824233
      ],
      [
        "Ġdiversos",
        -9.997867413524355
      ],
      [
        "Ġexecutar",
        -9.99847167923141
      ],
      [
        "preÃ§o",
        -9.998525187144942
      ],
      [
        "ĠJorge",
        -9.999555522828492
      ],
      [
        "proteÃ§Ã£o",
        -9.999643556421256
      ],
      [
        "ĠresponsÃ¡vel",
        -10.001512377458033
      ],
      [
        "Ġterceiro",
        -10.001541787291243
      ],
      [
        "Ġmaterial",
        -10.001735570202184
      ],
      [
        "Ã©tica",
        -10.001853671774263
      ],
      [
        "Ġ70",
        -10.003518329019377
      ],
      [
        "ĠLima",
        -10.00401654794332
      ],
      [
        "ĠposiÃ§Ã£o",
        -10.00426580293844
      ],
      [
        "Ġapresentado",
        -10.005015277206777
      ],
      [
        "Ġincluindo",
        -10.005198670708332
      ],
      [
        "servidores",
        -10.005230564576266
      ],
      [
        "ĠSENHOR",
        -10.00537354803479
      ],
      [
        "Ġusar",
        -10.00540035262448
      ],
      [
        "Ġambiente",
        -10.006752705412556
      ],
      [
        "Ġestudo",
        -10.007009449527574
      ],
      [
        "Ġchamada",
        -10.007335900396152
      ],
      [
        "ĠMundial",
        -10.007783083936308
      ],
      [
        "Ġfedera",
        -10.00814537069253
      ],
      [
        "ProvisÃ³ria",
        -10.009067107140082
      ],
      [
        "necessÃ¡ria",
        -10.009227154331729
      ],
      [
        "doenÃ§a",
        -10.00973072980252
      ],
      [
        "PP",
        -10.010024174400016
      ],
      [
        "ĠAdministraÃ§Ã£o",
        -10.010838118872169
      ],
      [
        "Ġvotar",
        -10.011553433133004
      ],
      [
        "Ġreceber",
        -10.013203338861572
      ],
      [
        "Ġautoridade",
        -10.013246398931274
      ],
      [
        "Ġsofre",
        -10.015023762634303
      ],
      [
        "ĠMeu",
        -10.015716398034288
      ],
      [
        "Ġdepende",
        -10.015926181720031
      ],
      [
        "Ġdiversas",
        -10.01670058889243
      ],
      [
        "RS",
        -10.016791557449883
      ],
      [
        "ÃŃamos",
        -10.020086963985229
      ],
      [
        "ĠCE",
        -10.020160748893632
      ],
      [
        "Ġprofissionais",
        -10.020613844544332
      ],
      [
        "ĠInternacional",
        -10.02074171022092
      ],
      [
        "acrescenta",
        -10.020855439086771
      ],
      [
        "Ainda",
        -10.020870712712163
      ],
      [
        "Ġamigo",
        -10.022068751872864
      ],
      [
        "ĠâĢĺ",
        -10.022960638000214
      ],
      [
        "ĠMendes",
        -10.024028607777105
      ],
      [
        "\",\"",
        -10.024278514227143
      ],
      [
        "ĠJohn",
        -10.024952895976565
      ],
      [
        "tiveram",
        -10.026107680183255
      ],
      [
        "Ġgarantia",
        -10.026798807068984
      ],
      [
        "Ķ",
        -10.02708439208416
      ],
      [
        "tratamento",
        -10.027103922047768
      ],
      [
        "maiores",
        -10.027345182382415
      ],
      [
        "ĠTudo",
        -10.027925667820591
      ],
      [
        "ĠAta",
        -10.028580022787422
      ],
      [
        "Ġcabe",
        -10.029241616081023
      ],
      [
        "Ġtrabalhos",
        -10.029946052772374
      ],
      [
        "gostaria",
        -10.030239293967334
      ],
      [
        "ĠGovernador",
        -10.032353013474928
      ],
      [
        "Ġamor",
        -10.032745946842535
      ],
      [
        "ĠeconÃ´mico",
        -10.034360158754438
      ],
      [
        "reduÃ§Ã£o",
        -10.035559315475853
      ],
      [
        "paciente",
        -10.03642569549048
      ],
      [
        "Ġcompra",
        -10.037346767492147
      ],
      [
        "Ġdela",
        -10.038426301690247
      ],
      [
        "PCdoB",
        -10.03870252108835
      ],
      [
        "Ġfins",
        -10.03966043920029
      ],
      [
        "Ġrecente",
        -10.041270836106728
      ],
      [
        "Ġcumprimento",
        -10.042451250645891
      ],
      [
        "ham",
        -10.042640342541644
      ],
      [
        "Ġartigos",
        -10.042881832160012
      ],
      [
        "Ġcarro",
        -10.043344382508186
      ],
      [
        "Ġtaxa",
        -10.043402688601734
      ],
      [
        "±",
        -10.044231528534644
      ],
      [
        "ĠalcanÃ§",
        -10.044925569745311
      ],
      [
        "ĠVoss",
        -10.044991471044678
      ],
      [
        "Ġfundamental",
        -10.04571241457838
      ],
      [
        "Ġevento",
        -10.045983719184738
      ],
      [
        "Ġfuturo",
        -10.046598890254357
      ],
      [
        "ĠAqui",
        -10.046601760842456
      ],
      [
        "Ġmuita",
        -10.049663805237357
      ],
      [
        "2003",
        -10.055128967933015
      ],
      [
        "pronunciamento",
        -10.05514937014452
      ],
      [
        "Ġinstrumento",
        -10.05621361546519
      ],
      [
        "Ġnatural",
        -10.05690285114052
      ],
      [
        "fÃŃsica",
        -10.057882228463567
      ],
      [
        "Ġnego",
        -10.058025140556618
      ],
      [
        "Ġapresentada",
        -10.05823341849131
      ],
      [
        "Ġapresentar",
        -10.059459587265478
      ],
      [
        "produtos",
        -10.059745330206338
      ],
      [
        "Ġmilitar",
        -10.061307525022174
      ],
      [
        "Ġelas",
        -10.061384309950494
      ],
      [
        "Ġalto",
        -10.061878082013234
      ],
      [
        "Ġnenhuma",
        -10.061993450225524
      ],
      [
        "RJ",
        -10.063539299733218
      ],
      [
        "ĠAcho",
        -10.064467296514763
      ],
      [
        "dÃºvida",
        -10.06496226710552
      ],
      [
        "Ġcusto",
        -10.065133604397984
      ],
      [
        "Lei",
        -10.065285576384335
      ],
      [
        "Ġcerta",
        -10.065929133666645
      ],
      [
        "substituiÃ§Ã£o",
        -10.066418219702957
      ],
      [
        "ĠversÃ£o",
        -10.06797837750467
      ],
      [
        "ĠSuperior",
        -10.068152384144934
      ],
      [
        "ĠCal",
        -10.068843400140567
      ],
      [
        "Ġcurso",
        -10.06969360073477
      ],
      [
        "Ġcrescimento",
        -10.07021970122231
      ],
      [
        "ĠLocal",
        -10.071114918951432
      ],
      [
        "ĠBA",
        -10.072603836362717
      ],
      [
        "tivesse",
        -10.07339009006035
      ],
      [
        "ĠCentro",
        -10.0743153127689
      ],
      [
        "audiÃªncia",
        -10.07451991560041
      ],
      [
        "dez",
        -10.076417961574682
      ],
      [
        "hipÃ³tese",
        -10.07737936396782
      ],
      [
        "Ġsonora",
        -10.078666076549112
      ],
      [
        "ĠVale",
        -10.07947525919792
      ],
      [
        "ĠCampos",
        -10.08020359688554
      ],
      [
        "ĠSecretÃ¡rio",
        -10.080293083992428
      ],
      [
        "Ġsimples",
        -10.081293928640292
      ],
      [
        "ĠPEC",
        -10.082524292836013
      ],
      [
        "ĠEXTRAORDINÃģRI",
        -10.082693673842869
      ],
      [
        "ÃĬNCIA",
        -10.082701231828336
      ],
      [
        "Ġnovas",
        -10.082756187856502
      ],
      [
        "ĠVoto",
        -10.082936415909431
      ],
      [
        "Ġnaquel",
        -10.083528044253798
      ],
      [
        "ĠPmdbP",
        -10.084388220220072
      ],
      [
        "entidades",
        -10.084452672183282
      ],
      [
        "tecnologia",
        -10.085676005580735
      ],
      [
        "Ġimposto",
        -10.086449554635028
      ],
      [
        "devem",
        -10.087192551231302
      ],
      [
        "Ġajudar",
        -10.088199323150516
      ],
      [
        "ĠAP",
        -10.089193236475976
      ],
      [
        "Ġdeixo",
        -10.091165900597858
      ],
      [
        "Ptb",
        -10.091251233172656
      ],
      [
        "Ġaplica",
        -10.09259154948336
      ],
      [
        "Ġtais",
        -10.093096268051772
      ],
      [
        "Ġsuficiente",
        -10.093163343033645
      ],
      [
        "medidas",
        -10.094770255889802
      ],
      [
        "Ġentrega",
        -10.094842195945564
      ],
      [
        "verÃ£o",
        -10.095402618001808
      ],
      [
        "Ġenca",
        -10.097083237425558
      ],
      [
        "Ñ",
        -10.097764131650525
      ],
      [
        "ĠninguÃ©m",
        -10.097963648309989
      ],
      [
        "fundamento",
        -10.098234524475052
      ],
      [
        "Ġconquista",
        -10.098855733688383
      ],
      [
        "Ġdeles",
        -10.09973339161365
      ],
      [
        "Hoje",
        -10.100351808077102
      ],
      [
        "Ġvisto",
        -10.100590457859624
      ],
      [
        "Ġdespes",
        -10.100828350784274
      ],
      [
        "atos",
        -10.101240924510972
      ],
      [
        "Ġaceita",
        -10.101575069509492
      ],
      [
        "ĠTodos",
        -10.103572332884246
      ],
      [
        "ĠIgreja",
        -10.10402943316033
      ],
      [
        "Ġ1999",
        -10.10606139486536
      ],
      [
        "Ġcoloca",
        -10.1062632772062
      ],
      [
        "Ġsair",
        -10.107685301075607
      ],
      [
        "ĠadministraÃ§Ã£o",
        -10.10923150120435
      ],
      [
        "Ġdiante",
        -10.110344662431178
      ],
      [
        "designado",
        -10.111440596222256
      ],
      [
        "ĠorganizaÃ§Ã£o",
        -10.112574556054785
      ],
      [
        "»",
        -10.112886007109118
      ],
      [
        "Ġespecialmente",
        -10.113174809745988
      ],
      [
        "ĠFranÃ§a",
        -10.113283382737263
      ],
      [
        "ĠCultura",
        -10.113401739547006
      ],
      [
        "Ġfilhos",
        -10.113773236783889
      ],
      [
        "ĠvocÃªs",
        -10.114126675111216
      ],
      [
        "ĠinstituiÃ§Ã£o",
        -10.11431859231832
      ],
      [
        "Ġenvia",
        -10.114559291839312
      ],
      [
        "PFL",
        -10.115260635725884
      ],
      [
        "2004",
        -10.11535338302819
      ],
      [
        "ĠAnex",
        -10.11599840808049
      ],
      [
        "ĠterÃ¡",
        -10.116065542940074
      ],
      [
        "Ġimporta",
        -10.1170053987262
      ],
      [
        "ĠRJ",
        -10.11703961478349
      ],
      [
        "ĠlÃŃngua",
        -10.117665529927
      ],
      [
        "Ġconhecida",
        -10.118056358595004
      ],
      [
        "juridicidade",
        -10.11862010663766
      ],
      [
        "Ġgarantir",
        -10.11996912978313
      ],
      [
        "Ġfutebol",
        -10.120632667648
      ],
      [
        "ĠSrÂª",
        -10.120908258998446
      ],
      [
        "NAL",
        -10.121209044525568
      ],
      [
        "ĠFEDERAL",
        -10.121719558279477
      ],
      [
        "Ġpermanece",
        -10.122262472816164
      ],
      [
        "Ġrecebe",
        -10.12310575187813
      ],
      [
        "Tenho",
        -10.123812399509568
      ],
      [
        "seguida",
        -10.124056402124294
      ],
      [
        "ĠTerra",
        -10.124249550977686
      ],
      [
        "ĠTemer",
        -10.124631530331076
      ],
      [
        "Ġmorre",
        -10.125062469273532
      ],
      [
        "ĠJÃºnior",
        -10.126856724603954
      ],
      [
        "URMA",
        -10.127154386696052
      ],
      [
        "ĠLt",
        -10.127805115331205
      ],
      [
        "Michel",
        -10.12874275236281
      ],
      [
        "Ġtermo",
        -10.12994014565684
      ],
      [
        "dificuldade",
        -10.130148270364552
      ],
      [
        "Ġbastante",
        -10.131242814575096
      ],
      [
        "GERAL",
        -10.131861709251176
      ],
      [
        "Ġrevela",
        -10.132485399789893
      ],
      [
        "Ã¢nia",
        -10.132909518219892
      ],
      [
        "Ġlevar",
        -10.133187581764956
      ],
      [
        "Ġfilha",
        -10.133545853632125
      ],
      [
        "ney",
        -10.133676270250108
      ],
      [
        "leiÃ§Ã£o",
        -10.13396153676216
      ],
      [
        "seguintes",
        -10.133982832963534
      ],
      [
        "envolvido",
        -10.134071131570764
      ],
      [
        "ĠRibeiro",
        -10.134087146470067
      ],
      [
        "omissÃµes",
        -10.134396389600273
      ],
      [
        "Ġpergunta",
        -10.135662594207796
      ],
      [
        "comunitÃ¡ria",
        -10.135974535461438
      ],
      [
        "Ġconsegui",
        -10.136375116155907
      ],
      [
        "Ġpublicado",
        -10.137153057719685
      ],
      [
        "Ġaprovada",
        -10.137205356181614
      ],
      [
        "conteÃºdo",
        -10.138584850599486
      ],
      [
        "Ġrealidade",
        -10.13863443688902
      ],
      [
        "Ġfazem",
        -10.138734057755263
      ],
      [
        "Ġaparece",
        -10.138793311424884
      ],
      [
        "prisÃ£o",
        -10.138822859933956
      ],
      [
        "ĠprÃ³xima",
        -10.13968026692083
      ],
      [
        "proposiÃ§Ã£o",
        -10.13992467319822
      ],
      [
        "afirmou",
        -10.141456358565645
      ],
      [
        "bancada",
        -10.141750209176262
      ],
      [
        "Ġobserva",
        -10.143185907254598
      ],
      [
        "Ġchama",
        -10.143365396319634
      ],
      [
        "Ġnega",
        -10.144333526421
      ],
      [
        "cat",
        -10.144423673644004
      ],
      [
        "Ġnovamente",
        -10.147146408273423
      ],
      [
        "Ġdispositivo",
        -10.147427235927069
      ],
      [
        "ĠComplementar",
        -10.148125204620287
      ],
      [
        "atuaÃ§Ã£o",
        -10.148372366508202
      ],
      [
        "esteja",
        -10.148713880890462
      ],
      [
        "MEN",
        -10.15091516810352
      ],
      [
        "Ġparticipar",
        -10.151011969749698
      ],
      [
        "Ġcontar",
        -10.15138941144508
      ],
      [
        "autorizaÃ§Ã£o",
        -10.151447014993495
      ],
      [
        "tenham",
        -10.151460993168312
      ],
      [
        "jovens",
        -10.151495752942328
      ],
      [
        "lizado",
        -10.152019664373062
      ],
      [
        "Ġclasse",
        -10.15303480736779
      ],
      [
        "ĠDOS",
        -10.153350928272248
      ],
      [
        "Ġcomum",
        -10.15340564406394
      ],
      [
        "ĠLÃºci",
        -10.15362526355852
      ],
      [
        "ĠSegunda",
        -10.1549345093561
      ],
      [
        "Ġtrabalhar",
        -10.157149597236616
      ],
      [
        "âĢĳ",
        -10.157610983354395
      ],
      [
        "Ġ1996",
        -10.157767650474398
      ],
      [
        "ĠBom",
        -10.15822342745595
      ],
      [
        "Ġquer",
        -10.160760452258405
      ],
      [
        "Ġinvestiga",
        -10.16114284519034
      ],
      [
        "ĠInformÃ¡tica",
        -10.161161020140865
      ],
      [
        "«",
        -10.161316153988158
      ],
      [
        "ĠAtÃ©",
        -10.161418348400767
      ],
      [
        "cisÃ£o",
        -10.162275782100869
      ],
      [
        "Ġpopular",
        -10.165439857630666
      ],
      [
        "liminar",
        -10.165925580590836
      ],
      [
        "ĠeletrÃ´nico",
        -10.16664493093498
      ],
      [
        "irÃ¡",
        -10.166928034602462
      ],
      [
        "ĠalemÃ£",
        -10.16773858142952
      ],
      [
        "ĠcondiÃ§Ã£o",
        -10.168588097840498
      ],
      [
        "Ġvaga",
        -10.168883320381532
      ],
      [
        "ĠcabeÃ§a",
        -10.170618007633667
      ],
      [
        "Ġvive",
        -10.170734407053091
      ],
      [
        "Ġoutorga",
        -10.171226614698549
      ],
      [
        "ĠdireÃ§Ã£o",
        -10.171251109002185
      ],
      [
        "tudo",
        -10.172463648509035
      ],
      [
        "evoluÃ§Ã£o",
        -10.172701726509604
      ],
      [
        "]",
        -10.172820742041871
      ],
      [
        "[",
        -10.178111562227205
      ],
      [
        "AntÃ´nio",
        -10.178910102573491
      ],
      [
        "Ġganho",
        -10.179829789723518
      ],
      [
        "ĠmÃ©dico",
        -10.180725823382812
      ],
      [
        "Ġentrar",
        -10.181184877601874
      ],
      [
        "Ġbaixo",
        -10.181382120943825
      ],
      [
        "dÃŃvida",
        -10.185399103008638
      ],
      [
        "ĠEuropa",
        -10.185399556017096
      ],
      [
        "Ġquadro",
        -10.18605064711417
      ],
      [
        "Ġmeus",
        -10.186115704655403
      ],
      [
        "AgR",
        -10.186265027502168
      ],
      [
        "prejuÃŃz",
        -10.186494761211636
      ],
      [
        "Ġbaixa",
        -10.186678346813943
      ],
      [
        "Ġencontrar",
        -10.186826169198495
      ],
      [
        "ĠKo",
        -10.18743031521839
      ],
      [
        "Ġvoltar",
        -10.187801482306709
      ],
      [
        "indÃºstria",
        -10.187887518778384
      ],
      [
        "declaraÃ§Ã£o",
        -10.188962142872098
      ],
      [
        "ĠPER",
        -10.189093193144227
      ],
      [
        "ĠportuguÃªs",
        -10.189972003963184
      ],
      [
        "entendimento",
        -10.190611685235714
      ],
      [
        "Ġcresce",
        -10.192646477448514
      ],
      [
        "prestaÃ§Ã£o",
        -10.1928184796537
      ],
      [
        "ĠEscola",
        -10.193106345552556
      ],
      [
        "å",
        -10.193275744314096
      ],
      [
        "Ġfaixa",
        -10.193398337362549
      ],
      [
        "razÃµes",
        -10.194372678833728
      ],
      [
        "entidade",
        -10.19543042157616
      ],
      [
        "Ġministro",
        -10.19638126947171
      ],
      [
        "aqueles",
        -10.196500685743242
      ],
      [
        "DEPUTADO",
        -10.198453191609524
      ],
      [
        "consumidor",
        -10.19926736403696
      ],
      [
        "Substitutivo",
        -10.19963575288218
      ],
      [
        "entrada",
        -10.201243409882446
      ],
      [
        "vÃŃtima",
        -10.201659806082102
      ],
      [
        "Ġreserva",
        -10.201882994225675
      ],
      [
        "ĠPenal",
        -10.202021957302383
      ],
      [
        "ĠParanÃ¡",
        -10.202865035712923
      ],
      [
        "comissÃ£o",
        -10.20357604834916
      ],
      [
        "Portaria",
        -10.203734128600711
      ],
      [
        "Certo",
        -10.205225546509189
      ],
      [
        "Ġinvesti",
        -10.20556121712367
      ],
      [
        "+",
        -10.207867902010936
      ],
      [
        "Primeiro",
        -10.208331678340986
      ],
      [
        "pÃºblicos",
        -10.20869177293246
      ],
      [
        "ker",
        -10.210139407126784
      ],
      [
        "ĠQuer",
        -10.210604026326155
      ],
      [
        "SÃ©rgi",
        -10.211633126993906
      ],
      [
        "conformidade",
        -10.211902510891848
      ],
      [
        "Ġseguir",
        -10.21197230631538
      ],
      [
        "Ġrepresentante",
        -10.21247932845052
      ],
      [
        "RelatÃ³rio",
        -10.212931877095311
      ],
      [
        "Ġalega",
        -10.214040941185257
      ],
      [
        "normas",
        -10.21426625880375
      ],
      [
        "HC",
        -10.21458197645178
      ],
      [
        "ĠvitÃ³ria",
        -10.21510933597991
      ],
      [
        "locais",
        -10.215872711222874
      ],
      [
        "Ġindependente",
        -10.216004286645116
      ],
      [
        "Ġcento",
        -10.216241795972884
      ],
      [
        "Ġpermite",
        -10.216463777525714
      ],
      [
        "provisÃ³ria",
        -10.217620511506372
      ],
      [
        "Ġaconteceu",
        -10.217835124336665
      ],
      [
        "Ġcolocar",
        -10.219690226214086
      ],
      [
        "¸",
        -10.22032291954969
      ],
      [
        "Ġparticular",
        -10.220427391672342
      ],
      [
        "Ġsite",
        -10.220727497449223
      ],
      [
        "PpP",
        -10.22269019795187
      ],
      [
        "Ġacerca",
        -10.223503894881611
      ],
      [
        "ĠZa",
        -10.224335319406467
      ],
      [
        "ĠEconÃ´mic",
        -10.225679989928752
      ],
      [
        "Ł",
        -10.226159698153406
      ],
      [
        "Ĭ",
        -10.227207133995575
      ],
      [
        "talvez",
        -10.227692020296647
      ],
      [
        "Ġdemanda",
        -10.227893582655128
      ],
      [
        "veio",
        -10.229886683192971
      ],
      [
        "ĠtelevisÃ£o",
        -10.230076718465966
      ],
      [
        "2018",
        -10.230738409684264
      ],
      [
        "Ġmanifesta",
        -10.231048315831826
      ],
      [
        "ĠapresentaÃ§Ã£o",
        -10.231715650475664
      ],
      [
        "OfÃŃci",
        -10.233184601154653
      ],
      [
        "Ġcomercial",
        -10.234309947543329
      ],
      [
        "Ġdiferente",
        -10.236617938548616
      ],
      [
        "destinada",
        -10.237031347752826
      ],
      [
        "ĠProcesso",
        -10.238263264407808
      ],
      [
        "Ġtomar",
        -10.2387153430137
      ],
      [
        "Ġabertura",
        -10.239829149844889
      ],
      [
        "ĠAcre",
        -10.239967926287662
      ],
      [
        "arÃ¡grafo",
        -10.241560547309971
      ],
      [
        "Ġcontinuar",
        -10.241693744600044
      ],
      [
        "ĠexperiÃªncia",
        -10.241695219774758
      ],
      [
        "ĠComunitÃ¡ri",
        -10.242209220198829
      ],
      [
        "ĠcarÃ¡ter",
        -10.24261281522149
      ],
      [
        "referido",
        -10.243883131755068
      ],
      [
        "ĠTrans",
        -10.244229906219054
      ],
      [
        "ĠdifÃŃcil",
        -10.244472406448654
      ],
      [
        "ĠPrefeit",
        -10.246453985593387
      ],
      [
        "cÃ³pia",
        -10.247046344003902
      ],
      [
        "Ġviola",
        -10.247099486790072
      ],
      [
        "ĠdistribuiÃ§Ã£o",
        -10.24719440604878
      ],
      [
        "ĠDepu",
        -10.247320080598232
      ],
      [
        "Ġpequena",
        -10.24874912983292
      ],
      [
        "Ġdessas",
        -10.249195319328484
      ],
      [
        "Ġbens",
        -10.250812785528996
      ],
      [
        "ĠPROC",
        -10.250917880438047
      ],
      [
        "Ġmulta",
        -10.251288050087576
      ],
      [
        "ĠPOR",
        -10.252004869137334
      ],
      [
        "Ġdireta",
        -10.252007523427752
      ],
      [
        "escrita",
        -10.252726135279907
      ],
      [
        "manutenÃ§Ã£o",
        -10.253729251806512
      ],
      [
        "Ġtratar",
        -10.255524693727804
      ],
      [
        "ĠPARA",
        -10.25555691166504
      ],
      [
        "PRB",
        -10.255910533976554
      ],
      [
        "atrÃ¡s",
        -10.256858215511732
      ],
      [
        "ĠCentral",
        -10.261119859321992
      ],
      [
        "Ġpais",
        -10.262903923741742
      ],
      [
        "regiÃµes",
        -10.262982180926794
      ],
      [
        "favorÃ¡vel",
        -10.264218012981832
      ],
      [
        "Ġpasso",
        -10.264548331304022
      ],
      [
        "ĠDep",
        -10.26538213762389
      ],
      [
        "legais",
        -10.266124970731012
      ],
      [
        "|",
        -10.266481819810815
      ],
      [
        "PSC",
        -10.26651420449414
      ],
      [
        "burg",
        -10.267907440182311
      ],
      [
        "apesar",
        -10.270701211954094
      ],
      [
        "Å",
        -10.271362217181876
      ],
      [
        "Ġcolega",
        -10.271504086337236
      ],
      [
        "Celso",
        -10.273588981039412
      ],
      [
        "Ġregra",
        -10.273887433958556
      ],
      [
        "Ī",
        -10.274909950537904
      ],
      [
        "Ġreceita",
        -10.275259369809616
      ],
      [
        "Apoio",
        -10.275675236717088
      ],
      [
        "recedente",
        -10.276653110356522
      ],
      [
        "Ġamigos",
        -10.276677649610615
      ],
      [
        "Ġdecreta",
        -10.276766651118276
      ],
      [
        "porÃ©",
        -10.276815399866896
      ],
      [
        "eleiÃ§Ãµes",
        -10.277066734086173
      ],
      [
        "ĠPROPOSI",
        -10.277175011507357
      ],
      [
        "utilizaÃ§Ã£o",
        -10.278670909706848
      ],
      [
        "Ġjogos",
        -10.279071614226616
      ],
      [
        "Ġdiscutir",
        -10.279933363585595
      ],
      [
        "Ä",
        -10.28078953734375
      ],
      [
        "Ġpermitir",
        -10.28118161273773
      ],
      [
        "ĠPlano",
        -10.281800499220868
      ],
      [
        "ĠCer",
        -10.28185077491089
      ],
      [
        "dizendo",
        -10.28278559890008
      ],
      [
        "Ġtramita",
        -10.283218800521563
      ],
      [
        "diretamente",
        -10.283527080227008
      ],
      [
        "ĠSouza",
        -10.284025890350726
      ],
      [
        "Ġgosta",
        -10.284651945376211
      ],
      [
        "ausÃªncia",
        -10.285989040712238
      ],
      [
        "ľ",
        -10.286361018880148
      ],
      [
        "Ġperto",
        -10.288410472829938
      ],
      [
        "Ġdocumentos",
        -10.28866973369724
      ],
      [
        "americana",
        -10.28929326963986
      ],
      [
        "Ġcapaz",
        -10.289744795061663
      ],
      [
        "ĠGomes",
        -10.289978229154086
      ],
      [
        "ĠConced",
        -10.29007697520735
      ],
      [
        "vemos",
        -10.290572012064832
      ],
      [
        "ł",
        -10.29057700750212
      ],
      [
        "Ġmelhores",
        -10.290788631614202
      ],
      [
        "formado",
        -10.29081381173763
      ],
      [
        "militares",
        -10.29144516592691
      ],
      [
        "Ġdiminui",
        -10.291935850294308
      ],
      [
        "ĠoperaÃ§Ã£o",
        -10.291972875856212
      ],
      [
        "ĠGrosso",
        -10.292196905038294
      ],
      [
        "Ġfeliz",
        -10.292693670672346
      ],
      [
        "Ġinterior",
        -10.292695066808331
      ],
      [
        "ĠMunicipal",
        -10.293424322109416
      ],
      [
        "ĠMinistra",
        -10.293915365996169
      ],
      [
        "MG",
        -10.29417426534251
      ],
      [
        "Ġreconhece",
        -10.294248798717527
      ],
      [
        "ĠLopes",
        -10.294858297248425
      ],
      [
        "ĠcanÃ§Ã£o",
        -10.294909492214474
      ],
      [
        "Ġconsiderada",
        -10.295510641333298
      ],
      [
        "estabelecido",
        -10.296193456747444
      ],
      [
        "efeitos",
        -10.296746406540036
      ],
      [
        "CARLOS",
        -10.29712958837253
      ],
      [
        "Con",
        -10.297209053157268
      ],
      [
        "ĠMilitar",
        -10.297231874758117
      ],
      [
        "destinado",
        -10.297710641237494
      ],
      [
        "ĠRocha",
        -10.298165702281793
      ],
      [
        "inclusÃ£o",
        -10.298985729687995
      ],
      [
        "Ġperda",
        -10.299307213994773
      ],
      [
        "Ġescrito",
        -10.29977753684041
      ],
      [
        "Estamos",
        -10.301276792666773
      ],
      [
        "Ġrealizar",
        -10.301487816052406
      ],
      [
        "operaÃ§Ãµes",
        -10.30154578383066
      ],
      [
        "ĠvÃŃdeo",
        -10.30211669670638
      ],
      [
        "ĠlanÃ§amento",
        -10.305377503158924
      ],
      [
        "Ġmundial",
        -10.307419080836263
      ],
      [
        "ĠpeÃ§o",
        -10.31073054219294
      ],
      [
        "estavam",
        -10.310950940079437
      ],
      [
        "usada",
        -10.31244584554316
      ],
      [
        "alunos",
        -10.312479961340756
      ],
      [
        "Ġcompromisso",
        -10.312627555512329
      ],
      [
        "ĠSerra",
        -10.3133889371631
      ],
      [
        "Ġderrota",
        -10.313928762023227
      ],
      [
        "Pausa",
        -10.314025773107176
      ],
      [
        "exposto",
        -10.31481920313842
      ],
      [
        "ĠorÃ§amentÃ¡ria",
        -10.314970246089612
      ],
      [
        "Ġlocalizado",
        -10.315395129388852
      ],
      [
        "Ġmetros",
        -10.316384849112056
      ],
      [
        "ĠCatarina",
        -10.31710175455359
      ],
      [
        "Ġacabou",
        -10.317117888363049
      ],
      [
        "Ġpropriedade",
        -10.31738341747568
      ],
      [
        "ĠmÃ©dio",
        -10.319145742473848
      ],
      [
        "xclusividade",
        -10.320036234080334
      ],
      [
        "Ġrelativa",
        -10.320194845063252
      ],
      [
        "Ġlimite",
        -10.32070476410808
      ],
      [
        "Ġpedir",
        -10.322503535922364
      ],
      [
        "Ġquarto",
        -10.324437629014604
      ],
      [
        "privada",
        -10.324737025661442
      ],
      [
        "Ġtentar",
        -10.325116497544268
      ],
      [
        "Ġequipa",
        -10.325262343141857
      ],
      [
        "Ãºmula",
        -10.325382669837294
      ],
      [
        "Ġunidades",
        -10.325398886559892
      ],
      [
        "Apesar",
        -10.327597902682564
      ],
      [
        "esforÃ§o",
        -10.327698889380065
      ],
      [
        "requisitos",
        -10.327973401530722
      ],
      [
        "ĠdiferenÃ§a",
        -10.328949438095307
      ],
      [
        "ocalidades",
        -10.329804380387204
      ],
      [
        "Ġconseguiu",
        -10.330846467226047
      ],
      [
        "estabelecimento",
        -10.33284377777754
      ],
      [
        "Ġcompleta",
        -10.333146801227024
      ],
      [
        "Ġfinanciamento",
        -10.334067488892645
      ],
      [
        "Ġimprensa",
        -10.334320197371165
      ],
      [
        "Ġquantidade",
        -10.334398372573649
      ],
      [
        "Ġescolas",
        -10.336111693215573
      ],
      [
        "ĠCONSTITUIÃĩÃĥO",
        -10.337265495349898
      ],
      [
        "Ġhonra",
        -10.33874686614616
      ],
      [
        "constitucionai",
        -10.33889373378564
      ],
      [
        "plenÃ¡rio",
        -10.339241644313844
      ],
      [
        "Ġquarta",
        -10.339724314808809
      ],
      [
        "Ġtroca",
        -10.340299818635344
      ],
      [
        "falando",
        -10.342066874764232
      ],
      [
        "Ġpaga",
        -10.342635689026247
      ],
      [
        "ĠSam",
        -10.34308038248647
      ],
      [
        "Ġfixa",
        -10.343093687711283
      ],
      [
        "ĠFU",
        -10.343267104764085
      ],
      [
        "ĠSabe",
        -10.343483435290524
      ],
      [
        "ejeiÃ§Ã£o",
        -10.343805687165904
      ],
      [
        "Ġretira",
        -10.34598779776858
      ],
      [
        "ĠMaranhÃ£o",
        -10.346535511111597
      ],
      [
        "zinho",
        -10.346806663526886
      ],
      [
        "benefÃŃcio",
        -10.346841644065742
      ],
      [
        "Ġestudos",
        -10.347076922522756
      ],
      [
        "Ġlocalizada",
        -10.347531743319934
      ],
      [
        "ĠAlmeida",
        -10.34783704965847
      ],
      [
        "ĠFica",
        -10.348908180681851
      ],
      [
        "Ġpermiti",
        -10.349078713238784
      ],
      [
        "ĠameaÃ§a",
        -10.349256731209602
      ],
      [
        "ĠcrianÃ§a",
        -10.350036978425967
      ],
      [
        "erson",
        -10.35030648309239
      ],
      [
        "criada",
        -10.350560189891564
      ],
      [
        "Ġvaria",
        -10.350764439242395
      ],
      [
        "OSÃī",
        -10.35102658039366
      ],
      [
        "Ġinterna",
        -10.351307667263391
      ],
      [
        "Ġpagar",
        -10.351347543274846
      ],
      [
        "PPS",
        -10.351581145919251
      ],
      [
        "Ġcomigo",
        -10.352182955491257
      ],
      [
        "Ġutilizado",
        -10.353644011254527
      ],
      [
        "Ġexatamente",
        -10.353810092288857
      ],
      [
        "ĠSO",
        -10.354066027269669
      ],
      [
        "ĠRodrigues",
        -10.35697101667208
      ],
      [
        "Ġhumano",
        -10.359013601497088
      ],
      [
        "mÃ¡ximo",
        -10.360167917035724
      ],
      [
        "Ġganha",
        -10.360794373722245
      ],
      [
        "Ġpior",
        -10.360949285695217
      ],
      [
        "integrante",
        -10.361166050940533
      ],
      [
        "Ġinicial",
        -10.36124810695098
      ],
      [
        "missÃµes",
        -10.36357768836048
      ],
      [
        "julgado",
        -10.363710672457124
      ],
      [
        "Ġhaja",
        -10.36489093490992
      ],
      [
        "Ġacontece",
        -10.364992543893509
      ],
      [
        "ĠCarvalho",
        -10.365438923335171
      ],
      [
        "ĠfaÃ§a",
        -10.365611804703375
      ],
      [
        "RegiÃ£o",
        -10.36651080303088
      ],
      [
        "artista",
        -10.367408632817224
      ],
      [
        "formou",
        -10.368165311829223
      ],
      [
        "Ġencontro",
        -10.368797749499691
      ],
      [
        "indÃŃgena",
        -10.36911570576079
      ],
      [
        "ambos",
        -10.369315480259631
      ],
      [
        "LideranÃ§a",
        -10.371150753327164
      ],
      [
        "bairro",
        -10.371817441775931
      ],
      [
        "corrupÃ§Ã£o",
        -10.37254360130535
      ],
      [
        "Ġentende",
        -10.373014719676544
      ],
      [
        "ĠcontribuiÃ§Ã£o",
        -10.37358173122696
      ],
      [
        "daquele",
        -10.374877179197256
      ],
      [
        "ĠAh",
        -10.37557282478078
      ],
      [
        "chefe",
        -10.376740845185209
      ],
      [
        "existente",
        -10.379445557094447
      ],
      [
        "ĠLEGISLATIV",
        -10.382690996382344
      ],
      [
        "ĠhistÃ³rico",
        -10.38327586284896
      ],
      [
        "Ġresultados",
        -10.383490294646396
      ],
      [
        "Ġestadual",
        -10.384247578311031
      ],
      [
        "Ġdaquel",
        -10.387835045891578
      ],
      [
        "distrito",
        -10.387987295464304
      ],
      [
        "Ġvivo",
        -10.38849755470122
      ],
      [
        "Ġevitar",
        -10.38887948442935
      ],
      [
        "Ġutiliza",
        -10.389941468272491
      ],
      [
        "nacionais",
        -10.390460141658512
      ],
      [
        "ĠpolÃŃcia",
        -10.391569406827486
      ],
      [
        "atualmente",
        -10.392187596777342
      ],
      [
        "Ġconhece",
        -10.39230663759552
      ],
      [
        "abaixo",
        -10.393430128139672
      ],
      [
        "Ã¡reas",
        -10.39351663294547
      ],
      [
        "ĠjurÃŃdico",
        -10.394300122006037
      ],
      [
        "ĠNordeste",
        -10.394764843688591
      ],
      [
        "Ġdocumento",
        -10.394998383514602
      ],
      [
        "AmazÃ´nia",
        -10.396056311606886
      ],
      [
        "Ġfigura",
        -10.396153311027264
      ],
      [
        "somos",
        -10.396257164049258
      ],
      [
        "Estadual",
        -10.397020063238584
      ],
      [
        "Talvez",
        -10.397433498946096
      ],
      [
        "ĠepisÃ³dio",
        -10.397970582844158
      ],
      [
        "impacto",
        -10.398717151927508
      ],
      [
        "Figueiredo",
        -10.400470712205552
      ],
      [
        "ĠSÃ¡",
        -10.400793725259373
      ],
      [
        "Fazenda",
        -10.401497660381215
      ],
      [
        "Ġmerece",
        -10.401602196058864
      ],
      [
        "ĠWikipÃ©dia",
        -10.402227378082795
      ],
      [
        "ĠDECRET",
        -10.402415367781431
      ],
      [
        "dependÃªncia",
        -10.402749515296083
      ],
      [
        "JudiciÃ¡ri",
        -10.40312249479791
      ],
      [
        "Ġjudicial",
        -10.40358081752821
      ],
      [
        "ĠcomeÃ§ar",
        -10.405701093524469
      ],
      [
        "ĠSeguranÃ§a",
        -10.406042366549054
      ],
      [
        "ĠTemo",
        -10.406124688790245
      ],
      [
        "Teixeira",
        -10.406317145747389
      ],
      [
        "publicada",
        -10.40750064010112
      ],
      [
        "Ġpratica",
        -10.409395457005122
      ],
      [
        "Ġfui",
        -10.410129846221212
      ],
      [
        "ĠPan",
        -10.41148701036494
      ],
      [
        "DiscussÃ£o",
        -10.412254543020431
      ],
      [
        "Ġcentral",
        -10.412695069883444
      ],
      [
        "Ġmulti",
        -10.413969763939557
      ],
      [
        "regras",
        -10.416113796653644
      ],
      [
        "Ġexigi",
        -10.4174057377676
      ],
      [
        "respectivo",
        -10.41874883182472
      ],
      [
        "levou",
        -10.419074485855845
      ],
      [
        "Ġdada",
        -10.419149095070887
      ],
      [
        "Ġestabelecer",
        -10.41953970977672
      ],
      [
        "Ġdaqui",
        -10.419657754938005
      ],
      [
        "nÂº",
        -10.420367963835869
      ],
      [
        "Ġparticipa",
        -10.420449305265526
      ],
      [
        "NR",
        -10.421319005755976
      ],
      [
        "Ġanimais",
        -10.42137542220869
      ],
      [
        "elementos",
        -10.422369792581902
      ],
      [
        "ĠAlberto",
        -10.423414955511534
      ],
      [
        ">",
        -10.424508613107276
      ],
      [
        "equipamentos",
        -10.42505927948652
      ],
      [
        "advogado",
        -10.425275060434396
      ],
      [
        "preÃ§os",
        -10.425392739589553
      ],
      [
        "Ġestilo",
        -10.42557501025184
      ],
      [
        "ĠOlÃ¡",
        -10.42584821113994
      ],
      [
        "Ġconseguir",
        -10.428952332012926
      ],
      [
        "avaliaÃ§Ã£o",
        -10.42951436390323
      ],
      [
        "licitante",
        -10.429557853524326
      ],
      [
        "Ġescreve",
        -10.43235857680294
      ],
      [
        "á",
        -10.432948157898307
      ],
      [
        "Ġmudar",
        -10.43522547048671
      ],
      [
        "Ġentrevista",
        -10.437391007188756
      ],
      [
        "fontes",
        -10.437826789441171
      ],
      [
        "ĠLuÃŃs",
        -10.439122882917374
      ],
      [
        "Ġinvestimento",
        -10.43944197190546
      ],
      [
        "Ġpretende",
        -10.440192746623516
      ],
      [
        "conflito",
        -10.440228882779053
      ],
      [
        "Ġtorno",
        -10.440820385789028
      ],
      [
        "Ġefetiva",
        -10.443318654627603
      ],
      [
        "Ġacidente",
        -10.44374541697962
      ],
      [
        "Ġexplorar",
        -10.444613103918748
      ],
      [
        "Ġprocedimento",
        -10.445038353872874
      ],
      [
        "EMENTA",
        -10.445613141208092
      ],
      [
        "relaÃ§Ãµes",
        -10.446683007155292
      ],
      [
        "Ġrural",
        -10.450339778650957
      ],
      [
        "Ġpromover",
        -10.450567565540355
      ],
      [
        "EUA",
        -10.45083794443265
      ],
      [
        "Ġambiental",
        -10.451223295289063
      ],
      [
        "ĠmanhÃ£",
        -10.4514424813699
      ],
      [
        "PSL",
        -10.451510101362368
      ],
      [
        "referida",
        -10.45197846849817
      ],
      [
        "deficiÃªncia",
        -10.452962235531116
      ],
      [
        "tomada",
        -10.453054614564865
      ],
      [
        "ĠAlexandre",
        -10.453246657905884
      ],
      [
        "virtud",
        -10.453993093559433
      ],
      [
        "Ġatender",
        -10.454162831786029
      ],
      [
        "Ġfesta",
        -10.454520414394755
      ],
      [
        "PrevidÃªncia",
        -10.455153605909633
      ],
      [
        "Ġsinto",
        -10.4552041909812
      ],
      [
        "possam",
        -10.455228280814191
      ],
      [
        "geraÃ§Ã£o",
        -10.455411867976691
      ],
      [
        "Geraldo",
        -10.455652215025376
      ],
      [
        "Ġinstru",
        -10.455684319974624
      ],
      [
        "FundaÃ§Ã£o",
        -10.456384919108476
      ],
      [
        "Ġjornalista",
        -10.457195146635303
      ],
      [
        "Ï",
        -10.457756507372077
      ],
      [
        "fronteira",
        -10.457833745878215
      ],
      [
        "Ġimagem",
        -10.460703950024342
      ],
      [
        "decreto",
        -10.461488909857852
      ],
      [
        "CearÃ¡",
        -10.461827571706566
      ],
      [
        "Ġguarda",
        -10.461964672657182
      ],
      [
        "ÃŃndice",
        -10.46225858325333
      ],
      [
        "apresentou",
        -10.464830975125656
      ],
      [
        "Ġconcurso",
        -10.464886468785616
      ],
      [
        "Ġcinema",
        -10.465559548561046
      ],
      [
        "ĠrÃ¡pido",
        -10.46572115513869
      ],
      [
        "imagens",
        -10.465964211728572
      ],
      [
        "nunciou",
        -10.46605053538466
      ],
      [
        "trecho",
        -10.467453287292
      ],
      [
        "privado",
        -10.467986837377904
      ],
      [
        "Departamento",
        -10.469327448450468
      ],
      [
        "Ġimediat",
        -10.469863102547754
      ],
      [
        "ĠAto",
        -10.47049556199067
      ],
      [
        "NÃ£o",
        -10.470524733666403
      ],
      [
        "ĠpeÃ§a",
        -10.472497323713954
      ],
      [
        "Ġtrabalha",
        -10.473770549023898
      ],
      [
        "ĠLegislativa",
        -10.475330306740313
      ],
      [
        "Ġpobre",
        -10.47616763810207
      ],
      [
        "Ġexpressa",
        -10.476426151061847
      ],
      [
        "exigÃªncia",
        -10.476790870318991
      ],
      [
        "Ġpalavras",
        -10.477979753133454
      ],
      [
        "relativo",
        -10.478466465983855
      ],
      [
        "Ġigreja",
        -10.47935661861627
      ],
      [
        "ĠopiniÃ£o",
        -10.480267493098973
      ],
      [
        "Ġconceito",
        -10.48036353137552
      ],
      [
        "alteraÃ§Ã£o",
        -10.480709150162207
      ],
      [
        "ĠDESPACH",
        -10.480987364908293
      ],
      [
        "Ġestes",
        -10.48223076145048
      ],
      [
        "Ġlido",
        -10.48350006609516
      ],
      [
        "ĠdenÃºncia",
        -10.484526326564684
      ],
      [
        "errado",
        -10.485388371506009
      ],
      [
        "estaÃ§Ã£o",
        -10.485823942911273
      ],
      [
        "Ġconsegue",
        -10.488845318219592
      ],
      [
        "Ġhabita",
        -10.489831409436691
      ],
      [
        "urgÃªncia",
        -10.49046886259954
      ],
      [
        "ĠorientaÃ§Ã£o",
        -10.4907489423333
      ],
      [
        "ĠBoa",
        -10.490903500412507
      ],
      [
        "ficando",
        -10.491083827715055
      ],
      [
        "ĠMarcos",
        -10.491873672102829
      ],
      [
        "2020",
        -10.49193617273774
      ],
      [
        "½",
        -10.4933210343501
      ],
      [
        "PÃ¡gina",
        -10.493514969462364
      ],
      [
        "Jogos",
        -10.494122888275111
      ],
      [
        "ĠVista",
        -10.494400994932803
      ],
      [
        "havend",
        -10.494946933890123
      ],
      [
        "Ġentender",
        -10.495622557888264
      ],
      [
        "leitura",
        -10.496913358436291
      ],
      [
        "juros",
        -10.497174958042852
      ],
      [
        "www",
        -10.49744921527455
      ],
      [
        "retorno",
        -10.497614469919712
      ],
      [
        "ĠjustiÃ§a",
        -10.498783131692978
      ],
      [
        "ĠOUTR",
        -10.49978061884703
      ],
      [
        "ResoluÃ§Ã£o",
        -10.500505685771392
      ],
      [
        "Ġdispor",
        -10.500555100731406
      ],
      [
        "ĠsaÃŃd",
        -10.501019388806602
      ],
      [
        "sidente",
        -10.501027860122171
      ],
      [
        "substitutivo",
        -10.501054432366631
      ],
      [
        "¾",
        -10.502479498823778
      ],
      [
        "Moreira",
        -10.504560090061476
      ],
      [
        "benefÃŃcios",
        -10.505403708393624
      ],
      [
        "vontade",
        -10.50691712417574
      ],
      [
        "onclusÃ£o",
        -10.507381001010907
      ],
      [
        "Ġcarga",
        -10.507803586223451
      ],
      [
        "assistÃªncia",
        -10.508293473171795
      ],
      [
        "Ġdefende",
        -10.50993835295649
      ],
      [
        "agentes",
        -10.510680408036547
      ],
      [
        "parceria",
        -10.511213822578508
      ],
      [
        "amanhÃ£",
        -10.51195500623257
      ],
      [
        "fiscalizaÃ§Ã£o",
        -10.51197502631323
      ],
      [
        "preciaÃ§Ã£o",
        -10.512072546533782
      ],
      [
        "rÃ¡pida",
        -10.512623646682952
      ],
      [
        "Ġrua",
        -10.512827558008384
      ],
      [
        "pÃºblicas",
        -10.51307387187783
      ],
      [
        "PrÃªmio",
        -10.51320955153067
      ],
      [
        "lÃ¢ndia",
        -10.513557137048872
      ],
      [
        "instalaÃ§Ã£o",
        -10.515948740602884
      ],
      [
        "Ġtrabalhador",
        -10.516856034981585
      ],
      [
        "Proposta",
        -10.517117064312313
      ],
      [
        "Ġcuidado",
        -10.51778085603758
      ],
      [
        "ĠForÃ§a",
        -10.520024033543306
      ],
      [
        "Ġsinal",
        -10.521379583622952
      ],
      [
        "à",
        -10.521989706987084
      ],
      [
        "Ġquinta",
        -10.522695050490116
      ],
      [
        "Ġhumana",
        -10.523343330029428
      ],
      [
        "¤",
        -10.523655192443265
      ],
      [
        "Ġpartida",
        -10.527011853387826
      ],
      [
        "Ġcorpus",
        -10.52714972984388
      ],
      [
        "Ġregistrado",
        -10.52821274534015
      ],
      [
        "estrutura",
        -10.528391052276069
      ],
      [
        "Ġrealiza",
        -10.528899485028305
      ],
      [
        "FederaÃ§Ã£o",
        -10.529071022587342
      ],
      [
        "gravada",
        -10.529502741585947
      ],
      [
        "prÃªmio",
        -10.530859556106282
      ],
      [
        "Ġcompanhia",
        -10.531759162382464
      ],
      [
        "definiÃ§Ã£o",
        -10.531905408351308
      ],
      [
        "precisamos",
        -10.532208709508971
      ],
      [
        "avanÃ§o",
        -10.532590803726729
      ],
      [
        "humanos",
        -10.532639766250288
      ],
      [
        "ĭ",
        -10.532671440509043
      ],
      [
        "campeÃ£o",
        -10.532908780511598
      ],
      [
        "Ġmedo",
        -10.533355222229051
      ],
      [
        "Amazonas",
        -10.534593503522563
      ],
      [
        "etapa",
        -10.536228600931928
      ],
      [
        "ĠParlamento",
        -10.53661807995452
      ],
      [
        "consumo",
        -10.537133993680223
      ],
      [
        "ĠfaÃ§o",
        -10.537158363250636
      ],
      [
        "expressÃ£o",
        -10.53837735227715
      ],
      [
        "Ġgosto",
        -10.540702616522818
      ],
      [
        "ĠNeto",
        -10.5411015179635
      ],
      [
        "ĠAssis",
        -10.541590733362856
      ],
      [
        "Barbosa",
        -10.541703044514913
      ],
      [
        "Ġrespectiva",
        -10.542222321475304
      ],
      [
        "ĠusuÃ¡rio",
        -10.542631289104978
      ],
      [
        "retirada",
        -10.544860960481126
      ],
      [
        "Ġouvir",
        -10.544884103696877
      ],
      [
        "Ġafeta",
        -10.545383194231718
      ],
      [
        "contexto",
        -10.545508152539604
      ],
      [
        "investimentos",
        -10.54639154054069
      ],
      [
        "·",
        -10.546396362214216
      ],
      [
        "ĠRegional",
        -10.54669757071961
      ],
      [
        "Ġescolha",
        -10.54691210443482
      ],
      [
        "oradores",
        -10.54755905941458
      ],
      [
        "empresÃ¡rio",
        -10.548239667834403
      ],
      [
        "Ġvelho",
        -10.548324264063751
      ],
      [
        "Ġinternacionais",
        -10.548614496946913
      ],
      [
        "incidÃªncia",
        -10.548875088035212
      ],
      [
        "Ġoferta",
        -10.549059134926615
      ],
      [
        "http",
        -10.54990945597424
      ],
      [
        "Ġadequa",
        -10.549919624228547
      ],
      [
        "ĠMeio",
        -10.55064194719293
      ],
      [
        "desempenho",
        -10.55225094920872
      ],
      [
        "Ġofens",
        -10.552516767181492
      ],
      [
        "Ġesposa",
        -10.553224422639031
      ],
      [
        "apensado",
        -10.554068065778676
      ],
      [
        "Ġsexta",
        -10.554098340521309
      ],
      [
        "AgÃªncia",
        -10.55489505977817
      ],
      [
        "Ġcima",
        -10.555901751324116
      ],
      [
        "tentativa",
        -10.556332155316374
      ],
      [
        "ĠjurisprudÃªncia",
        -10.557732310498144
      ],
      [
        "ĠalÃŃnea",
        -10.558024529849272
      ],
      [
        "Ġtinham",
        -10.56059366527832
      ],
      [
        "RelaÃ§Ãµes",
        -10.561023813133618
      ],
      [
        "Ġampla",
        -10.56132474652624
      ],
      [
        "SRA",
        -10.56214663432335
      ],
      [
        "ĠMagalhÃ£es",
        -10.562227220189298
      ],
      [
        "reconhecimento",
        -10.562825629369312
      ],
      [
        "Ġcaminh",
        -10.562913401502616
      ],
      [
        "metade",
        -10.563618707303553
      ],
      [
        "ĠIsto",
        -10.563750079648944
      ],
      [
        "Ġcontas",
        -10.565093340989703
      ],
      [
        "existem",
        -10.565212672863105
      ],
      [
        "Ĵ",
        -10.565455534307931
      ],
      [
        "tribuiÃ§Ã£o",
        -10.56560118959666
      ],
      [
        "PRIMEIR",
        -10.566499518343278
      ],
      [
        "convidado",
        -10.567482070463257
      ],
      [
        "apelo",
        -10.56855846641855
      ],
      [
        "Ġpensar",
        -10.569025917049483
      ],
      [
        "ð",
        -10.569862341902486
      ],
      [
        "emendas",
        -10.570286603591883
      ],
      [
        "ĠCarreira",
        -10.5708037363953
      ],
      [
        "francÃªs",
        -10.57093322011777
      ],
      [
        "º",
        -10.57109766364904
      ],
      [
        "Ġmassa",
        -10.572318595184736
      ],
      [
        "ĠClaro",
        -10.57236800092792
      ],
      [
        "Ġcorte",
        -10.572717018850298
      ],
      [
        "ĠlicenÃ§a",
        -10.573288299154155
      ],
      [
        "2002",
        -10.57461511260126
      ],
      [
        "ĠExterior",
        -10.574784260197568
      ],
      [
        "decisÃµes",
        -10.57704364407444
      ],
      [
        "Ġprodutor",
        -10.577294702396696
      ],
      [
        "Ġassinatura",
        -10.577921084043728
      ],
      [
        "administrativo",
        -10.578027417222346
      ],
      [
        "ĠTal",
        -10.578060187049983
      ],
      [
        "Ġseguro",
        -10.578201534632331
      ],
      [
        "Ġposse",
        -10.578819085663428
      ],
      [
        "licitaÃ§Ã£o",
        -10.579211243703876
      ],
      [
        "Ġlembra",
        -10.580398717671155
      ],
      [
        "Ġestiver",
        -10.580973089200471
      ],
      [
        "provÃŃncia",
        -10.581419299878824
      ],
      [
        "arney",
        -10.58145182754254
      ],
      [
        "veÃŃculos",
        -10.582397187638676
      ],
      [
        "ĠFerreira",
        -10.582440743444996
      ],
      [
        "mestre",
        -10.582712790956554
      ],
      [
        "Ġpotencial",
        -10.583513278903077
      ],
      [
        "Enquanto",
        -10.583624198847962
      ],
      [
        "Ġexterior",
        -10.583874511417545
      ],
      [
        "correntes",
        -10.58394602729924
      ],
      [
        "Ġcomando",
        -10.583971583115469
      ],
      [
        "ĠConstitucional",
        -10.58439809393818
      ],
      [
        "presidente",
        -10.584562683216904
      ],
      [
        "ĠcompetiÃ§Ã£o",
        -10.58643481371905
      ],
      [
        "ocorreu",
        -10.58673772483314
      ],
      [
        "ĠrÃ¡dio",
        -10.586994615675104
      ],
      [
        "Ġrever",
        -10.587405496581926
      ],
      [
        "ĠelÃ©trica",
        -10.58823757010009
      ],
      [
        "usando",
        -10.590295450163492
      ],
      [
        "Ġdivulg",
        -10.590522583387797
      ],
      [
        "Ġchance",
        -10.590602327623746
      ],
      [
        "ĠOrÃ§ament",
        -10.590891385191473
      ],
      [
        "Ġcontato",
        -10.591286410416602
      ],
      [
        "assinado",
        -10.59195108651262
      ],
      [
        "Ġempregado",
        -10.59275607965724
      ],
      [
        "feitos",
        -10.592811464920027
      ],
      [
        "Ġregistrar",
        -10.594131692588228
      ],
      [
        "Ġterceira",
        -10.59438618830876
      ],
      [
        "ĠmÃ¡quina",
        -10.594913536410363
      ],
      [
        "finalidade",
        -10.595413492199958
      ],
      [
        "exploraÃ§Ã£o",
        -10.595557027464311
      ],
      [
        "ESTADO",
        -10.596127501032466
      ],
      [
        "ĠMello",
        -10.597347942481084
      ],
      [
        "Outra",
        -10.59800260757208
      ],
      [
        "Ġaumentar",
        -10.598200187253646
      ],
      [
        "Embora",
        -10.598410276439743
      ],
      [
        "Ń",
        -10.59846770765676
      ],
      [
        "Ġinteiro",
        -10.599685739842856
      ],
      [
        "Ġpersonagem",
        -10.600365285126582
      ],
      [
        "Ġquiser",
        -10.60081161631958
      ],
      [
        "lanejamento",
        -10.601037645683284
      ],
      [
        "funcionamento",
        -10.601125363487723
      ],
      [
        "indicaÃ§Ã£o",
        -10.601167707077682
      ],
      [
        "Ġseque",
        -10.601840147857496
      ],
      [
        "ĠConstitui",
        -10.602450463179151
      ],
      [
        "tributÃ¡ria",
        -10.603413764765936
      ],
      [
        "policiais",
        -10.604750574977286
      ],
      [
        "ĠdistÃ¢ncia",
        -10.604876445109026
      ],
      [
        "Ġsabia",
        -10.605445334285044
      ],
      [
        "Ġproduzir",
        -10.607194745019244
      ],
      [
        "comÃ©rcio",
        -10.60740435744429
      ],
      [
        "Ġpermanente",
        -10.607623603925877
      ],
      [
        "trinta",
        -10.609072909329146
      ],
      [
        "recebido",
        -10.609244733315178
      ],
      [
        "Ġatende",
        -10.609468318469307
      ],
      [
        "Ġindividual",
        -10.610563627303272
      ],
      [
        "ĠcrÃŃtica",
        -10.61061838253837
      ],
      [
        "mantid",
        -10.612036665650564
      ],
      [
        "Ġadolescente",
        -10.61359216328886
      ],
      [
        "ĠYork",
        -10.61427492416498
      ],
      [
        "geralmente",
        -10.614768064728846
      ],
      [
        "ĠParece",
        -10.615567061094296
      ],
      [
        "firmado",
        -10.617734913539964
      ],
      [
        "Couto",
        -10.619916634967872
      ],
      [
        "ĠfÃ¡cil",
        -10.620323654081323
      ],
      [
        "Bibliografia",
        -10.620970795260993
      ],
      [
        "fizeram",
        -10.621194540563469
      ],
      [
        "Ġimplica",
        -10.621588952524624
      ],
      [
        "definido",
        -10.622283993988672
      ],
      [
        "domÃŃnio",
        -10.622449486955674
      ],
      [
        "Pernambuco",
        -10.62345979336534
      ],
      [
        "redor",
        -10.623635968389062
      ],
      [
        "ordinÃ¡ria",
        -10.623915361503531
      ],
      [
        "Ġintegral",
        -10.62400519959687
      ],
      [
        "passando",
        -10.62604995867126
      ],
      [
        "ĠPapa",
        -10.626207725975586
      ],
      [
        "MÃ£o",
        -10.62642395330696
      ],
      [
        "Ġtriste",
        -10.62690230716881
      ],
      [
        "ĠprÃ©vi",
        -10.626916561288867
      ],
      [
        "Ġclara",
        -10.627122447645238
      ],
      [
        "Ġenorme",
        -10.627857210898002
      ],
      [
        "ĠAgricultura",
        -10.628378188031936
      ],
      [
        "Ġlonga",
        -10.628688492984498
      ],
      [
        "Ġreferente",
        -10.628947418777836
      ],
      [
        "Ġmuda",
        -10.629316009712005
      ],
      [
        "ĠReuni",
        -10.629398012211588
      ],
      [
        "terminou",
        -10.629873410771406
      ],
      [
        "ĠNÃĥO",
        -10.629907337754249
      ],
      [
        "Ġfamiliar",
        -10.630145683885283
      ],
      [
        "bÃ¡sica",
        -10.631778235148737
      ],
      [
        "Ġparcela",
        -10.632414829618073
      ],
      [
        "tradiÃ§Ã£o",
        -10.633533592708336
      ],
      [
        "petrÃ³leo",
        -10.635197262754584
      ],
      [
        "nanimidade",
        -10.63576204077572
      ],
      [
        "trÃ¢nsito",
        -10.636051144845394
      ],
      [
        "professores",
        -10.636807830722548
      ],
      [
        "Ġjeito",
        -10.637410397295223
      ],
      [
        "companheiro",
        -10.639606376246002
      ],
      [
        "patrimÃ´nio",
        -10.639738294446389
      ],
      [
        "Ĩ",
        -10.640543373086324
      ],
      [
        "Ġobservado",
        -10.641631262365474
      ],
      [
        "Vieira",
        -10.642963724127563
      ],
      [
        "Ġinferior",
        -10.643281576732305
      ],
      [
        "Ġalternativa",
        -10.643611245803088
      ],
      [
        "Ġfloresta",
        -10.643700506119096
      ],
      [
        "Ġmensagem",
        -10.643764923908597
      ],
      [
        "Ġmunicipal",
        -10.644392940627258
      ],
      [
        "cenÃ¡rio",
        -10.644479607628409
      ],
      [
        "Ġrapid",
        -10.64529797214934
      ],
      [
        "ĠMachado",
        -10.645575052845505
      ],
      [
        "nasceu",
        -10.645622508890373
      ],
      [
        "iauÃŃ",
        -10.646086768998067
      ],
      [
        "Ġanteriores",
        -10.646332825376325
      ],
      [
        "ĠAurÃ©li",
        -10.647871614817674
      ],
      [
        "tornando",
        -10.648221541495667
      ],
      [
        "Ŀ",
        -10.648244072053624
      ],
      [
        "Ġvolume",
        -10.648779727934958
      ],
      [
        "transferÃªncia",
        -10.648798474154882
      ],
      [
        "ocumentaÃ§Ã£o",
        -10.649860221682967
      ],
      [
        "µ",
        -10.6503344860809
      ],
      [
        "Ġhabilita",
        -10.65104213178134
      ],
      [
        "Ġaberta",
        -10.651786436390683
      ],
      [
        "Ãģfrica",
        -10.651846589057708
      ],
      [
        "âĢĵâĢĵâĢĵâĢĵâĢĵ",
        -10.651856356827508
      ],
      [
        "ĠcoraÃ§Ã£o",
        -10.653065559864242
      ],
      [
        "Ġacorda",
        -10.654073594689196
      ],
      [
        "TIVA",
        -10.655420791996312
      ],
      [
        "ĠPaim",
        -10.655618732796464
      ],
      [
        "ĠveÃŃculo",
        -10.657661447967303
      ],
      [
        "ferido",
        -10.657982040264184
      ],
      [
        "Ġaltura",
        -10.65873693768415
      ],
      [
        "Candido",
        -10.658803075571766
      ],
      [
        "desafio",
        -10.659114893369887
      ],
      [
        "Į",
        -10.659174100068308
      ],
      [
        "2001",
        -10.65936907748429
      ],
      [
        "ĠJapÃ£o",
        -10.659807764167732
      ],
      [
        "ĠCultural",
        -10.659986823541637
      ],
      [
        "Renan",
        -10.660677062523655
      ],
      [
        "produzido",
        -10.661495865205715
      ],
      [
        "Ġperder",
        -10.66181955523867
      ],
      [
        "ĠEspÃŃrit",
        -10.661908514681384
      ],
      [
        "preocupaÃ§Ã£o",
        -10.661975961891184
      ],
      [
        "investigaÃ§Ã£o",
        -10.662597555027425
      ],
      [
        "ĠinfluÃªncia",
        -10.6640285064756
      ],
      [
        "ĠSolicit",
        -10.66492686292732
      ],
      [
        "produtores",
        -10.666682645069988
      ],
      [
        "ĺ",
        -10.666694860347228
      ],
      [
        "Ġsorte",
        -10.667273476298506
      ],
      [
        "Ġtirar",
        -10.667570296688496
      ],
      [
        "queremos",
        -10.667755154295095
      ],
      [
        "PLS",
        -10.66814144671754
      ],
      [
        "iretrizes",
        -10.668376877582748
      ],
      [
        "Ġparticipou",
        -10.669613045811984
      ],
      [
        "Ġteor",
        -10.670364703906458
      ],
      [
        "Mesmo",
        -10.672053570324207
      ],
      [
        "Ġrepercuss",
        -10.673139786170896
      ],
      [
        "votos",
        -10.673911162766435
      ],
      [
        "Ĳ",
        -10.674682385152192
      ],
      [
        "conduta",
        -10.675957954369425
      ],
      [
        "OLI",
        -10.676936104445836
      ],
      [
        "recebimento",
        -10.677171939438477
      ],
      [
        "contrataÃ§Ã£o",
        -10.677173478838458
      ],
      [
        "Ġdireto",
        -10.677651622668709
      ],
      [
        "ĠJoaquim",
        -10.678242073178442
      ],
      [
        "true",
        -10.679991977341745
      ],
      [
        "ĠEdita",
        -10.6804503440349
      ],
      [
        "Ġjurisdi",
        -10.681220464658484
      ],
      [
        "Parlamentare",
        -10.681289163698532
      ],
      [
        "ĠAmbiente",
        -10.6817018475506
      ],
      [
        "Acordo",
        -10.681724633686317
      ],
      [
        "Ġmostrar",
        -10.681836637950315
      ],
      [
        "casamento",
        -10.68194675653191
      ],
      [
        "REGIMENT",
        -10.682380303578292
      ],
      [
        "teoria",
        -10.682428524991854
      ],
      [
        "udou",
        -10.683149311922625
      ],
      [
        "Chefe",
        -10.684457915730952
      ],
      [
        "ĠcientÃŃfica",
        -10.68460901422868
      ],
      [
        "FÃ¡bio",
        -10.685036977164469
      ],
      [
        "MÃ¡rio",
        -10.685089844862594
      ],
      [
        "ExÃ©rcito",
        -10.685299161451812
      ],
      [
        "tributo",
        -10.685359723183389
      ],
      [
        "inconstitucional",
        -10.68560643887464
      ],
      [
        "GoiÃ¡",
        -10.686051212309671
      ],
      [
        "Ġvenha",
        -10.686781400978258
      ],
      [
        "idÃ©ia",
        -10.689085446896934
      ],
      [
        "Ġclassifica",
        -10.689088944910324
      ],
      [
        "ĠPrecisa",
        -10.689799307762282
      ],
      [
        "Ġlonge",
        -10.68991104024538
      ],
      [
        "âĢ¦",
        -10.690906964945851
      ],
      [
        "Ġabrir",
        -10.692387241899803
      ],
      [
        "Ġmicro",
        -10.693260534293591
      ],
      [
        "stÃ¡dio",
        -10.694041257483915
      ],
      [
        "Ġpegar",
        -10.695433572747278
      ],
      [
        "eficiente",
        -10.695522789801023
      ],
      [
        "Eduardo",
        -10.695684515873731
      ],
      [
        "mecanismo",
        -10.696142211734047
      ],
      [
        "ķ",
        -10.696225402893347
      ],
      [
        "Ļ",
        -10.696253181221005
      ],
      [
        "Ġ(...)",
        -10.696364311334186
      ],
      [
        "implantaÃ§Ã£o",
        -10.696476571646349
      ],
      [
        "Ġvigorar",
        -10.697153881511458
      ],
      [
        "tentando",
        -10.69760051082048
      ],
      [
        "divisÃ£o",
        -10.697689374508816
      ],
      [
        "navio",
        -10.69970677953368
      ],
      [
        "ĠPresident",
        -10.699746792423204
      ],
      [
        "Ġadequada",
        -10.699780085112064
      ],
      [
        "Ġportuguesa",
        -10.7000294479507
      ],
      [
        "CÃĤMARA",
        -10.700576083525323
      ],
      [
        "Ġenvolve",
        -10.701049479173848
      ],
      [
        "juntamente",
        -10.701113763623802
      ],
      [
        "ĠmemÃ³ria",
        -10.701221237315766
      ],
      [
        "cÃ¡lculo",
        -10.702077632541666
      ],
      [
        "Ġincluir",
        -10.702203870476716
      ],
      [
        "Ġmorto",
        -10.702310615407049
      ],
      [
        "Ħ",
        -10.704326509318658
      ],
      [
        "Nunca",
        -10.70478047219599
      ],
      [
        "ocasiÃ£o",
        -10.704880124084996
      ],
      [
        "INHO",
        -10.705036086449509
      ],
      [
        "ĠEspere",
        -10.705549132617408
      ],
      [
        "Ġculpa",
        -10.706423608816076
      ],
      [
        "Ġsonho",
        -10.706802797394214
      ],
      [
        "Ġacontecer",
        -10.707252332858216
      ],
      [
        "ĠFaria",
        -10.7074806275004
      ],
      [
        "ĠespecÃŃfica",
        -10.707945885174777
      ],
      [
        "Registro",
        -10.708006679439286
      ],
      [
        "vejo",
        -10.70833074346589
      ],
      [
        "Ġganhar",
        -10.70834443395621
      ],
      [
        "ĠParaÃŃba",
        -10.709153403738302
      ],
      [
        "Ġporte",
        -10.70936105599701
      ],
      [
        "trazer",
        -10.709511020516551
      ],
      [
        "constitucional",
        -10.711266727579778
      ],
      [
        "seguido",
        -10.711535171923256
      ],
      [
        "circunstÃ¢ncia",
        -10.711798928751614
      ],
      [
        "Ġprestar",
        -10.71197721632152
      ],
      [
        "Ġestrela",
        -10.711984598934556
      ],
      [
        "morreu",
        -10.712613259648627
      ],
      [
        "entrou",
        -10.713004456542036
      ],
      [
        "¼",
        -10.71316503404096
      ],
      [
        "Afonso",
        -10.713615869895118
      ],
      [
        "Ġmusical",
        -10.71543555149667
      ],
      [
        "voltou",
        -10.715488337183883
      ],
      [
        "obretudo",
        -10.71621039140184
      ],
      [
        "atitude",
        -10.719201125616502
      ],
      [
        "Ġletra",
        -10.7196375091201
      ],
      [
        "Ġsugeri",
        -10.719662380914038
      ],
      [
        "Ġgaroto",
        -10.720194841149354
      ],
      [
        "ofÃŃcio",
        -10.721576554307184
      ],
      [
        "mÃ©todo",
        -10.726181598009171
      ],
      [
        "æ",
        -10.72803678758032
      ],
      [
        "Ġresolver",
        -10.728286505318346
      ],
      [
        "DIAS",
        -10.728560504004736
      ],
      [
        "TÃ©cnico",
        -10.729507803702166
      ],
      [
        "kk",
        -10.729543582121975
      ],
      [
        "Ġrepeti",
        -10.731625265642029
      ],
      [
        "Ġsoma",
        -10.732081657619814
      ],
      [
        "lideranÃ§a",
        -10.733600308715188
      ],
      [
        "ĠPessoal",
        -10.733935458226428
      ],
      [
        "sentimento",
        -10.734134189614512
      ],
      [
        "ispÃµe",
        -10.734737193159884
      ],
      [
        "inicialmente",
        -10.73493034986899
      ],
      [
        "Ġservidor",
        -10.736580785646597
      ],
      [
        "coberto",
        -10.736730182837324
      ],
      [
        "interpretaÃ§Ã£o",
        -10.737204952174816
      ],
      [
        "Ġseparado",
        -10.737580193032986
      ],
      [
        "Ġutilizada",
        -10.738294655908671
      ],
      [
        "ĠTrabalhador",
        -10.73836467675752
      ],
      [
        "formada",
        -10.739449015978671
      ],
      [
        "Ġnomeado",
        -10.741062583995042
      ],
      [
        "JUSTIÃĩA",
        -10.741105740541398
      ],
      [
        "Desculpe",
        -10.74139779539429
      ],
      [
        "ĠCastro",
        -10.742571670843237
      ],
      [
        "Recurso",
        -10.742888994612269
      ],
      [
        "Ġcumprir",
        -10.742917809453129
      ],
      [
        "¡",
        -10.744040739954892
      ],
      [
        "Ġaponta",
        -10.744965833935076
      ],
      [
        "embargo",
        -10.745792385494996
      ],
      [
        "Ġparlamentar",
        -10.745799420495525
      ],
      [
        "participante",
        -10.74592074543376
      ],
      [
        "Ġtrouxe",
        -10.746964740506863
      ],
      [
        "Ġplaneta",
        -10.74721299222413
      ],
      [
        "declaro",
        -10.74751785873732
      ],
      [
        "gravante",
        -10.747522686343077
      ],
      [
        "consequÃªncia",
        -10.74890342536008
      ],
      [
        "112",
        -10.749996432805684
      ],
      [
        "mÃŃdia",
        -10.75071621958308
      ],
      [
        "velocidade",
        -10.751306642651512
      ],
      [
        "Ġcriou",
        -10.751808032112342
      ],
      [
        "ituaÃ§Ãµes",
        -10.752015038825018
      ],
      [
        "escreveu",
        -10.75215385498972
      ],
      [
        "Ġmelhorar",
        -10.752703189195852
      ],
      [
        "ĠUnido",
        -10.7528898639042
      ],
      [
        "exÃ©rcito",
        -10.753135335302566
      ],
      [
        "¹",
        -10.754347755268142
      ],
      [
        "Ġsimplesmente",
        -10.754566317414568
      ],
      [
        "viagem",
        -10.754769915150773
      ],
      [
        "ĠOutro",
        -10.754822230200343
      ],
      [
        "ĠVerde",
        -10.755518137803923
      ],
      [
        "Ġesteve",
        -10.755924569366332
      ],
      [
        "ĠEntend",
        -10.75759560748206
      ],
      [
        "obrigaÃ§Ã£o",
        -10.75913850303106
      ],
      [
        "ĠPessoa",
        -10.761026276014054
      ],
      [
        "Ġglobal",
        -10.761880165320816
      ],
      [
        "posteriormente",
        -10.762128489880586
      ],
      [
        "situad",
        -10.762930898297125
      ],
      [
        "ĠJunior",
        -10.763773298305637
      ],
      [
        "Ġcompetente",
        -10.763807557637088
      ],
      [
        "totalmente",
        -10.764025230809157
      ],
      [
        "responsÃ¡veis",
        -10.764309700924963
      ],
      [
        "ĠTRIBU",
        -10.764683346370536
      ],
      [
        "Geografia",
        -10.764889158092217
      ],
      [
        "Ġdirigi",
        -10.766000046503434
      ],
      [
        "ĠLÃ¡",
        -10.766559961119196
      ],
      [
        "Ġconstruir",
        -10.767621436660834
      ],
      [
        "InocÃªnci",
        -10.768867952836535
      ],
      [
        "vÃŃrus",
        -10.76919484463108
      ],
      [
        "Ġinterno",
        -10.769250071394012
      ],
      [
        "domingo",
        -10.76942150729735
      ],
      [
        "ĠChris",
        -10.769629909328206
      ],
      [
        "passada",
        -10.769815221785768
      ],
      [
        "ĠdÃ³lares",
        -10.771177105058928
      ],
      [
        "frequÃªncia",
        -10.772939266429043
      ],
      [
        "Ġagricultura",
        -10.772954061077328
      ],
      [
        "DiÃ¡rio",
        -10.773518660696366
      ],
      [
        "²",
        -10.773845569532485
      ],
      [
        "Atualmente",
        -10.774266793080722
      ],
      [
        "¿",
        -10.775277934589589
      ],
      [
        "ExcelentÃŃssimo",
        -10.779077170498516
      ],
      [
        "Ġverdadeira",
        -10.779811989695313
      ],
      [
        "ocupado",
        -10.780204831377944
      ],
      [
        "Ġargumento",
        -10.780263276796727
      ],
      [
        "bÃ¡sico",
        -10.781540305420462
      ],
      [
        "ĠBorges",
        -10.781736958399083
      ],
      [
        "Gilmar",
        -10.782123872674646
      ],
      [
        "Ġirregular",
        -10.782434305801308
      ],
      [
        "Ġpolicial",
        -10.78396302051308
      ],
      [
        "Ã¶",
        -10.784392313121508
      ],
      [
        "Ġvencedor",
        -10.78447013696488
      ],
      [
        "ĠaniversÃ¡rio",
        -10.785207493313
      ],
      [
        "Ġintegrar",
        -10.78600133593916
      ],
      [
        "Ġespanhol",
        -10.786245610601169
      ],
      [
        "Ġtiver",
        -10.78663896289578
      ],
      [
        "Faculdade",
        -10.78681092293455
      ],
      [
        "Cavalcanti",
        -10.787101333619209
      ],
      [
        "inanÃ§as",
        -10.787143359609631
      ],
      [
        "ĠSujeit",
        -10.787302333529553
      ],
      [
        "Ġindustrial",
        -10.787667176745956
      ],
      [
        "Ġagradece",
        -10.787850712109298
      ],
      [
        "Deputado",
        -10.78849147629843
      ],
      [
        "classificaÃ§Ã£o",
        -10.78891375556312
      ],
      [
        "manifestaÃ§Ã£o",
        -10.789199377077084
      ],
      [
        "decorrente",
        -10.78983390694584
      ],
      [
        "Alguns",
        -10.79045808328756
      ],
      [
        "ĠPesquisa",
        -10.791099332176977
      ],
      [
        "Calheiro",
        -10.791696602553742
      ],
      [
        "ĠConven",
        -10.79295768597548
      ],
      [
        "Ġpertence",
        -10.793182409660348
      ],
      [
        "liÃ¡s",
        -10.793207752590696
      ],
      [
        "materiais",
        -10.794158440575352
      ],
      [
        "Ġmensal",
        -10.794359321663968
      ],
      [
        "incentivo",
        -10.796933840874452
      ],
      [
        "Ġqueda",
        -10.797084905530689
      ],
      [
        "Ġdeixe",
        -10.797657392315411
      ],
      [
        "Ġcompleto",
        -10.798192250419168
      ],
      [
        "positivo",
        -10.798681437772832
      ],
      [
        "propÃ³sito",
        -10.799973513083064
      ],
      [
        "Ġcorrespondente",
        -10.800363326801
      ],
      [
        "Ġexercer",
        -10.80078542901445
      ],
      [
        "polÃŃticas",
        -10.80217406409779
      ],
      [
        "devidamente",
        -10.802184113272542
      ],
      [
        "Ġexclusivament",
        -10.80277648443714
      ],
      [
        "nquÃ©rito",
        -10.80294165954322
      ],
      [
        "SEÃĩÃĥO",
        -10.803245962211204
      ],
      [
        "feminino",
        -10.803361151024426
      ],
      [
        "proferid",
        -10.803394817659257
      ],
      [
        "composiÃ§Ã£o",
        -10.8036343320062
      ],
      [
        "perante",
        -10.803706112522235
      ],
      [
        "ilustre",
        -10.804185651341973
      ],
      [
        "Ġloja",
        -10.804316331325076
      ],
      [
        "estrangeiro",
        -10.804667017658502
      ],
      [
        "recuperaÃ§Ã£o",
        -10.804775931537586
      ],
      [
        "Ġchamar",
        -10.805314863565068
      ],
      [
        "composto",
        -10.80551911223644
      ],
      [
        "Energia",
        -10.806192974794287
      ],
      [
        "Ġcomportamento",
        -10.807221990508234
      ],
      [
        "ĠInglaterra",
        -10.808267450806614
      ],
      [
        "Ġpodia",
        -10.808432092269747
      ],
      [
        "Ġciclo",
        -10.808576351377049
      ],
      [
        "verdadeiro",
        -10.808815180332944
      ],
      [
        "divulgaÃ§Ã£o",
        -10.808981894326497
      ],
      [
        "Ġfugi",
        -10.809455626160467
      ],
      [
        "adequado",
        -10.809797205751
      ],
      [
        "Ġaparte",
        -10.810999787189214
      ],
      [
        "ImpÃ©rio",
        -10.811551863109209
      ],
      [
        "autoridades",
        -10.8133496053207
      ],
      [
        "cargos",
        -10.813428826236528
      ],
      [
        "senhores",
        -10.81386742658016
      ],
      [
        "ĠrepresentaÃ§Ã£o",
        -10.813943741555434
      ],
      [
        "setores",
        -10.814517871876156
      ],
      [
        "localidade",
        -10.815089871090096
      ],
      [
        "PorÃ©m",
        -10.815168021068072
      ],
      [
        "inscrito",
        -10.815304098185203
      ],
      [
        "ĠsÃ©rio",
        -10.815755458489107
      ],
      [
        "instÃ¢nci",
        -10.815853869029809
      ],
      [
        "ĠExiste",
        -10.816419405411622
      ],
      [
        "ocorrido",
        -10.817541797219317
      ],
      [
        "Ġterem",
        -10.818234469551802
      ],
      [
        "lteraÃ§Ãµes",
        -10.818372859723842
      ],
      [
        "ĠSimon",
        -10.81860379645298
      ],
      [
        "TVR",
        -10.81875103345986
      ],
      [
        "Ġreduzir",
        -10.818989354018395
      ],
      [
        "Arnaldo",
        -10.819106914754167
      ],
      [
        "Ġconfigura",
        -10.819651771861462
      ],
      [
        "Ġconsulta",
        -10.82024768671621
      ],
      [
        "urbana",
        -10.821831649920767
      ],
      [
        "ocupada",
        -10.822149496653031
      ],
      [
        "sujeito",
        -10.823149902400967
      ],
      [
        "crimes",
        -10.823906868762291
      ],
      [
        "nÃ¡cio",
        -10.824393649983929
      ],
      [
        "pudesse",
        -10.824795671722011
      ],
      [
        "submetid",
        -10.825299830042054
      ],
      [
        "Ġcadeira",
        -10.825332360855413
      ],
      [
        "trÃ¡s",
        -10.825335721409742
      ],
      [
        "dispositivos",
        -10.826043151137558
      ],
      [
        "PÃļBLICA",
        -10.826752935480394
      ],
      [
        "ĠOra",
        -10.826778681685678
      ],
      [
        "ĠPaes",
        -10.82828178629769
      ],
      [
        "ComÃ©rcio",
        -10.828712919697164
      ],
      [
        "efetivo",
        -10.828808683673962
      ],
      [
        "ï¿½",
        -10.829061927521028
      ],
      [
        "Ġobter",
        -10.829341670222982
      ],
      [
        "gastos",
        -10.830170463056636
      ],
      [
        "limites",
        -10.830642335226
      ],
      [
        "revÃª",
        -10.831195732406854
      ],
      [
        "Ġobti",
        -10.831546141745768
      ],
      [
        "Ġacontecendo",
        -10.83158588462173
      ],
      [
        "CCJ",
        -10.831643736976732
      ],
      [
        "Ġlembrar",
        -10.83206108607814
      ],
      [
        "Assembleia",
        -10.833135545817385
      ],
      [
        "modalidade",
        -10.83355188492773
      ],
      [
        "Ġuniversidade",
        -10.834562155323267
      ],
      [
        "Freitas",
        -10.83616929112191
      ],
      [
        "acusado",
        -10.836522319947068
      ],
      [
        "Ronaldo",
        -10.836936983747522
      ],
      [
        "finais",
        -10.83720411008908
      ],
      [
        "milhare",
        -10.83801746442858
      ],
      [
        "drogas",
        -10.838537408827548
      ],
      [
        "Ġsemelhante",
        -10.83901611221705
      ],
      [
        "segmento",
        -10.839376401261756
      ],
      [
        "ĠexposiÃ§Ã£o",
        -10.839815530890853
      ],
      [
        "JÃºlio",
        -10.84067208618886
      ],
      [
        "ĠPaulista",
        -10.84101104925675
      ],
      [
        "Ġleve",
        -10.841763658198442
      ],
      [
        "cobranÃ§a",
        -10.843094004015637
      ],
      [
        "Ġexpectativa",
        -10.843320014215006
      ],
      [
        "mÃ£os",
        -10.8436213282173
      ],
      [
        "XIX",
        -10.844098950442532
      ],
      [
        "Biografia",
        -10.844590953762614
      ],
      [
        "condenad",
        -10.845528065899993
      ],
      [
        "ĠPois",
        -10.845628591890486
      ],
      [
        "especiais",
        -10.84567744976475
      ],
      [
        "ĠcontribuiÃ§Ãµes",
        -10.845764884453567
      ],
      [
        "orÃ§amento",
        -10.846072902905208
      ],
      [
        "disposiÃ§Ã£o",
        -10.8472903243558
      ],
      [
        "Ġsujeita",
        -10.847484931053746
      ],
      [
        "ĠAPRECIA",
        -10.848134582447734
      ],
      [
        "Ġsexual",
        -10.848493797964828
      ],
      [
        "recorrente",
        -10.848771563242869
      ],
      [
        "Ġgarota",
        -10.849069828915578
      ],
      [
        "princÃŃpios",
        -10.850260993002204
      ],
      [
        "Ġposterior",
        -10.850658652131775
      ],
      [
        "Relator",
        -10.851546630172091
      ],
      [
        "Ø",
        -10.851748398897032
      ],
      [
        "ħ",
        -10.85223776737873
      ],
      [
        "OrganizaÃ§Ã£o",
        -10.853658395729523
      ],
      [
        "Sociedade",
        -10.85377267823885
      ],
      [
        "omitÃª",
        -10.854183424704509
      ],
      [
        "promoÃ§Ã£o",
        -10.85483223879981
      ],
      [
        "Ġextremament",
        -10.855098296835695
      ],
      [
        "MDB",
        -10.855899285385943
      ],
      [
        "ĠseleÃ§Ã£o",
        -10.856397780785212
      ],
      [
        "ousseff",
        -10.857620406152105
      ],
      [
        "tivemos",
        -10.857691229841295
      ],
      [
        "construÃŃdo",
        -10.85818038235527
      ],
      [
        "Psc",
        -10.85819851616676
      ],
      [
        "Ġobrigada",
        -10.858835184958988
      ],
      [
        "IndÃºstria",
        -10.859837322931458
      ],
      [
        "passagem",
        -10.85996362535461
      ],
      [
        "ĠnegÃ³cio",
        -10.86010768156883
      ],
      [
        "ĠEmpresa",
        -10.861810665914224
      ],
      [
        "Ġnele",
        -10.86181206567412
      ],
      [
        "ComunicaÃ§Ãµes",
        -10.861878227831475
      ],
      [
        "Bolsonaro",
        -10.86191100495537
      ],
      [
        "Ġevidente",
        -10.86209402038871
      ],
      [
        "________________",
        -10.862306479809234
      ],
      [
        "Ġcenso",
        -10.862391815682091
      ],
      [
        "Edson",
        -10.863366239384652
      ],
      [
        "masculino",
        -10.864732360114878
      ],
      [
        "SEGUND",
        -10.867296290396668
      ],
      [
        "rurais",
        -10.86773107001999
      ],
      [
        "Bezerra",
        -10.87127959100197
      ],
      [
        "ĠMinori",
        -10.871578220287557
      ],
      [
        "RogÃ©ri",
        -10.871728862957765
      ],
      [
        "MENTE",
        -10.871764834594115
      ],
      [
        "SENADO",
        -10.87206155621822
      ],
      [
        "aplicada",
        -10.873517662487725
      ],
      [
        "suspensÃ£",
        -10.874495398250753
      ],
      [
        "NALDO",
        -10.874741824609508
      ],
      [
        "ĠSILVA",
        -10.874944836891832
      ],
      [
        "Ġorganizado",
        -10.87511175203256
      ],
      [
        "colocado",
        -10.875128388020638
      ],
      [
        "passageiro",
        -10.876266569105482
      ],
      [
        "Ġtelefone",
        -10.877100289077408
      ],
      [
        "Pinheiro",
        -10.877150490375668
      ],
      [
        "provavelmente",
        -10.878442876116225
      ],
      [
        "pediu",
        -10.87854317434649
      ],
      [
        "Viana",
        -10.87864995761746
      ],
      [
        "Ġexige",
        -10.87880718211672
      ],
      [
        "Palma",
        -10.879451797702425
      ],
      [
        "Ġdiploma",
        -10.88090455346565
      ],
      [
        "ĠSantana",
        -10.881465675004865
      ],
      [
        "AraÃºjo",
        -10.882114245445226
      ],
      [
        "possue",
        -10.88217025276808
      ],
      [
        "lanÃ§ou",
        -10.88289018784641
      ],
      [
        "Ġpleit",
        -10.882962276694688
      ],
      [
        "discutido",
        -10.883343941404195
      ],
      [
        "mediatamente",
        -10.883844249930965
      ],
      [
        "Ġconsiste",
        -10.885154451732507
      ],
      [
        "ffoli",
        -10.8853377688665
      ],
      [
        "Ġpesca",
        -10.886892624768228
      ],
      [
        "ĠMÃ©xico",
        -10.88991126719175
      ],
      [
        "Ġtabela",
        -10.889966953704944
      ],
      [
        "aeroporto",
        -10.890250227698818
      ],
      [
        "Nesta",
        -10.890984237856031
      ],
      [
        "cantora",
        -10.892168588318215
      ],
      [
        "ĠRECEBI",
        -10.892269079212069
      ],
      [
        "incidente",
        -10.892830217425905
      ],
      [
        "Ġconjunta",
        -10.893708490774662
      ],
      [
        "ISBN",
        -10.894005593781198
      ],
      [
        "Contrato",
        -10.894257995565816
      ],
      [
        "FILH",
        -10.89582486321472
      ],
      [
        "equivalente",
        -10.895910081278998
      ],
      [
        "Ġlance",
        -10.896987340860012
      ],
      [
        "bastecimento",
        -10.898147277752598
      ],
      [
        "relevÃ¢ncia",
        -10.89911952912334
      ],
      [
        "Ġcomposta",
        -10.899531582606558
      ],
      [
        "seguimento",
        -10.899878419323905
      ],
      [
        "Ĺ",
        -10.90016313512984
      ],
      [
        "´",
        -10.900343256860197
      ],
      [
        "empenho",
        -10.900357337593563
      ],
      [
        "Ġdescreve",
        -10.901527900997849
      ],
      [
        "personagens",
        -10.90173917252046
      ],
      [
        "Ġfalha",
        -10.901844284847352
      ],
      [
        "Ġmeia",
        -10.901955235746716
      ],
      [
        "Ġhospital",
        -10.902744486639794
      ],
      [
        "ĠespecÃŃfico",
        -10.903987539335118
      ],
      [
        "pertencente",
        -10.904337972772993
      ],
      [
        "§",
        -10.904753683944408
      ],
      [
        "³",
        -10.905285898312378
      ],
      [
        "Ġgolpe",
        -10.905296874904815
      ],
      [
        "Ġmedalha",
        -10.905346388219444
      ],
      [
        "recorrid",
        -10.905404379763356
      ],
      [
        "Ġpublica",
        -10.905588253088151
      ],
      [
        "¯",
        -10.905931143908818
      ],
      [
        "mandado",
        -10.906909921508417
      ],
      [
        "naturais",
        -10.908085079660117
      ],
      [
        "Ġescolar",
        -10.908548717696323
      ],
      [
        "esquerda",
        -10.909280952294932
      ],
      [
        "validade",
        -10.909491315157876
      ],
      [
        "Ġrelevante",
        -10.909866281711777
      ],
      [
        "Ġpreceit",
        -10.910289915793724
      ],
      [
        "segurado",
        -10.912467643613557
      ],
      [
        "querida",
        -10.914263845035878
      ],
      [
        "Ġitaliano",
        -10.914742506994546
      ],
      [
        "Estudo",
        -10.915451807584626
      ],
      [
        "Ġbeneficia",
        -10.91557599606194
      ],
      [
        "ĠcÃ³digo",
        -10.916053739926625
      ],
      [
        "Entretant",
        -10.91683659829333
      ],
      [
        "eguridade",
        -10.917395839326964
      ],
      [
        "menores",
        -10.917482324815602
      ],
      [
        "Ã¨",
        -10.917488992637711
      ],
      [
        "fÃŃsico",
        -10.91779731554552
      ],
      [
        "ĠProduto",
        -10.920351587707536
      ],
      [
        "dentre",
        -10.92060081106688
      ],
      [
        "confianÃ§a",
        -10.920673198293954
      ],
      [
        "Ġdupla",
        -10.921711208182632
      ],
      [
        "integraÃ§Ã£o",
        -10.921932183714672
      ],
      [
        "espero",
[...]
