{
  "version": "1.0",
  "truncation": {
    "direction": "Right",
    "max_length": 1024,
    "strategy": "LongestFirst",
    "stride": 0
  },
  "padding": null,
  "added_tokens": [
    {
      "id": 0,
      "content": "[PAD]",
      "single_word": false,
      "lstrip": false,
      "rstrip": false,
      "normalized": false,
      "special": true
    },
    {
      "id": 1,
      "content": "[SEP]",
      "single_word": false,
      "lstrip": false,
      "rstrip": false,
      "normalized": false,
      "special": true
    },
    {
      "id": 2,
      "content": "[EOS]",
      "single_word": false,
      "lstrip": false,
      "rstrip": false,
      "normalized": false,
      "special": true
    },
    {
      "id": 3,
      "content": "[UNK]",
      "single_word": false,
      "lstrip": false,
      "rstrip": false,
      "normalized": false,
      "special": true
    }
  ],
  "normalizer": {
    "type": "Sequence",
    "normalizers": [
      {
        "type": "Strip",
        "strip_left": true,
        "strip_right": true
      },
      {
        "type": "NFKC"
      }
    ]
  },
  "pre_tokenizer": {
    "type": "ByteLevel",
    "add_prefix_space": true,
    "trim_offsets": true,
    "use_regex": true
  },
  "post_processor": {
    "type": "Sequence",
    "processors": [
      {
        "type": "ByteLevel",
        "add_prefix_space": true,
        "trim_offsets": true,
        "use_regex": true
      },
      {
        "type": "TemplateProcessing",
        "single": [
          {
            "Sequence": {
              "id": "A",
              "type_id": 0
            }
          },
          {
            "SpecialToken": {
              "id": "[EOS]",
              "type_id": 0
            }
          }
        ],
        "pair": [
          {
            "Sequence": {
              "id": "A",
              "type_id": 0
            }
          },
          {
            "SpecialToken": {
              "id": "[SEP]",
              "type_id": 0
            }
          },
          {
            "Sequence": {
              "id": "B",
              "type_id": 0
            }
          },
          {
            "SpecialToken": {
              "id": "[EOS]",
              "type_id": 0
            }
          }
        ],
        "special_tokens": {
          "[EOS]": {
            "id": "[EOS]",
            "ids": [
              2
            ],
            "tokens": [
              "[EOS]"
            ]
          },
          "[SEP]": {
            "id": "[SEP]",
            "ids": [
              1
            ],
            "tokens": [
              "[SEP]"
            ]
          }
        }
      }
    ]
  },
  "decoder": {
    "type": "ByteLevel",
    "add_prefix_space": true,
    "trim_offsets": true,
    "use_regex": true
  },
  "model": {
    "type": "BPE",
    "dropout": null,
    "unk_token": null,
    "continuing_subword_prefix": null,
    "end_of_word_suffix": null,
    "fuse_unk": false,
    "byte_fallback": false,
    "ignore_merges": false,
    "vocab": {
      "[PAD]": 0,
      "[SEP]": 1,
      "[EOS]": 2,
      "[UNK]": 3,
      "!": 4,
      "\"": 5,
      "#": 6,
      "$": 7,
      "%": 8,
      "&": 9,
      "'": 10,
      "(": 11,
      ")": 12,
      "*": 13,
      "+": 14,
      ",": 15,
      "-": 16,
      ".": 17,
      "/": 18,
      "0": 19,
      "1": 20,
      "2": 21,
      "3": 22,
      "4": 23,
      "5": 24,
      "6": 25,
      "7": 26,
      "8": 27,
      "9": 28,
      ":": 29,
      ";": 30,
      "<": 31,
      "=": 32,
      ">": 33,
      "?": 34,
      "@": 35,
      "A": 36,
      "B": 37,
      "C": 38,
      "D": 39,
      "E": 40,
      "F": 41,
      "G": 42,
      "H": 43,
      "I": 44,
      "J": 45,
      "K": 46,
      "L": 47,
      "M": 48,
      "N": 49,
      "O": 50,
      "P": 51,
      "Q": 52,
      "R": 53,
      "S": 54,
      "T": 55,
      "U": 56,
      "V": 57,
      "W": 58,
      "X": 59,
      "Y": 60,
      "Z": 61,
      "[": 62,
      "\\": 63,
      "]": 64,
      "^": 65,
      "_": 66,
      "`": 67,
      "a": 68,
      "b": 69,
      "c": 70,
      "d": 71,
      "e": 72,
      "f": 73,
      "g": 74,
      "h": 75,
      "i": 76,
      "j": 77,
      "k": 78,
      "l": 79,
      "m": 80,
      "n": 81,
      "o": 82,
      "p": 83,
      "q": 84,
      "r": 85,
      "s": 86,
      "t": 87,
      "u": 88,
      "v": 89,
      "w": 90,
      "x": 91,
      "y": 92,
      "z": 93,
      "{": 94,
      "|": 95,
      "}": 96,
      "~": 97,
      "¡": 98,
      "¢": 99,
      "£": 100,
      "¤": 101,
      "¥": 102,
      "¦": 103,
      "§": 104,
      "¨": 105,
      "©": 106,
      "ª": 107,
      "«": 108,
      "¬": 109,
      "®": 110,
      "¯": 111,
      "°": 112,
      "±": 113,
      "²": 114,
      "³": 115,
      "´": 116,
      "µ": 117,
      "¶": 118,
      "·": 119,
      "¸": 120,
      "¹": 121,
      "º": 122,
      "»": 123,
      "¼": 124,
      "½": 125,
      "¾": 126,
      "¿": 127,
      "À": 128,
      "Á": 129,
      "Â": 130,
      "Ã": 131,
      "Ä": 132,
      "Å": 133,
      "Æ": 134,
      "Ç": 135,
      "È": 136,
      "É": 137,
      "Ê": 138,
      "Ë": 139,
      "Ì": 140,
      "Í": 141,
      "Î": 142,
      "Ï": 143,
      "Ð": 144,
      "Ñ": 145,
      "Ò": 146,
      "Ó": 147,
      "Ô": 148,
      "Õ": 149,
      "Ö": 150,
      "×": 151,
      "Ø": 152,
      "Ù": 153,
      "Ú": 154,
      "Û": 155,
      "Ü": 156,
      "Ý": 157,
      "Þ": 158,
      "ß": 159,
      "à": 160,
      "á": 161,
      "â": 162,
      "ã": 163,
      "ä": 164,
      "å": 165,
      "æ": 166,
      "ç": 167,
      "è": 168,
      "é": 169,
      "ê": 170,
      "ë": 171,
      "ì": 172,
      "í": 173,
      "î": 174,
      "ï": 175,
      "ð": 176,
      "ñ": 177,
      "ò": 178,
      "ó": 179,
      "ô": 180,
      "õ": 181,
      "ö": 182,
      "÷": 183,
      "ø": 184,
      "ù": 185,
      "ú": 186,
      "û": 187,
      "ü": 188,
      "ý": 189,
      "þ": 190,
      "ÿ": 191,
      "Ā": 192,
      "ā": 193,
      "Ă": 194,
      "ă": 195,
      "Ą": 196,
      "ą": 197,
      "Ć": 198,
      "ć": 199,
      "Ĉ": 200,
      "ĉ": 201,
      "Ċ": 202,
      "ċ": 203,
      "Č": 204,
      "č": 205,
      "Ď": 206,
      "ď": 207,
      "Đ": 208,
      "đ": 209,
      "Ē": 210,
      "ē": 211,
      "Ĕ": 212,
      "ĕ": 213,
      "Ė": 214,
      "ė": 215,
      "Ę": 216,
      "ę": 217,
      "Ě": 218,
      "ě": 219,
      "Ĝ": 220,
      "ĝ": 221,
      "Ğ": 222,
      "ğ": 223,
      "Ġ": 224,
      "ġ": 225,
      "Ģ": 226,
      "ģ": 227,
      "Ĥ": 228,
      "ĥ": 229,
      "Ħ": 230,
      "ħ": 231,
      "Ĩ": 232,
      "ĩ": 233,
      "Ī": 234,
      "ī": 235,
      "Ĭ": 236,
      "ĭ": 237,
      "Į": 238,
      "į": 239,
      "İ": 240,
      "ı": 241,
      "Ĳ": 242,
      "ĳ": 243,
      "Ĵ": 244,
      "ĵ": 245,
      "Ķ": 246,
      "ķ": 247,
      "ĸ": 248,
      "Ĺ": 249,
      "ĺ": 250,
      "Ļ": 251,
      "ļ": 252,
      "Ľ": 253,
      "ľ": 254,
      "Ŀ": 255,
      "ŀ": 256,
      "Ł": 257,
      "ł": 258,
      "Ń": 259,
      "Ġd": 260,
      "Ġa": 261,
      "Ġe": 262,
      "Ġde": 263,
      "ra": 264,
      "Ġp": 265,
      "os": 266,
      "nt": 267,
      "re": 268,
      "Ġc": 269,
      "..": 270,
      "Ã£": 271,
      "Ã£o": 272,
      "er": 273,
      "Ġs": 274,
      "ad": 275,
      "or": 276,
      "as": 277,
      "qu": 278,
      "is": 279,
      "Ġn": 280,
      "es": 281,
      "Ã§": 282,
      "Ġo": 283,
      "in": 284,
      "ia": 285,
      "Ġco": 286,
      "Ġm": 287,
      "ar": 288,
      "ent": 289,
      "Ġqu": 290,
      "Ġt": 291,
      "al": 292,
      "ic": 293,
      "id": 294,
      "ro": 295,
      "ĠP": 296,
      "en": 297,
      "Ġf": 298,
      "st": 299,
      "Ġdo": 300,
      "it": 301,
      "Ġque": 302,
      "ĠS": 303,
      "....": 304,
      "Ã§Ã£o": 305,
      "Ã¡": 306,
      "Ã©": 307,
      "ĠC": 308,
      "an": 309,
      "io": 310,
      "ĠA": 311,
      "em": 312,
      "el": 313,
      "am": 314,
      "Ġda": 315,
      "im": 316,
      "um": 317,
      "do": 318,
      "Ġre": 319,
      "ĠE": 320,
      "Ġcom": 321,
      "ĠD": 322,
      "Ġv": 323,
      "ÃŃ": 324,
      "ara": 325,
      "Ġem": 326,
      "ĠM": 327,
      "res": 328,
      "ado": 329,
      "Ġno": 330,
      "il": 331,
      "ut": 332,
      "âĢ": 333,
      "Ġum": 334,
      "Ġ1": 335,
      "Ġse": 336,
      "at": 337,
      "ĠR": 338,
      "on": 339,
      "ei": 340,
      "iv": 341,
      "nc": 342,
      "aÃ§Ã£o": 343,
      "ul": 344,
      "ĠO": 345,
      "Ġ2": 346,
      "Ġl": 347,
      "Ġ(": 348,
      "ente": 349,
      "........": 350,
      "Ãª": 351,
      "Ġpara": 352,
      "ĠN": 353,
      "un": 354,
      "ĠâĢ": 355,
      "ol": 356,
      "ist": 357,
      "Ã³": 358,
      "de": 359,
      "ĠL": 360,
      "Ġin": 361,
      "om": 362,
      "ĠF": 363,
      "so": 364,
      "ec": 365,
      "ri": 366,
      "Ġest": 367,
      "Ġb": 368,
      "to": 369,
      "ĠB": 370,
      "Ġpro": 371,
      "ĠÃ": 372,
      "ĠT": 373,
      "ento": 374,
      "idad": 375,
      "ta": 376,
      "ĠÃ©": 377,
      "oc": 378,
      "se": 379,
      "Ãµ": 380,
      "ho": 381,
      "Ġcon": 382,
      "Ġg": 383,
      "Ġna": 384,
      "us": 385,
      "ĠâĢĵ": 386,
      "Ġpor": 387,
      "ais": 388,
      "ĠI": 389,
      "Ãµes": 390,
      "ig": 391,
      "iz": 392,
      "ou": 393,
      "ica": 394,
      "ada": 395,
      "ĠnÃ£o": 396,
      "ĠV": 397,
      "Ġas": 398,
      "ant": 399,
      "eg": 400,
      "Ġes": 401,
      "ras": 402,
      "00": 403,
      "Ġsu": 404,
      "ir": 405,
      "ha": 406,
      "idade": 407,
      "Ġuma": 408,
      "ĠG": 409,
      "da": 410,
      "Ġ\"": 411,
      "ito": 412,
      "Ġos": 413,
      "Ġex": 414,
      "et": 415,
      "Ġpel": 416,
      "ion": 417,
      "Ġj": 418,
      "Ġap": 419,
      "era": 420,
      "ĠJ": 421,
      "Ãº": 422,
      "Ãªnc": 423,
      "Ġdos": 424,
      "ac": 425,
      "ados": 426,
      "le": 427,
      "Ġfo": 428,
      "Ġao": 429,
      "Ã§Ãµes": 430,
      "ando": 431,
      "gu": 432,
      "ria": 433,
      "................": 434,
      "rio": 435,
      "ido": 436,
      "ed": 437,
      "ĠÃł": 438,
      "Ġpo": 439,
      "ur": 440,
      "Ġser": 441,
      "te": 442,
      "01": 443,
      "Ġdes": 444,
      "orm": 445,
      "int": 446,
      "Ġat": 447,
      "ura": 448,
      "ĠDe": 449,
      "ob": 450,
      "Ġcomo": 451,
      "Ġal": 452,
      "Ġpr": 453,
      "sa": 454,
      "ran": 455,
      "Ġcont": 456,
      "Ġac": 457,
      "ico": 458,
      "Ãªncia": 459,
      "ern": 460,
      "Ġh": 461,
      "if": 462,
      "Ġ19": 463,
      "ab": 464,
      "Ġar": 465,
      "Ġan": 466,
      "ip": 467,
      "ram": 468,
      "bl": 469,
      "Ġpre": 470,
      "av": 471,
      "sÃ£o": 472,
      "ve": 473,
      "ida": 474,
      "Ġ-": 475,
      "ĠEst": 476,
      "ĠDE": 477,
      "Ġfoi": 478,
      "Ã§a": 479,
      "Ġou": 480,
      "ias": 481,
      "ĠH": 482,
      "ĠCom": 483,
      "Ã©m": 484,
      "imento": 485,
      "Ġent": 486,
      "ov": 487,
      "eiro": 488,
      "ial": 489,
      "ai": 490,
      "Ġ3": 491,
      "ros": 492,
      "put": 493,
      "Ġtem": 494,
      "go": 495,
      "Ġdas": 496,
      "Ġmais": 497,
      "itu": 498,
      "Ġpar": 499,
      "od": 500,
      "Ġnos": 501,
      "iÃ§Ã£o": 502,
      "pos": 503,
      "ional": 504,
      "po": 505,
      "Ġter": 506,
      "Ġim": 507,
      "Ġdis": 508,
      "nte": 509,
      "Ġper": 510,
      "est": 511,
      "Ġrec": 512,
      "eira": 513,
      "TO": 514,
      "ĠU": 515,
      "ag": 516,
      "resid": 517,
      "Ġsob": 518,
      "EN": 519,
      "pl": 520,
      "Ġtra": 521,
      "ot": 522,
      "Ġ200": 523,
      "du": 524,
      "ĠCon": 525,
      "az": 526,
      "mo": 527,
      "Ġint": 528,
      "Ġme": 529,
      "Ġpela": 530,
      "Ã¢": 531,
      "co": 532,
      "ES": 533,
      "ĠPR": 534,
      "Ã¡rio": 535,
      "ĠSen": 536,
      "ĠDeput": 537,
      "rasil": 538,
      "endo": 539,
      "RA": 540,
      "por": 541,
      "amento": 542,
      "esso": 543,
      "ru": 544,
      "Ġres": 545,
      "Ġart": 546,
      "Ġpelo": 547,
      "Ġsua": 548,
      "Ġout": 549,
      "Ġ201": 550,
      "rec": 551,
      "ador": 552,
      "ral": 553,
      "ĠRe": 554,
      "stitu": 555,
      "ĠNo": 556,
      "la": 557,
      "mente": 558,
      "...": 559,
      "que": 560,
      "end": 561,
      "amb": 562,
      "residente": 563,
      "je": 564,
      "ens": 565,
      "Ġsobre": 566,
      "ivo": 567,
      "ĠEm": 568,
      "amente": 569,
      "Ġ4": 570,
      "ĠSr": 571,
      "Ġor": 572,
      "adas": 573,
      "Ġ5": 574,
      "ud": 575,
      "ap": 576,
      "ÃŃc": 577,
      "ede": 578,
      "Ã§o": 579,
      "Ġob": 580,
      "Ġen": 581,
      "ont": 582,
      "og": 583,
      "ire": 584,
      "vel": 585,
      "Ġreg": 586,
      "amos": 587,
      "inist": 588,
      "Ã´": 589,
      "Ãºbl": 590,
      "ĠPa": 591,
      "ess": 592,
      "ocÃª": 593,
      "ib": 594,
      "Ġpos": 595,
      "emb": 596,
      "âĢĿ": 597,
      "ista": 598,
      "Ġesp": 599,
      "ĠâĢľ": 600,
      "he": 601,
      "iva": 602,
      "ĠPro": 603,
      "ambÃ©m": 604,
      "Ãĥ": 605,
      "ĠAl": 606,
      "ĠestÃ¡": 607,
      "pres": 608,
      "Ġseu": 609,
      "................................": 610,
      "ÃĥO": 611,
      "pre": 612,
      "Ġmu": 613,
      "Ġinc": 614,
      "ora": 615,
      "ust": 616,
      "ĠPresidente": 617,
      "form": 618,
      "ez": 619,
      "ere": 620,
      "ĠNÃ£o": 621,
      "Ġdest": 622,
      "entos": 623,
      "Ġsem": 624,
      "fer": 625,
      "rib": 626,
      "ĠtambÃ©m": 627,
      "ade": 628,
      "Ã³s": 629,
      "ÃŃt": 630,
      "Ġmas": 631,
      "ĠQ": 632,
      "Ġcomp": 633,
      "Ġam": 634,
      "aÃ§Ãµes": 635,
      "),": 636,
      "and": 637,
      "Ġele": 638,
      "inha": 639,
      "bal": 640,
      "ulo": 641,
      "Ġass": 642,
      "Ġeu": 643,
      "ios": 644,
      "Ġel": 645,
      "ĠLei": 646,
      "ÃŃs": 647,
      "ual": 648,
      "ver": 649,
      "Ġpart": 650,
      "Ġform": 651,
      "issÃ£o": 652,
      "ina": 653,
      "eb": 654,
      "201": 655,
      "ific": 656,
      "erc": 657,
      "va": 658,
      "AR": 659,
      "ita": 660,
      "ĠW": 661,
      "Ġ6": 662,
      "Ġfaz": 663,
      "ma": 664,
      "aria": 665,
      "ĠBrasil": 666,
      "Ġmes": 667,
      "ĠRE": 668,
      "ĠPor": 669,
      "Ġpa": 670,
      "icas": 671,
      "ja": 672,
      "Ġab": 673,
      "isso": 674,
      "idos": 675,
      "Ġcons": 676,
      "ĠDeputado": 677,
      "Ã¡ri": 678,
      ").": 679,
      "ĠFede": 680,
      "enc": 681,
      "me": 682,
      "orn": 683,
      "ER": 684,
      "Ġdec": 685,
      "Ġch": 686,
      "mos": 687,
      "Ġcas": 688,
      "itos": 689,
      "ero": 690,
      "aliz": 691,
      "Ġesc": 692,
      "Ġaqu": 693,
      "ĠEs": 694,
      "\",": 695,
      "Ġentre": 696,
      "Ġag": 697,
      "ĠAr": 698,
      "vi": 699,
      "undo": 700,
      "der": 701,
      "entes": 702,
      "ub": 703,
      "rat": 704,
      "Ġsegu": 705,
      "rad": 706,
      "ult": 707,
      "200": 708,
      "icos": 709,
      "igo": 710,
      "ĠEx": 711,
      "erno": 712,
      "eu": 713,
      "iÃ£o": 714,
      "lat": 715,
      "ĠIn": 716,
      "idades": 717,
      "ĠAs": 718,
      "anto": 719,
      "ĠQu": 720,
      "anc": 721,
      "isÃ£o": 722,
      "ĠsÃ£o": 723,
      "EI": 724,
      "unic": 725,
      "Ã©c": 726,
      "ntes": 727,
      "ter": 728,
      "ato": 729,
      "pe": 730,
      "ĠÃī": 731,
      "dem": 732,
      "Ã¡ria": 733,
      "Ġver": 734,
      "und": 735,
      "Ġaut": 736,
      "embro": 737,
      "ĠEu": 738,
      "ĠFederal": 739,
      "ĠSR": 740,
      "orre": 741,
      "Ġcar": 742,
      "Ãªncias": 743,
      "Ġad": 744,
      "vo": 745,
      "Ġdire": 746,
      "Ġisso": 747,
      "Ġ7": 748,
      "Ġconc": 749,
      "Ġprim": 750,
      "Ġanos": 751,
      "Ġqual": 752,
      "TE": 753,
      "ĠvocÃª": 754,
      "acional": 755,
      "inc": 756,
      "DO": 757,
      "ante": 758,
      "nto": 759,
      "iver": 760,
      "quer": 761,
      "DB": 762,
      "ass": 763,
      "ing": 764,
      "ira": 765,
      "rig": 766,
      "ĠMar": 767,
      "Ġho": 768,
      "Ġtrabal": 769,
      "Ġ8": 770,
      "Ġenc": 771,
      "lo": 772,
      "ian": 773,
      "ĠÃ¡": 774,
      "Ġtod": 775,
      "vol": 776,
      "IA": 777,
      "IN": 778,
      "ĠEstado": 779,
      "ĠMinist": 780,
      "jeto": 781,
      "ĠPRO": 782,
      "LA": 783,
      "ĠUn": 784,
      "IS": 785,
      "TA": 786,
      "Ãªs": 787,
      "Ġha": 788,
      "ĠCar": 789,
      "rim": 790,
      "fe": 791,
      "Ãĩ": 792,
      "Ġaos": 793,
      "hor": 794,
      "ela": 795,
      "__": 796,
      "Ġte": 797,
      "Ġ9": 798,
      "Ġmil": 799,
      "ID": 800,
      "Ġ:": 801,
      "IO": 802,
      "inh": 803,
      "Ġpol": 804,
      "ino": 805,
      "Ġpres": 806,
      "unc": 807,
      "Ġfin": 808,
      "Ġmuito": 809,
      "enta": 810,
      "idas": 811,
      "ĠpÃºbl": 812,
      "odo": 813,
      "Ġpesso": 814,
      "ĠCO": 815,
      "Ġapro": 816,
      "Ġfal": 817,
      "up": 818,
      "ĠK": 819,
      "ĠatÃ©": 820,
      "Ġproc": 821,
      "Ġext": 822,
      "aram": 823,
      "rÃ¡": 824,
      "ĠjÃ¡": 825,
      "iu": 826,
      "rans": 827,
      "Ġnas": 828,
      "Ġdia": 829,
      "OS": 830,
      "ord": 831,
      "hec": 832,
      "ima": 833,
      "ÃŃp": 834,
      "inda": 835,
      "ĠPar": 836,
      "Ġ199": 837,
      "Ġsub": 838,
      "Ã©d": 839,
      "ĠAn": 840,
      "ĠComissÃ£o": 841,
      "con": 842,
      "Ã©r": 843,
      "ĠÃº": 844,
      "ÃŃn": 845,
      "ĠÂ": 846,
      "ix": 847,
      "\".": 848,
      "Ã³ria": 849,
      "min": 850,
      "indo": 851,
      "Ġbem": 852,
      "Ġ10": 853,
      "Ã´n": 854,
      "ano": 855,
      "ug": 856,
      "Ã¡rios": 857,
      "Ġcl": 858,
      "cional": 859,
      "Ġcol": 860,
      "19": 861,
      "lu": 862,
      "pon": 863,
      "ĠSenador": 864,
      "overno": 865,
      "port": 866,
      "ÃŃl": 867,
      "fic": 868,
      "orte": 869,
      "Ġprov": 870,
      "sos": 871,
      "iam": 872,
      "raz": 873,
      "ula": 874,
      "oria": 875,
      "Ġvez": 876,
      "ior": 877,
      "Ġquando": 878,
      "Ġnes": 879,
      "ema": 880,
      "ĠOs": 881,
      "Ġind": 882,
      "Ġcontra": 883,
      "imo": 884,
      "anh": 885,
      "adores": 886,
      "ert": 887,
      "ava": 888,
      "Ġpode": 889,
      "izaÃ§Ã£o": 890,
      "Ã³r": 891,
      "enas": 892,
      "Ġle": 893,
      "Ġdiz": 894,
      "rar": 895,
      "antes": 896,
      "rande": 897,
      "rem": 898,
      "entar": 899,
      "esa": 900,
      "stituiÃ§Ã£o": 901,
      "Ġaqui": 902,
      "Ġfil": 903,
      "ĠNacional": 904,
      "Ġmar": 905,
      "TI": 906,
      "ĠÂ§": 907,
      "Ġ18": 908,
      "ost": 909,
      "udo": 910,
      "ana": 911,
      "iÃ§Ãµes": 912,
      "Ġleg": 913,
      "Ġbrasil": 914,
      "eiros": 915,
      "Ġmat": 916,
      "uto": 917,
      "Ġseus": 918,
      "Ġtodos": 919,
      "Ġposs": 920,
      "MEN": 921,
      "ÃŃcio": 922,
      "Ġoc": 923,
      "Ġca": 924,
      "Ġsoc": 925,
      "Ġmesmo": 926,
      "Ġcor": 927,
      "Ġtrans": 928,
      "ase": 929,
      "rit": 930,
      "Ã¢m": 931,
      "ular": 932,
      "Ġon": 933,
      "Ġainda": 934,
      "ĠPS": 935,
      "Ġalg": 936,
      "ĠSÃ£o": 937,
      "isa": 938,
      "ite": 939,
      "ĠAm": 940,
      "raÃ§Ã£o": 941,
      "Ã¡t": 942,
      "elo": 943,
      "iss": 944,
      "eral": 945,
      "Ã§as": 946,
      "ele": 947,
      "ETO": 948,
      "ilidade": 949,
      "pera": 950,
      "Ġcam": 951,
      "ĠII": 952,
      "isc": 953,
      "gra": 954,
      "ÃĩÃĥO": 955,
      "Ġpoder": 956,
      "Ġespec": 957,
      "âĢĿ.": 958,
      "Ġdem": 959,
      "ĠÃłs": 960,
      "Ġ11": 961,
      "ÃŃvel": 962,
      "erto": 963,
      "Ġtempo": 964,
      "Ġdef": 965,
      "IC": 966,
      "Ġprinc": 967,
      "Ġera": 968,
      "Ġpl": 969,
      "Ġprec": 970,
      "son": 971,
      "ncia": 972,
      "Ġ0": 973,
      "ĠCas": 974,
      "Ġapres": 975,
      "ivos": 976,
      "per": 977,
      "ENTE": 978,
      "Ġdisc": 979,
      "Ġro": 980,
      "ĠPara": 981,
      "rav": 982,
      "ĠSe": 983,
      "Ã©rio": 984,
      "AL": 985,
      "iaÃ§Ã£o": 986,
      "ĠhÃ¡": 987,
      "Ġservi": 988,
      "Ġforma": 989,
      "Ġforam": 990,
      "Ġsa": 991,
      "Ġ20": 992,
      "ĠPL": 993,
      "ubl": 994,
      "Ã³p": 995,
      "Ã¢n": 996,
      "ĠPaulo": 997,
      "ign": 998,
      "Ġconst": 999,
      "ĠRel": 1000,
      "inho": 1001,
      "Ġfe": 1002,
      "volv": 1003,
      "AN": 1004,
      "Ġmed": 1005,
      "uc": 1006,
      "ĠCh": 1007,
      "Ã³rio": 1008,
      "Ġfazer": 1009,
      "lus": 1010,
      "Ã¡vel": 1011,
      "aix": 1012,
      "ĠArt": 1013,
      "Ġcria": 1014,
      "Ġmen": 1015,
      "tos": 1016,
      "Ġrecur": 1017,
      "Ãģ": 1018,
      "idera": 1019,
      "iais": 1020,
      "pa": 1021,
      "OR": 1022,
      "Ġrel": 1023,
      "ESID": 1024,
      "Ġmai": 1025,
      "Ġval": 1026,
      "ĠpolÃŃt": 1027,
      "Ġaprov": 1028,
      "ivers": 1029,
      "Ġseg": 1030,
      "Ã§os": 1031,
      "ĠSu": 1032,
      "ĠDes": 1033,
      "Ġano": 1034,
      "Ġvot": 1035,
      "ĠsÃ³": 1036,
      "Ġr": 1037,
      "Ġrealiz": 1038,
      "pec": 1039,
      "enho": 1040,
      "ribu": 1041,
      "erv": 1042,
      "Ġpal": 1043,
      "ga": 1044,
      "DE": 1045,
      "Ġessa": 1046,
      "istas": 1047,
      "Ġsol": 1048,
      "ie": 1049,
      "ĠDeputados": 1050,
      "unicÃŃp": 1051,
      "ĠPRESID": 1052,
      "20": 1053,
      "enda": 1054,
      "Ġir": 1055,
      "ĠJo": 1056,
      "Ġman": 1057,
      "JETO": 1058,
      "RO": 1059,
      "Ġun": 1060,
      "Ġaf": 1061,
      "rado": 1062,
      "itar": 1063,
      "ĠPROJETO": 1064,
      "Ġesse": 1065,
      "elho": 1066,
      "almente": 1067,
      "Ġvo": 1068,
      "Ġ15": 1069,
      "los": 1070,
      "Ġant": 1071,
      "ca": 1072,
      "Ġparte": 1073,
      "emos": 1074,
      "ĠMas": 1075,
      "za": 1076,
      "jet": 1077,
      "ÃŃd": 1078,
      "Ġdez": 1079,
      "ĠLEI": 1080,
      "Ġvai": 1081,
      "Ġloc": 1082,
      "Ġporque": 1083,
      "enh": 1084,
      "gram": 1085,
      "Ġinv": 1086,
      "Ġinform": 1087,
      "AS": 1088,
      "Ġnov": 1089,
      "elec": 1090,
      "ĠPRESIDENTE": 1091,
      "uma": 1092,
      "Ġjul": 1093,
      "Ġcond": 1094,
      "Ġcap": 1095,
      "Ġ12": 1096,
      "Ġcidade": 1097,
      "Ġeste": 1098,
      "ranc": 1099,
      "ĠReg": 1100,
      "Ġmeu": 1101,
      "Ġprof": 1102,
      "Ġseja": 1103,
      "ribun": 1104,
      "Ġempres": 1105,
      "Ġma": 1106,
      "Ġ.": 1107,
      "ental": 1108,
      "Ġpas": 1109,
      "Ġperm": 1110,
      "MDB": 1111,
      "EC": 1112,
      "Ġvol": 1113,
      "gora": 1114,
      "Ġtr": 1115,
      "Ġprev": 1116,
      "veis": 1117,
      "ĠInt": 1118,
      "Ġus": 1119,
      "ĠAc": 1120,
      "Ġonde": 1121,
      "Ġfor": 1122,
      "hos": 1123,
      "iÃªncia": 1124,
      "ĠEle": 1125,
      "ionais": 1126,
      "Ãªm": 1127,
      "iso": 1128,
      "LATO": 1129,
      "Ġconhec": 1130,
      "ecre": 1131,
      "dade": 1132,
      "Ġto": 1133,
      "erra": 1134,
      "ĠAp": 1135,
      "Ġsuas": 1136,
      "Ġpartic": 1137,
      "ÃŃlia": 1138,
      "Ġinf": 1139,
      "Ġpessoas": 1140,
      "ĠEnt": 1141,
      ".)": 1142,
      "ĠVocÃª": 1143,
      "ĠConstituiÃ§Ã£o": 1144,
      "ĠLe": 1145,
      "Ġela": 1146,
      "art": 1147,
      "Ġrev": 1148,
      "ĠPT": 1149,
      "ĠSenado": 1150,
      "ena": 1151,
      "MA": 1152,
      "Ġoutros": 1153,
      "ecess": 1154,
      "ĠCo": 1155,
      "ĠGoverno": 1156,
      "Ġsab": 1157,
      "Ġju": 1158,
      "rei": 1159,
      "duz": 1160,
      "Ġdev": 1161,
      "pois": 1162,
      "anÃ§": 1163,
      "Ġdesta": 1164,
      "Ã¢mara": 1165,
      "ordo": 1166,
      "ismo": 1167,
      "Ġpop": 1168,
      "Ġfic": 1169,
      "Ġpe": 1170,
      "ĠMa": 1171,
      "Ġautor": 1172,
      "segu": 1173,
      "SO": 1174,
      "Ġgrande": 1175,
      "les": 1176,
      "ferÃªncias": 1177,
      "Ãºblica": 1178,
      "Ġoutras": 1179,
      "ĠX": 1180,
      "Ġesta": 1181,
      "erg": 1182,
      "iar": 1183,
      "Ġinst": 1184,
      "ital": 1185,
      "ublic": 1186,
      "ĠestÃ£o": 1187,
      "Ġrelat": 1188,
      "duc": 1189,
      "Ġapenas": 1190,
      "porta": 1191,
      "ĠDO": 1192,
      "entaÃ§Ã£o": 1193,
      "âĢĵ": 1194,
      "agem": 1195,
      "ĠRELATO": 1196,
      "Ġdois": 1197,
      "Ġnome": 1198,
      "ĠCÃ¢mara": 1199,
      "no": 1200,
      "tera": 1201,
      "enÃ§Ã£o": 1202,
      "Ã¢ncia": 1203,
      "Ġartigo": 1204,
      "ĠnÃ³s": 1205,
      "envolv": 1206,
      "ĠpaÃŃs": 1207,
      "Ġdesc": 1208,
      "Ġsendo": 1209,
      "ju": 1210,
      "ardo": 1211,
      "UR": 1212,
      "Ġcr": 1213,
      "Ã´m": 1214,
      "edade": 1215,
      "Ġinter": 1216,
      "Ġpass": 1217,
      "Ġequ": 1218,
      "Ġtrabalho": 1219,
      "Ġseguint": 1220,
      "Ġsent": 1221,
      "Ġtorn": 1222,
      "Ġ16": 1223,
      "ĠZ": 1224,
      "Ġnecess": 1225,
      "imentos": 1226,
      "Ġdu": 1227,
      "ator": 1228,
      "ex": 1229,
      "Ġid": 1230,
      "Ġconf": 1231,
      "Ã©s": 1232,
      "Ġdeix": 1233,
      "ard": 1234,
      "ĠRio": 1235,
      "Ġprincip": 1236,
      "urante": 1237,
      "Ġev": 1238,
      "minist": 1239,
      "ultura": 1240,
      "ulaÃ§Ã£o": 1241,
      "Ġordem": 1242,
      "Ġ17": 1243,
      "Ġjur": 1244,
      "Ġ13": 1245,
      "lt": 1246,
      "Ġreceb": 1247,
      "ĠNa": 1248,
      "Ġencont": 1249,
      "posta": 1250,
      "Ãºm": 1251,
      "ĠJos": 1252,
      "ivas": 1253,
      "Ġexc": 1254,
      "Ã¡s": 1255,
      "Ġprimeiro": 1256,
      "tar": 1257,
      "rada": 1258,
      "ĠOl": 1259,
      "tu": 1260,
      "ĠLu": 1261,
      "cio": 1262,
      "Ġpalav": 1263,
      "rito": 1264,
      "Ġimp": 1265,
      "Ġsim": 1266,
      "Ġ14": 1267,
      "Ġref": 1268,
      "Ġcaso": 1269,
      "tor": 1270,
      "Ġfund": 1271,
      "loc": 1272,
      "Ġav": 1273,
      "aro": 1274,
      "ĠÃ¡re": 1275,
      "dic": 1276,
      "sas": 1277,
      "Ġdif": 1278,
      "Ġmaior": 1279,
      "iliz": 1280,
      "Ġhoje": 1281,
      "Ġneg": 1282,
      "Ġtermos": 1283,
      "Ġhom": 1284,
      "ĠMinistro": 1285,
      "ĠFo": 1286,
      "Ġra": 1287,
      "ĠserÃ¡": 1288,
      "ĠSant": 1289,
      "ĠPre": 1290,
      "ĠCam": 1291,
      "Ġhab": 1292,
      "Ã©ri": 1293,
      "ĠSim": 1294,
      "duÃ§Ã£o": 1295,
      "via": 1296,
      "recer": 1297,
      "iente": 1298,
      "ĠReferÃªncias": 1299,
      "hÃµes": 1300,
      "Ġassim": 1301,
      "gres": 1302,
      "Ãºde": 1303,
      "Ġquer": 1304,
      "estÃ£o": 1305,
      "Ġobrig": 1306,
      "Ġret": 1307,
      "aneiro": 1308,
      "____": 1309,
      "ĠSem": 1310,
      "Ġdist": 1311,
      "ch": 1312,
      "ende": 1313,
      "gan": 1314,
      "essÃ£o": 1315,
      "Ġrepres": 1316,
      "Ġconstitu": 1317,
      "ĠRep": 1318,
      "lam": 1319,
      "Ġminha": 1320,
      "olog": 1321,
      "Ġsal": 1322,
      "Ġcheg": 1323,
      "ribunal": 1324,
      "iÃ§a": 1325,
      "graf": 1326,
      "resc": 1327,
      "itas": 1328,
      "islat": 1329,
      "nico": 1330,
      "ĠAss": 1331,
      "uÃ§Ã£o": 1332,
      "Ġhist": 1333,
      "uta": 1334,
      "tas": 1335,
      "11": 1336,
      "istema": 1337,
      "Ġestab": 1338,
      "ses": 1339,
      "Ġ................................": 1340,
      "inas": 1341,
      "ĠRELATOR": 1342,
      "Ġconv": 1343,
      "posiÃ§Ã£o": 1344,
      "inu": 1345,
      "ate": 1346,
      "ĠComo": 1347,
      "Ġparticip": 1348,
      "ĠGu": 1349,
      "Ġed": 1350,
      "elhor": 1351,
      "Ġfam": 1352,
      "ĠCasa": 1353,
      "Ã¡l": 1354,
      "Ġprojeto": 1355,
      "Ġmod": 1356,
      "Ġcham": 1357,
      "nÃ§a": 1358,
      "Ġins": 1359,
      "este": 1360,
      "ĠOr": 1361,
      "SÃĥO": 1362,
      "ĠSeg": 1363,
      "Ġimporta": 1364,
      "Ġped": 1365,
      "Ġinic": 1366,
      "DA": 1367,
      "Ġlei": 1368,
      "ĠPl": 1369,
      "ustiÃ§a": 1370,
      "arÃ¡": 1371,
      "Ã³d": 1372,
      "EL": 1373,
      "Ġpraz": 1374,
      "Ã¡rias": 1375,
      "alidade": 1376,
      "ola": 1377,
      "Ġof": 1378,
      "ik": 1379,
      "Ġprod": 1380,
      "rou": 1381,
      "ĠProjeto": 1382,
      "Ġqualquer": 1383,
      "xa": 1384,
      "ge": 1385,
      "Ġrep": 1386,
      "ĠIs": 1387,
      "gem": 1388,
      "ĠDA": 1389,
      "Ġvida": 1390,
      "ĠTribunal": 1391,
      "ric": 1392,
      "ecut": 1393,
      "Ġrespon": 1394,
      "ĠJosÃ©": 1395,
      "Ġpes": 1396,
      "des": 1397,
      "ĠSal": 1398,
      "anos": 1399,
      "Ġdireito": 1400,
      "ren": 1401,
      "Ġ198": 1402,
      "ĠâĢ¢": 1403,
      "Ġmin": 1404,
      "ĠCons": 1405,
      "Ġecon": 1406,
      "ive": 1407,
      "iedade": 1408,
      "eres": 1409,
      "Ġlev": 1410,
      "jo": 1411,
      "ussÃ£o": 1412,
      "Ã©t": 1413,
      "utos": 1414,
      "posto": 1415,
      "ĠPaÃŃs": 1416,
      "Ġpublic": 1417,
      "Ġcada": 1418,
      "Ġexist": 1419,
      "10": 1420,
      "ĠprÃ³p": 1421,
      "of": 1422,
      "ĠÃºlt": 1423,
      "Ġconsidera": 1424,
      "Ġdepois": 1425,
      "uns": 1426,
      "Ãµe": 1427,
      "irm": 1428,
      "ĠAt": 1429,
      "Ġfav": 1430,
      "Ġestabelec": 1431,
      "ril": 1432,
      "her": 1433,
      "Ġpalavra": 1434,
      "ĠCarlos": 1435,
      "Ġve": 1436,
      "Ġmeio": 1437,
      "envolvimento": 1438,
      "loco": 1439,
      "ĠVer": 1440,
      "ducaÃ§Ã£o": 1441,
      "Ġtodo": 1442,
      "eram": 1443,
      "Ġdisse": 1444,
      "Ãªn": 1445,
      "Ġdeste": 1446,
      "grama": 1447,
      "ĠTra": 1448,
      "ene": 1449,
      "Ġpodem": 1450,
      "Ġtrabalh": 1451,
      "unicÃŃpio": 1452,
      "ĠAnt": 1453,
      "MENTO": 1454,
      "lic": 1455,
      "Ġorig": 1456,
      "PS": 1457,
      "Ġpou": 1458,
      "Ġagora": 1459,
      "ĠapÃ³s": 1460,
      "are": 1461,
      "oa": 1462,
      "Ġacordo": 1463,
      "ĠEstados": 1464,
      "ranÃ§a": 1465,
      "gua": 1466,
      "Ġren": 1467,
      "Ġprocesso": 1468,
      "Ġcu": 1469,
      "Ġcome": 1470,
      "Ġmelhor": 1471,
      "ĠIN": 1472,
      "Ġespecial": 1473,
      "ĠMinistÃ©rio": 1474,
      "Ġdever": 1475,
      "Ġmaio": 1476,
      "uso": 1477,
      "umento": 1478,
      "Ã©ria": 1479,
      "empl": 1480,
      "EG": 1481,
      "ne": 1482,
      "imos": 1483,
      "ĠMu": 1484,
      "IL": 1485,
      "Ġnosso": 1486,
      "ĠDo": 1487,
      "Ã¡tica": 1488,
      "Ġregist": 1489,
      "ĠRepÃºblica": 1490,
      "SP": 1491,
      "ĠCl": 1492,
      "ast": 1493,
      "ĠCON": 1494,
      "amentos": 1495,
      "Ġut": 1496,
      "Ġprimeira": 1497,
      "Ġpelos": 1498,
      "ĠAd": 1499,
      "Ãī": 1500,
      "ativa": 1501,
      "ise": 1502,
      "Ġdurante": 1503,
      "ĠCont": 1504,
      "dos": 1505,
      "Ġmundo": 1506,
      "urso": 1507,
      "Ġ24": 1508,
      "atro": 1509,
      "Ġdizer": 1510,
      "Ġpag": 1511,
      "Ġeles": 1512,
      "Ġprazo": 1513,
      "eiras": 1514,
      "ice": 1515,
      "gresso": 1516,
      "otal": 1517,
      "cia": 1518,
      "ĠPMDB": 1519,
      "ĠmÃ©d": 1520,
      "Ġrecursos": 1521,
      "ĠPA": 1522,
      "ĠtÃ©c": 1523,
      "ificaÃ§Ã£o": 1524,
      "isto": 1525,
      "ĠJustiÃ§a": 1526,
      "unda": 1527,
      "Ġinvest": 1528,
      "ogo": 1529,
      "anha": 1530,
      "Ġdeve": 1531,
      "12": 1532,
      "II": 1533,
      "Ġsido": 1534,
      "ĠserviÃ§o": 1535,
      "Ġdias": 1536,
      "Ġdi": 1537,
      "UT": 1538,
      "red": 1539,
      "pÃµe": 1540,
      "Ġfre": 1541,
      "ĠSenhor": 1542,
      "Ġexpl": 1543,
      "Ġregim": 1544,
      "osto": 1545,
      "ete": 1546,
      "Ġquem": 1547,
      "Ġsom": 1548,
      "ologia": 1549,
      "UN": 1550,
      "rador": 1551,
      "ĠEl": 1552,
      "Ġdezembro": 1553,
      "Ġativ": 1554,
      "tes": 1555,
      "ÃŃst": 1556,
      "ĠEn": 1557,
      "Ġempre": 1558,
      "ĠtrÃªs": 1559,
      "nica": 1560,
      "ĠAG": 1561,
      "Ġfavor": 1562,
      "rut": 1563,
      "igos": 1564,
      "inal": 1565,
      "iado": 1566,
      "esse": 1567,
      "eric": 1568,
      "ĠdecisÃ£o": 1569,
      "Ġantes": 1570,
      "Ġmul": 1571,
      "orr": 1572,
      "Ġvalor": 1573,
      "iol": 1574,
      "ĠCOM": 1575,
      "Ġsegundo": 1576,
      "Ġ22": 1577,
      "09": 1578,
      "Ġprobl": 1579,
      "Ġestava": 1580,
      "overn": 1581,
      "ulos": 1582,
      "PT": 1583,
      "Ã³g": 1584,
      "ce": 1585,
      "Ġpartir": 1586,
      "Ġtudo": 1587,
      "Ġmom": 1588,
      "US": 1589,
      "itaÃ§Ã£o": 1590,
      "Ġsitu": 1591,
      "ĠRelator": 1592,
      "ĠentÃ£o": 1593,
      "ÃģR": 1594,
      "Ġgu": 1595,
      "stit": 1596,
      "ĠLig": 1597,
      "enÃ§a": 1598,
      "Ġgru": 1599,
      "Ãºs": 1600,
      "uro": 1601,
      "Ġamb": 1602,
      "Ġdiv": 1603,
      "Ġfinanc": 1604,
      "13": 1605,
      "Ġ30": 1606,
      "ĠSa": 1607,
      "Ġinclu": 1608,
      "ĠnÃºm": 1609,
      "dio": 1610,
      "Ġdel": 1611,
      "Ġsistema": 1612,
      "emente": 1613,
      "Ġcrim": 1614,
      "15": 1615,
      "Ġoutro": 1616,
      "Ã£os": 1617,
      "Ġliv": 1618,
      "Ġpra": 1619,
      "ĠPod": 1620,
      "Ġequip": 1621,
      "rece": 1622,
      "Ġbase": 1623,
      "ĠJoÃ£o": 1624,
      "Ġcompet": 1625,
      "Ġdesde": 1626,
      "ane": 1627,
      "ernas": 1628,
      "Ġcomun": 1629,
      "bP": 1630,
      "ump": 1631,
      "tanto": 1632,
      "RI": 1633,
      "ĠAg": 1634,
      "Ġdifere": 1635,
      ".(": 1636,
      "cel": 1637,
      "ĠrevisÃ£o": 1638,
      "ĠpÃºblica": 1639,
      "ĠLeg": 1640,
      "Ġato": 1641,
      "Ġ197": 1642,
      "enha": 1643,
      "na": 1644,
      "Ġapresent": 1645,
      "usa": 1646,
      "Ġfinal": 1647,
      "ĠEd": 1648,
      "ndo": 1649,
      "ĠlÃ¡": 1650,
      "eraÃ§Ã£o": 1651,
      "Ġemb": 1652,
      "Ġ25": 1653,
      "Ġseguinte": 1654,
      "Ġlim": 1655,
      "ĠBar": 1656,
      "ĠVal": 1657,
      "Ġnat": 1658,
      "anda": 1659,
      "reira": 1660,
      "op": 1661,
      "ĠAb": 1662,
      "ĠÃ¡rea": 1663,
      "enÃ¡rio": 1664,
      "Ġjog": 1665,
      "Ġcin": 1666,
      "Ġnorm": 1667,
      "ĠIsso": 1668,
      "Ġconstru": 1669,
      "oca": 1670,
      "Ġ23": 1671,
      "VO": 1672,
      "ĠUniÃ£o": 1673,
      "ĠOb": 1674,
      "nta": 1675,
      "Ã³ri": 1676,
      "ĠdÃ¡": 1677,
      "ĠpopulaÃ§Ã£o": 1678,
      "Ġsempre": 1679,
      "Ġaplic": 1680,
      "Ġinteres": 1681,
      "udic": 1682,
      "ĠpolÃŃtica": 1683,
      "Ġlug": 1684,
      "Ġnovo": 1685,
      "Ġconsegu": 1686,
      "Ġcab": 1687,
      "Ġ:(": 1688,
      "Ġinteg": 1689,
      "ĠUm": 1690,
      "Ġsuper": 1691,
      "alh": 1692,
      "ĠmatÃ©ria": 1693,
      "Ġprop": 1694,
      "ibilidade": 1695,
      "ĠDire": 1696,
      "ĠY": 1697,
      "ine": 1698,
      "ĠâĢĶ": 1699,
      "Ġden": 1700,
      "omp": 1701,
      "usÃ£o": 1702,
      "ntos": 1703,
      "plem": 1704,
      "unho": 1705,
      "Ġadminist": 1706,
      "Ġduas": 1707,
      "PR": 1708,
      "ĠrelaÃ§Ã£o": 1709,
      "Ġintern": 1710,
      "Ġvig": 1711,
      "Ġil": 1712,
      "ĠpÃºblico": 1713,
      "ecn": 1714,
      "ton": 1715,
      "ender": 1716,
      "Ġmenos": 1717,
      "Ġalgum": 1718,
      "ĠTem": 1719,
      "ĠmilhÃµes": 1720,
      "Ġ2009": 1721,
      "ĠlanÃ§": 1722,
      "iano": 1723,
      "Ġexempl": 1724,
      "ifica": 1725,
      "ĠEntÃ£o": 1726,
      "ĠFoi": 1727,
      "ĠSoc": 1728,
      "ĠtÃ£o": 1729,
      "ilo": 1730,
      "isco": 1731,
      "Ġexerc": 1732,
      "ĠCongresso": 1733,
      "lex": 1734,
      "Ġrest": 1735,
      "Ġtinha": 1736,
      "ĠperÃŃ": 1737,
      "Ġset": 1738,
      "ill": 1739,
      "Ġk": 1740,
      "ĠvotaÃ§Ã£o": 1741,
      "Ġjulg": 1742,
      "Ġbrasileiro": 1743,
      "Ġprest": 1744,
      "Ġorador": 1745,
      "ay": 1746,
      "Ġmomento": 1747,
      "TU": 1748,
      "ĠRec": 1749,
      "ON": 1750,
      "ĠPort": 1751,
      "Ġado": 1752,
      "Ġcontinu": 1753,
      "Ġcorre": 1754,
      "Ġtal": 1755,
      "ĠaprovaÃ§Ã£o": 1756,
      "ontec": 1757,
      "Ġfim": 1758,
      "ĠSil": 1759,
      "atos": 1760,
      "Ġ2007": 1761,
      "ĠSer": 1762,
      "Ġacontec": 1763,
      "Ġcent": 1764,
      "Ġgoverno": 1765,
      "ĠPol": 1766,
      "rt": 1767,
      "ĠSul": 1768,
      "âĢĿ,": 1769,
      "Ġraz": 1770,
      "Ġtodas": 1771,
      "ĠFil": 1772,
      "ĠSES": 1773,
      "ĠPSDB": 1774,
      "Ġvoto": 1775,
      "2009": 1776,
      "Ġdeter": 1777,
      "Ġhum": 1778,
      "guÃ©m": 1779,
      "Ġ28": 1780,
      "Ġ@": 1781,
      "pect": 1782,
      "ĠPresid": 1783,
      "Ġgara": 1784,
      "ĠIm": 1785,
      "Ġbom": 1786,
      "Ġnossa": 1787,
      "ÃŃf": 1788,
      "Ġpresente": 1789,
      "Ġconform": 1790,
      "Ġnesta": 1791,
      "Ġquanto": 1792,
      "Ġ196": 1793,
      "ui": 1794,
      "Ġapo": 1795,
      "Ġ21": 1796,
      "Ġorgan": 1797,
      "ĠPr": 1798,
      "Ġescol": 1799,
      "Ġopera": 1800,
      "ĠMo": 1801,
      "ĠserviÃ§os": 1802,
      "Ġatual": 1803,
      "uais": 1804,
      "TRA": 1805,
      "Ġlon": 1806,
      "ĠPela": 1807,
      "ateg": 1808,
      "Ġcara": 1809,
      "Ã©l": 1810,
      "CIA": 1811,
      "Ã¡g": 1812,
      "ĠinformaÃ§Ãµes": 1813,
      "ivil": 1814,
      "quanto": 1815,
      "Ġvis": 1816,
      "QU": 1817,
      "ecret": 1818,
      "Ġaltera": 1819,
      "ĠsaÃºde": 1820,
      "Ġvezes": 1821,
      "ĠTur": 1822,
      "03": 1823,
      "Ġ27": 1824,
      "Ġmet": 1825,
      "soc": 1826,
      "Ġobjet": 1827,
      "ĠnÃºmero": 1828,
      "eno": 1829,
      "feito": 1830,
      "ĠPAR": 1831,
      "gos": 1832,
      "Ġquero": 1833,
      "erca": 1834,
      "Ġtom": 1835,
      "Ġsocial": 1836,
      "Ġimportante": 1837,
      "para": 1838,
      "ĠregiÃ£o": 1839,
      "ivamente": 1840,
      "Ġrespe": 1841,
      "Ġgra": 1842,
      "duardo": 1843,
      "Ġtip": 1844,
      "ĠCol": 1845,
      "Ġfato": 1846,
      "Ġneste": 1847,
      "ÃŃcia": 1848,
      "18": 1849,
      "Ġrecon": 1850,
      "Ġfez": 1851,
      "Ġpen": 1852,
      "ĠÃºnico": 1853,
      "ĠSub": 1854,
      "Ġnacional": 1855,
      "Ġcontro": 1856,
      "Ġmant": 1857,
      "Ġ2008": 1858,
      "Ġexternas": 1859,
      "iod": 1860,
      "ament": 1861,
      "Ġdoc": 1862,
      "Ġinstitu": 1863,
      "tt": 1864,
      "ĠLuiz": 1865,
      "emas": 1866,
      "ĠtÃªm": 1867,
      "ĠquestÃ£o": 1868,
      "Ġhabit": 1869,
      "Ġfunc": 1870,
      "ba": 1871,
      "ĠExa": 1872,
      "ell": 1873,
      "iamento": 1874,
      "ĠalÃ©m": 1875,
      "ural": 1876,
      "ea": 1877,
      "Ġtendo": 1878,
      "reiro": 1879,
      "ĠLigaÃ§Ãµes": 1880,
      "ĠcomeÃ§": 1881,
      "Ġnada": 1882,
      "Ġpassa": 1883,
      "Ġpois": 1884,
      "ubro": 1885,
      "Ġcoloc": 1886,
      "rom": 1887,
      "osa": 1888,
      "Ġlic": 1889,
      "Ġlugar": 1890,
      "Ã³x": 1891,
      "ĠperÃŃodo": 1892,
      "ĠPoder": 1893,
      "Ġutiliz": 1894,
      "Ġnot": 1895,
      "Ġjulho": 1896,
      "Ġtur": 1897,
      "ĠSrs": 1898,
      "Ġinciso": 1899,
      "ĠMIN": 1900,
      "05": 1901,
      "Ġreun": 1902,
      "RE": 1903,
      "Ġdefin": 1904,
      "Ġdecl": 1905,
      "jam": 1906,
      "Ġ26": 1907,
      "iga": 1908,
      "Ġrefer": 1909,
      "Ġuso": 1910,
      "ĠMA": 1911,
      "âĢĵâĢĵ": 1912,
      "Ġ2011": 1913,
      "pend": 1914,
      "tou": 1915,
      "iversidade": 1916,
      "Ġinclus": 1917,
      "ĠNe": 1918,
      "Ġdar": 1919,
      "Ġalguns": 1920,
      "Ġ2006": 1921,
      "ach": 1922,
      "ĠFranc": 1923,
      "ÃŃm": 1924,
      "UL": 1925,
      "Ġrad": 1926,
      "ide": 1927,
      "Ġsetembro": 1928,
      "Ġmost": 1929,
      "Ġlib": 1930,
      "Ġcer": 1931,
      "ata": 1932,
      "Ġtemos": 1933,
      "Ġcan": 1934,
      "rop": 1935,
      "ame": 1936,
      "Ġmo": 1937,
      "unicaÃ§Ã£o": 1938,
      "Ġvia": 1939,
      "Ġcasa": 1940,
      "Ġvou": 1941,
      "ĠÃģ": 1942,
      "07": 1943,
      "com": 1944,
      "ĠNov": 1945,
      "dor": 1946,
      "Ġrecurso": 1947,
      "ĠEsp": 1948,
      "Ġnem": 1949,
      "Ġtoda": 1950,
      "IM": 1951,
      "Ġrepresent": 1952,
      "ĠPo": 1953,
      "quis": 1954,
      "Ġdent": 1955,
      "ient": 1956,
      "Ġz": 1957,
      "vio": 1958,
      "06": 1959,
      "querimento": 1960,
      "Ġagra": 1961,
      "ĠÃ³r": 1962,
      "Ġcomb": 1963,
      "Ġsentido": 1964,
      "omia": 1965,
      "man": 1966,
      "Ġacab": 1967,
      "Ġgarant": 1968,
      "ĠhistÃ³ria": 1969,
      "HO": 1970,
      "Ġta": 1971,
      "esta": 1972,
      "Ġobs": 1973,
      "Ãį": 1974,
      "Ġempresa": 1975,
      "ure": 1976,
      "Ġ2010": 1977,
      "CUR": 1978,
      "Ġpelas": 1979,
      "Ġserv": 1980,
      "ĠSESSÃĥO": 1981,
      "17": 1982,
      "ores": 1983,
      "Ġpequ": 1984,
      "Ġexemplo": 1985,
      "has": 1986,
      "ins": 1987,
      "Ã¡veis": 1988,
      "Ġextra": 1989,
      "Ġef": 1990,
      "ĠSecret": 1991,
      "Ġpouco": 1992,
      "Ġjunho": 1993,
      "IMENTO": 1994,
      "Ġdata": 1995,
      "Ġofic": 1996,
      "Ġprom": 1997,
      "Ġtenho": 1998,
      "Ġteve": 1999,
      "Ġol": 2000,
      "08": 2001,
      "ĠVamos": 2002,
      "Ġseria": 2003,
      "ĠDecre": 2004,
      "ĠLegislat": 2005,
      "Ġ...": 2006,
      "Ġcontribu": 2007,
      "unca": 2008,
      "Ġpovo": 2009,
      "ĠPer": 2010,
      "ĠMin": 2011,
      "Ġestou": 2012,
      "Ġconstitucional": 2013,
      "Ġcoisa": 2014,
      "Ġfut": 2015,
      "Ġproposta": 2016,
      "eles": 2017,
      "ornal": 2018,
      "Ġbene": 2019,
      "Ġfede": 2020,
      "Ġgrupo": 2021,
      "inar": 2022,
      "Ġfac": 2023,
      "rÃ¡f": 2024,
      "UTC": 2025,
      "ep": 2026,
      "Ġjust": 2027,
      "Ġtex": 2028,
      "Ġcump": 2029,
      "Ġnova": 2030,
      "ĠfamÃŃlia": 2031,
      "etr": 2032,
      "gl": 2033,
      "Ġsen": 2034,
      "Ġson": 2035,
      "Ġdisso": 2036,
      "ÃŃveis": 2037,
      "Â°": 2038,
      "Ġdesenvolvimento": 2039,
      "16": 2040,
      "Ġquais": 2041,
      "Ġmud": 2042,
      "Ġprofiss": 2043,
      "Ġder": 2044,
      "Ġ2005": 2045,
      "mas": 2046,
      "Ġaj": 2047,
      "Ġ29": 2048,
      "Ġvamos": 2049,
      "Ġfun": 2050,
      "idÃªncias": 2051,
      "tura": 2052,
      "porte": 2053,
      "ron": 2054,
      "ĠRob": 2055,
      "ĠRes": 2056,
      "ĠGrande": 2057,
      "ves": 2058,
      "Ġop": 2059,
      "Ġbrasileira": 2060,
      "ĠDecreto": 2061,
      "Ġocorre": 2062,
      "Ġatu": 2063,
      "Ġestud": 2064,
      "ĠPed": 2065,
      "CURSO": 2066,
      "Ġcob": 2067,
      "Ġcontrat": 2068,
      "Ġestar": 2069,
      "ÃŃdo": 2070,
      "anÃ§a": 2071,
      "ĠPrim": 2072,
      "Ġsign": 2073,
      "Ġig": 2074,
      "Ġur": 2075,
      "cos": 2076,
      "qui": 2077,
      "ĠEduardo": 2078,
      "04": 2079,
      "ĠmarÃ§o": 2080,
      "sou": 2081,
      "ze": 2082,
      "ensÃ£o": 2083,
      "EIRA": 2084,
      "asse": 2085,
      "ĠJaneiro": 2086,
      "Ġ2013": 2087,
      "ĠÃ³rg": 2088,
      "Ġfuncion": 2089,
      "Ġgeral": 2090,
      "VA": 2091,
      "rando": 2092,
      "Ġempresas": 2093,
      "Ġagosto": 2094,
      "Ġoutubro": 2095,
      "Ġtrat": 2096,
      "ĠPart": 2097,
      "inÃ¡rio": 2098,
      "erior": 2099,
      "itÃ¡ria": 2100,
      "avam": 2101,
      "ĠprÃ³x": 2102,
      "Ġoutra": 2103,
      "Ġresult": 2104,
      "rov": 2105,
      "reg": 2106,
      "Ġnum": 2107,
      "rica": 2108,
      "Ġmot": 2109,
      "//": 2110,
      "Ġnenh": 2111,
      "ĠmÃºs": 2112,
      "idÃªncia": 2113,
      "ĠEM": 2114,
      "ĠMed": 2115,
      "ĠIII": 2116,
      "Ġlocal": 2117,
      "ĠSanta": 2118,
      "unicÃŃpios": 2119,
      "ICA": 2120,
      "................................................................": 2121,
      "Ġsociedade": 2122,
      "vereiro": 2123,
      "igu": 2124,
      "ĠEla": 2125,
      "Ġdeb": 2126,
      "ps": 2127,
      "das": 2128,
      "Ġlado": 2129,
      "Ġmerc": 2130,
      "Ġtar": 2131,
      "IDA": 2132,
      "ĠSt": 2133,
      "ĠSupre": 2134,
      "ECER": 2135,
      "ĠAL": 2136,
      "ich": 2137,
      "Ġconta": 2138,
      "Ġdetermin": 2139,
      "Ġrefere": 2140,
      "Ġmand": 2141,
      "Ã©rie": 2142,
      "ĠEstÃ¡": 2143,
      "ÃŃtulo": 2144,
      "Ġfisc": 2145,
      "Ġindic": 2146,
      "Ġabril": 2147,
      "ĠeconÃ´m": 2148,
      ".\"": 2149,
      "ĠEsta": 2150,
      "ĠTrabal": 2151,
      "Ġgrav": 2152,
      "Ġcresc": 2153,
      "Ġpessoa": 2154,
      "ĠMan": 2155,
      "Ġsuc": 2156,
      "Ãļ": 2157,
      "inado": 2158,
      "Ġprincipal": 2159,
      "af": 2160,
      "sab": 2161,
      "Ġjaneiro": 2162,
      "Ġviol": 2163,
      "Ġhabitantes": 2164,
      "Ġestado": 2165,
      "02": 2166,
      "Ã³digo": 2167,
      "://": 2168,
      "ÃģRIO": 2169,
      "inaÃ§Ã£o": 2170,
      "iana": 2171,
      "osta": 2172,
      "ĠMuito": 2173,
      "nÃ§as": 2174,
      "isl": 2175,
      "Ġsei": 2176,
      "car": 2177,
      "ifusÃ£o": 2178,
      "iat": 2179,
      "Ġnovembro": 2180,
      "Ġsou": 2181,
      "alizaÃ§Ã£o": 2182,
      "ĠMaria": 2183,
      "14": 2184,
      "ĠPARECER": 2185,
      "Ġdessa": 2186,
      "Ġpresidente": 2187,
      "ĠEX": 2188,
      "Exa": 2189,
      "Ġmesma": 2190,
      "ĠcondiÃ§Ãµes": 2191,
      "ĠDep": 2192,
      "ĠMe": 2193,
      "ĠproduÃ§Ã£o": 2194,
      "dad": 2195,
      "endimento": 2196,
      "Ġreconhec": 2197,
      "Ġ2012": 2198,
      "ĠsituaÃ§Ã£o": 2199,
      "riz": 2200,
      "ĠFern": 2201,
      "tugu": 2202,
      "Ġmov": 2203,
      "ense": 2204,
      "Ġvi": 2205,
      "ĠQue": 2206,
      "Art": 2207,
      "Ġ2015": 2208,
      "inheiro": 2209,
      "ĠPÃºbl": 2210,
      "Ġprograma": 2211,
      "rutura": 2212,
      "Ġ194": 2213,
      "ique": 2214,
      "Ġvenc": 2215,
      "Ġcal": 2216,
      "Ġata": 2217,
      "Ġdesse": 2218,
      "ĠUma": 2219,
      "iodifusÃ£o": 2220,
      "eiÃ§Ã£o": 2221,
      "Ġatrav": 2222,
      "aixa": 2223,
      "agens": 2224,
      "icamente": 2225,
      "ebol": 2226,
      "mar": 2227,
      "Ġpap": 2228,
      "Ġestamos": 2229,
      "abora": 2230,
      "ĠseguranÃ§a": 2231,
      "ĠCr": 2232,
      "ulg": 2233,
      "RAL": 2234,
      "ĠÃ§Ã£o": 2235,
      "posit": 2236,
      "Ġhtt": 2237,
      "Ġsolic": 2238,
      "Ġefet": 2239,
      "Ġampl": 2240,
      "eix": 2241,
      "ĠNos": 2242,
      "ĠCent": 2243,
      "Ã£e": 2244,
      "199": 2245,
      "Ġred": 2246,
      "Ġcri": 2247,
      "Ġtanto": 2248,
      "OL": 2249,
      "jetos": 2250,
      "ila": 2251,
      "ĠespÃ©c": 2252,
      "Ġgran": 2253,
      "Ġens": 2254,
      "Ġencam": 2255,
      "Ġand": 2256,
      "ĠmÃ¡": 2257,
      "grafo": 2258,
      "dia": 2259,
      "rados": 2260,
      "ĠMunicÃŃpio": 2261,
      "aÃ§o": 2262,
      "bo": 2263,
      "ividade": 2264,
      "ĠBras": 2265,
      "ĠRegimento": 2266,
      "Ġer": 2267,
      "Ġenf": 2268,
      "ecutivo": 2269,
      "ĠeducaÃ§Ã£o": 2270,
      "ĠNÃ³s": 2271,
      "Ġdemais": 2272,
      "Ġpens": 2273,
      "Ġquatro": 2274,
      "ĠGo": 2275,
      "Ġocup": 2276,
      "ort": 2277,
      "Ġru": 2278,
      "Ġ2004": 2279,
      "Ġimport": 2280,
      "ĠAnd": 2281,
      "Ġenquanto": 2282,
      "000": 2283,
      "Ġdiver": 2284,
      "pens": 2285,
      "ĠSala": 2286,
      "iou": 2287,
      "Ġhoras": 2288,
      "ĠinÃŃcio": 2289,
      "ĠprovidÃªncias": 2290,
      "Ãķ": 2291,
      "izar": 2292,
      "Ġproduz": 2293,
      "ĠSol": 2294,
      "Ġobserv": 2295,
      "atÃ³rio": 2296,
      "2015": 2297,
      "Ã³l": 2298,
      "iada": 2299,
      "Ġparc": 2300,
      "Ġ(\"": 2301,
      "Ġpriv": 2302,
      "ecnologia": 2303,
      "ania": 2304,
      "stria": 2305,
      "Ġfevereiro": 2306,
      "ĠsessÃ£o": 2307,
      "ĠBa": 2308,
      "Ã¼": 2309,
      "Ġhou": 2310,
      "Ġinde": 2311,
      "iante": 2312,
      "Ġtexto": 2313,
      "Ġtrata": 2314,
      "Ġverdade": 2315,
      "ÃķES": 2316,
      "ÃŃda": 2317,
      "Ġprecis": 2318,
      "Ġdentro": 2319,
      "gio": 2320,
      "Ġtipo": 2321,
      "ĠSup": 2322,
      "ĠAN": 2323,
      "encial": 2324,
      "iram": 2325,
      "ĠAD": 2326,
      "DT": 2327,
      "ĠÃĢ": 2328,
      "Ġpermit": 2329,
      "PMDB": 2330,
      "Ġfalar": 2331,
      "AC": 2332,
      "ÃŃder": 2333,
      "ĠPresidÃªncia": 2334,
      "org": 2335,
      "Ġrespeito": 2336,
      "Ã´nia": 2337,
      "Bloco": 2338,
      "zo": 2339,
      "Ġconju": 2340,
      "Ġexig": 2341,
      "Ġespera": 2342,
      "Ġtele": 2343,
      "Ġmim": 2344,
      "ĠrÃ¡": 2345,
      "ĠDef": 2346,
      "Ġmon": 2347,
      "Ġbus": 2348,
      "Ġdireitos": 2349,
      "Ġalgo": 2350,
      "AM": 2351,
      "ĠInterno": 2352,
      "ĠEsc": 2353,
      "Ġrem": 2354,
      "atal": 2355,
      "cionais": 2356,
      "Ġexclus": 2357,
      "odri": 2358,
      "ry": 2359,
      "IST": 2360,
      "Ġponto": 2361,
      "ĠSupremo": 2362,
      "Ġlegislat": 2363,
      "ĠCap": 2364,
      "Ġbas": 2365,
      "ĠjurÃŃd": 2366,
      "ĠOliv": 2367,
      "iÃ¡rio": 2368,
      "eria": 2369,
      "essor": 2370,
      "ĠUnidos": 2371,
      "Ġaprec": 2372,
      "Ġfora": 2373,
      "endas": 2374,
      "Ġhavia": 2375,
      "ies": 2376,
      "rog": 2377,
      "ĠpossÃŃvel": 2378,
      "ux": 2379,
      "ĠBrasÃŃlia": 2380,
      "Ġsof": 2381,
      "forma": 2382,
      "Ġdesp": 2383,
      "Ġmanif": 2384,
      "ergia": 2385,
      "idores": 2386,
      "ĠExcel": 2387,
      "utor": 2388,
      "olÃ³g": 2389,
      "POS": 2390,
      "unicip": 2391,
      "Ġmedida": 2392,
      "irc": 2393,
      "ime": 2394,
      "ona": 2395,
      "Ġcultura": 2396,
      "Ġpai": 2397,
      "ĠaÃ§Ã£o": 2398,
      "Ġconforme": 2399,
      "Ġ2003": 2400,
      "acion": 2401,
      "ĠcriaÃ§Ã£o": 2402,
      "ang": 2403,
      "Ġnunca": 2404,
      "erais": 2405,
      "ĠEste": 2406,
      "ĠpaÃŃses": 2407,
      "har": 2408,
      "ĠQuando": 2409,
      "Ġcust": 2410,
      "________": 2411,
      "Ã´nio": 2412,
      "Ġdeclara": 2413,
      "Ġcinco": 2414,
      "ĠsÃ©c": 2415,
      "ĠComun": 2416,
      "dores": 2417,
      "ĠCor": 2418,
      "tores": 2419,
      "Ġfeito": 2420,
      "ĠPP": 2421,
      "Ã©rito": 2422,
      "Ġ2014": 2423,
      "ĠLa": 2424,
      "icaÃ§Ãµes": 2425,
      "Ġdados": 2426,
      "30": 2427,
      "rÃ£o": 2428,
      "Ġexp": 2429,
      "Ġpac": 2430,
      "ĠÃ¡l": 2431,
      "adora": 2432,
      "Ġmal": 2433,
      "vida": 2434,
      "ĠaÃ§Ãµes": 2435,
      "Ġcur": 2436,
      "25": 2437,
      "gue": 2438,
      "vis": 2439,
      "Ġfer": 2440,
      "Ġapoio": 2441,
      "Ġacomp": 2442,
      "Ã¡b": 2443,
      "CE": 2444,
      "Ġesses": 2445,
      "Ġvir": 2446,
      "ĠIntern": 2447,
      "esar": 2448,
      "sociaÃ§Ã£o": 2449,
      "Ġthe": 2450,
      "aval": 2451,
      "Ġdet": 2452,
      "ĠProc": 2453,
      "Ġ/": 2454,
      "Ġtenha": 2455,
      "utivo": 2456,
      "Ġ195": 2457,
      "ĠTurma": 2458,
      "Ġbil": 2459,
      "inos": 2460,
      "Ġfilme": 2461,
      "ĠEducaÃ§Ã£o": 2462,
      "Ġ2016": 2463,
      "Ġprocess": 2464,
      "idor": 2465,
      "Ã¡c": 2466,
      "umentos": 2467,
      "iores": 2468,
      "Ġkm": 2469,
      "entemente": 2470,
      "Ġafirm": 2471,
      "ĠOut": 2472,
      "val": 2473,
      "ĠSocial": 2474,
      "CO": 2475,
      "ĠRO": 2476,
      "ĠAo": 2477,
      "ĠatravÃ©s": 2478,
      "ĠSras": 2479,
      "ĠmÃŃn": 2480,
      "Ġfos": 2481,
      "iÃµes": 2482,
      "Ġso": 2483,
      "ĠNO": 2484,
      "ond": 2485,
      "Ġsur": 2486,
      "rais": 2487,
      "bre": 2488,
      "ĠserÃ£o": 2489,
      "ĠUniversidade": 2490,
      "ĠÃ¡gua": 2491,
      "Ġsex": 2492,
      "2013": 2493,
      "Ġproblema": 2494,
      "ĠSilva": 2495,
      "reve": 2496,
      "Ġlocaliz": 2497,
      "aixo": 2498,
      "ugu": 2499,
      "Ġgovern": 2500,
      "ĠsÃ©rie": 2501,
      "PL": 2502,
      "iel": 2503,
      "entou": 2504,
      "iados": 2505,
      "Ã¡lise": 2506,
      "ĠOliveira": 2507,
      "Ġdesign": 2508,
      "ÃŃde": 2509,
      "Ġ,": 2510,
      "Ġregimental": 2511,
      "Ġlig": 2512,
      "Ġoficial": 2513,
      "fon": 2514,
      "âĢĻ": 2515,
      "Ġsus": 2516,
      "ĠFl": 2517,
      "Ġextraord": 2518,
      "rique": 2519,
      "RAN": 2520,
      "iqu": 2521,
      "embros": 2522,
      "Ġw": 2523,
      "undial": 2524,
      "ĠmunicÃŃpio": 2525,
      "ipe": 2526,
      "iza": 2527,
      "ĠLoc": 2528,
      "Ġterc": 2529,
      "inhas": 2530,
      "Ġparecer": 2531,
      "Ġdiscut": 2532,
      "iro": 2533,
      "peon": 2534,
      "Ġsegunda": 2535,
      "grafia": 2536,
      ".,": 2537,
      "ĠJÃ¡": 2538,
      "Ġpat": 2539,
      "Ġseguintes": 2540,
      "ÃĬ": 2541,
      "Ġvista": 2542,
      "Ġfazendo": 2543,
      "Ġtotal": 2544,
      "ĠPedro": 2545,
      "Ġexpres": 2546,
      "ĠTotal": 2547,
      "ĠÃ©p": 2548,
      "Ġlegisl": 2549,
      "Ġperc": 2550,
      "ĠPlenÃ¡rio": 2551,
      "portun": 2552,
      "iscussÃ£o": 2553,
      "Ġdefesa": 2554,
      "ĠprÃ³prio": 2555,
      "Ġvem": 2556,
      "Ġmuitos": 2557,
      "ĠDr": 2558,
      "Ġtiv": 2559,
      "Ġbanc": 2560,
      "Ġsabe": 2561,
      "Ġjornal": 2562,
      "ĠrazÃ£o": 2563,
      "ipl": 2564,
      "izado": 2565,
      "ĠPÃºblico": 2566,
      "Ġexecut": 2567,
      "\")": 2568,
      "ĠMAR": 2569,
      "into": 2570,
      "Ġobrigado": 2571,
      "Ġproduto": 2572,
      "ons": 2573,
      "ĠThe": 2574,
      "Ġmeses": 2575,
      "feira": 2576,
      "ĠSaÃºde": 2577,
      "ĠConselho": 2578,
      "ĠÃļ": 2579,
      "ĠFre": 2580,
      "Ġmor": 2581,
      "STI": 2582,
      "ĠvÃ¡rios": 2583,
      "ativo": 2584,
      "Ġfiz": 2585,
      "Ġorigem": 2586,
      "ĠtÃ©cnica": 2587,
      "Ġade": 2588,
      "anho": 2589,
      "rest": 2590,
      "ientes": 2591,
      "ĠDeputada": 2592,
      "ĠParlam": 2593,
      "2011": 2594,
      "Ġatividades": 2595,
      "rimento": 2596,
      "Ġregul": 2597,
      "ĠSenho": 2598,
      "Ġficar": 2599,
      "Ġconsum": 2600,
      "Ġeleito": 2601,
      "EM": 2602,
      "Ġperman": 2603,
      "orar": 2604,
      "ube": 2605,
      "ance": 2606,
      "Ġestre": 2607,
      "ĠprincÃŃp": 2608,
      "Ġalgumas": 2609,
      "ĠSegundo": 2610,
      "ĠSP": 2611,
      "erem": 2612,
      "ensa": 2613,
      "cul": 2614,
      "ĠAgora": 2615,
      "Ġcerca": 2616,
      "Ġgrandes": 2617,
      "Ġessas": 2618,
      "issÃµes": 2619,
      "Ġinclusive": 2620,
      "ĠBloco": 2621,
      "ĠObrig": 2622,
      "ĠRom": 2623,
      "Ġrespect": 2624,
      "ADO": 2625,
      "Ã¡grafo": 2626,
      "entares": 2627,
      "ĠJu": 2628,
      "21": 2629,
      "ĠEmenda": 2630,
      "Ġacesso": 2631,
      "ualmente": 2632,
      "Ġoportun": 2633,
      "ĠEMEN": 2634,
      "Ġbar": 2635,
      "ategor": 2636,
      "66": 2637,
      "ĠEssa": 2638,
      "heres": 2639,
      "ĠMag": 2640,
      "ĠAlÃ©m": 2641,
      "itor": 2642,
      "ĠradiodifusÃ£o": 2643,
      "Ġtrib": 2644,
      "dÃ£o": 2645,
      "vez": 2646,
      "rir": 2647,
      "Ġpreoc": 2648,
      "ĠExecutivo": 2649,
      "ĠInform": 2650,
      "Ġquase": 2651,
      "ĠCÃ³digo": 2652,
      "ĠÃ©poca": 2653,
      "ĠFilho": 2654,
      "ĠWik": 2655,
      "Ġsimpl": 2656,
      "ĠdÃ©c": 2657,
      "hÃ£o": 2658,
      "Ã£es": 2659,
      "mit": 2660,
      "ĠTe": 2661,
      "Ġimpl": 2662,
      "stitucional": 2663,
      "Ġquad": 2664,
      "istÃªncia": 2665,
      ".âĢĿ": 2666,
      "Ġnuma": 2667,
      "eliz": 2668,
      "Ġminutos": 2669,
      "29": 2670,
      "inte": 2671,
      "Ġfilho": 2672,
      "ĠpÃºblicos": 2673,
      "TADO": 2674,
      "peonato": 2675,
      "Ġinstal": 2676,
      "ĠDeus": 2677,
      "Ġjov": 2678,
      "Ġ100": 2679,
      "STITU": 2680,
      "ĠDEM": 2681,
      "ĠDa": 2682,
      ");": 2683,
      "anco": 2684,
      "ival": 2685,
      "ĠdiscussÃ£o": 2686,
      "Ġofe": 2687,
      "Ġeram": 2688,
      "ĠtÃŃtulo": 2689,
      "ques": 2690,
      "ĠCat": 2691,
      "ĠexercÃŃcio": 2692,
      "isas": 2693,
      "all": 2694,
      "Ġdevido": 2695,
      "Ġmaioria": 2696,
      "TF": 2697,
      "remos": 2698,
      "ĠDist": 2699,
      "Ġmelho": 2700,
      "Ġfalta": 2701,
      "fÃŃcio": 2702,
      "ĠRa": 2703,
      "Ġdaqu": 2704,
      "bum": 2705,
      "ret": 2706,
      "ĠsÃ©culo": 2707,
      "Ġjogo": 2708,
      "ĠCOMIS": 2709,
      "Ġvolta": 2710,
      "ok": 2711,
      "Ġfica": 2712,
      "34": 2713,
      "feitos": 2714,
      "Ġide": 2715,
      "etro": 2716,
      "ÃŃcios": 2717,
      "andid": 2718,
      "nunc": 2719,
      "ĠHen": 2720,
      "Ġdinheiro": 2721,
      "radas": 2722,
      "Ã³rios": 2723,
      "28": 2724,
      "Ġtent": 2725,
      "ĠGe": 2726,
      "Ġord": 2727,
      "Ġqualidade": 2728,
      "Ġ50": 2729,
      "ĠJÃº": 2730,
      "Ġlhe": 2731,
      "Ġprogram": 2732,
      "elas": 2733,
      "Ġcomerc": 2734,
      "Ġirm": 2735,
      "Ġpena": 2736,
      "Ġencaminh": 2737,
      "DIN": 2738,
      "Ġmarc": 2739,
      "adamente": 2740,
      "ĠMil": 2741,
      "raf": 2742,
      "DI": 2743,
      "Ġmuitas": 2744,
      "Ġdistribu": 2745,
      "onst": 2746,
      "eros": 2747,
      "ĠEsse": 2748,
      "ĠHÃ¡": 2749,
      "ĠÃ³": 2750,
      "Ġbrasileiros": 2751,
      "ĠSEN": 2752,
      "mb": 2753,
      "ĠMarc": 2754,
      "idente": 2755,
      "Ġcargo": 2756,
      "plementar": 2757,
      "idar": 2758,
      "PSDB": 2759,
      "Ġhttps": 2760,
      "Ġcasos": 2761,
      "Ġpert": 2762,
      "Ġportugu": 2763,
      "unha": 2764,
      "):": 2765,
      "Ġnorte": 2766,
      "Ġident": 2767,
      "ĠAR": 2768,
      "ĠRos": 2769,
      "ĠSra": 2770,
      "36": 2771,
      "............": 2772,
      "Ġpoderia": 2773,
      "ugal": 2774,
      "ĠHist": 2775,
      "ĠreuniÃ£o": 2776,
      "mes": 2777,
      "Ġgost": 2778,
      "ispÃµe": 2779,
      "doB": 2780,
      "redo": 2781,
      "Ġtro": 2782,
      "quisa": 2783,
      "ĠTh": 2784,
      "ĠAssim": 2785,
      "Ġacred": 2786,
      "ers": 2787,
      "ĠDia": 2788,
      "cter": 2789,
      "ĠLula": 2790,
      "ĠPE": 2791,
      "Ġtraz": 2792,
      "Ġresol": 2793,
      "ĠpÃ¡g": 2794,
      "ecuÃ§Ã£o": 2795,
      "Ġcel": 2796,
      "Ġajud": 2797,
      "ki": 2798,
      "Ġsemana": 2799,
      "Ġcausa": 2800,
      "Ġclass": 2801,
      "uras": 2802,
      "Ġsejam": 2803,
      "Ġestad": 2804,
      "Ġdele": 2805,
      "orge": 2806,
      "enso": 2807,
      "Ġadequ": 2808,
      "Ġ2017": 2809,
      "Ġentanto": 2810,
      "Ġconver": 2811,
      "35": 2812,
      "Ġpedido": 2813,
      "Ġaumento": 2814,
      "ulares": 2815,
      "Ġaud": 2816,
      "pP": 2817,
      "imas": 2818,
      "Ġboa": 2819,
      "ĠTV": 2820,
      "Ġprecisa": 2821,
      "Ġmodo": 2822,
      "ĠparticipaÃ§Ã£o": 2823,
      "Ġproced": 2824,
      "Ġquest": 2825,
      "Ġhomem": 2826,
      "ĠPal": 2827,
      "BER": 2828,
      "ferÃªncia": 2829,
      "ĠcrÃ©d": 2830,
      "Ġet": 2831,
      "24": 2832,
      "Ġmercado": 2833,
      "ĠÃ¢": 2834,
      "Ġobjetivo": 2835,
      "ĠaÃŃ": 2836,
      "Ġori": 2837,
      "erta": 2838,
      "ĠDJ": 2839,
      "Ġ2000": 2840,
      "Ġprat": 2841,
      "ĠredaÃ§Ã£o": 2842,
      "asc": 2843,
      "Ġresponsab": 2844,
      "arc": 2845,
      "Ġmembros": 2846,
      "ini": 2847,
      "sol": 2848,
      "27": 2849,
      "Ġagravo": 2850,
      "Ġcrit": 2851,
      "Ġtermin": 2852,
      "ĠSU": 2853,
      "Ġsomente": 2854,
      "Ġrespons": 2855,
      "ĠFernando": 2856,
      "37": 2857,
      "ĠRoberto": 2858,
      "lob": 2859,
      "ificado": 2860,
      "ĠLegislativo": 2861,
      "ack": 2862,
      "Ġtarde": 2863,
      "NCIA": 2864,
      "ĠÃ¡reas": 2865,
      "elh": 2866,
      "Ġcamp": 2867,
      "Ġcandid": 2868,
      "ĠAssociaÃ§Ã£o": 2869,
      "rang": 2870,
      "rup": 2871,
      "inÃ¡ria": 2872,
      "26": 2873,
      "ical": 2874,
      "Ã³rias": 2875,
      "ĠSou": 2876,
      "Ġacompanh": 2877,
      "onio": 2878,
      "Ġacho": 2879,
      "ĠlegislaÃ§Ã£o": 2880,
      "Ġmater": 2881,
      "ĠPSB": 2882,
      "39": 2883,
      "itado": 2884,
      "Ġpassou": 2885,
      "ama": 2886,
      "Ġensino": 2887,
      "Ġobras": 2888,
      "edia": 2889,
      "ĠGeral": 2890,
      "ĠRo": 2891,
      "Ġtema": 2892,
      "Ġmorte": 2893,
      "stituto": 2894,
      "Ġfra": 2895,
      "ĠTrans": 2896,
      "ĠmÃºsica": 2897,
      "PE": 2898,
      "Ġtit": 2899,
      "ĠRodri": 2900,
      "inada": 2901,
      "Ġmedidas": 2902,
      "sc": 2903,
      "ĠDem": 2904,
      "essÃµes": 2905,
      "rÃ©": 2906,
      "Ġlegal": 2907,
      "ĠpublicaÃ§Ã£o": 2908,
      "ĠBem": 2909,
      "ĠIV": 2910,
      "Ġdecid": 2911,
      "Ġaval": 2912,
      "ecimento": 2913,
      "Ġsaber": 2914,
      "IZ": 2915,
      "stitutivo": 2916,
      "icidade": 2917,
      "sal": 2918,
      "Ġ2019": 2919,
      "ĠBo": 2920,
      "ĠRic": 2921,
      "Ã¡r": 2922,
      "ĠParecer": 2923,
      "ĠAmaz": 2924,
      "ĠDel": 2925,
      "Ġgen": 2926,
      "ĠMaia": 2927,
      "Ġsetor": 2928,
      "ĠSÃ³": 2929,
      "2000": 2930,
      "Ġnoite": 2931,
      "Ġobjeto": 2932,
      "hn": 2933,
      "Ġmembro": 2934,
      "Ġnasc": 2935,
      "ÃŃg": 2936,
      "Ġcontrole": 2937,
      "ĠcrianÃ§as": 2938,
      "ĠTrabalho": 2939,
      "Ġcant": 2940,
      "Ġis": 2941,
      "Ġquar": 2942,
      "2008": 2943,
      "ĠprÃ³pria": 2944,
      "Ġproblemas": 2945,
      "Ġsec": 2946,
      "Ġaleg": 2947,
      "Ġpagamento": 2948,
      "ĠSE": 2949,
      "Ġ54": 2950,
      "ĠPortugal": 2951,
      "ificar": 2952,
      "anhÃ£": 2953,
      "sto": 2954,
      "ĠCultura": 2955,
      "Ġcoisas": 2956,
      "rÃ¡s": 2957,
      "ĠrealizaÃ§Ã£o": 2958,
      "Ġingl": 2959,
      "Ġmulheres": 2960,
      "ke": 2961,
      "ĠpoderÃ¡": 2962,
      "ĠconstruÃ§Ã£o": 2963,
      "ĠMunicÃŃpios": 2964,
      "ĠLuc": 2965,
      "tado": 2966,
      "Ġemp": 2967,
      "Ġassu": 2968,
      "Ġdeixar": 2969,
      "Ġsimples": 2970,
      "The": 2971,
      "ĠorÃ§": 2972,
      "ĠFin": 2973,
      "ĠmÃ£e": 2974,
      "ĠCAR": 2975,
      "ff": 2976,
      "Ġcert": 2977,
      "ruz": 2978,
      "Ġhip": 2979,
      "38": 2980,
      "Ġrelacion": 2981,
      "DEM": 2982,
      "alidades": 2983,
      "Ġcerto": 2984,
      "ĠVo": 2985,
      "riÃ§Ã£o": 2986,
      "ĠÃ¡lbum": 2987,
      "BL": 2988,
      "Ġforn": 2989,
      "Ġvota": 2990,
      "ĠAdminist": 2991,
      "ĠPrograma": 2992,
      "Ġdeu": 2993,
      "izada": 2994,
      "Ã³n": 2995,
      "ĠCP": 2996,
      "Ġlongo": 2997,
      "ĠMinas": 2998,
      "ĠediÃ§Ã£o": 2999,
      "Ġcirc": 3000,
      "2007": 3001,
      "Ġpreocup": 3002,
      "Ġperson": 3003,
      "ĠvÃ¡rias": 3004,
      "ĠCal": 3005,
      "CIO": 3006,
      "ĠpÃºblicas": 3007,
      "Ġanim": 3008,
      "ua": 3009,
      "Ġterrit": 3010,
      "arg": 3011,
      "Ġ31": 3012,
      "Ġcidad": 3013,
      "Ġassum": 3014,
      "Ġprincipalmente": 3015,
      "atura": 3016,
      "Ġsan": 3017,
      "Ġdirig": 3018,
      "ialmente": 3019,
      "Ġarqu": 3020,
      "ulas": 3021,
      "Ġequipe": 3022,
      "gues": 3023,
      "ĠÃºltimo": 3024,
      "IB": 3025,
      "Ġgol": 3026,
      "ĠNova": 3027,
      "ĠEstou": 3028,
      "aran": 3029,
      "ĠextraordinÃ¡rio": 3030,
      "Ã©rica": 3031,
      "Ġgente": 3032,
      "Ġmorre": 3033,
      "reja": 3034,
      "Ġinvestig": 3035,
      "ĠEntre": 3036,
      "Ġpreciso": 3037,
      "Ġcabe": 3038,
      "Ġdemoc": 3039,
      "ĠDesenvolvimento": 3040,
      "Ġpapel": 3041,
      "IV": 3042,
      "Ġjunto": 3043,
      "Ã©dia": 3044,
      "ĠEspec": 3045,
      "Ġace": 3046,
      "uz": 3047,
      "Ġenergia": 3048,
      "ĠFrancisco": 3049,
      "ĠNorte": 3050,
      "ĠMat": 3051,
      "ĠvÃ£o": 3052,
      "ĠPÃºblica": 3053,
      "Ġ2020": 3054,
      "ĠanÃ¡lise": 3055,
      "Ġarg": 3056,
      "Ġrequerimento": 3057,
      "ĠHo": 3058,
      "anas": 3059,
      "ĠespÃ©cie": 3060,
      "Ġep": 3061,
      "ity": 3062,
      "ĠTod": 3063,
      "Ġindiv": 3064,
      "Ġatribu": 3065,
      "rent": 3066,
      "ĠdispÃµe": 3067,
      "Ġprojetos": 3068,
      "tica": 3069,
      "Ġhora": 3070,
      "Ġjulgamento": 3071,
      "45": 3072,
      "ĠMesa": 3073,
      "Ġali": 3074,
      "Ġalc": 3075,
      "Ġcapac": 3076,
      "Ãĵ": 3077,
      "2010": 3078,
      "ly": 3079,
      "etrÃ´n": 3080,
      "Ġviv": 3081,
      "Ġ2002": 3082,
      "Ġ:)": 3083,
      "Ġ................................................": 3084,
      "orden": 3085,
      "Ġfrente": 3086,
      "Ġtre": 3087,
      "itura": 3088,
      "Ġminist": 3089,
      "arte": 3090,
      "essa": 3091,
      "Ġprot": 3092,
      "ĠposiÃ§Ã£o": 3093,
      "ÃĬNCIA": 3094,
      "ĠPen": 3095,
      "ĠEles": 3096,
      "ÃŃlio": 3097,
      "osp": 3098,
      "ĠconcessÃ£o": 3099,
      "Ġ35": 3100,
      "ĠFer": 3101,
      "Ġgera": 3102,
      "ĠSua": 3103,
      "ericano": 3104,
      "Ġouv": 3105,
      "Ġdisposit": 3106,
      "Ġhouve": 3107,
      "Ġposso": 3108,
      "ativas": 3109,
      "Ġalguma": 3110,
      "apa": 3111,
      "iste": 3112,
      "Ġdim": 3113,
      "GO": 3114,
      "berto": 3115,
      "Ġembora": 3116,
      "ĠpresenÃ§a": 3117,
      "Ġeconomia": 3118,
      "Ġdescob": 3119,
      "ĠRIC": 3120,
      "ÃŃss": 3121,
      "Ġfa": 3122,
      "Ġne": 3123,
      "postas": 3124,
      "Ġreais": 3125,
      "Ġobra": 3126,
      "Ġdispon": 3127,
      "tante": 3128,
      "inhos": 3129,
      "altera": 3130,
      "ĠREQU": 3131,
      "Ġdiret": 3132,
      "Ġprocura": 3133,
      "Ġfosse": 3134,
      "22": 3135,
      "ilizaÃ§Ã£o": 3136,
      "Ġconhecido": 3137,
      "Ġinstr": 3138,
      "Ġregime": 3139,
      "Ġatividade": 3140,
      "rios": 3141,
      "ome": 3142,
      "aldo": 3143,
      "teza": 3144,
      "98": 3145,
      "ureza": 3146,
      "ĠRib": 3147,
      "BA": 3148,
      "ĠPDT": 3149,
      "Ġdom": 3150,
      "Ġcapital": 3151,
      "Ġexper": 3152,
      "Ġcaracter": 3153,
      "ĠAntonio": 3154,
      "ĠAlex": 3155,
      "Ġadministrat": 3156,
      "ĠfunÃ§Ã£o": 3157,
      "ĠConc": 3158,
      "Ġpronunc": 3159,
      "Ġregistro": 3160,
      "Ġba": 3161,
      "xim": 3162,
      "Ġportanto": 3163,
      "Ġpodemos": 3164,
      "ĠTr": 3165,
      "ncias": 3166,
      "ĠPartido": 3167,
      "Ġfix": 3168,
      "Ġdivulg": 3169,
      "Ġnesse": 3170,
      "inguÃ©m": 3171,
      "Ġcaus": 3172,
      "Ġdestac": 3173,
      "ht": 3174,
      "Ġpret": 3175,
      "Ġating": 3176,
      "RAVO": 3177,
      "Ġdemonst": 3178,
      "Ġcrime": 3179,
      "Ġ'": 3180,
      "Ġcorpo": 3181,
      "ĠrelatÃ³rio": 3182,
      "Ġbat": 3183,
      "ĠSab": 3184,
      "ĠimportÃ¢ncia": 3185,
      "Ã¡cio": 3186,
      "Ġmaneira": 3187,
      "ĠCa": 3188,
      "Ġprote": 3189,
      "Ġ1990": 3190,
      "Ġencontra": 3191,
      "Ġinfra": 3192,
      "ĠfÃŃs": 3193,
      "Ġpeg": 3194,
      "ĠDefesa": 3195,
      "Ġprodutos": 3196,
      "Ġrealizada": 3197,
      "ĠEuro": 3198,
      "ĠCivil": 3199,
      "ĠvocÃªs": 3200,
      "Ġdisput": 3201,
      "Ġalt": 3202,
      "ĠQU": 3203,
      "Ġenvolv": 3204,
      "Ġescola": 3205,
      "br": 3206,
      "icion": 3207,
      "Ġsuperior": 3208,
      "our": 3209,
      "eza": 3210,
      "Ġquant": 3211,
      "Ġmulher": 3212,
      "Ġconjunto": 3213,
      "ĠpolÃŃtico": 3214,
      "ĠIt": 3215,
      "Ġlegislativa": 3216,
      "Ġpartido": 3217,
      "unicipal": 3218,
      "Ġqueria": 3219,
      "ĠApÃ³s": 3220,
      "ck": 3221,
      "ĠPres": 3222,
      "posiÃ§Ãµes": 3223,
      "GE": 3224,
      "Ġrom": 3225,
      "enham": 3226,
      "Ġestim": 3227,
      "Ġhaver": 3228,
      "Ġ2001": 3229,
      "ERIMENTO": 3230,
      "ĠCA": 3231,
      "ĠDistrito": 3232,
      "Ġnecessidade": 3233,
      "Ġinteresse": 3234,
      "ĠPrec": 3235,
      "ĠServi": 3236,
      "ĠBol": 3237,
      "ĠPat": 3238,
      "Ġsociais": 3239,
      "Ġpessoal": 3240,
      "ĠEnc": 3241,
      "ĠÃºltima": 3242,
      "Ġlivro": 3243,
      "Ġiniciat": 3244,
      "Ġapa": 3245,
      "TIMA": 3246,
      "Ġpassado": 3247,
      "ĠEcon": 3248,
      "Ġpropri": 3249,
      "leo": 3250,
      "ind": 3251,
      "Ġcontr": 3252,
      "postos": 3253,
      "ormente": 3254,
      "Ġ2018": 3255,
      "ĠVice": 3256,
      "Ġdesem": 3257,
      "Pa": 3258,
      "ĠquÃª": 3259,
      "Ġcomprom": 3260,
      "ĠComunicaÃ§Ã£o": 3261,
      "Ġdecre": 3262,
      "ĠprÃ©": 3263,
      "ĠES": 3264,
      "itando": 3265,
      "Ġreal": 3266,
      "ĠinglÃªs": 3267,
      "ĠDEP": 3268,
      "ĠGovern": 3269,
      "amental": 3270,
      "edo": 3271,
      "Ġlemb": 3272,
      "Ġsug": 3273,
      "eito": 3274,
      "ĠmÃªs": 3275,
      "Ġdep": 3276,
      "78": 3277,
      "ĠTecnologia": 3278,
      "ecer": 3279,
      "ws": 3280,
      "Ġcompanh": 3281,
      "ĠexecuÃ§Ã£o": 3282,
      "Ã³rdÃ£o": 3283,
      "Ġficou": 3284,
      "qÃ¼": 3285,
      "anÃ§as": 3286,
      "48": 3287,
      "ĠSenadores": 3288,
      "CA": 3289,
      "IDADE": 3290,
      "ĠREQUERIMENTO": 3291,
      "ategory": 3292,
      "Ġanunc": 3293,
      "ĠCidad": 3294,
      "ĠrÃ¡p": 3295,
      "ĠCiÃªncia": 3296,
      "2012": 3297,
      "Ġlogo": 3298,
      "Ġconqu": 3299,
      "ĠObrigado": 3300,
      "ĠCOMISSÃĥO": 3301,
      "Ġpergu": 3302,
      "NAL": 3303,
      "dbP": 3304,
      "Ġpontos": 3305,
      "let": 3306,
      "ala": 3307,
      "hia": 3308,
      "Ġprofissional": 3309,
      "99": 3310,
      "Ġfranc": 3311,
      "Ġche": 3312,
      "ertura": 3313,
      "ald": 3314,
      "ĠÃ¢mb": 3315,
      "Ġapos": 3316,
      "2016": 3317,
      "ka": 3318,
      "ÃŃtica": 3319,
      "ramento": 3320,
      "Ġpromov": 3321,
      "Ġluta": 3322,
      "âĢĵâĢĵâĢĵâĢĵ": 3323,
      "Ġtornou": 3324,
      "ĠTal": 3325,
      "met": 3326,
      "ĠbilhÃµes": 3327,
      "ĠCan": 3328,
      "ier": 3329,
      "ĠcomeÃ§ou": 3330,
      "ĠTa": 3331,
      "Ġsin": 3332,
      "respon": 3333,
      "Ġdisposto": 3334,
      "ĠLU": 3335,
      "Ġanterior": 3336,
      "ĠGil": 3337,
      "ĠEXTRA": 3338,
      "Ġautos": 3339,
      "Ġpad": 3340,
      "Ġsenhor": 3341,
      "Ġpresid": 3342,
      "ĠPe": 3343,
      "ĠOu": 3344,
      "adeira": 3345,
      "ĠPere": 3346,
      "ĠMac": 3347,
      "Ġpesquisa": 3348,
      "ĠInstituto": 3349,
      "Ġemenda": 3350,
      "Ġla": 3351,
      "ney": 3352,
      "Ġnenhum": 3353,
      "Ġinsc": 3354,
      "CdoB": 3355,
      "Ġparece": 3356,
      "ĠCosta": 3357,
      "Ġfederal": 3358,
      "Ã©n": 3359,
      "ĠPrimeira": 3360,
      "IR": 3361,
      "Ġvalores": 3362,
      "Ġvotos": 3363,
      "ĠCunha": 3364,
      "Ġcampo": 3365,
      "ĠPROPOS": 3366,
      "Ġjuris": 3367,
      "Ġinterpre": 3368,
      "Ġanal": 3369,
      "ĠTambÃ©m": 3370,
      "Ġnormas": 3371,
      "Ġx": 3372,
      "ĠÃ¢mbito": 3373,
      "ites": 3374,
      "Ġcerteza": 3375,
      "Ġfec": 3376,
      "Ġconhecimento": 3377,
      "Ġserem": 3378,
      "ĠMarco": 3379,
      "ĠmÃŃnimo": 3380,
      "ĠprÃ¡tica": 3381,
      "Ġtrabalhos": 3382,
      "ĠnÃŃvel": 3383,
      "ĠÃļL": 3384,
      "ÃŃsticas": 3385,
      "ĠalguÃ©m": 3386,
      "iografia": 3387,
      "Ġbanda": 3388,
      "ĠaplicaÃ§Ã£o": 3389,
      "visÃ£o": 3390,
      "ĠBrasileiro": 3391,
      "iormente": 3392,
      "eas": 3393,
      "Ġentra": 3394,
      "NA": 3395,
      "Ġfeita": 3396,
      "Ġtransform": 3397,
      "ĠmÃ©dia": 3398,
      "ĠProf": 3399,
      "itada": 3400,
      "Ġconclu": 3401,
      "ĠDil": 3402,
      "Ġcient": 3403,
      "ĠRÃ¡": 3404,
      "Ġartigos": 3405,
      "ong": 3406,
      "ĠDan": 3407,
      "ront": 3408,
      "Ġprincipais": 3409,
      "oso": 3410,
      "ibl": 3411,
      "ĠAP": 3412,
      "Ġ................................................................": 3413,
      "Ġvigor": 3414,
      "Ġ40": 3415,
      "Ġlinha": 3416,
      "Ġ1998": 3417,
      "igura": 3418,
      "ĠÃļLTIMA": 3419,
      "ĠPortanto": 3420,
      "Ġhon": 3421,
      "sia": 3422,
      "ĠMart": 3423,
      "lev": 3424,
      "ĠDias": 3425,
      "Ġit": 3426,
      "2014": 3427,
      "ĠAgra": 3428,
      "ĠDepois": 3429,
      "ĠLÃŃder": 3430,
      "ÃĩÃķES": 3431,
      "Ġdevem": 3432,
      "for": 3433,
      "50": 3434,
      "ĠAv": 3435,
      "Ġmont": 3436,
      "Ġdific": 3437,
      "ades": 3438,
      "ĠCorte": 3439,
      "eca": 3440,
      "ĠQuero": 3441,
      "ĠinformaÃ§Ã£o": 3442,
      "Ġtor": 3443,
      "Ġreforma": 3444,
      "ĠRoc": 3445,
      "Ġjudic": 3446,
      "ĠInc": 3447,
      "ĠpolÃŃticas": 3448,
      "Ġgas": 3449,
      "erdade": 3450,
      "23": 3451,
      "ris": 3452,
      "ÃŃzo": 3453,
      "Ã©rios": 3454,
      "ĠSTF": 3455,
      "Ġaju": 3456,
      "Ġisto": 3457,
      "inta": 3458,
      "ect": 3459,
      "una": 3460,
      "Ġesqu": 3461,
      "ĠcrÃ©dito": 3462,
      "ĠapreciaÃ§Ã£o": 3463,
      "ĠdeverÃ¡": 3464,
      "Ġdivers": 3465,
      "Ġidade": 3466,
      "ĠQuem": 3467,
      "ĠMont": 3468,
      "amp": 3469,
      "ĠHer": 3470,
      "ĠPTB": 3471,
      "ĠTer": 3472,
      "ĠGuerra": 3473,
      "Ġaum": 3474,
      "Apens": 3475,
      "Ġnossos": 3476,
      "Ġdiferentes": 3477,
      "Ġdese": 3478,
      "ĠAra": 3479,
      "ĠExcelÃªncia": 3480,
      "ĠPos": 3481,
      "ĠSantos": 3482,
      "acionais": 3483,
      "Ġnovos": 3484,
      "ĠFaz": 3485,
      "Ġaprovado": 3486,
      "Ġseis": 3487,
      "ĠCab": 3488,
      "ĠatenÃ§Ã£o": 3489,
      "Ġsust": 3490,
      "ĠcomunicaÃ§Ã£o": 3491,
      "roc": 3492,
      "irar": 3493,
      "Ġresultado": 3494,
      "ĠRECURSO": 3495,
      "ĠespecÃŃf": 3496,
      "Ġindepend": 3497,
      "Ġnatureza": 3498,
      "ĠComp": 3499,
      "HA": 3500,
      "ÃŃstica": 3501,
      "DAS": 3502,
      "vog": 3503,
      "plic": 3504,
      "Ã©re": 3505,
      "ĠnecessÃ¡rio": 3506,
      "ilha": 3507,
      "Ġteria": 3508,
      "ĠmÃ©rito": 3509,
      "ĠOh": 3510,
      "ograf": 3511,
      "ĠRicardo": 3512,
      "gens": 3513,
      "ĠÃ³rgÃ£os": 3514,
      "ĠIg": 3515,
      "88": 3516,
      "Ġdesses": 3517,
      "ĠEspecial": 3518,
      "ĠcompetÃªncia": 3519,
      "ĠCast": 3520,
      "Ġsede": 3521,
      "ĠRen": 3522,
      "be": 3523,
      "ĠAmÃ©rica": 3524,
      "ĠBen": 3525,
      "Ġchegou": 3526,
      "ĠFE": 3527,
      "ĠAlves": 3528,
      "Ġplane": 3529,
      "Ġautoria": 3530,
      "pt": 3531,
      "Ġformula": 3532,
      "Ġrenda": 3533,
      "ĠHenrique": 3534,
      "Ġfl": 3535,
      "ĠLEG": 3536,
      "ĠAGRAVO": 3537,
      "Ġcaput": 3538,
      "ULO": 3539,
      "ude": 3540,
      "Ġpossa": 3541,
      "ĠÃ³rgÃ£o": 3542,
      "Ġempreg": 3543,
      "ĠformaÃ§Ã£o": 3544,
      "Ġrevel": 3545,
      "Ġpolic": 3546,
      "ph": 3547,
      "Ġ#": 3548,
      "judic": 3549,
      "Ġexiste": 3550,
      "Ġreduz": 3551,
      "ĠFor": 3552,
      "Ġocorr": 3553,
      "one": 3554,
      "Ġlut": 3555,
      "Ġrecebeu": 3556,
      "Ġsul": 3557,
      "Ġestrutura": 3558,
      "ĠOrdem": 3559,
      "Ġclaro": 3560,
      "ĠPereira": 3561,
      "ĠforÃ§a": 3562,
      "ĠSecretaria": 3563,
      "IÃĩÃĥO": 3564,
      "exo": 3565,
      "Ġchamado": 3566,
      "ĠCel": 3567,
      "idamente": 3568,
      "Ġpossui": 3569,
      "ĠPSD": 3570,
      "antas": 3571,
      "ĠOn": 3572,
      "FL": 3573,
      "Ġterra": 3574,
      "Ġenfrent": 3575,
      "Ġcontrato": 3576,
      "Ġprovimento": 3577,
      "Ġrenov": 3578,
      "Ġigual": 3579,
      "ĠÃŃn": 3580,
      "ÃŃnio": 3581,
      "ĠveÃŃc": 3582,
      "65": 3583,
      "ĠCONSTITU": 3584,
      "ĠSO": 3585,
      "Ġcarreira": 3586,
      "III": 3587,
      "Ġelim": 3588,
      "Geral": 3589,
      "Ġdecorre": 3590,
      "ficiÃªncia": 3591,
      "ĠMais": 3592,
      "ĠespaÃ§o": 3593,
      "Ġretorn": 3594,
      "ĠCopa": 3595,
      "ĠCidadania": 3596,
      "Ġturno": 3597,
      "Ġmenor": 3598,
      "ĠCampeonato": 3599,
      "quÃªncia": 3600,
      "Ġinternacional": 3601,
      "ĠVe": 3602,
      "Ġhomen": 3603,
      "ham": 3604,
      "Ġcidades": 3605,
      "ulada": 3606,
      "Ġhav": 3607,
      "ĠeletrÃ´n": 3608,
      "Ġdiscurso": 3609,
      "Ġganh": 3610,
      "olha": 3611,
      "Ġacima": 3612,
      "ĠDES": 3613,
      "rita": 3614,
      "Ġusu": 3615,
      "Ġtemporada": 3616,
      "Ġresponsabilidade": 3617,
      "Ġtrabalhadores": 3618,
      "erna": 3619,
      "ĠporÃ©m": 3620,
      "Ġvel": 3621,
      "Ġconced": 3622,
      "Ġrece": 3623,
      "ĠhistÃ³r": 3624,
      "estre": 3625,
      "Ġdeles": 3626,
      "Ġmento": 3627,
      "Ġrede": 3628,
      "95": 3629,
      "par": 3630,
      "su": 3631,
      "Ġfutebol": 3632,
      "ĠDEC": 3633,
      "Ã¡tico": 3634,
      "ega": 3635,
      "ĠDec": 3636,
      "oro": 3637,
      "Ġjunt": 3638,
      "las": 3639,
      "ografia": 3640,
      "Ġtri": 3641,
      "Ġmeus": 3642,
      "ĠDilma": 3643,
      "ĠPesso": 3644,
      "Ġsepara": 3645,
      "anta": 3646,
      "Ġelev": 3647,
      "emin": 3648,
      "33": 3649,
      "Ġrealmente": 3650,
      "Ġcrise": 3651,
      "ĠinstituiÃ§Ãµes": 3652,
      "ĠBe": 3653,
      "ĠVou": 3654,
      "Ġvit": 3655,
      "Ġpot": 3656,
      "uldade": 3657,
      "oraÃ§Ã£o": 3658,
      "Ġpauta": 3659,
      "ĠRJ": 3660,
      "ĠMINIST": 3661,
      "Ġ37": 3662,
      "ames": 3663,
      "ĠSanto": 3664,
      "cion": 3665,
      "Ġoportunidade": 3666,
      "Ġmanifest": 3667,
      "AB": 3668,
      "Ġassunto": 3669,
      "ĠDu": 3670,
      "97": 3671,
      "Do": 3672,
      "Ġcul": 3673,
      "Ġacresc": 3674,
      "Ġplano": 3675,
      "Ġtransporte": 3676,
      "ĠBom": 3677,
      "ROS": 3678,
      "bra": 3679,
      "ficiente": 3680,
      "ossa": 3681,
      "Ġdebate": 3682,
      "Ã©rcio": 3683,
      "Ġpossu": 3684,
      "Ġlit": 3685,
      "ĠDom": 3686,
      "ĠdÃº": 3687,
      "Ġnessa": 3688,
      "discussÃ£o": 3689,
      "ĠRequerimento": 3690,
      "ÃĩA": 3691,
      "edor": 3692,
      "Ġcriar": 3693,
      "Ġatra": 3694,
      "Ġnaqu": 3695,
      "putado": 3696,
      "Ġarm": 3697,
      "ĠProvis": 3698,
      "47": 3699,
      "Ġmaiores": 3700,
      "ti": 3701,
      "ĠDECURSO": 3702,
      "ĠXX": 3703,
      "Ã©g": 3704,
      "ĠSenadora": 3705,
      "Ġcompre": 3706,
      "ĠSob": 3707,
      "Ġrequis": 3708,
      "ĠVi": 3709,
      "2005": 3710,
      "aga": 3711,
      "Ġnovas": 3712,
      "ww": 3713,
      "ĠMarcelo": 3714,
      "Ġiniciativa": 3715,
      "ategoria": 3716,
      "ĠÃºnica": 3717,
      "Ġdesenvolv": 3718,
      "ĠSeu": 3719,
      "Ġpesquis": 3720,
      "ĠHistÃ³ria": 3721,
      "ĠPode": 3722,
      "Ġelas": 3723,
      "ĠPolÃŃcia": 3724,
      "ĠĠ": 3725,
      "ĠBanco": 3726,
      "Ġassin": 3727,
      "ĠÃĵ": 3728,
      "Ġconden": 3729,
      "Ġrio": 3730,
      "Ġmandato": 3731,
      "46": 3732,
      "iÃªncias": 3733,
      "Ġtest": 3734,
      "Ġ1997": 3735,
      "elmente": 3736,
      "ĠSh": 3737,
      "encion": 3738,
      "Ġpropor": 3739,
      "Ġprofessor": 3740,
      "Ġdesen": 3741,
      "ĠMend": 3742,
      "Ġdeveria": 3743,
      "ĠGerais": 3744,
      "ricultura": 3745,
      "Ã©rc": 3746,
      "Ġtribut": 3747,
      "Ġencer": 3748,
      "stru": 3749,
      "Ġmediante": 3750,
      "esas": 3751,
      "Ġpossibilidade": 3752,
      "ĠVI": 3753,
      "Ġassegu": 3754,
      "ĠPas": 3755,
      "eses": 3756,
      "90": 3757,
      "ĠPorto": 3758,
      "olo": 3759,
      "Ã³tes": 3760,
      "VI": 3761,
      "Ġdiversos": 3762,
      "ĠCE": 3763,
      "Ãºstria": 3764,
      "TIVO": 3765,
      "pren": 3766,
      "Ġcomercial": 3767,
      "ĠGra": 3768,
      "itou": 3769,
      "urg": 3770,
      "ĠInf": 3771,
      "ĠBahia": 3772,
      "dispÃµe": 3773,
      "ĠDurante": 3774,
      "ĠresponsÃ¡vel": 3775,
      "SE": 3776,
      "Ġimped": 3777,
      "Ġrelev": 3778,
      "ĠRÃ¡dio": 3779,
      "ello": 3780,
      "Ġcivil": 3781,
      "ĠBA": 3782,
      "Ġmag": 3783,
      "Ġsucesso": 3784,
      "ĠJorge": 3785,
      "Ġ................": 3786,
      "Ġguerra": 3787,
      "ĠmÃ¡x": 3788,
      "emia": 3789,
      "Ġhomens": 3790,
      "ĠviolÃªncia": 3791,
      "ĠVic": 3792,
      "Ġexame": 3793,
      "Ġatendimento": 3794,
      "Ġprovis": 3795,
      "Ġincluindo": 3796,
      "Ġcorrespon": 3797,
      "ĠSistema": 3798,
      "Ġchegar": 3799,
      "ĠOR": 3800,
      "ĠbÃ¡s": 3801,
      "Ġservidores": 3802,
      "ĠLima": 3803,
      "ĠInd": 3804,
      "ĠMundial": 3805,
      "Ġefeitos": 3806,
      "Ġagrav": 3807,
      "Ġregular": 3808,
      "men": 3809,
      "ĠAdministraÃ§Ã£o": 3810,
      "Ġnenhuma": 3811,
      "ĠproteÃ§Ã£o": 3812,
      "Ġbo": 3813,
      "ile": 3814,
      "ĠMedida": 3815,
      "Ġmanter": 3816,
      "Ġrelig": 3817,
      "Ġtram": 3818,
      "ĠÃºltimos": 3819,
      "ĠJe": 3820,
      "Ġconse": 3821,
      "Ġexecutar": 3822,
      "Ġmodelo": 3823,
      "ingu": 3824,
      "Ġacus": 3825,
      "Ġlista": 3826,
      "\",\"": 3827,
      "Ġdiversas": 3828,
      "ĠPAULO": 3829,
      "2019": 3830,
      "eios": 3831,
      "Ġfase": 3832,
      "leta": 3833,
      "tal": 3834,
      "Ġmaterial": 3835,
      "ICO": 3836,
      "ĠpÃ¡gina": 3837,
      "ÃŃamos": 3838,
      "Ġprofissionais": 3839,
      "ĠInternacional": 3840,
      "ĠEra": 3841,
      "ĠAmb": 3842,
      "ĠâĢĺ": 3843,
      "Ġbr": 3844,
      "ĠMendes": 3845,
      "PA": 3846,
      "EIRO": 3847,
      "ĠJohn": 3848,
      "In": 3849,
      "Ġaposent": 3850,
      "Ġanter": 3851,
      "ĠSo": 3852,
      "Ãªmio": 3853,
      "Ġcomum": 3854,
      "Ġinflu": 3855,
      "Ġpertenc": 3856,
      "Ġgostaria": 3857,
      "Ġelem": 3858,
      "Ã©lio": 3859,
      "rel": 3860,
      "ĠProvisÃ³ria": 3861,
      "Ġopin": 3862,
      "deu": 3863,
      "ner": 3864,
      "ĠMINISTRO": 3865,
      "onas": 3866,
      "ĠVol": 3867,
      "Ġquis": 3868,
      "DES": 3869,
      "Ġconstitucionalidade": 3870,
      "Ġcapacidade": 3871,
      "ÃŃcias": 3872,
      "ĠHar": 3873,
      "Ġmora": 3874,
      "eter": 3875,
      "Ġfins": 3876,
      "ĠPra": 3877,
      "Ġaqueles": 3878,
      "ĠTudo": 3879,
      "ĠFEDE": 3880,
      "ĠterritÃ³rio": 3881,
      "Ġaus": 3882,
      "Ġrap": 3883,
      "SS": 3884,
      "lorest": 3885,
      "sÃµes": 3886,
      "artamento": 3887,
      "Ġalun": 3888,
      "ĠNesse": 3889,
      "Ġ1999": 3890,
      "Ġfilhos": 3891,
      "Ġpopular": 3892,
      "ĠreduÃ§Ã£o": 3893,
      "Ġefeito": 3894,
      "ĠFund": 3895,
      "ĠprincÃŃpio": 3896,
      "istos": 3897,
      "ĠGar": 3898,
      "ĠAinda": 3899,
      "ulado": 3900,
      "Ġ60": 3901,
      "Ã©u": 3902,
      "rupÃ§Ã£o": 3903,
      "Ġbenefic": 3904,
      "ĠSRA": 3905,
      "Ġ45": 3906,
      "Ġvotar": 3907,
      "ĠPs": 3908,
      "96": 3909,
      "idado": 3910,
      "Ġestudo": 3911,
      "itude": 3912,
      "40": 3913,
      "ley": 3914,
      "ISLA": 3915,
      "ĠQual": 3916,
      "ĠBrasileira": 3917,
      "2017": 3918,
      "irÃ¡": 3919,
      "ĠSessÃµes": 3920,
      "Ġprogramas": 3921,
      "Ġnatural": 3922,
      "pac": 3923,
      "85": 3924,
      "Ġentidades": 3925,
      "ĠPaul": 3926,
      "ya": 3927,
      "Ġimportantes": 3928,
      "ĠAng": 3929,
      "fo": 3930,
      "ĠgestÃ£o": 3931,
      "enos": 3932,
      "ĠtÃ©cn": 3933,
      "CU": 3934,
      "Ġautom": 3935,
      "ĠADV": 3936,
      "Ġliberdade": 3937,
      "Ġmus": 3938,
      "Ġcolet": 3939,
      "ĠPm": 3940,
      "Ġtitular": 3941,
      "isÃµes": 3942,
      "ares": 3943,
      "Ġsist": 3944,
      "ĠHum": 3945,
      "Ġposter": 3946,
      "ĠComissÃµes": 3947,
      "opera": 3948,
      "ĠLEGISLA": 3949,
      "VIS": 3950,
      "idicidade": 3951,
      "Ġaquele": 3952,
      "ĠAcho": 3953,
      "Ġamigo": 3954,
      "Ġverdad": 3955,
      "isÃ³d": 3956,
      "ĠSAN": 3957,
      "Ġlivre": 3958,
      "ese": 3959,
      "ĠDis": 3960,
      "ĠFundo": 3961,
      "Ġconte": 3962,
      "ĠHe": 3963,
      "ĠAlg": 3964,
      "ĠdÃ©cada": 3965,
      "ĠversÃ£o": 3966,
      "ĠsubstituiÃ§Ã£o": 3967,
      "Ġmovimento": 3968,
      "ĠBra": 3969,
      "Ġurb": 3970,
      "SA": 3971,
      "iliar": 3972,
      "ĠDEPU": 3973,
      "Ġmilitar": 3974,
      "Ġcrescimento": 3975,
      "ĠWikip": 3976,
      "ĠJul": 3977,
      "Ġtribun": 3978,
      "lusÃ£o": 3979,
      "Ġatos": 3980,
      "ORDIN": 3981,
      "ĠPEC": 3982,
      "Ġeng": 3983,
      "urais": 3984,
      "ks": 3985,
      "ater": 3986,
      "vam": 3987,
      "ĠLo": 3988,
      "ĠprÃ³ximo": 3989,
      "ĠTUR": 3990,
      "eiÃ§Ãµes": 3991,
      "!!": 3992,
      "ĠCampos": 3993,
      "ĠhipÃ³tes": 3994,
      "Ġsubstitu": 3995,
      "ARDO": 3996,
      "ĠEXTRAORDIN": 3997,
      "Ġ33": 3998,
      "cont": 3999,
      "Ã©dio": 4000,
      "Ġtais": 4001,
      "Ġ01": 4002,
      "ĠPmdbP": 4003,
      "Ġestavam": 4004,
      "Ġforte": 4005,
      "Ġunivers": 4006,
      "ĠLt": 4007,
      "ĠSc": 4008,
      "ĠcontrÃ¡rio": 4009,
      "Ġfundamental": 4010,
      "Ġevento": 4011,
      "rÃ¡fico": 4012,
      "Ġcampanha": 4013,
      "Ġpresentes": 4014,
      "Com": 4015,
      "Ġmuita": 4016,
      "ari": 4017,
      "ĠEN": 4018,
      "Ã©tica": 4019,
      "idenc": 4020,
      "ICAÃĩÃĥO": 4021,
      "Ã©rcito": 4022,
      "ĠAC": 4023,
      "ĠeconÃ´mica": 4024,
      "Ġadm": 4025,
      "nior": 4026,
      "Ġrecup": 4027,
      "Ġ36": 4028,
      "Ġdela": 4029,
      "ĠorÃ§ament": 4030,
      "Ġassist": 4031,
      "ĠdifÃŃc": 4032,
      "nÃ£o": 4033,
      "ideranÃ§a": 4034,
      "rias": 4035,
      "ĠSÃ©r": 4036,
      "ys": 4037,
      "ĠninguÃ©m": 4038,
      "Ġapont": 4039,
      "Ã©rias": 4040,
      "ĠTodos": 4041,
      "dustria": 4042,
      "ung": 4043,
      "Ġrisco": 4044,
      "Ġapren": 4045,
      "Ġtratamento": 4046,
      "ĠGab": 4047,
      "ĠterÃ¡": 4048,
      "RADO": 4049,
      "ĠMal": 4050,
      "irma": 4051,
      "Ġcaminho": 4052,
      "Ġaproxim": 4053,
      "Ġabsol": 4054,
      "Ġapresentar": 4055,
      "Ġfala": 4056,
      "Ġ38": 4057,
      "ĠadministraÃ§Ã£o": 4058,
      "HOR": 4059,
      "Ġmencion": 4060,
      "izados": 4061,
      "voluÃ§Ã£o": 4062,
      "Ġespecialmente": 4063,
      "arm": 4064,
      "Ġintegra": 4065,
      "Ġcentro": 4066,
      "Ġmult": 4067,
      "Ġsonora": 4068,
      "IX": 4069,
      "ĠorganizaÃ§Ã£o": 4070,
      "Ġ&": 4071,
      "ĠMeu": 4072,
      "ĠlÃŃn": 4073,
      "ĠlanÃ§ado": 4074,
      "ĠinstituiÃ§Ã£o": 4075,
      "Ġcurso": 4076,
      "Ġpassar": 4077,
      "ĠSam": 4078,
      "racia": 4079,
      "Ġpri": 4080,
      "ĠIl": 4081,
      "ogos": 4082,
      "Ġcontar": 4083,
      "wn": 4084,
      "Ġprova": 4085,
      "Ġemendas": 4086,
      "2006": 4087,
      "pus": 4088,
      "ĠCrist": 4089,
      "endeu": 4090,
      "ĠVossa": 4091,
      "Ġbol": 4092,
      "Ġreceber": 4093,
      "Ġajuda": 4094,
      "age": 4095,
      "Ġsignifica": 4096,
      "ĠBr": 4097,
      "Ġsenho": 4098,
      "ĠFEDERAL": 4099,
      "Ġinteress": 4100,
      "ĠTemer": 4101,
      "ĠLtda": 4102,
      "ĠFranÃ§a": 4103,
      "ĠEmb": 4104,
      "ĠLÃº": 4105,
      "fl": 4106,
      "uraÃ§Ã£o": 4107,
      "ĠJÃºnior": 4108,
      "Ġlo": 4109,
      "Ġbeb": 4110,
      "ĠAta": 4111,
      "dades": 4112,
      "gon": 4113,
      "Ġamor": 4114,
      "Ġobt": 4115,
      "Ġlat": 4116,
      "Ġevent": 4117,
      "ĠproposiÃ§Ã£o": 4118,
      "abilidade": 4119,
      "itares": 4120,
      "quia": 4121,
      "ĠTURMA": 4122,
      "utenÃ§Ã£o": 4123,
      "Ġpronunciamento": 4124,
      "Ġtoc": 4125,
      "ĠparÃ¡grafo": 4126,
      "nos": 4127,
      "Ġsusp": 4128,
      "ichel": 4129,
      "Ġoferec": 4130,
      "ĠDOS": 4131,
      "ĠautorizaÃ§Ã£o": 4132,
      "Ġmic": 4133,
      "ĠacÃ³rdÃ£o": 4134,
      "Ġderro": 4135,
      "ĠRibeiro": 4136,
      "hes": 4137,
      "rato": 4138,
      "Ġurg": 4139,
      "Ã©ia": 4140,
      "ĠSuperior": 4141,
      "ĠVoto": 4142,
      "Ġlicit": 4143,
      "Ġcomprov": 4144,
      "75": 4145,
      "ĠHoje": 4146,
      "cas": 4147,
      "Ġajudar": 4148,
      "Ġdig": 4149,
      "ĠAlexand": 4150,
      "Ġusar": 4151,
      "Ġambiente": 4152,
      "Ġbal": 4153,
      "ĠCentro": 4154,
      "ĠFac": 4155,
      "unt": 4156,
      "ÃŃdos": 4157,
      "Ġdocum": 4158,
      "ĠSte": 4159,
      "ĠconteÃº": 4160,
      "Ã¢nia": 4161,
      "Ġdessas": 4162,
      "Ġhosp": 4163,
      "Ġsuje": 4164,
      "Ġdomin": 4165,
      "ĠSENHOR": 4166,
      "rer": 4167,
      "ĠParan": 4168,
      "ume": 4169,
      "ĠprisÃ£o": 4170,
      "ĠmÃ£o": 4171,
      "ĠdÃŃ": 4172,
      "Ġbastante": 4173,
      "Ġnovamente": 4174,
      "itivo": 4175,
      "ĠTenho": 4176,
      "ritos": 4177,
      "Ġexplic": 4178,
      "Ġalem": 4179,
      "ĠEstad": 4180,
      "Ġpais": 4181,
      "Ġ55": 4182,
      "Ġ................................................................................................": 4183,
      "'s": 4184,
      "ĠTo": 4185,
      "Ġdestaque": 4186,
      "ĠParlamentar": 4187,
      "ĠSecretÃ¡rio": 4188,
      "Ġdiante": 4189,
      "plet": 4190,
      "Ġ32": 4191,
      "Ġaspec": 4192,
      "ĠatuaÃ§Ã£o": 4193,
      "Ġcomunidade": 4194,
      "Ġnegoc": 4195,
      "Ġsair": 4196,
      "Ġsat": 4197,
      "ÃĵR": 4198,
      "Ġcost": 4199,
      "omes": 4200,
      "Ġdestin": 4201,
      "Ġdesemp": 4202,
      "fa": 4203,
      "ĠalcanÃ§": 4204,
      "ĠFam": 4205,
      "Ã¡ss": 4206,
      "ĠelÃ©t": 4207,
      "Ġescla": 4208,
      "ation": 4209,
      "Ġapresenta": 4210,
      "Ġsi": 4211,
      "Ġideia": 4212,
      "ĠjurÃŃdica": 4213,
      "ĠIgreja": 4214,
      "Ġbusca": 4215,
      "taÃ§Ã£o": 4216,
      "otas": 4217,
      "Ġoriginal": 4218,
      "Ġjovens": 4219,
      "arina": 4220,
      "Ġparlam": 4221,
      "just": 4222,
      "ĠSegunda": 4223,
      "ertos": 4224,
      "ĠDireito": 4225,
      "Ġ1996": 4226,
      "au": 4227,
      "iando": 4228,
      "Ġsup": 4229,
      "ĠâĢĵ,": 4230,
      "ĠDav": 4231,
      "Ġdiminu": 4232,
      "ÃŃlias": 4233,
      "land": 4234,
      "Ġdenom": 4235,
      "Ġcart": 4236,
      "ĠInformÃ¡tica": 4237,
      "ĠAtÃ©": 4238,
      "âĢĲ": 4239,
      "TR": 4240,
      "rud": 4241,
      "ĠexistÃªncia": 4242,
      "Ġcat": 4243,
      "ĠEXTRAORDINÃģRIO": 4244,
      "ece": 4245,
      "Ġprofesso": 4246,
      "ĠPOR": 4247,
      "Ġfundo": 4248,
      "Ġmostra": 4249,
      "Ġrequer": 4250,
      "prensa": 4251,
      "Ġgarantir": 4252,
      "Ġresposta": 4253,
      "itÃ£o": 4254,
      "Ġfuturo": 4255,
      "Ġora": 4256,
      "Ġcumprimento": 4257,
      "Ġconvoc": 4258,
      "Presidente": 4259,
      "Ġpreju": 4260,
      "ĠcondiÃ§Ã£o": 4261,
      "ĠquestÃµes": 4262,
      "Ġafirmou": 4263,
      "TOS": 4264,
      "Ġconstante": 4265,
      "vil": 4266,
      "ĠdireÃ§Ã£o": 4267,
      "ĠFal": 4268,
      "iental": 4269,
      "Ġcuja": 4270,
      "Ã¡ticas": 4271,
      "ĠBel": 4272,
      "Ġfatos": 4273,
      "dec": 4274,
      "Ġfinanceira": 4275,
      "hs": 4276,
      "ĠBu": 4277,
      "ĠWill": 4278,
      "Ġclube": 4279,
      "ĠExt": 4280,
      "68": 4281,
      "eta": 4282,
      "Ġrealidade": 4283,
      "Ġjuridicidade": 4284,
      "itiva": 4285,
      "ates": 4286,
      "umb": 4287,
      "ĠREG": 4288,
      "ĠPER": 4289,
      "ĠApo": 4290,
      "Ġmente": 4291,
      "ĠepisÃ³d": 4292,
      "ntem": 4293,
      "tbP": 4294,
      "--": 4295,
      "Ġregras": 4296,
      "etros": 4297,
      "Ġfiscal": 4298,
      "ĠpreÃ§o": 4299,
      "ĠTom": 4300,
      "Ã¢ns": 4301,
      "erva": 4302,
      "Ġdestru": 4303,
      "Ġpenal": 4304,
      "sem": 4305,
      "lesc": 4306,
      "LOS": 4307,
      "erar": 4308,
      "ĠPrev": 4309,
      "ĠTÃ©c": 4310,
      "Ġalta": 4311,
      "ĠGon": 4312,
      "Ġaux": 4313,
      "Ġprimeiros": 4314,
      "ĠGros": 4315,
      "guas": 4316,
      "ĠTO": 4317,
      "ĠmissÃ£o": 4318,
      "iot": 4319,
      "Ġsubs": 4320,
      "Ġgrupos": 4321,
      "Ġpequeno": 4322,
      "rb": 4323,
      "ÃŃqu": 4324,
      "Ġjogos": 4325,
      "ÃļBL": 4326,
      "Ġindivid": 4327,
      "ĠEuropa": 4328,
      "Ġdelib": 4329,
      "ilh": 4330,
      "Ġnobre": 4331,
      "MS": 4332,
      "32": 4333,
      "Ġdeixou": 4334,
      "ordeste": 4335,
      "ĠCONTRA": 4336,
      "ĠcomunitÃ¡ria": 4337,
      "Ġtam": 4338,
      "ĠportuguÃªs": 4339,
      "ĠAntÃ´nio": 4340,
      "ĠBarb": 4341,
      "TAL": 4342,
      "ĠUS": 4343,
      "Ġsai": 4344,
      "Ġarts": 4345,
      "DU": 4346,
      "ĠMes": 4347,
      "Ã¢nsito": 4348,
      "Ġdesenvol": 4349,
      "Ġge": 4350,
      "Ġvoltar": 4351,
      "Ġdesignado": 4352,
      "Ġimpres": 4353,
      "ĠJUS": 4354,
      "Ps": 4355,
      "ĠvÃŃt": 4356,
      "ĠAM": 4357,
      "portes": 4358,
      "ĠDEPUTADO": 4359,
      "Ġelabora": 4360,
      "ÃīR": 4361,
      "Ã¢ncias": 4362,
      "ĠdeclaraÃ§Ã£o": 4363,
      "Ġrela": 4364,
      "ĠFut": 4365,
      "ĠEstat": 4366,
      "ÃŃtulos": 4367,
      "ĠTerra": 4368,
      "ĠParanÃ¡": 4369,
      "uel": 4370,
      "Ġestes": 4371,
      "olh": 4372,
      "ĠEconÃ´m": 4373,
      "Al": 4374,
      "Ġcargos": 4375,
      "Ġressal": 4376,
      "ĠRS": 4377,
      "Ġtermo": 4378,
      "Ġaconteceu": 4379,
      "ĠAugu": 4380,
      "Ġtenham": 4381,
      "ĠTemos": 4382,
      "Ġnota": 4383,
      "ÃŃrito": 4384,
      "Ã¡st": 4385,
      "eias": 4386,
      "Ġlevar": 4387,
      "imidade": 4388,
      "Ġsignific": 4389,
      "Ġatend": 4390,
      "estrutura": 4391,
      "ĠComplementar": 4392,
      "Ġtrabalhar": 4393,
      "ĠMinistros": 4394,
      "Ġchamada": 4395,
      "SON": 4396,
      "ĠGovernador": 4397,
      "lia": 4398,
      "rova": 4399,
      "Ġgal": 4400,
      "TES": 4401,
      "ĠprestaÃ§Ã£o": 4402,
      "Ġtratar": 4403,
      "atamente": 4404,
      "Ġfront": 4405,
      "ĠCN": 4406,
      "Ġdepend": 4407,
      "Ġparec": 4408,
      "arda": 4409,
      "ĠFel": 4410,
      "Ġconsiderado": 4411,
      "Ġretira": 4412,
      "ĠJOS": 4413,
      "aco": 4414,
      "Ã¡ter": 4415,
      "Ġlocais": 4416,
      "ativos": 4417,
      "Ãºncia": 4418,
      "77": 4419,
      "Ġperd": 4420,
      "Ġcujo": 4421,
      "ĠPenal": 4422,
      "ilson": 4423,
      "TIN": 4424,
      "Ġ48": 4425,
      "ĠcientÃŃf": 4426,
      "ÃĤ": 4427,
      "44": 4428,
      "2003": 4429,
      "Ġamigos": 4430,
      "ÃŃr": 4431,
      "Ġacerca": 4432,
      "TAR": 4433,
      "ĠAnexo": 4434,
      "Ġescrit": 4435,
      "Ġcento": 4436,
      "Ġsho": 4437,
      "van": 4438,
      "ven": 4439,
      "ĠapresentaÃ§Ã£o": 4440,
      "Ġluz": 4441,
      "ĠtelevisÃ£o": 4442,
      "ĠPortaria": 4443,
      "ĠCerto": 4444,
      "ĠfamÃŃlias": 4445,
      "Ġprepara": 4446,
      "GL": 4447,
      "Ġesfor": 4448,
      "ĠSÃ©rgio": 4449,
      "ĠAPR": 4450,
      "edentes": 4451,
      "ÃģRIA": 4452,
      "ĠLib": 4453,
      "Ġproteg": 4454,
      "ĠrazÃµes": 4455,
      "iÃ¡s": 4456,
      "31": 4457,
      "ĠSenhores": 4458,
      "Ġconformidade": 4459,
      "opes": 4460,
      "Ġimplant": 4461,
      "Ġpartes": 4462,
      "ificada": 4463,
      "ĠJUSTI": 4464,
      "ratÃ©g": 4465,
      "PP": 4466,
      "Ġseguida": 4467,
      "ci": 4468,
      "ĠgÃªn": 4469,
      "ĠatrÃ¡s": 4470,
      "ĠÃį": 4471,
      "De": 4472,
      "ĠcarÃ¡ter": 4473,
      "ÃŃmp": 4474,
      "ĠaudiÃªncia": 4475,
      "ĠdifÃŃcil": 4476,
      "argos": 4477,
      "ori": 4478,
      "ĠBat": 4479,
      "ELO": 4480,
      "Ġeduc": 4481,
      "ĠServiÃ§o": 4482,
      "ĠdistribuiÃ§Ã£o": 4483,
      "ĠFigu": 4484,
      "Ġcrimes": 4485,
      "aqu": 4486,
      "Ġvolt": 4487,
      "ash": 4488,
      "stant": 4489,
      "Ġsupl": 4490,
      "ĠAlem": 4491,
      "Ġprocessos": 4492,
      "Ġacord": 4493,
      "jas": 4494,
      "ĠEr": 4495,
      "Ġbens": 4496,
      "Ġocas": 4497,
      "ĠCaval": 4498,
      "Ġcoorden": 4499,
      "atÃ³ria": 4500,
      "ericana": 4501,
      "Ġterceiro": 4502,
      "Ġmensa": 4503,
      "ÃŃssimo": 4504,
      "Ġdocumentos": 4505,
      "Ġdeixa": 4506,
      "dicional": 4507,
      "pas": 4508,
      "Ġtalvez": 4509,
      "ĠAf": 4510,
      "Ġpalavras": 4511,
      "ĠMG": 4512,
      "Ġencontrar": 4513,
      "ĠSEG": 4514,
      "Ġprevisto": 4515,
      "itÃ¡rio": 4516,
      "ĠMato": 4517,
      "fÃŃcios": 4518,
      "Ġrei": 4519,
      "sim": 4520,
      "ĠSuper": 4521,
      "ĠPROC": 4522,
      "Ġalim": 4523,
      "ego": 4524,
      "isb": 4525,
      "dios": 4526,
      "ĠGen": 4527,
      "Ġprofer": 4528,
      "Ġimpac": 4529,
      "ĠBibl": 4530,
      "ĠmanutenÃ§Ã£o": 4531,
      "Ġperceb": 4532,
      "EX": 4533,
      "ilia": 4534,
      "ue": 4535,
      "ĠGO": 4536,
      "ĠreferÃªncia": 4537,
      "Ġcategoria": 4538,
      "ĠSan": 4539,
      "lhe": 4540,
      "esc": 4541,
      "Ġentendimento": 4542,
      "ĠArg": 4543,
      "Ġincon": 4544,
      "Ġcombate": 4545,
      "ĠCentral": 4546,
      "ĠmunicÃŃpios": 4547,
      "ĠVir": 4548,
      "iÃ¡ria": 4549,
      "ĠTrata": 4550,
      "ĠConce": 4551,
      "ĠParÃ¡grafo": 4552,
      "Of": 4553,
      "Ag": 4554,
      "idÃ£o": 4555,
      "ĠcÃ³p": 4556,
      "55": 4557,
      "Ġrealizado": 4558,
      "Ġescolas": 4559,
      "Ġabertura": 4560,
      "sar": 4561,
      "Lei": 4562,
      "Ġ*": 4563,
      "vent": 4564,
      "94": 4565,
      "tico": 4566,
      "ibil": 4567,
      "ervaÃ§Ã£o": 4568,
      "ĠFa": 4569,
      "omos": 4570,
      "ĠsalÃ¡rio": 4571,
      "Ġhor": 4572,
      "Ġveio": 4573,
      "Ġautoridade": 4574,
      "Ġentidade": 4575,
      "bres": 4576,
      "eleÃ§Ã£o": 4577,
      "ĠRon": 4578,
      "Ġpratic": 4579,
      "ĠConstitu": 4580,
      "67": 4581,
      "rupo": 4582,
      "Ġmec": 4583,
      "ĠSenhora": 4584,
      "Ġdescon": 4585,
      "han": 4586,
      "seu": 4587,
      "ko": 4588,
      "Ġorigin": 4589,
      "ĠUN": 4590,
      "ĠRequer": 4591,
      "ĠEi": 4592,
      "Ġviz": 4593,
      "ĠDIA": 4594,
      "RJ": 4595,
      "ĠeleiÃ§Ãµes": 4596,
      "UA": 4597,
      "alo": 4598,
      "missÃ£o": 4599,
      "valho": 4600,
      "Ġfilha": 4601,
      "ĠWal": 4602,
      "Ġmelhores": 4603,
      "Ġcha": 4604,
      "ĠProcesso": 4605,
      "ĠSouza": 4606,
      "uÃŃ": 4607,
      "Ġcolocar": 4608,
      "Ġfech": 4609,
      "Ġceleb": 4610,
      "2004": 4611,
      "ĠDJe": 4612,
      "ĠLocalidades": 4613,
      "ĠCelso": 4614,
      "ĠApoio": 4615,
      "ulta": 4616,
      "Ġaprovada": 4617,
      "Ġperto": 4618,
      "Ġemprego": 4619,
      "ĠMaran": 4620,
      "REG": 4621,
      "iadas": 4622,
      "eto": 4623,
      "ĠCha": 4624,
      "entado": 4625,
      "pro": 4626,
      "Ġ1991": 4627,
      "Ġdizendo": 4628,
      "gar": 4629,
      "ĠGlob": 4630,
      "Ġconquist": 4631,
      "ĠOrÃ§": 4632,
      "ington": 4633,
      "Ġcapaz": 4634,
      "ranco": 4635,
      "lio": 4636,
      "ĠGomes": 4637,
      "ĠRICD": 4638,
      "old": 4639,
      "uco": 4640,
      "Ġvoc": 4641,
      "Ġ[": 4642,
      "Ġtribuna": 4643,
      "Ġestudos": 4644,
      "ĠoperaÃ§Ã£o": 4645,
      "Ġgarantia": 4646,
      "Ġdiretor": 4647,
      "Ġinstrumento": 4648,
      "Ġentrar": 4649,
      "ĠcanÃ§Ã£o": 4650,
      "Ġfeliz": 4651,
      "Ġrecom": 4652,
      "Ġorganiz": 4653,
      "ĠGrosso": 4654,
      "dice": 4655,
      "Ġcomplet": 4656,
      "ĠLopes": 4657,
      "Ġincent": 4658,
      "Ġpud": 4659,
      "Ġsubmet": 4660,
      "peÃ£o": 4661,
      "ĠconteÃºdo": 4662,
      "BERTO": 4663,
      "ĠMora": 4664,
      "Ġaltern": 4665,
      "ĠcrÃŃt": 4666,
      "Ġquil": 4667,
      "ĠCruz": 4668,
      "ĠAqui": 4669,
      "elson": 4670,
      "Ġalto": 4671,
      "cios": 4672,
      "Ġrepresenta": 4673,
      "ogia": 4674,
      "Ġhumanos": 4675,
      "ĠeleiÃ§Ã£o": 4676,
      "ĠPrimeiro": 4677,
      "...)": 4678,
      "Ġpromo": 4679,
      "Ġfazem": 4680,
      "Ġinterv": 4681,
      "Ġapesar": 4682,
      "ĠMinistra": 4683,
      "Ġmilitares": 4684,
      "hur": 4685,
      "ĠConf": 4686,
      "Ġsens": 4687,
      "Ġamea": 4688,
      "vista": 4689,
      "ĠvÃŃde": 4690,
      "Ġparticular": 4691,
      "ork": 4692,
      "ĠMunicipal": 4693,
      "onel": 4694,
      "ÃŃdu": 4695,
      "ÃŃnc": 4696,
      "ĠIr": 4697,
      "Ġescrito": 4698,
      "Ã¡lia": 4699,
      "Ġtot": 4700,
      "LO": 4701,
      "ĠutilizaÃ§Ã£o": 4702,
      "ĠregiÃµes": 4703,
      "Ġapens": 4704,
      "rÃŃc": 4705,
      "inham": 4706,
      "porto": 4707,
      "ĠRocha": 4708,
      "ĠcabeÃ§a": 4709,
      "ĠSubstitutivo": 4710,
      "Ġmundial": 4711,
      "ĠMic": 4712,
      "logo": 4713,
      "RAS": 4714,
      "Ġ1995": 4715,
      "ĠPubl": 4716,
      "Ġregulam": 4717,
      "Ġunan": 4718,
      "ĠoperaÃ§Ãµes": 4719,
      "nia": 4720,
      "ĠCe": 4721,
      "Ġapare": 4722,
      "Ã¢nt": 4723,
      "ĠfavorÃ¡vel": 4724,
      "ĠPorque": 4725,
      "ĠinclusÃ£o": 4726,
      "Ġvinc": 4727,
      "dustrial": 4728,
      "by": 4729,
      "Ġestat": 4730,
      "IÃĩÃķES": 4731,
      "ĠCorre": 4732,
      "jos": 4733,
      "ÃŃdio": 4734,
      "elos": 4735,
      "ĠOc": 4736,
      "ÃŃa": 4737,
      "Ġmem": 4738,
      "Ġconfirm": 4739,
      "ĠMerc": 4740,
      "jeiÃ§Ã£o": 4741,
      "Ãºc": 4742,
      "Ġadvog": 4743,
      "anhou": 4744,
      "Ġconseguiu": 4745,
      "ĠpeÃ§o": 4746,
      "ĠRelatÃ³rio": 4747,
      "Ġmetros": 4748,
      "Ġresultados": 4749,
      "ĠOfÃŃcio": 4750,
      "ĠausÃªncia": 4751,
      "ĠpoderÃ£o": 4752,
      "Ġ70": 4753,
      "Ġdedic": 4754,
      "Ġacabou": 4755,
      "ĠCatarina": 4756,
      "Ãªncio": 4757,
      "Ġrodo": 4758,
      "ĠParlamentares": 4759,
      "mina": 4760,
      "Ġnossas": 4761,
      "ĠJa": 4762,
      "Ġband": 4763,
      "Ġdado": 4764,
      "Ġparticipar": 4765,
      "Ġjovem": 4766,
      "ky": 4767,
      "NO": 4768,
      "Pausa": 4769,
      "Ġpare": 4770,
      "Ġconhecida": 4771,
      "Ġalunos": 4772,
      "tc": 4773,
      "ĠHa": 4774,
      "Ġfalando": 4775,
      "Ġexclusividade": 4776,
      "ides": 4777,
      "ĠIM": 4778,
      "ĠeconÃ´mico": 4779,
      "oli": 4780,
      "Ġaquela": 4781,
      "ĠJudic": 4782,
      "ritÃ¢n": 4783,
      "Ġunidades": 4784,
      "Ġinvestimentos": 4785,
      "Ġconfl": 4786,
      "ĠJust": 4787,
      "iplom": 4788,
      "meida": 4789,
      "sion": 4790,
      "xe": 4791,
      "avelmente": 4792,
      "Ġcoleg": 4793,
      "ÃŃb": 4794,
      "ĠLista": 4795,
      "ĠFiguei": 4796,
      "Ġsete": 4797,
      "bol": 4798,
      "Ġentend": 4799,
      "ĠLUIZ": 4800,
      "rimÃ´nio": 4801,
      "Ġoito": 4802,
      "ĠSegura": 4803,
      "ĠNat": 4804,
      "IÃĥO": 4805,
      "Ġdiscutir": 4806,
      "Ġtab": 4807,
      "ĠConv": 4808,
      "ĠDi": 4809,
      "ĠArn": 4810,
      "Ġimprensa": 4811,
      "ĠEstamos": 4812,
      "ĠCONSTITUIÃĩÃĥO": 4813,
      "ĠJun": 4814,
      "ĠnegÃ³": 4815,
      "ĠpolÃŃticos": 4816,
      "ĠCARLOS": 4817,
      "fil": 4818,
      "Ġhabil": 4819,
      "Ġtornar": 4820,
      "ĠTor": 4821,
      "Ġjustific": 4822,
      "Ġaprove": 4823,
      "nd": 4824,
      "ĠirmÃ£o": 4825,
      "TER": 4826,
      "culo": 4827,
      "ror": 4828,
      "RETO": 4829,
      "Ġ119": 4830,
      "ioso": 4831,
      "Ġrequisitos": 4832,
      "Ġbon": 4833,
      "Ġanalis": 4834,
      "Ġoutor": 4835,
      "ĠBR": 4836,
      "ĠDESP": 4837,
      "ĠplenÃ¡rio": 4838,
      "Ġâ": 4839,
      "ĠMaranhÃ£o": 4840,
      "ĠMP": 4841,
      "ĠApesar": 4842,
      "Ġsite": 4843,
      "87": 4844,
      "Ġbancada": 4845,
      "Ġpergunt": 4846,
      "ĠAlmeida": 4847,
      "Ġtecn": 4848,
      "Ġ34": 4849,
      "ĠUnivers": 4850,
      "Ġinicial": 4851,
      "idaÃ§Ã£o": 4852,
      "ĠUSP": 4853,
      "ĠFe": 4854,
      "Ġcomigo": 4855,
      "ĠParÃ¡": 4856,
      "ĠMEN": 4857,
      "off": 4858,
      "Ġrevista": 4859,
      "Ġestrang": 4860,
      "Ġexatamente": 4861,
      "Ã³st": 4862,
      "Ġvisto": 4863,
      "inente": 4864,
      "ĠLou": 4865,
      "ĠART": 4866,
      "Ġcomem": 4867,
      "elar": 4868,
      "ĠprincÃŃpios": 4869,
      "Ġcontas": 4870,
      "ĠRodrigues": 4871,
      "ĠPes": 4872,
      "91": 4873,
      "Ġdivid": 4874,
      "iria": 4875,
      "Ġher": 4876,
      "Ġpint": 4877,
      "ÃŃz": 4878,
      "%.": 4879,
      "Ġinterior": 4880,
      "ĠComunitÃ¡ria": 4881,
      "Ġtaxa": 4882,
      "Ġess": 4883,
      "ĠArm": 4884,
      "Ġdiferente": 4885,
      "isboa": 4886,
      "rama": 4887,
      "adoria": 4888,
      "Ġdesaf": 4889,
      "Ġacha": 4890,
      "Ġexib": 4891,
      "Ġmedic": 4892,
      "ĠJOSÃī": 4893,
      "CI": 4894,
      "Ġgaro": 4895,
      "%,": 4896,
      "ÃŃdas": 4897,
      "Ġilust": 4898,
      "Ġfab": 4899,
      "ĠpreÃ§os": 4900,
      "ĠAh": 4901,
      "Ġantec": 4902,
      "Ġemerg": 4903,
      "ĠsoluÃ§Ã£o": 4904,
      "Ġfirm": 4905,
      "Ġprior": 4906,
      "ĠJO": 4907,
      "Ġdireta": 4908,
      "Ġvaria": 4909,
      "Ġbaixo": 4910,
      "Ġps": 4911,
      "reu": 4912,
      "prud": 4913,
      "ĠRodrigo": 4914,
      "Ġcolabora": 4915,
      "ĠMon": 4916,
      "ĠFisc": 4917,
      "ĠpermissÃ£o": 4918,
      "ĠOnde": 4919,
      "ĠcontribuiÃ§Ã£o": 4920,
      "ificaÃ§Ãµes": 4921,
      "Ġ80": 4922,
      "Apensado": 4923,
      "ĠNew": 4924,
      "reveu": 4925,
      "ĠPad": 4926,
      "ĠmudanÃ§a": 4927,
      "ĠindÃŃg": 4928,
      "lamento": 4929,
      "ÃŃderes": 4930,
      "AG": 4931,
      "ĠJes": 4932,
      "Ġoutorga": 4933,
      "ĠCarvalho": 4934,
      "ĠQuer": 4935,
      "itais": 4936,
      "ianÃ§a": 4937,
      "eceu": 4938,
      "ĠHel": 4939,
      "Ġlav": 4940,
      "Ġhaja": 4941,
      "ED": 4942,
      "Ġseguir": 4943,
      "vidas": 4944,
      "ĠMi": 4945,
      "poss": 4946,
      "ĠSch": 4947,
      "ĠVale": 4948,
      "ied": 4949,
      "ĠRIO": 4950,
      "Ġautoriza": 4951,
      "ĠveÃŃculos": 4952,
      "reto": 4953,
      "Ġestadual": 4954,
      "Ġremun": 4955,
      "ng": 4956,
      "ĠMO": 4957,
      "ĠrejeiÃ§Ã£o": 4958,
      "Ġbair": 4959,
      "ĠdÃºvida": 4960,
      "ment": 4961,
      "Ġpun": 4962,
      "Ġclara": 4963,
      "NIO": 4964,
      "andro": 4965,
      "ĠTeix": 4966,
      "ĠConcedo": 4967,
      "((": 4968,
      "Ã§am": 4969,
      "Ġpropostas": 4970,
      "ĠHom": 4971,
      "Ġpublicado": 4972,
      "gas": 4973,
      "ĠAugusto": 4974,
      "Ġdiscipl": 4975,
      "fin": 4976,
      "Ġcontinuar": 4977,
      "ĠRECE": 4978,
      "Ġontem": 4979,
      "ĠeletrÃ´nico": 4980,
      "ĠvÃª": 4981,
      "ĠRegiÃ£o": 4982,
      "ĠEscola": 4983,
      "ĠprÃ³xima": 4984,
      "Ġlegais": 4985,
      "ramente": 4986,
      "Ġporta": 4987,
      "hi": 4988,
      "ĠNordeste": 4989,
      "diÃ§Ã£o": 4990,
      "ĠResol": 4991,
      "ĠcrianÃ§a": 4992,
      "ĠNA": 4993,
      "Ġtentar": 4994,
      "ĠtÃ©cnico": 4995,
      "Ġtrein": 4996,
      "Ġafirma": 4997,
      "Ġvirtu": 4998,
      "ĠMad": 4999,
      "Est": 5000,
      "ĠEstadual": 5001,
      "ĠcorrupÃ§Ã£o": 5002,
      "ĠlanÃ§amento": 5003,
      "ernamb": 5004,
      "TAÃĩÃĥO": 5005,
      "Ġsurg": 5006,
      "Ġambos": 5007,
      "ĠMarcos": 5008,
      "Ġpossam": 5009,
      "Ġsomos": 5010,
      "ĠFigueiredo": 5011,
      "ĠestratÃ©g": 5012,
      "Ġsemelh": 5013,
      "Ġocorreu": 5014,
      "Ġ47": 5015,
      "itam": 5016,
      "ĠlÃŃngua": 5017,
      "2018": 5018,
      "Ġfoto": 5019,
      "Ġautoridades": 5020,
      "Ġpagar": 5021,
      "ĠNelson": 5022,
      "etra": 5023,
      "Ġcriado": 5024,
      "Ġresta": 5025,
      "Ġpartidos": 5026,
      "ĠmÃ©dio": 5027,
      "Ġcarro": 5028,
      "ĠAqu": 5029,
      "Ġministro": 5030,
      "ĠSeguranÃ§a": 5031,
      "itados": 5032,
      "Ġi": 5033,
      "ĠAmazÃ´nia": 5034,
      "ĠTeixeira": 5035,
      "Ġdispositivo": 5036,
      "jamento": 5037,
      "Ġfui": 5038,
      "ĠReino": 5039,
      "Ġmac": 5040,
      "Ġhomenagem": 5041,
      "Ġapre": 5042,
      "Ġmotivo": 5043,
      "Ãªnio": 5044,
      "ĠAO": 5045,
      "ĠTalvez": 5046,
      "ĠLiv": 5047,
      "ĠLÃºcia": 5048,
      "Ġcentral": 5049,
      "Ġestabelecer": 5050,
      "Ġmos": 5051,
      "Ġclasse": 5052,
      "ÃŃba": 5053,
      "Ġlevant": 5054,
      "ĠWikipÃ©dia": 5055,
      "ĠDECRETO": 5056,
      "Ġevitar": 5057,
      "86": 5058,
      "udio": 5059,
      "lig": 5060,
      "icip": 5061,
      "Ġrecorre": 5062,
      "rativa": 5063,
      "Ġ90": 5064,
      "ĠbenefÃŃcio": 5065,
      "ĠmÃ¡ximo": 5066,
      "ULA": 5067,
      "Ġrealizar": 5068,
      "Ġcic": 5069,
      "etrÃ³": 5070,
      "ĠCOR": 5071,
      "hy": 5072,
      "ECIA": 5073,
      "ĠcomissÃ£o": 5074,
      "Ġadot": 5075,
      "Ġ1988": 5076,
      "ick": 5077,
      "pira": 5078,
      "ĠDesde": 5079,
      "Ġanimais": 5080,
      "ĠFutebol": 5081,
      "eron": 5082,
      "ĠOrgan": 5083,
      "Ã©tico": 5084,
      "Ġproib": 5085,
      "ĠGal": 5086,
      "ĠSalv": 5087,
      "ĠavanÃ§": 5088,
      "Ġentrada": 5089,
      "Ġprevista": 5090,
      "ler": 5091,
      "ĠmÃ©dico": 5092,
      "ĠRELATORA": 5093,
      "Ġagu": 5094,
      "ĠNeg": 5095,
      "Ġleis": 5096,
      "olÃ³gica": 5097,
      "Ġmicro": 5098,
      "Ġ02": 5099,
      "ĠOlÃ¡": 5100,
      "ĠPia": 5101,
      "Ġjurisprud": 5102,
      "Ġelementos": 5103,
      "Ġquarto": 5104,
      "riu": 5105,
      "Ġpermitir": 5106,
      "ĠAlberto": 5107,
      "Ġfederais": 5108,
      "CON": 5109,
      "Ġ49": 5110,
      "Ã©is": 5111,
      "Ġabaixo": 5112,
      "Ġequipamentos": 5113,
      "Ġcusto": 5114,
      "Ġreclam": 5115,
      "ĠPpP": 5116,
      "Ġdor": 5117,
      "ife": 5118,
      "ĠPROPOSIÃĩÃķES": 5119,
      "Ġport": 5120,
      "NR": 5121,
      "Ġarte": 5122,
      "itores": 5123,
      "ĠGrupo": 5124,
      "ĠJap": 5125,
      "SÃķES": 5126,
      "ĠAndrÃ©": 5127,
      "Ġatualmente": 5128,
      "Ġtecnologia": 5129,
      "ĠRad": 5130,
      "tual": 5131,
      "Ġment": 5132,
      "ĠcritÃ©rios": 5133,
      "terior": 5134,
      "TRO": 5135,
      "ĠFamÃŃlia": 5136,
      "Ġdocumento": 5137,
      "LIO": 5138,
      "ismos": 5139,
      "Ġcoopera": 5140,
      "rever": 5141,
      "exto": 5142,
      "Ã£s": 5143,
      "olÃ³gico": 5144,
      "Ã´nica": 5145,
      "AgR": 5146,
      "ĠChina": 5147,
      "xx": 5148,
      "Ġusado": 5149,
      "Ġfontes": 5150,
      "Ġital": 5151,
      "Ġpermite": 5152,
      "eio": 5153,
      "Ġamericano": 5154,
      "Ġtado": 5155,
      "ĠSar": 5156,
      "ĠPÃļBL": 5157,
      "ĠEMENDAS": 5158,
      "Ġprovas": 5159,
      "RIB": 5160,
      "ĠAlemanha": 5161,
      "Ġpod": 5162,
      "Ġquadro": 5163,
      "Ġdada": 5164,
      "ĠSessÃ£o": 5165,
      "posa": 5166,
      "ĠSin": 5167,
      "ĠDepu": 5168,
      "Ġexped": 5169,
      "Ġgar": 5170,
      "ĠMichel": 5171,
      "ĠOUT": 5172,
      "atalha": 5173,
      "ĠProcura": 5174,
      "ĠMundo": 5175,
      "Ġexposto": 5176,
      "RITO": 5177,
      "orda": 5178,
      "imar": 5179,
      "Ã¡vio": 5180,
      "rol": 5181,
      "ĠChe": 5182,
      "Ġrural": 5183,
      "ĠLisboa": 5184,
      "aca": 5185,
      "ĠfunÃ§Ãµes": 5186,
      "eremos": 5187,
      "Ġfemin": 5188,
      "Ġatender": 5189,
      "ĠmanhÃ£": 5190,
      "gÃ£o": 5191,
      "ĠSER": 5192,
      "Ġtelefon": 5193,
      "ĠJesus": 5194,
      "Ġdiretamente": 5195,
      "Ġtorna": 5196,
      "Ġinteresses": 5197,
      "ĠDiscussÃ£o": 5198,
      "etrÃ³leo": 5199,
      "FF": 5200,
      "Ġtomar": 5201,
      "Ġdispositivos": 5202,
      "ĠAlexandre": 5203,
      "uito": 5204,
      "timo": 5205,
      "ĠBas": 5206,
      "MG": 5207,
      "ĠalteraÃ§Ã£o": 5208,
      "struÃ§Ã£o": 5209,
      "ĠPCdoB": 5210,
      "ĠMinha": 5211,
      "ĠHol": 5212,
      "ĠPrevidÃªncia": 5213,
      "64": 5214,
      "ĠPlano": 5215,
      "Ġpec": 5216,
      "ĠdeverÃ£o": 5217,
      "Ġsalv": 5218,
      "Ġileg": 5219,
      "ĠhipÃ³tese": 5220,
      "ĠMilitar": 5221,
      "Ġimagem": 5222,
      "Ġexplorar": 5223,
      "Ġvice": 5224,
      "Ġcomunic": 5225,
      "ĠTrabalh": 5226,
      "jar": 5227,
      "ĠprovisÃ³ria": 5228,
      "identes": 5229,
      "ĠbenefÃŃcios": 5230,
      "Ġtrop": 5231,
      "ĠArthur": 5232,
      "Ġreb": 5233,
      "ĠrelaÃ§Ãµes": 5234,
      "________________": 5235,
      "Ġestiv": 5236,
      "ĠvitÃ³ria": 5237,
      "93": 5238,
      "TIVA": 5239,
      "Ġbra": 5240,
      "IG": 5241,
      "ĠRosa": 5242,
      "ĠMach": 5243,
      "Ġassass": 5244,
      "enez": 5245,
      "Ġquantidade": 5246,
      "Ġquarta": 5247,
      "Ġcomput": 5248,
      "Ġ1993": 5249,
      "ny": 5250,
      "ĠBl": 5251,
      "Ġprejudic": 5252,
      "ĠDireitos": 5253,
      "Ġtran": 5254,
      "Ġapresentou": 5255,
      "ĠDiv": 5256,
      "Ġrepresentante": 5257,
      "ragem": 5258,
      "atora": 5259,
      "Ġcorrespond": 5260,
      "Ġconcent": 5261,
      "Ġgrat": 5262,
      "ĠIta": 5263,
      "ĠfÃŃsica": 5264,
      "Ġtime": 5265,
      "aixas": 5266,
      "augu": 5267,
      "ĠEv": 5268,
      "ĠCearÃ¡": 5269,
      "orme": 5270,
      "Ġimagens": 5271,
      "Ġpers": 5272,
      "ĠPRE": 5273,
      "ĠQUE": 5274,
      "Ġflorest": 5275,
      "Ġdemocracia": 5276,
      "Ġsistemas": 5277,
      "amentais": 5278,
      "Ġarmas": 5279,
      "tiva": 5280,
      "ĠDaniel": 5281,
      "ĠNossa": 5282,
      "Ġ--": 5283,
      "ĠavaliaÃ§Ã£o": 5284,
      "Ġdando": 5285,
      "idados": 5286,
      "zar": 5287,
      "rev": 5288,
      "Ġetc": 5289,
      "Ġadolesc": 5290,
      "Ġlocalizada": 5291,
      "Ġfrequ": 5292,
      "ĠopiniÃ£o": 5293,
      "Ġlevou": 5294,
      "iosa": 5295,
      "ĠDESPAC": 5296,
      "Ġorg": 5297,
      "ĠXV": 5298,
      "ĠRog": 5299,
      "ĠindÃºstria": 5300,
      "Ġeventos": 5301,
      "uros": 5302,
      "tora": 5303,
      "ĠFazenda": 5304,
      "Ġvest": 5305,
      "ĠSet": 5306,
      "ĠAltera": 5307,
      "ĠGE": 5308,
      "ber": 5309,
      "ans": 5310,
      "ÃĶ": 5311,
      "Ġambiental": 5312,
      "rizes": 5313,
      "Ġjudicial": 5314,
      "Ġdign": 5315,
      "ĠprejuÃŃzo": 5316,
      "Ġtrec": 5317,
      "ider": 5318,
      "Ġmeios": 5319,
      "Ġgrave": 5320,
      "ĠRegist": 5321,
      "Ġexistem": 5322,
      "ĠEMENDA": 5323,
      "Ġintro": 5324,
      "ĠFundaÃ§Ã£o": 5325,
      "acia": 5326,
      "ĠLO": 5327,
      "Ġconsol": 5328,
      "Ġ00": 5329,
      "Ġult": 5330,
      "Ġcompara": 5331,
      "ĠorientaÃ§Ã£o": 5332,
      "Ġestabelece": 5333,
      "ÃŃstico": 5334,
      "Ġfonte": 5335,
      "erado": 5336,
      "elig": 5337,
      "Ġassoc": 5338,
      "Ġvinte": 5339,
      "enÃ§as": 5340,
      "Ġsaud": 5341,
      "Ġhavendo": 5342,
      "Ġaparec": 5343,
      "Ġapl": 5344,
      "Ġluc": 5345,
      "ĠVista": 5346,
      "category": 5347,
      "Ġsing": 5348,
      "veu": 5349,
      "Ġmens": 5350,
      "ius": 5351,
      "Ġfacil": 5352,
      "ĠParis": 5353,
      "Ġdaqui": 5354,
      "ser": 5355,
      "Ġ|": 5356,
      "60": 5357,
      "Ã¢ndia": 5358,
      "Ġpromover": 5359,
      "Ġglob": 5360,
      "Ġpaciente": 5361,
      "cl": 5362,
      "ĠLideranÃ§a": 5363,
      "Ġpequena": 5364,
      "Ġterras": 5365,
      "todo": 5366,
      "Ġast": 5367,
      "ĠgeraÃ§Ã£o": 5368,
      "Ġunidade": 5369,
      "GERAL": 5370,
      "Ġcrist": 5371,
      "ĠMai": 5372,
      "Ġjuros": 5373,
      "Ġlar": 5374,
      "Ġimedia": 5375,
      "vos": 5376,
      "Ġsuficiente": 5377,
      "ANDO": 5378,
      "Ġquestion": 5379,
      "Ġarrec": 5380,
      "Ġ58": 5381,
      ")(": 5382,
      "ĠjustiÃ§a": 5383,
      "uldades": 5384,
      "Ġ1994": 5385,
      "Ġdispor": 5386,
      "Ġentender": 5387,
      "ĠDeix": 5388,
      "Ġlimites": 5389,
      "Ã©ns": 5390,
      "Ġlivros": 5391,
      "Mar": 5392,
      "ĠpolÃŃcia": 5393,
      "Ġprecisamos": 5394,
      "amar": 5395,
      "Ġface": 5396,
      "Ġvont": 5397,
      "DF": 5398,
      "ĠMoreira": 5399,
      "tudo": 5400,
      "ĠAna": 5401,
      "ĠfiscalizaÃ§Ã£o": 5402,
      "Ġdade": 5403,
      "olis": 5404,
      "Ġitem": 5405,
      "Ġimag": 5406,
      "raÃ§Ãµes": 5407,
      "Ġple": 5408,
      "Ã³veis": 5409,
      "ĠPRB": 5410,
      "ĠVai": 5411,
      "quest": 5412,
      "ĠResoluÃ§Ã£o": 5413,
      "Ġsubstitutivo": 5414,
      "Ġtinham": 5415,
      "ĠamanhÃ£": 5416,
      "Ġpedir": 5417,
      "ĠJogos": 5418,
      "ĠespÃ©cies": 5419,
      "ĠProjetos": 5420,
      "Ġmarca": 5421,
      "ĠJudiciÃ¡rio": 5422,
      "ĠImp": 5423,
      "Ġminhas": 5424,
      "entina": 5425,
      "ĠLEGISLATIVO": 5426,
      "th": 5427,
      "Ġ................................................................................": 5428,
      "ĠBoa": 5429,
      "ĠAud": 5430,
      "Ġfinanciamento": 5431,
      "Ġreceita": 5432,
      "Ġmesa": 5433,
      "Ġ44": 5434,
      "pi": 5435,
      "orpo": 5436,
      "ĠSerra": 5437,
      "ĠCara": 5438,
      "Ġperda": 5439,
      "ĠvisÃ£o": 5440,
      "ĠFran": 5441,
      "Ġdiplom": 5442,
      "ĠChar": 5443,
      "ĠForm": 5444,
      "Ãºmula": 5445,
      "Ġcursos": 5446,
      "Ġofer": 5447,
      "ĠDepartamento": 5448,
      "ĠGeraldo": 5449,
      "Ġjorn": 5450,
      "Ġvirtude": 5451,
      "gn": 5452,
      "inete": 5453,
      "Ġimplem": 5454,
      "Ġtorno": 5455,
      "Ġabando": 5456,
      "ĠPARA": 5457,
      "Ġcandidato": 5458,
      "Ġcorpus": 5459,
      "ĠforÃ§as": 5460,
      "lim": 5461,
      "ĠCand": 5462,
      "Ġtiveram": 5463,
      "Ġ=": 5464,
      "Ġcontrol": 5465,
      "ĠCur": 5466,
      "alhÃ£es": 5467,
      "unst": 5468,
      "reciaÃ§Ã£o": 5469,
      "Ġeta": 5470,
      "ĠSerg": 5471,
      "don": 5472,
      "Re": 5473,
      "74": 5474,
      "Ġganhou": 5475,
      "itoral": 5476,
      "ĠinstalaÃ§Ã£o": 5477,
      "Ġpropriedade": 5478,
      "adoras": 5479,
      "ĠbritÃ¢n": 5480,
      "ward": 5481,
      "ĠorÃ§amentÃ¡ria": 5482,
      "ĠmÃ£os": 5483,
      "ella": 5484,
      "ĠAB": 5485,
      "Ġram": 5486,
      "ĠestÃº": 5487,
      "ĠRede": 5488,
      "Ġagentes": 5489,
      "Ġfug": 5490,
      "rescenta": 5491,
      "alha": 5492,
      "orado": 5493,
      "ĠfaÃ§o": 5494,
      "Ġformas": 5495,
      "ixo": 5496,
      "Ġnomes": 5497,
      "Ġvoz": 5498,
      "Ã³sito": 5499,
      "ĠLuÃŃs": 5500,
      "92": 5501,
      "tro": 5502,
      "Ġmudar": 5503,
      "Ġcomport": 5504,
      "ilizar": 5505,
      "ĠAz": 5506,
      "ĠFER": 5507,
      "Ġsobrev": 5508,
      "ĠNeto": 5509,
      "Ġprem": 5510,
      "ĠexpressÃ£o": 5511,
      "Ġsac": 5512,
      "ĠCL": 5513,
      "vas": 5514,
      "rogas": 5515,
      "ĠexperiÃªncia": 5516,
      "Ġvontade": 5517,
      "Ġlidera": 5518,
      "Ġvenda": 5519,
      "Ã³vel": 5520,
      "ĠRegional": 5521,
      "RADOR": 5522,
      "dou": 5523,
      "ĠSIL": 5524,
      "ĠlÃŃder": 5525,
      "ĠAmazonas": 5526,
      "Ġconstitucionais": 5527,
      "ĠrÃ¡pido": 5528,
      "ĠEUA": 5529,
      "Ġinternacionais": 5530,
      "ĠPernamb": 5531,
      "ĠArqu": 5532,
      "Ġinser": 5533,
      "ĠBarbosa": 5534,
      "ĠPelo": 5535,
      "ĠCamp": 5536,
      "ĠBro": 5537,
      "ĠFederaÃ§Ã£o": 5538,
      "isos": 5539,
      "ĠLegislativa": 5540,
      "ĠPSC": 5541,
      "cin": 5542,
      "Ġada": 5543,
      "Ġsatis": 5544,
      "Ġeleitoral": 5545,
      "ĠDescul": 5546,
      "Ġacess": 5547,
      "Ġextrem": 5548,
      "Ġouvir": 5549,
      "toc": 5550,
      "ĠNada": 5551,
      "Ġentrega": 5552,
      "Ġroub": 5553,
      "ĠOri": 5554,
      "ĠÃ´": 5555,
      "elizmente": 5556,
      "ĠPRIM": 5557,
      "lP": 5558,
      "Ġpossibil": 5559,
      "Ġcima": 5560,
      "Ġ05": 5561,
      "Ã§ado": 5562,
      "ĠAgravo": 5563,
      "ĠalÃŃn": 5564,
      "ĠLeon": 5565,
      "Ġreperc": 5566,
      "ker": 5567,
      "iago": 5568,
      "feitura": 5569,
      "IMEN": 5570,
      "Ã´s": 5571,
      "Ġconsumo": 5572,
      "Ã§ar": 5573,
      "Ġpopul": 5574,
      "zinho": 5575,
      "âĢĵâĢĵâĢĵâĢĵâĢĵâĢĵâĢĵâĢĵ": 5576,
      "Ġsil": 5577,
      "Ġestran": 5578,
      "ĠParlamento": 5579,
      "ĠjurisprudÃªncia": 5580,
      "Ġjuiz": 5581,
      "Ġcontratos": 5582,
      "ey": 5583,
      "ĠIng": 5584,
      "FA": 5585,
      "ĠMagalhÃ£es": 5586,
      "Ġbaixa": 5587,
      "ĠRelaÃ§Ãµes": 5588,
      "MAR": 5589,
      "onte": 5590,
      "Ġinstru": 5591,
      "Ġreferido": 5592,
      "Ġvag": 5593,
      "ĠDra": 5594,
      "Ġteor": 5595,
      "ĠMeio": 5596,
      "Ġcred": 5597,
      "anal": 5598,
      "Ġbl": 5599,
      "Ġadmit": 5600,
      "ĠIsto": 5601,
      "Ġmol": 5602,
      "Ġdesempenho": 5603,
      "ÃŃncia": 5604,
      "uri": 5605,
      "Ġvend": 5606,
      "ĠDemoc": 5607,
      "ĠSobre": 5608,
      "ĠBarros": 5609,
      "esto": 5610,
      "ĠurgÃªncia": 5611,
      "PRO": 5612,
      "xas": 5613,
      "Ġdecreta": 5614,
      "Ġdespesas": 5615,
      "Car": 5616,
      "Ġnacionais": 5617,
      "Ġposto": 5618,
      "Ġ64": 5619,
      "ĠcomeÃ§a": 5620,
      "Ã¡cil": 5621,
      "ĠAlb": 5622,
      "ĠNasc": 5623,
      "ĠPap": 5624,
      "Ġleitura": 5625,
      "Ġrot": 5626,
      "ring": 5627,
      "Ġestilo": 5628,
      "Ġinaugu": 5629,
      "Ġ75": 5630,
      "Ġmedo": 5631,
      "Ġdestinada": 5632,
      "Ġcomplex": 5633,
      "Ġ(...)": 5634,
      "Ġsobretudo": 5635,
      "ĠPetro": 5636,
      "presa": 5637,
      "ĠDESPACHO": 5638,
      "Ġpasso": 5639,
      "MIN": 5640,
      "RS": 5641,
      "Ġcompra": 5642,
      "ĠassistÃªncia": 5643,
      "Ã¡bio": 5644,
      "ĠdecisÃµes": 5645,
      "di": 5646,
      "Ġreconhecimento": 5647,
      "Ġcultural": 5648,
      "UNDA": 5649,
      "Ġprevistas": 5650,
      "ĠVirg": 5651,
      "ĠjurÃŃdico": 5652,
      "Ġpotencial": 5653,
      "ĠFerreira": 5654,
      "Ġinex": 5655,
      "ĠCPI": 5656,
      "ĠConstitucional": 5657,
      "Ġmetade": 5658,
      "Ġapresentado": 5659,
      "iÃ¡rios": 5660,
      "undos": 5661,
      "itora": 5662,
      "ĠdÃ³": 5663,
      "ĠcompetiÃ§Ã£o": 5664,
      "ĠRet": 5665,
      "Ġ65": 5666,
      "Ġ04": 5667,
      "Ġinfer": 5668,
      "Ġparab": 5669,
      "ĠNeste": 5670,
      "ĠMc": 5671,
      "loque": 5672,
      "ĠCria": 5673,
      "estival": 5674,
      "Ġapresentada": 5675,
      "arÃ£o": 5676,
      "Ġenvi": 5677,
      "ĠPublique": 5678,
      "ĠfrancÃªs": 5679,
      "Ġbrasileiras": 5680,
      "Ġdeputado": 5681,
      "ĠLocalidade": 5682,
      "omb": 5683,
      "Ġq": 5684,
      "omo": 5685,
      "NÃ£o": 5686,
      "ĠmudanÃ§as": 5687,
      "ĠvÃŃdeo": 5688,
      "Ġnorma": 5689,
      "ĠCavalc": 5690,
      "PSB": 5691,
      "ĠAntes": 5692,
      "ĠMus": 5693,
      "Ġagradec": 5694,
      "ĠApreciaÃ§Ã£o": 5695,
      "Ã³lica": 5696,
      "Ġ1992": 5697,
      "ĠdoenÃ§a": 5698,
      "Ġfamos": 5699,
      "ĠmÃ¡qu": 5700,
      "ĠLE": 5701,
      "Ġatac": 5702,
      "ĠBAR": 5703,
      "AÃĩÃĥO": 5704,
      "Ġsexta": 5705,
      "Ġmist": 5706,
      "antil": 5707,
      "ĠCONTRATA": 5708,
      "Ġilha": 5709,
      "Ġlimite": 5710,
      "ish": 5711,
      "ĠGr": 5712,
      "Ġfuncionamento": 5713,
      "Ġchega": 5714,
      "Ġmorreu": 5715,
      "ĠconclusÃ£o": 5716,
      "ĠParticip": 5717,
      "erante": 5718,
      "irem": 5719,
      "ĠÃ´n": 5720,
      "ĠindicaÃ§Ã£o": 5721,
      "ificados": 5722,
      "ĠRed": 5723,
      "ĠAssu": 5724,
      "alheiros": 5725,
      "RES": 5726,
      "Ġmulta": 5727,
      "fonso": 5728,
      "Ġpersonagem": 5729,
      "ĠcÃ¡l": 5730,
      "ĠBez": 5731,
      "ĠEspanha": 5732,
      "ld": 5733,
      "ĠdeficiÃªncia": 5734,
      "Ġcaminh": 5735,
      "Ġaquis": 5736,
      "Ġhid": 5737,
      "icais": 5738,
      "ESEN": 5739,
      "Ġprovoc": 5740,
      "Ġterceira": 5741,
      "ĠexploraÃ§Ã£o": 5742,
      "rÃ¡ficas": 5743,
      "Ġajust": 5744,
      "Ġcontexto": 5745,
      "Ġlocalizado": 5746,
      "vin": 5747,
      "Ġdupl": 5748,
      "ĠWeb": 5749,
      "ĠmÃ©": 5750,
      "Ġros": 5751,
      "ĠReal": 5752,
      "ĠaÃ©re": 5753,
      "Ġcomet": 5754,
      "Ġvivo": 5755,
      "oco": 5756,
      "Ġpublicada": 5757,
      "ĠINF": 5758,
      "ĠEnquanto": 5759,
      "PDT": 5760,
      "Ġsindic": 5761,
      "Ġpaz": 5762,
      "Ġpoliciais": 5763,
      "Ġjogador": 5764,
      "ĠalteraÃ§Ãµes": 5765,
      "Ġadministrativa": 5766,
      "ĠAur": 5767,
      "Ġrepresentantes": 5768,
      "ĠTRIB": 5769,
      "Ġantigo": 5770,
      "ĠDiretor": 5771,
      "ĠMello": 5772,
      "usse": 5773,
      "ute": 5774,
      "Ġmob": 5775,
      "ĠMul": 5776,
      "Ġantiga": 5777,
      "ĠFolha": 5778,
      "hou": 5779,
      "Ġnav": 5780,
      "ĠSC": 5781,
      "orrÃªncia": 5782,
      "ĠPRIMEIRA": 5783,
      "ĠdÃŃvida": 5784,
      "erÃ¡": 5785,
      "Ġmecan": 5786,
      "PI": 5787,
      "Ġsustent": 5788,
      "Ġaquilo": 5789,
      "Ġtemas": 5790,
      "Ġlou": 5791,
      "ĠMartins": 5792,
      "Ġespanh": 5793,
      "80": 5794,
      "ĠgÃªnero": 5795,
      "ĠAGDO": 5796,
      "ĠJoaqu": 5797,
      "Ġfilmes": 5798,
      "Ġestudantes": 5799,
      "Ġindire": 5800,
      "Ġencontram": 5801,
      "Ġdaquele": 5802,
      "ĠAcad": 5803,
      "lin": 5804,
      "Am": 5805,
      "Ġafet": 5806,
      "Ġencontro": 5807,
      "Ġfortal": 5808,
      "Ġcomando": 5809,
      "ĠrÃ¡pida": 5810,
      "Ġcircunst": 5811,
      "ĠESP": 5812,
      "ĠfÃ¡cil": 5813,
      "Ġcomple": 5814,
      "Ġprofessores": 5815,
      "ĠPrefeito": 5816,
      "Ġretirada": 5817,
      "ME": 5818,
      "etes": 5819,
      "rue": 5820,
      "ĠSarney": 5821,
      "Ġesposa": 5822,
      "umo": 5823,
      "84": 5824,
      "ĠPrinc": 5825,
      "ĠEmbora": 5826,
      "Ġpet": 5827,
      "Ġconseguir": 5828,
      "Ġ1913": 5829,
      "ĠQuanto": 5830,
      "ĠClaro": 5831,
      "ĠSug": 5832,
      "Ġintegral": 5833,
      "ĠCouto": 5834,
      "Ġrelator": 5835,
      "Ġampla": 5836,
      "Ġgrau": 5837,
      "Ġefetu": 5838,
      "Ġfizeram": 5839,
      "rist": 5840,
      "Ã¡cia": 5841,
      "ĠQuad": 5842,
      "ĠCÃĤ": 5843,
      "Ġconsc": 5844,
      "ĠBibliografia": 5845,
      "Ġhumano": 5846,
      "ĠReun": 5847,
      "scP": 5848,
      "ĠNÃĥO": 5849,
      "ĠAgricultura": 5850,
      "Ġinad": 5851,
      "ĠBorg": 5852,
      "ĠSp": 5853,
      "tion": 5854,
      "LE": 5855,
      "Ġfogo": 5856,
      "ĠlicitaÃ§Ã£o": 5857,
      "Ġfeitas": 5858,
      "Ġquinta": 5859,
      "Ġesclarec": 5860,
      "Ġengenh": 5861,
      "ĠcomeÃ§ar": 5862,
      "deÃ§o": 5863,
      "ĠTrib": 5864,
      "ĠVeja": 5865,
      "ĠSÃ¡": 5866,
      "PTB": 5867,
      "ĠMot": 5868,
      "fra": 5869,
      "Ġach": 5870,
      "ĠnecessÃ¡ria": 5871,
      "uno": 5872,
      "Ġpercent": 5873,
      "Ġcriada": 5874,
      "Ġflu": 5875,
      "ĠAto": 5876,
      "orrido": 5877,
      "ariamente": 5878,
      "rea": 5879,
      "MI": 5880,
      "Ġy": 5881,
      "Ġfaixa": 5882,
      "ĠVieira": 5883,
      "Ġemit": 5884,
      "ĠÃįn": 5885,
      "ĠPernambuco": 5886,
      "ĠProposta": 5887,
      "Ġdecreto": 5888,
      "iguel": 5889,
      "ildo": 5890,
      "frica": 5891,
      "Ġquerem": 5892,
      "Ġconsiderada": 5893,
      "Ġgeralmente": 5894,
      "ĠepisÃ³dio": 5895,
      "Ġolhos": 5896,
      "ianos": 5897,
      "ĠNas": 5898,
      "Ġexterior": 5899,
      "hsP": 5900,
      "Ġpros": 5901,
      "ĠpetrÃ³leo": 5902,
      "ĠAtl": 5903,
      "ĠPop": 5904,
      "ĠcidadÃ£o": 5905,
      "Ġverb": 5906,
      "Ġcompromisso": 5907,
      "Ġanteriores": 5908,
      "Ġunanimidade": 5909,
      "ĠhistÃ³rico": 5910,
      "Ġregra": 5911,
      "ĠPh": 5912,
      "ĠRECEB": 5913,
      "Ã©b": 5914,
      "ĠtrÃ¢nsito": 5915,
      "stantivo": 5916,
      "ĠYork": 5917,
      "Ġmensagem": 5918,
      "ĠOi": 5919,
      "Ġtransfer": 5920,
      "cha": 5921,
      "ĠinvestigaÃ§Ã£o": 5922,
      "queiro": 5923,
      "ace": 5924,
      "ĠCultural": 5925,
      "ĠHu": 5926,
      "ĠEdital": 5927,
      "ĠcomÃ©rcio": 5928,
      "Ġhonra": 5929,
      "fÃ©": 5930,
      "ĠBon": 5931,
      "ĠcoraÃ§Ã£o": 5932,
      "ĠBern": 5933,
      "sur": 5934,
      "mento": 5935,
      "Ġequival": 5936,
      "Ġmanifesta": 5937,
      "elha": 5938,
      "rida": 5939,
      "Ġrever": 5940,
      "76": 5941,
      "ĠSolic": 5942,
      "ĠPiauÃŃ": 5943,
      "ĠBal": 5944,
      "ĠMachado": 5945,
      "eiramente": 5946,
      "endÃªncia": 5947,
      "ĠnÃºmeros": 5948,
      "Ġtive": 5949,
      "anti": 5950,
      "Ġincorpo": 5951,
      "reia": 5952,
      "Ġdefend": 5953,
      "Ġjeito": 5954,
      "Ġ46": 5955,
      "Ġaspectos": 5956,
      "ĠPFL": 5957,
      "Ġpensar": 5958,
      "ĠMor": 5959,
      "itadas": 5960,
      "ĠPaim": 5961,
      "Ġfornec": 5962,
      "Ġpassando": 5963,
      "ĠInteg": 5964,
      "70": 5965,
      "ĠBer": 5966,
      "ĠPolÃŃtica": 5967,
      "vido": 5968,
      "ĠWilliam": 5969,
      "Ġafast": 5970,
      "Ġconcurso": 5971,
      "ĠAurÃ©lio": 5972,
      "Ġindo": 5973,
      "Ġpobre": 5974,
      "ĠLat": 5975,
      "Ġferro": 5976,
      "fei": 5977,
      "Ġreform": 5978,
      "Ġhabeas": 5979,
      "Ġavan": 5980,
      "Ġplat": 5981,
      "olas": 5982,
      "ĠAprova": 5983,
      "Ġnasceu": 5984,
      "ĠJapÃ£o": 5985,
      "ĠItÃ¡lia": 5986,
      "Ġarrecad": 5987,
      "Ġtes": 5988,
      "ĠCandido": 5989,
      "MARA": 5990,
      "ĠOfic": 5991,
      "TV": 5992,
      "uÃ¡ria": 5993,
      "eo": 5994,
      "ĠLond": 5995,
      "enco": 5996,
      "ĠCarreira": 5997,
      "Ġcomand": 5998,
      "ĠfuncionÃ¡rios": 5999,
      "enciais": 6000,
      "Ġescolha": 6001,
      "ESS": 6002,
      "Ġperder": 6003,
      "2020": 6004,
      "onde": 6005,
      "ĠVila": 6006,
      "doso": 6007,
      "Ġinterm": 6008,
      "ste": 6009,
      "ĠpreocupaÃ§Ã£o": 6010,
      "Ġpror": 6011,
      "Ġdelas": 6012,
      "Ġcontinua": 6013,
      "Ġesteja": 6014,
      "apon": 6015,
      "Ġreje": 6016,
      "Ġprodutores": 6017,
      "Ġoutorg": 6018,
      "Ã©st": 6019,
      "Ġreque": 6020,
      "Ġcast": 6021,
      "arou": 6022,
      "\"),": 6023,
      "ĠON": 6024,
      "egado": 6025,
      "Ġparticipou": 6026,
      "Ġapelo": 6027,
      "Ġauto": 6028,
      "Ġsuplente": 6029,
      "ĠtÃŃtulos": 6030,
      "ĠEDU": 6031,
      "Ġ03": 6032,
      "ĠAleg": 6033,
      "Ġgo": 6034,
      "Ġviu": 6035,
      "ĠMauro": 6036,
      "Ġgosto": 6037,
      "unicipais": 6038,
      "ĠOUTRO": 6039,
      "ĠCu": 6040,
      "ĠpatrimÃ´nio": 6041,
      "entando": 6042,
      "Ġdistrito": 6043,
      "Ġpoucos": 6044,
      "ĠAGTE": 6045,
      "Ġdescul": 6046,
      "ĠÃģfrica": 6047,
      "ĠcaracterÃŃsticas": 6048,
      "ariam": 6049,
      "Ġqueda": 6050,
      "fal": 6051,
      "Ġleva": 6052,
      "lares": 6053,
      "Ġconfigura": 6054,
      "stitui": 6055,
      "Ġparal": 6056,
      "89": 6057,
      "ĠJoaquim": 6058,
      "ĠusuÃ¡rios": 6059,
      "ĠdemocrÃ¡": 6060,
      "Ġjulgado": 6061,
      "Ġposse": 6062,
      "Ġconsumidor": 6063,
      "Ġesquer": 6064,
      "ĠSÃĥO": 6065,
      "Ġmotor": 6066,
      "lor": 6067,
      "Ġinconstitucional": 6068,
      "rativo": 6069,
      "orde": 6070,
      "Ġregistrar": 6071,
      "ĠMÃ¡rio": 6072,
      "Ġtempos": 6073,
      "Ġtrou": 6074,
      "ĠMiguel": 6075,
      "Ġinternet": 6076,
      "Ġprodut": 6077,
      "Ġti": 6078,
      "andes": 6079,
      "ped": 6080,
      "ĠExcelent": 6081,
      "ĠcontrataÃ§Ã£o": 6082,
      "Ġouro": 6083,
      "ĠGa": 6084,
      "ĠPortugu": 6085,
      "Ġ39": 6086,
      "socia": 6087,
      "ĠAlc": 6088,
      "Ġrepet": 6089,
      "Ġsupera": 6090,
      "Ġcolegas": 6091,
      "Ġbusc": 6092,
      "Ġlido": 6093,
      "Ġorden": 6094,
      "emÃ¡tica": 6095,
      "ĠAgÃªncia": 6096,
      "ĠContas": 6097,
      "Ġvar": 6098,
      "ĠAmbiente": 6099,
      "Ġdetalh": 6100,
      "Ġenvol": 6101,
      "ĠOpera": 6102,
      "IONAL": 6103,
      "Ġmara": 6104,
      "Ġdificuldades": 6105,
      "leia": 6106,
      "ĠelÃ©trica": 6107,
      "ĠciÃªncia": 6108,
      "Ġrecebimento": 6109,
      "Ġfamiliar": 6110,
      "Ġtos": 6111,
      "ink": 6112,
      "Ġtu": 6113,
      "ĠDon": 6114,
      "ĠAust": 6115,
      "ortal": 6116,
      "Ġlonge": 6117,
      "Ġaproximadamente": 6118,
      "etras": 6119,
      "Ġimpacto": 6120,
      "INA": 6121,
      "Ġler": 6122,
      "Ġfundamento": 6123,
      "ĠGoiÃ¡s": 6124,
      "over": 6125,
      "ĠVida": 6126,
      "Ġ09": 6127,
      "Ġutilizado": 6128,
      "ĠConsidera": 6129,
      "Ġreserv": 6130,
      "Ġjuntos": 6131,
      "Ġ43": 6132,
      "true": 6133,
      "Ġpior": 6134,
      "ann": 6135,
      "Ġtec": 6136,
      "riou": 6137,
      "ĠIS": 6138,
      "bras": 6139,
      "Ġcaval": 6140,
      "Ġadver": 6141,
      "ocidade": 6142,
      "ĠimplantaÃ§Ã£o": 6143,
      "Ġplanos": 6144,
      "ĠMesmo": 6145,
      "ten": 6146,
      "Ġaltura": 6147,
      "Ġimposs": 6148,
      "Ġsorte": 6149,
      "ĠVAL": 6150,
      "Ġprocedimentos": 6151,
      "Ġfigura": 6152,
      "ĠFinanc": 6153,
      "Ġqueremos": 6154,
      "ĠfaÃ§a": 6155,
      "QUE": 6156,
      "ĠParece": 6157,
      "ĠPSOL": 6158,
      "Ġdecidiu": 6159,
      "nP": 6160,
      "Ġimposto": 6161,
      "Ġbairro": 6162,
      "ĠocasiÃ£o": 6163,
      "ĠCidade": 6164,
      "etos": 6165,
      "TOR": 6166,
      "ĠRub": 6167,
      "ĠdistÃ¢ncia": 6168,
      "ĠtÃ¡": 6169,
      "ispo": 6170,
      "ĠFA": 6171,
      "GA": 6172,
      "urar": 6173,
      "ĠCÃĤMARA": 6174,
      "Ġinvestimento": 6175,
      "ĠParaÃŃba": 6176,
      "Ġprocedimento": 6177,
      "Ġcre": 6178,
      "ĠsaÃŃda": 6179,
      "Ġaz": 6180,
      "ĠFica": 6181,
      "Ġtivesse": 6182,
      "Ġlicitante": 6183,
      "..............": 6184,
      "ĠmatÃ©rias": 6185,
      "Ġsabia": 6186,
      "ilar": 6187,
      "Ġvigorar": 6188,
      "avo": 6189,
      "Ġmostrar": 6190,
      "Ġtrazer": 6191,
      "Ġouvi": 6192,
      "hares": 6193,
      "Ġaprova": 6194,
      "Ġescolh": 6195,
      "ĠdiferenÃ§a": 6196,
      "Ġchefe": 6197,
      "essem": 6198,
      "Ġfinanceiro": 6199,
      "ĠPPS": 6200,
      "ĠChico": 6201,
      "Ġadic": 6202,
      "onomia": 6203,
      "Ġhttp": 6204,
      "ĠlicenÃ§a": 6205,
      "Ġinstitui": 6206,
      "Ġcarta": 6207,
      "ĠPI": 6208,
      "Ġcum": 6209,
      "Ġnar": 6210,
      "eroporto": 6211,
      "ĠExÃ©rcito": 6212,
      "Ġfinalidade": 6213,
      "Ġsubst": 6214,
      "ĠFab": 6215,
      "uss": 6216,
      "Ġpreso": 6217,
      "ĠcidadÃ£os": 6218,
      "Ġrua": 6219,
      "ĠREGIMEN": 6220,
      "anhas": 6221,
      "Ġdrogas": 6222,
      "urado": 6223,
      "Ã³gica": 6224,
      "ancel": 6225,
      "kk": 6226,
      "bilidade": 6227,
      "Ġusando": 6228,
      "antos": 6229,
      "Ġconduz": 6230,
      "ĠLeis": 6231,
      "Ã©sar": 6232,
      "ĠPont": 6233,
      "ĠRam": 6234,
      "ĠSÃºmula": 6235,
      "rÃ¡fica": 6236,
      "entais": 6237,
      "Ġnotas": 6238,
      "Ġescreveu": 6239,
      "ight": 6240,
      "Ã©gio": 6241,
      "ASE": 6242,
      "ĠindivÃŃdu": 6243,
      "Ġ56": 6244,
      "teriores": 6245,
      "ĠREGIMENTAL": 6246,
      "ĠrepercussÃ£o": 6247,
      "iliares": 6248,
      "CIONAL": 6249,
      "ficientes": 6250,
      "Ġprevistos": 6251,
      "dado": 6252,
      "ĠdenÃºncia": 6253,
      "ĠGer": 6254,
      "Ġ1980": 6255,
      "Ġvoltou": 6256,
      "ĠDavid": 6257,
      "imp": 6258,
      "Ġcerta": 6259,
      "ĠMelhor": 6260,
      "ĠSerÃ¡": 6261,
      "Ġprecisam": 6262,
      "Ġadqu": 6263,
      "Ġvant": 6264,
      "Ġjapon": 6265,
      "Ġcho": 6266,
      "ericanos": 6267,
      "Ġataque": 6268,
      "ĠpeÃ§a": 6269,
      "ĠCD": 6270,
      "ĠPi": 6271,
      "ave": 6272,
      "Ġgre": 6273,
      "til": 6274,
      "ĠEspÃŃrito": 6275,
      "Ġsuger": 6276,
      "ĠPac": 6277,
      "epÃ§Ã£o": 6278,
      "sh": 6279,
      "Ġparceria": 6280,
      "Ġacontece": 6281,
      "dere": 6282,
      "Ġinicialmente": 6283,
      "Ġindividual": 6284,
      "Ġtamanho": 6285,
      "ĠAS": 6286,
      "Ġbanco": 6287,
      "Ġinfracon": 6288,
      "Ġnove": 6289,
      "ĠdocumentaÃ§Ã£o": 6290,
      "BN": 6291,
      "Ġtestem": 6292,
      "Ġaumentar": 6293,
      "Ġcia": 6294,
      "ĠtributÃ¡ria": 6295,
      "Ġ2021": 6296,
      "Ġpequenos": 6297,
      "bit": 6298,
      "urgo": 6299,
      "Ġcruz": 6300,
      "Ġminuto": 6301,
      "ÃŃrus": 6302,
      "ĠAcordo": 6303,
      "iversÃ¡rio": 6304,
      "embleia": 6305,
      "rico": 6306,
      "Qu": 6307,
      "Ġfesta": 6308,
      "adura": 6309,
      "ĠcÃ³pia": 6310,
      "ĠMod": 6311,
      "Ġhospital": 6312,
      "Ġviagem": 6313,
      "Ġmunicipal": 6314,
      "Ġ52": 6315,
      "ĠDIAS": 6316,
      "Ġ1989": 6317,
      "Ġst": 6318,
      "ĠindÃŃgenas": 6319,
      "ĠHor": 6320,
      "ĠPSL": 6321,
      "ances": 6322,
      "ĠJUSTIÃĩA": 6323,
      "Ġved": 6324,
      "Ġofensa": 6325,
      "ĠextensÃ£o": 6326,
      "ole": 6327,
      "ĠJan": 6328,
      "Ġinteiro": 6329,
      "2002": 6330,
      "Ġcasamento": 6331,
      "Ġmusical": 6332,
      "ediat": 6333,
      "Ġhumana": 6334,
      "Ġcontato": 6335,
      "CL": 6336,
      "Ġtrabalha": 6337,
      "ĠprÃ³prios": 6338,
      "CN": 6339,
      "Ġtotalmente": 6340,
      "Ġredes": 6341,
      "ÃŃncipe": 6342,
      "Ġrealizadas": 6343,
      "ĠMÃ©": 6344,
      "Ġanunciou": 6345,
      "Ġidio": 6346,
      "Ġrefor": 6347,
      "ĠROBERTO": 6348,
      "ĠCarn": 6349,
      "Ġsig": 6350,
      "elhos": 6351,
      "ood": 6352,
      "ĠCin": 6353,
      "ĠCastro": 6354,
      "Ġnaquele": 6355,
      "Ġshow": 6356,
      "ĠRelatora": 6357,
      "Ġzona": 6358,
      "ĠinterpretaÃ§Ã£o": 6359,
      "omas": 6360,
      "ĠOrÃ§amento": 6361,
      "Ġsimplesmente": 6362,
      "ĠPessoal": 6363,
      "ĠOF": 6364,
      "oma": 6365,
      "Ġbrinc": 6366,
      "ĠGlobo": 6367,
      "ĠeliminaÃ§Ã£o": 6368,
      "Ġles": 6369,
      "Ġrea": 6370,
      "ĠtramitaÃ§Ã£o": 6371,
      "ĠCÃ©sar": 6372,
      "ĠBot": 6373,
      "Ġesteve": 6374,
      "lay": 6375,
      "ĠAfonso": 6376,
      "rip": 6377,
      "ĠPresidenta": 6378,
      "Ġparlamentar": 6379,
      "ĠProfessor": 6380,
      "Ġvale": 6381,
      "ĠtÃ©cnicos": 6382,
      "Ġdorm": 6383,
      "Ġigreja": 6384,
      "Ġbril": 6385,
      "ĠÃ¡r": 6386,
      "tamente": 6387,
      "americano": 6388,
      "ĠNorm": 6389,
      "inÃ§Ã£o": 6390,
      "ĠNunca": 6391,
      "iba": 6392,
      "lusiva": 6393,
      "ÃŃdia": 6394,
      "ĠFont": 6395,
      "Ġreferida": 6396,
      "Ġva": 6397,
      "wa": 6398,
      "ĠMS": 6399,
      "Ġintegrantes": 6400,
      "guai": 6401,
      "Ġacad": 6402,
      "Ġincluir": 6403,
      "Ġpartida": 6404,
      "Ġoficiais": 6405,
      "Ġdesm": 6406,
      "ĠProposiÃ§Ã£o": 6407,
      "bro": 6408,
      "AND": 6409,
      "uda": 6410,
      "ĠirÃ¡": 6411,
      "ÃŃtio": 6412,
      "ĠobrigaÃ§Ã£o": 6413,
      "Ġjornalista": 6414,
      "Ġ95": 6415,
      "iaÃ§Ãµes": 6416,
      "ursos": 6417,
      "ĠTele": 6418,
      "elli": 6419,
      "Ġ)": 6420,
      "Ġdisco": 6421,
      "ĠdivisÃ£o": 6422,
      "Ãºssia": 6423,
      "sonaro": 6424,
      "Ġtirar": 6425,
      "Ġquiser": 6426,
      "Ġdesf": 6427,
      "ĠMet": 6428,
      "ĠpadrÃ£o": 6429,
      "ĠArgentina": 6430,
      "lei": 6431,
      "ĠVII": 6432,
      "ĠMou": 6433,
      "Ġextre": 6434,
      "Ġsolo": 6435,
      "Ġ08": 6436,
      "HC": 6437,
      "Ġemisso": 6438,
      "culino": 6439,
      "ubes": 6440,
      "ĠVocÃªs": 6441,
      "Ġconvenc": 6442,
      "ĠNem": 6443,
      "ĠdÃ³lares": 6444,
      "endente": 6445,
      "ĠsituaÃ§Ãµes": 6446,
      "ĠmanifestaÃ§Ã£o": 6447,
      "Ġcarga": 6448,
      "Ġsecret": 6449,
      "ĠDesta": 6450,
      "ÃŃram": 6451,
      "Ġposteriormente": 6452,
      "ĠviolaÃ§Ã£o": 6453,
      "xo": 6454,
      "ĠATA": 6455,
      "Ġagricultura": 6456,
      "Ġirreg": 6457,
      "teis": 6458,
      "unÃ§Ã£o": 6459,
      "ĠRodo": 6460,
      "Ġtentando": 6461,
      "ediatamente": 6462,
      "inze": 6463,
      "Ġprorrog": 6464,
      "ĠCoorden": 6465,
      "Ġencaminhamento": 6466,
      "enn": 6467,
      "izadas": 6468,
      "ĠEng": 6469,
      "ĠDF": 6470,
      "prego": 6471,
      "ocÃªncio": 6472,
      "ĠrÃ¡dio": 6473,
      "ĠFÃ¡bio": 6474,
      "Ġseguro": 6475,
      "requer": 6476,
      "ĠEstatuto": 6477,
      "ĠAdo": 6478,
      "ĠTim": 6479,
      "ĠClube": 6480,
      "GU": 6481,
      "Ġexclu": 6482,
      "Ġaberto": 6483,
      "unes": 6484,
      "Ġabandon": 6485,
      "Ġcrimin": 6486,
      "laterra": 6487,
      "Ġerro": 6488,
      "ĠBorges": 6489,
      "Ġcompat": 6490,
      "Ġdemanda": 6491,
      "Ġjuntamente": 6492,
      "Rel": 6493,
      "ĠEMB": 6494,
      "ĠORDIN": 6495,
      "Ġporte": 6496,
      "orld": 6497,
      "ĠaquisiÃ§Ã£o": 6498,
      "oni": 6499,
      "Ġ07": 6500,
      "Ġsenhores": 6501,
      "ĠInter": 6502,
      "Ġcanal": 6503,
      "Ġestados": 6504,
      "Ġexclusivamente": 6505,
      "use": 6506,
      "sen": 6507,
      "Ġpolicial": 6508,
      "NE": 6509,
      "Ġaposentadoria": 6510,
      "Ġ53": 6511,
      "Ã¢nica": 6512,
      "Ġentrou": 6513,
      "ĠOlÃŃmp": 6514,
      "Ġ500": 6515,
      "Ġ06": 6516,
      "Ġconstantes": 6517,
      "ĠnecessÃ¡rios": 6518,
      "ova": 6519,
      "Ġvelho": 6520,
      "Ġdaquela": 6521,
      "Ġsala": 6522,
      "ĠSuje": 6523,
      "ĠAtualmente": 6524,
      "ĠJunior": 6525,
      "Ġmelhorar": 6526,
      "Ġsetores": 6527,
      "ĠRegistro": 6528,
      "hal": 6529,
      "Ġindustrial": 6530,
      "ĠCavalcanti": 6531,
      "Ġfronteira": 6532,
      "ony": 6533,
      "Ġagente": 6534,
      "ĠJack": 6535,
      "Ġfol": 6536,
      "Ġconstruir": 6537,
      "ĠestaÃ§Ã£o": 6538,
      "Ġsemanas": 6539,
      "Ġcustos": 6540,
      "Ġacaba": 6541,
      "Ġpretende": 6542,
      "Ġqueb": 6543,
      "rid": 6544,
      "quad": 6545,
      "ĠGilmar": 6546,
      "ĠcampeÃ£o": 6547,
      "Ġpont": 6548,
      "otaÃ§Ã£o": 6549,
      "ĠExteriores": 6550,
      "Ã¶": 6551,
      "ĠpÃ¡ginas": 6552,
      "yl": 6553,
      "Ã¡ticos": 6554,
      "Ġruas": 6555,
      "ĠCalheiros": 6556,
      "Ġmudou": 6557,
      "berg": 6558,
      "ĠENC": 6559,
      "As": 6560,
      "ĠExcelentÃŃssimo": 6561,
      "dez": 6562,
      "Ġconceito": 6563,
      "ĠUnido": 6564,
      "sor": 6565,
      "ifÃŃcio": 6566,
      "ulho": 6567,
      "Ġobjetivos": 6568,
      "ĠIX": 6569,
      "Ġavi": 6570,
      "uÃ§Ãµes": 6571,
      "Ġcong": 6572,
      "Ġadvogado": 6573,
      "criÃ§Ã£o": 6574,
      "ĠTRA": 6575,
      "ĠOk": 6576,
      "Ġtipos": 6577,
      "ovi": 6578,
      "Ġcoment": 6579,
      "Ġtrecho": 6580,
      "Ġintelig": 6581,
      "ĠCarta": 6582,
      "Ġtornando": 6583,
      "xico": 6584,
      "Ġassinatura": 6585,
      "olit": 6586,
      "Ġ62": 6587,
      "acho": 6588,
      "Ġbio": 6589,
      "tÃ³rio": 6590,
      "Ġconsequ": 6591,
      "Ġcai": 6592,
      "Ġconsegue": 6593,
      "Ġ300": 6594,
      "erenc": 6595,
      "ĠtÃ©cnicas": 6596,
      "Ġness": 6597,
      "Ġdisputa": 6598,
      "ĠSabe": 6599,
      "Ġcompa": 6600,
      "Ġtrabalhador": 6601,
      "CJ": 6602,
      "yn": 6603,
      "ĠMuseu": 6604,
      "Ġverm": 6605,
      "ĠgÃ¡s": 6606,
      "Ġcontrad": 6607,
      "ofia": 6608,
      "ĠESTADO": 6609,
      "ĠresponsÃ¡veis": 6610,
      "ĠNatal": 6611,
      "ĠrepresentaÃ§Ã£o": 6612,
      "ĠFIL": 6613,
      "ĠdivulgaÃ§Ã£o": 6614,
      "Ġlingu": 6615,
      "ĠPan": 6616,
      "Ġperante": 6617,
      "Ma": 6618,
      "RANDE": 6619,
      "Ã³i": 6620,
      "ĠPaes": 6621,
      "zinha": 6622,
      "Ġ57": 6623,
      "ĠRousse": 6624,
      "ĠInglaterra": 6625,
      "Ġ42": 6626,
      "Ġcriou": 6627,
      "presidente": 6628,
      "arial": 6629,
      "ĠAU": 6630,
      "ardim": 6631,
      "ĠusuÃ¡rio": 6632,
      "ĠGuil": 6633,
      "ĠrecuperaÃ§Ã£o": 6634,
      "ĠEstud": 6635,
      "ĠnecessÃ¡rias": 6636,
      "Ġcasas": 6637,
      "ĠGre": 6638,
      "Ġtempera": 6639,
      "Ġinclui": 6640,
      "ĠNovo": 6641,
      "Ġprodutor": 6642,
      "Ġsint": 6643,
      "rael": 6644,
      "ĠaniversÃ¡rio": 6645,
      "Ġcandidatos": 6646,
      "uridade": 6647,
      "alizar": 6648,
      "ĠsentenÃ§a": 6649,
      "ĠordinÃ¡ria": 6650,
      "ĠSEÃĩÃĥO": 6651,
      "ĠAlguns": 6652,
      "Ġmotivos": 6653,
      "ĠalemÃ£o": 6654,
      "ĠProd": 6655,
      "ono": 6656,
      "ĠLondres": 6657,
      "Ġtentativa": 6658,
      "ĠprovÃŃncia": 6659,
      "ien": 6660,
      "Ġcult": 6661,
      "ĠRoma": 6662,
      "Ġcinema": 6663,
      "ĠquilÃ´m": 6664,
      "Ã³polis": 6665,
      "ĠalÃŃnea": 6666,
      "Ġmateriais": 6667,
      "IOR": 6668,
      "ĠVerde": 6669,
      "Ã¢nc": 6670,
      "Ġpegar": 6671,
      "ãĥ": 6672,
      "Ġga": 6673,
      "Ġresolver": 6674,
      "Ġembargos": 6675,
      "pressÃ£o": 6676,
      "ĠPorÃ©m": 6677,
      "ĠofÃŃcio": 6678,
      "Ġviver": 6679,
      "Ġinov": 6680,
      "Ġservidor": 6681,
      "Ġmeta": 6682,
      "Ġdemo": 6683,
      "Ġveja": 6684,
      "Apensados": 6685,
      "Ġportuguesa": 6686,
      "ĠDoc": 6687,
      "ĠmÃ©dicos": 6688,
      "den": 6689,
      "Ar": 6690,
      "ĠLew": 6691,
      "Ġganhar": 6692,
      "Ġexpect": 6693,
      "riamente": 6694,
      "ĠpressÃ£o": 6695,
      "ĠÃĢs": 6696,
      "ith": 6697,
      "¿½": 6698,
      "atar": 6699,
      "Ġanteriormente": 6700,
      "ĠSubstantivo": 6701,
      "etas": 6702,
      "ï¿½": 6703,
      "Ġacontecendo": 6704,
      "Rodri": 6705,
      "Ġmesmos": 6706,
      "Ġtradicional": 6707,
      "ĠvÃŃtimas": 6708,
      "Ġperdeu": 6709,
      "Ġorado": 6710,
      "ĠEnergia": 6711,
      "ission": 6712,
      "54": 6713,
      "ĠEqu": 6714,
      "tw": 6715,
      "ĠPrÃªmio": 6716,
      "ĠMara": 6717,
      "istem": 6718,
      "ĠFic": 6719,
      "eir": 6720,
      "Ġgastos": 6721,
      "Ġcompanhia": 6722,
      "Ã³t": 6723,
      "Ġimediatamente": 6724,
      "2001": 6725,
      "Ġobst": 6726,
      "ĠComÃ©rcio": 6727,
      "ĠTÃ©cnico": 6728,
      "ĠexposiÃ§Ã£o": 6729,
      "ĠImpÃ©rio": 6730,
      "Ġentrevista": 6731,
      "Ġespecific": 6732,
      "rÃŃvel": 6733,
      "rente": 6734,
      "Ġexcel": 6735,
      "Ġmerece": 6736,
      "Ġestaduais": 6737,
      "Ġdestinados": 6738,
      "Ġextremamente": 6739,
      "Ġlembrar": 6740,
      "Rodrigo": 6741,
      "Ġdefender": 6742,
      "ĠHou": 6743,
      "ĠdefiniÃ§Ã£o": 6744,
      "Ġanual": 6745,
      "eda": 6746,
      "ðŁ": 6747,
      "jor": 6748,
      "uf": 6749,
      "ĠHav": 6750,
      "Ġequil": 6751,
      "Ġcir": 6752,
      "Ġacredito": 6753,
      "Ġcompart": 6754,
      "Ġchamar": 6755,
      "Ġmilhares": 6756,
      "ĠclassificaÃ§Ã£o": 6757,
      "61": 6758,
      "ĠDesculpe": 6759,
      "ĠMendo": 6760,
      "ĠFreitas": 6761,
      "Ġmoral": 6762,
      "ĠMaur": 6763,
      "Ġexercer": 6764,
      "ĠVas": 6765,
      "Ġpesquisas": 6766,
      "ĠServiÃ§os": 6767,
      "ĠFM": 6768,
      "ĠOL": 6769,
      "ĠPV": 6770,
      "ĠcontribuiÃ§Ãµes": 6771,
      "ence": 6772,
      "li": 6773,
      "Ġpassag": 6774,
      "ĠcenÃ¡rio": 6775,
      "vest": 6776,
      "ĠFaculdade": 6777,
      "ĠInÃ¡cio": 6778,
      "ĠJOÃĥO": 6779,
      "Ġdisp": 6780,
      "ĠadequaÃ§Ã£o": 6781,
      "ĠterÃ§a": 6782,
      "ĠatribuiÃ§Ãµes": 6783,
      "ĠCapitÃ£o": 6784,
      "mann": 6785,
      "Ġretorno": 6786,
      "gado": 6787,
      "Ġprestar": 6788,
      "Ġpossamos": 6789,
      "lago": 6790,
      "Ġdenunc": 6791,
      "57": 6792,
      "ĠesforÃ§o": 6793,
      "Ġespeciais": 6794,
      "ĠAlf": 6795,
      "ĠReuniÃ£o": 6796,
      "Ġfr": 6797,
      "Ġdeclarou": 6798,
      "CH": 6799,
      "argas": 6800,
      "PLS": 6801,
      "ĠinfluÃªncia": 6802,
      "Ġobter": 6803,
      "Ġpequenas": 6804,
      "TURA": 6805,
      "ĠPass": 6806,
      "ĠVil": 6807,
      "Ġprefeito": 6808,
      "ĠseleÃ§Ã£o": 6809,
      "NTE": 6810,
      "ĠÃ³b": 6811,
      "ĠINC": 6812,
      "ĠRonaldo": 6813,
      "Ã¢nd": 6814,
      "ĠParab": 6815,
      "ĠJer": 6816,
      "ĠDiÃ¡rio": 6817,
      "bar": 6818,
      "Ġerrado": 6819,
      "ĠArnaldo": 6820,
      "Ġvejo": 6821,
      "TS": 6822,
      "ĠadoÃ§Ã£o": 6823,
      "ESA": 6824,
      "......": 6825,
      "ĠincidÃªncia": 6826,
      "Ġvelocidade": 6827,
      "vante": 6828,
      "ĠRousseff": 6829,
      "Ġlonga": 6830,
      "Ġcorrente": 6831,
      "ĠfrequÃªncia": 6832,
      "Ġdirec": 6833,
      "ansÃ£o": 6834,
      "pest": 6835,
      "Ġdanos": 6836,
      "ĠAPRECIA": 6837,
      "ĠGRANDE": 6838,
      "ĠÃ§Ãµes": 6839,
      "Ġprimeiras": 6840,
      "ventude": 6841,
      "ĠROS": 6842,
      "Ġia": 6843,
      "Ġmassa": 6844,
      "Eduardo": 6845,
      "lexa": 6846,
      "Ġ101": 6847,
      "ĠdisposiÃ§Ã£o": 6848,
      "Ġcategory": 6849,
      "ĠcrÃŃtica": 6850,
      "Ġarma": 6851,
      "ĠComunicaÃ§Ãµes": 6852,
      "ĠCrim": 6853,
      "UBL": 6854,
      "onia": 6855,
      "ĠTribut": 6856,
      "58": 6857,
      "Ã§al": 6858,
      "ĠoposiÃ§Ã£o": 6859,
      "ĠpeÃ§as": 6860,
      "gress": 6861,
      "Ġdit": 6862,
      "Ġcumprir": 6863,
      "ĠPois": 6864,
      "itet": 6865,
      "Ġvac": 6866,
      "Ġamo": 6867,
      "Ġinferior": 6868,
      "Ġaparte": 6869,
      "Ġ41": 6870,
      "ĠDecisÃ£o": 6871,
      "Ġpreserv": 6872,
      "ĠAraÃº": 6873,
      "Ġdito": 6874,
      "ĠMAN": 6875,
      "Ġrurais": 6876,
      "ĠVere": 6877,
      "Ġacontecer": 6878,
      "Ġchu": 6879,
      "Ġnotcategory": 6880,
      "ĠCla": 6881,
      "ĠMARCO": 6882,
      "Ġincisos": 6883,
      "Ġconsult": 6884,
      "Ġdente": 6885,
      "Ġlinhas": 6886,
      "mail": 6887,
      "riÃ§Ãµes": 6888,
      "Ġenorme": 6889,
      "ĠBezerra": 6890,
      "iment": 6891,
      "DRI": 6892,
      "ĠpromoÃ§Ã£o": 6893,
      "ĠInternet": 6894,
      "ĠSalvador": 6895,
      "DAN": 6896,
      "rap": 6897,
      "esp": 6898,
      "Ġsinal": 6899,
      "ĠPROPOSTA": 6900,
      "ĠHumanos": 6901,
      "ĠEDUARDO": 6902,
      "ĠconsideraÃ§Ã£o": 6903,
      "Ġput": 6904,
      "Ġbloque": 6905,
      "ĠCaso": 6906,
      "ĠEdson": 6907,
      "ĠJac": 6908,
      "ni": 6909,
      "ouro": 6910,
      "Ġ1970": 6911,
      "ĠGost": 6912,
      "Ġgradu": 6913,
      "Ġequipes": 6914,
      "pia": 6915,
      "bio": 6916,
      "edeu": 6917,
      "Ġisol": 6918,
      "ĠViana": 6919,
      "Ġonda": 6920,
      "ĠJÃºlio": 6921,
      "ĠAPRECIAÃĩÃĥO": 6922,
      "ĠSantana": 6923,
      "ĠSENADO": 6924,
      "Ġrevog": 6925,
      "Ġimpostos": 6926,
      "Ġrus": 6927,
      "Ġoeste": 6928,
      "ĠcomposiÃ§Ã£o": 6929,
      "Ġetapa": 6930,
      "ĠTransportes": 6931,
      "idez": 6932,
      "ĠSILVA": 6933,
      "ĠtransferÃªncia": 6934,
      "Ġintit": 6935,
      "plo": 6936,
      "ĠEspere": 6937,
      "Ġestas": 6938,
      "ĠsuspensÃ£o": 6939,
      "Ġpassagem": 6940,
      "Ġ?": 6941,
      "ĠRei": 6942,
      "oll": 6943,
      "Ġseriam": 6944,
      "taÃ§Ãµes": 6945,
      "Ġpaul": 6946,
      "Ġrapidamente": 6947,
      "ĠFaria": 6948,
      "istente": 6949,
      "ĠBiografia": 6950,
      "ĠEsses": 6951,
      "Ġbel": 6952,
      "Ãºst": 6953,
      "ĠCF": 6954,
      "iros": 6955,
      "Ġhuman": 6956,
      "Ġartista": 6957,
      "ĠMelo": 6958,
      "ale": 6959,
      "Ġplaneta": 6960,
      "ĠLÃ¡": 6961,
      "Ã©cia": 6962,
      "ĠToff": 6963,
      "ĠAdem": 6964,
      "Ġendere": 6965,
      "Ġgovernador": 6966,
      "ISTRA": 6967,
      "Ġbranc": 6968,
      "ĠprevÃª": 6969,
      "Ġagravada": 6970,
      "ĠsÃ¡b": 6971,
      "ĠAraÃºjo": 6972,
      "ĠEntretanto": 6973,
      "Ġpossuem": 6974,
      "Ġreferente": 6975,
      "itÃ¡rios": 6976,
      "laÃ§Ã£o": 6977,
      "Ġeleg": 6978,
      "acrescenta": 6979,
      "Ã³nio": 6980,
      "Ġprivada": 6981,
      "Ġconhecer": 6982,
      "ts": 6983,
      "ĠPsbP": 6984,
      "Ġciv": 6985,
      "ĠRogÃ©rio": 6986,
      "Ġator": 6987,
      "ĠToffoli": 6988,
      "ĠpÃ³s": 6989,
      "uela": 6990,
      "ĠMÃ©xico": 6991,
      "ĠRecord": 6992,
      "Ġbreve": 6993,
      "ĠexÃ©rcito": 6994,
      "Ġria": 6995,
      "Ġimpera": 6996,
      "Ġ....................................................................................": 6997,
      "Ġnaquela": 6998,
      "Ġnomeado": 6999,
      "IT": 7000,
      "ĠmemÃ³ria": 7001,
      "Ġidos": 7002,
      "egaÃ§Ã£o": 7003,
      "izou": 7004,
      "ĠVO": 7005,
      "ĠOrd": 7006,
      "Ġlugares": 7007,
      "Ġexpress": 7008,
      "atÃ³rios": 7009,
      "Ġtransmit": 7010,
      "Ġexport": 7011,
      "Ġmotiv": 7012,
      "PCdoB": 7013,
      "ĠFelipe": 7014,
      "Ġalimentos": 7015,
      "ĠJur": 7016,
      "ĠBolsonaro": 7017,
      "adÃ¡": 7018,
      "ĠlanÃ§ou": 7019,
      "ugn": 7020,
      "Ġdesapa": 7021,
      "Ġabrir": 7022,
      "Ġsabemos": 7023,
      "Ġpodendo": 7024,
      "rac": 7025,
      "wski": 7026,
      "hael": 7027,
      "Ġirregular": 7028,
      "Ġoferta": 7029,
      "Ġreserva": 7030,
      "EMB": 7031,
      "Ġtare": 7032,
      "ĠcÃ¡lculo": 7033,
      "Ġcomprar": 7034,
      "Ġsobreviv": 7035,
      "VID": 7036,
      "ĠcientÃŃfica": 7037,
      "ĠTrabalhadores": 7038,
      "ĠmilhÃ£o": 7039,
      "ĠDiante": 7040,
      "Ã³is": 7041,
      "ĠquilÃ´metros": 7042,
      "qÃ¼Ãªncia": 7043,
      "UD": 7044,
      "Ġvagas": 7045,
      "ĠÃ¡rvo": 7046,
      "ĠBand": 7047,
      "ĠVan": 7048,
      "Ġ1973": 7049,
      "Ġfeitos": 7050,
      "ĠMov": 7051,
      "astecimento": 7052,
      "ĠagrÃŃc": 7053,
      "Ġbuscar": 7054,
      "Ġpersonagens": 7055,
      "Ġhouver": 7056,
      "AI": 7057,
      "ĠOutros": 7058,
      "Ġdecorrentes": 7059,
      "ĠRODRI": 7060,
      "Ġderiv": 7061,
      "Ġparar": 7062,
      "Ġprivado": 7063,
      "Ġescrita": 7064,
      "ibus": 7065,
      "ulados": 7066,
      "Ġtroca": 7067,
      "ingos": 7068,
      "Ġiria": 7069,
      "Ġcorte": 7070,
      "role": 7071,
      "Ġfinalmente": 7072,
      "ĠVit": 7073,
      "ĠFILHO": 7074,
      "56": 7075,
      "ĠGeorge": 7076,
      "ĠNesta": 7077,
      "heÃ§o": 7078,
      "Ġnegou": 7079,
      "Ġ................................................................................................................................................................": 7080,
      "ĠComb": 7081,
      "ĠMÃ£o": 7082,
      "ĠSUL": 7083,
      "Ġreduzir": 7084,
      "Ġprovavelmente": 7085,
      "ribuiÃ§Ã£o": 7086,
      "Ġgosta": 7087,
      "herme": 7088,
      "Ġcadas": 7089,
      "Ġficando": 7090,
      "ioc": 7091,
      "Ġconsigo": 7092,
      "ĠDAS": 7093,
      "ĠREP": 7094,
      "ĠAssembleia": 7095,
      "Ġproduzir": 7096,
      "ĠXIX": 7097,
      "ĠdoenÃ§as": 7098,
      "quÃ©rito": 7099,
      "Ġdeterminado": 7100,
      "assem": 7101,
      "Ġmodern": 7102,
      "ĠPrecis": 7103,
      "enes": 7104,
      "Ġsegue": 7105,
      "ĠestÃºdio": 7106,
      "ĠclÃ¡ss": 7107,
      "ĠPodemos": 7108,
      "ĠintenÃ§Ã£o": 7109,
      "ĠquÃŃm": 7110,
      "Ġabra": 7111,
      "ĠprevisÃ£o": 7112,
      "Ġintegrar": 7113,
      "ĠGran": 7114,
      "Ġcaixa": 7115,
      "Ġteoria": 7116,
      "Ġacidente": 7117,
      "Ġdentre": 7118,
      "ĠLob": 7119,
      "ĠOrganizaÃ§Ã£o": 7120,
      "Ġchin": 7121,
      "Ġvolume": 7122,
      "Ġsuspe": 7123,
      "Ġapresentadas": 7124,
      "ĠMel": 7125,
      "Ġmenores": 7126,
      "ĠHC": 7127,
      "FER": 7128,
      "ones": 7129,
      "ĠnotÃŃcias": 7130,
      "Ġreajust": 7131,
      "ĠOS": 7132,
      "ĠremuneraÃ§Ã£o": 7133,
      "line": 7134,
      "www": 7135,
      "Ġdomingo": 7136,
      "Ġartistas": 7137,
      "Ġintroduz": 7138,
      "ĠDisc": 7139,
      "Ġcompleta": 7140,
      "Ġfundamentos": 7141,
      "ĠDez": 7142,
      "my": 7143,
      "we": 7144,
      "rg": 7145,
      "Ġdeterminar": 7146,
      "Ġpermanente": 7147,
      "Ġ115": 7148,
      "Ã¡logo": 7149,
      "ĠJAN": 7150,
      "tando": 7151,
      "Ġaprovou": 7152,
      "Ġacabar": 7153,
      "Ġaeron": 7154,
      "Ġinstrumentos": 7155,
      "rade": 7156,
      "ĠAcre": 7157,
      "Ġempregos": 7158,
      "Ġconduta": 7159,
      "arque": 7160,
      "ĠReb": 7161,
      "atoriedade": 7162,
      "Ġeconom": 7163,
      "ĠbÃ¡sica": 7164,
      "Ġpropag": 7165,
      "Ġdout": 7166,
      ".....": 7167,
      "itÃª": 7168,
      "ĠrelevÃ¢ncia": 7169,
      "Ġintens": 7170,
      "Ġbatalha": 7171,
      "varo": 7172,
      "Ã§ada": 7173,
      "Ġpartid": 7174,
      "ĠPEN": 7175,
      "ĠcobranÃ§a": 7176,
      "Ġfalou": 7177,
      "igas": 7178,
      "ĠLiga": 7179,
      "ĠveÃŃculo": 7180,
      "enÃ§Ãµes": 7181,
      "ĠPrecedentes": 7182,
      "itÃ³rio": 7183,
      "Ġseparado": 7184,
      "Ġregistrado": 7185,
      "uba": 7186,
      "Ãµem": 7187,
      "ĠMendonÃ§a": 7188,
      "Ġsexo": 7189,
      "miss": 7190,
      "Ġsexual": 7191,
      "Ġbancos": 7192,
      "idental": 7193,
      "Ġgeneral": 7194,
      "VES": 7195,
      "ĠOt": 7196,
      "ĠAgu": 7197,
      "ĠPaulista": 7198,
      "ĠauxÃŃlio": 7199,
      "Ġcomunidades": 7200,
      "ĠÃŃndice": 7201,
      "RELATO": 7202,
      "Ġsel": 7203,
      "Ġinim": 7204,
      "ĠMos": 7205,
      "inense": 7206,
      "Ġpraticamente": 7207,
      "iquei": 7208,
      "ĠpropÃ³sito": 7209,
      "Ġdevidamente": 7210,
      "CURADOR": 7211,
      "Ġpediu": 7212,
      "Ġcenso": 7213,
      "Ġdisponib": 7214,
      "sidade": 7215,
      "Ġjogar": 7216,
      "iosos": 7217,
      "Ġante": 7218,
      "Ġadquir": 7219,
      "ĠAlegre": 7220,
      "KI": 7221,
      "MENTE": 7222,
      "ADA": 7223,
      "Ġnormal": 7224,
      "Ġredor": 7225,
      "ĠMedic": 7226,
      "Ġtrinta": 7227,
      "eita": 7228,
      "ĠSei": 7229,
      "Es": 7230,
      "fim": 7231,
      "Ġprevidenc": 7232,
      "Ġvisita": 7233,
      "SOL": 7234,
      "ĠvigÃªncia": 7235,
      "ium": 7236,
      "ÃīLIO": 7237,
      "pp": 7238,
      "ĠdomÃ©st": 7239,
      "ĠpÃ©": 7240,
      "ĠJornal": 7241,
      "Ġdetermina": 7242,
      "ĠCÃ¡r": 7243,
      "))": 7244,
      "Ġaparel": 7245,
      "imarÃ£es": 7246,
      "Ġsatisf": 7247,
      "ĠHab": 7248,
      "Ġcantora": 7249,
      "Ġdiretrizes": 7250,
      "ĠNota": 7251,
      "Ġvaz": 7252,
      "Ġtarif": 7253,
      "Ġ1986": 7254,
      "ĠprÃ³ximos": 7255,
      "Ġpergunta": 7256,
      "ĠespecÃŃfica": 7257,
      "Ġtraduz": 7258,
      "ble": 7259,
      "Ġmovimentos": 7260,
      "Ġcac": 7261,
      "ĠGeografia": 7262,
      "enses": 7263,
      "ILIDADE": 7264,
      "Ġnaturais": 7265,
      "ĠOf": 7266,
      "Ġbaix": 7267,
      "Ġpassada": 7268,
      "Ġrespectivamente": 7269,
      "Ġcompens": 7270,
      "ĠEncam": 7271,
      "ĠChefe": 7272,
      "ĠORDINÃģRIA": 7273,
      "eitos": 7274,
      "rendo": 7275,
      "ĠSeÃ§Ã£o": 7276,
      "ĠRond": 7277,
      "ĠBan": 7278,
      "Ġmagist": 7279,
      "Ġtrouxe": 7280,
      "ĠCH": 7281,
      "tbPscP": 7282,
      "Os": 7283,
      "ota": 7284,
      "ĠSEGUNDA": 7285,
      "RAÃĩÃĥO": 7286,
      "ĠLeonardo": 7287,
      "ĠAcademia": 7288,
      "Ġquaisquer": 7289,
      "Ġ223": 7290,
      "Ġadministrativo": 7291,
      "issa": 7292,
      "ĠnegÃ³cios": 7293,
      "Ġreflex": 7294,
      "ĠdÃ©cadas": 7295,
      "ĠGuimarÃ£es": 7296,
      "Ġcomportamento": 7297,
      "Ġenvio": 7298,
      "Ã´nimo": 7299,
      "Ġglobal": 7300,
      "Ġartes": 7301,
      "ionar": 7302,
      "Ġplant": 7303,
      "ty": 7304,
      "ĠÃłqu": 7305,
      "Ġdizem": 7306,
      "Ġuns": 7307,
      "43": 7308,
      "Ġcedo": 7309,
      "lop": 7310,
      "ĠFerro": 7311,
      "**": 7312,
      "Ġmorto": 7313,
      "rantes": 7314,
      "Ġtriste": 7315,
      "ĠCardoso": 7316,
      "Ġpatro": 7317,
      "ĠQuadro": 7318,
      "ĠSolidar": 7319,
      "Ġtiver": 7320,
      "ĠSom": 7321,
      "Ġregional": 7322,
      "Ã¨": 7323,
      "Ġrecebido": 7324,
      "ĠhorÃ¡rio": 7325,
      "ĠHosp": 7326,
      "Ġ279": 7327,
      "ucle": 7328,
      "Ġconsiderando": 7329,
      "Ġindependente": 7330,
      "ĠSuplic": 7331,
      "Ġassegurar": 7332,
      "Ġdin": 7333,
      "ĠEspera": 7334,
      "riga": 7335,
      "Ġrelacionados": 7336,
      "ĠArru": 7337,
      "Ġgaroto": 7338,
      "Ġroup": 7339,
      "ĠidÃ©ia": 7340,
      "Ġafas": 7341,
      "ĠprÃªmio": 7342,
      "Ġcomplem": 7343,
      "ACIONAL": 7344,
      "ĠISBN": 7345,
      "ĠMonteiro": 7346,
      "rina": 7347,
      "ĠVargas": 7348,
      "len": 7349,
      "Ġnam": 7350,
      "ĠAssuntos": 7351,
      "ĠexpansÃ£o": 7352,
      "ĠopÃ§Ã£o": 7353,
      "letas": 7354,
      "ĠLeite": 7355,
      "encar": 7356,
      "Ġlicenc": 7357,
      "reiras": 7358,
      "ificou": 7359,
      "Ġestabelecido": 7360,
      "Deputado": 7361,
      "Ġcompon": 7362,
      "Ġolh": 7363,
      "Ġrelativas": 7364,
      "Ġpsic": 7365,
      "Ġolhar": 7366,
      "?!": 7367,
      "Ġrepro": 7368,
      "ĠNic": 7369,
      "fera": 7370,
      "Ġobrigada": 7371,
      "Ġjogadores": 7372,
      "Ġrelativos": 7373,
      "rÃ³p": 7374,
      "ĠSuplicy": 7375,
      "Ġ+": 7376,
      "Ġartic": 7377,
      "ii": 7378,
      "ĠCert": 7379,
      "ĠMARC": 7380,
      "Ġpercentual": 7381,
      "rÃµes": 7382,
      "Ġconflito": 7383,
      "otos": 7384,
      "iter": 7385,
      "ĠVicente": 7386,
      "ĠGuilherme": 7387,
      "erias": 7388,
      "Ġescolar": 7389,
      "ĠterÃ£o": 7390,
      "Ġincomp": 7391,
      "Ġger": 7392,
      "king": 7393,
      "Ġessencial": 7394,
      "ĠcÃ©l": 7395,
      "Ġban": 7396,
      "Ġsinto": 7397,
      "iverso": 7398,
      "Ġexam": 7399,
      "Ġagric": 7400,
      "Ã¢nea": 7401,
      "itamente": 7402,
      "Ġperde": 7403,
      "ĠAut": 7404,
      "ĠRÃºssia": 7405,
      "Ġresto": 7406,
      "orial": 7407,
      "ĠManuel": 7408,
      "ĠBur": 7409,
      "TÃĵR": 7410,
      "Ġbot": 7411,
      "Ġcategor": 7412,
      "Ġmodulada": 7413,
      "Ġprivil": 7414,
      "Ġcombust": 7415,
      "ĠvÃŃtima": 7416,
      "Ġcontempl": 7417,
      "bas": 7418,
      "Ġesquerda": 7419,
      "ĠEleitoral": 7420,
      "ĠVenez": 7421,
      "CAL": 7422,
      "ĠContrato": 7423,
      "ĠnÃŃveis": 7424,
      "ĠAst": 7425,
      "ĠTodas": 7426,
      "STF": 7427,
      "MO": 7428,
      "Ġ102": 7429,
      "Ġrat": 7430,
      "ĠorÃ§amento": 7431,
      "arem": 7432,
      "ĠTit": 7433,
      "Ġ59": 7434,
      "ĠBrit": 7435,
      "ĠHugo": 7436,
      "orro": 7437,
      "Ġdecorrente": 7438,
      "bia": 7439,
      "ĠcÃ¡": 7440,
      "Ġcompetente": 7441,
      "ĠjuÃŃzo": 7442,
      "Ġrealizados": 7443,
      "ĠObrigada": 7444,
      "ĠIND": 7445,
      "Ġobrigatoriedade": 7446,
      "Ġtese": 7447,
      "ĠAutor": 7448,
      ")\"": 7449,
      "ĠhaverÃ¡": 7450,
      "Ġcompletamente": 7451,
      "ĠFlÃ¡vio": 7452,
      "ĠLÃŃderes": 7453,
      "Ġestabelecimento": 7454,
      "Ġrevol": 7455,
      "ĠJustificaÃ§Ã£o": 7456,
      "Ġvc": 7457,
      "ĠMÃ¡r": 7458,
      "rata": 7459,
      "TJ": 7460,
      "ander": 7461,
      "imentaÃ§Ã£o": 7462,
      "Ġficam": 7463,
      "Ġdificuldade": 7464,
      "ecÃ§Ã£o": 7465,
      "ĠPlane": 7466,
      "ĠFrank": 7467,
      "Ġparticipantes": 7468,
      "ĠHarry": 7469,
      "ĠVirgÃŃlio": 7470,
      "Ġeventual": 7471,
      "Ġsangue": 7472,
      "ĠWorld": 7473,
      "42": 7474,
      "ĠParque": 7475,
      "ĠCÃ¡rmen": 7476,
      "Ġprol": 7477,
      "ĠtrÃ¡s": 7478,
      "Ġresg": 7479,
      "Ġaparece": 7480,
      "ĠPetrobras": 7481,
      "ĠTorres": 7482,
      "ĠRondÃ´nia": 7483,
      "tivo": 7484,
      "83": 7485,
      "alt": 7486,
      "ĠcritÃ©rio": 7487,
      "Ġestiver": 7488,
      "VIMENTO": 7489,
      "Ġapel": 7490,
      "Ġau": 7491,
      "ĠTrÃªs": 7492,
      "Ġpropriet": 7493,
      "Ġaprend": 7494,
      ".......": 7495,
      "ÃŃbrio": 7496,
      "ĠJames": 7497,
      "Ġfi": 7498,
      "ĠRECEBIMENTO": 7499,
      "Ġindica": 7500,
      "ĠAF": 7501,
      "Ġrod": 7502,
      "ĠManato": 7503,
      "Ġperspect": 7504,
      "ani": 7505,
      "ĠArruda": 7506,
      "Ġsaiu": 7507,
      "ĠYou": 7508,
      "Ġestreia": 7509,
      "RELATOR": 7510,
      "Ġtel": 7511,
      "eratura": 7512,
      "ĠAus": 7513,
      "ati": 7514,
      "ĠSociedade": 7515,
      "Ġrecente": 7516,
      "ĠvÃ¡l": 7517,
      "Ġusada": 7518,
      "ĠCORP": 7519,
      "Ġpobres": 7520,
      "ĠBene": 7521,
      "Ġoutorgada": 7522,
      "Ġcorrig": 7523,
      "ĠMen": 7524,
      "ĠRobert": 7525,
      "Ġsuperf": 7526,
      "Ġcumprim": 7527,
      "Ġboas": 7528,
      "ĠmÃºsicas": 7529,
      "ĠÐ": 7530,
      "Ġinfraconstitucional": 7531,
      "vamos": 7532,
      "Ġatriz": 7533,
      "edades": 7534,
      "ificadas": 7535,
      "Ġrecorrente": 7536,
      "Ġparaben": 7537,
      "Ġoit": 7538,
      "ĠRA": 7539,
      "Ġexce": 7540,
      "Ġutilizados": 7541,
      "peia": 7542,
      "ĠNor": 7543,
      "Ġvaga": 7544,
      "entas": 7545,
      "ĠFlo": 7546,
      "ĠPoss": 7547,
      "Ġoferecer": 7548,
      "Ġsed": 7549,
      "Ġcomerciais": 7550,
      "UNAL": 7551,
      "ĠidentificaÃ§Ã£o": 7552,
      "ioca": 7553,
      "Ã¢nico": 7554,
      "Ġfiscais": 7555,
      "Ġvul": 7556,
      "Ġdeput": 7557,
      "Ġmagn": 7558,
      "ĠdeliberaÃ§Ã£o": 7559,
      "rÃ©st": 7560,
      "Ã³rum": 7561,
      "ALHO": 7562,
      "Ġaprovar": 7563,
      "ĠOra": 7564,
      "Ġvizinh": 7565,
      "Ã©ss": 7566,
      "Ã±": 7567,
      "ĠprogramaÃ§Ã£o": 7568,
      "ffer": 7569,
      "Ġcomplementar": 7570,
      "41": 7571,
      "Ġcobertos": 7572,
      "Ġfinanceiros": 7573,
      "ĠOLIV": 7574,
      "ĠFestival": 7575,
      "Ġpassaram": 7576,
      "PFL": 7577,
      "ĠirmÃ£": 7578,
      "EAS": 7579,
      "ĠCR": 7580,
      "ĠWilson": 7581,
      "ĠEssas": 7582,
      "Ġtransc": 7583,
      "Ġinconstitucionalidade": 7584,
      "Ġparcel": 7585,
      "ĠmÃŃdia": 7586,
      "ĠNaÃ§Ãµes": 7587,
      "ĠDEL": 7588,
      "Ġconjunta": 7589,
      "ionado": 7590,
      "49": 7591,
      "ĠEMENTA": 7592,
      "ĠLuis": 7593,
      "Ġfabric": 7594,
      "teve": 7595,
      "Ġnobres": 7596,
      "sd": 7597,
      "ĠWalter": 7598,
      ".:": 7599,
      "ĠGonz": 7600,
      "ĠSara": 7601,
      "idae": 7602,
      "ĠInic": 7603,
      "Ġvari": 7604,
      "Ġ93": 7605,
      "Ġassinado": 7606,
      "ĠMonte": 7607,
      "ĠDispÃµe": 7608,
      "Ġsidente": 7609,
      "Ġvive": 7610,
      "Ġcuidado": 7611,
      "ĠhabilitaÃ§Ã£o": 7612,
      "ĠKa": 7613,
      "ĠdomÃŃnio": 7614,
      "ĠAUR": 7615,
      "Ġmatar": 7616,
      "Ġacum": 7617,
      "Ġpassageiros": 7618,
      "Ġec": 7619,
      "aral": 7620,
      "ĠVIII": 7621,
      "Ch": 7622,
      "ĠsÃ©rio": 7623,
      "Ġagro": 7624,
      "Ġparcial": 7625,
      "ĠForam": 7626,
      "osofia": 7627,
      "aba": 7628,
      "ĠPÃ¡g": 7629,
      "uca": 7630,
      "ĠToc": 7631,
      "item": 7632,
      "Ġ85": 7633,
      "Ġchama": 7634,
      "ĠAndrade": 7635,
      "ĠOutro": 7636,
      "ĠregulamentaÃ§Ã£o": 7637,
      "ĠProv": 7638,
      "onha": 7639,
      "??": 7640,
      "TON": 7641,
      "reta": 7642,
      "Ġnecessidades": 7643,
      "Ġterminou": 7644,
      "Ġlog": 7645,
      "Ġefetivamente": 7646,
      "si": 7647,
      "Ġterem": 7648,
      "ĠvizinhanÃ§a": 7649,
      "INH": 7650,
      "uth": 7651,
      "apÃ¡": 7652,
      "Ġestabelecidas": 7653,
      "ĠobrigaÃ§Ãµes": 7654,
      "Ġempregados": 7655,
      "ĠOLIVEIRA": 7656,
      "ĠAMA": 7657,
      "ORMA": 7658,
      "Ġaberta": 7659,
      "ĠBill": 7660,
      "Ġchance": 7661,
      "ĠLogo": 7662,
      "anhia": 7663,
      "Ġdepo": 7664,
      "Ġprofund": 7665,
      "ĠWeber": 7666,
      "Ġiniciou": 7667,
      "Ġuniversidades": 7668,
      "ĠHam": 7669,
      "ĠinscriÃ§Ã£o": 7670,
      "way": 7671,
      "Ġculpa": 7672,
      "Ġperfe": 7673,
      "Ġverdadeiro": 7674,
      "Ã©rm": 7675,
      "ĠCORPUS": 7676,
      "Ġpoderes": 7677,
      "Ġpref": 7678,
      "ĠsalÃ¡rios": 7679,
      "ĠUF": 7680,
      "ĠelaboraÃ§Ã£o": 7681,
      "ĠFERN": 7682,
      "ĠApenas": 7683,
      "ket": 7684,
      "FICAÃĩÃĥO": 7685,
      "erente": 7686,
      "isse": 7687,
      "umas": 7688,
      "Ġpersegu": 7689,
      "\").": 7690,
      "ĠRadiodifusÃ£o": 7691,
      "Ġsenador": 7692,
      "ĠInde": 7693,
      "Ġrecentemente": 7694,
      "ĠpresidÃªncia": 7695,
      "Ìģ": 7696,
      "ĠNotas": 7697,
      "ientais": 7698,
      "ĠMinoria": 7699,
      "Ġaper": 7700,
      "ĠRepres": 7701,
      "feiÃ§o": 7702,
      "Ġdemand": 7703,
      "Ãªnt": 7704,
      "ev": 7705,
      "ĠCiÃªncias": 7706,
      "olina": 7707,
      "ĠPeter": 7708,
      "\":": 7709,
      "Ġ1984": 7710,
      "Ġvenceu": 7711,
      "ertar": 7712,
      "Ġtrabalhando": 7713,
      "Ġconcord": 7714,
      "Presid": 7715,
      "Ġquerida": 7716,
      "ĠcrÃŃticas": 7717,
      "Ġdestino": 7718,
      "ĠUs": 7719,
      "ĠocorrÃªncia": 7720,
      "ĠRenato": 7721,
      "ĠMENDES": 7722,
      "Ġentendo": 7723,
      "exame": 7724,
      "ĠMax": 7725,
      "Ġpeso": 7726,
      "ĠPinheiro": 7727,
      "Ã¡us": 7728,
      "ĠZÃ©": 7729,
      "Ġpoderiam": 7730,
      "ĠReceita": 7731,
      "ĠirmÃ£os": 7732,
      "ĠDin": 7733,
      "Ġexistentes": 7734,
      "ricas": 7735,
      "afa": 7736,
      "ĠNACIONAL": 7737,
      "Ġresul": 7738,
      "ĠControle": 7739,
      "Ġconsiderar": 7740,
      "utas": 7741,
      "Ġretom": 7742,
      "72": 7743,
      "SC": 7744,
      "Ġmunicipais": 7745,
      "ĠprofissÃ£o": 7746,
      "No": 7747,
      "unid": 7748,
      "MAN": 7749,
      "Ġdaqueles": 7750,
      "Ġargumentos": 7751,
      "Ġcancel": 7752,
      "Ġcru": 7753,
      "79": 7754,
      "ĠsolicitaÃ§Ã£o": 7755,
      "Ã³rm": 7756,
      "Ġguarda": 7757,
      "ĠBraga": 7758,
      "Ġreiv": 7759,
      "pacho": 7760,
      "ĠPÃļBLICO": 7761,
      "ĠcafÃ©": 7762,
      "ĠAPRO": 7763,
      "ĠWh": 7764,
      "jado": 7765,
      "Ġrios": 7766,
      "ĠSUB": 7767,
      "irado": 7768,
      "inados": 7769,
      "ratas": 7770,
      "Ġremo": 7771,
      "Ġvindo": 7772,
      "ĠOlha": 7773,
      "Ġcadeira": 7774,
      "Ġargumento": 7775,
      "tel": 7776,
      "ĠPessoa": 7777,
      "Ã³rico": 7778,
      "Ġplata": 7779,
      "Ġabrang": 7780,
      "ropolit": 7781,
      "ĠFux": 7782,
      "ĠFinanÃ§as": 7783,
      "Ġdigital": 7784,
      "ramos": 7785,
      "Ġcad": 7786,
      "ĠAVIS": 7787,
      "IMA": 7788,
      "Ġpretend": 7789,
      "ĠArtigo": 7790,
      "quig": 7791,
      "ĠIndÃºstria": 7792,
      "TEN": 7793,
      "ĠWar": 7794,
      "defin": 7795,
      "Ġconstat": 7796,
      "Ġgolpe": 7797,
      "tada": 7798,
      "ĠBranco": 7799,
      "81": 7800,
      "Eu": 7801,
      "INO": 7802,
      "ipo": 7803,
      "ĠGabinete": 7804,
      "Ġ1985": 7805,
      "Ġimpugn": 7806,
      "ÃŃzes": 7807,
      "Ġparlamentares": 7808,
      "Ġimplic": 7809,
      "ĠtransmissÃ£o": 7810,
      "ĠTRIBUNAL": 7811,
      "Ġaplica": 7812,
      "Ġcomer": 7813,
      "RAIS": 7814,
      "Ġinterno": 7815,
      "eth": 7816,
      "Ġruim": 7817,
      "Ġcomposta": 7818,
      "71": 7819,
      "ĠFASE": 7820,
      "ession": 7821,
      "Ġvendo": 7822,
      "ory": 7823,
      "ĠSimon": 7824,
      "ĠReis": 7825,
      "Ġliga": 7826,
      "ĠSho": 7827,
      "utores": 7828,
      "Ġ150": 7829,
      "ĠAudiÃªncia": 7830,
      "Ġmensal": 7831,
      "ĠCOMISSÃķES": 7832,
      "rante": 7833,
      "Ġlevando": 7834,
      "ĠemprÃ©st": 7835,
      "ĠPosso": 7836,
      "Ġdesenvolver": 7837,
      "ĠRua": 7838,
      "Ġfort": 7839,
      "Ġmarido": 7840,
      "ĠPresi": 7841,
      "Ġdeixando": 7842,
      "Ġocorrido": 7843,
      "ĠligaÃ§Ã£o": 7844,
      "Ġcaut": 7845,
      "ĠHAB": 7846,
      "Â§": 7847,
      "ĠQuint": 7848,
      "ford": 7849,
      "73": 7850,
      "ĠorganizaÃ§Ãµes": 7851,
      "roga": 7852,
      "ĠprÃ¡ticas": 7853,
      "82": 7854,
      "iveram": 7855,
      "ĠPinto": 7856,
      "Ġdevemos": 7857,
      "ĠPrecisamos": 7858,
      "Ġdebater": 7859,
      "Ġnele": 7860,
      "gueira": 7861,
      "riel": 7862,
      "Ãºnc": 7863,
      "pace": 7864,
      "Ġguard": 7865,
      "iti": 7866,
      "ĠAPRESEN": 7867,
      "Ġfamiliares": 7868,
      "uei": 7869,
      "Ġcompromet": 7870,
      "Ġcarreg": 7871,
      "ĠEmendas": 7872,
      "Ġvisando": 7873,
      "Ġmeia": 7874,
      "Ġdiga": 7875,
      "Ġclubes": 7876,
      "ĠDespacho": 7877,
      "ĠPalÃ¡cio": 7878,
      "ĠHospital": 7879,
      "Ġpubl": 7880,
      "ĠCEL": 7881,
      "Ġusa": 7882,
      "ĠdÃª": 7883,
      "Ġveg": 7884,
      "ENTES": 7885,
      "Ġdiscrim": 7886,
      "Ġposicion": 7887,
      "Ġrig": 7888,
      "ĠnotÃŃcia": 7889,
      "Ġmad": 7890,
      "Ġ116": 7891,
      "Ġescritor": 7892,
      "ĠPp": 7893,
      "ĠCle": 7894,
      "Ġfinais": 7895,
      "ĠsequÃªncia": 7896,
      "UNIÃĥO": 7897,
      "ĠconfianÃ§a": 7898,
      "EZ": 7899,
      "OLI": 7900,
      "Ġdesig": 7901,
      "ĠMichael": 7902,
      "666": 7903,
      "inaldo": 7904,
      "ĠÃ³timo": 7905,
      "ĠImposto": 7906,
      "ĠToda": 7907,
      "Ġperigos": 7908,
      "ĠIB": 7909,
      "Ġ1960": 7910,
      "cam": 7911,
      "Ġmomentos": 7912,
      "iet": 7913,
      "imen": 7914,
      "...........": 7915,
      "amen": 7916,
      "emat": 7917,
      "forme": 7918,
      "Ġenfrentar": 7919,
      "Ġreferentes": 7920,
      "Ġdesconhec": 7921,
      "Ġlegit": 7922,
      "Ġesport": 7923,
      "ĠdisposiÃ§Ãµes": 7924,
      "azer": 7925,
      "Ãªmios": 7926,
      "Ġitens": 7927,
      "Ġatraso": 7928,
      "ĠConsum": 7929,
      "Ã¢ncer": 7930,
      "ĠrenovaÃ§Ã£o": 7931,
      "Ġguer": 7932,
      "Ġwik": 7933,
      "Ġing": 7934,
      "Ġvas": 7935,
      "Ġnisso": 7936,
      "ĠediÃ§Ãµes": 7937,
      "Ġproteger": 7938,
      "Ġcampeonato": 7939,
      "ĠMista": 7940,
      "quei": 7941,
      "Ġinfraestrutura": 7942,
      "Ġconcorre": 7943,
      "ĠDar": 7944,
      "Ġassumiu": 7945,
      "orno": 7946,
      "Ġmortos": 7947,
      "ÃŃcie": 7948,
      "Ã³f": 7949,
      "52": 7950,
      "ĠAlencar": 7951,
      "Ġesperar": 7952,
      "Ġassuntos": 7953,
      "Ġ66": 7954,
      "ĠSeb": 7955,
      "ĠÂ«": 7956,
      "Ġfinanceiras": 7957,
      "Ġdireto": 7958,
      "mer": 7959,
      "ãģ": 7960,
      "ioteca": 7961,
      "ĠNinguÃ©m": 7962,
      "ilton": 7963,
      "Ġestabelecidos": 7964,
      "ĠPIB": 7965,
      "alista": 7966,
      "ĠMarinha": 7967,
      "Ġmun": 7968,
      "Pro": 7969,
      "ĠEngenh": 7970,
      "Ġinden": 7971,
      "Ġleste": 7972,
      "Ġfen": 7973,
      "Ġrelativa": 7974,
      "ĠChin": 7975,
      "Ġinterna": 7976,
      "Ġferram": 7977,
      "Ġdispens": 7978,
      "ĠAprov": 7979,
      "ĠMaio": 7980,
      "Ġestaria": 7981,
      "ĠRora": 7982,
      "Ġdespesa": 7983,
      "ĠMDB": 7984,
      "ĠRenan": 7985,
      "ĠSeguridade": 7986,
      "Ġselec": 7987,
      "ĠSUS": 7988,
      "ĠCada": 7989,
      "Ġacompanhar": 7990,
      "Ġcolon": 7991,
      "Ġ51": 7992,
      "vÃ©r": 7993,
      "ĠFernandes": 7994,
      "Ġmam": 7995,
      "ĠintegraÃ§Ã£o": 7996,
      "ĠLucas": 7997,
      "Ġpeda": 7998,
      "Ġconsiderados": 7999,
      "Ġadicion": 8000,
      "Se": 8001,
      "Ġbaseado": 8002,
      "ĠAURÃīLIO": 8003,
      "Ġatuais": 8004,
      "ĠEspero": 8005,
      "Ġadapt": 8006,
      "Ġsemelhante": 8007,
      "AD": 8008,
      "ĠCaixa": 8009,
      "ĠDemografia": 8010,
      "ress": 8011,
      "Ġadjudic": 8012,
      "ĠAnÃ¡lise": 8013,
      "Ġpostos": 8014,
      "ĠGestÃ£o": 8015,
      "Ġinspira": 8016,
      "Ġinjust": 8017,
      "Ġdesejo": 8018,
      "utamente": 8019,
      "ĠINS": 8020,
      "tra": 8021,
      "ovo": 8022,
      "ertas": 8023,
      "ville": 8024,
      "ĠEg": 8025,
      "Ġprevent": 8026,
      "Ġprob": 8027,
      "ĠÃģl": 8028,
      "ĠOrdinÃ¡ria": 8029,
      "Ġasc": 8030,
      "Ġpronto": 8031,
      "Ġantecip": 8032,
      "Ġ1940": 8033,
      "vÃ£o": 8034,
      "ĠcomeÃ§o": 8035,
      "ĠÃ´nibus": 8036,
      "Ġ1987": 8037,
      "Ġculturais": 8038,
      "Ġnegar": 8039,
      "ĠintervenÃ§Ã£o": 8040,
      "ĠNot": 8041,
      "ike": 8042,
      "Ġrespectivo": 8043,
      "ĠJean": 8044,
      "adeia": 8045,
      "Ġinicia": 8046,
      "Ġbranco": 8047,
      "izaÃ§Ãµes": 8048,
      "Â»": 8049,
      "andemia": 8050,
      "Ġcertamente": 8051,
      "ÃŃv": 8052,
      ".............": 8053,
      "amais": 8054,
      "ĠpreservaÃ§Ã£o": 8055,
      "ĠJulho": 8056,
      "ĠParabÃ©ns": 8057,
      "Ġsubsid": 8058,
      "Ġaspecto": 8059,
      "Ġvisa": 8060,
      "Ġforem": 8061,
      "Ġuniversidade": 8062,
      "ĠTen": 8063,
      "atas": 8064,
      "Ġliminar": 8065,
      "Ġrecebe": 8066,
      "dir": 8067,
      "ited": 8068,
      "Ġautores": 8069,
      "Ġdirigido": 8070,
      "Ġbibl": 8071,
      "Ġposit": 8072,
      "ÃŃdios": 8073,
      "abelec": 8074,
      "ĠDou": 8075,
      "Ġsequer": 8076,
      "Ġtivemos": 8077,
      "sg": 8078,
      "ionamento": 8079,
      "como": 8080,
      "Ġpodia": 8081,
      "Ġescrever": 8082,
      "Ġarmaz": 8083,
      "ĠGeneral": 8084,
      "Ã¡x": 8085,
      "ĠDen": 8086,
      "ĠAcÃ³rdÃ£o": 8087,
      "Ġtaxas": 8088,
      "iscos": 8089,
      "Ġtaquig": 8090,
      "elecom": 8091,
      "ĠdiminuiÃ§Ã£o": 8092,
      "ĠRich": 8093,
      "Ġguitar": 8094,
      "Con": 8095,
      "versÃ£o": 8096,
      "ĠprevenÃ§Ã£o": 8097,
      "ĠcontÃ©m": 8098,
      "Ġimpedir": 8099,
      "randa": 8100,
      "Ġentende": 8101,
      "ĠXII": 8102,
      "ĠÃ¡guas": 8103,
      "ĠChrist": 8104,
      "ĠExped": 8105,
      "rian": 8106,
      "Ġpacientes": 8107,
      "ultores": 8108,
      "izonte": 8109,
      "Ġconhece": 8110,
      "Ġterror": 8111,
      "Ġfossem": 8112,
      "Ġmedicamentos": 8113,
      "ĠAssis": 8114,
      "Ġlegislativo": 8115,
      "ĠIb": 8116,
      "tagon": 8117,
      "orou": 8118,
      "ĠPELO": 8119,
      "ĠWe": 8120,
      "ĠestarÃ¡": 8121,
      "turas": 8122,
      "ENS": 8123,
      "Ġefetivo": 8124,
      "TÃĵRIO": 8125,
      "Ġadequado": 8126,
      "Ġcriminos": 8127,
      "ĠvÃªm": 8128,
      "',": 8129,
      "ĠAPROVA": 8130,
      "ĠcrÃ©ditos": 8131,
      "ĠRICARDO": 8132,
      "Ġocorrer": 8133,
      "Ġsucess": 8134,
      "vias": 8135,
      "inga": 8136,
      "Ġdigo": 8137,
      "mir": 8138,
      "Ġfar": 8139,
      "ĠMoraes": 8140,
      "\";": 8141,
      "Ġadmiss": 8142,
      "ĠAÃŃ": 8143,
      "oo": 8144,
      "Ġsubse": 8145,
      "presas": 8146,
      "Ġconcluir": 8147,
      "ĠLar": 8148,
      "Ġsentir": 8149,
      "dados": 8150,
      "Ġmer": 8151,
      "Ġinvas": 8152,
      "Ġcontinuidade": 8153,
      "...............": 8154,
      "Ġcelular": 8155,
      "Ġrique": 8156,
      "Ġtempor": 8157,
      "Ð°": 8158,
      "Ã©o": 8159,
      "ĠBelo": 8160,
      "Ġmorrer": 8161,
      "Ġsobera": 8162,
      "Ġ1964": 8163,
      "ĠMedicina": 8164,
      "Ġescrav": 8165,
      "Ġprocessual": 8166,
      "usou": 8167,
      "Ġestrut": 8168,
      "ĠRoraima": 8169,
      "ĠampliaÃ§Ã£o": 8170,
      "ãĤ": 8171,
      "ĠTempo": 8172,
      "aa": 8173,
      "guesia": 8174,
      "An": 8175,
      "Ġcomposto": 8176,
      "ĠFrente": 8177,
      "ics": 8178,
      "ĠtrÃ¡fico": 8179,
      "Ġassumir": 8180,
      "Ġvalidade": 8181,
      "Ġapensado": 8182,
      "tivas": 8183,
      "ĠWell": 8184,
      "ĠCampo": 8185,
      "ĠnegÃ³cio": 8186,
      "ĠarrecadaÃ§Ã£o": 8187,
      "Ġpeix": 8188,
      "ĠpÃ´": 8189,
      "ĠNascimento": 8190,
      "Ġresponder": 8191,
      "eirÃ£o": 8192,
      "ÃŃna": 8193,
      "Ġenquad": 8194,
      "Ġgols": 8195,
      "ĠCoelho": 8196,
      "aremos": 8197,
      "Ġrespectivos": 8198,
      "ĠcÃ³digo": 8199,
      "izando": 8200,
      "ĠFC": 8201,
      "Ġinformou": 8202,
      "ĠSecretÃ¡ria": 8203,
      "anch": 8204,
      "Ġcategorias": 8205,
      "ativamente": 8206,
      "Ġpreenc": 8207,
      "obil": 8208,
      "Ġ120": 8209,
      "Ġpul": 8210,
      "ibe": 8211,
      "ĠNet": 8212,
      "ĠaperfeiÃ§o": 8213,
      "ĠempresÃ¡rio": 8214,
      "Ġsonho": 8215,
      "Ġbrilh": 8216,
      ".........": 8217,
      "Ġestimada": 8218,
      "itaÃ§Ãµes": 8219,
      "Ġdecidir": 8220,
      "Ã¤": 8221,
      "Ġadolescentes": 8222,
      "..........": 8223,
      "amo": 8224,
      "Ġchegando": 8225,
      "Ġabsoluta": 8226,
      "Ġcolocou": 8227,
      "deus": 8228,
      "ĠCompanhia": 8229,
      "ĠcircunstÃ¢ncias": 8230,
      "ĠjurÃŃdicas": 8231,
      "fone": 8232,
      "edente": 8233,
      "Ġcorrespondente": 8234,
      "ĠParte": 8235,
      "Ġeditor": 8236,
      "Ġagravante": 8237,
      "ĠSust": 8238,
      "ĠAbra": 8239,
      "Ġfeminino": 8240,
      "Ġlabora": 8241,
      "ĠSeleÃ§Ã£o": 8242,
      "Ġafro": 8243,
      "ÃŃfico": 8244,
      "ĠcomeÃ§aram": 8245,
      "Ġdefinido": 8246,
      "Ġmex": 8247,
      "ĠBus": 8248,
      "ĠPel": 8249,
      "aneamento": 8250,
      "Ġindireta": 8251,
      "ĠVis": 8252,
      "Ġexcep": 8253,
      "ĠespecÃŃfico": 8254,
      "ĠMana": 8255,
      "ĠSilv": 8256,
      "ĠSena": 8257,
      "Ġteatro": 8258,
      "ĠÃįndia": 8259,
      "Ġcontem": 8260,
      "ĠPB": 8261,
      "ĠMaior": 8262,
      "ĠSantiago": 8263,
      "ĠsÃŃm": 8264,
      "inic": 8265,
      "Ġfotos": 8266,
      "Ġsabem": 8267,
      "59": 8268,
      "Ġtempest": 8269,
      "iologia": 8270,
      "Pal": 8271,
      "ĠLewando": 8272,
      "ĠSujeita": 8273,
      "ĠConsumidor": 8274,
      "ĠIsrael": 8275,
      "Ġdesaparec": 8276,
      "rum": 8277,
      "ĠSha": 8278,
      "Ġmap": 8279,
      "pol": 8280,
      "Ġimpe": 8281,
      "fferson": 8282,
      "Ġequivalente": 8283,
      "Ġespa": 8284,
      "Ġpudesse": 8285,
      "ĠLÃļ": 8286,
      "ĠinflaÃ§Ã£o": 8287,
      "ĠlÃŃqu": 8288,
      "Da": 8289,
      "Ġquerido": 8290,
      "112": 8291,
      "Ã³logo": 8292,
      "enida": 8293,
      "Ġlhes": 8294,
      "itamos": 8295,
      "1999": 8296,
      "Ġlembra": 8297,
      "Ġcole": 8298,
      "Ġ61": 8299,
      "ĠmÃ¡quina": 8300,
      "ĠLewandowski": 8301,
      "Ġconfer": 8302,
      "Ġinfantil": 8303,
      "Ġpensa": 8304,
      "Ġenv": 8305,
      "Ã´nico": 8306,
      "mnP": 8307,
      "ĠprÃ©via": 8308,
      "Ġformal": 8309,
      "Ġaquelas": 8310,
      "ALDO": 8311,
      "ĠPrefeitura": 8312,
      "ET": 8313,
      "ĠFI": 8314,
      "ĠCov": 8315,
      "Ġseguimento": 8316,
      "ĠEstÃ£o": 8317,
      "Ġmesmas": 8318,
      "ĠdaÃŃ": 8319,
      "agar": 8320,
      "ji": 8321,
      "Ġanimal": 8322,
      "ĠAbril": 8323,
      "ĠOficial": 8324,
      "ĠContra": 8325,
      "ĠEns": 8326,
      "nes": 8327,
      "cÃ£o": 8328,
      "Ġilustre": 8329,
      "Ġidentidade": 8330,
      "ĠOposiÃ§Ã£o": 8331,
      "ĠGl": 8332,
      "ĠDIST": 8333,
      "ĠConvenÃ§Ã£o": 8334,
      "ĠCanadÃ¡": 8335,
      "ĠdÃ©b": 8336,
      "ĠApres": 8337,
      "Ġrecolh": 8338,
      "ĠEsporte": 8339,
      "Ġtabela": 8340,
      "iab": 8341,
      "Ġnormalmente": 8342,
      "ĠesperanÃ§a": 8343,
      "ologias": 8344,
      "Ġdireita": 8345,
      "VER": 8346,
      "ĠFU": 8347,
      "Ġrelevante": 8348,
      "InocÃªncio": 8349,
      "ĠUru": 8350,
      "Ġverdadeira": 8351,
      "ĠimplementaÃ§Ã£o": 8352,
      "ĠextinÃ§Ã£o": 8353,
      "antins": 8354,
      "ĠAmor": 8355,
      "53": 8356,
      "ĠPequ": 8357,
      "ĠInst": 8358,
      "ĠÃŃ": 8359,
      "ison": 8360,
      "duÃ§Ãµes": 8361,
      "Ġdestes": 8362,
      "ĠPÃ¡gina": 8363,
      "Ġconvidados": 8364,
      "Ġdignidade": 8365,
      "ivar": 8366,
      "del": 8367,
      "DRO": 8368,
      "Ġaceitar": 8369,
      "ĠPai": 8370,
      "Ġdesigual": 8371,
      "Ġ1983": 8372,
      "ĠZona": 8373,
      "Ġcomida": 8374,
      "Ġtelefone": 8375,
      "ĠHon": 8376,
      "unidense": 8377,
      "rinho": 8378,
      "orra": 8379,
      "ashington": 8380,
      "ĠSupl": 8381,
      "Ġcontou": 8382,
      "Ġandar": 8383,
      "ĠFlor": 8384,
      "Ġutilizada": 8385,
      "Ġproduzido": 8386,
      "Ãºncias": 8387,
      "Ġpresos": 8388,
      "ĠAbreu": 8389,
      "Ġboca": 8390,
      "Ġparcela": 8391,
      "ĠemergÃªncia": 8392,
      "meras": 8393,
      "Ġoradora": 8394,
      "Ġprazos": 8395,
      "Ġgerais": 8396,
      "Ġeuro": 8397,
      "ĠexigÃªncia": 8398,
      "Ġespero": 8399,
      "Ġespecificamente": 8400,
      "Ġexige": 8401,
      "ĠCristo": 8402,
      "ĠMÃ¡rcio": 8403,
      "Ġinterc": 8404,
      "Ġpasse": 8405,
      "Ġtados": 8406,
      "CED": 8407,
      "ĠRES": 8408,
      "ĠPesquisa": 8409,
      "ĠRu": 8410,
      "ĠMano": 8411,
      "Ġpovos": 8412,
      "ĠBruno": 8413,
      "St": 8414,
      "Ġdesenh": 8415,
      "EITO": 8416,
      "69": 8417,
      "ervo": 8418,
      "ĠAparte": 8419,
      "Carlos": 8420,
      "ĠPmdbPpP": 8421,
      "Ġpaga": 8422,
      "Ġutilizar": 8423,
      "acial": 8424,
      "ott": 8425,
      "ew": 8426,
      "pag": 8427,
      "ĠinÃº": 8428,
      "Ġnomin": 8429,
      "ĠPublic": 8430,
      "ĠInformaÃ§Ã£o": 8431,
      "Ãºcleo": 8432,
      "pet": 8433,
      "ĠOutubro": 8434,
      "Ġcontribuir": 8435,
      "pPsd": 8436,
      "Ġlocalidades": 8437,
      "PO": 8438,
      "Ġdensidade": 8439,
      "pido": 8440,
      "ĠacadÃªm": 8441,
      "ĠSetembro": 8442,
      "Ġdesv": 8443,
      "pri": 8444,
      "ĠAir": 8445,
      "ĠNaÃ§Ã£o": 8446,
      "TONIO": 8447,
      "Ġefetiva": 8448,
      "ĠresistÃªncia": 8449,
      "ĠOsmar": 8450,
      "osos": 8451,
      "Ġfundament": 8452,
      "Ġapar": 8453,
      "endido": 8454,
      "Ġdevendo": 8455,
      "Ġtitu": 8456,
      "ĠMAT": 8457,
      "km": 8458,
      "Ġsolidar": 8459,
      "dobP": 8460,
      "Ġderru": 8461,
      "ĠCalif": 8462,
      "Ġgarota": 8463,
      "Ġesgo": 8464,
      "ĠEmenta": 8465,
      "proc": 8466,
      "Ġign": 8467,
      "Ġvenha": 8468,
      "ĠCapital": 8469,
      "ĠresoluÃ§Ã£o": 8470,
      "mete": 8471,
      "ĠespÃŃrito": 8472,
      "odos": 8473,
      "ĠtradiÃ§Ã£o": 8474,
      "ĠbÃ¡sico": 8475,
      "Ġclima": 8476,
      "rez": 8477,
      "Ġcomuns": 8478,
      "Ġdiferenc": 8479,
      "ĠAcred": 8480,
      "62": 8481,
      "uÃ¡rio": 8482,
      "itetura": 8483,
      "Ġfazia": 8484,
      "Ġcivis": 8485,
      "Ġprotagon": 8486,
      "rÃ¡ria": 8487,
      "Ġmelhoria": 8488,
      "ensÃµes": 8489,
      "intes": 8490,
      "Ġtorneio": 8491,
      "La": 8492,
      "BI": 8493,
      "Ġjusta": 8494,
      "Ã¢mica": 8495,
      "ĠTurismo": 8496,
      "Ġrenova": 8497,
      "uo": 8498,
      "Ġbac": 8499,
      "ĠFUN": 8500,
      "Ġamericana": 8501,
      "Ġdupla": 8502,
      "culos": 8503,
      "Ġobteve": 8504,
      "Ġvolunt": 8505,
      "ĠJefferson": 8506,
      "ĠMy": 8507,
      "Ġformato": 8508,
      "Ġviab": 8509,
      "Ġgratu": 8510,
      "ĠJardim": 8511,
      "GM": 8512,
      "udou": 8513,
      "ĠexigÃªncias": 8514,
      "LI": 8515,
      "Ġdefinir": 8516,
      "ĠCAM": 8517,
      "Ġ1976": 8518,
      "Ġconsider": 8519,
      "Ġquerer": 8520,
      "Ġadequada": 8521,
      "Ã¢neo": 8522,
      "dora": 8523,
      "Ġurbana": 8524,
      "Ġnal": 8525,
      "fls": 8526,
      "ĠUrb": 8527,
      "Ġcolocado": 8528,
      "ĠApa": 8529,
      "Ġtido": 8530,
      "ĠTOFF": 8531,
      "ĠsÃ¡bado": 8532,
      "ĠDessa": 8533,
      "ĠEconomia": 8534,
      "estas": 8535,
      "ĠTOFFOLI": 8536,
      "ecido": 8537,
      "Ġsingle": 8538,
      "Em": 8539,
      "ĠED": 8540,
      "ĠHABEAS": 8541,
      "ĠCIDA": 8542,
      "Ġ1979": 8543,
      "ĠRem": 8544,
      "ĠOutra": 8545,
      "ĠclÃ¡us": 8546,
      "Ġdeixe": 8547,
      "Ġpandemia": 8548,
      "atti": 8549,
      "Ġregistros": 8550,
      "Ġitaliano": 8551,
      "ĠPresentes": 8552,
      "ĠCombate": 8553,
      "rena": 8554,
      "Ġprazer": 8555,
      "mentos": 8556,
      "ĠForÃ§a": 8557,
      "tam": 8558,
      "Ã§ou": 8559,
      "Ġlutar": 8560,
      "ĠprÃ³prias": 8561,
      "ĠNunes": 8562,
      "ESSO": 8563,
      "ĠdisponÃŃveis": 8564,
      "ĠPec": 8565,
      "ComissÃ£o": 8566,
      "reno": 8567,
      "ĠRamos": 8568,
      "rÃ¡lia": 8569,
      "itoria": 8570,
      "ĠfazÃª": 8571,
      "ĠcontrovÃ©r": 8572,
      "Ġinfluenc": 8573,
      "ĠAmaral": 8574,
      "Ġassassin": 8575,
      "Ġautonomia": 8576,
      "Ġense": 8577,
      "ĠTocantins": 8578,
      "itantes": 8579,
      "cool": 8580,
      "ĠEconÃ´mica": 8581,
      "Ġvide": 8582,
      "Ġmi": 8583,
      "ĠDEPUTADOS": 8584,
      "Ġ400": 8585,
      "Ġocupada": 8586,
      "viÃ¡rio": 8587,
      "ĠconstruÃŃdo": 8588,
      "ĠsessÃµes": 8589,
      "Ġdestinado": 8590,
      "ĠPhil": 8591,
      "Ġfique": 8592,
      "Ġcaiu": 8593,
      "Ġcem": 8594,
      "ĠConforme": 8595,
      "Ġfran": 8596,
      "Ġtrabalhou": 8597,
      "ĠAgradeÃ§o": 8598,
      "PSOL": 8599,
      "Ġdesloc": 8600,
      "ĠDeve": 8601,
      "ĠMÃ©d": 8602,
      "Ġdivert": 8603,
      "Ġpalest": 8604,
      "ntemente": 8605,
      "ĠUnidas": 8606,
      "Ġachar": 8607,
      "Ġmadeira": 8608,
      "Ġrespectiva": 8609,
      "DANIA": 8610,
      "ĠameaÃ§a": 8611,
      "ĠEconÃ´mico": 8612,
      "Ġrecorrido": 8613,
      "endÃ¡rio": 8614,
      "Ġrelacionadas": 8615,
      "ĠÃºteis": 8616,
      "PES": 8617,
      "ĠepisÃ³dios": 8618,
      "ĠPreto": 8619,
      "ĠconsciÃªncia": 8620,
      "ĠPet": 8621,
      "ĠproposiÃ§Ãµes": 8622,
      "positor": 8623,
      "grafos": 8624,
      "Ġfundada": 8625,
      "its": 8626,
      "Ġreexame": 8627,
      "Ġdefer": 8628,
      "Ġacusado": 8629,
      "Ġdestacar": 8630,
      "ĠCarneiro": 8631,
      "ricos": 8632,
      "embl": 8633,
      "Ġacolh": 8634,
      "ĠKe": 8635,
      "Ġimpet": 8636,
      "Ġpertencente": 8637,
      "Ġcadeia": 8638,
      "ĠFiscal": 8639,
      "rativos": 8640,
      "Ġvisual": 8641,
      "Ġvistas": 8642,
      "radores": 8643,
      "ĠEp": 8644,
      "ERRA": 8645,
      "Ġcriminal": 8646,
      "hsPen": 8647,
      "ĠRubens": 8648,
      "ĠVenezuela": 8649,
      "ĠPapa": 8650,
      "Ġapresentados": 8651,
      "Ġatras": 8652,
      "arenta": 8653,
      "ĠevoluÃ§Ã£o": 8654,
      "Ġestrada": 8655,
      "Ġdiverg": 8656,
      "ĠavanÃ§o": 8657,
      "Ġcumpr": 8658,
      "ĠgraÃ§as": 8659,
      "ĠPO": 8660,
      "ĠBN": 8661,
      "Ã©trica": 8662,
      "Ġdisciplina": 8663,
      "Ġjornais": 8664,
      "ĠvÃ¡": 8665,
      "Ġreceitas": 8666,
      "ĠRural": 8667,
      "Ġinstit": 8668,
      "ĠAlguÃ©m": 8669,
      "ĠtÃ©rm": 8670,
      "Ġabsolutamente": 8671,
      "Ġatende": 8672,
      "umes": 8673,
      "Ġconserv": 8674,
      "Ġoferece": 8675,
      "Ġ1943": 8676,
      "ĠAgosto": 8677,
      "ĠDelegado": 8678,
      "Ġpares": 8679,
      "Ex": 8680,
      "ĠRafa": 8681,
      "Ġ84": 8682,
      "ĠMED": 8683,
      "antar": 8684,
      "ĠTerc": 8685,
      "ridade": 8686,
      "ĠRaim": 8687,
      "ĠSampa": 8688,
      "Ġespanhol": 8689,
      "Ġobservado": 8690,
      "ĠlanÃ§ada": 8691,
      "iquem": 8692,
      "Ġcobertura": 8693,
      "ĠcanÃ§Ãµes": 8694,
      "ĠdisponÃŃvel": 8695,
      "serv": 8696,
      "Ġfundos": 8697,
      "ĠENCAM": 8698,
      "ropeu": 8699,
      "51": 8700,
      "rÃ©s": 8701,
      "ield": 8702,
      "Ġcaptura": 8703,
      "ĠFunc": 8704,
      "icl": 8705,
      "unidade": 8706,
      "TADAS": 8707,
      "Ġhomenage": 8708,
      "ĠlÃŃderes": 8709,
      "Ġdeveriam": 8710,
      "ĠManaus": 8711,
      "tua": 8712,
      "Ġcantor": 8713,
      "out": 8714,
      "ĠVotaÃ§Ã£o": 8715,
      "Ġconquista": 8716,
      "ĠmÃŃnima": 8717,
      "63": 8718,
      "Ġri": 8719,
      "Ġpris": 8720,
      "ĠDivisÃ£o": 8721,
      "achment": 8722,
      "ĠTrÃ¢nsito": 8723,
      "Ġgovernos": 8724,
      "amba": 8725,
      "Ġsalvo": 8726,
      "Ġformado": 8727,
      "ĠRomero": 8728,
      "ĠSy": 8729,
      "Ġtomou": 8730,
      "ĠFIN": 8731,
      "ĠBac": 8732,
      "div": 8733,
      "Ġambas": 8734,
      "ĠfÃ¡b": 8735,
      "Ã³gico": 8736,
      "ĠSebast": 8737,
      "Ġtela": 8738,
      "ĠagÃªncia": 8739,
      "Ġhaviam": 8740,
      "ĠAi": 8741,
      "Ġcombinado": 8742,
      "Ġestatal": 8743,
      "Ġcritic": 8744,
      "ĠPrP": 8745,
      "rove": 8746,
      "ĠTre": 8747,
      "ĠendereÃ§o": 8748,
      "Ġsalvar": 8749,
      "net": 8750,
      "ĠPens": 8751,
      "Ġestabelecimentos": 8752,
      "Ġfunciona": 8753,
      "ĠÃļnico": 8754,
      "Ġbic": 8755,
      "ĠDIS": 8756,
      "ĠJÃļ": 8757,
      "ku": 8758,
      "Ġnega": 8759,
      "ĠLÃļCIA": 8760,
      "MENTAR": 8761,
      "ĠAVISOS": 8762,
      "Ġdevida": 8763,
      "Ġintelec": 8764,
      "ficÃ¡cia": 8765,
      "Ġincluem": 8766,
      "ĠAdemais": 8767,
      "Ġoriginalmente": 8768,
      "Ġfundamentais": 8769,
      "Ġdiagn": 8770,
      "ĠClÃ¡": 8771,
      "Ġazul": 8772,
      "arqu": 8773,
      "ĠCastelo": 8774,
      "Ġcompleto": 8775,
      "adequ": 8776,
      "Ã¡stico": 8777,
      "ĠSeus": 8778,
      "ĠAmapÃ¡": 8779,
      "Ġjusto": 8780,
      "ĠWashington": 8781,
      "ĠFra": 8782,
      "Ġelog": 8783,
      "Ġdil": 8784,
      "Ġfaixas": 8785,
      "ĠJr": 8786,
      "ĠTour": 8787,
      "Ġprioridade": 8788,
      "Ġreti": 8789,
      "Ġlembro": 8790,
      "Ġtitulares": 8791,
      "Ġverificar": 8792,
      "tbPscPhsPen": 8793,
      "VIDO": 8794,
      "ester": 8795,
      "Ġcicl": 8796,
      "ĠIC": 8797,
      "ĠPmdbPpPtbPscPhsPen": 8798,
      "Ġbons": 8799,
      "Ġveic": 8800,
      "ĠCLÃģ": 8801,
      "ĠLatina": 8802,
      "Ġimediata": 8803,
      "ĠOlÃŃmpicos": 8804,
      "deia": 8805,
      "Ġaplicada": 8806,
      "Ġprotes": 8807,
      "VIO": 8808,
      "ĠJunho": 8809,
      "orada": 8810,
      "nce": 8811,
      "Ġusados": 8812,
      "Ġdeputados": 8813,
      "Ġfavo": 8814,
      "ENE": 8815,
      "Ġreporta": 8816,
      "ĠFG": 8817,
      "ĠGust": 8818,
      "Ġconsign": 8819,
      "ĠREC": 8820,
      "Ġteste": 8821,
      "Ġadqui": 8822,
      "ĠSud": 8823,
      "ĠRELA": 8824,
      "ĠCorpo": 8825,
      "eij": 8826,
      "itt": 8827,
      "bert": 8828,
      "parÃªncia": 8829,
      "ĠAND": 8830,
      "ĠPeÃ§o": 8831,
      "Ġargum": 8832,
      "ĠGL": 8833,
      "ĠhipÃ³teses": 8834,
      "ĠGIL": 8835,
      "Ġconversa": 8836,
      "Ġvantagem": 8837,
      "ĠGostaria": 8838,
      "Ġanalisar": 8839,
      "ĠMarÃ§o": 8840,
      "ĠCabo": 8841,
      "Ġfator": 8842,
      "ĠPare": 8843,
      "Ġpassam": 8844,
      "Ġjamais": 8845,
      "ĠMun": 8846,
      "ĠBob": 8847,
      "ĠhistÃ³rias": 8848,
      "Ġobjetos": 8849,
      "ĠHelena": 8850,
      "adorias": 8851,
      "ĠDEF": 8852,
      "ĠPortuguesa": 8853,
      "MULA": 8854,
      "ĠmanifestaÃ§Ãµes": 8855,
      "ĠANTONIO": 8856,
      "ĠAward": 8857,
      "ĠocupaÃ§Ã£o": 8858,
      "Ġraio": 8859,
      "Ġdura": 8860,
      "ĠfundaÃ§Ã£o": 8861,
      "Ġvidas": 8862,
      "osco": 8863,
      "ĠCharles": 8864,
      "ĠSoa": 8865,
      "Ġtantos": 8866,
      "ĠlideranÃ§a": 8867,
      "equ": 8868,
      "abil": 8869,
      "Ġ1969": 8870,
      "Ġdepende": 8871,
      "Ġautomat": 8872,
      "Ġtropas": 8873,
      "Ġconquistou": 8874,
      "ĠTVR": 8875,
      "ĠNovembro": 8876,
      "ĠContudo": 8877,
      "ĠimÃ³veis": 8878,
      "ÃįCIO": 8879,
      "Ãªut": 8880,
      "alhas": 8881,
      "Ġassust": 8882,
      "ÃŃticas": 8883,
      "ĠLira": 8884,
      "Ġpost": 8885,
      "Ġinfelizmente": 8886,
      "Ġatingir": 8887,
      "ĠCONTRATADA": 8888,
      "Ġcausas": 8889,
      "ederaÃ§Ã£o": 8890,
      "ĠDISTRITO": 8891,
      "Ġencerra": 8892,
      "ĠDesc": 8893,
      "INHO": 8894,
      "ĠMer": 8895,
      "ĠindependÃªncia": 8896,
      "ĠAustrÃ¡lia": 8897,
      "Ġnao": 8898,
      "Ġtenta": 8899,
      "ĠinstÃ¢ncia": 8900,
      "Ġ68": 8901,
      "upe": 8902,
      "gov": 8903,
      "Ġcena": 8904,
      "ĠPUBL": 8905,
      "Ġmecanismos": 8906,
      "Ġgab": 8907,
      "eis": 8908,
      "ĠcooperaÃ§Ã£o": 8909,
      "Ġvila": 8910,
      "BRAS": 8911,
      "ĠSampaio": 8912,
      "Ġrepass": 8913,
      "Ġfornecimento": 8914,
      "Ġtan": 8915,
      "ĠFlorest": 8916,
      "ĠficarÃ¡": 8917,
      "ĠDESTA": 8918,
      "Ãºn": 8919,
      "dob": 8920,
      "Ġfatores": 8921,
      "Ġrecomend": 8922,
      "ĠIvan": 8923,
      "aglia": 8924,
      "Ġtratado": 8925,
      "ĠdÃŃvidas": 8926,
      "Ġescala": 8927,
      "Ġreconhecer": 8928,
      "ĠilÃŃc": 8929,
      "tware": 8930,
      "ĠBolsa": 8931,
      "ĠVitÃ³ria": 8932,
      "definiÃ§Ã£o": 8933,
      "Ġindis": 8934,
      "ode": 8935,
      "Ġigualdade": 8936,
      "Ġarran": 8937,
      "ecta": 8938,
      "gen": 8939,
      "ĠalÃŃqu": 8940,
      "Ã§u": 8941,
      "Ġflo": 8942,
      "ĠValdir": 8943,
      "ĠNob": 8944,
      "Ġvere": 8945,
      "ĠatribuiÃ§Ã£o": 8946,
      "Ġadicional": 8947,
      "ĠequilÃŃbrio": 8948,
      "Ġfome": 8949,
      "ĠPic": 8950,
      "Ġcarne": 8951,
      "Ġ1982": 8952,
      "ĠTE": 8953,
      "ĠhistÃ³rica": 8954,
      "ĠSANTA": 8955,
      "ĠcÃ©lulas": 8956,
      "ĠSl": 8957,
      "ĠTributaÃ§Ã£o": 8958,
      "ĠreferÃªncias": 8959,
      "ĠCELSO": 8960,
      "ĠDezembro": 8961,
      "ings": 8962,
      "fund": 8963,
      "Ġescal": 8964,
      "ĠPAC": 8965,
      "ĠPELA": 8966,
      "Ġcional": 8967,
      "tb": 8968,
      "Ġfortes": 8969,
      "Ġgerar": 8970,
      "ĠparÃ¢m": 8971,
      "ĠPeg": 8972,
      "Ġ1967": 8973,
      "Ġconsumidores": 8974,
      "Ġvenho": 8975,
      "Ã³rmula": 8976,
      "itual": 8977,
      "Ġexclusiva": 8978,
      "Ġrazo": 8979,
      "ĠAI": 8980,
      "Ġpressu": 8981,
      "ross": 8982,
      "Ġcorrida": 8983,
      "aso": 8984,
      "iri": 8985,
      "ĠsuperfÃŃcie": 8986,
      "ĠCAS": 8987,
      "Ġsuporte": 8988,
      "Ġapensados": 8989,
      "ivelmente": 8990,
      "Ġ1950": 8991,
      "che": 8992,
      "Ġsofre": 8993,
      "Ġrealizou": 8994,
      "Ġpermanecer": 8995,
      "Ġanex": 8996,
      "Ġjulgar": 8997,
      "Ġideias": 8998,
      "ĠexceÃ§Ã£o": 8999,
      "BS": 9000,
      "ĠMÃ£e": 9001,
      "Ġturismo": 9002,
      "Ġrelatoria": 9003,
      "ĠGilberto": 9004,
      "Ġinterrom": 9005,
      "Ġataques": 9006,
      "ĠMiranda": 9007,
      "Ġ67": 9008,
      "ĠConstituinte": 9009,
      "Ġespecifica": 9010,
      "Ġcoletivo": 9011,
      "Ã§alves": 9012,
      "rÃ¡tica": 9013,
      "ĠedifÃŃcio": 9014,
      "BC": 9015,
      "ĠdenÃºncias": 9016,
      "Ġparque": 9017,
      "Ġdizia": 9018,
      "Ġorient": 9019,
      "Ġ1972": 9020,
      "ĠForÃ§as": 9021,
      "ĠSand": 9022,
      "Ġnucle": 9023,
      "Ġaposentados": 9024,
      "Ġgraves": 9025,
      "ĠPoderes": 9026,
      "ĠRespon": 9027,
      "ĠDois": 9028,
      "ĠCondado": 9029,
      "Ġantigos": 9030,
      "ĠTro": 9031,
      "Ġarre": 9032,
      "Ġrapaz": 9033,
      "Ġretirar": 9034,
      "Ġrigor": 9035,
      "ferm": 9036,
      "Ġbandeira": 9037,
      "Ġconstitui": 9038,
      "Ġexpectativa": 9039,
      "Ġ1974": 9040,
      "tr": 9041,
      "pen": 9042,
      "ĠaviÃ£o": 9043,
      "essora": 9044,
      "essenta": 9045,
      "ÃŃssima": 9046,
      "ĠAlago": 9047,
      "ĠSempre": 9048,
      "Ġescap": 9049,
      "ĠDiz": 9050,
      "Ġpensamento": 9051,
      "urn": 9052,
      "tdobP": 9053,
      "ĠAll": 9054,
      "TAS": 9055,
      "Ġencaminhar": 9056,
      "inentes": 9057,
      "Ġinstitucional": 9058,
      "ĠdeterminaÃ§Ã£o": 9059,
      "uber": 9060,
      "ĠisenÃ§Ã£o": 9061,
      "lito": 9062,
      "Ġmoradores": 9063,
      "usc": 9064,
      "Ġsum": 9065,
      "ĠAPRESENTADAS": 9066,
      "ĠConst": 9067,
      "elecomun": 9068,
      "Ġgig": 9069,
      "ĠFortal": 9070,
      "ĠesforÃ§os": 9071,
      "ĠdecorrÃªncia": 9072,
      "usp": 9073,
      "Ġprivadas": 9074,
      "Ġcerim": 9075,
      "Ġplantas": 9076,
      "Ġservir": 9077,
      "Ġencerramento": 9078,
      "entada": 9079,
      "ĠPossui": 9080,
      "lindo": 9081,
      "ĠLuz": 9082,
      "Ġposterior": 9083,
      "Ġganha": 9084,
      "ĠDI": 9085,
      "itz": 9086,
      "Paulo": 9087,
      "orto": 9088,
      "Ġencerrar": 9089,
      "ĠcÃ³pias": 9090,
      "Ġprotoc": 9091,
      "ĠEnsino": 9092,
      "ĠPastor": 9093,
      "ĠBatista": 9094,
      "araÃ§Ã£o": 9095,
      "Ġquinze": 9096,
      "ĠDIR": 9097,
      "ĠFinal": 9098,
      "ĠFederativa": 9099,
      "ĠCCJ": 9100,
      "Ġficaram": 9101,
      "irei": 9102,
      "Ġigualmente": 9103,
      "ĠverificaÃ§Ã£o": 9104,
      "Ġpensando": 9105,
      "Ġproporcion": 9106,
      "ĠDiretora": 9107,
      "Ġdevo": 9108,
      "Ġdesenvolvido": 9109,
      "MC": 9110,
      "Ġelenco": 9111,
      "atus": 9112,
      "olÃ³gicos": 9113,
      "ĠDeixe": 9114,
      "Ġoficialmente": 9115,
      "Ġalterar": 9116,
      "iane": 9117,
      "ĠSousa": 9118,
[...]
