{
  "version": "1.0",
  "truncation": {
    "direction": "Right",
    "max_length": 1024,
    "strategy": "LongestFirst",
    "stride": 0
  },
  "padding": null,
  "added_tokens": [
    {
      "id": 0,
      "content": "[PAD]",
      "single_word": false,
      "lstrip": false,
      "rstrip": false,
      "normalized": false,
      "special": true
    },
    {
      "id": 1,
      "content": "[SEP]",
      "single_word": false,
      "lstrip": false,
      "rstrip": false,
      "normalized": false,
      "special": true
    },
    {
      "id": 2,
      "content": "[EOS]",
      "single_word": false,
      "lstrip": false,
      "rstrip": false,
      "normalized": false,
      "special": true
    },
    {
      "id": 3,
      "content": "[UNK]",
      "single_word": false,
      "lstrip": false,
      "rstrip": false,
      "normalized": false,
      "special": true
    }
  ],
  "normalizer": {
    "type": "Sequence",
    "normalizers": [
      {
        "type": "Strip",
        "strip_left": true,
        "strip_right": true
      },
      {
        "type": "NFC"
      }
    ]
  },
  "pre_tokenizer": {
    "type": "ByteLevel",
    "add_prefix_space": true,
    "trim_offsets": true,
    "use_regex": true
  },
  "post_processor": {
    "type": "Sequence",
    "processors": [
      {
        "type": "ByteLevel",
        "add_prefix_space": true,
        "trim_offsets": true,
        "use_regex": true
      },
      {
        "type": "TemplateProcessing",
        "single": [
          {
            "Sequence": {
              "id": "A",
              "type_id": 0
            }
          },
          {
            "SpecialToken": {
              "id": "[EOS]",
              "type_id": 0
            }
          }
        ],
        "pair": [
          {
            "Sequence": {
              "id": "A",
              "type_id": 0
            }
          },
          {
            "SpecialToken": {
              "id": "[SEP]",
              "type_id": 0
            }
          },
          {
            "Sequence": {
              "id": "B",
              "type_id": 0
            }
          },
          {
            "SpecialToken": {
              "id": "[EOS]",
              "type_id": 0
            }
          }
        ],
        "special_tokens": {
          "[EOS]": {
            "id": "[EOS]",
            "ids": [
              2
            ],
            "tokens": [
              "[EOS]"
            ]
          },
          "[SEP]": {
            "id": "[SEP]",
            "ids": [
              1
            ],
            "tokens": [
              "[SEP]"
            ]
          }
        }
      }
    ]
  },
  "decoder": {
    "type": "ByteLevel",
    "add_prefix_space": true,
    "trim_offsets": true,
    "use_regex": true
  },
  "model": {
    "type": "Unigram",
    "unk_id": 3,
    "vocab": [
      [
        "[PAD]",
        0.0
      ],
      [
        "[SEP]",
        0.0
      ],
      [
        "[EOS]",
        0.0
      ],
      [
        "[UNK]",
        0.0
      ],
      [
        "Ġ",
        -1.812880206517672
      ],
      [
        ",",
        -3.257847719080882
      ],
      [
        "s",
        -3.283479443640964
      ],
      [
        "a",
        -3.3519689160855286
      ],
      [
        "o",
        -3.4401631609095027
      ],
      [
        ".",
        -3.4785173954465094
      ],
      [
        "e",
        -3.5798550112147325
      ],
      [
        "Ġde",
        -3.616809888087051
      ],
      [
        "-",
        -4.552927254042601
      ],
      [
        "Ġdo",
        -4.579712062668712
      ],
      [
        "Ġque",
        -4.592288214573301
      ],
      [
        "u",
        -4.7509552138986315
      ],
      [
        "Ġda",
        -4.763334467589875
      ],
      [
        "r",
        -4.84058445142885
      ],
      [
        "i",
        -4.896509996090835
      ],
      [
        "m",
        -5.014144773351408
      ],
      [
        "Ġem",
        -5.177603711606309
      ],
      [
        "\"",
        -5.22632917175747
      ],
      [
        "n",
        -5.243796913168566
      ],
      [
        ")",
        -5.281874476969826
      ],
      [
        "(",
        -5.291689063723904
      ],
      [
        "A",
        -5.3523731521868285
      ],
      [
        "O",
        -5.362645748736032
      ],
      [
        "d",
        -5.370535084256055
      ],
      [
        "Ġpara",
        -5.396533526115423
      ],
      [
        "l",
        -5.457760659694628
      ],
      [
        "t",
        -5.524756179818414
      ],
      [
        "Ġcom",
        -5.537206280572249
      ],
      [
        "Ġno",
        -5.577080807272303
      ],
      [
        "c",
        -5.633407285139999
      ],
      [
        ":",
        -5.718902760185761
      ],
      [
        "Ġum",
        -5.755621679694116
      ],
      [
        "ĠÃ©",
        -5.760761722354911
      ],
      [
        "ĠâĢĵ",
        -5.76211791620659
      ],
      [
        "/",
        -5.76316326344733
      ],
      [
        "Ġna",
        -5.782076437930666
      ],
      [
        "ĠnÃ£o",
        -5.85271621969197
      ],
      [
        "p",
        -5.921665226664942
      ],
      [
        "Ġuma",
        -5.963677500701664
      ],
      [
        "Ġpor",
        -6.004176019679871
      ],
      [
        "S",
        -6.006993125804204
      ],
      [
        "E",
        -6.1720771061600725
      ],
      [
        "g",
        -6.260714628125855
      ],
      [
        "1",
        -6.274194131512697
      ],
      [
        "Ġdos",
        -6.3227076285736015
      ],
      [
        "b",
        -6.3472580438785915
      ],
      [
        "ĠÃł",
        -6.363598673611781
      ],
      [
        "?",
        -6.364908436460137
      ],
      [
        "Ġcomo",
        -6.37626714304208
      ],
      [
        "Ã§Ã£o",
        -6.4519182202175465
      ],
      [
        "2",
        -6.4787212944032255
      ],
      [
        "Ġfoi",
        -6.510557125751754
      ],
      [
        "!",
        -6.573155807139393
      ],
      [
        "ndo",
        -6.578688324175117
      ],
      [
        "Ġmais",
        -6.581520533552178
      ],
      [
        "C",
        -6.598129196311227
      ],
      [
        "I",
        -6.6102558145681005
      ],
      [
        "h",
        -6.610282463655238
      ],
      [
        "P",
        -6.620624373345164
      ],
      [
        "3",
        -6.681193733073018
      ],
      [
        "f",
        -6.683588221516903
      ],
      [
        ";",
        -6.715323743724891
      ],
      [
        "R",
        -6.7206360021540235
      ],
      [
        "Ġpela",
        -6.7267866463916715
      ],
      [
        "v",
        -6.7273112689686165
      ],
      [
        "ĠDE",
        -6.742946047720325
      ],
      [
        "ĠnÂº",
        -6.749060539562354
      ],
      [
        "Ġpelo",
        -6.795640471508786
      ],
      [
        "Ġsua",
        -6.811413356272713
      ],
      [
        "6",
        -6.82756814863891
      ],
      [
        "4",
        -6.8422209925582855
      ],
      [
        "5",
        -6.852065634616704
      ],
      [
        "7",
        -6.871839601472216
      ],
      [
        "Ġser",
        -6.890069198200399
      ],
      [
        "ĠSr",
        -6.892618594131154
      ],
      [
        "Âº",
        -6.895502113137603
      ],
      [
        "................",
        -6.919758205353261
      ],
      [
        "Ġdas",
        -6.920022552223767
      ],
      [
        "y",
        -6.92635531330423
      ],
      [
        "8",
        -6.928230067794953
      ],
      [
        "T",
        -6.934175398983411
      ],
      [
        "Ġsobre",
        -6.964536996730759
      ],
      [
        "D",
        -6.975757176764882
      ],
      [
        "...",
        -6.989270748796837
      ],
      [
        "de",
        -7.010374027733935
      ],
      [
        "Ġseu",
        -7.045308914937149
      ],
      [
        "ĠâĢľ",
        -7.060888988581334
      ],
      [
        "V",
        -7.072526911456295
      ],
      [
        "L",
        -7.105088417951512
      ],
      [
        "9",
        -7.117867220698537
      ],
      [
        "ĠPresidente",
        -7.121927643746302
      ],
      [
        "ĠestÃ¡",
        -7.12434129929901
      ],
      [
        "mos",
        -7.1463050638566745
      ],
      [
        "Ã£o",
        -7.146418146140723
      ],
      [
        "ĠNÃ£o",
        -7.148196413308963
      ],
      [
        "mente",
        -7.154035979331649
      ],
      [
        "ĠtambÃ©m",
        -7.158184301719059
      ],
      [
        "ĠEm",
        -7.170936869823416
      ],
      [
        "ĠLei",
        -7.178803159409616
      ],
      [
        "z",
        -7.188294721822071
      ],
      [
        "F",
        -7.229295787628208
      ],
      [
        "M",
        -7.258434237473274
      ],
      [
        "ĠDeputado",
        -7.260717483122756
      ],
      [
        "Ġmas",
        -7.261663427458078
      ],
      [
        "k",
        -7.263118619727683
      ],
      [
        "Ġtem",
        -7.264351316190392
      ],
      [
        "dos",
        -7.2660736391433325
      ],
      [
        "Ġnos",
        -7.276497841526348
      ],
      [
        "Ã¡",
        -7.299968498627122
      ],
      [
        "N",
        -7.301277745398725
      ],
      [
        "B",
        -7.309376232971037
      ],
      [
        "ram",
        -7.356056124079435
      ],
      [
        "Ġart",
        -7.361669182329548
      ],
      [
        "Ġele",
        -7.380260012578571
      ],
      [
        "in",
        -7.388604116512104
      ],
      [
        "ĠSR",
        -7.393900785026961
      ],
      [
        "G",
        -7.419627204621767
      ],
      [
        "ĠFederal",
        -7.42062171228806
      ],
      [
        "ĠsÃ£o",
        -7.420769154656897
      ],
      [
        "ĠÃī",
        -7.429085710783374
      ],
      [
        "Ã§Ãµes",
        -7.434291074910721
      ],
      [
        "Ġisso",
        -7.444010212495536
      ],
      [
        "ĠNÂº",
        -7.450372866003338
      ],
      [
        "ĠBrasil",
        -7.47260644218029
      ],
      [
        "ĠEstado",
        -7.473934146673237
      ],
      [
        "Ġanos",
        -7.480926095977642
      ],
      [
        "ĠSenador",
        -7.483931425624046
      ],
      [
        "das",
        -7.494520438940615
      ],
      [
        "Ġentre",
        -7.525733176661591
      ],
      [
        "ĠvocÃª",
        -7.53936815387779
      ],
      [
        "U",
        -7.54390331725013
      ],
      [
        "Ã©",
        -7.5470523721839236
      ],
      [
        "ĠEu",
        -7.54973136108247
      ],
      [
        "Ġmuito",
        -7.556126727276517
      ],
      [
        "ĠatÃ©",
        -7.613089647560653
      ],
      [
        "ĠjÃ¡",
        -7.624556592154335
      ],
      [
        "%",
        -7.628087436327643
      ],
      [
        "li",
        -7.673497480239528
      ],
      [
        "idade",
        -7.673822999756057
      ],
      [
        "ĠComissÃ£o",
        -7.67505389510573
      ],
      [
        "ĠNo",
        -7.68609138932276
      ],
      [
        "Ġbem",
        -7.696374308593107
      ],
      [
        "ÃŃ",
        -7.709746748423671
      ],
      [
        "Ġpode",
        -7.728309020387625
      ],
      [
        "era",
        -7.728370823936329
      ],
      [
        "Ġin",
        -7.734511421189568
      ],
      [
        "que",
        -7.743727894254622
      ],
      [
        "x",
        -7.749054238597289
      ],
      [
        "Ġforma",
        -7.754190303515983
      ],
      [
        "Ġquando",
        -7.75681810852892
      ],
      [
        "J",
        -7.779200631542306
      ],
      [
        "ĠDe",
        -7.78077474769116
      ],
      [
        "Ġaqui",
        -7.7839760162720655
      ],
      [
        "Ġmesmo",
        -7.78673026210285
      ],
      [
        "ĠNacional",
        -7.797233901609562
      ],
      [
        "Ġ19",
        -7.803922109778192
      ],
      [
        "Ġsem",
        -7.807741704258898
      ],
      [
        "ĠPor",
        -7.829481050490802
      ],
      [
        "ĠÂ§",
        -7.83776320289277
      ],
      [
        "ĠNa",
        -7.839128191710499
      ],
      [
        "ela",
        -7.841951162668211
      ],
      [
        "Ġtodos",
        -7.843486058137916
      ],
      [
        "ĠSe",
        -7.850774092023215
      ],
      [
        "Ġdia",
        -7.850894160749279
      ],
      [
        "Ġainda",
        -7.859257294159125
      ],
      [
        "ĠSÃ£o",
        -7.871887519561074
      ],
      [
        "0",
        -7.880488523140025
      ],
      [
        "Ġter",
        -7.904476187542262
      ],
      [
        "Ġseus",
        -7.905245148345884
      ],
      [
        "ĠOs",
        -7.922080472076278
      ],
      [
        "Ġ10",
        -7.924962835279102
      ],
      [
        "Ġparte",
        -7.928975212486105
      ],
      [
        "Ġcidade",
        -7.934220000702366
      ],
      [
        "âĢĿ.",
        -7.93539392944367
      ],
      [
        "Ġ18",
        -7.940607289271428
      ],
      [
        "Ġforam",
        -7.943808129415814
      ],
      [
        "Ġfazer",
        -7.952624287535281
      ],
      [
        "ĠRe",
        -7.957281717454791
      ],
      [
        "ĠPaulo",
        -7.959934499992947
      ],
      [
        "Ġcontra",
        -7.962959113677254
      ],
      [
        "ter",
        -7.964492414567069
      ],
      [
        "Ġcaso",
        -7.970573287390124
      ],
      [
        "ĠhÃ¡",
        -7.976238668595302
      ],
      [
        "Ġano",
        -7.980779219719498
      ],
      [
        "j",
        -7.990140230483169
      ],
      [
        "w",
        -7.995196079941669
      ],
      [
        "ĠPL",
        -8.001390397101714
      ],
      [
        "Ġesta",
        -8.01830552279147
      ],
      [
        "Ġessa",
        -8.020443648828694
      ],
      [
        "Ġesse",
        -8.035997715020006
      ],
      [
        "Ã³",
        -8.038335959934175
      ],
      [
        "PRESIDENTE",
        -8.048139206831578
      ],
      [
        "um",
        -8.052123578171061
      ],
      [
        "Ġtempo",
        -8.052144098789372
      ],
      [
        "PROJETO",
        -8.054541098944748
      ],
      [
        "ria",
        -8.05512012190317
      ],
      [
        "Ġseja",
        -8.058751306527778
      ],
      [
        "Ġvai",
        -8.059454836531026
      ],
      [
        "Ġmeu",
        -8.065452306862728
      ],
      [
        "Ġporque",
        -8.082885030671534
      ],
      [
        "ĠÃłs",
        -8.084517356477361
      ],
      [
        "ĠLEI",
        -8.089732200377178
      ],
      [
        "min",
        -8.092081268082225
      ],
      [
        "ĠMas",
        -8.092389945228808
      ],
      [
        "ĠsÃ³",
        -8.09502784687576
      ],
      [
        "aÃ§Ã£o",
        -8.10202243846943
      ],
      [
        "Ġprimeiro",
        -8.10725824949397
      ],
      [
        "ĠDeputados",
        -8.113044376476031
      ],
      [
        "ĠAs",
        -8.121888326535451
      ],
      [
        "Ġcon",
        -8.122590309266634
      ],
      [
        "ĠEle",
        -8.12775314983759
      ],
      [
        "ĠCom",
        -8.134415062729145
      ],
      [
        "RELATOR",
        -8.135319647297262
      ],
      [
        "ĠGoverno",
        -8.138544930110259
      ],
      [
        "ĠMinistro",
        -8.143509119137466
      ],
      [
        "Ġnas",
        -8.147408348596528
      ],
      [
        "Ġonde",
        -8.149346509240024
      ],
      [
        "ĠConstituiÃ§Ã£o",
        -8.153855934946673
      ],
      [
        "Ġco",
        -8.155373978920029
      ],
      [
        "ĠVocÃª",
        -8.15779410116977
      ],
      [
        "'",
        -8.166361941839302
      ],
      [
        "Ġpessoas",
        -8.166970317438802
      ],
      [
        "Ġvez",
        -8.173716422015875
      ],
      [
        "Ġgrande",
        -8.178433364369917
      ],
      [
        "nte",
        -8.179932678492026
      ],
      [
        "Ġartigo",
        -8.18482840341577
      ],
      [
        "Ġoutros",
        -8.185980694701648
      ],
      [
        "ĠSenhor",
        -8.191190050424538
      ],
      [
        "res",
        -8.197897464592652
      ],
      [
        "Ġ11",
        -8.199189359388955
      ],
      [
        "ĠestÃ£o",
        -8.20125763796278
      ],
      [
        "Ġtrabalho",
        -8.201490047627736
      ],
      [
        "Ġapenas",
        -8.203170430387384
      ],
      [
        "Ġoutras",
        -8.212893377902958
      ],
      [
        "ĠCÃ¢mara",
        -8.216071059035981
      ],
      [
        "ĠnÃ³s",
        -8.218693849468718
      ],
      [
        "Ġex",
        -8.224996557744644
      ],
      [
        "âĢĿ",
        -8.225326588124652
      ],
      [
        "Ġsendo",
        -8.227412813719866
      ],
      [
        "Âª",
        -8.228804749057861
      ],
      [
        "Ġdois",
        -8.23408288601737
      ],
      [
        "H",
        -8.236077084485375
      ],
      [
        "Ġ12",
        -8.247281144889
      ],
      [
        "ĠRio",
        -8.253641497202342
      ],
      [
        "Ġnosso",
        -8.25981524530215
      ],
      [
        "Ġordem",
        -8.26233729875365
      ],
      [
        "ĠProjeto",
        -8.270740240722478
      ],
      [
        "ĠII",
        -8.272744653262034
      ],
      [
        "vi",
        -8.278117492607166
      ],
      [
        "Ġsuas",
        -8.292187079499202
      ],
      [
        "Ġminha",
        -8.29386672907676
      ],
      [
        "Ġ15",
        -8.29455758166683
      ],
      [
        "ĠCasa",
        -8.296465578675736
      ],
      [
        "ĠArt",
        -8.298256577138881
      ],
      [
        "Ġlei",
        -8.300185644231904
      ],
      [
        "_",
        -8.301497784314156
      ],
      [
        "Ġmaior",
        -8.30209946407126
      ],
      [
        "Ġnome",
        -8.305111374164312
      ],
      [
        "Ġhoje",
        -8.306082708048173
      ],
      [
        "ch",
        -8.308644898632307
      ],
      [
        "Ġeste",
        -8.309638526155242
      ],
      [
        "ĠserÃ¡",
        -8.309980655776501
      ],
      [
        "Ġtermos",
        -8.312022121515412
      ],
      [
        "Ġprocesso",
        -8.319855188299137
      ],
      [
        "antes",
        -8.32000061483684
      ],
      [
        "Ġmeio",
        -8.32408595078278
      ],
      [
        "ĠReferÃªncias",
        -8.325215131260274
      ],
      [
        "ĠPara",
        -8.32661710949714
      ],
      [
        "Ġassim",
        -8.327990063640707
      ],
      [
        "10",
        -8.32969401981862
      ],
      [
        "Ġprojeto",
        -8.332419185342406
      ],
      [
        "19",
        -8.333823187793165
      ],
      [
        "ĠDO",
        -8.343229063809774
      ],
      [
        "Ġ16",
        -8.347735130214415
      ],
      [
        "PSDB",
        -8.348390912100271
      ],
      [
        "Ġdesta",
        -8.351033827552236
      ],
      [
        "ĠserviÃ§o",
        -8.359829501871829
      ],
      [
        "Ġqual",
        -8.360069700465754
      ],
      [
        "Ġvida",
        -8.362522614200365
      ],
      [
        "fi",
        -8.362795853049905
      ],
      [
        "ĠDo",
        -8.36286388264869
      ],
      [
        "Ġ17",
        -8.366378835479155
      ],
      [
        "ĠSenado",
        -8.376789327741008
      ],
      [
        "Ġ13",
        -8.378326947766455
      ],
      [
        "Ġ20",
        -8.379420718695393
      ],
      [
        "Ġ14",
        -8.381808296010723
      ],
      [
        "Ġdireito",
        -8.382813730562138
      ],
      [
        "ĠComo",
        -8.394956664358947
      ],
      [
        "Ġprimeira",
        -8.395677603420173
      ],
      [
        "$",
        -8.40268689778808
      ],
      [
        "Ġqualquer",
        -8.406439401577462
      ],
      [
        "ĠTribunal",
        -8.41349251922289
      ],
      [
        "ĠDA",
        -8.419054824461526
      ],
      [
        "ĠâĢ¢",
        -8.419668014706783
      ],
      [
        "ES",
        -8.423503437128664
      ],
      [
        "ĠJosÃ©",
        -8.427046711297672
      ],
      [
        "Ġpalavra",
        -8.434421313918081
      ],
      [
        "rem",
        -8.434519636322324
      ],
      [
        "Ġdisse",
        -8.434951476865207
      ],
      [
        "br",
        -8.435053090602167
      ],
      [
        "11",
        -8.436811050907272
      ],
      [
        "ĠPaÃŃs",
        -8.439115791861116
      ],
      [
        "Ġtodo",
        -8.442072672339535
      ],
      [
        "Ġacordo",
        -8.442947700335667
      ],
      [
        "Ġdeste",
        -8.449593230012457
      ],
      [
        "Ġsistema",
        -8.450126865037296
      ],
      [
        "Ġdepois",
        -8.451768575535258
      ],
      [
        "and",
        -8.453213048637409
      ],
      [
        "ver",
        -8.455641816025313
      ],
      [
        "ĠpÃºblica",
        -8.458871635916733
      ],
      [
        "cio",
        -8.459184014182373
      ],
      [
        "Ġseguinte",
        -8.461436985120248
      ],
      [
        "Ġcada",
        -8.468942527216521
      ],
      [
        "ĠMinistÃ©rio",
        -8.47057551617308
      ],
      [
        "ĠIn",
        -8.472024116609497
      ],
      [
        "Ġprazo",
        -8.475277344458183
      ],
      [
        "tra",
        -8.47819389455394
      ],
      [
        "Ġdeve",
        -8.4801295693966
      ],
      [
        "ĠÃ¡rea",
        -8.48096110033769
      ],
      [
        "Ġmelhor",
        -8.481077124417801
      ],
      [
        "Ġte",
        -8.487902669909877
      ],
      [
        "ĠCarlos",
        -8.488668441815406
      ],
      [
        "00",
        -8.490099377521627
      ],
      [
        "ĠSem",
        -8.49193206059004
      ],
      [
        "ĠapÃ³s",
        -8.49203866274594
      ],
      [
        "aÃ§Ãµes",
        -8.495060678772797
      ],
      [
        "ĠSim",
        -8.496777038271594
      ],
      [
        "09",
        -8.50072021694603
      ],
      [
        "ĠRelator",
        -8.500829817563382
      ],
      [
        "Ġagora",
        -8.501580480598385
      ],
      [
        "Ġpro",
        -8.507960328615198
      ],
      [
        "Ġpresente",
        -8.510194797415057
      ],
      [
        "ĠpolÃŃtica",
        -8.519495853875274
      ],
      [
        "ĠpÃºblico",
        -8.521869021859837
      ],
      [
        "Ġimportante",
        -8.524925271357116
      ],
      [
        "Bloco",
        -8.5360792522992
      ],
      [
        "ĠRepÃºblica",
        -8.537490152786797
      ],
      [
        "mento",
        -8.539620919233922
      ],
      [
        "Ġmundo",
        -8.543371354788373
      ],
      [
        "Ġsegundo",
        -8.545226547784619
      ],
      [
        "ĠPT",
        -8.547172055722362
      ],
      [
        "durante",
        -8.548114499025335
      ],
      [
        "Ġdizer",
        -8.548237265315406
      ],
      [
        "tor",
        -8.559689876495243
      ],
      [
        "Ġnossa",
        -8.563898835012914
      ],
      [
        "X",
        -8.564465732684788
      ],
      [
        "Ġpre",
        -8.567930356732452
      ],
      [
        "tro",
        -8.569287370842048
      ],
      [
        "ĠmatÃ©ria",
        -8.570246977015833
      ],
      [
        "ĠJustiÃ§a",
        -8.575650826254295
      ],
      [
        "Ġsob",
        -8.581468555221917
      ],
      [
        "Ġmil",
        -8.582314422981977
      ],
      [
        "Ġestava",
        -8.583077912542285
      ],
      [
        "Ãµes",
        -8.584375159850216
      ],
      [
        "Ġvoto",
        -8.584481296125702
      ],
      [
        "tar",
        -8.584823889661882
      ],
      [
        "ando",
        -8.585177943105053
      ],
      [
        "Ġsido",
        -8.586296041861337
      ],
      [
        "ĠCon",
        -8.587642959163698
      ],
      [
        "2009",
        -8.595103349223931
      ],
      [
        "rÃ¡",
        -8.595625477732753
      ],
      [
        "ing",
        -8.59688006590944
      ],
      [
        "Ġrecursos",
        -8.598777212434277
      ],
      [
        "dezembro",
        -8.601239899703195
      ],
      [
        "per",
        -8.612707658840447
      ],
      [
        "Ġoutro",
        -8.615392148947999
      ],
      [
        "ĠEstados",
        -8.6169093555089
      ],
      [
        "Ġpartir",
        -8.619649781580339
      ],
      [
        "Z",
        -8.619978850349058
      ],
      [
        "ĠtrÃªs",
        -8.620573860344967
      ],
      [
        "ÃĩÃĥO",
        -8.621460391462008
      ],
      [
        "Ġ24",
        -8.623389754781963
      ],
      [
        "=",
        -8.630600254736024
      ],
      [
        "ĠentÃ£o",
        -8.633531023044828
      ],
      [
        "man",
        -8.634063683534313
      ],
      [
        "PT",
        -8.634838582433968
      ],
      [
        "decisÃ£o",
        -8.638938438933431
      ],
      [
        "Ġfinal",
        -8.643000075875227
      ],
      [
        "ica",
        -8.64335860932145
      ],
      [
        "@",
        -8.652919350372176
      ],
      [
        "qui",
        -8.66022981084601
      ],
      [
        "revisÃ£o",
        -8.660749538725595
      ],
      [
        "Ġato",
        -8.661097064627034
      ],
      [
        "Ġgoverno",
        -8.66280012160093
      ],
      [
        "Ġdesde",
        -8.662880732197781
      ],
      [
        "Ġgrupo",
        -8.663382849221072
      ],
      [
        "iz",
        -8.664440782330031
      ],
      [
        "Ġtudo",
        -8.665422157396137
      ],
      [
        "lado",
        -8.667092290513583
      ],
      [
        "ĠJoÃ£o",
        -8.667546598157863
      ],
      [
        "Ġdias",
        -8.670803602754399
      ],
      [
        "ista",
        -8.671496940421717
      ],
      [
        "ĠfamÃŃlia",
        -8.673217939840752
      ],
      [
        "th",
        -8.682017926393586
      ],
      [
        "Ġnovo",
        -8.683034552870785
      ],
      [
        "ĠCo",
        -8.685330358680808
      ],
      [
        "ĠLa",
        -8.686768376636499
      ],
      [
        "ina",
        -8.687214728650686
      ],
      [
        "cia",
        -8.687298501444653
      ],
      [
        "15",
        -8.68897272806249
      ],
      [
        "ĠPMDB",
        -8.690068637925643
      ],
      [
        "ĠpaÃŃs",
        -8.69145157020391
      ],
      [
        "ĠIsso",
        -8.692160458951218
      ],
      [
        "Ġeles",
        -8.693722267471069
      ],
      [
        "ĠUniÃ£o",
        -8.695874048722883
      ],
      [
        "ĠUm",
        -8.69595523520223
      ],
      [
        "ĠAl",
        -8.698386023642874
      ],
      [
        "Ġver",
        -8.69880556169459
      ],
      [
        "12",
        -8.699684723430687
      ],
      [
        "Ġpoder",
        -8.700503706909515
      ],
      [
        "Ġproposta",
        -8.703896509825832
      ],
      [
        "ĠpopulaÃ§Ã£o",
        -8.707208855899777
      ],
      [
        "orador",
        -8.708456080420463
      ],
      [
        "ĠnÃºmero",
        -8.709942731507283
      ],
      [
        "ĠVer",
        -8.712594955144482
      ],
      [
        "Ãº",
        -8.712949614950961
      ],
      [
        "Ġvalor",
        -8.713043173726959
      ],
      [
        "Ġsempre",
        -8.713280779205466
      ],
      [
        "Ġ30",
        -8.720837425183001
      ],
      [
        "Ġinciso",
        -8.721483566263956
      ],
      [
        "Ġbrasileiro",
        -8.72559194106711
      ],
      [
        "ĠK",
        -8.72566223381789
      ],
      [
        "ĠW",
        -8.727704792321514
      ],
      [
        "ĠdÃ¡",
        -8.728073509408114
      ],
      [
        "Ġmomento",
        -8.7299400560139
      ],
      [
        "Ġduas",
        -8.73279050163474
      ],
      [
        "ĠrelaÃ§Ã£o",
        -8.733300812621842
      ],
      [
        "05",
        -8.739465783860407
      ],
      [
        "MA",
        -8.741573824036578
      ],
      [
        "Ġmenos",
        -8.742030758750632
      ],
      [
        "ĠmilhÃµes",
        -8.744242187321989
      ],
      [
        "Ġpouco",
        -8.744411567060501
      ],
      [
        "ja",
        -8.744465784785357
      ],
      [
        "ĠâĢĶ",
        -8.745399446429587
      ],
      [
        "ĠEntÃ£o",
        -8.747384294850317
      ],
      [
        "ĠFoi",
        -8.748139644715364
      ],
      [
        "âĢĵ",
        -8.748806532999007
      ],
      [
        "ĠlÃ¡",
        -8.749390796909625
      ],
      [
        "Congresso",
        -8.74972764228569
      ],
      [
        "Ġfato",
        -8.756592277282941
      ],
      [
        "ĠvotaÃ§Ã£o",
        -8.761245272826569
      ],
      [
        "men",
        -8.762550007131187
      ],
      [
        "Ġtinha",
        -8.765535213894106
      ],
      [
        "Ġconta",
        -8.766186097993927
      ],
      [
        "aprovaÃ§Ã£o",
        -8.769046597387682
      ],
      [
        "nesta",
        -8.769191833060999
      ],
      [
        "20",
        -8.769197380651795
      ],
      [
        "Ġbrasileira",
        -8.769835900091174
      ],
      [
        "Ġ21",
        -8.770424224559981
      ],
      [
        "ĠPela",
        -8.771607384012
      ],
      [
        "Ġquanto",
        -8.772118468093185
      ],
      [
        "Ġ23",
        -8.776200796453155
      ],
      [
        "Ġfim",
        -8.776220159831304
      ],
      [
        "Ġcasa",
        -8.777830521818954
      ],
      [
        "ĠSul",
        -8.77864664815889
      ],
      [
        "neste",
        -8.779057918897394
      ],
      [
        "18",
        -8.779386931153386
      ],
      [
        "Ġpelos",
        -8.780564123144895
      ],
      [
        "com",
        -8.780860835772097
      ],
      [
        "AS",
        -8.781639784693766
      ],
      [
        "dia",
        -8.787913150004659
      ],
      [
        "DO",
        -8.788570010437493
      ],
      [
        "ĠperÃŃodo",
        -8.789169092926924
      ],
      [
        "ÃĥO",
        -8.792856537193154
      ],
      [
        "ita",
        -8.793086267252377
      ],
      [
        "ĠPoder",
        -8.796981411322543
      ],
      [
        "03",
        -8.79744458354503
      ],
      [
        "Ġprograma",
        -8.79874747202753
      ],
      [
        "Ġ22",
        -8.800689792556886
      ],
      [
        "ĠEsta",
        -8.804110322023712
      ],
      [
        "ĠÃºnico",
        -8.806166405334174
      ],
      [
        "ĠhistÃ³ria",
        -8.807186821596126
      ],
      [
        "07",
        -8.808115232429444
      ],
      [
        "08",
        -8.811849590018124
      ],
      [
        "ĠMa",
        -8.813273690778301
      ],
      [
        "ĠinformaÃ§Ãµes",
        -8.813280700042169
      ],
      [
        "Ġtodas",
        -8.817486714645744
      ],
      [
        "ĠsaÃºde",
        -8.818017060319788
      ],
      [
        "ĠPR",
        -8.818545990263857
      ],
      [
        "Ġvezes",
        -8.82140291307266
      ],
      [
        "dor",
        -8.822046374673715
      ],
      [
        "Ġfaz",
        -8.822574716742471
      ],
      [
        "tos",
        -8.822692463070112
      ],
      [
        "ĠMe",
        -8.824577265851856
      ],
      [
        "ĠH",
        -8.825970831567865
      ],
      [
        "ante",
        -8.826361260466303
      ],
      [
        "Ġbase",
        -8.828764135701386
      ],
      [
        "ĠregiÃ£o",
        -8.830053879487323
      ],
      [
        "mar",
        -8.834320496799911
      ],
      [
        "ĠMo",
        -8.834577347408167
      ],
      [
        "Ġexemplo",
        -8.83588874633309
      ],
      [
        "17",
        -8.837189495045411
      ],
      [
        "02",
        -8.838725906467998
      ],
      [
        "Ġfez",
        -8.838757721282999
      ],
      [
        "16",
        -8.841435216601273
      ],
      [
        "Ġ25",
        -8.842986936275478
      ],
      [
        "ĠtÃ£o",
        -8.843997796787752
      ],
      [
        "alÃ©m",
        -8.845350984441945
      ],
      [
        "Ãª",
        -8.84686473817916
      ],
      [
        "Ġfor",
        -8.847996502060516
      ],
      [
        "Ġexternas",
        -8.848879898006807
      ],
      [
        "Ġmaio",
        -8.849109213404109
      ],
      [
        "Ì",
        -8.850455526661586
      ],
      [
        "ĠtÃªm",
        -8.850803840267602
      ],
      [
        "âĢĿ,",
        -8.851269294722094
      ],
      [
        "ĠDa",
        -8.851718503959848
      ],
      [
        "ĠquestÃ£o",
        -8.8521815042457
      ],
      [
        "Ġdiz",
        -8.853900248005491
      ],
      [
        "LigaÃ§Ãµes",
        -8.857529430139952
      ],
      [
        "ĠLuiz",
        -8.857599999034587
      ],
      [
        "Ġquero",
        -8.857752764549621
      ],
      [
        "Ġsocial",
        -8.858800863760711
      ],
      [
        "ĠQue",
        -8.860119553850195
      ],
      [
        "Ġlugar",
        -8.860343932874011
      ],
      [
        "Ġtendo",
        -8.860437354516007
      ],
      [
        "ĠPro",
        -8.86217402563584
      ],
      [
        "Ġpois",
        -8.863710150104575
      ],
      [
        "K",
        -8.866460076056491
      ],
      [
        "Ġrecurso",
        -8.86817288888439
      ],
      [
        "julho",
        -8.869976561297422
      ],
      [
        "Ġtoda",
        -8.871004492496512
      ],
      [
        "Ġestado",
        -8.872306446655339
      ],
      [
        "04",
        -8.87231572530571
      ],
      [
        "Ġbom",
        -8.873471053250096
      ],
      [
        "ito",
        -8.87437785176675
      ],
      [
        "ĠExÂª",
        -8.875068814198366
      ],
      [
        "06",
        -8.876344603872889
      ],
      [
        "Ġ2007",
        -8.880463767248804
      ],
      [
        "Ġnada",
        -8.88369264487085
      ],
      [
        "ĠLe",
        -8.884286234391586
      ],
      [
        "sentido",
        -8.885178449314438
      ],
      [
        "Ġempresa",
        -8.886616383295284
      ],
      [
        "Ġpovo",
        -8.886820516623443
      ],
      [
        "art",
        -8.88710934478925
      ],
      [
        "OS",
        -8.88974943834398
      ],
      [
        "Ġalguns",
        -8.890238963294165
      ],
      [
        "ESSÃĥO",
        -8.89102700718673
      ],
      [
        "Ġseria",
        -8.891826643943999
      ],
      [
        "setembro",
        -8.89204325555109
      ],
      [
        "Ġdata",
        -8.89494912446385
      ],
      [
        "ismo",
        -8.9002123605434
      ],
      [
        "Ġvi",
        -8.900819934627235
      ],
      [
        "Ġ28",
        -8.904072047457735
      ],
      [
        "ĠPa",
        -8.904967295293591
      ],
      [
        "temos",
        -8.907109863436487
      ],
      [
        "rio",
        -8.909366743241367
      ],
      [
        "ava",
        -8.91001347172922
      ],
      [
        "Ġnacional",
        -8.911983452195088
      ],
      [
        "Ġfavor",
        -8.91499196011469
      ],
      [
        "Ġvou",
        -8.915977898754573
      ],
      [
        "Ġ:(",
        -8.91805213412445
      ],
      [
        "Â°",
        -8.918765658489715
      ],
      [
        "Ġcoisa",
        -8.920006931551223
      ],
      [
        "dispÃµe",
        -8.920351894741444
      ],
      [
        "Ġsociedade",
        -8.926297025514348
      ],
      [
        "Ġpodem",
        -8.926543735567776
      ],
      [
        "W",
        -8.9271838125151
      ],
      [
        "dores",
        -8.927478118115282
      ],
      [
        "tri",
        -8.92783608983471
      ],
      [
        "Ġnem",
        -8.930718732935746
      ],
      [
        "13",
        -8.932301508577345
      ],
      [
        "Ġmesma",
        -8.932980087660468
      ],
      [
        "nos",
        -8.933274511322576
      ],
      [
        "Muito",
        -8.93348463501611
      ],
      [
        "ĠAr",
        -8.933599046303485
      ],
      [
        "ĠEla",
        -8.933868771341483
      ],
      [
        "junho",
        -8.934851093444522
      ],
      [
        "Ġnova",
        -8.93566515041665
      ],
      [
        "Ġpra",
        -8.940146805084447
      ],
      [
        "Ġdisso",
        -8.94014884834138
      ],
      [
        "Ġtipo",
        -8.94040752595568
      ],
      [
        "Ġtenho",
        -8.942417974682352
      ],
      [
        "UTC",
        -8.942477167302274
      ],
      [
        "Ġteve",
        -8.943491655613238
      ],
      [
        "car",
        -8.94387230794372
      ],
      [
        "ĠGrande",
        -8.946237690283281
      ],
      [
        "Ġcausa",
        -8.946279588957072
      ],
      [
        "ĠVamos",
        -8.948607817573391
      ],
      [
        "ĠÃºltimo",
        -8.950849567658562
      ],
      [
        "2015",
        -8.952248119861343
      ],
      [
        "Ġestou",
        -8.953933990743568
      ],
      [
        "Exa",
        -8.95569638358892
      ],
      [
        "Decreto",
        -8.957050596618544
      ],
      [
        "Ġ2008",
        -8.961462000810847
      ],
      [
        "ente",
        -8.962305945224202
      ],
      [
        "Ġdesenvolvimento",
        -8.96527718750033
      ],
      [
        "ntes",
        -8.966911081928995
      ],
      [
        "Ġ2006",
        -8.967253245427946
      ],
      [
        "Ġ26",
        -8.96975086147584
      ],
      [
        "Ġ2009",
        -8.97122981014219
      ],
      [
        "Ġmedida",
        -8.971762306065468
      ],
      [
        "ĠVi",
        -8.971849819391537
      ],
      [
        "bra",
        -8.972022694986121
      ],
      [
        "PMDB",
        -8.973921749191172
      ],
      [
        "Ġquais",
        -8.974553408045065
      ],
      [
        "tado",
        -8.977204675266627
      ],
      [
        "AL",
        -8.98012853571696
      ],
      [
        "Ġoutra",
        -8.982008757136105
      ],
      [
        "Ġpa",
        -8.98276769825566
      ],
      [
        "000",
        -8.988107493566364
      ],
      [
        "Ġsei",
        -8.990602374104222
      ],
      [
        "Ġconstitucional",
        -8.991825779254095
      ],
      [
        "lin",
        -8.992181738502527
      ],
      [
        "Art",
        -8.995111755980485
      ],
      [
        "ĠmarÃ§o",
        -9.0077039806874
      ],
      [
        "Ġsabe",
        -9.00775361007505
      ],
      [
        "ĠSanta",
        -9.008187703978724
      ],
      [
        "Ġvamos",
        -9.008864699915105
      ],
      [
        "Ġpessoa",
        -9.009243250173723
      ],
      [
        "ĠJaneiro",
        -9.011815099593225
      ],
      [
        "Ġtrata",
        -9.013603551370842
      ],
      [
        "Ġagosto",
        -9.01381410415067
      ],
      [
        "Ġoutubro",
        -9.014084811754303
      ],
      [
        "con",
        -9.01423217963679
      ],
      [
        "gue",
        -9.014545257182068
      ],
      [
        "ĠMar",
        -9.015358803194436
      ],
      [
        "inha",
        -9.015594198105289
      ],
      [
        "Ġca",
        -9.016539182173323
      ],
      [
        "lar",
        -9.018922971191277
      ],
      [
        "Ġtexto",
        -9.019321206981369
      ],
      [
        "ida",
        -9.02256125217292
      ],
      [
        "Ġestar",
        -9.023272618258371
      ],
      [
        "cor",
        -9.029968791813394
      ],
      [
        "ĠDr",
        -9.03065340434107
      ],
      [
        "ĠIII",
        -9.031673788741468
      ],
      [
        "...............",
        -9.03280006393006
      ],
      [
        "Ġ2011",
        -9.034612460453143
      ],
      [
        "ck",
        -9.034685412500178
      ],
      [
        "ĠprÃ³prio",
        -9.035534395618372
      ],
      [
        "Ġhavia",
        -9.038654563587826
      ],
      [
        "Ġdessa",
        -9.041163111380524
      ],
      [
        "los",
        -9.042173592804044
      ],
      [
        "ĠmunicÃŃpio",
        -9.04640972017094
      ],
      [
        "ĠEduardo",
        -9.046612385938204
      ],
      [
        "Ġabril",
        -9.047601074900337
      ],
      [
        "Ġ2010",
        -9.0492240923636
      ],
      [
        "ĠtÃ©cnica",
        -9.049482273162546
      ],
      [
        "2013",
        -9.052515447120442
      ],
      [
        "qu",
        -9.05326131860096
      ],
      [
        "est",
        -9.054930973908116
      ],
      [
        "Ġprincipal",
        -9.0553552022632
      ],
      [
        "Ġdesse",
        -9.056182929805416
      ],
      [
        "Ġjaneiro",
        -9.056494851236632
      ],
      [
        "ton",
        -9.056619550731092
      ],
      [
        "Ġempresas",
        -9.05667589731068
      ],
      [
        "nha",
        -9.057986795791424
      ],
      [
        "habitantes",
        -9.058549646139658
      ],
      [
        "tas",
        -9.061497310407638
      ],
      [
        "://",
        -9.062306742279326
      ],
      [
        "ĠCa",
        -9.062678326547166
      ],
      [
        "fer",
        -9.067450430527964
      ],
      [
        "Ġnovembro",
        -9.068015817934004
      ],
      [
        "ĠEste",
        -9.07123113261394
      ],
      [
        "Ġpresidente",
        -9.072038847799762
      ],
      [
        "ĠtÃŃtulo",
        -9.072947322676228
      ],
      [
        "Ġ27",
        -9.073758711494769
      ],
      [
        "Ġvolta",
        -9.074201749609983
      ],
      [
        "Ġ2005",
        -9.075681164262416
      ],
      [
        "ĠPARECER",
        -9.076035558219308
      ],
      [
        "ĠcondiÃ§Ãµes",
        -9.07604631731217
      ],
      [
        "ĠproduÃ§Ã£o",
        -9.076442692789728
      ],
      [
        "Ġsemana",
        -9.077190688677923
      ],
      [
        "ĠsituaÃ§Ã£o",
        -9.082332042838868
      ],
      [
        "ĠSala",
        -9.082888858613728
      ],
      [
        "MunicÃŃpio",
        -9.084001691843923
      ],
      [
        "ĠLi",
        -9.084218980163373
      ],
      [
        "enta",
        -9.086788851459742
      ],
      [
        "ĠseguranÃ§a",
        -9.086878475626358
      ],
      [
        "les",
        -9.08775613019049
      ],
      [
        "NÃ³s",
        -9.08784769157767
      ],
      [
        "Ġinter",
        -9.092462944129249
      ],
      [
        "Ã§a",
        -9.093471236195011
      ],
      [
        "ĠÃ¡gua",
        -9.093511742557618
      ],
      [
        "ler",
        -9.096187129791426
      ],
      [
        "ico",
        -9.096386333723393
      ],
      [
        "aÃŃ",
        -9.098942257006856
      ],
      [
        "Ġfalar",
        -9.099985981400582
      ],
      [
        "2011",
        -9.101105928601068
      ],
      [
        "ĠMin",
        -9.101330335709406
      ],
      [
        "vam",
        -9.103265024579915
      ],
      [
        "estamos",
        -9.104220499923985
      ],
      [
        "ĠEstÃ¡",
        -9.10499843746156
      ],
      [
        "Ġtenha",
        -9.106353165041751
      ],
      [
        "Ġpai",
        -9.110555531315242
      ],
      [
        "Ġ29",
        -9.110854974369392
      ],
      [
        "ĠEssa",
        -9.111052435013992
      ],
      [
        "PSB",
        -9.112594154530504
      ],
      [
        "Ġfeito",
        -9.113994528169702
      ],
      [
        "eira",
        -9.114974927801669
      ],
      [
        "Ġtanto",
        -9.11589635344619
      ],
      [
        "ĠEmenda",
        -9.1190481110214
      ],
      [
        "Ġpena",
        -9.119585001951124
      ],
      [
        "Ġnum",
        -9.121967867347404
      ],
      [
        "Regimento",
        -9.122676657753898
      ],
      [
        "30",
        -9.124359735761308
      ],
      [
        "ĠEsse",
        -9.12658511386116
      ],
      [
        "ĠeducaÃ§Ã£o",
        -9.12865508267389
      ],
      [
        "TO",
        -9.130106712642068
      ],
      [
        "ĠinÃŃcio",
        -9.134513779964102
      ],
      [
        "ang",
        -9.134744070354238
      ],
      [
        "Ġverdade",
        -9.135077955015449
      ],
      [
        "Ġenquanto",
        -9.13639714426974
      ],
      [
        "ĠUma",
        -9.137110209067838
      ],
      [
        "las",
        -9.140387852387803
      ],
      [
        "TE",
        -9.140998824729996
      ],
      [
        "sessÃ£o",
        -9.142941983887932
      ],
      [
        "IS",
        -9.143563047701225
      ],
      [
        "ata",
        -9.143651153113554
      ],
      [
        "Ġrespeito",
        -9.143721089226045
      ],
      [
        "14",
        -9.145702272314631
      ],
      [
        "Ġobjetivo",
        -9.14629231551405
      ],
      [
        "EL",
        -9.146324681881474
      ],
      [
        "gar",
        -9.146407033934231
      ],
      [
        "rei",
        -9.147014669209891
      ],
      [
        "Ġfevereiro",
        -9.148530480277232
      ],
      [
        "Ġvista",
        -9.149127363825505
      ],
      [
        "Ġponto",
        -9.149299235127229
      ],
      [
        "feira",
        -9.150174011090408
      ],
      [
        "ry",
        -9.151171170708569
      ],
      [
        "Ġlocal",
        -9.152217011450698
      ],
      [
        "providÃªncias",
        -9.154175403316296
      ],
      [
        "Ġdentro",
        -9.154497037914709
      ],
      [
        "Supremo",
        -9.155741916732516
      ],
      [
        "Ġquatro",
        -9.157509997813
      ],
      [
        "lhe",
        -9.158646558833738
      ],
      [
        "Y",
        -9.159315993032653
      ],
      [
        "Deputada",
        -9.16010959166672
      ],
      [
        "Ġmim",
        -9.16111956764046
      ],
      [
        "ĠMi",
        -9.161961900767132
      ],
      [
        "ĠPi",
        -9.16323158057298
      ],
      [
        "Ġhoras",
        -9.16566457551661
      ],
      [
        "cer",
        -9.166350298680491
      ],
      [
        "lha",
        -9.166830298809618
      ],
      [
        "che",
        -9.167843960304392
      ],
      [
        "ĠGo",
        -9.167899523181768
      ],
      [
        "amente",
        -9.16860842329947
      ],
      [
        "Ġapoio",
        -9.169496364528966
      ],
      [
        "ĠInterno",
        -9.170235661972937
      ],
      [
        "ĠMaria",
        -9.170348114634375
      ],
      [
        "ĠsÃ©rie",
        -9.171288720271052
      ],
      [
        "Ġdemais",
        -9.172342738954828
      ],
      [
        "ĠPresidÃªncia",
        -9.174452860032668
      ],
      [
        "Ġcargo",
        -9.174942625214255
      ],
      [
        "serviÃ§os",
        -9.175904545169214
      ],
      [
        "ĠÃĢ",
        -9.178012422588465
      ],
      [
        "Ġtotal",
        -9.183728733514045
      ],
      [
        "criaÃ§Ã£o",
        -9.183961469213283
      ],
      [
        "ĠPÃºblico",
        -9.18557812100182
      ],
      [
        "ĠpossÃŃvel",
        -9.187456511358768
      ],
      [
        "gen",
        -9.188565815957013
      ],
      [
        "Ġ(\"",
        -9.189490265484476
      ],
      [
        "Ġparecer",
        -9.189831342429626
      ],
      [
        "ĠBrasÃŃlia",
        -9.192911057324157
      ],
      [
        "PDT",
        -9.193226691061891
      ],
      [
        "Ġvota",
        -9.193867567251148
      ],
      [
        "Ġ2013",
        -9.194403113169058
      ],
      [
        "ĠUnidos",
        -9.194412568640129
      ],
      [
        "ĠPre",
        -9.194629051804013
      ],
      [
        "cha",
        -9.196896722978218
      ],
      [
        "Ġconforme",
        -9.197114576946037
      ],
      [
        "Ġfilme",
        -9.197945560283133
      ],
      [
        "Ã§o",
        -9.198923663923711
      ],
      [
        "ĠTurma",
        -9.199006793099636
      ],
      [
        "Ġfalta",
        -9.200021370026477
      ],
      [
        "tal",
        -9.200460906532651
      ],
      [
        "Ġnunca",
        -9.201216411009671
      ],
      [
        "Ġproblema",
        -9.201756526389593
      ],
      [
        "ĠConselho",
        -9.202735590946013
      ],
      [
        "Ġsou",
        -9.203922585472291
      ],
      [
        "ĠpaÃŃses",
        -9.20485485404987
      ],
      [
        "ĠNO",
        -9.20533696187898
      ],
      [
        "Ġespecial",
        -9.205681141215264
      ],
      [
        "Ġjogo",
        -9.20627273381627
      ],
      [
        "Ġprecisa",
        -9.208535870013806
      ],
      [
        "Ð",
        -9.208857677816784
      ],
      [
        "ĠHa",
        -9.21032064609494
      ],
      [
        "Ġalgo",
        -9.21164482741366
      ],
      [
        "Ġ31",
        -9.211741438277706
      ],
      [
        "Ġ2012",
        -9.212795941124716
      ],
      [
        "ĠUniversidade",
        -9.21371590570254
      ],
      [
        "ĠQuando",
        -9.214151801779112
      ],
      [
        "Ãªncia",
        -9.214345250628076
      ],
      [
        "Ġ2004",
        -9.215619037885787
      ],
      [
        "ĠmÃºsica",
        -9.21790780110809
      ],
      [
        "Ġcerca",
        -9.220511047341809
      ],
      [
        "Ġobrigado",
        -9.221338860659184
      ],
      [
        "ĠsÃ©culo",
        -9.221686905892469
      ],
      [
        "tanto",
        -9.222238365317567
      ],
      [
        "defesa",
        -9.222833767821909
      ],
      [
        "Ġfora",
        -9.224966666319911
      ],
      [
        "chi",
        -9.225836388813804
      ],
      [
        "Ġequipe",
        -9.228226371856842
      ],
      [
        "ĠJu",
        -9.228924455659214
      ],
      [
        "ula",
        -9.22907373821062
      ],
      [
        "ĠEducaÃ§Ã£o",
        -9.229087756761484
      ],
      [
        "ĠSilva",
        -9.229419791233266
      ],
      [
        "SP",
        -9.231348927114558
      ],
      [
        "ira",
        -9.2322357763648
      ],
      [
        "ĠDi",
        -9.232270132693936
      ],
      [
        "CÃ³digo",
        -9.232561676085467
      ],
      [
        "ati",
        -9.233043903007545
      ],
      [
        "registro",
        -9.235319193478547
      ],
      [
        "DA",
        -9.236231265379695
      ],
      [
        "ĠatravÃ©s",
        -9.23666977093492
      ],
      [
        "Ġregimental",
        -9.237111728373163
      ],
      [
        "Ġcinco",
        -9.237847080788546
      ],
      [
        "ĠPedro",
        -9.239620833321665
      ],
      [
        "nia",
        -9.24020946976934
      ],
      [
        "âĢĻ",
        -9.242656177588042
      ],
      [
        "ĠSra",
        -9.24347903244693
      ],
      [
        "ido",
        -9.243956523951075
      ],
      [
        "Ã´",
        -9.244275048695142
      ],
      [
        "Ġper",
        -9.244518369482336
      ],
      [
        "ĠOliveira",
        -9.245370669308716
      ],
      [
        "Ġsegunda",
        -9.245746458865932
      ],
      [
        "Ġpedido",
        -9.24585980120334
      ],
      [
        "ber",
        -9.246309976849528
      ],
      [
        "Ġluta",
        -9.247172946158072
      ],
      [
        "tion",
        -9.247625579024277
      ],
      [
        "ĠFe",
        -9.249374108239882
      ],
      [
        "ĠTo",
        -9.249494962747711
      ],
      [
        "ĠBo",
        -9.25011801630968
      ],
      [
        "inho",
        -9.250131189745764
      ],
      [
        "PlenÃ¡rio",
        -9.251304855920717
      ],
      [
        "Ġficar",
        -9.25199958180862
      ],
      [
        "Ġrealizada",
        -9.253502811091614
      ],
      [
        "Ġmembro",
        -9.253779058352738
      ],
      [
        "Ġdireitos",
        -9.254069581205872
      ],
      [
        "ĠTotal",
        -9.25549349174453
      ],
      [
        "pen",
        -9.256716897740937
      ],
      [
        "Ãģ",
        -9.256765806195087
      ],
      [
        "Ġmorte",
        -9.257991155699324
      ],
      [
        "Ġsim",
        -9.258596975418332
      ],
      [
        "Ġpesquisa",
        -9.258598537327728
      ],
      [
        "posiÃ§Ã£o",
        -9.259397615510718
      ],
      [
        "ten",
        -9.261532326343469
      ],
      [
        "ĠJÃ¡",
        -9.262510475245564
      ],
      [
        "Ġdeixa",
        -9.26332992338948
      ],
      [
        "2000",
        -9.264105285548276
      ],
      [
        "Ġfazendo",
        -9.265646011763437
      ],
      [
        "Ġthe",
        -9.267468631052202
      ],
      [
        "ex",
        -9.268339291610737
      ],
      [
        "devido",
        -9.269201893710258
      ],
      [
        "ĠprÃ³pria",
        -9.269303659648209
      ],
      [
        "Ġobjeto",
        -9.270554153493222
      ],
      [
        "Ġvem",
        -9.270780302228872
      ],
      [
        "ĠDia",
        -9.2713188885276
      ],
      [
        "par",
        -9.272193717471668
      ],
      [
        "The",
        -9.272467804034484
      ],
      [
        "ĠrazÃ£o",
        -9.273783538038906
      ],
      [
        "Ġkm",
        -9.276947601788889
      ],
      [
        "vÃ¡rios",
        -9.278188919614198
      ],
      [
        "Ġsub",
        -9.278680945041298
      ],
      [
        "2008",
        -9.278683764815367
      ],
      [
        "ĠTem",
        -9.278807996163811
      ],
      [
        "ĠexercÃŃcio",
        -9.28017694707276
      ],
      [
        "Ġacesso",
        -9.280180149969848
      ],
      [
        "ĠSaÃºde",
        -9.281960065226736
      ],
      [
        "Ġmeses",
        -9.282241558522667
      ],
      [
        "ora",
        -9.282468080084769
      ],
      [
        "origem",
        -9.282574167049273
      ],
      [
        "tes",
        -9.28267451758626
      ],
      [
        "Executivo",
        -9.283999046721416
      ],
      [
        "ĠSocial",
        -9.287406291312356
      ],
      [
        "mor",
        -9.28772379938873
      ],
      [
        "ĠSt",
        -9.28813140845125
      ],
      [
        "Ġmercado",
        -9.288748841905656
      ],
      [
        "ĠLu",
        -9.29083820362758
      ],
      [
        "ĠÃ©poca",
        -9.291661761583391
      ],
      [
        "serÃ£o",
        -9.291882837399235
      ],
      [
        "ĠPP",
        -9.294478440397215
      ],
      [
        "Ġ2003",
        -9.294835023456075
      ],
      [
        "ĠEx",
        -9.295991188445038
      ],
      [
        "ĠBa",
        -9.29682786739594
      ],
      [
        "missÃ£o",
        -9.296891271943895
      ],
      [
        "Ġdados",
        -9.29748502439516
      ],
      [
        "Ġfilho",
        -9.297760774383429
      ],
      [
        "ĠSegundo",
        -9.298619118725345
      ],
      [
        "AlÃ©m",
        -9.299972211428004
      ],
      [
        "2007",
        -9.301133605204177
      ],
      [
        "ĠFilho",
        -9.302975672679278
      ],
      [
        "PTB",
        -9.303480060047995
      ],
      [
        "ĠAgora",
        -9.303854602094017
      ],
      [
        "Ġinclusive",
        -9.305896153575729
      ],
      [
        "Ġgeral",
        -9.309578374832428
      ],
      [
        "Ġ2015",
        -9.313095942337336
      ],
      [
        "Ġfosse",
        -9.313338595113311
      ],
      [
        "RE",
        -9.314117689559248
      ],
      [
        "97",
        -9.316083870702604
      ],
      [
        "ĠCar",
        -9.316991960792915
      ],
      [
        "Ġpelas",
        -9.317315818472023
      ],
      [
        "radiodifusÃ£o",
        -9.318811150688092
      ],
      [
        "Ġatividade",
        -9.31950297091166
      ],
      [
        "Ġpagamento",
        -9.320345480126488
      ],
      [
        "Ġquase",
        -9.32091145774675
      ],
      [
        "Ġqualidade",
        -9.322642533217287
      ],
      [
        "98",
        -9.324020615241364
      ],
      [
        "Ġlegal",
        -9.32407148080607
      ],
      [
        "uma",
        -9.325631323615406
      ],
      [
        "STF",
        -9.327986722657036
      ],
      [
        "2010",
        -9.330058903400982
      ],
      [
        "ĠDeus",
        -9.33032896371196
      ],
      [
        "Ġobra",
        -9.330569908621852
      ],
      [
        "Ġnecessidade",
        -9.330582450422549
      ],
      [
        "Ġalgumas",
        -9.332192536396745
      ],
      [
        "Ġboa",
        -9.339414898340287
      ],
      [
        "Q",
        -9.339627321591928
      ],
      [
        "amento",
        -9.339868624313985
      ],
      [
        "NA",
        -9.340140251818369
      ],
      [
        "lho",
        -9.341444062807785
      ],
      [
        "Ġdele",
        -9.341920041503236
      ],
      [
        "Ġminutos",
        -9.342422028539708
      ],
      [
        "Ġcrime",
        -9.342895208224672
      ],
      [
        "q",
        -9.343466103660514
      ],
      [
        "Ġmaioria",
        -9.344565464120253
      ],
      [
        "Ġ50",
        -9.347766672952517
      ],
      [
        "eram",
        -9.347926152594615
      ],
      [
        "ent",
        -9.349217475406483
      ],
      [
        "Ġpoderia",
        -9.349624553056534
      ],
      [
        "Ġesses",
        -9.349682292831872
      ],
      [
        "ki",
        -9.35037227826938
      ],
      [
        "RA",
        -9.352028498371576
      ],
      [
        "Ġ2014",
        -9.353642225718572
      ],
      [
        "ĠCiÃªncia",
        -9.355507062878692
      ],
      [
        "Ġdinheiro",
        -9.357851946110475
      ],
      [
        "28",
        -9.358186329260288
      ],
      [
        "Ġcerto",
        -9.3590116111524
      ],
      [
        "Ġmodo",
        -9.3594036046858
      ],
      [
        "ĠpolÃŃtico",
        -9.361690606976698
      ],
      [
        "Ġinteresse",
        -9.362588020980724
      ],
      [
        "Ġpartido",
        -9.364135219531374
      ],
      [
        "Ġconhecido",
        -9.365358721322831
      ],
      [
        ".âĢĿ",
        -9.3671838005381
      ],
      [
        "Ġtal",
        -9.36760570849684
      ],
      [
        "Ġrequerimento",
        -9.368348331575096
      ],
      [
        "ĠHo",
        -9.369302894390266
      ],
      [
        "altera",
        -9.369603673531742
      ],
      [
        "aumento",
        -9.370205496205918
      ],
      [
        "Ã¡vel",
        -9.37104817364616
      ],
      [
        "Ġpossa",
        -9.371793156053782
      ],
      [
        "ĠHÃ¡",
        -9.371985590575456
      ],
      [
        "rado",
        -9.37257768060644
      ],
      [
        "Ġnuma",
        -9.373806248326396
      ],
      [
        "ĠforÃ§a",
        -9.376350227119612
      ],
      [
        "ini",
        -9.376513098429667
      ],
      [
        "50",
        -9.37672108567049
      ],
      [
        "ĠEM",
        -9.377841531179758
      ],
      [
        "Ġpassa",
        -9.378311955322683
      ],
      [
        "Ġensino",
        -9.378424652451615
      ],
      [
        "ris",
        -9.38002870945547
      ],
      [
        "Ġjunto",
        -9.38069112722676
      ],
      [
        "https",
        -9.38146284588488
      ],
      [
        "agravo",
        -9.382326240522405
      ],
      [
        "Ġ2016",
        -9.383289589032689
      ],
      [
        "Ġdeixar",
        -9.383494613727416
      ],
      [
        "Ġemenda",
        -9.386118034366753
      ],
      [
        "Ġreforma",
        -9.387950235283718
      ],
      [
        ");",
        -9.38954642893552
      ],
      [
        "ĠprÃ¡tica",
        -9.389571721879538
      ],
      [
        "sta",
        -9.39002419084065
      ],
      [
        "ĠreuniÃ£o",
        -9.390792884688269
      ],
      [
        "anÃ¡lise",
        -9.39085782027545
      ],
      [
        "Ġnorte",
        -9.391191890208706
      ],
      [
        "ĠNova",
        -9.392036593510154
      ],
      [
        "ĠÃºltima",
        -9.39233423767605
      ],
      [
        "ĠGa",
        -9.393714938661894
      ],
      [
        "ĠAssim",
        -9.394152795372973
      ],
      [
        "Ġnoite",
        -9.394446249694427
      ],
      [
        "ĠMan",
        -9.3945067271911
      ],
      [
        "ĠPrograma",
        -9.39479240311198
      ],
      [
        "ĠmÃ£e",
        -9.39567816950587
      ],
      [
        "ist",
        -9.396201325940805
      ],
      [
        "TA",
        -9.396515737927423
      ],
      [
        "tur",
        -9.396830434163554
      ],
      [
        "ĠLula",
        -9.397021565221763
      ],
      [
        "Ġmuitas",
        -9.397516843222164
      ],
      [
        "ĠParecer",
        -9.39897118999178
      ],
      [
        "Ã¡rio",
        -9.399484248601508
      ],
      [
        "somente",
        -9.400044185597066
      ],
      [
        "ĠSua",
        -9.401199018110288
      ],
      [
        "ĠLÃŃder",
        -9.402076910261814
      ],
      [
        "ras",
        -9.403141008892735
      ],
      [
        "redaÃ§Ã£o",
        -9.40386861914081
      ],
      [
        "entanto",
        -9.404448589631729
      ],
      [
        "pre",
        -9.404887343190913
      ],
      [
        "por",
        -9.40584076758172
      ],
      [
        "ĠFi",
        -9.406378350432428
      ],
      [
        "Ġsuperior",
        -9.406559842936746
      ],
      [
        "ĠLegislativo",
        -9.408301667982691
      ],
      [
        "Ãī",
        -9.4102779802622
      ],
      [
        "Ġhomem",
        -9.410332054325076
      ],
      [
        "ĠparticipaÃ§Ã£o",
        -9.41070264611042
      ],
      [
        "ĠPÃºblica",
        -9.411420487601884
      ],
      [
        "ato",
        -9.412083748023123
      ],
      [
        "Ġfica",
        -9.412120536893848
      ],
      [
        "ĠMu",
        -9.412770803998558
      ],
      [
        "Ġsu",
        -9.414284288706002
      ],
      [
        "pro",
        -9.41626829069433
      ],
      [
        "25",
        -9.41768353611937
      ],
      [
        "ĠHe",
        -9.41788544255254
      ],
      [
        "ura",
        -9.418620718685336
      ],
      [
        "ĠThe",
        -9.418936086691112
      ],
      [
        "Ġtrans",
        -9.41960604823519
      ],
      [
        "Ġcontrole",
        -9.4207151446126
      ],
      [
        "Ġtarde",
        -9.421261472142708
      ],
      [
        "Ġoficial",
        -9.421375655519276
      ],
      [
        "ĠTe",
        -9.421486423986307
      ],
      [
        "ly",
        -9.42186307181568
      ],
      [
        "2012",
        -9.423188492783488
      ],
      [
        "Ġ100",
        -9.423324836460148
      ],
      [
        "Ġlongo",
        -9.42333484941817
      ],
      [
        "ĠBe",
        -9.423614929752478
      ],
      [
        "RI",
        -9.424187701910466
      ],
      [
        "Ġgrandes",
        -9.424391411978018
      ],
      [
        "ĠNe",
        -9.425762702711888
      ],
      [
        "ĠJo",
        -9.428054451301213
      ],
      [
        "ĠcrÃ©dito",
        -9.429247300182258
      ],
      [
        "ĠSu",
        -9.43051658360238
      ],
      [
        "2016",
        -9.431676786664816
      ],
      [
        "ĠFernando",
        -9.432100999124176
      ],
      [
        "tica",
        -9.432696767909803
      ],
      [
        "ĠAssociaÃ§Ã£o",
        -9.432771912905723
      ],
      [
        "Ġproduto",
        -9.434486373563889
      ],
      [
        "ĠRoberto",
        -9.43507282480187
      ],
      [
        "ĠlegislaÃ§Ã£o",
        -9.43612648468502
      ],
      [
        "tÃ£o",
        -9.436800278933736
      ],
      [
        "CE",
        -9.437424678206428
      ],
      [
        "ĠTrabalho",
        -9.437543254120747
      ],
      [
        "Ġsaber",
        -9.441394678197923
      ],
      [
        "Ġjulgamento",
        -9.441857362359745
      ],
      [
        "zar",
        -9.444409733249865
      ],
      [
        "passou",
        -9.444626722247332
      ],
      [
        "Ġessas",
        -9.44597329045924
      ],
      [
        "ĠpublicaÃ§Ã£o",
        -9.44654393823742
      ],
      [
        "Ġfala",
        -9.446591869019173
      ],
      [
        "ĠKa",
        -9.44703198336268
      ],
      [
        "SE",
        -9.449987764087824
      ],
      [
        "Ġpreciso",
        -9.450672230454046
      ],
      [
        "Ã£",
        -9.45087613824886
      ],
      [
        "ĠMaia",
        -9.451040292800164
      ],
      [
        "Ġcontrato",
        -9.451354109770524
      ],
      [
        "Ġatual",
        -9.451577884565344
      ],
      [
        "Ġsetor",
        -9.451613095741688
      ],
      [
        "ĠBem",
        -9.451618902857094
      ],
      [
        "29",
        -9.452238855347344
      ],
      [
        "Ġbrasileiros",
        -9.452301234372872
      ],
      [
        "Ġmal",
        -9.454306481609908
      ],
      [
        "ĠGr",
        -9.455033822928156
      ],
      [
        "relatÃ³rio",
        -9.457933127742749
      ],
      [
        "ĠextraordinÃ¡rio",
        -9.4599566377684
      ],
      [
        "Ġlhe",
        -9.46142436981241
      ],
      [
        "ite",
        -9.461682514797326
      ],
      [
        "96",
        -9.461848895383598
      ],
      [
        "Ġdar",
        -9.462526306586517
      ],
      [
        "PR",
        -9.465593115230671
      ],
      [
        "99",
        -9.46707132335086
      ],
      [
        "Ġconstante",
        -9.468069537273884
      ],
      [
        "Ġfeita",
        -9.46832388931352
      ],
      [
        "uro",
        -9.469318918241587
      ],
      [
        "realizaÃ§Ã£o",
        -9.470066398619773
      ],
      [
        "Ġenergia",
        -9.470262752614742
      ],
      [
        "ÃŃn",
        -9.470373296671102
      ],
      [
        "mulheres",
        -9.470658286291092
      ],
      [
        "conjunto",
        -9.470661151553497
      ],
      [
        "ĠconstruÃ§Ã£o",
        -9.472322292582811
      ],
      [
        "rar",
        -9.472372639740128
      ],
      [
        "mÃŃnimo",
        -9.473378753308856
      ],
      [
        "ix",
        -9.473540143978951
      ],
      [
        "Ġregime",
        -9.474608273258552
      ],
      [
        "2014",
        -9.476037326126818
      ],
      [
        "ĠPortugal",
        -9.47622049440679
      ],
      [
        "ĠespÃ©cie",
        -9.47636522607032
      ],
      [
        "ĠVI",
        -9.476765006454556
      ],
      [
        "Ġhora",
        -9.479603831447015
      ],
      [
        "Ġmaneira",
        -9.481705268732211
      ],
      [
        "ĠcrianÃ§as",
        -9.481846805393836
      ],
      [
        "poderÃ¡",
        -9.482926156027482
      ],
      [
        "ant",
        -9.483428281520052
      ],
      [
        "economia",
        -9.484074743140203
      ],
      [
        "vÃ¡rias",
        -9.4866044316994
      ],
      [
        "US",
        -9.486821555518798
      ],
      [
        "ĠediÃ§Ã£o",
        -9.48712195334563
      ],
      [
        "ĠMinas",
        -9.488705927000805
      ],
      [
        "ĠMesa",
        -9.488882392414668
      ],
      [
        "ĠDEM",
        -9.488907352691342
      ],
      [
        "ĠÃ¡lbum",
        -9.489021695328873
      ],
      [
        "Partido",
        -9.489736693855008
      ],
      [
        "ĠdiscussÃ£o",
        -9.490106305416484
      ],
      [
        "Ġdebate",
        -9.490271313043936
      ],
      [
        "Ġacho",
        -9.49080838149086
      ],
      [
        "Ġfrente",
        -9.490815711322623
      ],
      [
        "ĠRE",
        -9.49297056295763
      ],
      [
        "Ġprincipalmente",
        -9.493121313474903
      ],
      [
        "cho",
        -9.493182445795975
      ],
      [
        "Ġassunto",
        -9.493273249173964
      ],
      [
        "Ġchamado",
        -9.493335345289063
      ],
      [
        "ĠSÃ³",
        -9.493339320790104
      ],
      [
        "Ġcor",
        -9.49338323344574
      ],
      [
        "ĠnecessÃ¡rio",
        -9.49473170773405
      ],
      [
        "tivo",
        -9.495841393560251
      ],
      [
        "legislativa",
        -9.495882977226284
      ],
      [
        "Ġmuitos",
        -9.496052072326538
      ],
      [
        "ĠEstou",
        -9.496680637121234
      ],
      [
        "Ġlinha",
        -9.49692578751706
      ],
      [
        "ĠBi",
        -9.498282852809457
      ],
      [
        "sejam",
        -9.499496767070776
      ],
      [
        "ĠDesenvolvimento",
        -9.5001043860627
      ],
      [
        "Ġpapel",
        -9.500869307490593
      ],
      [
        "Ġforte",
        -9.502164466336852
      ],
      [
        "ense",
        -9.502969987201284
      ],
      [
        "ĠBu",
        -9.50327257666073
      ],
      [
        "ĠSP",
        -9.5041471943515
      ],
      [
        "ĠvÃ£o",
        -9.504224756017184
      ],
      [
        "ĠFrancisco",
        -9.50469919465695
      ],
      [
        "ĠNorte",
        -9.504761894518554
      ],
      [
        "46",
        -9.50556305277455
      ],
      [
        "via",
        -9.505983030089835
      ],
      [
        "ĠPer",
        -9.50683018624711
      ],
      [
        "atividades",
        -9.508361893727688
      ],
      [
        "ĠMarco",
        -9.50941842853837
      ],
      [
        "ĠCOM",
        -9.509872374714728
      ],
      [
        "reais",
        -9.510223376794167
      ],
      [
        "presenÃ§a",
        -9.510765350761815
      ],
      [
        "tan",
        -9.511327638821404
      ],
      [
        "ĠDJ",
        -9.512538040899951
      ],
      [
        "Ġproblemas",
        -9.51504433997992
      ],
      [
        "tÃ¡",
        -9.515480206746934
      ],
      [
        "\")",
        -9.51698629890812
      ],
      [
        "Ġhouve",
        -9.51748331143247
      ],
      [
        "tada",
        -9.517859906993516
      ],
      [
        "fl",
        -9.518849491098996
      ],
      [
        "ele",
        -9.519286894021828
      ],
      [
        "tre",
        -9.519348223061748
      ],
      [
        "istas",
        -9.519568446102424
      ],
      [
        "Ġnesse",
        -9.519911588984744
      ],
      [
        "ĠIV",
        -9.520058905412217
      ],
      [
        "uni",
        -9.521332800014154
      ],
      [
        "tou",
        -9.52167690752713
      ],
      [
        "Ġparece",
        -9.52199563400357
      ],
      [
        "tura",
        -9.522343409305073
      ],
      [
        "Ġbanda",
        -9.523020786916025
      ],
      [
        "concessÃ£o",
        -9.523910614071667
      ],
      [
        "Ġterra",
        -9.524241617937474
      ],
      [
        "dÃ©cada",
        -9.5245212482674
      ],
      [
        "#",
        -9.525155372980468
      ],
      [
        "EIRA",
        -9.525477098408189
      ],
      [
        "MunicÃŃpios",
        -9.52589110647356
      ],
      [
        "88",
        -9.526945807629389
      ],
      [
        "nal",
        -9.527042372430666
      ],
      [
        "iva",
        -9.527970104762478
      ],
      [
        "Ġalguma",
        -9.528420490883972
      ],
      [
        "prÃ³ximo",
        -9.529565101361026
      ],
      [
        "aprovado",
        -9.530855194735128
      ],
      [
        "Ġposso",
        -9.531180822547409
      ],
      [
        "execuÃ§Ã£o",
        -9.531585570624646
      ],
      [
        "ĠAn",
        -9.532459518324698
      ],
      [
        "izaÃ§Ã£o",
        -9.533038008930763
      ],
      [
        "bal",
        -9.533684083081276
      ],
      [
        "40",
        -9.533691766469802
      ],
      [
        "Ġcoisas",
        -9.5354160057192
      ],
      [
        "Ġbusca",
        -9.535922740568612
      ],
      [
        "Ġembora",
        -9.53661213090189
      ],
      [
        "ĠNi",
        -9.53753416796634
      ],
      [
        "ĠSE",
        -9.538454658164053
      ],
      [
        "can",
        -9.53919001962364
      ],
      [
        "ais",
        -9.539278168292656
      ],
      [
        "log",
        -9.539488188212738
      ],
      [
        "responsabilidade",
        -9.539981199290777
      ],
      [
        "ĠTr",
        -9.54133147325522
      ],
      [
        "Ġconhecimento",
        -9.541521161382963
      ],
      [
        "ĠAG",
        -9.541763296964032
      ],
      [
        "Ġoportunidade",
        -9.541886792166116
      ],
      [
        "Ġpassado",
        -9.541936573851364
      ],
      [
        "Ġdeveria",
        -9.542334696197203
      ],
      [
        "ger",
        -9.542805000120278
      ],
      [
        "Ġlivro",
        -9.54292251264759
      ],
      [
        "COMISSÃĥO",
        -9.543480474866604
      ],
      [
        "ĠSeu",
        -9.545649138879226
      ],
      [
        "90",
        -9.546393480248817
      ],
      [
        "Ġ2017",
        -9.548689846421633
      ],
      [
        "ĠfunÃ§Ã£o",
        -9.550994364663078
      ],
      [
        "26",
        -9.552331469917188
      ],
      [
        "Ġautor",
        -9.552941331401945
      ],
      [
        "ĠJa",
        -9.553323918820974
      ],
      [
        "ĠimportÃ¢ncia",
        -9.553688628718458
      ],
      [
        "Ġ:)",
        -9.553828026000003
      ],
      [
        "Ġalgum",
        -9.554432355102085
      ],
      [
        "ĠmÃ©dia",
        -9.555112901028512
      ],
      [
        "DE",
        -9.555177836452534
      ],
      [
        "Ã¢",
        -9.555901181580754
      ],
      [
        "ĠApÃ³s",
        -9.556097377345784
      ],
      [
        "01",
        -9.556707286839227
      ],
      [
        "45",
        -9.55695459778099
      ],
      [
        "ĠFa",
        -9.557403127263202
      ],
      [
        "Ġgente",
        -9.558276012671966
      ],
      [
        "Ġ40",
        -9.559707841128278
      ],
      [
        "27",
        -9.56018746102639
      ],
      [
        "RECURSO",
        -9.560729495413607
      ],
      [
        "previsto",
        -9.560998520708388
      ],
      [
        "Ġali",
        -9.561421737299629
      ],
      [
        "ĠAntonio",
        -9.56150121735788
      ],
      [
        "cal",
        -9.562153926096164
      ],
      [
        "Defesa",
        -9.562923913718745
      ],
      [
        "tiva",
        -9.562983697596977
      ],
      [
        "ĠCivil",
        -9.56398517457704
      ],
      [
        "disposto",
        -9.56416904731315
      ],
      [
        "ĠcompetÃªncia",
        -9.56441685787936
      ],
      [
        "Ġmulher",
        -9.565355907402257
      ],
      [
        "Distrito",
        -9.565467727629704
      ],
      [
        "&",
        -9.566864308841224
      ],
      [
        "Ġlista",
        -9.56697089912311
      ],
      [
        "Ġtema",
        -9.568158108116904
      ],
      [
        "cas",
        -9.56863402042472
      ],
      [
        "discussÃ£o",
        -9.569506878825656
      ],
      [
        "*",
        -9.570213630088954
      ],
      [
        "portanto",
        -9.570488143263052
      ],
      [
        "ĠRIC",
        -9.571431347105465
      ],
      [
        "Ġqueria",
        -9.571796347707409
      ],
      [
        "Ġrepresenta",
        -9.572113772288471
      ],
      [
        "Presidente",
        -9.57315377205543
      ],
      [
        "ju",
        -9.573374038300068
      ],
      [
        "cÃ³rdÃ£o",
        -9.574732675477987
      ],
      [
        "ago",
        -9.576396966191467
      ],
      [
        "sociais",
        -9.57665491615638
      ],
      [
        "ĠEMENDA",
        -9.577182847832637
      ],
      [
        "Geral",
        -9.577845522438825
      ],
      [
        "Ġcara",
        -9.57959465164156
      ],
      [
        "sÃ£o",
        -9.579907703131658
      ],
      [
        "ser",
        -9.58009097857166
      ],
      [
        "Ġmodelo",
        -9.581295660415988
      ],
      [
        "35",
        -9.582540180196526
      ],
      [
        "):",
        -9.58256790468477
      ],
      [
        "ĠTecnologia",
        -9.583632778610884
      ],
      [
        "DI",
        -9.584359633075069
      ],
      [
        "sim",
        -9.585170887665567
      ],
      [
        "gua",
        -9.5851845111487
      ],
      [
        "Ġpessoal",
        -9.587150289712916
      ],
      [
        "Ġ1990",
        -9.5880495291743
      ],
      [
        "Ġescola",
        -9.588352358018737
      ],
      [
        "ĠmudanÃ§a",
        -9.589799262924243
      ],
      [
        "Ġpe",
        -9.590263210831306
      ],
      [
        "vin",
        -9.590936183568363
      ],
      [
        "mÃªs",
        -9.591789626103504
      ],
      [
        "Ġ2020",
        -9.592546695504684
      ],
      [
        "Ġdis",
        -9.593119854132013
      ],
      [
        "Ġcampo",
        -9.59438997210249
      ],
      [
        "ĠPode",
        -9.594839354407055
      ],
      [
        "AÃĩÃĥO",
        -9.594867804371018
      ],
      [
        "agem",
        -9.595133558162312
      ],
      [
        "Ġdez",
        -9.59573565051173
      ],
      [
        "ĠPrimeira",
        -9.595857592513132
      ],
      [
        "podemos",
        -9.595915219664468
      ],
      [
        "PE",
        -9.596222462429356
      ],
      [
        "iniciativa",
        -9.596928099292946
      ],
      [
        "Â²",
        -9.597131940954228
      ],
      [
        "Ġ32",
        -9.59773949107874
      ],
      [
        "nÃŃvel",
        -9.597823656547655
      ],
      [
        "membros",
        -9.597823673303155
      ],
      [
        "ĠComunicaÃ§Ã£o",
        -9.598291767494118
      ],
      [
        "2005",
        -9.59837378922071
      ],
      [
        "taÃ§Ã£o",
        -9.598512635118468
      ],
      [
        "Ġ54",
        -9.59860013193418
      ],
      [
        "ĠCor",
        -9.599193466958145
      ],
      [
        "Ġ2002",
        -9.59947227662059
      ],
      [
        "ĠinglÃªs",
        -9.59955990361456
      ],
      [
        "nho",
        -9.59959270943591
      ],
      [
        "Ġcorpo",
        -9.60033207873133
      ],
      [
        "ServiÃ§o",
        -9.600893944866456
      ],
      [
        "Ġcapital",
        -9.600954774896806
      ],
      [
        "nessa",
        -9.600998846501383
      ],
      [
        "possibilidade",
        -9.601792454706198
      ],
      [
        "ĠBrasileiro",
        -9.602140894246794
      ],
      [
        "var",
        -9.602790883782262
      ],
      [
        "Campeonato",
        -9.604669248798013
      ],
      [
        "Ġnenhum",
        -9.605196775765604
      ],
      [
        "emos",
        -9.60589163344911
      ],
      [
        "Ġajuda",
        -9.606568856105776
      ],
      [
        "48",
        -9.606716316311754
      ],
      [
        "Ġformula",
        -9.606944579801745
      ],
      [
        "Ġficou",
        -9.607635313903485
      ],
      [
        "â",
        -9.60882156645816
      ],
      [
        "prevista",
        -9.60909868755664
      ],
      [
        "Ġ2019",
        -9.609473281092573
      ],
      [
        "ĠREQUERIMENTO",
        -9.609513406603092
      ],
      [
        "DEM",
        -9.610352259523117
      ],
      [
        "carreira",
        -9.610526650124635
      ],
      [
        "Ġentra",
        -9.611602744198168
      ],
      [
        "ĠCorte",
        -9.612370087041745
      ],
      [
        "ĠVice",
        -9.612427595176664
      ],
      [
        "mÃ©rito",
        -9.613325705386442
      ],
      [
        "Ġprova",
        -9.613790539474438
      ],
      [
        "ĠObrigado",
        -9.614182306016254
      ],
      [
        "Ġvir",
        -9.614629062459992
      ],
      [
        "Ġpossui",
        -9.614979119944287
      ],
      [
        "tico",
        -9.615784538973257
      ],
      [
        "cial",
        -9.616377312466623
      ],
      [
        "cos",
        -9.61658635472848
      ],
      [
        "exame",
        -9.617233793786284
      ],
      [
        "37",
        -9.617544442441298
      ],
      [
        "len",
        -9.617547796679244
      ],
      [
        "Ġfi",
        -9.61857988031411
      ],
      [
        "ĠpÃ¡gina",
        -9.619394467136928
      ],
      [
        "Ġbi",
        -9.62039040691725
      ],
      [
        "Ġtemporada",
        -9.6209600461546
      ],
      [
        "ĠInstituto",
        -9.621976620895374
      ],
      [
        "ind",
        -9.623837436800528
      ],
      [
        "Ġprofissional",
        -9.62432158304041
      ],
      [
        "jurÃŃdica",
        -9.625163854887107
      ],
      [
        "ĠprincÃŃpio",
        -9.62522920340929
      ],
      [
        "22",
        -9.625388723009328
      ],
      [
        "bilhÃµes",
        -9.6254861621909
      ],
      [
        "discurso",
        -9.625748325852468
      ],
      [
        "ĠAmÃ©rica",
        -9.626314855883177
      ],
      [
        "ĠquÃª",
        -9.626439961786357
      ],
      [
        "Ġefeito",
        -9.627178908753272
      ],
      [
        "ME",
        -9.627956253629812
      ],
      [
        "Ġanterior",
        -9.628137005539012
      ],
      [
        "net",
        -9.628189056411475
      ],
      [
        "tornou",
        -9.62837279882109
      ],
      [
        "Ġmar",
        -9.628536949009067
      ],
      [
        "ĠExcelÃªncia",
        -9.628769927300832
      ],
      [
        "2019",
        -9.628814487331686
      ],
      [
        "ĠCosta",
        -9.629408443775793
      ],
      [
        "Ġsenhor",
        -9.62952206631407
      ],
      [
        "Ã¢mbito",
        -9.63061081927136
      ],
      [
        "TambÃ©m",
        -9.63097603268221
      ],
      [
        "iro",
        -9.631262627647043
      ],
      [
        "Ġexiste",
        -9.631743450030472
      ],
      [
        "Ġvigor",
        -9.63193858365472
      ],
      [
        "ĠCan",
        -9.632368052388983
      ],
      [
        "serem",
        -9.634802051038326
      ],
      [
        "ĠAb",
        -9.635046209970064
      ],
      [
        "ĠCunha",
        -9.63589317356963
      ],
      [
        "ano",
        -9.635923387518025
      ],
      [
        "mandato",
        -9.636190921849844
      ],
      [
        "Ġcampanha",
        -9.636299236508144
      ],
      [
        "Ġpauta",
        -9.63701287274887
      ],
      [
        "obras",
        -9.638450667899612
      ],
      [
        "comeÃ§ou",
        -9.639145017608143
      ],
      [
        "36",
        -9.64032469793115
      ],
      [
        "Ġcerteza",
        -9.641210772880736
      ],
      [
        "Ġ2000",
        -9.641750280407862
      ],
      [
        "Ġchegar",
        -9.642362813617332
      ],
      [
        "Ġpo",
        -9.643036549449503
      ],
      [
        "Ġprojetos",
        -9.643711273473205
      ],
      [
        "Ġapresenta",
        -9.643973037981931
      ],
      [
        "port",
        -9.645271702583296
      ],
      [
        "ĠTi",
        -9.645641592086369
      ],
      [
        "Ġestrutura",
        -9.645820348528726
      ],
      [
        "Depois",
        -9.645917566002147
      ],
      [
        "Ġtitular",
        -9.646166675842244
      ],
      [
        "OR",
        -9.646664770325824
      ],
      [
        "ĠCi",
        -9.646886428071005
      ],
      [
        "valores",
        -9.648569075178187
      ],
      [
        "nÃ£o",
        -9.648675638556652
      ],
      [
        "ĠRel",
        -9.649286351666737
      ],
      [
        "ÃļLTI",
        -9.6492960536624
      ],
      [
        "Ġtransporte",
        -9.649400136206484
      ],
      [
        "Ġsede",
        -9.64972341559688
      ],
      [
        "Ġfederal",
        -9.649956386059646
      ],
      [
        "Ġoriginal",
        -9.650426353129138
      ],
      [
        "ĠRequerimento",
        -9.650445739797489
      ],
      [
        "38",
        -9.6504946774015
      ],
      [
        "ĠGuerra",
        -9.651470590896157
      ],
      [
        "Ġresultado",
        -9.651553331716848
      ],
      [
        "ador",
        -9.65251624598433
      ],
      [
        "ĠalguÃ©m",
        -9.65363746353792
      ],
      [
        "ĠaplicaÃ§Ã£o",
        -9.65387588259079
      ],
      [
        "ĠPA",
        -9.654186252343267
      ],
      [
        "Ġrealizado",
        -9.655650396270902
      ],
      [
        "ĠterritÃ³rio",
        -9.65681151696937
      ],
      [
        "Ġ2001",
        -9.656969346781697
      ],
      [
        "val",
        -9.658331598297169
      ],
      [
        "Ġprincipais",
        -9.658371795119034
      ],
      [
        "Ġhaver",
        -9.65944829654048
      ],
      [
        "ĠSecretaria",
        -9.660307568129182
      ],
      [
        "ĠTV",
        -9.663213096432742
      ],
      [
        "ÃĩÃķES",
        -9.663598581221766
      ],
      [
        "2017",
        -9.665721909756698
      ],
      [
        "Ġautos",
        -9.66603568788466
      ],
      [
        "comunicaÃ§Ã£o",
        -9.667376638821889
      ],
      [
        "CURSO",
        -9.667402020773276
      ],
      [
        "Ã³rgÃ£o",
        -9.667668742342068
      ],
      [
        "Ġclaro",
        -9.66768297278451
      ],
      [
        "Ġrenda",
        -9.668125213083393
      ],
      [
        "Ġinfra",
        -9.668387195658829
      ],
      [
        "Ġaquele",
        -9.669436693693315
      ],
      [
        "Ġmovimento",
        -9.67026739790825
      ],
      [
        "Ġnobre",
        -9.670350251739778
      ],
      [
        "ĠFo",
        -9.670403329931387
      ],
      [
        "ĠinformaÃ§Ã£o",
        -9.671438030874352
      ],
      [
        "ĠespaÃ§o",
        -9.672602364757216
      ],
      [
        "Ġideia",
        -9.67273116725003
      ],
      [
        "Ġconsiderado",
        -9.674590223668869
      ],
      [
        "Ġlogo",
        -9.674987168116596
      ],
      [
        "Ġcrise",
        -9.675129120532478
      ],
      [
        "Ġperde",
        -9.677577205902743
      ],
      [
        "ff",
        -9.67760287615751
      ],
      [
        "60",
        -9.678360014780464
      ],
      [
        "Ġnatureza",
        -9.67838443617846
      ],
      [
        "Ġpontos",
        -9.679040734215723
      ],
      [
        "deverÃ¡",
        -9.6795818935296
      ],
      [
        "apreciaÃ§Ã£o",
        -9.680714053469211
      ],
      [
        "Ġturno",
        -9.68342380134954
      ],
      [
        "Ġfase",
        -9.683714373532732
      ],
      [
        "ĠQuero",
        -9.685245307541074
      ],
      [
        "Ġencontra",
        -9.685991951348662
      ],
      [
        "ĠDu",
        -9.686346954072828
      ],
      [
        "Ġalta",
        -9.687008216139429
      ],
      [
        "fica",
        -9.687541658012352
      ],
      [
        "Ġtra",
        -9.688027867892238
      ],
      [
        "ĠEles",
        -9.688487341001991
      ],
      [
        "ĠBar",
        -9.688649441074569
      ],
      [
        "eiro",
        -9.68903658284778
      ],
      [
        "Ġlivre",
        -9.68984573904625
      ],
      [
        "ĠatenÃ§Ã£o",
        -9.689921077270649
      ],
      [
        "Ġreal",
        -9.691353445504776
      ],
      [
        "ĠCopa",
        -9.693104962613129
      ],
      [
        "ĠQuem",
        -9.69332689879031
      ],
      [
        "let",
        -9.693756458895052
      ],
      [
        "vel",
        -9.695184574185012
      ],
      [
        "provimento",
        -9.695391254235451
      ],
      [
        "tem",
        -9.69626981479791
      ],
      [
        "..............",
        -9.696578673635514
      ],
      [
        "Ordem",
        -9.697232102557727
      ],
      [
        "ĠRicardo",
        -9.697393321400511
      ],
      [
        "rÃ£o",
        -9.697435457199202
      ],
      [
        "chegou",
        -9.699349827541331
      ],
      [
        "Ġrede",
        -9.703962215461246
      ],
      [
        "Ġ1998",
        -9.704219102385856
      ],
      [
        "ĠSistema",
        -9.70432561803498
      ],
      [
        "Ġteria",
        -9.704590278574171
      ],
      [
        "Ġautoria",
        -9.704776855637087
      ],
      [
        "Ġporta",
        -9.70498239587448
      ],
      [
        "ĠAlves",
        -9.70518314722232
      ],
      [
        "ĠRi",
        -9.706117274437135
      ],
      [
        "mas",
        -9.706836733120436
      ],
      [
        "Ġdiferentes",
        -9.70719857843801
      ],
      [
        "RO",
        -9.707232674915852
      ],
      [
        "55",
        -9.70731633894622
      ],
      [
        "ĠMIN",
        -9.707757664542632
      ],
      [
        "Ġcaput",
        -9.70886167341022
      ],
      [
        "ĠEspecial",
        -9.709179209189765
      ],
      [
        "existÃªncia",
        -9.710088436371784
      ],
      [
        "Ġsucesso",
        -9.711018232358166
      ],
      [
        "ĠHenrique",
        -9.71144284041056
      ],
      [
        "Ġpenal",
        -9.711704323979228
      ],
      [
        "ĠMINISTR",
        -9.71199382614608
      ],
      [
        "Ġmarca",
        -9.71262962177504
      ],
      [
        "ĠAGRAV",
        -9.713198836167251
      ],
      [
        "nado",
        -9.713326030176942
      ],
      [
        "ĠSanto",
        -9.713569314803143
      ],
      [
        "Ġ2018",
        -9.715509290686516
      ],
      [
        "ĠPereira",
        -9.716003738199872
      ],
      [
        "Ġcriar",
        -9.718196398435978
      ],
      [
        "bilidade",
        -9.718897034190938
      ],
      [
        "Ġquer",
        -9.719023602790196
      ],
      [
        "aram",
        -9.719848631769365
      ],
      [
        "FI",
        -9.720204025167762
      ],
      [
        "ĠSantos",
        -9.721521227625397
      ],
      [
        "ral",
        -9.721682682761116
      ],
      [
        "ĠDias",
        -9.722598964464888
      ],
      [
        "33",
        -9.7236250656552
      ],
      [
        "Ġguerra",
        -9.7244255044918
      ],
      [
        "ĠSi",
        -9.725173921858229
      ],
      [
        "ĠformaÃ§Ã£o",
        -9.725465326678524
      ],
      [
        "ĠÃºnica",
        -9.726233496551249
      ],
      [
        "Ġmenor",
        -9.727555798591302
      ],
      [
        "acima",
        -9.728108348935931
      ],
      [
        "Cidadania",
        -9.72835547972224
      ],
      [
        "Ã¡veis",
        -9.730839034923576
      ],
      [
        "ĠMais",
        -9.731432974643308
      ],
      [
        "ste",
        -9.732041249877206
      ],
      [
        "ĠEst",
        -9.732703409131323
      ],
      [
        "PolÃŃcia",
        -9.732710056175716
      ],
      [
        "gem",
        -9.73303257928029
      ],
      [
        "for",
        -9.734098038084188
      ],
      [
        "CI",
        -9.734236720391822
      ],
      [
        "cujo",
        -9.73441506698266
      ],
      [
        "Ġsul",
        -9.735033084906243
      ],
      [
        "21",
        -9.73519178875816
      ],
      [
        "Ġplano",
        -9.735254047274108
      ],
      [
        "Ã³rgÃ£os",
        -9.735702132765166
      ],
      [
        "Ġinternacional",
        -9.735777096312608
      ],
      [
        "Ģ",
        -9.73596871488336
      ],
      [
        "24",
        -9.736071107263877
      ],
      [
        "Ġfinanceira",
        -9.736642174166947
      ],
      [
        "ĥ",
        -9.737188272557953
      ],
      [
        "2006",
        -9.737251403890069
      ],
      [
        "ĠDes",
        -9.737866330340973
      ],
      [
        "CO",
        -9.740275306617184
      ],
      [
        "bar",
        -9.741602623733508
      ],
      [
        "trabalhadores",
        -9.742205142727425
      ],
      [
        "ĠDireito",
        -9.742428875353903
      ],
      [
        "ĠPorto",
        -9.744361028813112
      ],
      [
        "Ġauto",
        -9.745721316069426
      ],
      [
        "34",
        -9.745880894372782
      ],
      [
        "Ġrei",
        -9.747421927180884
      ],
      [
        "tÃ³rio",
        -9.747434381098438
      ],
      [
        "ologia",
        -9.747469364269316
      ],
      [
        "Medida",
        -9.747921491185844
      ],
      [
        "destaque",
        -9.748199650279735
      ],
      [
        "Ġcomunidade",
        -9.748485220990858
      ],
      [
        "23",
        -9.748717631645489
      ],
      [
        "gestÃ£o",
        -9.752095971215972
      ],
      [
        "mediante",
        -9.752325402471705
      ],
      [
        "ĠDilma",
        -9.752400554914963
      ],
      [
        "Ġ35",
        -9.75281615473269
      ],
      [
        "recebeu",
        -9.753313749860183
      ],
      [
        "Ġprofessor",
        -9.75412225658098
      ],
      [
        "ĠHi",
        -9.754713454808654
      ],
      [
        "Ġ33",
        -9.755269236381205
      ],
      [
        "Ġcaminho",
        -9.755511232276897
      ],
      [
        "tic",
        -9.7556747291252
      ],
      [
        "ĠmÃ£o",
        -9.75572273225625
      ],
      [
        "realmente",
        -9.756493436497813
      ],
      [
        "Ġnota",
        -9.756871048763015
      ],
      [
        "ĠirmÃ£o",
        -9.757388307742325
      ],
      [
        "pensado",
        -9.7575344908029
      ],
      [
        "ĠinstituiÃ§Ãµes",
        -9.758077603138751
      ],
      [
        "ĠVou",
        -9.75983586029998
      ],
      [
        "ĠBanco",
        -9.761016159082017
      ],
      [
        "39",
        -9.761399093200705
      ],
      [
        "ĠMeu",
        -9.762142148239114
      ],
      [
        "Ġatendimento",
        -9.762600781475824
      ],
      [
        "essÃµes",
        -9.76288388018017
      ],
      [
        "contrÃ¡rio",
        -9.763540058930555
      ],
      [
        "ban",
        -9.76354998823763
      ],
      [
        "Î",
        -9.763592722431136
      ],
      [
        "ĠposiÃ§Ã£o",
        -9.763600655745464
      ],
      [
        "iti",
        -9.763954000244803
      ],
      [
        "parÃ¡grafo",
        -9.764467272374478
      ],
      [
        "cuja",
        -9.76616631693038
      ],
      [
        "Ġ60",
        -9.766643209636827
      ],
      [
        "Ġsuper",
        -9.766675595145902
      ],
      [
        "ĠSub",
        -9.76833045959266
      ],
      [
        "ĠParlamentar",
        -9.769130109625102
      ],
      [
        "ĠEra",
        -9.77080522849324
      ],
      [
        "ĠNesse",
        -9.771922160371854
      ],
      [
        "ĠPSD",
        -9.771968512572116
      ],
      [
        "cional",
        -9.772360916483244
      ],
      [
        "ĠRosa",
        -9.77286544950053
      ],
      [
        "Ġdesses",
        -9.77347584629648
      ],
      [
        "land",
        -9.77427404425152
      ],
      [
        "Ġpequeno",
        -9.774688903465094
      ],
      [
        "Ġdela",
        -9.77478788643688
      ],
      [
        "category",
        -9.774843754314356
      ],
      [
        "posiÃ§Ãµes",
        -9.775154762997028
      ],
      [
        "ĠHistÃ³ria",
        -9.775592141210597
      ],
      [
        "ĠOh",
        -9.775789056158295
      ],
      [
        "ã",
        -9.77628206909097
      ],
      [
        "49",
        -9.776878491579522
      ],
      [
        "rin",
        -9.777799000211251
      ],
      [
        "Ġrefere",
        -9.779277150196716
      ],
      [
        "Ġresposta",
        -9.78020470069717
      ],
      [
        "Ġmanter",
        -9.781805102681592
      ],
      [
        "ĠlanÃ§ado",
        -9.782699123807316
      ],
      [
        "Ã",
        -9.783062540628585
      ],
      [
        "critÃ©rio",
        -9.7837726215497
      ],
      [
        "nas",
        -9.783795567280604
      ],
      [
        "remos",
        -9.783924004852114
      ],
      [
        "Ġsolicita",
        -9.783968680892992
      ],
      [
        "ĠMarcelo",
        -9.785050826485469
      ],
      [
        "violÃªncia",
        -9.78530725087375
      ],
      [
        "Ġclube",
        -9.78549478958137
      ],
      [
        "Ġcultura",
        -9.78606404802714
      ],
      [
        "ĠFundo",
        -9.786736006793715
      ],
      [
        "Gerais",
        -9.787226605884795
      ],
      [
        "Ġseis",
        -9.788012975767726
      ],
      [
        "LA",
        -9.788334465979736
      ],
      [
        "44",
        -9.788444776543756
      ],
      [
        "Durante",
        -9.789127479902444
      ],
      [
        "59",
        -9.789382031403193
      ],
      [
        "preÃ§o",
        -9.790073191270723
      ],
      [
        "ley",
        -9.790094459948234
      ],
      [
        "Ġcapacidade",
        -9.790242246704658
      ],
      [
        "menta",
        -9.790966269872976
      ],
      [
        "nada",
        -9.792050909046385
      ],
      [
        "Ġliberdade",
        -9.792830631143245
      ],
      [
        "Ġnovos",
        -9.793164250666706
      ],
      [
        "Ġsignifica",
        -9.794066817798903
      ],
      [
        "PAULO",
        -9.795020834703983
      ],
      [
        "devem",
        -9.796181398051004
      ],
      [
        "ĠRÃ¡dio",
        -9.796219339167266
      ],
      [
        "ĠGu",
        -9.797390453906392
      ],
      [
        "homens",
        -9.798572478281695
      ],
      [
        "Ġcivil",
        -9.799434144764982
      ],
      [
        "ĠBahia",
        -9.799508729365986
      ],
      [
        "ĠCol",
        -9.799527749493668
      ],
      [
        "ĠGi",
        -9.79982444614037
      ],
      [
        "ĠPE",
        -9.80000545934416
      ],
      [
        "ĠBrasileira",
        -9.80152248331576
      ],
      [
        "ĠCO",
        -9.801950083010704
      ],
      [
        "risco",
        -9.803514408810605
      ],
      [
        "Ġfiz",
        -9.80391767192735
      ],
      [
        "56",
        -9.804058631794629
      ],
      [
        "Ġexecutar",
        -9.804082888693712
      ],
      [
        "normas",
        -9.805256480650884
      ],
      [
        "ĠresponsÃ¡vel",
        -9.80705902336106
      ],
      [
        "Ġterceiro",
        -9.807094555331826
      ],
      [
        "Ġmaterial",
        -9.80729164785632
      ],
      [
        "Ġdiversos",
        -9.80761094005805
      ],
      [
        "ĠLima",
        -9.807764058166716
      ],
      [
        "ĠSan",
        -9.807886681940776
      ],
      [
        "Ġvotar",
        -9.807908146175803
      ],
      [
        "servidores",
        -9.80815574164458
      ],
      [
        "proteÃ§Ã£o",
        -9.808748128286226
      ],
      [
        "maiores",
        -9.808977949006156
      ],
      [
        "ĠSENHOR",
        -9.81091965639291
      ],
      [
        "SOL",
        -9.81118741126123
      ],
      [
        "ĠADV",
        -9.811384631971388
      ],
      [
        "Ġincluindo",
        -9.81158331163764
      ],
      [
        "Ġchamada",
        -9.81198856333426
      ],
      [
        "Ġambiente",
        -9.812298764676882
      ],
      [
        "produtos",
        -9.812426664346118
      ],
      [
        "ĠMundial",
        -9.81332908792826
      ],
      [
        "80",
        -9.81441621785666
      ],
      [
        "Ġisto",
        -9.81448140307291
      ],
      [
        "ProvisÃ³ria",
        -9.814613212693168
      ],
      [
        "Ġcons",
        -9.814835826555178
      ],
      [
        "ĠEl",
        -9.815530512574744
      ],
      [
        "Ġestudo",
        -9.81610663460102
      ],
      [
        "ĠJorge",
        -9.816522838365543
      ],
      [
        "ĠAdministraÃ§Ã£o",
        -9.816524282365489
      ],
      [
        "Ġvia",
        -9.817970259258551
      ],
      [
        "pressÃ£o",
        -9.818326885928428
      ],
      [
        "Ġtrabalhos",
        -9.818417323573415
      ],
      [
        "IN",
        -9.819654163928227
      ],
      [
        "ĠCha",
        -9.822128550855952
      ],
      [
        "Ġamor",
        -9.82281299656565
      ],
      [
        "Ġelas",
        -9.82395448662758
      ],
      [
        "medidas",
        -9.824967185468145
      ],
      [
        "NE",
        -9.82519898928558
      ],
      [
        "Ainda",
        -9.825678374705786
      ],
      [
        "Ġprofissionais",
        -9.826159951229954
      ],
      [
        "Ġdiversas",
        -9.826166991437258
      ],
      [
        "ĠInternacional",
        -9.826328666256424
      ],
      [
        "tratamento",
        -9.826718081465998
      ],
      [
        "Ġchega",
        -9.82752554115107
      ],
      [
        "Ġci",
        -9.828388145976245
      ],
      [
        "lia",
        -9.828425974499265
      ],
      [
        "ĠâĢĺ",
        -9.82850674430832
      ],
      [
        "Ġcabe",
        -9.82872025616744
      ],
      [
        "ĠMendes",
        -9.829592338979667
      ],
      [
        "iano",
        -9.829912823226495
      ],
      [
        "Ġartigos",
        -9.830973862324218
      ],
      [
        "Ġamigo",
        -9.831467001382212
      ],
      [
        "ĠTudo",
        -9.832976046708316
      ],
      [
        "gostaria",
        -9.833637898089586
      ],
      [
        "ego",
        -9.835591809029216
      ],
      [
        "Ġeleito",
        -9.835886278040862
      ],
      [
        "Ġreceber",
        -9.835968507581573
      ],
      [
        "ĠKi",
        -9.836738698443472
      ],
      [
        "Ġfr",
        -9.836880988754285
      ],
      [
        "lan",
        -9.837787033288189
      ],
      [
        "tel",
        -9.837822682363337
      ],
      [
        "Ġ1997",
        -9.83796744415052
      ],
      [
        "RJ",
        -9.837989899262537
      ],
      [
        "ĠEntre",
        -9.838257818602804
      ],
      [
        "seguintes",
        -9.839905919907666
      ],
      [
        "ĠeconÃ´mico",
        -9.839908626294076
      ],
      [
        "ĠCl",
        -9.841034789065729
      ],
      [
        "Ĥ",
        -9.842890290151038
      ],
      [
        "cada",
        -9.843357336287715
      ],
      [
        "ĠBA",
        -9.843919742235906
      ],
      [
        "reduÃ§Ã£o",
        -9.844075518237457
      ],
      [
        "econÃ´mica",
        -9.84444390374024
      ],
      [
        "2003",
        -9.844590238605331
      ],
      [
        "Lei",
        -9.845547626605772
      ],
      [
        "Ġgarantia",
        -9.845583495728947
      ],
      [
        "PCdoB",
        -9.846770893283502
      ],
      [
        "ento",
        -9.847061884489488
      ],
      [
        "ĠAta",
        -9.847534951203832
      ],
      [
        "Ġdiretor",
        -9.847809329766166
      ],
      [
        "Ġcumprimento",
        -9.848126559131137
      ],
      [
        "Ġfundamental",
        -9.84987472861912
      ],
      [
        "Ġautoridade",
        -9.8500907339805
      ],
      [
        "ĠVoss",
        -9.85091282668922
      ],
      [
        "MENTO",
        -9.85115316253234
      ],
      [
        "Ġfuturo",
        -9.85214663111529
      ],
      [
        "Ġdeles",
        -9.85465025551674
      ],
      [
        "Ġevento",
        -9.855366309894832
      ],
      [
        "ĠBen",
        -9.856606094405752
      ],
      [
        "Ġfins",
        -9.856938481983326
      ],
      [
        "Of",
        -9.85773374724132
      ],
      [
        "ĠGovernador",
        -9.858434649793692
      ],
      [
        "Ġnenhuma",
        -9.858751423157374
      ],
      [
        "Ġmuita",
        -9.858974778567251
      ],
      [
        "pronunciamento",
        -9.860858986640258
      ],
      [
        "Ġpassar",
        -9.861133205297849
      ],
      [
        "Ġnatural",
        -9.86151286896804
      ],
      [
        "Ġapresentada",
        -9.862093391829813
      ],
      [
        "94",
        -9.864334199737
      ],
      [
        "PP",
        -9.864750654340748
      ],
      [
        "IA",
        -9.865023231005097
      ],
      [
        "Ġalto",
        -9.865164760995963
      ],
      [
        "porÃ©",
        -9.866221074740428
      ],
      [
        "Ġtaxa",
        -9.867427319514004
      ],
      [
        "Ġpar",
        -9.868685196377989
      ],
      [
        "ĠAcho",
        -9.868787210802656
      ],
      [
        "47",
        -9.869417473549683
      ],
      [
        "ĠFl",
        -9.86963002097828
      ],
      [
        "Ġmilitar",
        -9.870136012862169
      ],
      [
        "ĠMA",
        -9.871406852493108
      ],
      [
        "ice",
        -9.872279531777489
      ],
      [
        "Ġusar",
        -9.872814971680905
      ],
      [
        "ĠSuperior",
        -9.873701973082664
      ],
      [
        "Ġcategoria",
        -9.873706123670663
      ],
      [
        "Ġbo",
        -9.874153616799733
      ],
      [
        "substituiÃ§Ã£o",
        -9.874554464255176
      ],
      [
        "Ġcentro",
        -9.875181659333611
      ],
      [
        "vol",
        -9.87537750067218
      ],
      [
        "Ġcrescimento",
        -9.87581385804001
      ],
      [
        "57",
        -9.875935992415444
      ],
      [
        "Ġcar",
        -9.876211804363662
      ],
      [
        "Ġnovas",
        -9.876302672858085
      ],
      [
        "Ġcriado",
        -9.87888919633143
      ],
      [
        "NI",
        -9.878971882706514
      ],
      [
        "ĠSal",
        -9.879317690699118
      ],
      [
        "Ġapresentar",
        -9.880449466946455
      ],
      [
        "Ġnaquel",
        -9.881184259338449
      ],
      [
        "hipÃ³tese",
        -9.88292547045741
      ],
      [
        "Ġinstrumento",
        -9.884160921199914
      ],
      [
        "Ġsonora",
        -9.88427351644936
      ],
      [
        "entidades",
        -9.886465919588876
      ],
      [
        "Ġsimples",
        -9.88700405313288
      ],
      [
        "ARDO",
        -9.887296454768546
      ],
      [
        "Ġmostra",
        -9.887825546285686
      ],
      [
        "ĠEXTRAORDINÃģRI",
        -9.888239780345993
      ],
      [
        "Í",
        -9.888255699402224
      ],
      [
        "Ġconsegui",
        -9.888555271288846
      ],
      [
        "ĠVoto",
        -9.888597044399884
      ],
      [
        "Ġocorre",
        -9.88862683467874
      ],
      [
        "ĠCentro",
        -9.889529486630712
      ],
      [
        "ĠvocÃªs",
        -9.889807666305227
      ],
      [
        "ĠPmdbP",
        -9.889934382754058
      ],
      [
        "Ġajudar",
        -9.889935446152617
      ],
      [
        "Ġvisita",
        -9.891254190701025
      ],
      [
        "ara",
        -9.891832373052036
      ],
      [
        "van",
        -9.89203650286508
      ],
      [
        "Ġimposto",
        -9.892059851286628
      ],
      [
        "Ġdeixo",
        -9.893294322932636
      ],
      [
        "REG",
        -9.894523146821424
      ],
      [
        "audiÃªncia",
        -9.894910745623037
      ],
      [
        "Ġres",
        -9.89520101464358
      ],
      [
        "BA",
        -9.896617225231306
      ],
      [
        "Ġcusto",
        -9.896993380523538
      ],
      [
        "ĠAna",
        -9.89849371987222
      ],
      [
        "gan",
        -9.90001501980326
      ],
      [
        "ĠCampos",
        -9.900225683007706
      ],
      [
        "Ġfundo",
        -9.900623705531135
      ],
      [
        "pes",
        -9.9015512414262
      ],
      [
        "ĠLt",
        -9.902341108854603
      ],
      [
        "Ġtribuna",
        -9.903438714452136
      ],
      [
        "ĠninguÃ©m",
        -9.903509752531493
      ],
      [
        "ĠCE",
        -9.90373736140891
      ],
      [
        "verÃ£o",
        -9.90416470218
      ],
      [
        "2004",
        -9.904626528392184
      ],
      [
        "Ġ37",
        -9.904814897370224
      ],
      [
        "Hoje",
        -9.90550033664504
      ],
      [
        "ĠWa",
        -9.906069754326069
      ],
      [
        "Ġcontar",
        -9.90616110081748
      ],
      [
        "shi",
        -9.906327375683803
      ],
      [
        "Ġvo",
        -9.90702831653059
      ],
      [
        "Ġdespes",
        -9.907111030692256
      ],
      [
        "Ġvisto",
        -9.907247030918858
      ],
      [
        "70",
        -9.909036840055649
      ],
      [
        "ĠIgreja",
        -9.909575532500652
      ],
      [
        "ĠPEC",
        -9.910245676578004
      ],
      [
        "ĠterÃ¡",
        -9.911306091384018
      ],
      [
        "iana",
        -9.911565955637212
      ],
      [
        "wa",
        -9.91217944031404
      ],
      [
        "Ġfilhos",
        -9.912284980876334
      ],
      [
        "Ġdiante",
        -9.912343562571008
      ],
      [
        "para",
        -9.913388429538166
      ],
      [
        "pÃºblicos",
        -9.914099041015133
      ],
      [
        "ĠSou",
        -9.914190112654952
      ],
      [
        "ĠadministraÃ§Ã£o",
        -9.91518391429596
      ],
      [
        "54",
        -9.915343501416208
      ],
      [
        "vida",
        -9.915678444115883
      ],
      [
        "Ñ",
        -9.91616008388868
      ],
      [
        "Ã¼",
        -9.916186011006856
      ],
      [
        "Ġ1999",
        -9.916772825396684
      ],
      [
        "ĠTodos",
        -9.916903623357015
      ],
      [
        "designado",
        -9.916984397925011
      ],
      [
        "RS",
        -9.917099023474568
      ],
      [
        "ĠversÃ£o",
        -9.91721182490044
      ],
      [
        "ega",
        -9.918125300134214
      ],
      [
        "Ġespecialmente",
        -9.918222746908372
      ],
      [
        "ĠFranÃ§a",
        -9.918886370563598
      ],
      [
        "Ġestabelece",
        -9.918962304112572
      ],
      [
        "ĠAnex",
        -9.919825799460405
      ],
      [
        "ĠinstituiÃ§Ã£o",
        -9.92060973197123
      ],
      [
        "PFL",
        -9.921090055921042
      ],
      [
        "ĠSecretÃ¡rio",
        -9.922572286448528
      ],
      [
        "ĠlÃŃngua",
        -9.92321092847335
      ],
      [
        "Ġfo",
        -9.923413351466715
      ],
      [
        "ĠCultura",
        -9.92388737514321
      ],
      [
        "essa",
        -9.924062808957238
      ],
      [
        "Ġconhecida",
        -9.924159654152987
      ],
      [
        "Ġcombate",
        -9.92425856440519
      ],
      [
        "juridicidade",
        -9.92435325960071
      ],
      [
        "stÃµes",
        -9.924738804383509
      ],
      [
        "Tenho",
        -9.925135671800186
      ],
      [
        "Ġcurso",
        -9.92661972835495
      ],
      [
        "Ġfutebol",
        -9.927050764165273
      ],
      [
        "ĠFEDERAL",
        -9.927265664803198
      ],
      [
        "ĠSrÂª",
        -9.927373431104476
      ],
      [
        "rada",
        -9.92745891402974
      ],
      [
        "bert",
        -9.928064611623402
      ],
      [
        "AR",
        -9.928589938795236
      ],
      [
        "ĠTemer",
        -9.929119651341454
      ],
      [
        "tenham",
        -9.93031458989276
      ],
      [
        "ĠCr",
        -9.93103641956322
      ],
      [
        "ĠBom",
        -9.931040576925527
      ],
      [
        "ĠHer",
        -9.931285147376782
      ],
      [
        "ĠJÃºnior",
        -9.932402831039989
      ],
      [
        "ĠTerra",
        -9.932406926154137
      ],
      [
        "Ġhomenage",
        -9.933423992674388
      ],
      [
        "ĠAqui",
        -9.933450406148442
      ],
      [
        "proposiÃ§Ã£o",
        -9.934553771751302
      ],
      [
        "Ãį",
        -9.934977529423392
      ],
      [
        "Ġsair",
        -9.93528186719192
      ],
      [
        "ĠRJ",
        -9.935699156882064
      ],
      [
        "Ġtermo",
        -9.936398716441438
      ],
      [
        "ĠorganizaÃ§Ã£o",
        -9.936917243801837
      ],
      [
        "Ġbastante",
        -9.936929021429323
      ],
      [
        "Ġrevista",
        -9.936986503703992
      ],
      [
        "Ġfilha",
        -9.937359727291236
      ],
      [
        "pur",
        -9.938117121606483
      ],
      [
        "bel",
        -9.938147033709672
      ],
      [
        "IO",
        -9.938598081842692
      ],
      [
        "ĠRibeiro",
        -9.939633266636768
      ],
      [
        "Ġaprovada",
        -9.94137079748252
      ],
      [
        "indo",
        -9.941460452652471
      ],
      [
        "comunitÃ¡ria",
        -9.941641412908062
      ],
      [
        "Ġpublicado",
        -9.941894758300933
      ],
      [
        "Ġrealidade",
        -9.943592062617777
      ],
      [
        "tudo",
        -9.94361858449444
      ],
      [
        "conteÃºdo",
        -9.944290663427145
      ],
      [
        "prisÃ£o",
        -9.944817146742794
      ],
      [
        "Ġautoriza",
        -9.944966906689984
      ],
      [
        "ĠprÃ³xima",
        -9.945226374022669
      ],
      [
        "93",
        -9.94525182930775
      ],
      [
        "Ġgarantir",
        -9.945543730643465
      ],
      [
        "autorizaÃ§Ã£o",
        -9.94564660350718
      ],
      [
        "Ġjornal",
        -9.945724749392204
      ],
      [
        "PL",
        -9.946009150384263
      ],
      [
        "afirmou",
        -9.94606330300396
      ],
      [
        "Ã¢ncia",
        -9.946147250025104
      ],
      [
        "mont",
        -9.947115149064892
      ],
      [
        "seguida",
        -9.947642113205426
      ],
      [
        "ty",
        -9.947706694021887
      ],
      [
        "Ġafirma",
        -9.948131961225736
      ],
      [
        "bancada",
        -9.948698056945728
      ],
      [
        "Ġimporta",
        -9.950298505002984
      ],
      [
        "Ġapresentado",
        -9.95070526619956
      ],
      [
        "zada",
        -9.951838773336087
      ],
      [
        "Ġnovamente",
        -9.952118497256372
      ],
      [
        "pol",
        -9.95250700843608
      ],
      [
        "95",
        -9.954107648710552
      ],
      [
        "by",
        -9.954575773524672
      ],
      [
        "Ġrecebe",
        -9.954825106457806
      ],
      [
        "jovens",
        -9.957041829676331
      ],
      [
        "ĠMor",
        -9.957401192174895
      ],
      [
        "Ġtrabalhar",
        -9.958009336750283
      ],
      [
        "Ġclasse",
        -9.958574642151977
      ],
      [
        "atuaÃ§Ã£o",
        -9.958632418824704
      ],
      [
        "ĠLÃºci",
        -9.959143508574336
      ],
      [
        "rim",
        -9.959422033095413
      ],
      [
        "ĠSegunda",
        -9.960480612851356
      ],
      [
        "ĠJohn",
        -9.961640659771112
      ],
      [
        "58",
        -9.962331479426222
      ],
      [
        "ĠVale",
        -9.96258747101187
      ],
      [
        "âĢĳ",
        -9.963157088211162
      ],
      [
        "Ġfiscal",
        -9.964175329743396
      ],
      [
        "URMA",
        -9.964728233158713
      ],
      [
        "Ġ70",
        -9.965440186579848
      ],
      [
        "ĠInformÃ¡tica",
        -9.966720354592876
      ],
      [
        "ĠAtÃ©",
        -9.967652851456169
      ],
      [
        "ias",
        -9.968390048160389
      ],
      [
        "Ġcomum",
        -9.968494165980204
      ],
      [
        "raÃ§Ã£o",
        -9.968822509651236
      ],
      [
        "Ġreuni",
        -9.969890342999268
      ],
      [
        "Ġmeus",
        -9.969947693801975
      ],
      [
        "Ġparticipar",
        -9.971130042393424
      ],
      [
        "ĠeletrÃ´nico",
        -9.972191037817568
      ],
      [
        "ssem",
        -9.972677135721169
      ],
      [
        "ĠTrata",
        -9.973257427209562
      ],
      [
        "lei",
        -9.974205454387777
      ],
      [
        "ĠcondiÃ§Ã£o",
        -9.974565168148352
      ],
      [
        "Ġvoltar",
        -9.976352983408754
      ],
      [
        "Ġpopular",
        -9.976385835216748
      ],
      [
        "ĠdireÃ§Ã£o",
        -9.977327230606742
      ],
      [
        "emprego",
        -9.977566513001502
      ],
      [
        "ĠcomeÃ§a",
        -9.977621068556202
      ],
      [
        "Ġacha",
        -9.978187603912373
      ],
      [
        "dade",
        -9.979898455690543
      ],
      [
        "Ġlevar",
        -9.980838692186678
      ],
      [
        "cado",
        -9.981803303903952
      ],
      [
        "CH",
        -9.98230568974472
      ],
      [
        "ĠNos",
        -9.982467483902091
      ],
      [
        "Ġtais",
        -9.982535069544827
      ],
      [
        "ĠLocal",
        -9.98285493151906
      ],
      [
        "isto",
        -9.983356568897989
      ],
      [
        "ĠBR",
        -9.983661486361434
      ],
      [
        "ong",
        -9.98369992417758
      ],
      [
        "Ġfedera",
        -9.984162813581738
      ],
      [
        "Ġganho",
        -9.985286408818377
      ],
      [
        "Ġdispositivo",
        -9.9860453133771
      ],
      [
        "ĠtÃ©cnico",
        -9.987845980487252
      ],
      [
        "aqueles",
        -9.987892555482867
      ],
      [
        "bol",
        -9.988836436163156
      ],
      [
        "rico",
        -9.989274744290354
      ],
      [
        "Ġsuficiente",
        -9.989395982555276
      ],
      [
        "her",
        -9.99000299021052
      ],
      [
        "ĠEuropa",
        -9.991018871283403
      ],
      [
        "dÃŃvida",
        -9.991408002366194
      ],
      [
        "visÃ£o",
        -9.991586204074368
      ],
      [
        "Ġquadro",
        -9.991596606667416
      ],
      [
        "Ã¡ria",
        -9.99165592569701
      ],
      [
        "AgR",
        -9.991698653973826
      ],
      [
        "Ġbaixa",
        -9.992217694049708
      ],
      [
        "tec",
        -9.993006614316537
      ],
      [
        "ĠcabeÃ§a",
        -9.993419226470348
      ],
      [
        "indÃºstria",
        -9.993433614010131
      ],
      [
        "til",
        -9.994159880876952
      ],
      [
        "entendimento",
        -9.996502774309008
      ],
      [
        "ĠComplementar",
        -9.99713231096463
      ],
      [
        "entidade",
        -9.99799810104904
      ],
      [
        "IM",
        -9.998475232967076
      ],
      [
        "declaraÃ§Ã£o",
        -9.998662105370125
      ],
      [
        "Ġfaixa",
        -9.998940484490678
      ],
      [
        "razÃµes",
        -10.00011227541751
      ],
      [
        "elo",
        -10.001537684094084
      ],
      [
        "prestaÃ§Ã£o",
        -10.001779210573703
      ],
      [
        "Ġgra",
        -10.002291656941129
      ],
      [
        "Ġsite",
        -10.003168358839975
      ],
      [
        "DEPUTADO",
        -10.003533733488547
      ],
      [
        "comissÃ£o",
        -10.00354199540371
      ],
      [
        "AntÃ´nio",
        -10.00396551627522
      ],
      [
        "NO",
        -10.004255058860464
      ],
      [
        "ung",
        -10.004472968657025
      ],
      [
        "32",
        -10.004801327106977
      ],
      [
        "Ġoutorga",
        -10.004990764922486
      ],
      [
        "Substitutivo",
        -10.005182879255974
      ],
      [
        "Ġnorma",
        -10.005248171607416
      ],
      [
        "Ġministro",
        -10.00717214866715
      ],
      [
        "vÃŃtima",
        -10.007205885134509
      ],
      [
        "Ġcompra",
        -10.00816225801512
      ],
      [
        "ĠParanÃ¡",
        -10.008391373540604
      ],
      [
        "ĠEscola",
        -10.00853949765524
      ],
      [
        "]",
        -10.00855183144304
      ],
      [
        "tina",
        -10.009082260838396
      ],
      [
        "ĠRu",
        -10.009297183541976
      ],
      [
        "ĠportuguÃªs",
        -10.00956619399988
      ],
      [
        "Ġ1996",
        -10.0098947462964
      ],
      [
        "Portaria",
        -10.010250560368302
      ],
      [
        "ĠMato",
        -10.010520816908434
      ],
      [
        "Ġcolocar",
        -10.011255347186587
      ],
      [
        "prejuÃŃz",
        -10.011294986916216
      ],
      [
        "ĠTom",
        -10.011786949657518
      ],
      [
        "ĠPenal",
        -10.012432488561098
      ],
      [
        "ĠmÃ©dico",
        -10.013358329475064
      ],
      [
        "+",
        -10.013414008525444
      ],
      [
        "Primeiro",
        -10.013880225118983
      ],
      [
        "vos",
        -10.013927867112503
      ],
      [
        "[",
        -10.014005232596643
      ],
      [
        "gado",
        -10.014751051053825
      ],
      [
        "Ġgrave",
        -10.016894643572622
      ],
      [
        "SÃ©rgi",
        -10.01718130002122
      ],
      [
        "conformidade",
        -10.017448130946953
      ],
      [
        "NT",
        -10.01790240408787
      ],
      [
        "RelatÃ³rio",
        -10.018436056850932
      ],
      [
        "ĠvitÃ³ria",
        -10.01996564167604
      ],
      [
        "Ġaconteceu",
        -10.019989279252377
      ],
      [
        "2018",
        -10.020038241128471
      ],
      [
        "locais",
        -10.021395800161889
      ],
      [
        "Ġpermite",
        -10.0220006510466
      ],
      [
        "Ġindependente",
        -10.022251202702844
      ],
      [
        "ĠDep",
        -10.024061016369911
      ],
      [
        "ham",
        -10.02509385050696
      ],
      [
        "ĠSol",
        -10.025301766191518
      ],
      [
        "ĠMon",
        -10.025561480547452
      ],
      [
        "ĠreferÃªncia",
        -10.027917353592343
      ],
      [
        "tÃ³ria",
        -10.029396371197052
      ],
      [
        "Ġacerca",
        -10.029683736766394
      ],
      [
        "Ġtratar",
        -10.030472761174554
      ],
      [
        "ĠTra",
        -10.03097316136655
      ],
      [
        "Ł",
        -10.031705804669697
      ],
      [
        "estavam",
        -10.031840227324333
      ],
      [
        "Ġparticular",
        -10.031947917242006
      ],
      [
        "å",
        -10.032054827790525
      ],
      [
        "dado",
        -10.03213789232807
      ],
      [
        "Ġsete",
        -10.032203742921055
      ],
      [
        "talvez",
        -10.033234042992063
      ],
      [
        "ell",
        -10.03335794349056
      ],
      [
        "Ġsol",
        -10.03347417997834
      ],
      [
        "veio",
        -10.03481549000914
      ],
      [
        "salÃ¡rio",
        -10.035123393782644
      ],
      [
        "ģ",
        -10.035506304200634
      ],
      [
        "ĠtelevisÃ£o",
        -10.035646181303402
      ],
      [
        "Ġbaixo",
        -10.036260585801124
      ],
      [
        "ĠapresentaÃ§Ã£o",
        -10.036271442322516
      ],
      [
        "Ġ38",
        -10.036708217931896
      ],
      [
        "Ġ36",
        -10.037255674756198
      ],
      [
        "Ġencontrar",
        -10.038007916090834
      ],
      [
        "idades",
        -10.03889317665278
      ],
      [
        "aquela",
        -10.039790630102836
      ],
      [
        "OfÃŃci",
        -10.040038446953016
      ],
      [
        "PRB",
        -10.041110826431629
      ],
      [
        "ĠGe",
        -10.043320939150751
      ],
      [
        "ĠDOS",
        -10.043464361123949
      ],
      [
        "Ġdessas",
        -10.044001358352698
      ],
      [
        "Ġcontinuar",
        -10.044393544053053
      ],
      [
        "Ġinc",
        -10.045126968916223
      ],
      [
        "Ġabertura",
        -10.045366156335582
      ],
      [
        "CN",
        -10.045841769012018
      ],
      [
        "ĠexperiÃªncia",
        -10.047445912845037
      ],
      [
        "ĠComunitÃ¡ri",
        -10.048043872297464
      ],
      [
        "Ġrepresentante",
        -10.048150672654996
      ],
      [
        "ĠcarÃ¡ter",
        -10.048154913243826
      ],
      [
        "ĠHu",
        -10.049784170051776
      ],
      [
        "ĠdifÃŃcil",
        -10.05003935362829
      ],
      [
        "arÃ¡grafo",
        -10.0510237534507
      ],
      [
        "Ġusado",
        -10.051871267223095
      ],
      [
        "destinada",
        -10.052947826905273
      ],
      [
        "ĠBr",
        -10.05385652504095
      ],
      [
        "SC",
        -10.053879842379784
      ],
      [
        "entrada",
        -10.054416199241109
      ],
      [
        "leiÃ§Ã£o",
        -10.054687376420398
      ],
      [
        "ĠCal",
        -10.055616378455625
      ],
      [
        "ĠvÃª",
        -10.056499971580648
      ],
      [
        "vis",
        -10.056647674958468
      ],
      [
        "ĠPOR",
        -10.057149750897445
      ],
      [
        "MG",
        -10.057191423171544
      ],
      [
        "provisÃ³ria",
        -10.057650268147029
      ],
      [
        "atrÃ¡s",
        -10.05824043987561
      ],
      [
        "Ġdireta",
        -10.059107951336332
      ],
      [
        "manutenÃ§Ã£o",
        -10.059277967354523
      ],
      [
        "soluÃ§Ã£o",
        -10.059328193528769
      ],
      [
        "entes",
        -10.059487465307525
      ],
      [
        "ĠCam",
        -10.061013983358416
      ],
      [
        "ting",
        -10.06108507953284
      ],
      [
        "Ġcomercial",
        -10.062189771708075
      ],
      [
        "ĠTh",
        -10.062478789771186
      ],
      [
        "referido",
        -10.06290904533172
      ],
      [
        "AM",
        -10.062937447481264
      ],
      [
        "ĠPrefeit",
        -10.063215443763577
      ],
      [
        "Certo",
        -10.063427230256051
      ],
      [
        "onde",
        -10.064003702329336
      ],
      [
        "Ġtornar",
        -10.065528068805357
      ],
      [
        "rica",
        -10.065534912888952
      ],
      [
        "ĠdistribuiÃ§Ã£o",
        -10.06700271415314
      ],
      [
        "favorÃ¡vel",
        -10.067649367471049
      ],
      [
        "Ġpais",
        -10.067970765159425
      ],
      [
        "Ġsofre",
        -10.06800317771066
      ],
      [
        "Ġmulta",
        -10.068622563622842
      ],
      [
        "Ġentrar",
        -10.068825320523226
      ],
      [
        "Ġ53",
        -10.06915809368352
      ],
      [
        "legais",
        -10.070833819973195
      ],
      [
        "Ġtorna",
        -10.071776412684253
      ],
      [
        "Ġfonte",
        -10.071835637593416
      ],
      [
        "|",
        -10.072027926327108
      ],
      [
        "\",\"",
        -10.072515844119197
      ],
      [
        "Ġbens",
        -10.072800418123707
      ],
      [
        "PSC",
        -10.073191075178396
      ],
      [
        "Ġaltera",
        -10.075200001025378
      ],
      [
        "efeitos",
        -10.07572916356997
      ],
      [
        "Ġjogos",
        -10.07575805057393
      ],
      [
        "Ġcan",
        -10.075760405541024
      ],
      [
        "apesar",
        -10.076269053106415
      ],
      [
        "ĠPl",
        -10.076335117569574
      ],
      [
        "utilizaÃ§Ã£o",
        -10.076392172919324
      ],
      [
        "aga",
        -10.07654563965486
      ],
      [
        "aÃ§a",
        -10.076873952469654
      ],
      [
        "gal",
        -10.076954290689558
      ],
      [
        "Ġcolega",
        -10.07700033510504
      ],
      [
        "Ġamigos",
        -10.077272433930323
      ],
      [
        "GO",
        -10.077387521701606
      ],
      [
        "Ġarma",
        -10.078244102907703
      ],
      [
        "ĠVal",
        -10.079041660744071
      ],
      [
        "Ġdisco",
        -10.079132360472489
      ],
      [
        "ĠCentral",
        -10.07981034283458
      ],
      [
        "ĠProcesso",
        -10.08005290285986
      ],
      [
        "Ġqu",
        -10.08109751631995
      ],
      [
        "Ġrel",
        -10.081150108211377
      ],
      [
        "Apoio",
        -10.081230581865205
      ],
      [
        "Ptb",
        -10.081732609764838
      ],
      [
        "Celso",
        -10.08173327621065
      ],
      [
        "ance",
        -10.081972296101736
      ],
      [
        "Ġdecreta",
        -10.082088670262667
      ],
      [
        "Ġpequena",
        -10.082264244284657
      ],
      [
        "ĠBl",
        -10.083289211257858
      ],
      [
        "eleiÃ§Ãµes",
        -10.083829853518909
      ],
      [
        "ngel",
        -10.084604555727635
      ],
      [
        "Ġmer",
        -10.08523151554848
      ],
      [
        "Ġreco",
        -10.085493838850525
      ],
      [
        "Ä",
        -10.086335643860044
      ],
      [
        "regiÃµes",
        -10.086360697275122
      ],
      [
        "ĠPROPOSI",
        -10.087543182048655
      ],
      [
        "Ġcento",
        -10.08772367000354
      ],
      [
        "dizendo",
        -10.087891733805051
      ],
      [
        "ori",
        -10.088116669492884
      ],
      [
        "Ġtramita",
        -10.088698175588124
      ],
      [
        "ĠSouza",
        -10.089485977563914
      ],
      [
        "Ã¡reas",
        -10.08969285454093
      ],
      [
        "tÃ©",
        -10.089736594476102
      ],
      [
        "Ġ45",
        -10.08995266967489
      ],
      [
        "Ġtime",
        -10.090114817085135
      ],
      [
        "Ġpermitir",
        -10.09068562651734
      ],
      [
        "Ġdocumentos",
        -10.090693803976764
      ],
      [
        "Ġperto",
        -10.091067828195907
      ],
      [
        "leg",
        -10.091782402441746
      ],
      [
        "Ġperda",
        -10.092370152883303
      ],
      [
        "posto",
        -10.092390217692746
      ],
      [
        "militares",
        -10.092777463217187
      ],
      [
        "±",
        -10.092952818112437
      ],
      [
        "Ġmelhores",
        -10.09389026738563
      ],
      [
        "31",
        -10.095017986827951
      ],
      [
        "ontem",
        -10.095407847849488
      ],
      [
        "ĠGomes",
        -10.095479759408835
      ],
      [
        "ÃŃvel",
        -10.095582966554804
      ],
      [
        "Ġrevela",
        -10.095808538507592
      ],
      [
        "ĠTemo",
        -10.095870942605693
      ],
      [
        "ausÃªncia",
        -10.096112830481143
      ],
      [
        "Ġigual",
        -10.097401227860232
      ],
      [
        "Ġcapaz",
        -10.09752545264362
      ],
      [
        "daquele",
        -10.097665174060646
      ],
      [
        "ĠGrosso",
        -10.097745258256422
      ],
      [
        "Ġinterior",
        -10.09808896579334
      ],
      [
        "ĠMunicipal",
        -10.09813107285451
      ],
      [
        "ĠPlano",
        -10.098223692761035
      ],
      [
        "ĠoperaÃ§Ã£o",
        -10.09827562296371
      ],
      [
        "Estamos",
        -10.098966032797875
      ],
      [
        "diretamente",
        -10.099283651915457
      ],
      [
        "Ġpasso",
        -10.099330435293147
      ],
      [
        "ĠMinistra",
        -10.099459362405506
      ],
      [
        "Ġfazem",
        -10.099903827820576
      ],
      [
        "ĠLopes",
        -10.100407461662504
      ],
      [
        "ĠcanÃ§Ã£o",
        -10.100409172047254
      ],
      [
        "lÃ³gica",
        -10.100633890883746
      ],
      [
        "ĠConced",
        -10.101529516871244
      ],
      [
        "Ġreceita",
        -10.10233616448068
      ],
      [
        "CARLOS",
        -10.10267618599372
      ],
      [
        "ĠMilitar",
        -10.102775556292858
      ],
      [
        "han",
        -10.103258138405485
      ],
      [
        "Ġoito",
        -10.103264865189336
      ],
      [
        "tua",
        -10.10353670099872
      ],
      [
        "ĠRocha",
        -10.103639067792225
      ],
      [
        "Ġconsiderada",
        -10.103923700113535
      ],
      [
        "iam",
        -10.104209631835868
      ],
      [
        "nica",
        -10.104454171199457
      ],
      [
        "Ġdemanda",
        -10.104756402236118
      ],
      [
        "inclusÃ£o",
        -10.105824233271122
      ],
      [
        "Ġacaba",
        -10.107330009666152
      ],
      [
        "ĠvÃŃdeo",
        -10.107831676918622
      ],
      [
        "Ġdiscutir",
        -10.108275168328916
      ],
      [
        "Ġregra",
        -10.108511025079034
      ],
      [
        "aria",
        -10.108624547558122
      ],
      [
        "dar",
        -10.108824050285582
      ],
      [
        "ĠPar",
        -10.10885072925677
      ],
      [
        "sem",
        -10.109517565149496
      ],
      [
        "Ġviola",
        -10.110048628134962
      ],
      [
        "Ġrealizar",
        -10.110449863913564
      ],
      [
        "operaÃ§Ãµes",
        -10.110953365440484
      ],
      [
        "ĠlanÃ§amento",
        -10.111023815840808
      ],
      [
        "GA",
        -10.111550846024327
      ],
      [
        "fico",
        -10.11210598682268
      ],
      [
        "har",
        -10.11218625868528
      ],
      [
        "Ġcerta",
        -10.112653995416975
      ],
      [
        "ker",
        -10.112815152218072
      ],
      [
        "lidade",
        -10.114354933041874
      ],
      [
        "ĠpeÃ§o",
        -10.114634311777944
      ],
      [
        "Ġcria",
        -10.114738390772663
      ],
      [
        "ĠPRO",
        -10.11535146331368
      ],
      [
        "Ġdecidi",
        -10.116408200316249
      ],
      [
        "alunos",
        -10.116683782387256
      ],
      [
        "GERAL",
        -10.117270048662546
      ],
      [
        "iga",
        -10.117349339157482
      ],
      [
        "ĠLista",
        -10.11787463407846
      ],
      [
        "Ġcompromisso",
        -10.11817373721129
      ],
      [
        "nÂº",
        -10.11838809646589
      ],
      [
        "tecnologia",
        -10.118476489084582
      ],
      [
        "Ġadministrativa",
        -10.119252027354603
      ],
      [
        "tual",
        -10.119456480382857
      ],
      [
        "Pausa",
        -10.119495789966956
      ],
      [
        "ĠPorque",
        -10.12027728512806
      ],
      [
        "ĠorÃ§amentÃ¡ria",
        -10.12051635311682
      ],
      [
        "Ġlocalizado",
        -10.120599424259092
      ],
      [
        "ĠCON",
        -10.120875063937916
      ],
      [
        "Ġseguir",
        -10.121677207813866
      ],
      [
        "lla",
        -10.122209442733832
      ],
      [
        "Ġtomar",
        -10.122393194480944
      ],
      [
        "ĠCatarina",
        -10.122644929397577
      ],
      [
        "Ġacabou",
        -10.122663882493873
      ],
      [
        "Ġtentar",
        -10.122685982236684
      ],
      [
        "Ġmetros",
        -10.123616175132938
      ],
      [
        "Ġdiferente",
        -10.124582338317198
      ],
      [
        "ĠmÃ©dio",
        -10.124691561633188
      ],
      [
        "Ġfu",
        -10.124762616589322
      ],
      [
        "Ġjovem",
        -10.124986852909098
      ],
      [
        "exposto",
        -10.12619663552563
      ],
      [
        "ĠJO",
        -10.126280657703669
      ],
      [
        "tados",
        -10.12718349170471
      ],
      [
        "Ġrelativa",
        -10.127420998635843
      ],
      [
        "43",
        -10.127812594944409
      ],
      [
        "xclusividade",
        -10.127994922576269
      ],
      [
        "Ġquarto",
        -10.129979010463956
      ],
      [
        "org",
        -10.13029761930033
      ],
      [
        "tenÃ§Ã£o",
        -10.130373439453155
      ],
      [
        "Ãºmula",
        -10.130888842341538
      ],
      [
        "Ġconseguiu",
        -10.131013690108444
      ],
      [
        "Ġvenda",
        -10.132839380914758
      ],
      [
        "ĠVeja",
        -10.132863097846611
      ],
      [
        "Ġ80",
        -10.133023633969778
      ],
      [
        "ĠSer",
        -10.133075377172148
      ],
      [
        "Apesar",
        -10.13314557629652
      ],
      [
        "esforÃ§o",
        -10.133240807496469
      ],
      [
        "tido",
        -10.133992997241158
      ],
      [
        "ĠdiferenÃ§a",
        -10.134497925421082
      ],
      [
        "Ġescolas",
        -10.1348902715042
      ],
      [
        "cat",
        -10.135928913030924
      ],
      [
        "Ġpropriedade",
        -10.1375559629588
      ],
      [
        "ĠLUIZ",
        -10.137760093683942
      ],
      [
        "ĠChi",
        -10.13838479663136
      ],
      [
        "estabelecimento",
        -10.1383898635744
      ],
      [
        "privada",
        -10.138523634073444
      ],
      [
        "Ġdisputa",
        -10.138582680141438
      ],
      [
        "Ġfinanciamento",
        -10.139689209298304
      ],
      [
        "Ġaprova",
        -10.139695713562794
      ],
      [
        "Ġimprensa",
        -10.139866298689556
      ],
      [
        "Ġquantidade",
        -10.140073529695508
      ],
      [
        "falando",
        -10.142722599594714
      ],
      [
        "ĠCONSTITUIÃĩÃĥO",
        -10.1428212127651
      ],
      [
        "ĠSabe",
        -10.144226027742466
      ],
      [
        "Ġ1991",
        -10.144521124860388
      ],
      [
        "ĠReal",
        -10.144660072166202
      ],
      [
        "Ġquarta",
        -10.145264853426994
      ],
      [
        "PPS",
        -10.145999109053967
      ],
      [
        "Ġvale",
        -10.1462983923213
      ],
      [
        "ĠFica",
        -10.146605980381178
      ],
      [
        "DF",
        -10.146719256143284
      ],
      [
        "Ġentrega",
        -10.14702781257956
      ],
      [
        "motivo",
        -10.14712861919375
      ],
      [
        "plenÃ¡rio",
        -10.147182640428053
      ],
      [
        "Ġestudos",
        -10.14721965608657
      ],
      [
        "Ġhonra",
        -10.147566309653614
      ],
      [
        "Ġcarro",
        -10.14811317138814
      ],
      [
        "ĠPr",
        -10.1481683656453
      ],
      [
        "ejeiÃ§Ã£o",
        -10.1493500768973
      ],
      [
        "Ġmedi",
        -10.149432336069935
      ],
      [
        "Ġpagar",
        -10.149744196296572
      ],
      [
        "ĠAL",
        -10.15075785605607
      ],
      [
        "ĠDiretor",
        -10.151468103787776
      ],
      [
        "NR",
        -10.151886395114657
      ],
      [
        "ĠMaranhÃ£o",
        -10.15208161216228
      ],
      [
        "ĠToda",
        -10.152465122973686
      ],
      [
        "Ġlocalizada",
        -10.152947693959714
      ],
      [
        "ĠAlmeida",
        -10.15338142809758
      ],
      [
        "gia",
        -10.153799527737284
      ],
      [
        "ĠParÃ¡",
        -10.15386901432186
      ],
      [
        "ĠUS",
        -10.15411883928368
      ],
      [
        "dÃºvida",
        -10.15412335823662
      ],
      [
        "Ġinterna",
        -10.154449030309287
      ],
      [
        "Ġagr",
        -10.155110117240651
      ],
      [
        "ĠPelo",
        -10.156121190225347
      ],
      [
        "benefÃŃcio",
        -10.156270252688984
      ],
      [
        "ĠAh",
        -10.156421488453626
      ],
      [
        "ĠAprova",
        -10.157193082347504
      ],
      [
        "Ġcomigo",
        -10.157485714740918
      ],
      [
        "OSÃī",
        -10.159108046438956
      ],
      [
        "Ġexatamente",
        -10.159472237360523
      ],
      [
        "ĠcrianÃ§a",
        -10.159611227414212
      ],
      [
        "ĠBoa",
        -10.160989166945711
      ],
      [
        "Ġcontinua",
        -10.161033110593609
      ],
      [
        "Ġins",
        -10.161924632227583
      ],
      [
        "ĠRodrigues",
        -10.162517123293073
      ],
      [
        "Ġinicial",
        -10.162712127778128
      ],
      [
        "ĠprÃ©",
        -10.162930733053058
      ],
      [
        "Ġ1995",
        -10.163010128988615
      ],
      [
        "ĠAN",
        -10.163091731913216
      ],
      [
        "Ġunidades",
        -10.163471379292933
      ],
      [
        "Ġju",
        -10.163503550481618
      ],
      [
        "fÃŃsica",
        -10.163747984605148
      ],
      [
        "Ġlimite",
        -10.163913836143152
      ],
      [
        "SÃĥO",
        -10.16416294489357
      ],
      [
        "zado",
        -10.16441805750446
      ],
      [
        "Ġescrito",
        -10.165002427709938
      ],
      [
        "mÃ¡ximo",
        -10.165714034860942
      ],
      [
        "Ġantiga",
        -10.165798384695895
      ],
      [
        "ĠGrupo",
        -10.166403941014622
      ],
      [
        "cisÃ£o",
        -10.16641211599238
      ],
      [
        "Ġsal",
        -10.166553237466829
      ],
      [
        "ĠKo",
        -10.167875949999328
      ],
      [
        "ĠIta",
        -10.168992199012482
      ],
      [
        "eiros",
        -10.169388421997144
      ],
      [
        "Ġhaja",
        -10.170346941894229
      ],
      [
        "ĠCarvalho",
        -10.170984783819966
      ],
      [
        "Ġ55",
        -10.171493255622282
      ],
      [
        "Ġ119",
        -10.172500437449294
      ],
      [
        "Ġacontece",
        -10.17280200451249
      ],
      [
        "IDADE",
        -10.172974162225051
      ],
      [
        "criada",
        -10.173370223082529
      ],
      [
        "Ġluz",
        -10.173692116588654
      ],
      [
        "Ġfl",
        -10.174086345482172
      ],
      [
        "RegiÃ£o",
        -10.17418305237559
      ],
      [
        "ĠTu",
        -10.174719277873187
      ],
      [
        "ambos",
        -10.174787394302086
      ],
      [
        "Ġ48",
        -10.17553126459866
      ],
      [
        "Ġ41",
        -10.175653521827114
      ],
      [
        "Ġ49",
        -10.175744146293733
      ],
      [
        "mir",
        -10.175867934058328
      ],
      [
        "existente",
        -10.17595569027665
      ],
      [
        "ĠOnde",
        -10.1761694998143
      ],
      [
        "Ġpermiti",
        -10.176593654956552
      ],
      [
        "LideranÃ§a",
        -10.176697685132666
      ],
      [
        "Ġassumi",
        -10.177183314020343
      ],
      [
        "julgado",
        -10.177728665656652
      ],
      [
        "corrupÃ§Ã£o",
        -10.17816922746851
      ],
      [
        "Ġdada",
        -10.178880752341282
      ],
      [
        "ĠcontribuiÃ§Ã£o",
        -10.178898268241875
      ],
      [
        "nico",
        -10.178937519664974
      ],
      [
        "ĠMinha",
        -10.180375959287804
      ],
      [
        "Ġenca",
        -10.180924857215322
      ],
      [
        "regras",
        -10.180984070804604
      ],
      [
        "gente",
        -10.181076890603585
      ],
      [
        "chefe",
        -10.181704475380313
      ],
      [
        "Ġutilizado",
        -10.182448350373075
      ],
      [
        "Ġresultados",
        -10.1831530669649
      ],
      [
        "Ã³r",
        -10.18375142998521
      ],
      [
        "constitucionai",
        -10.185053651710716
      ],
      [
        "ĠDaniel",
        -10.18584839583695
      ],
      [
        "Ġmundial",
        -10.186571732149316
      ],
      [
        "missÃµes",
        -10.186732671496353
      ],
      [
        "dez",
        -10.187350691368763
      ],
      [
        "ĠgÃªnero",
        -10.187546745279077
      ],
      [
        "ment",
        -10.18828035786005
      ],
      [
        "ĠLEGISLATIV",
        -10.18881574549133
      ],
      [
        "ĠhistÃ³rico",
        -10.18882197332925
      ],
      [
        "Ġestadual",
        -10.189793014052531
      ],
      [
        "enda",
        -10.190006847977594
      ],
      [
        "Ġ39",
        -10.19015716181817
      ],
      [
        "ĠRIO",
        -10.191080920613349
      ],
      [
        "bit",
        -10.191358260466664
      ],
      [
        "Ġvivo",
        -10.193160231583065
      ],
      [
        "distrito",
        -10.193480611102304
      ],
      [
        "ĠReino",
        -10.193568801491542
      ],
      [
        "quer",
        -10.194960365830328
      ],
      [
        "ĠRS",
        -10.19536949223179
      ],
      [
        "Ġ34",
        -10.19545504511552
      ],
      [
        "nacionais",
        -10.195496160000248
      ],
      [
        "Ġantigo",
        -10.195984766742304
      ],
      [
        "MEN",
        -10.196006581508376
      ],
      [
        "Ġve",
        -10.19632370632558
      ],
      [
        "ĠpolÃŃcia",
        -10.197183558431762
      ],
      [
        "ĠFor",
        -10.197263945303714
      ],
      [
        ".............",
        -10.19733307284045
      ],
      [
        "cionais",
        -10.197463894371468
      ],
      [
        "laÃ§Ã£o",
        -10.19757114836202
      ],
      [
        "ĠUSP",
        -10.197644117660126
      ],
      [
        "Ġ64",
        -10.19852001486396
      ],
      [
        "requisitos",
        -10.19895858110273
      ],
      [
        "Ġencontro",
        -10.199230171753731
      ],
      [
        "ĠjurÃŃdico",
        -10.19984622839048
      ],
      [
        "atualmente",
        -10.199994947575693
      ],
      [
        "ADO",
        -10.20014951752756
      ],
      [
        "ĠNordeste",
        -10.200310979059775
      ],
      [
        "Ġsala",
        -10.200454724371106
      ],
      [
        "ĠTrans",
        -10.200796555708362
      ],
      [
        "Ġextra",
        -10.201268302529378
      ],
      [
        "age",
        -10.201280053070896
      ],
      [
        "AmazÃ´nia",
        -10.201602459518345
      ],
      [
        "Ġfigura",
        -10.201857646345756
      ],
      [
        "ĠAugusto",
        -10.201969516757655
      ],
      [
        "Ġhumano",
        -10.202338394553708
      ],
      [
        "ĠWi",
        -10.202391961808022
      ],
      [
        "Estadual",
        -10.20256462889437
      ],
      [
        "Ġgrau",
        -10.202584172796897
      ],
      [
        "Ġevitar",
        -10.202589462982417
      ],
      [
        "Talvez",
        -10.202978658956594
      ],
      [
        "Ġdeputado",
        -10.203584174763735
      ],
      [
        "impacto",
        -10.204277136550106
      ],
      [
        "Ġdocumento",
        -10.204462590740969
      ],
      [
        "ĠBan",
        -10.204948243430488
      ],
      [
        "tiveram",
        -10.205804765097884
      ],
      [
        "Figueiredo",
        -10.206019013268923
      ],
      [
        "ĠFamÃŃlia",
        -10.206973293007875
      ],
      [
        "publicada",
        -10.207717173831208
      ],
      [
        "ĠWikipÃ©dia",
        -10.2077734849262
      ],
      [
        "ĠDECRET",
        -10.207960856705451
      ],
      [
        "ĠAg",
        -10.208175123388363
      ],
      [
        "JudiciÃ¡ri",
        -10.208670481563727
      ],
      [
        "ĠBra",
        -10.208692762707834
      ],
      [
        "ĠMal",
        -10.208948031025534
      ],
      [
        "Ġjudicial",
        -10.209126874023427
      ],
      [
        "ĠNelson",
        -10.209207819478909
      ],
      [
        "enti",
        -10.21013657181058
      ],
      [
        "Ã¡rios",
        -10.21044410747608
      ],
      [
        "somos",
        -10.211448053229857
      ],
      [
        "ĠSeguranÃ§a",
        -10.211633598403743
      ],
      [
        "Teixeira",
        -10.211860152441163
      ],
      [
        "Ġestabelecer",
        -10.212294277509304
      ],
      [
        "ĠBer",
        -10.213188980263292
      ],
      [
        "Å",
        -10.213511967269271
      ],
      [
        "Ġchama",
        -10.213768736702969
      ],
      [
        "del",
        -10.214039577881552
      ],
      [
        "Ġpergunta",
        -10.214112719405597
      ],
      [
        "ĠAndrÃ©",
        -10.215676266370416
      ],
      [
        "ĠInter",
        -10.217638519372418
      ],
      [
        "Ġ01",
        -10.217763152962462
      ],
      [
        "DiscussÃ£o",
        -10.217800668515308
      ],
      [
        "Ġface",
        -10.219183564825226
      ],
      [
        "ĠFu",
        -10.219520594847712
      ],
      [
        "ĠMari",
        -10.22118039497685
      ],
      [
        "possam",
        -10.221460000773096
      ],
      [
        "pel",
        -10.221777764458029
      ],
      [
        "Ġfui",
        -10.222194567266827
      ],
      [
        "candidato",
        -10.222458511764405
      ],
      [
        "essÃ£o",
        -10.222502577149845
      ],
      [
        "NÃ£o",
        -10.222753307469349
      ],
      [
        "rios",
        -10.22395511501944
      ],
      [
        "preÃ§os",
        -10.224975163093209
      ],
      [
        "ĠcidadÃ£o",
        -10.225810718597398
      ],
      [
        "Con",
        -10.226672964875092
      ],
      [
        "ĠDesde",
        -10.226745150475136
      ],
      [
        "Ġanimais",
        -10.226954753985796
      ],
      [
        "SRA",
        -10.227210375034874
      ],
      [
        "Ġpior",
        -10.227608093797992
      ],
      [
        "ĠepisÃ³dio",
        -10.22769443759848
      ],
      [
        "levou",
        -10.227715048710094
      ],
      [
        "paciente",
        -10.22906400915037
      ],
      [
        "plan",
        -10.22966862275868
      ],
      [
        "Fazenda",
        -10.229706399432905
      ],
      [
        "abaixo",
        -10.230119080565242
      ],
      [
        "ĠChe",
        -10.230414426592231
      ],
      [
        "Ġmudar",
        -10.2305400267657
      ],
      [
        "ĠChina",
        -10.231078089151328
      ],
      [
        "Ġestilo",
        -10.231352625326377
      ],
      [
        "ĠOlÃ¡",
        -10.23190535982906
      ],
      [
        "licitante",
        -10.233378171290925
      ],
      [
        "pÃºblicas",
        -10.236322328401636
      ],
      [
        "ĠAlberto",
        -10.236353260506574
      ],
      [
        "Ġpl",
        -10.236721460863947
      ],
      [
        "avaliaÃ§Ã£o",
        -10.237174978571964
      ],
      [
        "ĠFutebol",
        -10.237312182202276
      ],
      [
        "Ġmerece",
        -10.237553300244617
      ],
      [
        "ĠNossa",
        -10.2375768894378
      ],
      [
        "EM",
        -10.237987722274854
      ],
      [
        "á",
        -10.238494264414586
      ],
      [
        "tia",
        -10.238901525107824
      ],
      [
        "ĠNew",
        -10.239316040434558
      ],
      [
        "Ġestes",
        -10.239440350494094
      ],
      [
        "ĠPolÃŃtica",
        -10.241759623563878
      ],
      [
        "cida",
        -10.242035597559294
      ],
      [
        "RIA",
        -10.242521758046266
      ],
      [
        "ĠMundo",
        -10.243283361134276
      ],
      [
        "Ġentrevista",
        -10.243364024796474
      ],
      [
        "Ġmesa",
        -10.243583546900917
      ],
      [
        "ĠZa",
        -10.2443064468482
      ],
      [
        "ĠLuÃŃs",
        -10.244432473548349
      ],
      [
        "ĠameaÃ§a",
        -10.245476407202297
      ],
      [
        "ĠEr",
        -10.245492045428596
      ],
      [
        "ĠQual",
        -10.24563297795538
      ],
      [
        "ĠART",
        -10.247196365375224
      ],
      [
        "ĠRequer",
        -10.247701655782778
      ],
      [
        "Ġcentral",
        -10.247809580372742
      ],
      [
        "Ġoferece",
        -10.248607844819798
      ],
      [
        "NAL",
        -10.249244543679705
      ],
      [
        "Ġacidente",
        -10.24929126372682
      ],
      [
        "ĠMG",
        -10.249532779464042
      ],
      [
        "Ġman",
        -10.249832586975645
      ],
      [
        "EMENTA",
        -10.251169673295408
      ],
      [
        "Ġ62",
        -10.251572146611384
      ],
      [
        "Ġvice",
        -10.251674701341544
      ],
      [
        "Ġdemocracia",
        -10.25194084354541
      ],
      [
        "ĠCA",
        -10.25238737175017
      ],
      [
        "Ġpretende",
        -10.25260946940926
      ],
      [
        "relaÃ§Ãµes",
        -10.253411631607356
      ],
      [
        "ĠMac",
        -10.254013034386892
      ],
      [
        "ĠAlemanha",
        -10.254712808770575
      ],
      [
        "Ġpedir",
        -10.25492638208177
      ],
      [
        "atos",
        -10.255373016561384
      ],
      [
        "Ġrural",
        -10.255520002284234
      ],
      [
        "Ġleva",
        -10.255585642571113
      ],
      [
        "EUA",
        -10.255829851520453
      ],
      [
        "Ġatender",
        -10.255965864027775
      ],
      [
        "ĠDis",
        -10.256202128699876
      ],
      [
        "Ġexplorar",
        -10.256378289353153
      ],
      [
        "PSL",
        -10.256790669692618
      ],
      [
        "ĠfunÃ§Ãµes",
        -10.25690905303012
      ],
      [
        "ĠmanhÃ£",
        -10.25698813172035
      ],
      [
        "ĠDepu",
        -10.257653171402705
      ],
      [
        "Ġefetiva",
        -10.257837388965118
      ],
      [
        "ĠJesus",
        -10.25801640181628
      ],
      [
        "ĠRede",
        -10.258638620284064
      ],
      [
        "Geraldo",
        -10.259666120558451
      ],
      [
        "Ġfesta",
        -10.259784585222734
      ],
      [
        "Ġ1988",
        -10.25986972783384
      ],
      [
        "ĠPubli",
        -10.260086639906786
      ],
      [
        "Ġconseguir",
        -10.260106804459694
      ],
      [
        "PrevidÃªncia",
        -10.260700090428855
      ],
      [
        "deficiÃªncia",
        -10.26070945360104
      ],
      [
        "dora",
        -10.261652515232544
      ],
      [
        "Ġjornalista",
        -10.261925491492269
      ],
      [
        "FundaÃ§Ã£o",
        -10.26193806579218
      ],
      [
        "PpP",
        -10.262358624627748
      ],
      [
        "geraÃ§Ã£o",
        -10.262528967792626
      ],
      [
        "ĠEsc",
        -10.2625883802585
      ],
      [
        "Ġpalavras",
        -10.263321371398236
      ],
      [
        "fronteira",
        -10.26342003484619
      ],
      [
        "virtud",
        -10.263630691697443
      ],
      [
        "ĠGeral",
        -10.263916512147564
      ],
      [
        "ĠCons",
        -10.264377118133847
      ],
      [
        "ĠAlexandre",
        -10.264543675680612
      ],
      [
        "Ġganha",
        -10.264676684962426
      ],
      [
        "Ġpaga",
        -10.266001258365524
      ],
      [
        "Ġimagem",
        -10.26617107965322
      ],
      [
        "CearÃ¡",
        -10.267342871880183
      ],
      [
        "Ġdaquel",
        -10.267655062415978
      ],
      [
        "ÃŃndice",
        -10.267800287920158
      ],
      [
        "Ġouvi",
        -10.26803494860074
      ],
      [
        "ĠVai",
        -10.26812897453726
      ],
      [
        "riam",
        -10.268207912378196
      ],
      [
        "MAR",
        -10.268640336705223
      ],
      [
        "Ġunidade",
        -10.268931300293833
      ],
      [
        "ĠAP",
        -10.269064360710228
      ],
      [
        "ĠSerra",
        -10.269437342345103
      ],
      [
        "esta",
        -10.27010878808568
      ],
      [
        "apresentou",
        -10.270489157281496
      ],
      [
        "Ġconcurso",
        -10.270564470794126
      ],
      [
        "ĠrÃ¡pido",
        -10.271263753983968
      ],
      [
        "alteraÃ§Ã£o",
        -10.271482716462833
      ],
      [
        "imagens",
        -10.27156090196141
      ],
      [
        "lada",
        -10.27190505840825
      ],
      [
        "trecho",
        -10.272474305181964
      ],
      [
        "ĠLisboa",
        -10.273762479789276
      ],
      [
        "Departamento",
        -10.274873097454762
      ],
      [
        "Ġdado",
        -10.275101848279853
      ],
      [
        "irÃ¡",
        -10.27556299070964
      ],
      [
        "ĠAto",
        -10.275694316382998
      ],
      [
        "ocorreu",
        -10.27664253524074
      ],
      [
        "ĠMen",
        -10.277203661967269
      ],
      [
        "Ġparticipa",
        -10.277324318602124
      ],
      [
        "2020",
        -10.280854214432226
      ],
      [
        "ĠLegislativa",
        -10.280914672262083
      ],
      [
        "ĠAcre",
        -10.281104766231309
      ],
      [
        "culo",
        -10.281150625579867
      ],
      [
        "Ġexpressa",
        -10.281810264921669
      ],
      [
        "exigÃªncia",
        -10.28233778018088
      ],
      [
        "tando",
        -10.28258086392735
      ],
      [
        "Ġinvestimento",
        -10.282858545311075
      ],
      [
        "referida",
        -10.283359930980447
      ],
      [
        "ali",
        -10.283999008792712
      ],
      [
        "QUE",
        -10.284091223289693
      ],
      [
        "Ġprocedimento",
        -10.28452734679566
      ],
      [
        "Ġnego",
        -10.284635240919094
      ],
      [
        "privado",
        -10.28468247687076
      ],
      [
        "ĠArthur",
        -10.284816937666491
      ],
      [
        "Ġigreja",
        -10.284902664656498
      ],
      [
        "ĠBal",
        -10.285293095291914
      ],
      [
        "Ġpobre",
        -10.2855223603982
      ],
      [
        "Ġconceito",
        -10.285952831776886
      ],
      [
        "ĠopiniÃ£o",
        -10.286018735070389
      ],
      [
        "Ġpromover",
        -10.286160959230475
      ],
      [
        "ĠDESPACH",
        -10.286533471311415
      ],
      [
        "Ġ52",
        -10.286595351237674
      ],
      [
        "ĠTri",
        -10.286595660685729
      ],
      [
        "Ġetc",
        -10.286773613074123
      ],
      [
        "ĠMarcos",
        -10.286927833256389
      ],
      [
        "RG",
        -10.286984238273453
      ],
      [
        "relativo",
        -10.287045642462187
      ],
      [
        "nunciou",
        -10.287487858451469
      ],
      [
        "hy",
        -10.287618633338631
      ],
      [
        "ĠMichel",
        -10.288526835384962
      ],
      [
        "ĠNA",
        -10.288777553112642
      ],
      [
        "Ġentender",
        -10.288948820500323
      ],
      [
        "bia",
        -10.291350673506098
      ],
      [
        "Ġguarda",
        -10.292070609263778
      ],
      [
        "Ī",
        -10.292244197060205
      ],
      [
        "leitura",
        -10.292399754914674
      ],
      [
        "adores",
        -10.292932006247224
      ],
      [
        "retorno",
        -10.293075582747733
      ],
      [
        "ÃŃcio",
        -10.294806111727429
      ],
      [
        "ĠVista",
        -10.295036926340147
      ],
      [
        "humanos",
        -10.295177550831768
      ],
      [
        "Ġtraz",
        -10.295403161539472
      ],
      [
        "urgÃªncia",
        -10.296029457468984
      ],
      [
        "ĠGra",
        -10.296155524585105
      ],
      [
        "Ġconsegue",
        -10.29648499714862
      ],
      [
        "ĠorientaÃ§Ã£o",
        -10.297404912786364
      ],
      [
        "havend",
        -10.297548171293
      ],
      [
        "ĠWe",
        -10.297918180001556
      ],
      [
        "omissÃµes",
        -10.29794916183832
      ],
      [
        "decreto",
        -10.299528709695478
      ],
      [
        "eve",
        -10.299748656378622
      ],
      [
        "ĠParis",
        -10.30013558583203
      ],
      [
        "ĠCidade",
        -10.30086821423195
      ],
      [
        "ResoluÃ§Ã£o",
        -10.302508967244218
      ],
      [
        "Ġconfi",
        -10.302852890679793
      ],
      [
        "www",
        -10.303021207166331
      ],
      [
        "ĠAgrav",
        -10.304312428293938
      ],
      [
        "ĠjustiÃ§a",
        -10.304329565458149
      ],
      [
        "Ġconquista",
        -10.30448897817977
      ],
      [
        "ĠpeÃ§a",
        -10.304769056186483
      ],
      [
        "ĠOUTR",
        -10.30532792824953
      ],
      [
        "uti",
        -10.305564400091477
      ],
      [
        "benefÃŃcios",
        -10.306419305961503
      ],
      [
        "Jogos",
        -10.30671721329263
      ],
      [
        "substitutivo",
        -10.306774525141444
      ],
      [
        "Ġcontas",
        -10.30730897685322
      ],
      [
        "ĠSobre",
        -10.308120212169651
      ],
      [
        "Ġ90",
        -10.308199086872117
      ],
      [
        "ĠsaÃŃd",
        -10.308215988899317
      ],
      [
        "Ġfeliz",
        -10.308801268971528
      ],
      [
        "Ġref",
        -10.309738139186027
      ],
      [
        "abe",
        -10.309787992271003
      ],
      [
        "Ġamericano",
        -10.30981623629193
      ],
      [
        "emendas",
        -10.310601341038538
      ],
      [
        "Moreira",
        -10.310678100607404
      ],
      [
        "investimentos",
        -10.310812849342014
      ],
      [
        "Ġ43",
        -10.311521732458678
      ],
      [
        "ĠRodrigo",
        -10.311804647074906
      ],
      [
        "vontade",
        -10.31246319974073
      ],
      [
        "Ġouvir",
        -10.312773614873905
      ],
      [
        "Ġataque",
        -10.312779770203273
      ],
      [
        "Ġreserva",
        -10.312800910819554
      ],
      [
        "Ġcarga",
        -10.313037503613227
      ],
      [
        "ĠQuanto",
        -10.313164598891364
      ],
      [
        "ĠcomeÃ§ar",
        -10.313305156021157
      ],
      [
        "Ġambiental",
        -10.313333321110193
      ],
      [
        "mil",
        -10.313433063819865
      ],
      [
        "Ġbanco",
        -10.31350330413046
      ],
      [
        "assistÃªncia",
        -10.314343707940234
      ],
      [
        "Ġfinanceiro",
        -10.31455825959721
      ],
      [
        "ĠdenÃºncia",
        -10.314856607335342
      ],
      [
        "Ġservi",
        -10.315609774355362
      ],
      [
        "fiscalizaÃ§Ã£o",
        -10.316774550357058
      ],
      [
        "parceria",
        -10.316941676320818
      ],
      [
        "amanhÃ£",
        -10.317668625558012
      ],
      [
        "Ġpermanece",
        -10.317984881403644
      ],
      [
        "rÃ¡pida",
        -10.318141866842934
      ],
      [
        "Ġrua",
        -10.31850923281537
      ],
      [
        "Ġdispor",
        -10.318747409385765
      ],
      [
        "PrÃªmio",
        -10.318755584214388
      ],
      [
        "tivos",
        -10.319039620710928
      ],
      [
        "INA",
        -10.319061111798474
      ],
      [
        "Ġtroca",
        -10.321769140770783
      ],
      [
        "Proposta",
        -10.322693245272689
      ],
      [
        "instalaÃ§Ã£o",
        -10.322869126545958
      ],
      [
        "ĠFun",
        -10.325052657045248
      ],
      [
        "ĠPARA",
        -10.325064734697907
      ],
      [
        "ĠForÃ§a",
        -10.32564973230229
      ],
      [
        "ĠNada",
        -10.326445037996624
      ],
      [
        "Ġjuiz",
        -10.326902359953204
      ],
      [
        "eri",
        -10.32709971429211
      ],
      [
        "ĠHar",
        -10.327773204710654
      ],
      [
        "Ġquinta",
        -10.328183176053908
      ],
      [
        "ocalidades",
        -10.328738172288729
      ],
      [
        "Ġhumana",
        -10.328965078160708
      ],
      [
        "Ġ42",
        -10.328973719007127
      ],
      [
        "Ġtorno",
        -10.329411077140788
      ],
      [
        "ĠNeste",
        -10.329877747626162
      ],
      [
        "vista",
        -10.330475112365866
      ],
      [
        "Ġtrabalhador",
        -10.330550534301366
      ],
      [
        "Ġ44",
        -10.33073559915195
      ],
      [
        "ĠWal",
        -10.3307956704304
      ],
      [
        "precisamos",
        -10.332039264853623
      ],
      [
        "FederaÃ§Ã£o",
        -10.332168943585362
      ],
      [
        "Ġcorpus",
        -10.332676466904294
      ],
      [
        "doenÃ§a",
        -10.332688036816496
      ],
      [
        "versa",
        -10.333110650861084
      ],
      [
        "Ġespera",
        -10.333465869765494
      ],
      [
        "Ġcoloca",
        -10.333872057150646
      ],
      [
        "americano",
        -10.333941213901186
      ],
      [
        "preciaÃ§Ã£o",
        -10.334500427384365
      ],
      [
        "ĠAltera",
        -10.334666553622704
      ],
      [
        "mentos",
        -10.334961184700228
      ],
      [
        "Ġaplica",
        -10.33559612719644
      ],
      [
        "Ġaparece",
        -10.335827440485929
      ],
      [
        "Ġreclama",
        -10.33619289259252
      ],
      [
        "equipamentos",
        -10.336203831546635
      ],
      [
        "elementos",
        -10.336299738574525
      ],
      [
        "Ġdefende",
        -10.336317792272297
      ],
      [
        "prÃªmio",
        -10.33640565211905
      ],
      [
        "Ġcompanhia",
        -10.33730526796647
      ],
      [
        "Ġmedo",
        -10.337571792554831
      ],
      [
        "avanÃ§o",
        -10.338101392883638
      ],
      [
        "Ġalega",
        -10.338482784460348
      ],
      [
        "apensado",
        -10.338684714700015
      ],
      [
        "expressÃ£o",
        -10.33870767995869
      ],
      [
        "Ġregula",
        -10.339398768143573
      ],
      [
        "Ġresulta",
        -10.339474572947598
      ],
      [
        "ĠQUE",
        -10.34012134593338
      ],
      [
        "existem",
        -10.34050731838312
      ],
      [
        "Ġregistrado",
        -10.340562031755004
      ],
      [
        "retirada",
        -10.340720326000506
      ],
      [
        "Amazonas",
        -10.340899174710756
      ],
      [
        "Ġdaqui",
        -10.34117618841436
      ],
      [
        "etapa",
        -10.34168983072794
      ],
      [
        "rÃ³",
        -10.342083754540758
      ],
      [
        "ĠParlamento",
        -10.342205456453993
      ],
      [
        "gravada",
        -10.34224135954212
      ],
      [
        "consumo",
        -10.342532812950044
      ],
      [
        "ĠSuper",
        -10.34255626132911
      ],
      [
        "ĠfaÃ§o",
        -10.342575919797026
      ],
      [
        "ĠCruz",
        -10.34283540589101
      ],
      [
        "Ġatingi",
        -10.343128901893095
      ],
      [
        "AI",
        -10.343571093781131
      ],
      [
        "ĠCas",
        -10.343725719207338
      ],
      [
        "Ġpreso",
        -10.343998194714722
      ],
      [
        "ĠNeto",
        -10.344213392733472
      ],
      [
        "juros",
        -10.345908932418604
      ],
      [
        "Ġgosto",
        -10.346149581163816
      ],
      [
        "Ġespecifica",
        -10.346253295639288
      ],
      [
        "ĠPan",
        -10.346304774342768
      ],
      [
        "Â",
        -10.34637931833374
      ],
      [
        "agentes",
        -10.346562608082946
      ],
      [
        "Ġinstitui",
        -10.34669379903148
      ],
      [
        "campeÃ£o",
        -10.34672642415039
      ],
      [
        "ĠVila",
        -10.346919201628436
      ],
      [
        "Ġeventos",
        -10.347013490916028
      ],
      [
        "Barbosa",
        -10.347243741078502
      ],
      [
        "Ġinforma",
        -10.347330020926616
      ],
      [
        "iri",
        -10.347459089265415
      ],
      [
        "Ġoferta",
        -10.347655773734612
      ],
      [
        "ĠfaÃ§a",
        -10.34773713974373
      ],
      [
        "Ġrespectiva",
        -10.348060252808931
      ],
      [
        "ĠciÃªncia",
        -10.348582748571388
      ],
      [
        "ĠMeio",
        -10.35040610148532
      ],
      [
        "Ġtinham",
        -10.350495501512889
      ],
      [
        "olÃ³gico",
        -10.350879825429978
      ],
      [
        "contexto",
        -10.351053616699245
      ],
      [
        "Ġescolha",
        -10.35129902345472
      ],
      [
        "lis",
        -10.35186321625617
      ],
      [
        "veÃŃculos",
        -10.351900939031546
      ],
      [
        "Ġpartida",
        -10.352845066599563
      ],
      [
        "ĠRegional",
        -10.353618392125329
      ],
      [
        "burg",
        -10.35377718138658
      ],
      [
        "Ġvelho",
        -10.353795676740692
      ],
      [
        "Ġfunciona",
        -10.353886695376035
      ],
      [
        "Ġinternacionais",
        -10.353974567281888
      ],
      [
        "esse",
        -10.35506739388835
      ],
      [
        "ĠQuer",
        -10.355180062096014
      ],
      [
        "ĠPp",
        -10.355539918362554
      ],
      [
        "ĠRos",
        -10.356206388444631
      ],
      [
        "desempenho",
        -10.35627769693287
      ],
      [
        "Ġcomando",
        -10.356361729124782
      ],
      [
        "Ġ1994",
        -10.357298995757851
      ],
      [
        "vemos",
        -10.357911696699066
      ],
      [
        "Ġinicia",
        -10.357914702418128
      ],
      [
        "Ġcima",
        -10.358372304797554
      ],
      [
        "Ġesposa",
        -10.358767933022778
      ],
      [
        "ÃĬNCIA",
        -10.358895883285024
      ],
      [
        "Ġvinte",
        -10.35918357157522
      ],
      [
        "Ġresto",
        -10.359307790637416
      ],
      [
        "Ġeleitoral",
        -10.35951338472813
      ],
      [
        "Ġsexta",
        -10.359612020929267
      ],
      [
        "http",
        -10.359748332835858
      ],
      [
        "press",
        -10.359888175103263
      ],
      [
        "tentativa",
        -10.360409657540472
      ],
      [
        "Ġ1993",
        -10.36124604287152
      ],
      [
        "Ġplanta",
        -10.362103654148498
      ],
      [
        "AgÃªncia",
        -10.362674708960087
      ],
      [
        "Ġanti",
        -10.362752982200876
      ],
      [
        "tinho",
        -10.363116286754616
      ],
      [
        "ĠjurisprudÃªncia",
        -10.363278417485196
      ],
      [
        "RelaÃ§Ãµes",
        -10.3633740555058
      ],
      [
        "Ġshow",
        -10.363440652757914
      ],
      [
        "AC",
        -10.363548571837695
      ],
      [
        "ĠalÃŃnea",
        -10.363570214093686
      ],
      [
        "votos",
        -10.363932210601437
      ],
      [
        "2002",
        -10.364249489399008
      ],
      [
        "Ġprodutor",
        -10.364402896158184
      ],
      [
        "ĠlÃŃder",
        -10.36486371418346
      ],
      [
        "Ġfogo",
        -10.365499804369229
      ],
      [
        "ĠAM",
        -10.366259052162349
      ],
      [
        "Ġ75",
        -10.366283001833452
      ],
      [
        "Ġ58",
        -10.366362200348746
      ],
      [
        "Ġadequa",
        -10.36668141514546
      ],
      [
        "Ġlido",
        -10.367151993444528
      ],
      [
        "½",
        -10.367651244885469
      ],
      [
        "ĠMagalhÃ£es",
        -10.367773427764147
      ],
      [
        "Ġampla",
        -10.368496665445864
      ],
      [
        "reconhecimento",
        -10.368506233678364
      ],
      [
        "ĠIsto",
        -10.369124549016265
      ],
      [
        "Ġrealiza",
        -10.369480820195362
      ],
      [
        "GL",
        -10.369963459653167
      ],
      [
        "assi",
        -10.369993137105348
      ],
      [
        "Ġcur",
        -10.370170902068825
      ],
      [
        "Ġjogador",
        -10.370381349021937
      ],
      [
        "Ġimediata",
        -10.370497328918695
      ],
      [
        "Ġcorte",
        -10.37059860343932
      ],
      [
        "Ġ47",
        -10.3719537947871
      ],
      [
        "PRIMEIR",
        -10.372064395090392
      ],
      [
        "convidado",
        -10.373014106241165
      ],
      [
        "requer",
        -10.373097064574653
      ],
      [
        "Ġpri",
        -10.373118407947404
      ],
      [
        "ĠTal",
        -10.373410777963054
      ],
      [
        "presidente",
        -10.373544232770998
      ],
      [
        "ĠVe",
        -10.373705560626844
      ],
      [
        "GU",
        -10.374019982374902
      ],
      [
        "metade",
        -10.374423240351208
      ],
      [
        "ð",
        -10.375408448419195
      ],
      [
        "Ġinclui",
        -10.375811523261484
      ],
      [
        "bin",
        -10.375912622329428
      ],
      [
        "ĠCarreira",
        -10.376374455060931
      ],
      [
        "francÃªs",
        -10.376686377716966
      ],
      [
        "ĠMARCO",
        -10.377259642217046
      ],
      [
        "Ġrenova",
        -10.377457051573042
      ],
      [
        "ĠClaro",
        -10.3776943053218
      ],
      [
        "lÃ¡",
        -10.377712615421927
      ],
      [
        "Ġfixa",
        -10.378331546651648
      ],
      [
        "apelo",
        -10.378668101646548
      ],
      [
        "ĠlicenÃ§a",
        -10.378834559951514
      ],
      [
        "RES",
        -10.378974649291266
      ],
      [
        "ĠIN",
        -10.379882651355762
      ],
      [
        "ĠExterior",
        -10.3803292212202
      ],
      [
        "Ġzona",
        -10.380737448635116
      ],
      [
        "ĠCur",
        -10.380793551594916
      ],
      [
        "uba",
        -10.381185057754728
      ],
      [
        "Ġrelator",
        -10.381223195344624
      ],
      [
        "ENTE",
        -10.38146183698081
      ],
      [
        "ĠFA",
        -10.382473349687316
      ],
      [
        "errado",
        -10.38258198974825
      ],
      [
        "decisÃµes",
        -10.382586729756742
      ],
      [
        "necessÃ¡ria",
        -10.383280210486252
      ],
      [
        "ĠusuÃ¡rio",
        -10.383724541792873
      ],
      [
        "lida",
        -10.38435072063742
      ],
      [
        "administrativo",
        -10.38435615347396
      ],
      [
        "Ġassinatura",
        -10.384630219672276
      ],
      [
        "ĠDeve",
        -10.38647071756806
      ],
      [
        "Ġaberto",
        -10.38656187874228
      ],
      [
        "provÃŃncia",
        -10.386965337926569
      ],
      [
        "ĠFolha",
        -10.387076062027026
      ],
      [
        "ĠCPI",
        -10.38723477989386
      ],
      [
        "Ġprocura",
        -10.387277155056736
      ],
      [
        "Ġ51",
        -10.387603894092058
      ],
      [
        "ĠFerreira",
        -10.38802123462313
      ],
      [
        "Ġnove",
        -10.38818279412133
      ],
      [
        "atu",
        -10.388224322695134
      ],
      [
        "Ġcursos",
        -10.3886000133991
      ],
      [
        "Enquanto",
        -10.389162757399315
      ],
      [
        "Ġexterior",
        -10.389420103858916
      ],
      [
        "licitaÃ§Ã£o",
        -10.38958692510136
      ],
      [
        "indicaÃ§Ã£o",
        -10.389594765944956
      ],
      [
        "Ġposto",
        -10.39040236799623
      ],
      [
        "finalidade",
        -10.390464261836412
      ],
      [
        "Ġcontato",
        -10.39115843796142
      ],
      [
        "ĠConstitucional",
        -10.39158024063114
      ],
      [
        "Ġrece",
        -10.391847409449818
      ],
      [
        "ĠRei",
        -10.392031251901146
      ],
      [
        "MÃ£o",
        -10.392131982655004
      ],
      [
        "ĠrÃ¡dio",
        -10.392649431484344
      ],
      [
        "Ġitem",
        -10.39271320336173
      ],
      [
        "Mar",
        -10.393369801911389
      ],
      [
        "ĠPri",
        -10.393551675132516
      ],
      [
        "Ġaceita",
        -10.393726682419812
      ],
      [
        "ĠelÃ©trica",
        -10.393783672975168
      ],
      [
        "ĠcompetiÃ§Ã£o",
        -10.394384046579706
      ],
      [
        "Ġcultural",
        -10.394649957760636
      ],
      [
        "Ġposse",
        -10.395511217293237
      ],
      [
        "ney",
        -10.395986317481132
      ],
      [
        "cimento",
        -10.39613494521609
      ],
      [
        "Parlamentare",
        -10.396149084653484
      ],
      [
        "Ġlivros",
        -10.396419920330416
      ],
      [
        "Ġerro",
        -10.39649558012454
      ],
      [
        "tÃª",
        -10.396820263455933
      ],
      [
        "Ġseguro",
        -10.397134017867566
      ],
      [
        "cidade",
        -10.397924407924847
      ],
      [
        "ĠOrÃ§ament",
        -10.398151167083952
      ],
      [
        "ĠCap",
        -10.399895382548207
      ],
      [
        "Ġterceira",
        -10.399986322255222
      ],
      [
        "funcionamento",
        -10.400478482186312
      ],
      [
        "side",
        -10.400651841114737
      ],
      [
        "ĠUni",
        -10.401296238292636
      ],
      [
        "ESTADO",
        -10.401884868574689
      ],
      [
        "Outra",
        -10.402008792462048
      ],
      [
        "ĠClube",
        -10.402928319775995
      ],
      [
        "ĠMello",
        -10.402932453099869
      ],
      [
        "ĠZe",
        -10.403205548272048
      ],
      [
        "ciais",
        -10.40381689656472
      ],
      [
        "exploraÃ§Ã£o",
        -10.403871995320856
      ],
      [
        "cÃ¡",
        -10.403953459606482
      ],
      [
        "ĠEspanha",
        -10.405188536742346
      ],
      [
        "............",
        -10.405336249592184
      ],
      [
        "Ġinteiro",
        -10.4055973771637
      ],
      [
        "Ġpersonagem",
        -10.40591124664753
      ],
      [
        "tividade",
        -10.40650689798174
      ],
      [
        "Embora",
        -10.407275634776568
      ],
      [
        "HC",
        -10.407830848858168
      ],
      [
        "ĠAC",
        -10.408124050296449
      ],
      [
        "ĠConstitui",
        -10.40844097827985
      ],
      [
        "Ġ65",
        -10.408756158584044
      ],
      [
        "tributÃ¡ria",
        -10.408998148334064
      ],
      [
        "ĠPresi",
        -10.409603676701
      ],
      [
        "ĠespÃ©cies",
        -10.410135718994608
      ],
      [
        "ĠdistÃ¢ncia",
        -10.410411779066209
      ],
      [
        "policiais",
        -10.41044445821136
      ],
      [
        "ĠBel",
        -10.410554306783556
      ],
      [
        "rito",
        -10.410559371300542
      ],
      [
        "ĠPaul",
        -10.410722347119872
      ],
      [
        "BE",
        -10.410766568854454
      ],
      [
        "Ġsabia",
        -10.411417476488715
      ],
      [
        "ĠVida",
        -10.411697781069492
      ],
      [
        "ĠSÃ¡",
        -10.41268748985306
      ],
      [
        "comÃ©rcio",
        -10.412937784299244
      ],
      [
        "Ġpermanente",
        -10.413167240763787
      ],
      [
        "Ġquiser",
        -10.414191305235455
      ],
      [
        "mantid",
        -10.414326687174444
      ],
      [
        "Ġproduzir",
        -10.414542046979726
      ],
      [
        "trinta",
        -10.414542216957532
      ],
      [
        "geralmente",
        -10.415413692118024
      ],
      [
        "ĠÃĵ",
        -10.4156989329947
      ],
      [
        "ĠGal",
        -10.41755262456723
      ],
      [
        "ĠTer",
        -10.417650774776924
      ],
      [
        "ĠMc",
        -10.417987602697329
      ],
      [
        "Ġpensar",
        -10.418803603507795
      ],
      [
        "tores",
        -10.418813026560228
      ],
      [
        "Ġadolescente",
        -10.419138270164378
      ],
      [
        "ĠYork",
        -10.41983621820921
      ],
      [
        "Ġpaz",
        -10.42016178531308
      ],
      [
        "¾",
        -10.42067003314916
      ],
      [
        "grafia",
        -10.4207121570817
      ],
      [
        "rais",
        -10.42116844708864
      ],
      [
        "ĠMuseu",
        -10.42178041730455
      ],
      [
        "ĠSin",
        -10.421859056736771
      ],
      [
        "Ġatende",
        -10.422635228772302
      ],
      [
        "ĠAntes",
        -10.423559927582168
      ],
      [
        "ĠParte",
        -10.423959753621071
      ],
      [
        "Ã©tica",
        -10.424776048573008
      ],
      [
        "Couto",
        -10.42532744249156
      ],
      [
        "fizeram",
        -10.425691647449002
      ],
      [
        "Ġaquilo",
        -10.425869555619826
      ],
      [
        "ĠfÃ¡cil",
        -10.42586974067825
      ],
      [
        "Ġimplica",
        -10.42615789758342
      ],
      [
        "Ġgosta",
        -10.42631058545246
      ],
      [
        "Ġdiminui",
        -10.426427040822777
      ],
      [
        "Bibliografia",
        -10.426516901400127
      ],
      [
        "ĠEdita",
        -10.42694797179879
      ],
      [
        "arney",
        -10.4287875577211
      ],
      [
        "Pernambuco",
        -10.429005899879426
      ],
      [
        "ĠCh",
        -10.429327877911524
      ],
      [
        "ordinÃ¡ria",
        -10.429573996891447
      ],
      [
        "estaÃ§Ã£o",
        -10.429834206141932
      ],
      [
        "ĠprÃ©vi",
        -10.430083321175609
      ],
      [
        "morreu",
        -10.430591261114152
      ],
      [
        "professores",
        -10.430990933861676
      ],
      [
        "ĠYou",
        -10.431129090577686
      ],
      [
        "Ġ1913",
        -10.431443018031851
      ],
      [
        "esteja",
        -10.431571561024665
      ],
      [
        "ĠMelhor",
        -10.432439311606254
      ],
      [
        "Ġenorme",
        -10.433402761160698
      ],
      [
        "Vieira",
        -10.433446174741086
      ],
      [
        "estudantes",
        -10.433488513347616
      ],
      [
        "ĠAgricultura",
        -10.433927501957523
      ],
      [
        "uplente",
        -10.43440673219768
      ],
      [
        "ĠNÃĥO",
        -10.4346692093401
      ],
      [
        "Ã¢nia",
        -10.4348480580887
      ],
      [
        "consumidor",
        -10.434912704642544
      ],
      [
        "Ġdetermina",
        -10.435346923310652
      ],
      [
        "terminou",
        -10.435391878649597
      ],
      [
        "Ġcompleta",
        -10.4355072685299
      ],
      [
        "Ġobservado",
        -10.43556015227317
      ],
      [
        "ilha",
        -10.436704932654964
      ],
      [
        "fundamento",
        -10.436734809172169
      ],
      [
        "Ġlonga",
        -10.436932506691948
      ],
      [
        "ari",
        -10.436982762701568
      ],
      [
        "BR",
        -10.437059849395936
      ],
      [
        "bÃ¡sica",
        -10.43732708814864
      ],
      [
        "como",
        -10.438043418485938
      ],
      [
        "the",
        -10.43921590772243
      ],
      [
        "Ġregistrar",
        -10.439397589135158
      ],
      [
        "Ġ63",
        -10.43974065763146
      ],
      [
        "Ġclara",
        -10.43986011703435
      ],
      [
        "ĠSO",
        -10.440072737155091
      ],
      [
        "Ĵ",
        -10.440257634763816
      ],
      [
        "Ġ46",
        -10.440444581640982
      ],
      [
        "petrÃ³leo",
        -10.440743253940706
      ],
      [
        "Ġ1992",
        -10.44128776267294
      ],
      [
        "nanimidade",
        -10.441308122721232
      ],
      [
        "trÃ¢nsito",
        -10.441597251097996
      ],
      [
        "Ġprefeito",
        -10.442330686577696
      ],
      [
        "iauÃŃ",
        -10.44253945932771
      ],
      [
        "aposentadoria",
        -10.442716586846348
      ],
      [
        "Ġjeito",
        -10.44290674887644
      ],
      [
        "Ġnot",
        -10.443175811093278
      ],
      [
        "Ã§os",
        -10.443394037741031
      ],
      [
        "postos",
        -10.44359871755132
      ],
      [
        "ĠParece",
        -10.443695806399957
      ],
      [
        "ĠMartins",
        -10.44383922332921
      ],
      [
        "companheiro",
        -10.44518002701899
      ],
      [
        "patrimÃ´nio",
        -10.445284403011785
      ],
      [
        "ĠNovo",
        -10.445875480408388
      ],
      [
        "recebido",
        -10.445917239800329
      ],
      [
        "Ġcinema",
        -10.446645030089895
      ],
      [
        "Ġgol",
        -10.44696731556705
      ],
      [
        "ĠcrÃŃtica",
        -10.44713897538701
      ],
      [
        "adora",
        -10.447560344370398
      ],
      [
        "ativo",
        -10.44843495183343
      ],
      [
        "Ġinferior",
        -10.44882814249634
      ],
      [
        "bairro",
        -10.448975224469866
      ],
      [
        "Ġsenador",
        -10.449077432767623
      ],
      [
        "Ġalternativa",
        -10.449202336088296
      ],
      [
        "Ġmensagem",
        -10.44930524897615
      ],
      [
        "escrita",
        -10.449498450875623
      ],
      [
        "Ġanteriores",
        -10.449774430854925
      ],
      [
        "ĠPI",
        -10.449889057244045
      ],
      [
        "2001",
        -10.449962828007518
      ],
      [
        "ĠMachado",
        -10.451119516814748
      ],
      [
        "Ġofens",
        -10.451167641148924
      ],
      [
        "Ġrapid",
        -10.451440600013887
      ],
      [
        "Ġintegral",
        -10.45150714078126
      ],
      [
        "Ã§",
        -10.45194203296182
      ],
      [
        "ĠAurÃ©li",
        -10.453417704558277
      ],
      [
        "ĠProfessor",
        -10.45379579191808
      ],
      [
        "ĠcoraÃ§Ã£o",
        -10.454008241076249
      ],
      [
        "elli",
        -10.454291799935657
      ],
      [
        "Ġvolume",
        -10.454305469712796
      ],
      [
        "transferÃªncia",
        -10.45444202734276
      ],
      [
        "investigaÃ§Ã£o",
        -10.454484461398462
      ],
      [
        "zer",
        -10.455107944082284
      ],
      [
        "Ġconversa",
        -10.45518717888242
      ],
      [
        "Ãĵ",
        -10.45532325942708
      ],
      [
        "Ġindica",
        -10.455382596123677
      ],
      [
        "bus",
        -10.455674288809227
      ],
      [
        "Rodrigo",
        -10.456882170053593
      ],
      [
        "ĠCultural",
        -10.457099127829265
      ],
      [
        "Ãģfrica",
        -10.457389301685437
      ],
      [
        "âĢĵâĢĵâĢĵâĢĵâĢĵ",
        -10.457402463362037
      ],
      [
        "Ġaberta",
        -10.457680282229957
      ],
      [
        "STA",
        -10.458221636643886
      ],
      [
        "PLS",
        -10.458792549547274
      ],
      [
        "produtores",
        -10.459242559382792
      ],
      [
        "bon",
        -10.459360016198287
      ],
      [
        "horÃ¡rio",
        -10.461097904559052
      ],
      [
        "Ġmostrar",
        -10.461308744830658
      ],
      [
        "ĠJan",
        -10.461429345778608
      ],
      [
        "atriz",
        -10.461839119719045
      ],
      [
        "ĠWilliam",
        -10.462029347337753
      ],
      [
        "gio",
        -10.463052920574905
      ],
      [
        "MS",
        -10.463320646565531
      ],
      [
        "Ġaltura",
        -10.463830823858336
      ],
      [
        "Ġolhos",
        -10.463899913184482
      ],
      [
        "Ġilha",
        -10.463915860284256
      ],
      [
        "Ġreferente",
        -10.464081779520216
      ],
      [
        "Ġveja",
        -10.464286366628238
      ],
      [
        "Ġteor",
        -10.464354505639816
      ],
      [
        "desafio",
        -10.46445433537319
      ],
      [
        "tivesse",
        -10.464493957364034
      ],
      [
        "Candido",
        -10.464505218454788
      ],
      [
        "ĠItÃ¡lia",
        -10.464916631698893
      ],
      [
        "funcionÃ¡rios",
        -10.465275162907806
      ],
      [
        "ĠYa",
        -10.465279177141568
      ],
      [
        "ĠJapÃ£o",
        -10.465317505030844
      ],
      [
        "ĠPare",
        -10.465532242154952
      ],
      [
        "ĠPaim",
        -10.46558702908903
      ],
      [
        "casamento",
        -10.466349766834044
      ],
      [
        "cÃ³pia",
        -10.467013071839656
      ],
      [
        "ĠEspÃŃrit",
        -10.467454620634465
      ],
      [
        "Ġ200",
        -10.46802521280497
      ],
      [
        "passando",
        -10.468257209331052
      ],
      [
        "ĠinfluÃªncia",
        -10.469574553534668
      ],
      [
        "MÃ¡rio",
        -10.470631648243844
      ],
      [
        "ĠLou",
        -10.47083788211807
      ],
      [
        "tÃ¡rio",
        -10.471319897026651
      ],
      [
        "ĠSha",
        -10.471665605220409
      ],
      [
        "ĠAp",
        -10.47186284881558
      ],
      [
        "Ġtamanho",
        -10.47192401684901
      ],
      [
        "ĺ",
        -10.47224096725937
      ],
      [
        "ick",
        -10.472395654562908
      ],
      [
        "aproximadamente",
        -10.472590145823604
      ],
      [
        "raÃ§a",
        -10.473069214035393
      ],
      [
        "contrataÃ§Ã£o",
        -10.473300516308974
      ],
      [
        "Ġfamiliar",
        -10.473566437091112
      ],
      [
        "iretrizes",
        -10.47403915265688
      ],
      [
        "Ġparticipou",
        -10.475159232147956
      ],
      [
        "Ġperder",
        -10.475478149562273
      ],
      [
        "preocupaÃ§Ã£o",
        -10.47591395650726
      ],
      [
        "Mesmo",
        -10.476332431003604
      ],
      [
        "Ġatras",
        -10.477308444008788
      ],
      [
        "nasceu",
        -10.477331503771236
      ],
      [
        "aspectos",
        -10.478162035920048
      ],
      [
        "ĠMer",
        -10.478630499040708
      ],
      [
        "Ġpotencial",
        -10.478716455210357
      ],
      [
        "Ġhabe",
        -10.478765191412808
      ],
      [
        "ella",
        -10.479303772047173
      ],
      [
        "usando",
        -10.4794768559534
      ],
      [
        "ĠMauro",
        -10.479511953730192
      ],
      [
        "mann",
        -10.479529752166712
      ],
      [
        "Ġchance",
        -10.479997318115156
      ],
      [
        "ĠCAR",
        -10.480643752351758
      ],
      [
        "conduta",
        -10.481433693956744
      ],
      [
        "ĠGar",
        -10.481516573213527
      ],
      [
        "teoria",
        -10.481969725414915
      ],
      [
        "Ġtive",
        -10.482110693134317
      ],
      [
        "true",
        -10.482918997759516
      ],
      [
        "udou",
        -10.483216659433896
      ],
      [
        "Ġapre",
        -10.483595288240352
      ],
      [
        "ĠJoaquim",
        -10.48378701332756
      ],
      [
        "recebimento",
        -10.483914796590447
      ],
      [
        "Eduardo",
        -10.484104197761646
      ],
      [
        "Ġouro",
        -10.484822540450295
      ],
      [
        "Ġbreve",
        -10.485321419543036
      ],
      [
        "ach",
        -10.48636495885941
      ],
      [
        "ĠGer",
        -10.486410540769423
      ],
      [
        "Ġfun",
        -10.486953665626954
      ],
      [
        "Ġrepercuss",
        -10.487095281487248
      ],
      [
        "Acordo",
        -10.487209458970938
      ],
      [
        "ĠAmbiente",
        -10.48724794077826
      ],
      [
        "ĠMiguel",
        -10.488117165866372
      ],
      [
        "REGIMENT",
        -10.488216813323929
      ],
      [
        "ĠFlÃ¡vi",
        -10.488356701899978
      ],
      [
        "Ġinternet",
        -10.48842578693026
      ],
      [
        "ADA",
        -10.488837290893397
      ],
      [
        "pÃµe",
        -10.48997381382136
      ],
      [
        "tomada",
        -10.490023200858635
      ],
      [
        "ĠcientÃŃfica",
        -10.490155119485298
      ],
      [
        "Chefe",
        -10.490237519678972
      ],
      [
        "polÃŃticas",
        -10.49060502817252
      ],
      [
        "FÃ¡bio",
        -10.49078348778868
      ],
      [
        "ExÃ©rcito",
        -10.49084526496325
      ],
      [
        "GoiÃ¡",
        -10.490961473437023
      ],
      [
        "escreveu",
        -10.490999246226275
      ],
      [
        "acrescenta",
        -10.491275724313727
      ],
      [
        "Ġaumenta",
        -10.491300962199784
      ],
      [
        "Ġanual",
        -10.493337438428206
      ],
      [
        "caracterÃŃsticas",
        -10.493894519428256
      ],
      [
        "idÃ©ia",
        -10.494639689532123
      ],
      [
        "ĠMil",
        -10.495099287446871
      ],
      [
        "Ġ66",
        -10.495274378281533
      ],
      [
        "ĠPrecisa",
        -10.495343161694612
      ],
      [
        "cenÃ¡rio",
        -10.495714828259766
      ],
      [
        "Ġatua",
        -10.497179363329414
      ],
      [
        "Ġpratica",
        -10.497496660277973
      ],
      [
        "Ġlonge",
        -10.497617212346032
      ],
      [
        "ther",
        -10.498090665301527
      ],
      [
        "cap",
        -10.498313846383004
      ],
      [
        "cy",
        -10.499180667280058
      ],
      [
        "Ġquerem",
        -10.500005013863326
      ],
      [
        "mecanismo",
        -10.50168769082678
      ],
      [
        "Ġ(...)",
        -10.501904354590389
      ],
      [
        "Ġvigorar",
        -10.502647401228035
      ],
      [
        "Ġaumentar",
        -10.502742443510888
      ],
      [
        "divisÃ£o",
        -10.50310195242474
      ],
      [
        "Ġentende",
        -10.503326603976392
      ],
      [
        "Ġfar",
        -10.503575413705972
      ],
      [
        "ĠveÃŃculo",
        -10.50358015743724
      ],
      [
        "sul",
        -10.503598906691304
      ],
      [
        "fontes",
        -10.504420854275455
      ],
      [
        "Ġadequada",
        -10.50471598532463
      ],
      [
        "implantaÃ§Ã£o",
        -10.5053327307691
      ],
      [
        "Ï",
        -10.505447671843596
      ],
      [
        "Ġportuguesa",
        -10.505575551413504
      ],
      [
        "ĠCD",
        -10.505584260402498
      ],
      [
        "produzido",
        -10.50563401605595
      ],
      [
        "oeste",
        -10.506013844743205
      ],
      [
        "CÃĤMARA",
        -10.506122190178722
      ],
      [
        "Ġminuto",
        -10.506203918492655
      ],
      [
        "Ġbatalha",
        -10.50635136917913
      ],
      [
        "Ġcaixa",
        -10.506425473175064
      ],
      [
        "ĠmemÃ³ria",
        -10.50676732986003
      ],
      [
        "ĠGua",
        -10.507003502133951
      ],
      [
        "ĠFaria",
        -10.50761924674711
      ],
      [
        "cÃ¡lculo",
        -10.50762430933418
      ],
      [
        "Nunca",
        -10.51032319405967
      ],
      [
        "isso",
        -10.510879058266038
      ],
      [
        "ĠLE",
        -10.511347160995856
      ],
      [
        "ocasiÃ£o",
        -10.511623765761705
      ],
      [
        "mail",
        -10.511638137649843
      ],
      [
        "ĠContas",
        -10.511700102755457
      ],
      [
        "Ġmassa",
        -10.511836504878245
      ],
      [
        "ĠEspere",
        -10.512342751575764
      ],
      [
        "Ġsolo",
        -10.512357647459256
      ],
      [
        "ĠPresident",
        -10.512358765489788
      ],
      [
        "Ġmeta",
[...]
