{
  "version": "1.0",
  "truncation": {
    "direction": "Right",
    "max_length": 1024,
    "strategy": "LongestFirst",
    "stride": 0
  },
  "padding": null,
  "added_tokens": [
    {
      "id": 0,
      "content": "[PAD]",
      "single_word": false,
      "lstrip": false,
      "rstrip": false,
      "normalized": false,
      "special": true
    },
    {
      "id": 1,
      "content": "[SEP]",
      "single_word": false,
      "lstrip": false,
      "rstrip": false,
      "normalized": false,
      "special": true
    },
    {
      "id": 2,
      "content": "[EOS]",
      "single_word": false,
      "lstrip": false,
      "rstrip": false,
      "normalized": false,
      "special": true
    },
    {
      "id": 3,
      "content": "[UNK]",
      "single_word": false,
      "lstrip": false,
      "rstrip": false,
      "normalized": false,
      "special": true
    }
  ],
  "normalizer": {
    "type": "Sequence",
    "normalizers": [
      {
        "type": "Strip",
        "strip_left": true,
        "strip_right": true
      },
      {
        "type": "NFKC"
      }
    ]
  },
  "pre_tokenizer": {
    "type": "ByteLevel",
    "add_prefix_space": true,
    "trim_offsets": true,
    "use_regex": true
  },
  "post_processor": {
    "type": "Sequence",
    "processors": [
      {
        "type": "ByteLevel",
        "add_prefix_space": true,
        "trim_offsets": true,
        "use_regex": true
      },
      {
        "type": "TemplateProcessing",
        "single": [
          {
            "Sequence": {
              "id": "A",
              "type_id": 0
            }
          },
          {
            "SpecialToken": {
              "id": "[EOS]",
              "type_id": 0
            }
          }
        ],
        "pair": [
          {
            "Sequence": {
              "id": "A",
              "type_id": 0
            }
          },
          {
            "SpecialToken": {
              "id": "[SEP]",
              "type_id": 0
            }
          },
          {
            "Sequence": {
              "id": "B",
              "type_id": 0
            }
          },
          {
            "SpecialToken": {
              "id": "[EOS]",
              "type_id": 0
            }
          }
        ],
        "special_tokens": {
          "[EOS]": {
            "id": "[EOS]",
            "ids": [
              2
            ],
            "tokens": [
              "[EOS]"
            ]
          },
          "[SEP]": {
            "id": "[SEP]",
            "ids": [
              1
            ],
            "tokens": [
              "[SEP]"
            ]
          }
        }
      }
    ]
  },
  "decoder": {
    "type": "ByteLevel",
    "add_prefix_space": true,
    "trim_offsets": true,
    "use_regex": true
  },
  "model": {
    "type": "Unigram",
    "unk_id": 3,
    "vocab": [
      [
        "[PAD]",
        0.0
      ],
      [
        "[SEP]",
        0.0
      ],
      [
        "[EOS]",
        0.0
      ],
      [
        "[UNK]",
        0.0
      ],
      [
        "Ġ",
        -1.922724008540765
      ],
      [
        ",",
        -3.279204265692485
      ],
      [
        "s",
        -3.3332200952194313
      ],
      [
        "a",
        -3.346256701684755
      ],
      [
        ".",
        -3.516519638718247
      ],
      [
        "o",
        -3.54711028293676
      ],
      [
        "Ġde",
        -3.6274811710684887
      ],
      [
        "e",
        -3.6460994525208896
      ],
      [
        "-",
        -4.574131350153177
      ],
      [
        "Ġque",
        -4.620492029623861
      ],
      [
        "Ġdo",
        -4.632817342998067
      ],
      [
        "r",
        -4.643370530236577
      ],
      [
        "Ġda",
        -4.805207798666295
      ],
      [
        "u",
        -4.838674143219535
      ],
      [
        "m",
        -5.077786864288978
      ],
      [
        "n",
        -5.157035474077343
      ],
      [
        "i",
        -5.171638377865982
      ],
      [
        "Ġem",
        -5.198906711762266
      ],
      [
        "\"",
        -5.247936866046995
      ],
      [
        "(",
        -5.303812193014405
      ],
      [
        "l",
        -5.318100912215286
      ],
      [
        "Ġno",
        -5.330894508369191
      ],
      [
        "O",
        -5.379251652826145
      ],
      [
        ")",
        -5.409651184327174
      ],
      [
        "Ġpara",
        -5.417676490960176
      ],
      [
        "c",
        -5.461640999702784
      ],
      [
        "Ġcom",
        -5.5339199581640415
      ],
      [
        "t",
        -5.5896036865340655
      ],
      [
        "ĠA",
        -5.662758515309825
      ],
      [
        "d",
        -5.673675717417257
      ],
      [
        "p",
        -5.685478290107024
      ],
      [
        ":",
        -5.7410130728149245
      ],
      [
        "Ġum",
        -5.774232043174683
      ],
      [
        "ĠâĢĵ",
        -5.781761207585225
      ],
      [
        "/",
        -5.784364602986548
      ],
      [
        "ĠÃ©",
        -5.789614181858736
      ],
      [
        "Ġna",
        -5.831224422627965
      ],
      [
        "ĠnÃ£o",
        -5.873157076915138
      ],
      [
        "S",
        -5.9222616504838435
      ],
      [
        "Ġuma",
        -5.983455463818663
      ],
      [
        "g",
        -5.993087459230292
      ],
      [
        "Ġpor",
        -6.015415831353646
      ],
      [
        "do",
        -6.019549677745008
      ],
      [
        "Ġse",
        -6.124792281288254
      ],
      [
        "A",
        -6.186498970042235
      ],
      [
        "b",
        -6.20310783627167
      ],
      [
        "da",
        -6.218109181543703
      ],
      [
        "1",
        -6.23258056400365
      ],
      [
        "Ã§Ã£o",
        -6.256205571984001
      ],
      [
        "E",
        -6.260556255096651
      ],
      [
        "h",
        -6.322951208277956
      ],
      [
        "Ġdos",
        -6.3369160732543435
      ],
      [
        "3",
        -6.341515164784585
      ],
      [
        "2",
        -6.373594426345711
      ],
      [
        "ĠÃł",
        -6.385178173803288
      ],
      [
        "?",
        -6.386130270839734
      ],
      [
        "Ġcomo",
        -6.392130718271451
      ],
      [
        "I",
        -6.419605521003659
      ],
      [
        "7",
        -6.434195536048813
      ],
      [
        "4",
        -6.441049851070822
      ],
      [
        "de",
        -6.464631981758229
      ],
      [
        "ndo",
        -6.4697217739089385
      ],
      [
        "5",
        -6.487657465361341
      ],
      [
        "6",
        -6.495934765755376
      ],
      [
        "8",
        -6.525691220639326
      ],
      [
        "Ġfoi",
        -6.5317934099238695
      ],
      [
        "f",
        -6.539964245677547
      ],
      [
        "!",
        -6.592195092810723
      ],
      [
        "Ġmais",
        -6.600033816541179
      ],
      [
        "v",
        -6.619650926402938
      ],
      [
        "R",
        -6.628399971464445
      ],
      [
        "P",
        -6.710004518744922
      ],
      [
        "Ġou",
        -6.7258557442556945
      ],
      [
        ";",
        -6.728864345788162
      ],
      [
        "Ġpela",
        -6.7480573810383895
      ],
      [
        "ĠDE",
        -6.766031290503015
      ],
      [
        "ĠNo",
        -6.804593066768913
      ],
      [
        "y",
        -6.805838237080911
      ],
      [
        "9",
        -6.806776861016443
      ],
      [
        "Ġpelo",
        -6.817317139529825
      ],
      [
        "C",
        -6.830941470427815
      ],
      [
        "Ġsua",
        -6.837349668995575
      ],
      [
        "ti",
        -6.868367482294179
      ],
      [
        "................",
        -6.870877819033829
      ],
      [
        "to",
        -6.878010240226246
      ],
      [
        "Ġre",
        -6.900740541435358
      ],
      [
        "ĠSr",
        -6.909775793123961
      ],
      [
        "Ġser",
        -6.930770173213077
      ],
      [
        "Ġdas",
        -6.93614100242165
      ],
      [
        "co",
        -6.953731519703979
      ],
      [
        "is",
        -6.9783696023180966
      ],
      [
        "Ġsobre",
        -6.987210094444997
      ],
      [
        "...",
        -6.988919172754784
      ],
      [
        "ĠC",
        -6.99621961231192
      ],
      [
        "L",
        -7.006655817146658
      ],
      [
        "la",
        -7.008031594692005
      ],
      [
        "mente",
        -7.017009103229206
      ],
      [
        "ri",
        -7.02002902960138
      ],
      [
        "dos",
        -7.021424226745873
      ],
      [
        "Ã£o",
        -7.029738756868888
      ],
      [
        "ÃŃ",
        -7.032014819479368
      ],
      [
        "in",
        -7.032491365502709
      ],
      [
        "mos",
        -7.042511680864955
      ],
      [
        "li",
        -7.054595497962541
      ],
      [
        "na",
        -7.059359413147645
      ],
      [
        "Ã©",
        -7.0734828701280925
      ],
      [
        "ĠâĢľ",
        -7.083372200665712
      ],
      [
        "Ġseu",
        -7.087566605670542
      ],
      [
        "te",
        -7.097591267416934
      ],
      [
        "T",
        -7.127135376706423
      ],
      [
        "k",
        -7.13313930787119
      ],
      [
        "ram",
        -7.13496508124698
      ],
      [
        "ĠPresidente",
        -7.140694310382191
      ],
      [
        "ĠestÃ¡",
        -7.149397900070413
      ],
      [
        "Ã¡",
        -7.157607223761724
      ],
      [
        "ĠNÃ£o",
        -7.168300251632051
      ],
      [
        "va",
        -7.172920402532217
      ],
      [
        "U",
        -7.175693453591979
      ],
      [
        "ĠEm",
        -7.17609042687017
      ],
      [
        "ĠtambÃ©m",
        -7.179041856515269
      ],
      [
        "ou",
        -7.187187513672608
      ],
      [
        "D",
        -7.190855573758185
      ],
      [
        "ĠLei",
        -7.197218794245952
      ],
      [
        "em",
        -7.20325719229794
      ],
      [
        "z",
        -7.21228318936712
      ],
      [
        "Ġ19",
        -7.231962236816219
      ],
      [
        "Ġin",
        -7.265717989280216
      ],
      [
        "Ġnos",
        -7.277469445435937
      ],
      [
        "ĠDeputado",
        -7.282194964048772
      ],
      [
        "Ġmas",
        -7.285142952753668
      ],
      [
        "Ġtem",
        -7.286478994913354
      ],
      [
        "ĠV",
        -7.290092137419053
      ],
      [
        "x",
        -7.299767107897244
      ],
      [
        "M",
        -7.301218413584758
      ],
      [
        "Ã§Ãµes",
        -7.34052429580729
      ],
      [
        "Ġart",
        -7.356611648676342
      ],
      [
        "das",
        -7.365518831907494
      ],
      [
        "Ġele",
        -7.37830183154661
      ],
      [
        "ci",
        -7.406993283699617
      ],
      [
        "ĠSR",
        -7.428467641696026
      ],
      [
        "ĠsÃ£o",
        -7.434752638152151
      ],
      [
        "ĠFederal",
        -7.441860284591362
      ],
      [
        "N",
        -7.444707374858737
      ],
      [
        "ĠÃī",
        -7.450751015017659
      ],
      [
        "vi",
        -7.456634435520952
      ],
      [
        "Ġisso",
        -7.456708344730245
      ],
      [
        "B",
        -7.465901797126756
      ],
      [
        "Ã³",
        -7.484976431537913
      ],
      [
        "Ġanos",
        -7.4860027690863795
      ],
      [
        "que",
        -7.489141459551469
      ],
      [
        "ĠBrasil",
        -7.492860718246023
      ],
      [
        "ĠEstado",
        -7.497000007556775
      ],
      [
        "no",
        -7.503238745202033
      ],
      [
        "ĠSenador",
        -7.512884696654954
      ],
      [
        "F",
        -7.527876649105672
      ],
      [
        "ĠF",
        -7.53009182368177
      ],
      [
        "ĠEu",
        -7.53708340461125
      ],
      [
        "Ġme",
        -7.542780140120689
      ],
      [
        "Ġentre",
        -7.550046293501149
      ],
      [
        "idade",
        -7.555195824423484
      ],
      [
        "ĠvocÃª",
        -7.561353331581909
      ],
      [
        "Ġaos",
        -7.574428283682272
      ],
      [
        "Ġmuito",
        -7.57823688574925
      ],
      [
        ").",
        -7.600016391061176
      ],
      [
        "Ġcon",
        -7.611440529804252
      ],
      [
        "ria",
        -7.621902244666755
      ],
      [
        "ĠatÃ©",
        -7.633885284114239
      ],
      [
        "ĠjÃ¡",
        -7.64000314721028
      ],
      [
        "%",
        -7.644355564896188
      ],
      [
        "ter",
        -7.653853995276846
      ],
      [
        "ĠDe",
        -7.66998412436322
      ],
      [
        "cia",
        -7.674071324709475
      ],
      [
        "ĠComissÃ£o",
        -7.695087192514979
      ],
      [
        "Ġforma",
        -7.69981169896112
      ],
      [
        "ver",
        -7.701117741648341
      ],
      [
        "ir",
        -7.706209371451946
      ],
      [
        "Ġbem",
        -7.718223081060657
      ],
      [
        "ĠSe",
        -7.722263728076422
      ],
      [
        "min",
        -7.73294837731167
      ],
      [
        "Ġpode",
        -7.73360476839038
      ],
      [
        "w",
        -7.737820787672668
      ],
      [
        "V",
        -7.739942190835421
      ],
      [
        "Ġpro",
        -7.771903988960345
      ],
      [
        "Ġquando",
        -7.775225160490123
      ],
      [
        "bi",
        -7.776349914416219
      ],
      [
        "ĠB",
        -7.786469206010503
      ],
      [
        "ĠNa",
        -7.791299178339823
      ],
      [
        "Ġ10",
        -7.792997039595837
      ],
      [
        "Ġaqui",
        -7.801074168765101
      ],
      [
        "Ġsem",
        -7.801573022564252
      ],
      [
        "Ġmesmo",
        -7.8079522734018845
      ],
      [
        "G",
        -7.817709435530462
      ],
      [
        "ĠNacional",
        -7.818489631284189
      ],
      [
        "ĠPor",
        -7.831626742693702
      ],
      [
        "ĠRe",
        -7.842796952649282
      ],
      [
        "gi",
        -7.844816231203685
      ],
      [
        "um",
        -7.848168045993365
      ],
      [
        "j",
        -7.851877540959489
      ],
      [
        "tra",
        -7.857610024683558
      ],
      [
        "ĠÂ§",
        -7.858975148845115
      ],
      [
        "Ġtodos",
        -7.864475207136422
      ],
      [
        "0",
        -7.866502337643775
      ],
      [
        "res",
        -7.872405980726965
      ],
      [
        "Ġainda",
        -7.880458848938533
      ],
      [
        "ĠSÃ£o",
        -7.8862105320593905
      ],
      [
        "Ġcontra",
        -7.892310854228205
      ],
      [
        "Ġ18",
        -7.892904469252674
      ],
      [
        "Ġdia",
        -7.899556040431241
      ],
      [
        "Ġex",
        -7.908583605181731
      ],
      [
        "aÃ§Ã£o",
        -7.914602985597719
      ],
      [
        "ĠOs",
        -7.917408376970226
      ],
      [
        "Ġseus",
        -7.924012381964689
      ],
      [
        "Ġera",
        -7.928709951601016
      ],
      [
        "Ġter",
        -7.928851260259831
      ],
      [
        "br",
        -7.931744087530777
      ],
      [
        "Ãª",
        -7.934794888815793
      ],
      [
        "âĢĿ.",
        -7.938322416382157
      ],
      [
        "Ġesta",
        -7.939528874920962
      ],
      [
        "Ġparte",
        -7.949712223423662
      ],
      [
        "ĠG",
        -7.954819497485062
      ],
      [
        "Ġcidade",
        -7.957211347056042
      ],
      [
        "fi",
        -7.9603195591062335
      ],
      [
        "Ġforam",
        -7.964937086374952
      ],
      [
        "Ġfazer",
        -7.973767184290249
      ],
      [
        "ĠPaulo",
        -7.980677335702278
      ],
      [
        "Ġano",
        -7.981554799089718
      ],
      [
        "Ġcaso",
        -7.984872511260109
      ],
      [
        "ĠhÃ¡",
        -7.985612596577248
      ],
      [
        "ĠCom",
        -7.995666311251146
      ],
      [
        "ĠT",
        -8.006293739328308
      ],
      [
        "ĠPL",
        -8.014864263771518
      ],
      [
        "ch",
        -8.031751005075803
      ],
      [
        "Ġesse",
        -8.042518110204043
      ],
      [
        "Ġtempo",
        -8.05488297870079
      ],
      [
        "il",
        -8.057404972814368
      ],
      [
        "Ġessa",
        -8.059620871790099
      ],
      [
        "H",
        -8.064552372155823
      ],
      [
        "PRESIDENTE",
        -8.069357105079625
      ],
      [
        "nte",
        -8.070040954138312
      ],
      [
        "PROJETO",
        -8.075752806374476
      ],
      [
        "Ġseja",
        -8.080677962403394
      ],
      [
        "Ġvai",
        -8.086074702837717
      ],
      [
        "cio",
        -8.087548778529808
      ],
      [
        "ĠD",
        -8.089815330723793
      ],
      [
        "mento",
        -8.090006247644826
      ],
      [
        "ĠLEI",
        -8.09467393112394
      ],
      [
        "ĠÃłs",
        -8.100417232495682
      ],
      [
        "Ġmeu",
        -8.100839467534925
      ],
      [
        "ita",
        -8.102753310292067
      ],
      [
        "Ġporque",
        -8.104980452634589
      ],
      [
        "ĠsÃ³",
        -8.106696608149768
      ],
      [
        "ĠM",
        -8.1083332051268
      ],
      [
        "ĠMas",
        -8.116958484512221
      ],
      [
        "ĠEle",
        -8.121740009747525
      ],
      [
        "Ġprimeiro",
        -8.126597112970842
      ],
      [
        "ĠDeputados",
        -8.131470431008118
      ],
      [
        "tar",
        -8.131654311127287
      ],
      [
        "Ġela",
        -8.151144206040254
      ],
      [
        "ĠJ",
        -8.155934873257594
      ],
      [
        "RELATOR",
        -8.15653129685975
      ],
      [
        "ĠGoverno",
        -8.159751252625885
      ],
      [
        "ĠMinistro",
        -8.164044715708267
      ],
      [
        "Ġonde",
        -8.164372044216192
      ],
      [
        "âĢĿ",
        -8.168773950881713
      ],
      [
        "Ġnas",
        -8.171393056583009
      ],
      [
        "Ġ12",
        -8.171428132207193
      ],
      [
        "Ãº",
        -8.174020705910102
      ],
      [
        "ĠConstituiÃ§Ã£o",
        -8.175028884873221
      ],
      [
        "00",
        -8.175789961777001
      ],
      [
        "ĠVocÃª",
        -8.17793631483094
      ],
      [
        "tor",
        -8.18325254140443
      ],
      [
        "ja",
        -8.185894433687297
      ],
      [
        "'",
        -8.187585467470727
      ],
      [
        "Ġpessoas",
        -8.187701476649162
      ],
      [
        "19",
        -8.188583682456464
      ],
      [
        "Ġvez",
        -8.195140169206503
      ],
      [
        "Ġgrande",
        -8.198259895447725
      ],
      [
        "Ġ11",
        -8.198995211875342
      ],
      [
        "Ġdi",
        -8.199894370410645
      ],
      [
        "Ġartigo",
        -8.204220247437032
      ],
      [
        "Ġoutros",
        -8.206317131351708
      ],
      [
        "ĠIn",
        -8.208710896110908
      ],
      [
        "ĠSenhor",
        -8.210233331769798
      ],
      [
        "tro",
        -8.211424023067504
      ],
      [
        "ĠDo",
        -8.22044059331426
      ],
      [
        "Ġtrabalho",
        -8.220884586567646
      ],
      [
        "qui",
        -8.22137933319655
      ],
      [
        "ĠestÃ£o",
        -8.222533410131948
      ],
      [
        "Ġapenas",
        -8.224376053383391
      ],
      [
        "Ġlei",
        -8.227837202510969
      ],
      [
        "Ġoutras",
        -8.233455156513587
      ],
      [
        "Ġpre",
        -8.236785637283297
      ],
      [
        "ĠCÃ¢mara",
        -8.237277633908624
      ],
      [
        "ĠnÃ³s",
        -8.239923835617796
      ],
      [
        "Ġ15",
        -8.252799706286076
      ],
      [
        "man",
        -8.255229690384295
      ],
      [
        "ĠArt",
        -8.257177034811225
      ],
      [
        "est",
        -8.257813851175294
      ],
      [
        "Ġvi",
        -8.259972852312494
      ],
      [
        "Ġsendo",
        -8.261821461083759
      ],
      [
        "ĠRio",
        -8.270070758786797
      ],
      [
        "sta",
        -8.27256104884412
      ],
      [
        "ĠMo",
        -8.279342973131971
      ],
      [
        "Ġordem",
        -8.279620129344613
      ],
      [
        "Ġdois",
        -8.280150407640095
      ],
      [
        "Ġnosso",
        -8.280720361488429
      ],
      [
        "Ġeste",
        -8.285751128461598
      ],
      [
        "ĠProjeto",
        -8.28951984162904
      ],
      [
        "per",
        -8.292179570103885
      ],
      [
        "ĠII",
        -8.293977717519349
      ],
      [
        "rÃ¡",
        -8.29716278088454
      ],
      [
        "ES",
        -8.307661362717685
      ],
      [
        "Ġsuas",
        -8.309395355354615
      ],
      [
        "Ġnome",
        -8.312599386622015
      ],
      [
        "Ġminha",
        -8.315775670448566
      ],
      [
        "ĠCasa",
        -8.31998163647318
      ],
      [
        "10",
        -8.320858609813492
      ],
      [
        "Ġhoje",
        -8.324147042133317
      ],
      [
        "Ġmaior",
        -8.32467527296322
      ],
      [
        "ĠpÃºblica",
        -8.32468821595744
      ],
      [
        "tos",
        -8.327986138370088
      ],
      [
        "ĠPara",
        -8.329290789096229
      ],
      [
        "Ġtermos",
        -8.333227603914924
      ],
      [
        "ĠserÃ¡",
        -8.333864165217863
      ],
      [
        "ica",
        -8.337830099980474
      ],
      [
        "Ġprocesso",
        -8.341104931680192
      ],
      [
        "ĠReferÃªncias",
        -8.342335711625681
      ],
      [
        "car",
        -8.344632927801108
      ],
      [
        "Ġmeio",
        -8.345639849305464
      ],
      [
        "ĠserviÃ§o",
        -8.34721080843055
      ],
      [
        "Ġco",
        -8.347410655513064
      ],
      [
        "ente",
        -8.347613299020082
      ],
      [
        "Ġassim",
        -8.347825936590805
      ],
      [
        "Ġdesta",
        -8.350729696389662
      ],
      [
        "Ãªncia",
        -8.350858179432493
      ],
      [
        "Ġprojeto",
        -8.354832025100494
      ],
      [
        "Ġ16",
        -8.35574715061457
      ],
      [
        "iz",
        -8.357366183559838
      ],
      [
        "it",
        -8.358790550049427
      ],
      [
        "lha",
        -8.36353451534967
      ],
      [
        "ĠLi",
        -8.364214560972751
      ],
      [
        "ista",
        -8.36743780207989
      ],
      [
        "PSDB",
        -8.369563667811233
      ],
      [
        "ĠRo",
        -8.374396037487658
      ],
      [
        "ĠSenado",
        -8.37451697517504
      ],
      [
        "Ġpo",
        -8.374578274086648
      ],
      [
        "Ġqual",
        -8.375083808413406
      ],
      [
        "Ġ17",
        -8.375090393082845
      ],
      [
        "ĠDO",
        -8.376323457833024
      ],
      [
        "Ġ13",
        -8.382332472860064
      ],
      [
        "Ġ14",
        -8.389116088481346
      ],
      [
        "Ġ20",
        -8.394512314542544
      ],
      [
        "dia",
        -8.395413914102873
      ],
      [
        "aÃ§Ãµes",
        -8.39656498690955
      ],
      [
        "sse",
        -8.399529824865068
      ],
      [
        "ĠAl",
        -8.401727811738462
      ],
      [
        "Ġdireito",
        -8.40262888768571
      ],
      [
        "Ġvida",
        -8.402843293869436
      ],
      [
        "lar",
        -8.407345521824586
      ],
      [
        "Ãµes",
        -8.408906541758535
      ],
      [
        "ĠMa",
        -8.411927997440664
      ],
      [
        "ĠpolÃŃtica",
        -8.411960780191517
      ],
      [
        "Ġprimeira",
        -8.416872777408374
      ],
      [
        "ĠComo",
        -8.41848621829636
      ],
      [
        "nha",
        -8.421775237026191
      ],
      [
        "Ġdisse",
        -8.422972596624188
      ],
      [
        "$",
        -8.423895183267303
      ],
      [
        "ina",
        -8.42467097547994
      ],
      [
        "ida",
        -8.427058239325417
      ],
      [
        "Ġqualquer",
        -8.427669250899115
      ],
      [
        "J",
        -8.427913081323926
      ],
      [
        "tal",
        -8.43145392019067
      ],
      [
        "ĠTribunal",
        -8.432966797595405
      ],
      [
        "11",
        -8.433134940980624
      ],
      [
        "ĠSem",
        -8.435125023505154
      ],
      [
        "Ġdeste",
        -8.439718620132568
      ],
      [
        "ĠâĢ¢",
        -8.440879722140266
      ],
      [
        "ĠJosÃ©",
        -8.446342822584251
      ],
      [
        "Ġseguinte",
        -8.449983930378949
      ],
      [
        "ĠCon",
        -8.451468203688957
      ],
      [
        "Ġvoto",
        -8.45506195036336
      ],
      [
        "Ã",
        -8.455546084234243
      ],
      [
        "Ġpalavra",
        -8.456616905432467
      ],
      [
        "ĠPaÃŃs",
        -8.460336145524602
      ],
      [
        "Ġacordo",
        -8.464145356727968
      ],
      [
        "ĠDA",
        -8.46549092879532
      ],
      [
        "Ġsu",
        -8.46677610307225
      ],
      [
        "Ġtodo",
        -8.467545905913497
      ],
      [
        "Ġca",
        -8.467968936850442
      ],
      [
        "ĠÃ¡rea",
        -8.469287421617771
      ],
      [
        "Ġsistema",
        -8.47133434084143
      ],
      [
        "Ġcada",
        -8.472832126454222
      ],
      [
        "Ġdepois",
        -8.472984512482718
      ],
      [
        "za",
        -8.47847240264535
      ],
      [
        "MA",
        -8.481535712550848
      ],
      [
        "rem",
        -8.483393236798168
      ],
      [
        "ĠDa",
        -8.487476695698035
      ],
      [
        "ĠMinistÃ©rio",
        -8.49178294881803
      ],
      [
        "ĠLa",
        -8.492482388700212
      ],
      [
        "mar",
        -8.493196098068509
      ],
      [
        "ito",
        -8.495959473656743
      ],
      [
        "Ġprazo",
        -8.496486942473995
      ],
      [
        "cha",
        -8.499239056139277
      ],
      [
        "Ġmelhor",
        -8.501573371560056
      ],
      [
        "ĠCarlos",
        -8.507162643413258
      ],
      [
        "ĠpÃºblico",
        -8.509941837566153
      ],
      [
        "Ġdeve",
        -8.510815916607916
      ],
      [
        "ntes",
        -8.512120350182482
      ],
      [
        "ĠSim",
        -8.512373331863683
      ],
      [
        "ĠapÃ³s",
        -8.513233768968368
      ],
      [
        "Ã§a",
        -8.514637197794864
      ],
      [
        "ing",
        -8.516571619052947
      ],
      [
        "ĠRelator",
        -8.519891267284848
      ],
      [
        "09",
        -8.520264191206405
      ],
      [
        "dor",
        -8.521279308856112
      ],
      [
        "Ġagora",
        -8.522788135336157
      ],
      [
        "Ã´",
        -8.523217349856354
      ],
      [
        "ck",
        -8.524157838812553
      ],
      [
        "com",
        -8.525966667496377
      ],
      [
        "Ġpresente",
        -8.526929969608785
      ],
      [
        "con",
        -8.532388109965977
      ],
      [
        "ĠMar",
        -8.536549802025087
      ],
      [
        "AL",
        -8.541892195422307
      ],
      [
        "Ġsob",
        -8.544380771081514
      ],
      [
        "ĠPT",
        -8.544528666277037
      ],
      [
        "Ġimportante",
        -8.546234075289693
      ],
      [
        "DO",
        -8.548479858582068
      ],
      [
        "ando",
        -8.551075838484353
      ],
      [
        "ten",
        -8.551556234676685
      ],
      [
        "Bloco",
        -8.557272068565762
      ],
      [
        "ĠRepÃºblica",
        -8.557442585956835
      ],
      [
        "ismo",
        -8.559812949839344
      ],
      [
        "dores",
        -8.560264618469116
      ],
      [
        "Ġsegundo",
        -8.561781685926597
      ],
      [
        "Ġmundo",
        -8.564298640163344
      ],
      [
        "durante",
        -8.569220425531931
      ],
      [
        "Ġdizer",
        -8.569438645433245
      ],
      [
        "Ġper",
        -8.572568021914206
      ],
      [
        "ĠAs",
        -8.573415284001639
      ],
      [
        "cer",
        -8.573920270725267
      ],
      [
        "Ġato",
        -8.57472342987477
      ],
      [
        "ĠK",
        -8.575532725665509
      ],
      [
        "th",
        -8.576495832656612
      ],
      [
        "Ġnossa",
        -8.585302938313093
      ],
      [
        "tiva",
        -8.586103069412681
      ],
      [
        "15",
        -8.589141667330448
      ],
      [
        "eira",
        -8.589706896749695
      ],
      [
        "ĠmatÃ©ria",
        -8.591457711451692
      ],
      [
        "tri",
        -8.592460957651964
      ],
      [
        "ĠJustiÃ§a",
        -8.596862426732956
      ],
      [
        "Ġmil",
        -8.597506762073424
      ],
      [
        "ĠW",
        -8.598865040877842
      ],
      [
        "RI",
        -8.601969736684525
      ],
      [
        "ĠVi",
        -8.6022458869145
      ],
      [
        "gen",
        -8.602900679946467
      ],
      [
        "Ġestava",
        -8.60353812487046
      ],
      [
        "_",
        -8.603796746628184
      ],
      [
        "Ġsido",
        -8.60765860826747
      ],
      [
        "ĠBa",
        -8.611482487883912
      ],
      [
        "pre",
        -8.614842472847362
      ],
      [
        "Z",
        -8.61817867540119
      ],
      [
        "dezembro",
        -8.618939934377224
      ],
      [
        "Ġrecursos",
        -8.618947300752362
      ],
      [
        "rei",
        -8.619313044870868
      ],
      [
        "X",
        -8.620374610373462
      ],
      [
        "ÃĩÃĥO",
        -8.62399446311319
      ],
      [
        "ĠN",
        -8.630616405463805
      ],
      [
        "ĠEstados",
        -8.634457186849257
      ],
      [
        "ĠAn",
        -8.636659259002323
      ],
      [
        "Ġcasa",
        -8.63832434982029
      ],
      [
        "fer",
        -8.638476942859276
      ],
      [
        "ĠtrÃªs",
        -8.639826847957137
      ],
      [
        "Ġoutro",
        -8.6399638018774
      ],
      [
        "ĠPe",
        -8.64062058945872
      ],
      [
        "Ġpartir",
        -8.642438146769575
      ],
      [
        "12",
        -8.643043483428215
      ],
      [
        "2009",
        -8.647807646435226
      ],
      [
        "Ġtudo",
        -8.64866606159469
      ],
      [
        "tado",
        -8.651559096428313
      ],
      [
        "=",
        -8.651687330824753
      ],
      [
        "orador",
        -8.652021574035874
      ],
      [
        "Ġ24",
        -8.65299084360894
      ],
      [
        "ĠentÃ£o",
        -8.654659262163955
      ],
      [
        "Ġfato",
        -8.656241475024256
      ],
      [
        "men",
        -8.658092742688106
      ],
      [
        "AS",
        -8.658400231614594
      ],
      [
        "Ġfinal",
        -8.662091734924296
      ],
      [
        "ĠnÃºmero",
        -8.667027816631336
      ],
      [
        "ĠVer",
        -8.66899506737935
      ],
      [
        "Ì",
        -8.669876081938952
      ],
      [
        "Ġprograma",
        -8.670579422455626
      ],
      [
        "PT",
        -8.670727033345207
      ],
      [
        "Ġvalor",
        -8.671489894077016
      ],
      [
        "Ġmomento",
        -8.672947191853318
      ],
      [
        "ĠMe",
        -8.67333343751138
      ],
      [
        "Q",
        -8.67343123937423
      ],
      [
        "ĠH",
        -8.673661870211978
      ],
      [
        "@",
        -8.674117873179362
      ],
      [
        "ĠPR",
        -8.675314528110547
      ],
      [
        "tas",
        -8.676595909958001
      ],
      [
        "and",
        -8.67660860793904
      ],
      [
        "decisÃ£o",
        -8.677223286253174
      ],
      [
        "ion",
        -8.680146552015238
      ],
      [
        "ĠLe",
        -8.682031130465104
      ],
      [
        "Ġver",
        -8.682132104448437
      ],
      [
        "Ġgrupo",
        -8.68341902032233
      ],
      [
        "revisÃ£o",
        -8.683780086372437
      ],
      [
        "Ġgoverno",
        -8.683987686856923
      ],
      [
        "Ġfa",
        -8.687136051852265
      ],
      [
        "Ġdesde",
        -8.687363023172002
      ],
      [
        "ĠJoÃ£o",
        -8.687898799144053
      ],
      [
        "Ġdias",
        -8.69064439098064
      ],
      [
        "Ġantes",
        -8.690789512045436
      ],
      [
        "ĠPMDB",
        -8.691401040398421
      ],
      [
        "les",
        -8.693308872945323
      ],
      [
        "ĠfamÃŃlia",
        -8.694420210284646
      ],
      [
        "amento",
        -8.695040680285691
      ],
      [
        "ora",
        -8.696449807843646
      ],
      [
        "Ġconta",
        -8.696549530629909
      ],
      [
        "20",
        -8.697947055560046
      ],
      [
        "Ġte",
        -8.702212668743083
      ],
      [
        "Ġpa",
        -8.702892938595703
      ],
      [
        "Ġnovo",
        -8.705605715623722
      ],
      [
        "ĠpaÃŃs",
        -8.712770618495911
      ],
      [
        "gue",
        -8.713350573421822
      ],
      [
        "ĠIsso",
        -8.713357307431709
      ],
      [
        "Ġeles",
        -8.714263153638889
      ],
      [
        "ĠUniÃ£o",
        -8.717132934844633
      ],
      [
        "ĠUm",
        -8.717728766998947
      ],
      [
        "qu",
        -8.719389866085463
      ],
      [
        "nal",
        -8.724194466631298
      ],
      [
        "Ġproposta",
        -8.72511669710985
      ],
      [
        "ĠpopulaÃ§Ã£o",
        -8.728420554441653
      ],
      [
        "ĠHa",
        -8.730310195040234
      ],
      [
        "nos",
        -8.73053364510105
      ],
      [
        "ÃĥO",
        -8.73067043366463
      ],
      [
        "Ġsempre",
        -8.734721061062636
      ],
      [
        "ng",
        -8.735707359546614
      ],
      [
        "05",
        -8.741939060254042
      ],
      [
        "ĠlÃ¡",
        -8.742057351052978
      ],
      [
        "Ġinciso",
        -8.742709985542307
      ],
      [
        "ren",
        -8.744966776375543
      ],
      [
        "Ġpoder",
        -8.74671971467975
      ],
      [
        "Ġbrasileiro",
        -8.74800017146804
      ],
      [
        "Ġsub",
        -8.751848424832408
      ],
      [
        "Ġduas",
        -8.75397078465503
      ],
      [
        "Ġ30",
        -8.754288168088094
      ],
      [
        "ĠdÃ¡",
        -8.754452349005208
      ],
      [
        "ĠrelaÃ§Ã£o",
        -8.754993824747798
      ],
      [
        "Ġ:(",
        -8.758093432253252
      ],
      [
        "Ġ21",
        -8.763094059199249
      ],
      [
        "ĠâĢĶ",
        -8.763401381834193
      ],
      [
        "Ġmenos",
        -8.763848568854756
      ],
      [
        "ĠmilhÃµes",
        -8.765453041675517
      ],
      [
        "Ġpouco",
        -8.765629492066305
      ],
      [
        "ĠFoi",
        -8.766863771810447
      ],
      [
        "ĠEntÃ£o",
        -8.768671208358668
      ],
      [
        "ata",
        -8.768974879250102
      ],
      [
        "Ġtinha",
        -8.769087116698174
      ],
      [
        "18",
        -8.76965120336557
      ],
      [
        "03",
        -8.769796046587317
      ],
      [
        "Congresso",
        -8.771056233166943
      ],
      [
        "nesta",
        -8.772346692235613
      ],
      [
        "mor",
        -8.777017176442516
      ],
      [
        "lin",
        -8.779876443770291
      ],
      [
        "ĠCa",
        -8.781702461682416
      ],
      [
        "ĠvotaÃ§Ã£o",
        -8.78278322725475
      ],
      [
        "los",
        -8.785869776312467
      ],
      [
        "Ġquanto",
        -8.789413083905789
      ],
      [
        "OS",
        -8.789576213978133
      ],
      [
        "ĠSul",
        -8.791007552107127
      ],
      [
        "Ġbrasileira",
        -8.791023211789266
      ],
      [
        "aprovaÃ§Ã£o",
        -8.791400787274853
      ],
      [
        "ĠPela",
        -8.793673742048872
      ],
      [
        "ĠQue",
        -8.793875909345003
      ],
      [
        "Ġpelos",
        -8.795347741708827
      ],
      [
        "Ġfim",
        -8.79812764583433
      ],
      [
        "can",
        -8.798392832982563
      ],
      [
        "ĠPa",
        -8.798711420609122
      ],
      [
        "ĠJu",
        -8.799450049335531
      ],
      [
        "neste",
        -8.799720025464747
      ],
      [
        "ante",
        -8.800254943766804
      ],
      [
        "âĢĵ",
        -8.801622749308432
      ],
      [
        "Ġ23",
        -8.802972755388723
      ],
      [
        "ĠDi",
        -8.80463026453406
      ],
      [
        "ĠEsta",
        -8.806629102556418
      ],
      [
        "ral",
        -8.808032962283058
      ],
      [
        "ĠperÃŃodo",
        -8.810380945535638
      ],
      [
        "ros",
        -8.813952813439485
      ],
      [
        "Ġ25",
        -8.814283460959032
      ],
      [
        "Ãģ",
        -8.820154525449722
      ],
      [
        "lhe",
        -8.821089030367773
      ],
      [
        "Ġ22",
        -8.821742210688821
      ],
      [
        "TO",
        -8.821921597006874
      ],
      [
        "08",
        -8.824696845001245
      ],
      [
        "ĠÃºnico",
        -8.827386342833895
      ],
      [
        "K",
        -8.827750674903756
      ],
      [
        "ĠhistÃ³ria",
        -8.82838092968656
      ],
      [
        "17",
        -8.830371573727064
      ],
      [
        "DI",
        -8.831189095754262
      ],
      [
        "Ã§o",
        -8.831427786192185
      ],
      [
        "ĠinformaÃ§Ãµes",
        -8.83455470528484
      ],
      [
        "Ġfor",
        -8.835141927247841
      ],
      [
        "Ġcor",
        -8.838413926179351
      ],
      [
        "Ġtodas",
        -8.838435435511629
      ],
      [
        "ĠsaÃºde",
        -8.839223924374252
      ],
      [
        "ĠPoder",
        -8.841442238290464
      ],
      [
        "Ġfaz",
        -8.842324669989306
      ],
      [
        "Ġvezes",
        -8.842404849747714
      ],
      [
        "ĠTe",
        -8.843157271930988
      ],
      [
        "Ġbase",
        -8.845930285308622
      ],
      [
        "07",
        -8.847913481699287
      ],
      [
        "Ġsocial",
        -8.848707360658342
      ],
      [
        "ĠregiÃ£o",
        -8.851233473993233
      ],
      [
        "pen",
        -8.85673539409531
      ],
      [
        "Ġexemplo",
        -8.857089863525196
      ],
      [
        "Ġfez",
        -8.86005051662981
      ],
      [
        "ĠJo",
        -8.861273697135724
      ],
      [
        "ĠSra",
        -8.862707985805827
      ],
      [
        "ĠCo",
        -8.863113105431038
      ],
      [
        "Ġcausa",
        -8.86331099729436
      ],
      [
        "Ġnacional",
        -8.866562204053283
      ],
      [
        "alÃ©m",
        -8.866568107403934
      ],
      [
        "menta",
        -8.866613913555398
      ],
      [
        "Ġmaio",
        -8.866624815428056
      ],
      [
        "for",
        -8.868105846662939
      ],
      [
        "04",
        -8.86853427012196
      ],
      [
        "Ġof",
        -8.868961518373801
      ],
      [
        "art",
        -8.869234165598316
      ],
      [
        "Ġexternas",
        -8.869923977490277
      ],
      [
        "ĠtÃªm",
        -8.871781611087043
      ],
      [
        "Exa",
        -8.873025525607387
      ],
      [
        "ĠquestÃ£o",
        -8.873432172049357
      ],
      [
        "Ġdiz",
        -8.873574423553608
      ],
      [
        "ĠtÃ£o",
        -8.874794913710714
      ],
      [
        "Ġquero",
        -8.876465990850484
      ],
      [
        "16",
        -8.877041015550468
      ],
      [
        "âĢĿ,",
        -8.877296712216026
      ],
      [
        "ĠTa",
        -8.877382694875568
      ],
      [
        "ĠLuiz",
        -8.877586555379228
      ],
      [
        "LigaÃ§Ãµes",
        -8.878903464646935
      ],
      [
        "ĠBo",
        -8.878973044653641
      ],
      [
        "ĠFi",
        -8.879440157735758
      ],
      [
        "06",
        -8.879814381500907
      ],
      [
        "Ġlugar",
        -8.881460241696791
      ],
      [
        "Ġtendo",
        -8.883469950583986
      ],
      [
        "Ġ2007",
        -8.883787947661837
      ],
      [
        "Ġpois",
        -8.886782538354323
      ],
      [
        "Ġseria",
        -8.888732453245296
      ],
      [
        "tion",
        -8.889069684065264
      ],
      [
        "ĠCar",
        -8.88920643521141
      ],
      [
        "ira",
        -8.89072660888592
      ],
      [
        "Ġrecurso",
        -8.89099446396534
      ],
      [
        "julho",
        -8.891406947362876
      ],
      [
        "13",
        -8.89389815854308
      ],
      [
        "inho",
        -8.895780788092171
      ],
      [
        "Ġpovo",
        -8.896171525461588
      ],
      [
        "Ġtoda",
        -8.897288992274971
      ],
      [
        "Ġempresa",
        -8.898605249762252
      ],
      [
        "TE",
        -8.901997428837502
      ],
      [
        "par",
        -8.902597702280834
      ],
      [
        "Ġestado",
        -8.902604662760682
      ],
      [
        "Ð",
        -8.902953261450827
      ],
      [
        "son",
        -8.903683421822826
      ],
      [
        "ste",
        -8.90422102747662
      ],
      [
        "EL",
        -8.9044441407941
      ],
      [
        "gar",
        -8.905386307990156
      ],
      [
        "W",
        -8.905984400354967
      ],
      [
        "ESSÃĥO",
        -8.906699999601761
      ],
      [
        "ĠPro",
        -8.907765227068401
      ],
      [
        "inha",
        -8.909849883828194
      ],
      [
        "ĠmunicÃŃpio",
        -8.910035307719566
      ],
      [
        "sentido",
        -8.91049014684728
      ],
      [
        "Ġalguns",
        -8.91144231285389
      ],
      [
        "ĠAr",
        -8.911684639036492
      ],
      [
        "tura",
        -8.91217696400805
      ],
      [
        "setembro",
        -8.913255109980815
      ],
      [
        "ran",
        -8.913477280914146
      ],
      [
        "Ġdata",
        -8.91436949799594
      ],
      [
        "Ġfavor",
        -8.914860075280947
      ],
      [
        "ĠLo",
        -8.915583440166854
      ],
      [
        "las",
        -8.917629043513802
      ],
      [
        "Ġ28",
        -8.918614076911846
      ],
      [
        "ton",
        -8.919323586606312
      ],
      [
        "Ġsabe",
        -8.922733497496953
      ],
      [
        "Ġvou",
        -8.926533659483683
      ],
      [
        "Ġpra",
        -8.926762317804886
      ],
      [
        "temos",
        -8.927190113267072
      ],
      [
        "Ġtrata",
        -8.92942361683308
      ],
      [
        "Art",
        -8.933278012917494
      ],
      [
        "vam",
        -8.933588055910134
      ],
      [
        "Ġnem",
        -8.9336893877195
      ],
      [
        "ER",
        -8.934437689390043
      ],
      [
        "30",
        -8.937233120781771
      ],
      [
        "TA",
        -8.937362621241638
      ],
      [
        "Â°",
        -8.93969600241294
      ],
      [
        "tica",
        -8.939781180147522
      ],
      [
        "dispÃµe",
        -8.94136297049332
      ],
      [
        "Ã¢",
        -8.941789821898187
      ],
      [
        "Ġcoisa",
        -8.94256281854861
      ],
      [
        "ĠFa",
        -8.94395095790896
      ],
      [
        "zar",
        -8.944030882533161
      ],
      [
        "mer",
        -8.944167424883906
      ],
      [
        "Ġnova",
        -8.946312093193267
      ],
      [
        "Ġuso",
        -8.94684148839211
      ],
      [
        "Ġpodem",
        -8.946875569486185
      ],
      [
        "Ġnada",
        -8.946951085993536
      ],
      [
        "Ã£",
        -8.947487165043443
      ],
      [
        "Ġsociedade",
        -8.947500396205779
      ],
      [
        "Ġ2009",
        -8.948258316244324
      ],
      [
        "Ġbom",
        -8.949827701546209
      ],
      [
        "tou",
        -8.949870148116968
      ],
      [
        "rio",
        -8.950114510978954
      ],
      [
        "ima",
        -8.950454893476117
      ],
      [
        "Ġtipo",
        -8.950526039259922
      ],
      [
        "ĠPo",
        -8.953298747364684
      ],
      [
        "Ġmesma",
        -8.95419732354732
      ],
      [
        "ĠTo",
        -8.954755367927408
      ],
      [
        "DE",
        -8.954825877092144
      ],
      [
        "Muito",
        -8.955547346408352
      ],
      [
        "junho",
        -8.95622744011232
      ],
      [
        "ĠLu",
        -8.9577854712841
      ],
      [
        "ĠEla",
        -8.958183152813781
      ],
      [
        "ĠGo",
        -8.95866309482351
      ],
      [
        "tur",
        -8.959243817779443
      ],
      [
        "Ġmedida",
        -8.959485298124257
      ],
      [
        "Ġdisso",
        -8.96157527255781
      ],
      [
        "Ġ2008",
        -8.963166877531409
      ],
      [
        "UTC",
        -8.963683261278907
      ],
      [
        "Ġtenho",
        -8.963715189455023
      ],
      [
        "Ġteve",
        -8.964817231307126
      ],
      [
        "ĠGrande",
        -8.96727445450029
      ],
      [
        "ĠVamos",
        -8.969819646605114
      ],
      [
        "port",
        -8.972048085231238
      ],
      [
        "ĠÃºltimo",
        -8.972058332210834
      ],
      [
        "ĠJa",
        -8.972088053479716
      ],
      [
        "ras",
        -8.972371368616221
      ],
      [
        "ĠPi",
        -8.973234879003883
      ],
      [
        "Ġestou",
        -8.975471853785347
      ],
      [
        "AR",
        -8.975543345290001
      ],
      [
        "NE",
        -8.975770138347068
      ],
      [
        "Ġ2006",
        -8.975770408686994
      ],
      [
        "Decreto",
        -8.97812718771903
      ],
      [
        "ĠExa",
        -8.980111147441884
      ],
      [
        "ĠSanta",
        -8.98026041956787
      ],
      [
        "ki",
        -8.982221932583428
      ],
      [
        "ĠHo",
        -8.986404653362918
      ],
      [
        "Ġdesenvolvimento",
        -8.986470868978007
      ],
      [
        "IS",
        -8.98661686731829
      ],
      [
        "tes",
        -8.988917615890612
      ],
      [
        "ber",
        -8.9910052161284
      ],
      [
        "che",
        -8.992497815647704
      ],
      [
        "Ġquais",
        -8.996025481028953
      ],
      [
        "Ġinter",
        -8.997775026304572
      ],
      [
        "Ġ26",
        -9.00012005460764
      ],
      [
        "para",
        -9.001197921911743
      ],
      [
        "ry",
        -9.001536904758318
      ],
      [
        "izaÃ§Ã£o",
        -9.00249747779304
      ],
      [
        "bar",
        -9.003940985965333
      ],
      [
        "Ġvamos",
        -9.004556033226347
      ],
      [
        "ĠSu",
        -9.004856023069461
      ],
      [
        "2015",
        -9.005131911240822
      ],
      [
        "Ġoutra",
        -9.008804496216186
      ],
      [
        "Ġconstitucional",
        -9.011100210686358
      ],
      [
        "Ġquem",
        -9.01183630594977
      ],
      [
        "Ġestar",
        -9.014620598322402
      ],
      [
        "000",
        -9.015330571194
      ],
      [
        "via",
        -9.016586621424452
      ],
      [
        "Ã¡rio",
        -9.017012620195509
      ],
      [
        "Ġpe",
        -9.019737905952782
      ],
      [
        "Y",
        -9.020110824416484
      ],
      [
        "PMDB",
        -9.022146041794135
      ],
      [
        "vol",
        -9.023686203842711
      ],
      [
        "Ġpessoa",
        -9.024961980213728
      ],
      [
        "lho",
        -9.02586612878923
      ],
      [
        "tÃ¡",
        -9.02672147252554
      ],
      [
        "Ġ2011",
        -9.028440909582546
      ],
      [
        "ĠmarÃ§o",
        -9.028965102119392
      ],
      [
        "ant",
        -9.029765706023875
      ],
      [
        "50",
        -9.03062542672854
      ],
      [
        "ler",
        -9.031509378824486
      ],
      [
        "ĠJaneiro",
        -9.03303207155176
      ],
      [
        "Ġagosto",
        -9.035029118452533
      ],
      [
        "len",
        -9.035186906472308
      ],
      [
        "Ġoutubro",
        -9.035296520493445
      ],
      [
        "ner",
        -9.036128570704022
      ],
      [
        "Ġtexto",
        -9.04053318547627
      ],
      [
        "por",
        -9.045463614396947
      ],
      [
        "Ġvolta",
        -9.047919960631544
      ],
      [
        "Ġ2010",
        -9.048468978537707
      ],
      [
        "missÃ£o",
        -9.049258332051062
      ],
      [
        "tivo",
        -9.052424192785818
      ],
      [
        "NA",
        -9.052726553619848
      ],
      [
        "ĠIII",
        -9.053414293099951
      ],
      [
        "ura",
        -9.054164590121882
      ],
      [
        "ĠprÃ³prio",
        -9.05498492566953
      ],
      [
        "ju",
        -9.05771527831822
      ],
      [
        "ĠMu",
        -9.057778424195604
      ],
      [
        "Ġfeito",
        -9.058804021174684
      ],
      [
        "Ġhavia",
        -9.059868902590296
      ],
      [
        "chi",
        -9.060158137379972
      ],
      [
        "02",
        -9.061142967297055
      ],
      [
        "ĠEduardo",
        -9.061660405992962
      ],
      [
        "Ġdessa",
        -9.062863664815763
      ],
      [
        "Ġnum",
        -9.0639859765248
      ],
      [
        "ense",
        -9.065443041984372
      ],
      [
        "Ġabril",
        -9.069094197740068
      ],
      [
        "Ġlado",
        -9.069414392413078
      ],
      [
        "lia",
        -9.069719927896784
      ],
      [
        "ĠtÃ©cnica",
        -9.070695504895417
      ],
      [
        "zi",
        -9.07419327277969
      ],
      [
        "ĠPre",
        -9.074619148364116
      ],
      [
        "Ġsemana",
        -9.075753790285493
      ],
      [
        "Ġprincipal",
        -9.076434108895729
      ],
      [
        "Ġempresas",
        -9.076839717297398
      ],
      [
        "Ġjaneiro",
        -9.077703436594849
      ],
      [
        "habitantes",
        -9.079984658625412
      ],
      [
        "Ġ2005",
        -9.081032291606409
      ],
      [
        "://",
        -9.083506660578523
      ],
      [
        "ĠEste",
        -9.08475246738825
      ],
      [
        "Ġpresidente",
        -9.086185869424556
      ],
      [
        "Ġnovembro",
        -9.08915171690328
      ],
      [
        "ĠPARECER",
        -9.092301448817736
      ],
      [
        "ĠtÃŃtulo",
        -9.092924321431372
      ],
      [
        "14",
        -9.096768935110775
      ],
      [
        "ĠEn",
        -9.09699495550076
      ],
      [
        "ĠcondiÃ§Ãµes",
        -9.097198340974453
      ],
      [
        "ĠproduÃ§Ã£o",
        -9.097724112509184
      ],
      [
        "Ġba",
        -9.100643497767614
      ],
      [
        "RE",
        -9.101142124234986
      ],
      [
        "Ġprecisa",
        -9.102201348300763
      ],
      [
        "ĠsituaÃ§Ã£o",
        -9.103852815780034
      ],
      [
        "2013",
        -9.104126112050682
      ],
      [
        "Ġsim",
        -9.104267783929464
      ],
      [
        "ĠSt",
        -9.105662506978891
      ],
      [
        "gua",
        -9.106029726339738
      ],
      [
        "MunicÃŃpio",
        -9.106478344703916
      ],
      [
        "Ġ27",
        -9.107853918408429
      ],
      [
        "ĠseguranÃ§a",
        -9.108091899244904
      ],
      [
        "ĠSala",
        -9.10847887093243
      ],
      [
        "NÃ³s",
        -9.109307620642491
      ],
      [
        "ĠÃ¡gua",
        -9.110371218459338
      ],
      [
        "ĠGa",
        -9.113839493629165
      ],
      [
        "ĠDr",
        -9.114517901231666
      ],
      [
        "nes",
        -9.115421790946488
      ],
      [
        "cas",
        -9.117565527126342
      ],
      [
        "Ġsei",
        -9.119025647109993
      ],
      [
        "istas",
        -9.12027970587022
      ],
      [
        "ĠBe",
        -9.121401645144674
      ],
      [
        "Ġtanto",
        -9.12165509543878
      ],
      [
        "ĠMi",
        -9.121904204767386
      ],
      [
        "40",
        -9.122826853110071
      ],
      [
        "Ġtenha",
        -9.12312461267395
      ],
      [
        "ĠMin",
        -9.1240898436654
      ],
      [
        "Ġvista",
        -9.12562323760334
      ],
      [
        "Ġfalar",
        -9.129402217651462
      ],
      [
        "Ġdesse",
        -9.130525130695275
      ],
      [
        "estamos",
        -9.130647474498636
      ],
      [
        "ĠRE",
        -9.130898859862477
      ],
      [
        "Ġ29",
        -9.132471481110066
      ],
      [
        "ĠEssa",
        -9.133232298108648
      ],
      [
        "PSB",
        -9.133802548229305
      ],
      [
        "essa",
        -9.13659219472568
      ],
      [
        "ĠBu",
        -9.13870474453265
      ],
      [
        "tada",
        -9.139616482177296
      ],
      [
        "Ġpena",
        -9.139994855665684
      ],
      [
        "ĠEmenda",
        -9.140340627840434
      ],
      [
        "Ġpai",
        -9.141637119404908
      ],
      [
        "pro",
        -9.142051109654028
      ],
      [
        "ĠEx",
        -9.143164128025871
      ],
      [
        "Regimento",
        -9.14410827843295
      ],
      [
        "ĠEsse",
        -9.149535912742614
      ],
      [
        "ĠeducaÃ§Ã£o",
        -9.149952367745332
      ],
      [
        "ĠEstÃ¡",
        -9.15050557130473
      ],
      [
        "sal",
        -9.15142639845285
      ],
      [
        "2011",
        -9.152441926382195
      ],
      [
        "ON",
        -9.153045167741144
      ],
      [
        "uni",
        -9.153935499678056
      ],
      [
        "ĠinÃŃcio",
        -9.155802627859106
      ],
      [
        "Ġverdade",
        -9.15590539379578
      ],
      [
        "Ġenquanto",
        -9.157601273654256
      ],
      [
        "ĠUma",
        -9.158351147337733
      ],
      [
        "US",
        -9.158390369314334
      ],
      [
        "Ġquatro",
        -9.158855611808546
      ],
      [
        "eiro",
        -9.159959004236208
      ],
      [
        "ĠNe",
        -9.16089182616366
      ],
      [
        "providÃªncias",
        -9.161351194711813
      ],
      [
        "ger",
        -9.16295247035871
      ],
      [
        "Ġponto",
        -9.16410105546388
      ],
      [
        "sessÃ£o",
        -9.16503076554992
      ],
      [
        "Ġcargo",
        -9.165087047001643
      ],
      [
        "Ġobjetivo",
        -9.167519356133475
      ],
      [
        "Ġrespeito",
        -9.16762978653217
      ],
      [
        "Ġlocal",
        -9.167740408035757
      ],
      [
        "Ġfevereiro",
        -9.169742734745016
      ],
      [
        "nia",
        -9.170686790383714
      ],
      [
        "Ġvota",
        -9.172735984690275
      ],
      [
        "feira",
        -9.17276520411281
      ],
      [
        "IN",
        -9.17437160698548
      ],
      [
        "cional",
        -9.17477378203467
      ],
      [
        "ele",
        -9.17502560449897
      ],
      [
        "CE",
        -9.17521592083219
      ],
      [
        "Ġdentro",
        -9.175855326282813
      ],
      [
        "tÃ£o",
        -9.176049902053382
      ],
      [
        "Supremo",
        -9.176953972373076
      ],
      [
        "IA",
        -9.177508440992971
      ],
      [
        "Ġ31",
        -9.177886368760628
      ],
      [
        "Ġ2013",
        -9.181716693315796
      ],
      [
        "Deputada",
        -9.18269555329501
      ],
      [
        "Ġdemais",
        -9.18279664295962
      ],
      [
        "Ġhoras",
        -9.185957679084538
      ],
      [
        "Ġalgo",
        -9.186286443515636
      ],
      [
        "Ġbo",
        -9.186792818453895
      ],
      [
        "ĠsÃ©rie",
        -9.187162052064314
      ],
      [
        "Ġmim",
        -9.189057381120133
      ],
      [
        "DA",
        -9.189178319830356
      ],
      [
        "ini",
        -9.189535000182037
      ],
      [
        "Ġapoio",
        -9.190650523915927
      ],
      [
        "ĠInterno",
        -9.191654740573291
      ],
      [
        "Ġtra",
        -9.19213134887443
      ],
      [
        "ĠMaria",
        -9.192407722446022
      ],
      [
        "ĠPresidÃªncia",
        -9.193498107356945
      ],
      [
        "ati",
        -9.193589088773363
      ],
      [
        "entes",
        -9.194131626158777
      ],
      [
        "bel",
        -9.194161221696026
      ],
      [
        "ĠÃĢ",
        -9.19654438211274
      ],
      [
        "ĠNO",
        -9.197430313584563
      ],
      [
        "CI",
        -9.201698359856776
      ],
      [
        "Ġtotal",
        -9.203854801688388
      ],
      [
        "rado",
        -9.204131746193989
      ],
      [
        "Ġ(\"",
        -9.205315358689766
      ],
      [
        "ĠPÃºblico",
        -9.20677189151129
      ],
      [
        "criaÃ§Ã£o",
        -9.20850063116757
      ],
      [
        "ĠpossÃŃvel",
        -9.2086604094831
      ],
      [
        "Ġ2012",
        -9.210786456374857
      ],
      [
        "ĠFe",
        -9.210972007198718
      ],
      [
        "ĠBrasÃŃlia",
        -9.211394176027389
      ],
      [
        "Ġfilme",
        -9.212285029231404
      ],
      [
        "SP",
        -9.213472709739484
      ],
      [
        "PDT",
        -9.214433605055929
      ],
      [
        "ĠUnidos",
        -9.215347258513118
      ],
      [
        "Ġluta",
        -9.21638123007898
      ],
      [
        "Ġfalta",
        -9.217583659480788
      ],
      [
        "Ġespecial",
        -9.217810606282132
      ],
      [
        "Ġconforme",
        -9.21831879609037
      ],
      [
        "Ġparecer",
        -9.21856993384786
      ],
      [
        "ĠTurma",
        -9.220222376475087
      ],
      [
        "25",
        -9.220263918139675
      ],
      [
        "Ġnunca",
        -9.222412918034744
      ],
      [
        "Ġ2004",
        -9.223409182012723
      ],
      [
        "ĠConselho",
        -9.223948527746716
      ],
      [
        "Ġproblema",
        -9.22425403422197
      ],
      [
        "ĠpaÃŃses",
        -9.225885206752292
      ],
      [
        "cho",
        -9.227037290777172
      ],
      [
        "Ġjogo",
        -9.228663759782444
      ],
      [
        "Ġcerca",
        -9.23022742723198
      ],
      [
        "Ġcons",
        -9.230986243022716
      ],
      [
        "ĠQuando",
        -9.23344497029816
      ],
      [
        "ĠUniversidade",
        -9.234485190914777
      ],
      [
        "ĠmÃºsica",
        -9.239153890944127
      ],
      [
        "Ġmembro",
        -9.239612102529716
      ],
      [
        "OR",
        -9.240699622360248
      ],
      [
        "CO",
        -9.24211385928217
      ],
      [
        "Ġobrigado",
        -9.24264392207093
      ],
      [
        "ĠsÃ©culo",
        -9.242818106580012
      ],
      [
        "defesa",
        -9.244058540424572
      ],
      [
        "LA",
        -9.247463871066763
      ],
      [
        "bre",
        -9.248951851569196
      ],
      [
        "Ġequipe",
        -9.249397646582691
      ],
      [
        "ĠEducaÃ§Ã£o",
        -9.250193831368543
      ],
      [
        "devido",
        -9.250538150522996
      ],
      [
        "ĠSilva",
        -9.25143714675934
      ],
      [
        "ĠBi",
        -9.252351973401334
      ],
      [
        "ais",
        -9.253575903360687
      ],
      [
        "ĠPedro",
        -9.253662308787275
      ],
      [
        "CÃ³digo",
        -9.253773380066496
      ],
      [
        "Ġfora",
        -9.253899666438713
      ],
      [
        "Ġcinco",
        -9.254164598735326
      ],
      [
        "98",
        -9.254770034854342
      ],
      [
        "registro",
        -9.256413680634571
      ],
      [
        "Ġali",
        -9.257340447289517
      ],
      [
        "ĠatravÃ©s",
        -9.25755912395242
      ],
      [
        "tanto",
        -9.257647008830572
      ],
      [
        "Ġregimental",
        -9.25832401590823
      ],
      [
        "q",
        -9.259618651232396
      ],
      [
        "Ġkm",
        -9.26026054995809
      ],
      [
        "Ġdis",
        -9.260482767024518
      ],
      [
        "Ġsou",
        -9.261755488787225
      ],
      [
        "Ġsegunda",
        -9.263741078352917
      ],
      [
        "âĢĻ",
        -9.263867885399312
      ],
      [
        "ĠCha",
        -9.265604433256607
      ],
      [
        "ĠOliveira",
        -9.266578376794124
      ],
      [
        "PlenÃ¡rio",
        -9.2669434527092
      ],
      [
        "ĠforÃ§a",
        -9.267150892284253
      ],
      [
        "Ġpedido",
        -9.267809553133183
      ],
      [
        "ĠKa",
        -9.268388753409695
      ],
      [
        "cal",
        -9.270032494676038
      ],
      [
        "Ġdireitos",
        -9.272504177945532
      ],
      [
        "ido",
        -9.272545485428388
      ],
      [
        "Ġrealizada",
        -9.275679327154604
      ],
      [
        "Ġficar",
        -9.27634131420374
      ],
      [
        "ĠTotal",
        -9.27691948018473
      ],
      [
        "serviÃ§os",
        -9.27814480794967
      ],
      [
        "val",
        -9.279031311231524
      ],
      [
        "Ġpesquisa",
        -9.27910251968444
      ],
      [
        "Ġmorte",
        -9.279536324548728
      ],
      [
        "ly",
        -9.281831097095347
      ],
      [
        "Ġtrans",
        -9.281952488139176
      ],
      [
        "uro",
        -9.282098462628154
      ],
      [
        "ang",
        -9.28303434223391
      ],
      [
        "Ġvem",
        -9.283310411593302
      ],
      [
        "Ã¡vel",
        -9.285076037715378
      ],
      [
        "ĠJÃ¡",
        -9.285966964094316
      ],
      [
        "Ġfazendo",
        -9.286850220851033
      ],
      [
        "Ġfica",
        -9.287656015660351
      ],
      [
        "ĠDia",
        -9.289553222345315
      ],
      [
        "ĠprÃ³pria",
        -9.29051554320781
      ],
      [
        "Ġ2015",
        -9.290645642041708
      ],
      [
        "Ġobjeto",
        -9.291930006583245
      ],
      [
        "ĠTem",
        -9.292540953352775
      ],
      [
        "60",
        -9.294067690134366
      ],
      [
        "ĠrazÃ£o",
        -9.29497006894685
      ],
      [
        "bol",
        -9.29684899925696
      ],
      [
        "ĠHe",
        -9.29745827778625
      ],
      [
        "lan",
        -9.29956854285416
      ],
      [
        "vÃ¡rios",
        -9.299796166315732
      ],
      [
        "Ġ2003",
        -9.30091280585813
      ],
      [
        "ĠexercÃŃcio",
        -9.301354348182311
      ],
      [
        "Ġacesso",
        -9.302259435363869
      ],
      [
        "ĠSaÃºde",
        -9.303167694662148
      ],
      [
        "Ġatividade",
        -9.303391623979746
      ],
      [
        "Ġmeses",
        -9.303446461996378
      ],
      [
        "origem",
        -9.30377743957206
      ],
      [
        "let",
        -9.304206385105408
      ],
      [
        "ani",
        -9.304748604309369
      ],
      [
        "Ãī",
        -9.304983944126931
      ],
      [
        "Ġthe",
        -9.305087202134732
      ],
      [
        "Executivo",
        -9.305254800548736
      ],
      [
        "Ġmal",
        -9.305654643876974
      ],
      [
        "ĠSocial",
        -9.306336286522075
      ],
      [
        "her",
        -9.30720935072998
      ],
      [
        "ador",
        -9.309292348136296
      ],
      [
        "ĠPP",
        -9.309954507119285
      ],
      [
        "Ġmercado",
        -9.310810607084688
      ],
      [
        "ĠZ",
        -9.31149244496462
      ],
      [
        "ĠÃ©poca",
        -9.312917159712608
      ],
      [
        "remos",
        -9.313666401769323
      ],
      [
        "ĠDu",
        -9.314307204500556
      ],
      [
        "Ġobra",
        -9.315118591439306
      ],
      [
        "nho",
        -9.31622577871422
      ],
      [
        "2000",
        -9.316780849413902
      ],
      [
        "tan",
        -9.317313119289867
      ],
      [
        "agem",
        -9.318474497648342
      ],
      [
        "ĠMan",
        -9.31884933124997
      ],
      [
        "ĠSegundo",
        -9.3198266942029
      ],
      [
        "Ġfilho",
        -9.320165684773489
      ],
      [
        "AlÃ©m",
        -9.32123784777816
      ],
      [
        "ĠFilho",
        -9.324308650635905
      ],
      [
        "PTB",
        -9.324334713146431
      ],
      [
        "The",
        -9.324933493452058
      ],
      [
        "dora",
        -9.325042228106255
      ],
      [
        "ĠAgora",
        -9.325138337104516
      ],
      [
        "Ġinclusive",
        -9.32634835602492
      ],
      [
        "leg",
        -9.326494191085107
      ],
      [
        "Ġgeral",
        -9.326672469095636
      ],
      [
        "lor",
        -9.32730672337413
      ],
      [
        "2008",
        -9.327375229320284
      ],
      [
        "Ġcrime",
        -9.330416396782262
      ],
      [
        "Ġdados",
        -9.330557239990917
      ],
      [
        "ĠEM",
        -9.331326414365009
      ],
      [
        "Ġpelas",
        -9.331567028078648
      ],
      [
        "97",
        -9.332697001987768
      ],
      [
        "Ġfosse",
        -9.33527887523408
      ],
      [
        "SE",
        -9.336544532876898
      ],
      [
        "radiodifusÃ£o",
        -9.33830243632274
      ],
      [
        "bilidade",
        -9.339909703223052
      ],
      [
        "serÃ£o",
        -9.341253872364618
      ],
      [
        "Ġpagamento",
        -9.341596531913249
      ],
      [
        "Ġquase",
        -9.342387372218449
      ],
      [
        "Ġqualidade",
        -9.34417563749594
      ],
      [
        "Ġlegal",
        -9.345785825597272
      ],
      [
        "90",
        -9.34766753370102
      ],
      [
        "Ġ2014",
        -9.349076332969084
      ],
      [
        "STF",
        -9.34918653178485
      ],
      [
        "2007",
        -9.350263367798712
      ],
      [
        "ĠpolÃŃtico",
        -9.35104814451318
      ],
      [
        "iano",
        -9.351200088984871
      ],
      [
        "ĠDeus",
        -9.351573814731983
      ],
      [
        "Ġnecessidade",
        -9.35179088981628
      ],
      [
        "Ġalgumas",
        -9.352186610998425
      ],
      [
        "Ġinteresse",
        -9.352298921261209
      ],
      [
        "Ġpartido",
        -9.354987373645049
      ],
      [
        "ĠOr",
        -9.355335013133486
      ],
      [
        "95",
        -9.358148164310665
      ],
      [
        "Ġatual",
        -9.358270840578408
      ],
      [
        "ĠPE",
        -9.360614421902568
      ],
      [
        "ava",
        -9.361093690177746
      ],
      [
        "cos",
        -9.361264162300786
      ],
      [
        "ban",
        -9.363063351266227
      ],
      [
        "Ġminutos",
        -9.36319113186894
      ],
      [
        "Ġpassa",
        -9.363823104138088
      ],
      [
        "ĠPer",
        -9.363906294050675
      ],
      [
        "¼",
        -9.36434564794376
      ],
      [
        "Ġmaioria",
        -9.36595931146003
      ],
      [
        "Ġvo",
        -9.367105845081614
      ],
      [
        "Ġesses",
        -9.367351564967912
      ],
      [
        "Ġpoderia",
        -9.36970072527631
      ],
      [
        "vel",
        -9.369845133043109
      ],
      [
        "29",
        -9.371759091868125
      ],
      [
        "ĠEs",
        -9.372447172580996
      ],
      [
        "Ġfala",
        -9.37285140720192
      ],
      [
        "ice",
        -9.372984337535716
      ],
      [
        "ĠnecessÃ¡rio",
        -9.373199461081697
      ],
      [
        "28",
        -9.374496516559828
      ],
      [
        "Ġ2016",
        -9.37589057458696
      ],
      [
        "uma",
        -9.375950561006588
      ],
      [
        "ĠCiÃªncia",
        -9.37688588621226
      ],
      [
        "ĠPA",
        -9.377834570680308
      ],
      [
        "Ġboa",
        -9.378139269802723
      ],
      [
        "Ġpossa",
        -9.378413465139408
      ],
      [
        "Ġdinheiro",
        -9.379104907397084
      ],
      [
        "ĠNi",
        -9.379875370827948
      ],
      [
        "Ġcerto",
        -9.38061123475262
      ],
      [
        "Ġemenda",
        -9.380795331490212
      ],
      [
        ".âĢĿ",
        -9.380976585177976
      ],
      [
        "2010",
        -9.3811703342443
      ],
      [
        "ex",
        -9.381780714451306
      ],
      [
        "Ġconhecido",
        -9.382071121746714
      ],
      [
        "ff",
        -9.38718801666604
      ],
      [
        "ĠThe",
        -9.388860254299196
      ],
      [
        "Ġrequerimento",
        -9.38953744619906
      ],
      [
        "Ġdele",
        -9.389559338947452
      ],
      [
        "Ġpi",
        -9.390129692624026
      ],
      [
        "PR",
        -9.390387334627192
      ],
      [
        "aumento",
        -9.39182761644564
      ],
      [
        "ĠSua",
        -9.39183283252858
      ],
      [
        "ĠTi",
        -9.392272530473596
      ],
      [
        "ĠSE",
        -9.39265760261704
      ],
      [
        "Ġgra",
        -9.393229831260795
      ],
      [
        "ĠHÃ¡",
        -9.3937373022123
      ],
      [
        "Ġnesse",
        -9.3947257774138
      ],
      [
        "99",
        -9.39549078770376
      ],
      [
        "bal",
        -9.395660274743506
      ],
      [
        "Ġpu",
        -9.395883700827252
      ],
      [
        "nÃŃvel",
        -9.397363377777271
      ],
      [
        "NI",
        -9.397660515403558
      ],
      [
        "Ġmodo",
        -9.398278114038286
      ],
      [
        "altera",
        -9.39858047638558
      ],
      [
        "rim",
        -9.398721803000743
      ],
      [
        "Ġnuma",
        -9.398981299739928
      ],
      [
        "ĥ",
        -9.399321923319375
      ],
      [
        "Ġensino",
        -9.399627380911024
      ],
      [
        "Ã¡ria",
        -9.400567085353725
      ],
      [
        "https",
        -9.402150475766968
      ],
      [
        ");",
        -9.402295175176398
      ],
      [
        "45",
        -9.40255783764986
      ],
      [
        "agravo",
        -9.402818228547668
      ],
      [
        "Ġjunto",
        -9.403014124186942
      ],
      [
        "ĠMA",
        -9.403225644198647
      ],
      [
        "Ġnorte",
        -9.404715841449256
      ],
      [
        "88",
        -9.405202710606572
      ],
      [
        "PE",
        -9.405219774956878
      ],
      [
        "Ġmi",
        -9.40659655176029
      ],
      [
        "Ġ50",
        -9.407781519217588
      ],
      [
        "Ġsolicita",
        -9.409860930654656
      ],
      [
        "Ġreforma",
        -9.410605614559207
      ],
      [
        "ĠprÃ¡tica",
        -9.410778965944983
      ],
      [
        "ĠNova",
        -9.411639494657743
      ],
      [
        "anÃ¡lise",
        -9.412069509278943
      ],
      [
        "ĠreuniÃ£o",
        -9.412369729851076
      ],
      [
        "Ġcampo",
        -9.412836938369932
      ],
      [
        "ĠÃºltima",
        -9.413532138879212
      ],
      [
        "ĠPrograma",
        -9.414688179445296
      ],
      [
        "ĠAssim",
        -9.415337851702589
      ],
      [
        "ĠmÃ£e",
        -9.416672681237255
      ],
      [
        "ĠParecer",
        -9.416855237808004
      ],
      [
        "Ġproduto",
        -9.4168588623368
      ],
      [
        "ĠRi",
        -9.41700200161945
      ],
      [
        "Ġnoite",
        -9.417146765764953
      ],
      [
        "Ġmuitas",
        -9.417855923051343
      ],
      [
        "Ġautor",
        -9.41911108199258
      ],
      [
        "ĠLula",
        -9.419605803440408
      ],
      [
        "gan",
        -9.41988370140954
      ],
      [
        "ĠLÃŃder",
        -9.420561475157667
      ],
      [
        "somente",
        -9.422233512602526
      ],
      [
        "tico",
        -9.423929762387845
      ],
      [
        "redaÃ§Ã£o",
        -9.424168125129269
      ],
      [
        "vida",
        -9.42528265615546
      ],
      [
        "entanto",
        -9.425683002949375
      ],
      [
        "fl",
        -9.42672693200852
      ],
      [
        "ĠVI",
        -9.427746052607894
      ],
      [
        "Ġsuperior",
        -9.427768623037707
      ],
      [
        "BA",
        -9.428136295885636
      ],
      [
        "cada",
        -9.428905697509116
      ],
      [
        "ĠCi",
        -9.429269386741788
      ],
      [
        "ĠLegislativo",
        -9.429516962746527
      ],
      [
        "Ġeram",
        -9.430477318178674
      ],
      [
        "Ġdeixar",
        -9.430883540416678
      ],
      [
        "Ġhomem",
        -9.431982725084852
      ],
      [
        "ĠparticipaÃ§Ã£o",
        -9.432279945054756
      ],
      [
        "ĠPÃºblica",
        -9.432622156934077
      ],
      [
        "mas",
        -9.433278884210033
      ],
      [
        "Ġprova",
        -9.43415595361069
      ],
      [
        "ara",
        -9.434852126208304
      ],
      [
        "land",
        -9.434857068259731
      ],
      [
        "27",
        -9.439111226757314
      ],
      [
        "26",
        -9.43969088452771
      ],
      [
        "ato",
        -9.440503443066318
      ],
      [
        "Ġoficial",
        -9.441190811948513
      ],
      [
        "RO",
        -9.441689742844776
      ],
      [
        "Ġcontrole",
        -9.441927250229774
      ],
      [
        "Ġdez",
        -9.441990101293372
      ],
      [
        "Ġgrandes",
        -9.44206431588358
      ],
      [
        "Ġfeita",
        -9.442307982822
      ],
      [
        "Ġtarde",
        -9.442976795461515
      ],
      [
        "96",
        -9.443010912051204
      ],
      [
        "ĠcrÃ©dito",
        -9.443500110185305
      ],
      [
        "Ġlongo",
        -9.44364712394597
      ],
      [
        "Ġregime",
        -9.44382280474579
      ],
      [
        "ment",
        -9.444901514881154
      ],
      [
        "Ġ100",
        -9.444970697206658
      ],
      [
        "ĠPl",
        -9.445123723411731
      ],
      [
        "net",
        -9.446332548494274
      ],
      [
        "Ġcontrato",
        -9.447400706507366
      ],
      [
        "ĠFernando",
        -9.451917232293864
      ],
      [
        "tem",
        -9.452024806059743
      ],
      [
        "ĠSÃ³",
        -9.452280655017312
      ],
      [
        "ĠWa",
        -9.4538600637409
      ],
      [
        "NT",
        -9.45393336527342
      ],
      [
        "ĠAssociaÃ§Ã£o",
        -9.45400218629282
      ],
      [
        "ĠRoberto",
        -9.455364496849134
      ],
      [
        "ĠlegislaÃ§Ã£o",
        -9.457105028673494
      ],
      [
        "rÃ£o",
        -9.458156256522088
      ],
      [
        "amente",
        -9.45817195969638
      ],
      [
        "log",
        -9.458301940513106
      ],
      [
        "ty",
        -9.458326871865156
      ],
      [
        "ĠTrabalho",
        -9.458750700799287
      ],
      [
        "ĠBar",
        -9.459981389926655
      ],
      [
        "tina",
        -9.460231080351267
      ],
      [
        "Ġacho",
        -9.46157005871876
      ],
      [
        "Ġjulgamento",
        -9.46308836239428
      ],
      [
        "23",
        -9.466783061572524
      ],
      [
        "Ġpreciso",
        -9.46779557239401
      ],
      [
        "ĠpublicaÃ§Ã£o",
        -9.467996451614807
      ],
      [
        "Ġessas",
        -9.468712020561242
      ],
      [
        "24",
        -9.46935871241396
      ],
      [
        "Ġbrasileiros",
        -9.471018167794144
      ],
      [
        "passou",
        -9.47108851254754
      ],
      [
        "ĠMaia",
        -9.472340703747276
      ],
      [
        "2012",
        -9.473883860711696
      ],
      [
        "idades",
        -9.474371590564402
      ],
      [
        "Ġformula",
        -9.475100807205283
      ],
      [
        "ologia",
        -9.476553966513077
      ],
      [
        "economia",
        -9.477696326408608
      ],
      [
        "Ġsaber",
        -9.477975214066342
      ],
      [
        "relatÃ³rio",
        -9.479162626851783
      ],
      [
        "Ġsetor",
        -9.480758341536896
      ],
      [
        "ĠextraordinÃ¡rio",
        -9.481171093349808
      ],
      [
        "ĠBem",
        -9.48128354727124
      ],
      [
        "nÃ§a",
        -9.482065268929295
      ],
      [
        "46",
        -9.48270113455531
      ],
      [
        "taÃ§Ã£o",
        -9.4827199261184
      ],
      [
        "\")",
        -9.482765226725409
      ],
      [
        "2016",
        -9.483828897895318
      ],
      [
        "rada",
        -9.48447145695802
      ],
      [
        "Ġfi",
        -9.48459432003064
      ],
      [
        "ĠdiscussÃ£o",
        -9.4857138657352
      ],
      [
        "ĠSi",
        -9.487903298073071
      ],
      [
        "Ġconstante",
        -9.489638000480708
      ],
      [
        "vis",
        -9.489991304116849
      ],
      [
        "Ġenergia",
        -9.49146956983926
      ],
      [
        "ĠVice",
        -9.491579138868822
      ],
      [
        "conjunto",
        -9.491872674143064
      ],
      [
        "mulheres",
        -9.4919154351938
      ],
      [
        "realizaÃ§Ã£o",
        -9.493498201361392
      ],
      [
        "ĠconstruÃ§Ã£o",
        -9.493658746469384
      ],
      [
        "ĠaÃŃ",
        -9.493931131333223
      ],
      [
        "mÃŃnimo",
        -9.49459088912821
      ],
      [
        "ĠPortugal",
        -9.496044609209063
      ],
      [
        "ago",
        -9.497673816134917
      ],
      [
        "AÃĩÃĥO",
        -9.497678069334707
      ],
      [
        "ĠCA",
        -9.497914433062403
      ],
      [
        "ĠespÃ©cie",
        -9.49879392754139
      ],
      [
        "ĠDes",
        -9.4993934190171
      ],
      [
        "ĠSP",
        -9.50008355939347
      ],
      [
        "ĠDEM",
        -9.500581843667614
      ],
      [
        "ser",
        -9.501556007937944
      ],
      [
        "ĠCor",
        -9.501576726129631
      ],
      [
        "iro",
        -9.501953475820915
      ],
      [
        "ĠcrianÃ§as",
        -9.502337644932007
      ],
      [
        "Ġhora",
        -9.502403594804669
      ],
      [
        "Ġmaneira",
        -9.502914635481924
      ],
      [
        "sejam",
        -9.503494897211562
      ],
      [
        "Ġlinha",
        -9.50360530578415
      ],
      [
        "Ġlhe",
        -9.504131728249112
      ],
      [
        "Ġpossui",
        -9.50440238085132
      ],
      [
        "Ġparece",
        -9.504422625451
      ],
      [
        "ĠÃ¡lbum",
        -9.504554726553277
      ],
      [
        "ĠPode",
        -9.504696305920444
      ],
      [
        "ĠMarco",
        -9.505947823681025
      ],
      [
        "ez",
        -9.506325679938598
      ],
      [
        "Ġto",
        -9.506958261965671
      ],
      [
        "lado",
        -9.507104324648328
      ],
      [
        "vÃ¡rias",
        -9.507552553752545
      ],
      [
        "ĠediÃ§Ã£o",
        -9.508327242750648
      ],
      [
        "Ġdebate",
        -9.509422196689965
      ],
      [
        "ĠMinas",
        -9.509907614408885
      ],
      [
        "poderÃ¡",
        -9.510304025943704
      ],
      [
        "Partido",
        -9.510539036875116
      ],
      [
        "ĠMesa",
        -9.510635780504645
      ],
      [
        "Ġmuitos",
        -9.510942891629268
      ],
      [
        "Ġ54",
        -9.512257511863936
      ],
      [
        "Ġfrente",
        -9.512346353620728
      ],
      [
        "Ġterra",
        -9.51300079474772
      ],
      [
        "Ġencontra",
        -9.514224459423968
      ],
      [
        "Ġprincipalmente",
        -9.51453367590396
      ],
      [
        "Ġassunto",
        -9.515002182893795
      ],
      [
        "possibilidade",
        -9.515685202813044
      ],
      [
        "01",
        -9.515862006995668
      ],
      [
        "tÃ³rio",
        -9.516428544990491
      ],
      [
        "Ġchamado",
        -9.516729498014833
      ],
      [
        "legislativa",
        -9.5169809278677
      ],
      [
        "ĠEstou",
        -9.51865620221136
      ],
      [
        "essÃµes",
        -9.5197343328987
      ],
      [
        "Í",
        -9.52058106124242
      ],
      [
        "ĠDesenvolvimento",
        -9.521308070087493
      ],
      [
        "ĠespaÃ§o",
        -9.5219755854606
      ],
      [
        "Ġpapel",
        -9.522125597872645
      ],
      [
        "DEM",
        -9.52293003056405
      ],
      [
        "Ġ33",
        -9.524976934721408
      ],
      [
        "Ġforte",
        -9.52508080352098
      ],
      [
        "â",
        -9.525681215612169
      ],
      [
        "ĠvÃ£o",
        -9.5257374512478
      ],
      [
        "ĠNorte",
        -9.526008407505502
      ],
      [
        "ĠFrancisco",
        -9.526046424175464
      ],
      [
        "ela",
        -9.526434772131644
      ],
      [
        "GO",
        -9.526981058185363
      ],
      [
        "Ġcorpo",
        -9.527133323190355
      ],
      [
        "2014",
        -9.527244240720742
      ],
      [
        "Ġrepresenta",
        -9.528740556245946
      ],
      [
        "Ġ40",
        -9.530576584374831
      ],
      [
        "Ġmar",
        -9.531583059625811
      ],
      [
        "presenÃ§a",
        -9.531726219220577
      ],
      [
        "ME",
        -9.532679670413156
      ],
      [
        "Ġcapital",
        -9.53275280206572
      ],
      [
        "ĠDJ",
        -9.533607341467938
      ],
      [
        "Ġestrutura",
        -9.534040451244277
      ],
      [
        "Ġproblemas",
        -9.534448685339578
      ],
      [
        "isto",
        -9.534615676794196
      ],
      [
        "tando",
        -9.535096634250106
      ],
      [
        "Ġhouve",
        -9.53650673513433
      ],
      [
        "Ġfo",
        -9.536703079937087
      ],
      [
        "Ġ32",
        -9.536885542283908
      ],
      [
        "Ġcara",
        -9.539850421546614
      ],
      [
        "Ġtema",
        -9.541605668589556
      ],
      [
        "reais",
        -9.54256331666218
      ],
      [
        "Ġ2017",
        -9.543364382768305
      ],
      [
        "Ġbanda",
        -9.544732196310148
      ],
      [
        "MunicÃŃpios",
        -9.545091745955029
      ],
      [
        "concessÃ£o",
        -9.54566604802668
      ],
      [
        "dÃ©cada",
        -9.545734421193297
      ],
      [
        "sÃ£o",
        -9.545802515980975
      ],
      [
        "#",
        -9.546346053180166
      ],
      [
        "Ġmovimento",
        -9.548888461105925
      ],
      [
        "Ġconhecimento",
        -9.54906407624534
      ],
      [
        "Ġprofessor",
        -9.550380217850526
      ],
      [
        "oni",
        -9.550668824998256
      ],
      [
        "prÃ³ximo",
        -9.550771552874036
      ],
      [
        "Ġalguma",
        -9.551302564183672
      ],
      [
        "Ġposso",
        -9.551984208488358
      ],
      [
        "execuÃ§Ã£o",
        -9.55388853563274
      ],
      [
        "Ġcoisas",
        -9.554266736863728
      ],
      [
        "tornou",
        -9.55441856323516
      ],
      [
        "Ġbusca",
        -9.55520273065652
      ],
      [
        "Ġembora",
        -9.556020259647235
      ],
      [
        "ĠRIC",
        -9.558659612767304
      ],
      [
        "ĠGu",
        -9.55893579473242
      ],
      [
        "Ĥ",
        -9.560139835675896
      ],
      [
        "Ġcar",
        -9.560162517462816
      ],
      [
        "responsabilidade",
        -9.56108928846546
      ],
      [
        "ĠCol",
        -9.56109856912427
      ],
      [
        "Ġoportunidade",
        -9.56309156278692
      ],
      [
        "aprovado",
        -9.563607931699057
      ],
      [
        "COMISSÃĥO",
        -9.56467512449316
      ],
      [
        "Ġdeixa",
        -9.564676826287135
      ],
      [
        "Ġdeveria",
        -9.564832171664614
      ],
      [
        "Ġlivro",
        -9.56532277305006
      ],
      [
        "Ġpassado",
        -9.566276072573
      ],
      [
        "Ġ:)",
        -9.566684676038758
      ],
      [
        "ite",
        -9.566908375948708
      ],
      [
        "ĠSeu",
        -9.567855989573284
      ],
      [
        "Ġtal",
        -9.56975666382642
      ],
      [
        "ĠcompetÃªncia",
        -9.571487106117685
      ],
      [
        "ĠfunÃ§Ã£o",
        -9.572205627609016
      ],
      [
        "):",
        -9.57349265566384
      ],
      [
        "ĠimportÃ¢ncia",
        -9.574894424352104
      ],
      [
        "Ġgente",
        -9.575169314736812
      ],
      [
        "Ġalgum",
        -9.575425780741176
      ],
      [
        "ĠmÃ©dia",
        -9.576320391325412
      ],
      [
        "ĠApÃ³s",
        -9.577307373169834
      ],
      [
        "Distrito",
        -9.577365394177352
      ],
      [
        "atividades",
        -9.577606960066682
      ],
      [
        "Ġajuda",
        -9.57809759265466
      ],
      [
        "ĠAntonio",
        -9.580301363396991
      ],
      [
        "Ġescola",
        -9.58157111200902
      ],
      [
        "ã",
        -9.581852836638552
      ],
      [
        "previsto",
        -9.582078364036848
      ],
      [
        "RECURSO",
        -9.582190084524132
      ],
      [
        "Ġmon",
        -9.582219696295056
      ],
      [
        "Defesa",
        -9.58369231996355
      ],
      [
        "exame",
        -9.584463739505408
      ],
      [
        "ĠCivil",
        -9.585207469261846
      ],
      [
        "disposto",
        -9.585527320892194
      ],
      [
        "ĠPar",
        -9.585925722230458
      ],
      [
        "Ġmulher",
        -9.58651218699112
      ],
      [
        "Ġ1990",
        -9.586950939255928
      ],
      [
        "ĠHi",
        -9.587411960569062
      ],
      [
        "ĠWi",
        -9.587493220433569
      ],
      [
        "22",
        -9.587546360266751
      ],
      [
        "&",
        -9.58798284772088
      ],
      [
        "Ġlista",
        -9.588182883289583
      ],
      [
        "*",
        -9.591430826025052
      ],
      [
        "zado",
        -9.591863459244568
      ],
      [
        "portanto",
        -9.59403495301862
      ],
      [
        "cÃ³rdÃ£o",
        -9.595944376370204
      ],
      [
        "Ġentra",
        -9.597177623559386
      ],
      [
        "sociais",
        -9.598008561420825
      ],
      [
        "ĠEMENDA",
        -9.598394543970572
      ],
      [
        "Ġ2020",
        -9.60028921176275
      ],
      [
        "Ġ2019",
        -9.600523088743738
      ],
      [
        "Ġmarca",
        -9.601138305643326
      ],
      [
        "Ġga",
        -9.601349837968533
      ],
      [
        "Ġmodelo",
        -9.602569768126717
      ],
      [
        "ĠBen",
        -9.602616391527132
      ],
      [
        "ĠCOM",
        -9.603910811590636
      ],
      [
        "ĠTecnologia",
        -9.604844449320582
      ],
      [
        "80",
        -9.605581211401605
      ],
      [
        "Ġapresenta",
        -9.60599425634293
      ],
      [
        "Ġpar",
        -9.60609493214524
      ],
      [
        "Ġpessoal",
        -9.608084672424468
      ],
      [
        "Ġ2002",
        -9.60821967308408
      ],
      [
        "ĠIV",
        -9.610226746570312
      ],
      [
        "ĠmudanÃ§a",
        -9.61102924532456
      ],
      [
        "Ġsenhor",
        -9.612230698388093
      ],
      [
        "Ġvir",
        -9.612300265550006
      ],
      [
        "mÃªs",
        -9.612358991534816
      ],
      [
        "BE",
        -9.612592166564047
      ],
      [
        "ĠpÃ¡gina",
        -9.612734168259676
      ],
      [
        "Ģ",
        -9.613156816216708
      ],
      [
        "ĠprincÃŃpio",
        -9.613556066015663
      ],
      [
        "cado",
        -9.613698830461855
      ],
      [
        "risco",
        -9.613936096698287
      ],
      [
        "posiÃ§Ã£o",
        -9.614490083968422
      ],
      [
        "ĠRu",
        -9.614952872569102
      ],
      [
        "Ġalta",
        -9.615056178633802
      ],
      [
        "Ġlogo",
        -9.615520242155457
      ],
      [
        "ĠLocal",
        -9.61630168593194
      ],
      [
        "ĠPrimeira",
        -9.617069711182577
      ],
      [
        "Ġreal",
        -9.618284214905607
      ],
      [
        "iniciativa",
        -9.6190751387713
      ],
      [
        "discussÃ£o",
        -9.619192600558518
      ],
      [
        "laÃ§Ã£o",
        -9.619424354778882
      ],
      [
        "ĠComunicaÃ§Ã£o",
        -9.619437593488524
      ],
      [
        "Ġ2000",
        -9.61947346219944
      ],
      [
        "ĠRel",
        -9.620117502398712
      ],
      [
        "ĠinglÃªs",
        -9.620771330164343
      ],
      [
        "...............",
        -9.621631967862555
      ],
      [
        "ServiÃ§o",
        -9.622076354482456
      ],
      [
        "ĠSal",
        -9.622226143711956
      ],
      [
        "Presidente",
        -9.622330877933678
      ],
      [
        "cap",
        -9.623061525870906
      ],
      [
        "ĠBrasileiro",
        -9.623997919355924
      ],
      [
        "podemos",
        -9.62577483637346
      ],
      [
        "Ġafirma",
        -9.625872611281478
      ],
      [
        "Campeonato",
        -9.62588100354314
      ],
      [
        "Ġnenhum",
        -9.626068196839894
      ],
      [
        "nessa",
        -9.628243375861194
      ],
      [
        "Ġficou",
        -9.628702544479191
      ],
      [
        "Ġfinanceira",
        -9.629204866287022
      ],
      [
        "Ġqueria",
        -9.629389069750038
      ],
      [
        "prevista",
        -9.629711184985938
      ],
      [
        "Geral",
        -9.630164425208756
      ],
      [
        "ĠREQUERIMENTO",
        -9.630725114037508
      ],
      [
        "Ġefeito",
        -9.631011771697043
      ],
      [
        "ĠGra",
        -9.633635014356
      ],
      [
        "ĠCorte",
        -9.6346502400471
      ],
      [
        "Ġcarreira",
        -9.635354644608272
      ],
      [
        "ĠObrigado",
        -9.635506081099413
      ],
      [
        "mÃ©rito",
        -9.636356876029584
      ],
      [
        "sim",
        -9.638223786638834
      ],
      [
        "ĠFor",
        -9.64034804540534
      ],
      [
        "Ġprofissional",
        -9.640599920901725
      ],
      [
        "Ġexiste",
        -9.641363834833165
      ],
      [
        "ĠInstituto",
        -9.64146201689719
      ],
      [
        "Ġtemporada",
        -9.642335106187785
      ],
      [
        "ias",
        -9.642729231401264
      ],
      [
        "nio",
        -9.644005113639428
      ],
      [
        "sic",
        -9.645759774394046
      ],
      [
        "Ġpri",
        -9.646298630555124
      ],
      [
        "jurÃŃdica",
        -9.646375562429927
      ],
      [
        "ĠSan",
        -9.64657500813997
      ],
      [
        "2005",
        -9.646665041122567
      ],
      [
        "bilhÃµes",
        -9.646740512484396
      ],
      [
        "Ġaquele",
        -9.647095456549003
      ],
      [
        "Ġliga",
        -9.647181545343718
      ],
      [
        "discurso",
        -9.64722965268709
      ],
      [
        "ĠAmÃ©rica",
        -9.647520764435209
      ],
      [
        "Ġanterior",
        -9.649326527190288
      ],
      [
        "ĠExcelÃªncia",
        -9.649949331750555
      ],
      [
        "Ġtu",
        -9.649995223158106
      ],
      [
        "Ġauto",
        -9.650572335523329
      ],
      [
        "ley",
        -9.651008093861062
      ],
      [
        "ĠCosta",
        -9.651046591073538
      ],
      [
        "nas",
        -9.651752843561011
      ],
      [
        "Ġsuper",
        -9.651778306551313
      ],
      [
        "Ã¢mbito",
        -9.651822537659562
      ],
      [
        "TambÃ©m",
        -9.652179688953051
      ],
      [
        "Ġvigor",
        -9.653288699759509
      ],
      [
        "cÃ¡",
        -9.653965153971344
      ],
      [
        "Ġfr",
        -9.654486022240452
      ],
      [
        "Ġoutorga",
        -9.65534348903654
      ],
      [
        "tido",
        -9.655699317084125
      ],
      [
        "21",
        -9.655935562905418
      ],
      [
        "ÃŃn",
        -9.656506828926696
      ],
      [
        "ĠCunha",
        -9.657128628683411
      ],
      [
        "Ġcampanha",
        -9.657493171508031
      ],
      [
        "Ġpauta",
        -9.657874206258487
      ],
      [
        "ell",
        -9.658051579045532
      ],
      [
        "ĠRequerimento",
        -9.65940584804375
      ],
      [
        "Ġnobre",
        -9.659455485414757
      ],
      [
        "Ġaltera",
        -9.65956319433934
      ],
      [
        "gem",
        -9.659860202393393
      ],
      [
        "org",
        -9.660078735275198
      ],
      [
        "Ġprojetos",
        -9.660798899675756
      ],
      [
        "comeÃ§ou",
        -9.66097340387392
      ],
      [
        "IO",
        -9.661159610990694
      ],
      [
        "ĠquÃª",
        -9.661334831471317
      ],
      [
        "membros",
        -9.661344550454311
      ],
      [
        "mandato",
        -9.661687710499477
      ],
      [
        "Ġcerteza",
        -9.662410718568175
      ],
      [
        "Ġinc",
        -9.664311314040225
      ],
      [
        "Ġtransporte",
        -9.664685301058094
      ],
      [
        "ble",
        -9.665580092739583
      ],
      [
        "Ġ2001",
        -9.66607147649127
      ],
      [
        "Ġtitular",
        -9.666499739896189
      ],
      [
        "Depois",
        -9.667250458993024
      ],
      [
        "Ġteria",
        -9.66731101696037
      ],
      [
        "nico",
        -9.670224604372793
      ],
      [
        "ÃļLTI",
        -9.670507760628524
      ],
      [
        "valores",
        -9.670985060372637
      ],
      [
        "Ġfederal",
        -9.671565464711872
      ],
      [
        "Ġoriginal",
        -9.671603476387032
      ],
      [
        "Ġand",
        -9.672109001652688
      ],
      [
        "Ġinfra",
        -9.672471624749145
      ],
      [
        "ĠGuerra",
        -9.67265288502801
      ],
      [
        "Ġcentro",
        -9.67265815451008
      ],
      [
        "econÃ´mica",
        -9.673221372144566
      ],
      [
        "obras",
        -9.673531802164344
      ],
      [
        "ĠalguÃ©m",
        -9.67468159636429
      ],
      [
        "ĠaplicaÃ§Ã£o",
        -9.675053270475178
      ],
      [
        "Ġresultado",
        -9.675367913927614
      ],
      [
        "Î",
        -9.675658747467477
      ],
      [
        "sur",
        -9.676395883486949
      ],
      [
        "Ġperde",
        -9.67772687522382
      ],
      [
        "ĠterritÃ³rio",
        -9.67801842748395
      ],
      [
        "MENTO",
        -9.678144570953297
      ],
      [
        "nica",
        -9.67894642830992
      ],
      [
        "Ġrealizado",
        -9.679193752649034
      ],
      [
        "Ġprincipais",
        -9.67958348633311
      ],
      [
        "requer",
        -9.679704246221178
      ],
      [
        "ĠCopa",
        -9.68014157089758
      ],
      [
        "ĠTr",
        -9.680595024761312
      ],
      [
        "ĠCons",
        -9.68143200109566
      ],
      [
        "ĠSecretaria",
        -9.681513257709195
      ],
      [
        "2019",
        -9.682027506346603
      ],
      [
        "ÃĩÃķES",
        -9.684810289065952
      ],
      [
        "Ġhaver",
        -9.684902195057893
      ],
      [
        "Ġocorre",
        -9.685128911891434
      ],
      [
        "CURSO",
        -9.688336903659213
      ],
      [
        "Ġclaro",
        -9.688922196904034
      ],
      [
        "ĠEspecial",
        -9.689403393973606
      ],
      [
        "bert",
        -9.690079722074575
      ],
      [
        "Ã³rgÃ£o",
        -9.690217678834866
      ],
      [
        "EIRA",
        -9.690603131757513
      ],
      [
        "Ġautos",
        -9.690789595985288
      ],
      [
        "Ġrenda",
        -9.6909071715744
      ],
      [
        "ĠTV",
        -9.691373877606646
      ],
      [
        "ĠinformaÃ§Ã£o",
        -9.693104924365995
      ],
      [
        "Ġideia",
        -9.693915745182885
      ],
      [
        "AM",
        -9.69427006614064
      ],
      [
        "ĠposiÃ§Ã£o",
        -9.694442667918542
      ],
      [
        "tel",
        -9.695192463225284
      ],
      [
        "Ġcrise",
        -9.696431779329655
      ],
      [
        "Ġnota",
        -9.6973673131378
      ],
      [
        "Ġrefere",
        -9.69781286874047
      ],
      [
        "Ġpontos",
        -9.698054965954856
      ],
      [
        "Ġconsiderado",
        -9.698096439804106
      ],
      [
        "lon",
        -9.699143046210668
      ],
      [
        "Ġnatureza",
        -9.699596100069778
      ],
      [
        "comunicaÃ§Ã£o",
        -9.7009653856494
      ],
      [
        "nÃ£o",
        -9.702166407705104
      ],
      [
        "apreciaÃ§Ã£o",
        -9.702289713957114
      ],
      [
        "Ġvia",
        -9.70335672079216
      ],
      [
        "deverÃ¡",
        -9.703420406029858
      ],
      [
        "Ġchegar",
        -9.70382396242343
      ],
      [
        "ĠTra",
        -9.703898030506448
      ],
      [
        "Ġturno",
        -9.70483835937498
      ],
      [
        "Ġfase",
        -9.707486501208242
      ],
      [
        "ĠEles",
        -9.708711180449184
      ],
      [
        "ĠQuero",
        -9.708851059182589
      ],
      [
        "ĠOu",
        -9.709011254949337
      ],
      [
        "Ã¡rios",
        -9.710174972429666
      ],
      [
        "Ġlivre",
        -9.711049948848292
      ],
      [
        "ĠEst",
        -9.711098761145056
      ],
      [
        "ĠatenÃ§Ã£o",
        -9.712003997533264
      ],
      [
        "eve",
        -9.712323335034151
      ],
      [
        "ĠMIN",
        -9.712511069342794
      ],
      [
        "Ġsucesso",
        -9.713131881921369
      ],
      [
        "rica",
        -9.714707150583566
      ],
      [
        "Ġ2018",
        -9.715674642482062
      ],
      [
        "ĠQuem",
        -9.71661502939633
      ],
      [
        "provimento",
        -9.71667844870659
      ],
      [
        "ĠCan",
        -9.716692836252683
      ],
      [
        "nada",
        -9.717535457495805
      ],
      [
        "2017",
        -9.717688143504269
      ],
      [
        "Ordem",
        -9.71844213388652
      ],
      [
        "ĠRicardo",
        -9.718574621818233
      ],
      [
        "Ġ1998",
        -9.719381347704768
      ],
      [
        "ny",
        -9.720349887791174
      ],
      [
        "chegou",
        -9.720532058798296
      ],
      [
        "Ãį",
        -9.722582903750835
      ],
      [
        "FI",
        -9.72445802272197
      ],
      [
        "van",
        -9.724511538957689
      ],
      [
        "ĠSistema",
        -9.725537599924143
      ],
      [
        "ĠPI",
        -9.725917592892069
      ],
      [
        "Ġautoria",
        -9.726202201336848
      ],
      [
        "ĠAlves",
        -9.726396705581289
      ],
      [
        "Ġsede",
        -9.726588519315612
      ],
      [
        "ĠHenrique",
        -9.72674207052731
      ],
      [
        "Ġdiferentes",
        -9.727546554537874
      ],
      [
        "tados",
        -9.72848157572217
      ],
      [
        "ĠAGRAV",
        -9.729871143707747
      ],
      [
        "Ġcaput",
        -9.730066394162057
      ],
      [
        "ĠDireito",
        -9.730320442461542
      ],
      [
        "Ġagr",
        -9.730324759220222
      ],
      [
        "elo",
        -9.730357677619796
      ],
      [
        "Ġdar",
        -9.730550359868438
      ],
      [
        "Ġautoriza",
        -9.730625437185232
      ],
      [
        "Ġpenal",
        -9.730932290571888
      ],
      [
        "existÃªncia",
        -9.731300009100696
      ],
      [
        "ĠMINISTR",
        -9.733205533921849
      ],
      [
        "Ġguerra",
        -9.733493351647974
      ],
      [
        "Ġtaxa",
        -9.734920653025908
      ],
      [
        "Ġsignifica",
        -9.735787250598763
      ],
      [
        "ĠOh",
        -9.736430484095804
      ],
      [
        "Ġcomunidade",
        -9.737250893640528
      ],
      [
        "ĠPereira",
        -9.73736357579813
      ],
      [
        "Ġcategoria",
        -9.738096810402649
      ],
      [
        "ĠmÃ£o",
        -9.738351693152726
      ],
      [
        "ĠSanto",
        -9.738382683404712
      ],
      [
        "Ġve",
        -9.739869632396813
      ],
      [
        "Ġrede",
        -9.740382124067803
      ],
      [
        "ĠSantos",
        -9.741400957449793
      ],
      [
        "ĠPr",
        -9.74205141070216
      ],
      [
        "quer",
        -9.743949699620831
      ],
      [
        "ĠDias",
        -9.74404328068001
      ],
      [
        "ĠInter",
        -9.744542821538296
      ],
      [
        "gestÃ£o",
        -9.744877128881594
      ],
      [
        "ĠÃºnica",
        -9.747469851695136
      ],
      [
        "Ġmenor",
        -9.74878614942842
      ],
      [
        "Cidadania",
        -9.749567198047943
      ],
      [
        "acima",
        -9.749740071114164
      ],
      [
        "cido",
        -9.750092726691705
      ],
      [
        "ĠformaÃ§Ã£o",
        -9.750377161846249
      ],
      [
        "REG",
        -9.751439040285696
      ],
      [
        "Ġcriar",
        -9.75289814592325
      ],
      [
        "PolÃŃcia",
        -9.753918126499016
      ],
      [
        "Ġplano",
        -9.755179908038766
      ],
      [
        "Ã³rgÃ£os",
        -9.755483649665893
      ],
      [
        "cujo",
        -9.75562751564908
      ],
      [
        "Ġinternacional",
        -9.756900093049468
      ],
      [
        "ĠMais",
        -9.757226680708914
      ],
      [
        "ĠBra",
        -9.758744257316668
      ],
      [
        "Ġvisita",
        -9.759020438693538
      ],
      [
        "Ġchega",
        -9.761293794118474
      ],
      [
        "tÃ³ria",
        -9.761843398583704
      ],
      [
        "ĠWe",
        -9.76198205483002
      ],
      [
        "soluÃ§Ã£o",
        -9.76242416368948
      ],
      [
        "trabalhadores",
        -9.763703004618868
      ],
      [
        "Ġpequeno",
        -9.76405728828596
      ],
      [
        "ĠAb",
        -9.764795439346866
      ],
      [
        "ĠSub",
        -9.765135246343087
      ],
      [
        "ADO",
        -9.765681842653418
      ],
      [
        "Ġporta",
        -9.765944676359302
      ],
      [
        "Ġ37",
        -9.765987244959236
      ],
      [
        "Medida",
        -9.766991176637402
      ],
      [
        "lei",
        -9.767202596622148
      ],
      [
        "ego",
        -9.767996935904812
      ],
      [
        "mentos",
        -9.768549301314192
      ],
      [
        "Â",
        -9.76857550665352
      ],
      [
        "CN",
        -9.76899022396145
      ],
      [
        "ĠreferÃªncia",
        -9.771185131781486
      ],
      [
        "ĠDilma",
        -9.773586668401558
      ],
      [
        "ĠPorto",
        -9.773602456911414
      ],
      [
        "mediante",
        -9.77362805602192
      ],
      [
        "ĠSou",
        -9.77392766316284
      ],
      [
        "destaque",
        -9.774341592666865
      ],
      [
        "PP",
        -9.775251119318922
      ],
      [
        "ĠEl",
        -9.775706243287962
      ],
      [
        "Ġcaminho",
        -9.777500728005233
      ],
      [
        "ĠirmÃ£o",
        -9.777508920937631
      ],
      [
        "Ġclube",
        -9.777658810177366
      ],
      [
        "ĠinstituiÃ§Ãµes",
        -9.779445173223028
      ],
      [
        "realmente",
        -9.779833239998512
      ],
      [
        "recebeu",
        -9.780042339997278
      ],
      [
        "Ġfundo",
        -9.780983522680682
      ],
      [
        "Ġ35",
        -9.781516294277022
      ],
      [
        "Ġseis",
        -9.782521840832285
      ],
      [
        "ĠBanco",
        -9.782943530754483
      ],
      [
        "Ġeleito",
        -9.783474159876862
      ],
      [
        "Ġatendimento",
        -9.783795856365035
      ],
      [
        "ĠParlamentar",
        -9.784353779486512
      ],
      [
        "Ã¢ncia",
        -9.784354963857018
      ],
      [
        "IDADE",
        -9.78447093972381
      ],
      [
        "contrÃ¡rio",
        -9.78475258042219
      ],
      [
        "ĠPSD",
        -9.785142992934436
      ],
      [
        "parÃ¡grafo",
        -9.786209126850364
      ],
      [
        "2006",
        -9.78646845951168
      ],
      [
        "ĠMeu",
        -9.7870772344618
      ],
      [
        "ĠRosa",
        -9.787251069479858
      ],
      [
        "cuja",
        -9.787462913307444
      ],
      [
        "ĠEi",
        -9.789081458852372
      ],
      [
        "ĠGi",
        -9.790485782438775
      ],
      [
        "ĠVou",
        -9.79048604718234
      ],
      [
        "ĠHu",
        -9.791532258416773
      ],
      [
        "ĠEra",
        -9.791930013324034
      ],
      [
        "ĠEntre",
        -9.791966207876074
      ],
      [
        "Ġcontinua",
        -9.792085094328336
      ],
      [
        "Ġdesses",
        -9.79239249580726
      ],
      [
        "ĠNesse",
        -9.793504090469106
      ],
      [
        "ĠHistÃ³ria",
        -9.794330499610576
      ],
      [
        "ĠMato",
        -9.79547699778953
      ],
      [
        "category",
        -9.796055464136328
      ],
      [
        "Ġcultura",
        -9.797044494264544
      ],
      [
        "ĠDis",
        -9.7971524000652
      ],
      [
        "Ġ60",
        -9.79788150023082
      ],
      [
        "ian",
        -9.800927642902945
      ],
      [
        "Ġresposta",
        -9.801400581579188
      ],
      [
        "ĠSol",
        -9.801760381053665
      ],
      [
        "Ġmanter",
        -9.802069031277815
      ],
      [
        "serem",
        -9.8042394330568
      ],
      [
        "ier",
        -9.80443720023952
      ],
      [
        "Ġtorna",
        -9.804753636747
      ],
      [
        "critÃ©rio",
        -9.80496166768372
      ],
      [
        "oli",
        -9.805142881120762
      ],
      [
        "ĠlanÃ§ado",
        -9.805243364284724
      ],
      [
        "Ġdisputa",
        -9.805960536458564
      ],
      [
        "ĠMarcelo",
        -9.806236582061402
      ],
      [
        "violÃªncia",
        -9.806783674415158
      ],
      [
        "Gerais",
        -9.80872199018106
      ],
      [
        "Ġsol",
        -9.808782933159804
      ],
      [
        "age",
        -9.809126764979895
      ],
      [
        "Durante",
        -9.810198313622974
      ],
      [
        "ĠFundo",
        -9.81053115789009
      ],
      [
        "Ġcapacidade",
        -9.81145842183648
      ],
      [
        "Ġsul",
        -9.812962114366885
      ],
      [
        "Ġnovos",
        -9.812994096394258
      ],
      [
        "Ġliberdade",
        -9.81399773111396
      ],
      [
        "preÃ§o",
        -9.815818031760433
      ],
      [
        "enti",
        -9.81631909696825
      ],
      [
        "PAULO",
        -9.816499979367308
      ],
      [
        "ĠADV",
        -9.817032038162267
      ],
      [
        "Ġmostra",
        -9.817417605269124
      ],
      [
        "ĠRÃ¡dio",
        -9.817423122261271
      ],
      [
        "Ġreuni",
        -9.817623642060711
      ],
      [
        "homens",
        -9.819935800000003
      ],
      [
        "Ġextra",
        -9.820085038547411
      ],
      [
        "ĠBahia",
        -9.820713309144068
      ],
      [
        "Ġcriado",
        -9.82084697037006
      ],
      [
        "ÃŃvel",
        -9.82199761993652
      ],
      [
        "Ġcivil",
        -9.82241903720791
      ],
      [
        "ĠBrasileira",
        -9.823543539109272
      ],
      [
        "Ġexecutar",
        -9.825322253959197
      ],
      [
        "ĠJorge",
        -9.826295027242256
      ],
      [
        "Of",
        -9.826313561943776
      ],
      [
        "proteÃ§Ã£o",
        -9.826429067688515
      ],
      [
        "posiÃ§Ãµes",
        -9.8273593794039
      ],
      [
        "ĠresponsÃ¡vel",
        -9.828251013767256
      ],
      [
        "Ġterceiro",
        -9.828307806853136
      ],
      [
        "Ġmaterial",
        -9.828486532248998
      ],
      [
        "Ġdiversos",
        -9.828655012491597
      ],
      [
        "ĠCO",
        -9.82869801130005
      ],
      [
        "ĠLima",
        -9.829891135717116
      ],
      [
        "servidores",
        -9.829895179550649
      ],
      [
        "vos",
        -9.830294927964529
      ],
      [
        "tores",
        -9.830324732891578
      ],
      [
        "shi",
        -9.83045659603401
      ],
      [
        "devem",
        -9.830522831392232
      ],
      [
        "ĠSENHOR",
        -9.832131361717757
      ],
      [
        "Ġincluindo",
        -9.83290212585126
      ],
      [
        "Ġconsegui",
        -9.833240620469091
      ],
      [
        "maiores",
        -9.833263218361289
      ],
      [
        "Ġambiente",
        -9.833510625982926
      ],
      [
        "SOL",
        -9.834227314514347
      ],
      [
        "ĠCON",
        -9.834233612123604
      ],
      [
        "ĠMundial",
        -9.834540804596932
      ],
      [
        "Ġtrabalhos",
        -9.83470079702332
      ],
      [
        "Ġchamada",
        -9.835342798731546
      ],
      [
        "ProvisÃ³ria",
        -9.835824920547315
      ],
      [
        "ģ",
        -9.836128613757506
      ],
      [
        "pressÃ£o",
        -9.836521807480386
      ],
      [
        "ĠAdministraÃ§Ã£o",
        -9.837595932820571
      ],
      [
        "Ġhomenage",
        -9.837865607467124
      ],
      [
        "Ġestudo",
        -9.838725714663155
      ],
      [
        "Ġautoridade",
        -9.838818717767884
      ],
      [
        "Ġacha",
        -9.8408570466982
      ],
      [
        "ĠBR",
        -9.843267720171122
      ],
      [
        "Ġdiversas",
        -9.843458486060497
      ],
      [
        "Ġcompra",
        -9.843755858920709
      ],
      [
        "ÃŃstica",
        -9.845863383140966
      ],
      [
        "PA",
        -9.846374044045588
      ],
      [
        "Ġartigos",
        -9.846943026456788
      ],
      [
        "Ġprofissionais",
        -9.8473432462746
      ],
      [
        "ĠInternacional",
        -9.847499643344632
      ],
      [
        "Ainda",
        -9.84761112704008
      ],
      [
        "ĠAG",
        -9.849185525789077
      ],
      [
        "ĠâĢĺ",
        -9.84971845176484
      ],
      [
        "Ġapresentado",
        -9.849940679180678
      ],
      [
        "Ġvotar",
        -9.850424251401638
      ],
      [
        "ĠMendes",
        -9.850820913393523
      ],
      [
        "Ġcabe",
        -9.851057450254377
      ],
      [
        "tratamento",
        -9.85182816611855
      ],
      [
        "Ġnorma",
        -9.85183980334158
      ],
      [
        "lÃ³gico",
        -9.85269646561301
      ],
      [
        "Ġ1997",
        -9.853069861588123
      ],
      [
        "Ġamigo",
        -9.853960121030587
      ],
      [
        "gostaria",
        -9.856221424677654
      ],
      [
        "ĠTudo",
        -9.85632478791092
      ],
      [
        "\",\"",
        -9.85652030518993
      ],
      [
        "ĠVal",
        -9.85807726913262
      ],
      [
        "ARDO",
        -9.858096737506289
      ],
      [
        "Ġamor",
        -9.86002509819147
      ],
      [
        "ĠeconÃ´mico",
        -9.861111357502416
      ],
      [
        "Ġir",
        -9.861686538675134
      ],
      [
        "reduÃ§Ã£o",
        -9.86460348537444
      ],
      [
        "Apensa",
        -9.86655673149226
      ],
      [
        "PCdoB",
        -9.86674830053969
      ],
      [
        "han",
        -9.867595084990276
      ],
      [
        "Ġgarantia",
        -9.868060461848245
      ],
      [
        "Ġcumprimento",
        -9.869520080946714
      ],
      [
        "ĠFu",
        -9.869596092282649
      ],
      [
        "cionais",
        -9.870813459193544
      ],
      [
        "Ġfundamental",
        -9.871095974391917
      ],
      [
        "ĠVoss",
        -9.871988011224078
      ],
      [
        "ĠCE",
        -9.8720153201702
      ],
      [
        "Ġcarro",
        -9.872116706689686
      ],
      [
        "Ġ38",
        -9.872237714177531
      ],
      [
        "Ġinstrumento",
        -9.872265189621125
      ],
      [
        "Ġfuturo",
        -9.873359740615513
      ],
      [
        "Ġarma",
        -9.8746433986377
      ],
      [
        "ĠRO",
        -9.874727036617058
      ],
      [
        "ĠAta",
        -9.875027836972684
      ],
      [
        "ĠGovernador",
        -9.875370468693404
      ],
      [
        "acrescenta",
        -9.875947929091994
      ],
      [
        "Ġcria",
        -9.87595142172691
      ],
      [
        "pp",
        -9.87655680115162
      ],
      [
        "normas",
        -9.877106267559077
      ],
      [
        "Ġpergunta",
        -9.877380801605776
      ],
      [
        "Ġevento",
        -9.87783274991098
      ],
      [
        "ĠPRO",
        -9.87816558610582
      ],
      [
        "Ġpermiti",
        -9.880153103598504
      ],
      [
        "Ġnenhuma",
        -9.880387110898509
      ],
      [
        "Ġdiretor",
        -9.881054958454516
      ],
      [
        "Ġmuita",
        -9.88158109504338
      ],
      [
        "pronunciamento",
        -9.881907184025309
      ],
      [
        "Ġisto",
        -9.88209908479072
      ],
      [
        "Ġacaba",
        -9.884054457899994
      ],
      [
        "Ġbu",
        -9.884163219896593
      ],
      [
        "Ġreceber",
        -9.884227789238937
      ],
      [
        "fÃŃsica",
        -9.884632027388347
      ],
      [
        "Ġgrave",
        -9.88470407574259
      ],
      [
        "Ġfunda",
        -9.884884089699378
      ],
      [
        "produtos",
        -9.884973844423817
      ],
      [
        "Ġpassar",
        -9.885467070608629
      ],
      [
        "zer",
        -9.886632476089847
      ],
      [
        "Ġalto",
        -9.887199492326436
      ],
      [
        "Ġapresentada",
        -9.887594237160378
      ],
      [
        "Ġ36",
        -9.887780146853837
      ],
      [
        "GL",
        -9.888957385564884
      ],
      [
        "Ġnatural",
        -9.889728524774286
      ],
      [
        "RJ",
        -9.89028142779345
      ],
      [
        "lidade",
        -9.8906468363751
      ],
      [
        "Ġcusto",
        -9.890836223139011
      ],
      [
        "Lei",
        -9.891056260920468
      ],
      [
        "Ġmilitar",
        -9.89130750344201
      ],
      [
        "dÃºvida",
        -9.89172119757173
      ],
      [
        "antes",
        -9.891765139835954
      ],
      [
        "2003",
        -9.892637877775782
      ],
      [
        "lÃ³gica",
        -9.892786136350509
      ],
      [
        "ĠSuperior",
        -9.894914306583026
      ],
      [
        "the",
        -9.8959824601427
      ],
      [
        "Ġdire",
        -9.89638047469284
      ],
      [
        "ĠAcho",
        -9.896770501903593
      ],
      [
        "substituiÃ§Ã£o",
        -9.89680532888482
      ],
      [
        "Ġfins",
        -9.896837566799496
      ],
      [
        "Ġnovas",
        -9.896958336400765
      ],
      [
        "Ġcrescimento",
        -9.896975860379978
      ],
      [
        "Ã¡veis",
        -9.899178863526494
      ],
      [
        "Ġjornal",
        -9.899410997980915
      ],
      [
        "ĠCentro",
        -9.901065984985175
      ],
      [
        "Ãĵ",
        -9.9012827213211
      ],
      [
        "Ġnaquel",
        -9.901407469098205
      ],
      [
        "ĠvocÃªs",
        -9.902716469792145
      ],
      [
        "Ġusar",
        -9.9031722774052
      ],
      [
        "ĠHer",
        -9.903591372996257
      ],
      [
        "hipÃ³tese",
        -9.904137183001518
      ],
      [
        "ĠMal",
        -9.904238738169434
      ],
      [
        "ĠPEC",
        -9.905427512683126
      ],
      [
        "Ġsonora",
        -9.905485203003046
      ],
      [
        "Ġdeles",
        -9.905669485424252
      ],
      [
        "entidades",
        -9.906408339615671
      ],
      [
        "ĠGen",
        -9.906589667789277
      ],
      [
        "ĠAna",
        -9.90665874317376
      ],
      [
        "Ġparticular",
        -9.9079561996555
      ],
      [
        "Ġsimples",
        -9.908079445741487
      ],
      [
        "ĠEXTRAORDINÃģRI",
        -9.9094514877426
      ],
      [
        "ĠVoto",
        -9.910264156801102
      ],
      [
        "ĠPmdbP",
        -9.911146015534731
      ],
      [
        "tecnologia",
        -9.912433900239405
      ],
      [
        "Ġimposto",
        -9.91324524572837
      ],
      [
        "Ġdeixo",
        -9.913372402835783
      ],
      [
        "Ġpratica",
        -9.915068124319728
      ],
      [
        "..............",
        -9.915856179105855
      ],
      [
        "tante",
        -9.916258650935662
      ],
      [
        "audiÃªncia",
        -9.916812555409663
      ],
      [
        "ĠIta",
        -9.9175089349414
      ],
      [
        "Ġapresentar",
        -9.918218561770702
      ],
      [
        "Ġmod",
        -9.918692437209868
      ],
      [
        "omissÃµes",
        -9.918979219512249
      ],
      [
        "ĠCampos",
        -9.920946859911345
      ],
      [
        "Ġmeta",
        -9.92104400375037
      ],
      [
        "Ġtribuna",
        -9.922110574822412
      ],
      [
        "ĠLt",
        -9.92291446567495
      ],
      [
        "ĠcomeÃ§a",
        -9.924084628053372
      ],
      [
        "lÃ¡",
        -9.924128563413545
      ],
      [
        "ĠRJ",
        -9.924159748177363
      ],
      [
        "ssem",
        -9.924372381915047
      ],
      [
        "Ñ",
        -9.924521945599418
      ],
      [
        "ĠninguÃ©m",
        -9.924713785641275
      ],
      [
        "Ġconquista",
        -9.925524034169866
      ],
      [
        "Ġajudar",
        -9.926577697597809
      ],
      [
        "Hoje",
        -9.92679015709324
      ],
      [
        "Ġ1999",
        -9.927208547365876
      ],
      [
        "Ġdespes",
        -9.927434315801364
      ],
      [
        "Ġvisto",
        -9.9277711770162
      ],
      [
        "ĠTodos",
        -9.927994003110925
      ],
      [
        "pur",
        -9.928950017683327
      ],
      [
        "Ġimporta",
        -9.929805679220395
      ],
      [
        "verÃ£o",
        -9.93054602324697
      ],
      [
        "ĠIgreja",
        -9.930787240513988
      ],
      [
        "Ġfilhos",
        -9.931233424290728
      ],
      [
        "medidas",
        -9.93144226612277
      ],
      [
        "Ġrecebe",
        -9.932684032341845
      ],
      [
        "Ġestabelece",
        -9.93390688787903
      ],
      [
        "ĠterÃ¡",
        -9.934231149234895
      ],
      [
        "Ġdiante",
        -9.934988086064116
      ],
      [
        "Ġcombate",
        -9.935111789635602
      ],
      [
        "Ġ53",
        -9.936320314046776
      ],
      [
        "tenÃ§Ã£o",
        -9.936786552435086
      ],
      [
        "ĠadministraÃ§Ã£o",
        -9.9368389883011
      ],
      [
        "zada",
        -9.936863170621017
      ],
      [
        "ĠSp",
        -9.937012856509728
      ],
      [
        "ĠBA",
        -9.93802188704948
      ],
      [
        "ĠSecretÃ¡rio",
        -9.938153412180354
      ],
      [
        "designado",
        -9.938195985433474
      ],
      [
        "Ġespecialmente",
        -9.939719627645664
      ],
      [
        "ĠorganizaÃ§Ã£o",
        -9.94016062108937
      ],
      [
        "ĠVale",
        -9.940291178584594
      ],
      [
        "ĠFranÃ§a",
        -9.940327590858228
      ],
      [
        "ĠAnex",
        -9.941300764745067
      ],
      [
        "sul",
        -9.94169138729074
      ],
      [
        "ĠBer",
        -9.941823726401871
      ],
      [
        "PFL",
        -9.941943242964827
      ],
      [
        "ĠinstituiÃ§Ã£o",
        -9.942487573236605
      ],
      [
        "ĠCultura",
        -9.944413093248269
      ],
      [
        "ĠlÃŃngua",
        -9.944422677665305
      ],
      [
        "ĠAqui",
        -9.944747798313346
      ],
      [
        "ĠBel",
        -9.945403978519147
      ],
      [
        "juridicidade",
        -9.945619120868388
      ],
      [
        "Ġcontar",
        -9.945710740572425
      ],
      [
        "Ġconhecida",
        -9.945767246071108
      ],
      [
        "iana",
        -9.945945710157243
      ],
      [
        "stÃµes",
        -9.945967407838443
      ],
      [
        "Tenho",
        -9.94748672120761
      ],
      [
        "Ġfutebol",
        -9.947662123008104
      ],
      [
        "ĠFEDERAL",
        -9.948477372344897
      ],
      [
        "Ġatua",
        -9.950001949347982
      ],
      [
        "ĠTemer",
        -9.950813637457532
      ],
      [
        "ĠTerra",
        -9.951187510508715
      ],
      [
        "GA",
        -9.952049257519617
      ],
      [
        "CH",
        -9.9529583346125
      ],
      [
        "2004",
        -9.953209707359791
      ],
      [
        "ĠJÃºnior",
        -9.953606640358512
      ],
      [
        "ĠCal",
        -9.95382591207864
      ],
      [
        "URMA",
        -9.953911513573177
      ],
      [
        "Ġinvestiga",
        -9.956275295449814
      ],
      [
        "Ġlevar",
        -9.95660308161828
      ],
      [
        "ting",
        -9.956944148881815
      ],
      [
        "Ġ34",
        -9.957285325203236
      ],
      [
        "Ġrevista",
        -9.958141430928324
      ],
      [
        "Ġbastante",
        -9.958168467195286
      ],
      [
        "Ġtermo",
        -9.95838059465462
      ],
      [
        "Ġfilha",
        -9.958794897731682
      ],
      [
        "ĠBom",
        -9.959103191998656
      ],
      [
        "Ġcomum",
        -9.95949255432344
      ],
      [
        "ĠversÃ£o",
        -9.959778615099776
      ],
      [
        "by",
        -9.960765090817654
      ],
      [
        "tenham",
        -9.960820564859318
      ],
      [
        "ĠRibeiro",
        -9.960829298325375
      ],
      [
        "proposiÃ§Ã£o",
        -9.960896204213824
      ],
      [
        "Ġ55",
        -9.961470646732218
      ],
      [
        "Ġtri",
        -9.961979170360928
      ],
      [
        "comunitÃ¡ria",
        -9.962734540008432
      ],
      [
        "Ġvale",
        -9.962792605881525
      ],
      [
        "Ġaprovada",
        -9.964649795543863
      ],
      [
        "Ġrealidade",
        -9.965038466513608
      ],
      [
        "conteÃºdo",
        -9.96532666029972
      ],
      [
        "Ġpublicado",
        -9.965521292331546
      ],
      [
        "ĠprÃ³xima",
        -9.966438114997024
      ],
      [
        "prisÃ£o",
        -9.96653238487658
      ],
      [
        "Ġnego",
        -9.96681156800422
      ],
      [
        "ngel",
        -9.967406166807066
      ],
      [
        "Ġsair",
        -9.96786051357798
      ],
      [
        "bancada",
        -9.968289369091314
      ],
      [
        "afirmou",
        -9.968710705492107
      ],
      [
        "âĢĲ",
        -9.97113787924471
      ],
      [
        "Ġgarantir",
        -9.97268930725561
      ],
      [
        "tividade",
        -9.972916664130544
      ],
      [
        "Ġnovamente",
        -9.973756968646876
      ],
      [
        "Ġdispositivo",
        -9.974378097337793
      ],
      [
        "ĠtÃ©cnico",
        -9.974381851039633
      ],
      [
        "autorizaÃ§Ã£o",
        -9.974513739611073
      ],
      [
        "ĠTrata",
        -9.97541341670416
      ],
      [
        "ĠDOS",
        -9.97592082575333
      ],
      [
        "ĠTom",
        -9.977588486976233
      ],
      [
        "jovens",
        -9.97825353730453
      ],
      [
        "tÃ¡rio",
        -9.979293919708674
      ],
      [
        "Ġclasse",
        -9.979774049826656
      ],
      [
        "ĠLÃºci",
        -9.980363355058966
      ],
      [
        "ĠSegunda",
        -9.981676073994215
      ],
      [
        "ĠJohn",
        -9.982731591637778
      ],
      [
        "Ġfiscal",
        -9.985178593808032
      ],
      [
        "ano",
        -9.985884577607909
      ],
      [
        "Ġres",
        -9.9861519470382
      ],
      [
        "Ġmeus",
        -9.986544728064407
      ],
      [
        "esta",
        -9.98662667047619
      ],
      [
        "ĠAprova",
        -9.986825723895134
      ],
      [
        "seguida",
        -9.987404964482552
      ],
      [
        "ĠInformÃ¡tica",
        -9.98791866442192
      ],
      [
        "ĠAtÃ©",
        -9.988168707117897
      ],
      [
        "atuaÃ§Ã£o",
        -9.988226305137095
      ],
      [
        "enda",
        -9.989419545394808
      ],
      [
        "cisÃ£o",
        -9.989726553701542
      ],
      [
        "porÃ©",
        -9.990031923902444
      ],
      [
        "Ġ48",
        -9.9902378544996
      ],
      [
        "«",
        -9.99080039383432
      ],
      [
        "HC",
        -9.992428163376864
      ],
      [
        "ĠeletrÃ´nico",
        -9.993402744812252
      ],
      [
        "Ġtrabalhar",
        -9.993633820998202
      ],
      [
        "Ġ70",
        -9.993990487760398
      ],
      [
        "ĠMon",
        -9.994019969787225
      ],
      [
        "Ã§",
        -9.994557440317436
      ],
      [
        "Ġreserva",
        -9.99522377118773
      ],
      [
        "ĠcondiÃ§Ã£o",
        -9.995328506159478
      ],
      [
        "Ġcen",
        -9.995946621071887
      ],
      [
        "Ġ49",
        -9.99630529829249
      ],
      [
        "Ġpopular",
        -9.996955881878405
      ],
      [
        "Ġcurso",
        -9.998518232379338
      ],
      [
        "ĠCur",
        -9.998687619804024
      ],
      [
        "cimento",
        -9.99891466381554
      ],
      [
        "Ġfedera",
        -9.998994243497291
      ],
      [
        "]",
        -9.999404881704043
      ],
      [
        "emprego",
        -9.999493877585566
      ],
      [
        "ĠdireÃ§Ã£o",
        -10.00014860220483
      ],
      [
        "mont",
        -10.000310230192513
      ],
      [
        "Ġcorre",
        -10.000534124814964
      ],
      [
        "dez",
        -10.001589867180568
      ],
      [
        "side",
        -10.00210004446032
      ],
      [
        "seguintes",
        -10.0026930739447
      ],
      [
        "ĠmÃ©dico",
        -10.003513045419991
      ],
      [
        "ham",
        -10.003795126118971
      ],
      [
        "Ġrel",
        -10.00422480222752
      ],
      [
        "ÃĬNCIA",
        -10.004445309468837
      ],
      [
        "Ġaparece",
        -10.007318855278047
      ],
      [
        "ĠSer",
        -10.007765425396853
      ],
      [
        "RS",
        -10.00807489323874
      ],
      [
        "Ġsuficiente",
        -10.009148706060351
      ],
      [
        "Ptb",
        -10.010356747187048
      ],
      [
        "icas",
        -10.010860925106655
      ],
      [
        "ĠComplementar",
        -10.011741316000665
      ],
      [
        "ĠcabeÃ§a",
        -10.012014729993393
      ],
      [
        "dÃŃvida",
        -10.012160249938349
      ],
      [
        "ĠEuropa",
        -10.012189019035954
      ],
      [
        "Ġquadro",
        -10.01281176787758
      ],
      [
        "Ġtais",
        -10.013054335952829
      ],
      [
        "tivos",
        -10.013552130901068
      ],
      [
        "AgR",
        -10.013583744073983
      ],
      [
        "RES",
        -10.013585519789135
      ],
      [
        "Ġbaixa",
        -10.01392032962092
      ],
      [
        "indÃºstria",
        -10.01464532380963
      ],
      [
        "ĠEsc",
        -10.014714505276729
      ],
      [
        "GU",
        -10.015690997992888
      ],
      [
        "entendimento",
        -10.01812094509338
      ],
      [
        "Ġelas",
        -10.018401027225211
      ],
      [
        "Ġministro",
        -10.018845585795344
      ],
      [
        "entidade",
        -10.019656351085777
      ],
      [
        "ĠEscola",
        -10.019863447587314
      ],
      [
        "å",
        -10.02003355826298
      ],
      [
        "Ġfaixa",
        -10.020143835769495
      ],
      [
        "razÃµes",
        -10.02112464303511
      ],
      [
        "press",
        -10.02215760142822
      ],
      [
        "ÃŃcio",
        -10.023559286295583
      ],
      [
        "Ġsite",
        -10.02359034837028
      ],
      [
        "Ġ1996",
        -10.024459430995869
      ],
      [
        "DEPUTADO",
        -10.0248124645724
      ],
      [
        "declaraÃ§Ã£o",
        -10.025059089413617
      ],
      [
        "AntÃ´nio",
        -10.025376594485556
      ],
      [
        "Ġparticipar",
        -10.026416359551977
      ],
      [
        "prestaÃ§Ã£o",
        -10.02691955060319
      ],
      [
        "Ã§os",
        -10.02705031381508
      ],
      [
        "comissÃ£o",
        -10.027136509998918
      ],
      [
        "Ġvoltar",
        -10.02714921255811
      ],
      [
        "vÃŃtima",
        -10.02841764421365
      ],
      [
        "ĠportuguÃªs",
        -10.028624024327268
      ],
      [
        "vendo",
        -10.028732952649085
      ],
      [
        "ĠGe",
        -10.029204556186272
      ],
      [
        "ĠParanÃ¡",
        -10.02944812372446
      ],
      [
        "ĠPenal",
        -10.030379888741985
      ],
      [
        "Portaria",
        -10.030476781114649
      ],
      [
        "visÃ£o",
        -10.030964839721562
      ],
      [
        "Ġencontrar",
        -10.032526552283612
      ],
      [
        "ĠRoma",
        -10.032830852674117
      ],
      [
        "SC",
        -10.033553383502875
      ],
      [
        "+",
        -10.034086207666853
      ],
      [
        "Substitutivo",
        -10.034438645208027
      ],
      [
        "Primeiro",
        -10.03508825837167
      ],
      [
        "Certo",
        -10.035434205113368
      ],
      [
        "Ġrepresentante",
        -10.036632597641718
      ],
      [
        "escu",
        -10.037053901345269
      ],
      [
        "ĠPaul",
        -10.037215963659833
      ],
      [
        "pel",
        -10.03741023374902
      ],
      [
        "ĠDep",
        -10.03750681760821
      ],
      [
        "Ġentrar",
        -10.037948372630684
      ],
      [
        "SÃ©rgi",
        -10.038384849591084
      ],
      [
        "conformidade",
        -10.038659867583055
      ],
      [
        "efeitos",
        -10.03903594233115
      ],
      [
        "RelatÃ³rio",
        -10.039662470233674
      ],
      [
        "SRA",
        -10.039951521185792
      ],
      [
        "ĠJO",
        -10.040198810206851
      ],
      [
        "Ġaconteceu",
        -10.040841745815117
      ],
      [
        "ĠvitÃ³ria",
        -10.041441721547228
      ],
      [
        "entrada",
        -10.04149108571832
      ],
      [
        "locais",
        -10.042608421485747
      ],
      [
        "Ġindependente",
        -10.04318383442883
      ],
      [
        "Ġpermite",
        -10.04320590477342
      ],
      [
        "SÃĥO",
        -10.044990837785804
      ],
      [
        "Ġfunciona",
        -10.045602489680036
      ],
      [
        "Ġrei",
        -10.048612338098629
      ],
      [
        "Ġusado",
        -10.049632553336991
      ],
      [
        "Ġdisco",
        -10.05020520781683
      ],
      [
        "Ġacerca",
        -10.050246807337182
      ],
      [
        "prejuÃŃz",
        -10.050580345450236
      ],
      [
        "Ġdecidi",
        -10.051018592452449
      ],
      [
        "Ġigual",
        -10.051165932703608
      ],
      [
        "¸",
        -10.051374544066876
      ],
      [
        "Ġcerta",
        -10.05219526597632
      ],
      [
        "Ġdemanda",
        -10.05270131698778
      ],
      [
        "aquela",
        -10.054320281244696
      ],
      [
        "talvez",
        -10.054447422981513
      ],
      [
        "Ġnega",
        -10.055574391097924
      ],
      [
        "Ġluz",
        -10.055718490181803
      ],
      [
        "Ġbaixo",
        -10.056082955772093
      ],
      [
        "veio",
        -10.056306296009398
      ],
      [
        "Ġcolocar",
        -10.056769359486465
      ],
      [
        "ĠtelevisÃ£o",
        -10.056865126450017
      ],
      [
        "Ġtratar",
        -10.056889428046247
      ],
      [
        "Ġ43",
        -10.056901578328306
      ],
      [
        "salÃ¡rio",
        -10.057483576349297
      ],
      [
        "Ġapro",
        -10.05760091710079
      ],
      [
        "ĠapresentaÃ§Ã£o",
        -10.058252127991958
      ],
      [
        "Ġfonte",
        -10.05956865000704
      ],
      [
        "ĠXX",
        -10.060390896084623
      ],
      [
        "Ł",
        -10.06064189137858
      ],
      [
        "tiveram",
        -10.061509183014962
      ],
      [
        "Ġdessas",
        -10.06180015741834
      ],
      [
        "OfÃŃci",
        -10.062108275214406
      ],
      [
        "iam",
        -10.0628971385041
      ],
      [
        "PRB",
        -10.063429666606968
      ],
      [
        "Ġtornar",
        -10.063732596900756
      ],
      [
        "estavam",
        -10.064098250265696
      ],
      [
        "ĠvÃª",
        -10.06564029991678
      ],
      [
        "ĠCas",
        -10.065650680440823
      ],
      [
        "Ġabertura",
        -10.066579321186172
      ],
      [
        "Ġtomar",
        -10.066829803176851
      ],
      [
        "ĠTu",
        -10.068123001466311
      ],
      [
        "ĠexperiÃªncia",
        -10.068444125685383
      ],
      [
        "ĠComunitÃ¡ri",
        -10.068967958400297
      ],
      [
        "ĠcarÃ¡ter",
        -10.069367634960248
      ],
      [
        "Ġcomercial",
        -10.069432795584632
      ],
      [
        "2018",
        -10.070603230878437
      ],
      [
        "Ġpequena",
        -10.070967787983651
      ],
      [
        "arÃ¡grafo",
        -10.070976211029668
      ],
      [
        "ĠdifÃŃcil",
        -10.071203564901866
      ],
      [
        "Ġantiga",
        -10.072404236041988
      ],
      [
        "Ġquer",
        -10.072426793833344
      ],
      [
        "cÃ³pia",
        -10.073801553468146
      ],
      [
        "leiÃ§Ã£o",
        -10.07406898713064
      ],
      [
        "ĠdistribuiÃ§Ã£o",
        -10.07451443396564
      ],
      [
        "ĠPROC",
        -10.077387114938496
      ],
      [
        "ĠPOR",
        -10.077572145456683
      ],
      [
        "Ġmulta",
        -10.077945964172896
      ],
      [
        "ĠTrans",
        -10.0781877606183
      ],
      [
        "ĠPrefeit",
        -10.078475124118292
      ],
      [
        "atrÃ¡s",
        -10.079648049486485
      ],
      [
        "Ġtime",
        -10.079685096663184
      ],
      [
        "Ġdireta",
        -10.079715195252918
      ],
      [
        "fico",
        -10.080413718674269
      ],
      [
        "manutenÃ§Ã£o",
        -10.080489375350544
      ],
      [
        "Ġinstitui",
        -10.081127748112642
      ],
      [
        "pÃºblicos",
        -10.081139203072444
      ],
      [
        "ĠPARA",
        -10.081592073964211
      ],
      [
        "destinada",
        -10.0823932968483
      ],
      [
        "QUE",
        -10.082520658247546
      ],
      [
        "Ġ44",
        -10.08399011854234
      ],
      [
        "Ġsofre",
        -10.084335067921806
      ],
      [
        "ĠKi",
        -10.084735330201216
      ],
      [
        "Ġenca",
        -10.084837570633884
      ],
      [
        "provisÃ³ria",
        -10.085329482962443
      ],
      [
        "Ġchama",
        -10.08558124162811
      ],
      [
        "Ġtr",
        -10.08756981370049
      ],
      [
        "Ġatingi",
        -10.088200988944529
      ],
      [
        "sol",
        -10.088871897734071
      ],
      [
        "favorÃ¡vel",
        -10.089332962910271
      ],
      [
        "regiÃµes",
        -10.089754518501378
      ],
      [
        "aqueles",
        -10.090140973749362
      ],
      [
        "ĠprÃ©",
        -10.090350903469918
      ],
      [
        "ker",
        -10.092159938038822
      ],
      [
        "mÃ¡tica",
        -10.092177204608356
      ],
      [
        "legais",
        -10.092248428656408
      ],
      [
        "|",
        -10.093139725493572
      ],
      [
        "Ġreceita",
        -10.094085673012891
      ],
      [
        "Ġjogos",
        -10.09413499654652
      ],
      [
        "PSC",
        -10.094235025505288
      ],
      [
        "Ġtraz",
        -10.095018041638331
      ],
      [
        "ĠProcesso",
        -10.09574532843292
      ],
      [
        "Ġbens",
        -10.096425183640314
      ],
      [
        "MG",
        -10.09658904039132
      ],
      [
        "Ġamigos",
        -10.0968023704441
      ],
      [
        "apesar",
        -10.097455068352703
      ],
      [
        "Ġrevela",
        -10.09801622864008
      ],
      [
        "Ġcolega",
        -10.098200743061478
      ],
      [
        "Ī",
        -10.098795684325204
      ],
      [
        "Ġnormal",
        -10.0988112207598
      ],
      [
        "ĠCentral",
        -10.099015731318143
      ],
      [
        "tÃ¡vel",
        -10.099118256449172
      ],
      [
        "cus",
        -10.099335666922183
      ],
      [
        "utilizaÃ§Ã£o",
        -10.099675019208252
      ],
      [
        "ĠChe",
        -10.101415081692355
      ],
      [
        "Å",
        -10.101964105347898
      ],
      [
        "Apoio",
        -10.10244842357727
      ],
      [
        "Celso",
        -10.10262193765758
      ],
      [
        "ĠMac",
        -10.10305651463897
      ],
      [
        "Ġcontinuar",
        -10.10306786993357
      ],
      [
        "Ġdecreta",
        -10.103279682297948
      ],
      [
        "eleiÃ§Ãµes",
        -10.103377976107884
      ],
      [
        "ĠQual",
        -10.104581931021448
      ],
      [
        "Ġleva",
        -10.104677760485568
      ],
      [
        "Ġparticipa",
        -10.10800166344258
      ],
      [
        "Ġinterna",
        -10.108046353849582
      ],
      [
        "Ä",
        -10.10822019338447
      ],
      [
        "ĠPlano",
        -10.108681080407074
      ],
      [
        "dizendo",
        -10.10927058424467
      ],
      [
        "Ġtramita",
        -10.109917294599487
      ],
      [
        "ĠPROPOSI",
        -10.11006610734288
      ],
      [
        "Ġdocumentos",
        -10.110689443160624
      ],
      [
        "ĠSouza",
        -10.110995557967438
      ],
      [
        "Ã©tica",
        -10.112490043038832
      ],
      [
        "ausÃªncia",
        -10.11250039324404
      ],
      [
        "militares",
        -10.114056107107274
      ],
      [
        "motivo",
        -10.114424665064524
      ],
      [
        "Ġmelhores",
        -10.11459168452193
      ],
      [
        "diretamente",
        -10.11467442699008
      ],
      [
        "daquele",
        -10.114713864990753
      ],
      [
        "Ġsete",
        -10.11517640610763
      ],
      [
        "tual",
        -10.115389383528711
      ],
      [
        "Ġaprova",
        -10.115783360665167
      ],
      [
        "±",
        -10.116025355276191
      ],
      [
        "ĠGomes",
        -10.116693781096696
      ],
      [
        "Ġcapaz",
        -10.116827586656424
      ],
      [
        "ĠConced",
        -10.116845312130286
      ],
      [
        "Ġpasso",
        -10.117637616213688
      ],
      [
        "Ġperto",
        -10.117992901112569
      ],
      [
        "onde",
        -10.118277773870911
      ],
      [
        "ontem",
        -10.11842623790516
      ],
      [
        "ĠGrosso",
        -10.118946839485154
      ],
      [
        "Ġinterior",
        -10.11944405852301
      ],
      [
        "ĠMunicipal",
        -10.119613303325336
      ],
      [
        "ĠPri",
        -10.11992316064834
      ],
      [
        "ĠoperaÃ§Ã£o",
        -10.120559560274742
      ],
      [
        "ĠMinistra",
        -10.120672019504706
      ],
      [
        "ĠcanÃ§Ã£o",
        -10.120817583799573
      ],
      [
        "Ġcento",
        -10.121166848300549
      ],
      [
        "ĠLopes",
        -10.121615583033954
      ],
      [
        "Ġviola",
        -10.121808053760777
      ],
      [
        "Ġperda",
        -10.121859784725308
      ],
      [
        "Ġregra",
        -10.12229159266492
      ],
      [
        "Ġouvi",
        -10.123135890962686
      ],
      [
        "CARLOS",
        -10.123887934874432
      ],
      [
        "Ġfazem",
        -10.1239375471877
      ],
      [
        "ĠMilitar",
        -10.12400270650386
      ],
      [
        "ED",
        -10.124735230299176
      ],
      [
        "Estamos",
        -10.12492322823307
      ],
      [
        "Ġvenda",
        -10.125049195638509
      ],
      [
        "Ġcoloca",
        -10.125858196728124
      ],
      [
        "Ġ45",
        -10.12597348698845
      ],
      [
        "ĠRocha",
        -10.12608292166316
      ],
      [
        "referido",
        -10.12653918422696
      ],
      [
        "Ġpropriedade",
        -10.12726343537584
      ],
      [
        "cidade",
        -10.127410499808088
      ],
      [
        "Ġconsiderada",
        -10.1276695387583
      ],
      [
        "ĠGal",
        -10.128597501018096
      ],
      [
        "ĠvÃŃdeo",
        -10.128854377188082
      ],
      [
        "Ġadministrativa",
        -10.129502481472144
      ],
      [
        "Ġoito",
        -10.12981186074047
      ],
      [
        "BR",
        -10.129862962578706
      ],
      [
        "inclusÃ£o",
        -10.130821375080446
      ],
      [
        "ĠSabe",
        -10.131919938013576
      ],
      [
        "ĠlanÃ§amento",
        -10.132331958056444
      ],
      [
        "operaÃ§Ãµes",
        -10.13255603846872
      ],
      [
        "ĠQuer",
        -10.132915935370528
      ],
      [
        "grafia",
        -10.13403288727264
      ],
      [
        "ĠLista",
        -10.134488058116014
      ],
      [
        "CIA",
        -10.134965848350912
      ],
      [
        "ciais",
        -10.13525327533538
      ],
      [
        "ĠpeÃ§o",
        -10.136135784655384
      ],
      [
        "Ġopera",
        -10.13647463046668
      ],
      [
        "Ġdiscutir",
        -10.13686945075765
      ],
      [
        "Ġescrito",
        -10.13687421226694
      ],
      [
        "alunos",
        -10.13743864056181
      ],
      [
        "GERAL",
        -10.13771449673148
      ],
      [
        "Ġ[",
        -10.138369702947342
      ],
      [
        "Ġderrota",
        -10.138629097534023
      ],
      [
        "Ġcompromisso",
        -10.13938537575214
      ],
      [
        "Ġrealizar",
        -10.13992011138991
      ],
      [
        "Pausa",
        -10.140701223878336
      ],
      [
        "Ġinforma",
        -10.14153617816394
      ],
      [
        "ĠorÃ§amentÃ¡ria",
        -10.14172806000721
      ],
      [
        "lizado",
        -10.141803185099317
      ],
      [
        "Ġrio",
        -10.141910605110423
      ],
      [
        "Ġservi",
        -10.142282863862873
      ],
      [
        "Ġtroca",
        -10.142526175216638
      ],
      [
        "ĠPorque",
        -10.142555199444526
      ],
      [
        "Ġ80",
        -10.14286179413801
      ],
      [
        "Ġfixa",
        -10.143070705079296
      ],
      [
        "Ġlocalizado",
        -10.14325046936982
      ],
      [
        "ĠCatarina",
        -10.143856903486649
      ],
      [
        "Ġacabou",
        -10.143866066386105
      ],
      [
        "ung",
        -10.14524860665575
      ],
      [
        "Ġdiferente",
        -10.14563856794562
      ],
      [
        "Ġmetros",
        -10.145852541218265
      ],
      [
        "ĠmÃ©dio",
        -10.145893688648384
      ],
      [
        "Ġjovem",
        -10.14617247514802
      ],
      [
        "xclusividade",
        -10.14679407027747
      ],
      [
        "ĠDiretor",
        -10.146989816199223
      ],
      [
        "Ġrelativa",
        -10.147170605602431
      ],
      [
        "AC",
        -10.147598527854278
      ],
      [
        "exposto",
        -10.147925210772048
      ],
      [
        "ĠVeja",
        -10.148589717539256
      ],
      [
        "Ġlimite",
        -10.149446248142516
      ],
      [
        "Ġseguir",
        -10.1498637879935
      ],
      [
        "Ġquarto",
        -10.151200943981856
      ],
      [
        "Ãºmula",
        -10.15209837061254
      ],
      [
        "Ġconseguiu",
        -10.152371763965856
      ],
      [
        "ĠTemo",
        -10.153170767002578
      ],
      [
        "Ġpermitir",
        -10.153659519518383
      ],
      [
        "mir",
        -10.154181790021434
      ],
      [
        "Apesar",
        -10.154357184082064
      ],
      [
        "esforÃ§o",
        -10.154458010696302
      ],
      [
        "Ġescolas",
        -10.155264951540076
      ],
      [
        "ĠdiferenÃ§a",
        -10.155707254535477
      ],
      [
        "americana",
        -10.1570918056583
      ],
      [
        "ĠProfessor",
        -10.15760411380518
      ],
      [
        "Ġ1991",
        -10.157666714905258
      ],
      [
        "Ġentrega",
        -10.158310308810986
      ],
      [
        "ĠPal",
        -10.158526650466438
      ],
      [
        "ĠLUIZ",
        -10.158970862102064
      ],
      [
        "ĠPubli",
        -10.159513902296927
      ],
      [
        "estabelecimento",
        -10.159601579662002
      ],
      [
        "Ġcompleta",
        -10.159920183704577
      ],
      [
        "Ġfinanciamento",
        -10.160825302909728
      ],
      [
        "Ġimprensa",
        -10.161068285729613
      ],
      [
        "Ġquantidade",
        -10.161156853826398
      ],
      [
        "ĠReal",
        -10.161182279531848
      ],
      [
        "line",
        -10.162064002459806
      ],
      [
        "Ġgera",
        -10.162130597671467
      ],
      [
        "Ġ42",
        -10.163452251906136
      ],
      [
        "all",
        -10.163540565341249
      ],
      [
        "NR",
        -10.16396914643368
      ],
      [
        "ĠCONSTITUIÃĩÃĥO",
        -10.16403299947749
      ],
      [
        "Ġganha",
        -10.164606680346068
      ],
      [
        "Ġhonra",
        -10.16525387743775
      ],
      [
        "ĠmÃ¡",
        -10.166176451395604
      ],
      [
        "Ġquarta",
        -10.166440851023127
      ],
      [
        "Ġestudos",
        -10.166586165040476
      ],
      [
        "cat",
        -10.166689475916902
      ],
      [
        "zinho",
        -10.167075678864755
      ],
      [
        "Ġ52",
        -10.167754855919496
      ],
      [
        "Ġassumi",
        -10.168036197508874
      ],
      [
        "plenÃ¡rio",
        -10.168143872185182
      ],
      [
        "ĠAg",
        -10.168323145594911
      ],
      [
        "constitucionai",
        -10.168678376746612
      ],
      [
        "Ġorienta",
        -10.168775696899475
      ],
      [
        "uplente",
        -10.169245048416617
      ],
      [
        "falando",
        -10.169478907271564
      ],
      [
        "privada",
        -10.170403384519515
      ],
      [
        "Ġmora",
        -10.170435412758536
      ],
      [
        "ejeiÃ§Ã£o",
        -10.170554001575734
      ],
      [
        "Ġtentar",
        -10.170735720883693
      ],
      [
        "ĠGar",
        -10.171729439477012
      ],
      [
        "Ġutilizado",
        -10.171841809353952
      ],
      [
        "PPS",
        -10.17298170730878
      ],
      [
        "ĠFica",
        -10.173085913225671
      ],
      [
        "ĠMaranhÃ£o",
        -10.173283479894891
      ],
      [
        "ĠAlmeida",
        -10.174583429104592
      ],
      [
        "Ġlocalizada",
        -10.175095406786312
      ],
      [
        "Ġacontece",
        -10.175282382777375
      ],
      [
        "Ġdemonstra",
        -10.175518400281833
      ],
      [
        "ĠameaÃ§a",
        -10.175994040480246
      ],
      [
        "ĠParÃ¡",
        -10.176834053837728
      ],
      [
        "Ġpais",
        -10.176851961249314
      ],
      [
        "Ġ1995",
        -10.177654789714405
      ],
      [
        "Con",
        -10.17817496648494
      ],
      [
        "OSÃī",
        -10.178317590310302
      ],
      [
        "ĠRS",
        -10.178466401034555
      ],
      [
        "Ġcomigo",
        -10.178683629769282
      ],
      [
        "benefÃŃcio",
        -10.17881103693758
      ],
      [
        "Ġpagar",
        -10.17890896456266
      ],
      [
        "ĠPelo",
        -10.179554946735056
      ],
      [
        "ĠUSP",
        -10.179866438823998
      ],
      [
        "ĠAL",
        -10.180164441175606
      ],
      [
        "Ġexatamente",
        -10.1805436433683
      ],
      [
        "burg",
        -10.182239962669312
      ],
      [
        "ĠcrianÃ§a",
        -10.18227387973004
      ],
      [
        "Ġinicial",
        -10.182850830863895
      ],
      [
        "Ġunidades",
        -10.183544872693515
      ],
      [
        "ĠRodrigues",
        -10.183679115598432
      ],
      [
        "DF",
        -10.183799948058828
      ],
      [
        "Ġconfi",
        -10.18425541093642
      ],
      [
        "Ġenfrenta",
        -10.18549747049214
      ],
      [
        "clusÃ£o",
        -10.1858280447697
      ],
      [
        "ĠSU",
        -10.18665425168641
      ],
      [
        "atriz",
        -10.18688133865568
      ],
      [
        "mÃ¡ximo",
        -10.18692576588218
      ],
      [
        "Ġantigo",
        -10.187150392690556
      ],
      [
        "ĠGrupo",
        -10.187604346182717
      ],
      [
        "ĠCidade",
        -10.188520365767062
      ],
      [
        "Ġsala",
        -10.18886188418741
      ],
      [
        "ĠMaio",
        -10.191085242283425
      ],
      [
        "Ġdeputado",
        -10.191219040769822
      ],
      [
        "Ġpior",
        -10.19126384860539
      ],
      [
        "Ġhaja",
        -10.191597018832198
      ],
      [
        "Ġhumano",
        -10.192061397592951
      ],
      [
        "ĠCarvalho",
        -10.192196859867948
      ],
      [
        "Ġ119",
        -10.192251219097631
      ],
      [
        "ĠToda",
        -10.193561130260289
      ],
      [
        "Ġ64",
        -10.194275759960457
      ],
      [
        "julgado",
        -10.194588590632712
      ],
      [
        "Ġ58",
        -10.195608695231543
      ],
      [
        "ambos",
        -10.19600302099101
      ],
      [
        "gente",
        -10.196126584708198
      ],
      [
        "ĠEr",
        -10.196290055912334
      ],
      [
        "RegiÃ£o",
        -10.197121379422136
      ],
      [
        "ĠOnde",
        -10.19740147965479
      ],
      [
        "LideranÃ§a",
        -10.19790996795527
      ],
      [
        "bairro",
        -10.198589575223432
      ],
      [
        "corrupÃ§Ã£o",
        -10.199291215763449
      ],
      [
        "tida",
        -10.19983497600716
      ],
      [
        "Ġefetiva",
        -10.200047247441695
      ],
      [
        "ĠcontribuiÃ§Ã£o",
        -10.200385027877532
      ],
      [
        "ĠPan",
        -10.20062870397478
      ],
      [
        "Ġdocumenta",
        -10.201802290135271
      ],
      [
        "Ġprocura",
        -10.202072695651664
      ],
      [
        "Ġresultados",
        -10.202419472046357
      ],
      [
        "chefe",
        -10.202949945258794
      ],
      [
        "ĠMinha",
        -10.203075170042055
      ],
      [
        "Ġ01",
        -10.204216881025353
      ],
      [
        "ĠSuper",
        -10.204447559793977
      ],
      [
        "ceu",
        -10.20449212071838
      ],
      [
        "existente",
        -10.20482946343729
      ],
      [
        "hy",
        -10.205133855449436
      ],
      [
        "Ġvive",
        -10.205936008327756
      ],
      [
        "Ġmundial",
        -10.206272020106754
      ],
      [
        "Ġdefende",
        -10.206862227285155
      ],
      [
        "ĠDaniel",
        -10.20702782804542
      ],
      [
        "ĠGeral",
        -10.207202519361951
      ],
      [
        "essÃ£o",
        -10.20810930527098
      ],
      [
        "como",
        -10.20847459851256
      ],
      [
        "ĠgÃªnero",
        -10.208738075172338
      ],
      [
        "nacionais",
        -10.209760376357805
      ],
      [
        "ĠhistÃ³rico",
        -10.21002346852535
      ],
      [
        "ĠLEGISLATIV",
        -10.21044568929344
      ],
      [
        "ĠKo",
        -10.210517346445853
      ],
      [
        "Ġestadual",
        -10.211005143189082
      ],
      [
        "ejo",
        -10.21380449193704
      ],
      [
        "Ġdela",
        -10.213962734449996
      ],
      [
        "Ġinicia",
        -10.214373650512275
      ],
      [
        "ĠRIO",
        -10.214647805353383
      ],
      [
        "ĠcidadÃ£o",
        -10.21465804052281
      ],
      [
        "distrito",
        -10.214698295249477
      ],
      [
        "ĠReino",
        -10.215421230719814
      ],
      [
        "Ġevitar",
        -10.215553201293217
      ],
      [
        "somos",
        -10.216165113228747
      ],
      [
        "Ġvivo",
        -10.21622801354279
      ],
      [
        "Ġanti",
        -10.21654752719922
      ],
      [
        "ĠChi",
        -10.216920075106229
      ],
      [
        "Ġcri",
        -10.217182435892102
      ],
      [
        "ĠepisÃ³dio",
        -10.217489933331812
      ],
      [
        "Ġencontro",
        -10.217819730729545
      ],
      [
        "ĠpolÃŃcia",
        -10.21832649675538
      ],
      [
        "Ġ41",
        -10.21911508454383
      ],
      [
        "ĠjurÃŃdico",
        -10.221057935821078
      ],
      [
        "ĠNordeste",
        -10.221501940759673
      ],
      [
        "Ġbe",
        -10.221560585160328
      ],
      [
        "ĠAugusto",
        -10.222533711079942
      ],
      [
        "Ġfigura",
        -10.222733587733808
      ],
      [
        "AmazÃ´nia",
        -10.222814243311417
      ],
      [
        "Estadual",
        -10.22377630709537
      ],
      [
        "Talvez",
        -10.224190870632173
      ],
      [
        "criada",
        -10.224257646404034
      ],
      [
        "usada",
        -10.224670904333964
      ],
      [
        "ĠQUE",
        -10.224912472906665
      ],
      [
        "impacto",
        -10.22548718581425
      ],
      [
        "atualmente",
        -10.225647598782498
      ],
      [
        "Ġgosta",
        -10.226043297658022
      ],
      [
        "Ġdocumento",
        -10.227029708795529
      ],
      [
        "Ġface",
        -10.227056889158463
      ],
      [
        "Figueiredo",
        -10.22722852627021
      ],
      [
        "Ġposto",
        -10.227718754378328
      ],
      [
        "Fazenda",
        -10.227734421998893
      ],
      [
        "ĠFamÃŃlia",
        -10.228070096638568
      ],
      [
        "Ġ(...)",
        -10.228227406744509
      ],
      [
        "Ġmedi",
        -10.228354438020109
      ],
      [
        "Ġmerece",
        -10.22836771913548
      ],
      [
        "ĠWikipÃ©dia",
        -10.228985192033296
      ],
      [
        "ĠDECRET",
        -10.22917260408467
      ],
      [
        "requisitos",
        -10.229638871238418
      ],
      [
        "JudiciÃ¡ri",
        -10.229880304321318
      ],
      [
        "Ġjudicial",
        -10.23033858335712
      ],
      [
        "ĠNelson",
        -10.230392801602513
      ],
      [
        "Ġgrau",
        -10.231536783848131
      ],
      [
        "regras",
        -10.232232062299657
      ],
      [
        "ĠSeguranÃ§a",
        -10.2328024619968
      ],
      [
        "Teixeira",
        -10.23307176550443
      ],
      [
        "ali",
        -10.234029804147834
      ],
      [
        "ĠAndrÃ©",
        -10.234211826901038
      ],
      [
        "ĠTri",
        -10.234230929997908
      ],
      [
        "ĠCam",
        -10.234403025515402
      ],
      [
        "vemos",
        -10.23471726394276
      ],
      [
        "ĠBoa",
        -10.234865629348516
      ],
      [
        "ĠZa",
        -10.2354873916526
      ],
      [
        "ĠPp",
        -10.238332715623043
      ],
      [
        "DiscussÃ£o",
        -10.239012405586026
      ],
      [
        "Ġshow",
        -10.239164210452508
      ],
      [
        "ĠBal",
        -10.23968775821963
      ],
      [
        "ney",
        -10.239951661103076
      ],
      [
        "Ġestabelecer",
        -10.241264590471282
      ],
      [
        "ĠMG",
        -10.241477906635296
      ],
      [
        "Ġcentral",
        -10.24201761872074
      ],
      [
        "Ġfui",
        -10.24202735259363
      ],
      [
        "publicada",
        -10.24273275924492
      ],
      [
        "Ġespecifica",
        -10.243421904997122
      ],
      [
        "candidato",
        -10.244965783074877
      ],
      [
        "ĠFun",
        -10.24505733220844
      ],
      [
        "tÃ¡ria",
        -10.245291397163372
      ],
      [
        "preÃ§os",
        -10.24563245371076
      ],
      [
        "levou",
        -10.245997750269236
      ],
      [
        "ĠGua",
        -10.246677298116031
      ],
      [
        "Ġanimais",
        -10.248133552435728
      ],
      [
        "ĠFutebol",
        -10.24843024852054
      ],
      [
        "Ġ1988",
        -10.249066295140649
      ],
      [
        "PL",
        -10.249746084782416
      ],
      [
        "ĠSÃ¡",
        -10.25001629159283
      ],
      [
        "ĠDesde",
        -10.250096720520554
      ],
      [
        "ĠAp",
        -10.25020208492314
      ],
      [
        "Ġcompro",
        -10.250750632336343
      ],
      [
        "á",
        -10.25088353183181
      ],
      [
        "INA",
        -10.251042466142248
      ],
      [
        "paciente",
        -10.251192769026526
      ],
      [
        "abaixo",
        -10.252198594044064
      ],
      [
        "Ġestilo",
        -10.252847047596411
      ],
      [
        "ĠOlÃ¡",
        -10.253343262424398
      ],
      [
        "Ġresulta",
        -10.254180706942712
      ],
      [
        "Ġdaquel",
        -10.254888647830084
      ],
      [
        "ĠChina",
        -10.255349690030982
      ],
      [
        "Ġ39",
        -10.255487547979229
      ],
      [
        "°",
        -10.255708541819926
      ],
      [
        "ĠUS",
        -10.256134322855356
      ],
      [
        "rb",
        -10.25654219579468
      ],
      [
        "ĠTer",
        -10.25726848182074
      ],
      [
        "ĠAlberto",
        -10.25736000243812
      ],
      [
        "ĠNew",
        -10.257387608584532
      ],
      [
        "ĠNossa",
        -10.257834800977284
      ],
      [
        "Ġestes",
        -10.258117657026467
      ],
      [
        "Ġespera",
        -10.259492453013452
      ],
      [
        "avaliaÃ§Ã£o",
        -10.260591290626309
      ],
      [
        "licitante",
        -10.26110106618206
      ],
      [
        "ĠciÃªncia",
        -10.261749959240818
      ],
      [
        "Ġalega",
        -10.262936148834712
      ],
      [
        "ĠPolÃŃtica",
        -10.26297362175987
      ],
      [
        "Ġentrevista",
        -10.264091578291032
      ],
      [
        "Ġfeliz",
        -10.264175121284758
      ],
      [
        "Ġdetermina",
        -10.264285454450556
      ],
      [
        "ĠLuÃŃs",
        -10.265718763875377
      ],
      [
        "Ġpobre",
        -10.266006145298563
      ],
      [
        "ĠMundo",
        -10.266724517185638
      ],
      [
        "Ġmesa",
        -10.267130641178849
      ],
      [
        "ĠAlemanha",
        -10.267330565039869
      ],
      [
        "Ġoferece",
        -10.270120642902958
      ],
      [
        "Ġacidente",
        -10.270482066941735
      ],
      [
        "ĠART",
        -10.270857173231304
      ],
      [
        "Ġpaga",
        -10.27213440979976
      ],
      [
        "Ġinvestimento",
        -10.272782195462964
      ],
      [
        "Ġvice",
        -10.272848241896996
      ],
      [
        "Ġdemocracia",
        -10.273130804469634
      ],
      [
        "ĠSI",
        -10.273174158085254
      ],
      [
        "Ġprocedimento",
        -10.27335909079822
      ],
      [
        "NÃ£o",
        -10.27337725442725
      ],
      [
        "Ġpretende",
        -10.27343758098074
      ],
      [
        "Ġaplica",
        -10.274661847172382
      ],
      [
        "relaÃ§Ãµes",
        -10.27572924834613
      ],
      [
        "Ġrural",
        -10.276806625796276
      ],
      [
        "ĠLisboa",
        -10.276955090391574
      ],
      [
        "EUA",
        -10.276955690853187
      ],
      [
        "Ġregula",
        -10.277613583355494
      ],
      [
        "ĠDepu",
        -10.277676051151404
      ],
      [
        "Ġambiental",
        -10.277981108726468
      ],
      [
        "PSL",
        -10.278012478136848
      ],
      [
        "ĠfunÃ§Ãµes",
        -10.27807824544523
      ],
      [
        "ĠmanhÃ£",
        -10.278167129761052
      ],
      [
        "Ġexplorar",
        -10.27837731963696
      ],
      [
        "possam",
        -10.278384214209932
      ],
      [
        "Ġpalavras",
        -10.278406122950946
      ],
      [
        "Ġdisciplina",
        -10.278982471866954
      ],
      [
        "ĠJesus",
        -10.279229913615632
      ],
      [
        "ĠRequer",
        -10.279308596040195
      ],
      [
        "tivesse",
        -10.279429447184215
      ],
      [
        "tomada",
        -10.279867986702412
      ],
      [
        "ĠAlexandre",
        -10.279971665793251
      ],
      [
        "dido",
        -10.28005413153634
      ],
      [
        "Ġfesta",
        -10.280702816280195
      ],
      [
        "virtud",
        -10.2807644323198
      ],
      [
        "ĠVai",
        -10.28087887251477
      ],
      [
        "ĠRede",
        -10.281233118525751
      ],
      [
        "ĠSerra",
        -10.281258545954428
      ],
      [
        "No",
        -10.281784387852005
      ],
      [
        "Ġdispo",
        -10.281857892125226
      ],
      [
        "PrevidÃªncia",
        -10.281911279584444
      ],
      [
        "deficiÃªncia",
        -10.2819132447345
      ],
      [
        "Ġatender",
        -10.28216403803746
      ],
      [
        "Ġcur",
        -10.282655714156984
      ],
      [
        "ku",
        -10.282728864003612
      ],
      [
        "Ġmudar",
        -10.282822290650978
      ],
      [
        "¤",
        -10.282933693492202
      ],
      [
        "Ġamericano",
        -10.28293772218066
      ],
      [
        "FundaÃ§Ã£o",
        -10.283176748255409
      ],
      [
        "Ġtrabalha",
        -10.283195172239076
      ],
      [
        "Ġjornalista",
        -10.283745742869971
      ],
      [
        "mil",
        -10.283875327080157
      ],
      [
        "fronteira",
        -10.284918365490444
      ],
      [
        "Ï",
        -10.285493591677804
      ],
      [
        "Ġlido",
        -10.28599388404924
      ],
      [
        "Ã¢nia",
        -10.287368791132048
      ],
      [
        "Ġimagem",
        -10.287395079408387
      ],
      [
        "decreto",
        -10.288210273177604
      ],
      [
        "CearÃ¡",
        -10.288597208727282
      ],
      [
        "Ġ62",
        -10.289010474852704
      ],
      [
        "ÃŃndice",
        -10.289012068285112
      ],
      [
        "Ġfinanceiro",
        -10.28915778862944
      ],
      [
        "ĠArthur",
        -10.289742042257886
      ],
      [
        "IV",
        -10.29096006616877
      ],
      [
        "Ġunidade",
        -10.291402051449618
      ],
      [
        "Ġpedir",
        -10.291826558479237
      ],
      [
        "geraÃ§Ã£o",
        -10.29211450434646
      ],
      [
        "Ġconcurso",
        -10.292146428508486
      ],
      [
        "ĠrÃ¡pido",
        -10.29246457760761
      ],
      [
        "apresentou",
        -10.292559767343011
      ],
      [
        "imagens",
        -10.292746119508427
      ],
      [
        "nunciou",
        -10.292807890018532
      ],
      [
        "ĠMil",
        -10.292845959889748
      ],
      [
        "trecho",
        -10.293545574525622
      ],
      [
        "Ã¡reas",
        -10.293671087707375
      ],
      [
        "ĠWal",
        -10.2942283513579
      ],
      [
        "ĠSin",
        -10.29431548370125
      ],
      [
        "Ġzona",
        -10.294555608624522
      ],
      [
        "ĠpeÃ§a",
        -10.294872543810785
      ],
      [
        "conflito",
        -10.295154268680871
      ],
      [
        "Departamento",
        -10.296085210358816
      ],
      [
        "ĠMichel",
        -10.296450132280896
      ],
      [
        "curso",
        -10.29713448733716
      ],
      [
        "ĠDom",
        -10.297537563734394
      ],
      [
        "velmente",
        -10.297549615962415
      ],
      [
        "Ġcondena",
        -10.298900402575
      ],
      [
        "ĠCapi",
        -10.299186933839822
      ],
      [
        "ĠAcre",
        -10.29958941757278
      ],
      [
        "ÃŃstico",
        -10.300097162671875
      ],
      [
        "Ġbanco",
        -10.30015882610546
      ],
      [
        "Ġtorno",
        -10.300734144097644
      ],
      [
        "evoluÃ§Ã£o",
        -10.301236603208908
      ],
      [
        "Geraldo",
        -10.301337245262523
      ],
      [
        "ĠLegislativa",
        -10.302166536138394
      ],
      [
        "Ġrua",
        -10.302947377196558
      ],
      [
        "Ġexpressa",
        -10.303015304401288
      ],
      [
        "Ġataque",
        -10.303369259112973
      ],
      [
        "exigÃªncia",
        -10.303553485814817
      ],
      [
        "war",
        -10.303861498701984
      ],
      [
        "ĠdenÃºncia",
        -10.303923671570788
      ],
      [
        "Ġbio",
        -10.3059421473206
      ],
      [
        "Ġigreja",
        -10.306103136381854
      ],
      [
        "ĠMarcos",
        -10.306490959099357
      ],
      [
        "Ġatende",
        -10.306555116947488
      ],
      [
        "alteraÃ§Ã£o",
        -10.306792006441224
      ],
      [
        "Ġconceito",
        -10.307104175315583
      ],
      [
        "ĠopiniÃ£o",
        -10.307236444832672
      ],
      [
        "ĠDESPACH",
        -10.30774517853431
      ],
      [
        "Ġetc",
        -10.307881107008248
      ],
      [
        "Ġerro",
        -10.308926376339835
      ],
      [
        "ĠRodrigo",
        -10.309062202307942
      ],
      [
        "Ġpromover",
        -10.309645749317015
      ],
      [
        "quilo",
        -10.30975754851544
      ],
      [
        "relativo",
        -10.311031667463975
      ],
      [
        "ling",
        -10.311565966273912
      ],
      [
        "Ġseguro",
        -10.31223056125878
      ],
      [
        "Ġguarda",
        -10.31260200519459
      ],
      [
        "lizaÃ§Ã£o",
        -10.313585279521424
      ],
      [
        "Ġrenova",
        -10.31520537386292
      ],
      [
        "Ġusa",
        -10.315424925960148
      ],
      [
        "urgÃªncia",
        -10.31731846020768
      ],
      [
        "leitura",
        -10.317873332817724
      ],
      [
        "Ġentender",
        -10.318332089707155
      ],
      [
        "ĠCer",
        -10.31897556765271
      ],
      [
        "Ġconsegue",
        -10.319361421436213
      ],
      [
        "ĠorientaÃ§Ã£o",
        -10.31973706088888
      ],
      [
        "pÃµe",
        -10.319882468910714
      ],
      [
        "PÃ¡gina",
        -10.32027263668714
      ],
      [
        "ĠRei",
        -10.320461503740889
      ],
      [
        "havend",
        -10.320560515761905
      ],
      [
        "sidente",
        -10.32144615057154
      ],
      [
        "Ġilha",
        -10.321757892987602
      ],
      [
        "Ġfiz",
        -10.321852513434829
      ],
      [
        "privado",
        -10.321951364076934
      ],
      [
        "ĠVista",
        -10.322200082005669
      ],
      [
        "ocorreu",
        -10.322817401915948
      ],
      [
        "ĠParis",
        -10.323145616209844
      ],
      [
        "ĠEli",
        -10.323290582607571
      ],
      [
        "doenÃ§a",
        -10.323978869313502
      ],
      [
        "www",
        -10.324248037207491
      ],
      [
        "ResoluÃ§Ã£o",
        -10.32520828353604
      ],
      [
        "ĠjustiÃ§a",
        -10.325529496065275
      ],
      [
        "juros",
        -10.325620343231988
      ],
      [
        "benefÃŃcios",
        -10.32608883562288
      ],
      [
        "ADA",
        -10.326123759170688
      ],
      [
        "ĠsaÃŃd",
        -10.326307065085874
      ],
      [
        "Ġinstru",
        -10.326503312289455
      ],
      [
        "ĠOUTR",
        -10.326538500202238
      ],
      [
        "TER",
        -10.327311312664143
      ],
      [
        "Jogos",
        -10.32764679532339
      ],
      [
        "substitutivo",
        -10.327720376237528
      ],
      [
        "Ã´nica",
        -10.328033501280313
      ],
      [
        "mann",
        -10.328078510001106
      ],
      [
        "ĠQuanto",
        -10.32824877150273
      ],
      [
        "apensado",
        -10.328427243985494
      ],
      [
        "2020",
        -10.32972400971871
      ],
      [
        "Moreira",
        -10.331076597974173
      ],
      [
        "ĠSobre",
        -10.331302248361892
      ],
      [
        "Ġpermanece",
        -10.332149966602875
      ],
      [
        "Ġ1994",
        -10.333105680605229
      ],
      [
        "vontade",
        -10.333674923251388
      ],
      [
        "Ġrealiza",
        -10.333837673129716
      ],
      [
        "ĠAh",
        -10.333962744948565
      ],
      [
        "Ġcarga",
        -10.334378927865735
      ],
      [
        "assistÃªncia",
        -10.335670990898738
      ],
      [
        "tais",
        -10.335937660129582
      ],
      [
        "Ġcumpri",
        -10.336155322676102
      ],
      [
        "Ġconseguir",
        -10.336652306171716
      ],
      [
        "ENTE",
        -10.337414572110736
      ],
      [
        "parceria",
        -10.337949636535798
      ],
      [
        "ji",
        -10.33836427113978
      ],
      [
        "amanhÃ£",
        -10.33871268396934
      ],
      [
        "rÃ¡pida",
        -10.33935765465901
      ],
      [
        "referida",
        -10.33960082566904
      ],
      [
        "PrÃªmio",
        -10.33996729438637
      ],
      [
        "Ġremunera",
        -10.34014237899514
      ],
      [
        "¾",
        -10.340199811617628
      ],
      [
        "Ġplanta",
        -10.34056802998801
      ],
      [
        "aÃ§a",
        -10.342216857022178
      ],
      [
        "ĩ",
        -10.342424887393475
      ],
      [
        "fiscalizaÃ§Ã£o",
        -10.342609274184523
      ],
      [
        "instalaÃ§Ã£o",
        -10.342706372283985
      ],
      [
        "ĠcomeÃ§ar",
        -10.343056900500793
      ],
      [
        "advogado",
        -10.34363245160436
      ],
      [
        "Proposta",
        -10.343869935081017
      ],
      [
        "Ġitem",
        -10.34427604239105
      ],
      [
        "ĠCruz",
        -10.344493484673304
      ],
      [
        "preciaÃ§Ã£o",
        -10.34541338406794
      ],
      [
        "bus",
        -10.346297317178816
      ],
      [
        "ĠForÃ§a",
        -10.34718269049666
      ],
      [
        "Ġtrabalhador",
        -10.347479264291804
      ],
      [
        "Ġjuiz",
        -10.34752207566975
      ],
      [
        "Ġcontas",
        -10.34874427500627
      ],
      [
        "ĠAma",
        -10.34935412809312
      ],
      [
        "Ġquinta",
        -10.349406705795785
      ],
      [
        "Ġhumana",
        -10.350098830472051
      ],
      [
        "Ġouvir",
        -10.35062117150325
      ],
      [
        "NAL",
        -10.35087348411802
      ],
      [
        "existem",
        -10.35091432054016
      ],
      [
        "ĠNeste",
        -10.351393528310192
      ],
      [
        "Ġcuidado",
        -10.351810574758948
      ],
      [
        "humanos",
        -10.35196193154493
      ],
      [
        "Ġcarta",
        -10.352747061732142
      ],
      [
        "Ġcorpus",
        -10.353889973690004
      ],
      [
        "Ġpropor",
        -10.35569627428604
      ],
      [
        "FederaÃ§Ã£o",
        -10.355711319055072
      ],
      [
        "single",
        -10.356188685289007
      ],
      [
        "gravada",
        -10.356441799248849
      ],
      [
        "irÃ¡",
        -10.357172785560476
      ],
      [
        "Ġpreso",
        -10.35730597918831
      ],
      [
        "prÃªmio",
        -10.357617359775716
      ],
      [
        "Ġadequa",
        -10.357735641974324
      ],
      [
        "ĠAgrav",
        -10.358265011507516
      ],
      [
        "ĠAltera",
        -10.358503872848988
      ],
      [
        "Ġexigi",
        -10.358515002773208
      ],
      [
        "Ġcompanhia",
        -10.358516975456324
      ],
      [
        "avanÃ§o",
        -10.35933747858675
      ],
      [
        "precisamos",
        -10.359497497438138
      ],
      [
        "campeÃ£o",
        -10.359667070197276
      ],
      [
        "ĠSai",
        -10.360777981750765
      ],
      [
        "gli",
        -10.360979564573023
      ],
      [
        "Amazonas",
        -10.36135148893589
      ],
      [
        "expressÃ£o",
        -10.36139954021446
      ],
      [
        "Ġsom",
        -10.362073719124975
      ],
      [
        "etapa",
        -10.362905845581896
      ],
      [
        "rel",
        -10.362931345149605
      ],
      [
        "Ġsinal",
        -10.363188199537886
      ],
      [
        "atu",
        -10.363202641955857
      ],
      [
        "ĠParlamento",
        -10.363362968953634
      ],
      [
        "Ġespe",
        -10.363747947494751
      ],
      [
        "consumo",
        -10.363932320067194
      ],
      [
        "Ġregistrado",
        -10.364015247850618
      ],
      [
        "Ġdispor",
        -10.364282206837991
      ],
      [
        "estaÃ§Ã£o",
        -10.3645449152011
      ],
      [
        "ĠfaÃ§o",
        -10.364578496893492
      ],
      [
        "investimentos",
        -10.365553673626737
      ],
      [
        "ativo",
        -10.365777069150024
      ],
      [
        "ĠBor",
        -10.365880298298707
      ],
      [
        "Ġeventos",
        -10.3661723244044
      ],
      [
        "ĠfaÃ§a",
        -10.366311149148885
      ],
      [
        "Ġvoz",
        -10.366420990906471
      ],
      [
        "ĠAli",
        -10.366431611016864
      ],
      [
        "agentes",
        -10.366608957166576
      ],
      [
        "Ġreclama",
        -10.366678209416822
      ],
      [
        "Ġtenta",
        -10.367148571951516
      ],
      [
        "Ġgosto",
        -10.367342422393357
      ],
      [
        "Ġ1993",
        -10.367473519056489
      ],
      [
        "ĠlÃŃder",
        -10.367522531664298
      ],
      [
        "Ġoferta",
        -10.36771487365435
      ],
      [
        "retirada",
        -10.36794851689062
      ],
      [
        "Ġconhece",
        -10.36818277067474
      ],
      [
        "Barbosa",
        -10.368455899442749
      ],
      [
        "Ġrespectiva",
        -10.368993474798618
      ],
      [
        "ĠNeto",
        -10.369058765795554
      ],
      [
        "Ġtinham",
        -10.370212168596808
      ],
      [
        "Ġ90",
        -10.370278111516026
      ],
      [
        "obretudo",
        -10.37033657480236
      ],
      [
        "Ġjogador",
        -10.370559541895627
      ],
      [
        "ĠMeio",
        -10.371474823392692
      ],
      [
        "definiÃ§Ã£o",
        -10.371645602406936
      ],
      [
        "bin",
        -10.371874008559752
      ],
      [
        "contexto",
        -10.372265497404385
      ],
      [
        "Ġescolha",
        -10.37243451121459
      ],
      [
        "ĠusuÃ¡rio",
        -10.372885801208769
      ],
      [
        "ĠNada",
        -10.373080433357144
      ],
      [
        "equipamentos",
        -10.374169740315786
      ],
      [
        "Ġentende",
        -10.374384715483078
      ],
      [
        "empresÃ¡rio",
        -10.375001016981177
      ],
      [
        "ĠRegional",
        -10.375037813903347
      ],
      [
        "Ġvelho",
        -10.37513795020028
      ],
      [
        "Ġinternacionais",
        -10.37522023590278
      ],
      [
        "Ġvinte",
        -10.37603593917344
      ],
      [
        "Ġaberto",
        -10.376487488422766
      ],
      [
        "ĠJU",
        -10.376606365880043
      ],
      [
        "Ġclara",
        -10.377256544574236
      ],
      [
        "ĠVila",
        -10.377563771431868
      ],
      [
        "desempenho",
        -10.377692886790603
      ],
      [
        "ganhou",
        -10.377809210695444
      ],
      [
        "ĠPiau",
        -10.378135196138476
      ],
      [
        "½",
        -10.378165781767974
      ],
      [
        "elementos",
        -10.37835633165452
      ],
      [
        "ĠNA",
        -10.378455622270188
      ],
      [
        "gor",
        -10.37857671421168
      ],
      [
        "incidÃªncia",
        -10.379030710836094
      ],
      [
        "Ġesposa",
        -10.37997956917512
      ],
      [
        "Ġcomando",
        -10.38003434834819
      ],
      [
        "errado",
        -10.380746774112394
      ],
      [
        "Ġsexta",
        -10.38082906307126
      ],
      [
        "Ġeleitoral",
        -10.380889770818316
      ],
      [
        "esteja",
        -10.38162400352085
      ],
      [
        "grÃ¡fico",
        -10.382282846376672
      ],
      [
        "http",
        -10.38228640216574
      ],
      [
        "Ġcima",
        -10.382375201780611
      ],
      [
        "·",
        -10.383493993482762
      ],
      [
        "tentativa",
        -10.383639864822264
      ],
      [
        "ĠjurisprudÃªncia",
        -10.38449012444703
      ],
      [
        "ĠalÃŃnea",
        -10.38478191577033
      ],
      [
        "RelaÃ§Ãµes",
        -10.38542947821506
      ],
      [
        "ĠJan",
        -10.38544600475481
      ],
      [
        "Ġfogo",
        -10.386773995945749
      ],
      [
        "Ġinclui",
        -10.387579171996435
      ],
      [
        "Ġadmit",
        -10.38821063988363
      ],
      [
        "Ġampla",
        -10.3882453249374
      ],
      [
        "ĠMagalhÃ£es",
        -10.388985034138171
      ],
      [
        "Ġindica",
        -10.38924958914344
      ],
      [
        "reconhecimento",
        -10.38958344176031
      ],
      [
        "raÃ§a",
        -10.389682710762871
      ],
      [
        "ĠIsto",
        -10.390601001112715
      ],
      [
        "Ġaumenta",
        -10.39082721398265
      ],
      [
        "Ġdaqui",
        -10.391188935932998
      ],
      [
        "Ġpartida",
        -10.391347426639296
      ],
      [
        "ĠSegur",
        -10.391753055397093
      ],
      [
        "ĠTim",
        -10.392684504684633
      ],
      [
        "Ġrelator",
        -10.39285455528006
      ],
      [
        "americano",
        -10.393039159742235
      ],
      [
        "ĠEdi",
        -10.39312706267407
      ],
      [
        "PRIMEIR",
        -10.393256456513033
      ],
      [
        "queiro",
        -10.393629892865109
      ],
      [
        "ĠSam",
        -10.393650247364642
      ],
      [
        "Ġconstitui",
        -10.393967550154564
      ],
      [
        "convidado",
        -10.394336473164865
      ],
      [
        "Ġhabita",
        -10.396696414977509
      ],
      [
        "Ġprodutor",
        -10.39679068354285
      ],
      [
        "Ġresto",
        -10.396806360755338
      ],
      [
        "Ġsenti",
        -10.397435973704315
      ],
      [
        "ĠCarreira",
        -10.397539743972946
      ],
      [
        "francÃªs",
        -10.397929914420732
      ],
      [
        "ĠMARCO",
        -10.398097331034052
      ],
      [
        "apelo",
        -10.398102712176428
      ],
      [
        "ĠDeve",
        -10.398375444880571
      ],
      [
        "emendas",
        -10.398408118631451
      ],
      [
        "Ġaceita",
        -10.398430843286874
      ],
      [
        "ĠalcanÃ§",
        -10.398727262405757
      ],
      [
        "ĠClaro",
        -10.39909561682657
      ],
      [
        "Ġcorte",
        -10.39939547795068
      ],
      [
        "AgÃªncia",
        -10.399714842193973
      ],
      [
        "ĠlicenÃ§a",
        -10.400046251488504
      ],
      [
        "veÃŃculos",
        -10.401106231191624
      ],
      [
        "Ġcolo",
        -10.40123763376435
      ],
      [
        "Ġconsidera",
        -10.401241156901122
      ],
      [
        "ĠExterior",
        -10.401541120487131
      ],
      [
        "Ġpreocupa",
        -10.402704321903316
      ],
      [
        "Ġjoga",
        -10.40323191856823
      ],
      [
        "Ġquiser",
        -10.40324167392726
      ],
      [
        "decisÃµes",
        -10.403829208858191
      ],
      [
        "elli",
        -10.403858026821348
      ],
      [
        "ficado",
        -10.404267809486308
      ],
      [
        "Ġtele",
        -10.404767322590988
      ],
      [
        "Ġassinatura",
        -10.405755372918575
      ],
      [
        "administrativo",
        -10.406983902875618
      ],
      [
        "ĠCPI",
        -10.4073914352528
      ],
      [
        "ĠFolha",
        -10.407607642849014
      ],
      [
        "necessÃ¡ria",
        -10.407632475339742
      ],
      [
        "metade",
        -10.408151542677976
      ],
      [
        "provÃŃncia",
        -10.408177048760267
      ],
      [
        "Ġposse",
        -10.40845902061536
      ],
      [
        "Ġ200",
        -10.408936021813158
      ],
      [
        "Ġcursos",
        -10.408946262880908
      ],
      [
        "Ġjunta",
        -10.40906614480576
      ],
      [
        "ĠFerreira",
        -10.409187428442404
      ],
      [
        "ĠIN",
        -10.40937488318558
      ],
      [
        "ĠClube",
        -10.410394842040356
      ],
      [
        "Ġexterior",
        -10.41063186946502
      ],
      [
        "Enquanto",
        -10.410664549275555
      ],
      [
        "ĠConstitucional",
        -10.41114342552559
      ],
      [
        "endente",
        -10.41159524167972
      ],
      [
        "Ġnove",
        -10.411872708324893
      ],
      [
        "2002",
        -10.411881076153724
      ],
      [
        "Ġmedo",
        -10.41286123597946
      ],
      [
        "ĠrÃ¡dio",
        -10.413743811921108
      ],
      [
        ".............",
        -10.41404887521608
      ],
      [
        "ĠAP",
        -10.414128784342717
      ],
      [
        "Ġlivros",
        -10.414835773758368
      ],
      [
        "ĠelÃ©trica",
        -10.414957789813478
      ],
      [
        "ĠcompetiÃ§Ã£o",
        -10.415980074650902
      ],
      [
        "Ġcinema",
        -10.416639687306144
      ],
      [
        "Ġcultural",
        -10.417123529234273
      ],
      [
        "Mar",
        -10.417317212505758
      ],
      [
        "indicaÃ§Ã£o",
        -10.417832699206953
      ],
      [
        "ĠOrÃ§ament",
        -10.418554336947908
      ],
      [
        "licitaÃ§Ã£o",
        -10.419511324328868
      ],
      [
        "Ġeditor",
        -10.419522635411088
      ],
      [
        "Ġ1992",
        -10.419715987588772
      ],
      [
        "gula",
        -10.420399135911495
      ],
      [
        "presidente",
        -10.420418793360984
      ],
      [
        "Ġcontato",
        -10.421034063952332
      ],
      [
        "Ġterceira",
        -10.421102875094467
      ],
      [
        "finalidade",
        -10.422265719871298
      ],
      [
        "ESTADO",
        -10.423050591236994
      ],
      [
        "Ġrece",
        -10.423488884144213
      ],
      [
        "funcionamento",
        -10.423698827056995
      ],
      [
        "ĠGer",
        -10.424055878961074
      ],
      [
        "ĠMello",
        -10.424253675622774
      ],
      [
        "ficaÃ§Ã£o",
        -10.424428740108985
      ],
      [
        "Embora",
        -10.425044270864378
      ],
      [
        "exploraÃ§Ã£o",
        -10.426263906494114
      ],
      [
        "ĠEspanha",
        -10.42640032353383
      ],
      [
        "deira",
        -10.42642420508118
      ],
      [
        "Ġpersonagem",
        -10.427072343846444
      ],
      [
        "Ġinteiro",
        -10.427176602586991
      ],
      [
        "Ġpensa",
        -10.427466463248452
      ],
      [
        "fundamento",
        -10.42802793198862
      ],
      [
        "ĠespÃ©cies",
        -10.428257954685233
      ],
      [
        "Parlamentare",
        -10.428485085750255
      ],
      [
        "Ġjustifica",
        -10.428581167774478
      ],
      [
        "Outra",
        -10.428868218599618
      ],
      [
        "tributÃ¡ria",
        -10.430267684698489
      ],
      [
        "Ĵ",
        -10.430286082285452
      ],
      [
        "Ġanual",
        -10.431320679427497
      ],
      [
        "Ġprefeito",
        -10.431409903798135
      ],
      [
        "ĠdistÃ¢ncia",
        -10.431623707437582
      ],
      [
        "policiais",
        -10.431746544985806
      ],
      [
        "Ġlimita",
        -10.431953401686798
      ],
      [
        "Ġsabia",
        -10.432226352079985
      ],
      [
        "ella",
        -10.43351167063342
      ],
      [
        "comÃ©rcio",
        -10.434151111608958
      ],
      [
        "Ġpermanente",
        -10.4343801137875
      ],
      [
        "Ġproduzir",
        -10.43519158580216
      ],
      [
        "trinta",
        -10.435758586127555
      ],
      [
        "ĠcrÃŃtica",
        -10.43696941868146
      ],
      [
        "Ġindividual",
        -10.43729581711808
      ],
      [
        "Ġcai",
        -10.437508656603075
      ],
      [
        "ĠAC",
        -10.437549485086896
      ],
      [
        "Ġquebra",
        -10.439023093275605
      ],
      [
        "Ġadolescente",
        -10.44034997778588
      ],
      [
        "Ġdiminui",
        -10.440472941833304
      ],
      [
        "ĠYork",
        -10.4409823188744
      ],
      [
        "geralmente",
        -10.441036404329694
      ],
      [
        "logia",
        -10.441064966423516
      ],
      [
        "Ġpaz",
        -10.44116707878959
      ],
      [
        "ĠMartins",
        -10.441278182018143
      ],
      [
        "ĠMuseu",
        -10.443006404733188
      ],
      [
        "Ġdeterminado",
        -10.443845528494384
      ],
      [
        "lex",
        -10.446257806557115
      ],
      [
        "fizeram",
        -10.446262139725109
      ],
      [
        "Ġdepende",
        -10.44691742964242
      ],
      [
        "ĠSO",
        -10.446929726991977
      ],
      [
        "Couto",
        -10.447044393895938
      ],
      [
        "ĠfÃ¡cil",
        -10.447081473235448
      ],
      [
        "Bibliografia",
        -10.447702714373836
      ],
      [
        "Ġimplica",
        -10.447839078283415
      ],
      [
        "Ġaquilo",
        -10.448505598732034
      ],
      [
        "Ġconversa",
        -10.448867567562688
      ],
      [
        "ĠMelhor",
        -10.448982840057203
      ],
      [
        "ĠParte",
        -10.44906998293597
      ],
      [
        "domÃŃnio",
        -10.449447519062163
      ],
      [
        "Pernambuco",
        -10.45011377526253
      ],
      [
        "Ġpensar",
        -10.450303473156978
      ],
      [
        "constitucional",
        -10.45058228459658
      ],
      [
        "ordinÃ¡ria",
        -10.45063753285751
      ],
      [
        "ĠVida",
        -10.451327378705654
      ],
      [
        "postos",
        -10.451446291756843
      ],
      [
        "Ġreferente",
        -10.452314263040606
      ],
      [
        "usando",
        -10.453136060536282
      ],
      [
        "ĠprÃ©vi",
        -10.453144110678014
      ],
      [
        "Ġtriste",
        -10.453533312881133
      ],
      [
        "ĠParece",
        -10.453711421346751
      ],
      [
        "Ġ1913",
        -10.454300470961698
      ],
      [
        "estudantes",
        -10.454516112638611
      ],
      [
        "Ġenorme",
        -10.45461470272232
      ],
      [
        "ĠAgricultura",
        -10.4551360361494
      ],
      [
        "Ġlonga",
        -10.455285874799255
      ],
      [
        "professores",
        -10.455463722867316
      ],
      [
        "consumidor",
        -10.456230622519346
      ],
      [
        "terminou",
        -10.456631734055648
      ],
      [
        "ĠNÃĥO",
        -10.45680110762686
      ],
      [
        "Ġprejudica",
        -10.457662726478326
      ],
      [
        "anti",
        -10.457961123762734
      ],
      [
        "Ġmulti",
        -10.458302974645944
      ],
      [
        "bÃ¡sica",
        -10.458534415518674
      ],
      [
        "tradiÃ§Ã£o",
        -10.459799764473123
      ],
      [
        "Ġcompetente",
        -10.45989068083736
      ],
      [
        "Vieira",
        -10.460034125248905
      ],
      [
        "Ġfamiliar",
        -10.460222281209663
      ],
      [
        "morreu",
        -10.460300321216796
      ],
      [
        "petrÃ³leo",
        -10.461954970429302
      ],
      [
        "Ġobservado",
        -10.462142286168312
      ],
      [
        "nanimidade",
        -10.462519899350236
      ],
      [
        "trÃ¢nsito",
        -10.462808958593284
      ],
      [
        "MÃ£o",
        -10.46292680596546
      ],
      [
        "ĠMer",
        -10.463564181622129
      ],
      [
        "Ġjeito",
        -10.464109184814433
      ],
      [
        "aposentadoria",
        -10.464846835016369
      ],
      [
        "patrimÃ´nio",
        -10.46649647801978
      ],
      [
        "companheiro",
        -10.466614357681015
      ],
      [
        "Ġregistrar",
        -10.468409558524746
      ],
      [
        "Ġinferior",
        -10.470046480521257
      ],
      [
        "ĠMonte",
        -10.470446107782958
      ],
      [
        "Ġmensagem",
        -10.47047830635591
      ],
      [
        "Ġalternativa",
        -10.470482109377212
      ],
      [
        "Ġanteriores",
        -10.47074524514422
      ],
      [
        "Ĩ",
        -10.471243538630498
      ],
      [
        "ĠMc",
        -10.471621540653633
      ],
      [
        "escrita",
        -10.471704982350753
      ],
      [
        "ĠMachado",
        -10.472335858887254
      ],
      [
        "Ġacompanha",
        -10.472349952933362
      ],
      [
        "ĠAntes",
        -10.472397092620543
      ],
      [
        "ĠEdita",
        -10.472402451176675
      ],
      [
        "Ġofens",
        -10.47270741126018
      ],
      [
        "ĠNovo",
        -10.473040926239092
      ],
      [
        "ĠFer",
        -10.473255004873938
      ],
      [
        "Ġteor",
        -10.473599127615527
      ],
      [
        "Ġintegral",
        -10.474036662287768
      ],
      [
        "ĠAurÃ©li",
        -10.47462941897965
      ],
      [
        "cenÃ¡rio",
        -10.474787276520033
      ],
      [
        "Ġrespon",
        -10.475369078380064
      ],
      [
        "Ġvolume",
        -10.475515059219694
      ],
      [
        "transferÃªncia",
        -10.475548496935543
      ],
      [
        "Ã³n",
        -10.475696637233751
      ],
      [
        "ĠAto",
        -10.47575489386931
      ],
      [
        "ĠcoraÃ§Ã£o",
        -10.475771638612912
      ],
      [
        "arney",
        -10.476041488008724
      ],
      [
        "Ġhabe",
        -10.477143827474846
      ],
      [
        "ĠMI",
        -10.477440225001716
      ],
      [
        "Ġsenador",
        -10.4775287210457
      ],
      [
        "LT",
        -10.478116113044624
      ],
      [
        "Ãģfrica",
        -10.478601302237225
      ],
      [
        "âĢĵâĢĵâĢĵâĢĵâĢĵ",
        -10.478614170785033
      ],
      [
        "Ġaberta",
        -10.478904180653942
      ],
      [
        "horÃ¡rio",
        -10.478929698853808
      ],
      [
        "ĠCultural",
        -10.479499255385898
      ],
      [
        "Ġtermina",
        -10.48050345723405
      ],
      [
        "Ġveja",
        -10.481364921969307
      ],
      [
        "Ġdesenvolve",
        -10.481564141482558
      ],
      [
        "Ġvaria",
        -10.48224215671822
      ],
      [
        "definido",
        -10.4831867417297
      ],
      [
        "produtores",
        -10.483631853877696
      ],
      [
        "Ġolhos",
        -10.484248660526733
      ],
      [
        "Ġpossu",
        -10.484585085033316
      ],
      [
        "passando",
        -10.484694527424836
      ],
      [
        "Ġaltura",
        -10.485076887947445
      ],
      [
        "PLS",
        -10.48556655057306
      ],
      [
        "desafio",
        -10.485692483476202
      ],
      [
        "ÃŃveis",
        -10.485937558645338
      ],
      [
        "funcionÃ¡rios",
        -10.486003019848042
      ],
      [
        "Candido",
        -10.486018704910794
      ],
      [
        "ĠItÃ¡lia",
        -10.486106953000156
      ],
      [
        "ĠJapÃ£o",
        -10.486538900254246
      ],
      [
        "»",
        -10.486789807725891
      ],
      [
        "ĠPaim",
        -10.487091971720336
      ],
      [
        "Renan",
        -10.487241313137622
      ],
      [
        "onda",
        -10.48745600406488
      ],
      [
        "modifica",
        -10.488295189631852
      ],
      [
        "ĠEspÃŃrit",
        -10.488666328685053
      ],
      [
        "Ġtamanho",
        -10.489114365309868
      ],
      [
        "produzido",
        -10.489217259474968
      ],
      [
        "investigaÃ§Ã£o",
        -10.489699013843778
      ],
      [
        "ĠinfluÃªncia",
        -10.490718681649218
      ],
      [
        "ĠSar",
        -10.491699959401998
      ],
      [
        "Ġfar",
        -10.49198848833178
      ],
      [
        "Į",
        -10.492274244552
      ],
      [
        "aproximadamente",
        -10.492382548044365
      ],
      [
        "Ġpercebe",
        -10.492562421512067
[...]
