{
  "version": "1.0",
  "truncation": {
    "direction": "Right",
    "max_length": 2048,
    "strategy": "LongestFirst",
    "stride": 0
  },
  "padding": null,
  "added_tokens": [
    {
      "id": 0,
      "content": "[PAD]",
      "single_word": false,
      "lstrip": false,
      "rstrip": false,
      "normalized": false,
      "special": true
    },
    {
      "id": 1,
      "content": "[SEP]",
      "single_word": false,
      "lstrip": false,
      "rstrip": false,
      "normalized": false,
      "special": true
    },
    {
      "id": 2,
      "content": "[EOS]",
      "single_word": false,
      "lstrip": false,
      "rstrip": false,
      "normalized": false,
      "special": true
    }
  ],
  "normalizer": {
    "type": "Sequence",
    "normalizers": [
      {
        "type": "Strip",
        "strip_left": true,
        "strip_right": true
      },
      {
        "type": "NFKD"
      }
    ]
  },
  "pre_tokenizer": {
    "type": "ByteLevel",
    "add_prefix_space": true,
    "trim_offsets": true,
    "use_regex": true
  },
  "post_processor": {
    "type": "Sequence",
    "processors": [
      {
        "type": "ByteLevel",
        "add_prefix_space": true,
        "trim_offsets": true,
        "use_regex": true
      },
      {
        "type": "TemplateProcessing",
        "single": [
          {
            "Sequence": {
              "id": "A",
              "type_id": 0
            }
          },
          {
            "SpecialToken": {
              "id": "[EOS]",
              "type_id": 0
            }
          }
        ],
        "pair": [
          {
            "Sequence": {
              "id": "A",
              "type_id": 0
            }
          },
          {
            "SpecialToken": {
              "id": "[SEP]",
              "type_id": 0
            }
          },
          {
            "Sequence": {
              "id": "B",
              "type_id": 0
            }
          },
          {
            "SpecialToken": {
              "id": "[EOS]",
              "type_id": 0
            }
          }
        ],
        "special_tokens": {
          "[EOS]": {
            "id": "[EOS]",
            "ids": [
              2
            ],
            "tokens": [
              "[EOS]"
            ]
          },
          "[SEP]": {
            "id": "[SEP]",
            "ids": [
              1
            ],
            "tokens": [
              "[SEP]"
            ]
          }
        }
      }
    ]
  },
  "decoder": {
    "type": "ByteLevel",
    "add_prefix_space": true,
    "trim_offsets": true,
    "use_regex": true
  },
  "model": {
    "type": "BPE",
    "dropout": null,
    "unk_token": null,
    "continuing_subword_prefix": null,
    "end_of_word_suffix": null,
    "fuse_unk": false,
    "byte_fallback": false,
    "ignore_merges": false,
    "vocab": {
      "[PAD]": 0,
      "[SEP]": 1,
      "[EOS]": 2,
      "!": 3,
      "\"": 4,
      "#": 5,
      "$": 6,
      "%": 7,
      "&": 8,
      "'": 9,
      "(": 10,
      ")": 11,
      "*": 12,
      "+": 13,
      ",": 14,
      "-": 15,
      ".": 16,
      "/": 17,
      "0": 18,
      "1": 19,
      "2": 20,
      "3": 21,
      "4": 22,
      "5": 23,
      "6": 24,
      "7": 25,
      "8": 26,
      "9": 27,
      ":": 28,
      ";": 29,
      "<": 30,
      "=": 31,
      ">": 32,
      "?": 33,
      "@": 34,
      "A": 35,
      "B": 36,
      "C": 37,
      "D": 38,
      "E": 39,
      "F": 40,
      "G": 41,
      "H": 42,
      "I": 43,
      "J": 44,
      "K": 45,
      "L": 46,
      "M": 47,
      "N": 48,
      "O": 49,
      "P": 50,
      "Q": 51,
      "R": 52,
      "S": 53,
      "T": 54,
      "U": 55,
      "V": 56,
      "W": 57,
      "X": 58,
      "Y": 59,
      "Z": 60,
      "[": 61,
      "\\": 62,
      "]": 63,
      "^": 64,
      "_": 65,
      "`": 66,
      "a": 67,
      "b": 68,
      "c": 69,
      "d": 70,
      "e": 71,
      "f": 72,
      "g": 73,
      "h": 74,
      "i": 75,
      "j": 76,
      "k": 77,
      "l": 78,
      "m": 79,
      "n": 80,
      "o": 81,
      "p": 82,
      "q": 83,
      "r": 84,
      "s": 85,
      "t": 86,
      "u": 87,
      "v": 88,
      "w": 89,
      "x": 90,
      "y": 91,
      "z": 92,
      "{": 93,
      "|": 94,
      "}": 95,
      "~": 96,
      "¡": 97,
      "¢": 98,
      "£": 99,
      "¤": 100,
      "¥": 101,
      "¦": 102,
      "§": 103,
      "¨": 104,
      "©": 105,
      "ª": 106,
      "«": 107,
      "¬": 108,
      "®": 109,
      "¯": 110,
      "°": 111,
      "±": 112,
      "²": 113,
      "³": 114,
      "´": 115,
      "µ": 116,
      "¶": 117,
      "·": 118,
      "¸": 119,
      "¹": 120,
      "º": 121,
      "»": 122,
      "¼": 123,
      "½": 124,
      "¾": 125,
      "¿": 126,
      "À": 127,
      "Á": 128,
      "Â": 129,
      "Ã": 130,
      "Ä": 131,
      "Å": 132,
      "Æ": 133,
      "Ç": 134,
      "È": 135,
      "É": 136,
      "Ê": 137,
      "Ë": 138,
      "Ì": 139,
      "Í": 140,
      "Î": 141,
      "Ï": 142,
      "Ð": 143,
      "Ñ": 144,
      "Ò": 145,
      "Ó": 146,
      "Ô": 147,
      "Õ": 148,
      "Ö": 149,
      "×": 150,
      "Ø": 151,
      "Ù": 152,
      "Ú": 153,
      "Û": 154,
      "Ü": 155,
      "Ý": 156,
      "Þ": 157,
      "ß": 158,
      "à": 159,
      "á": 160,
      "â": 161,
      "ã": 162,
      "ä": 163,
      "å": 164,
      "æ": 165,
      "ç": 166,
      "è": 167,
      "é": 168,
      "ê": 169,
      "ë": 170,
      "ì": 171,
      "í": 172,
      "î": 173,
      "ï": 174,
      "ð": 175,
      "ñ": 176,
      "ò": 177,
      "ó": 178,
      "ô": 179,
      "õ": 180,
      "ö": 181,
      "÷": 182,
      "ø": 183,
      "ù": 184,
      "ú": 185,
      "û": 186,
      "ü": 187,
      "ý": 188,
      "þ": 189,
      "ÿ": 190,
      "Ā": 191,
      "ā": 192,
      "Ă": 193,
      "ă": 194,
      "Ą": 195,
      "ą": 196,
      "Ć": 197,
      "ć": 198,
      "Ĉ": 199,
      "ĉ": 200,
      "Ċ": 201,
      "ċ": 202,
      "Č": 203,
      "č": 204,
      "Ď": 205,
      "ď": 206,
      "Đ": 207,
      "đ": 208,
      "Ē": 209,
      "ē": 210,
      "Ĕ": 211,
      "ĕ": 212,
      "Ė": 213,
      "ė": 214,
      "Ę": 215,
      "ę": 216,
      "Ě": 217,
      "ě": 218,
      "Ĝ": 219,
      "ĝ": 220,
      "Ğ": 221,
      "ğ": 222,
      "Ġ": 223,
      "ġ": 224,
      "Ģ": 225,
      "ģ": 226,
      "Ĥ": 227,
      "ĥ": 228,
      "Ħ": 229,
      "ħ": 230,
      "Ĩ": 231,
      "ĩ": 232,
      "Ī": 233,
      "ī": 234,
      "Ĭ": 235,
      "ĭ": 236,
      "Į": 237,
      "į": 238,
      "İ": 239,
      "ı": 240,
      "Ĳ": 241,
      "ĳ": 242,
      "Ĵ": 243,
      "ĵ": 244,
      "Ķ": 245,
      "ķ": 246,
      "ĸ": 247,
      "Ĺ": 248,
      "ĺ": 249,
      "Ļ": 250,
      "ļ": 251,
      "Ľ": 252,
      "ľ": 253,
      "Ŀ": 254,
      "ŀ": 255,
      "Ł": 256,
      "ł": 257,
      "Ń": 258,
      "Ġd": 259,
      "Ġa": 260,
      "Ġe": 261,
      "Ìģ": 262,
      "ra": 263,
      "Ġde": 264,
      "Ġp": 265,
      "os": 266,
      "re": 267,
      "nt": 268,
      "Ìĥ": 269,
      "Ġc": 270,
      "..": 271,
      "ta": 272,
      "ri": 273,
      "Ġs": 274,
      "na": 275,
      "do": 276,
      "qu": 277,
      "Ġo": 278,
      "is": 279,
      "es": 280,
      "Ì§": 281,
      "er": 282,
      "da": 283,
      "ma": 284,
      "Ġco": 285,
      "me": 286,
      "ic": 287,
      "or": 288,
      "ia": 289,
      "ro": 290,
      "Ġqu": 291,
      "de": 292,
      "te": 293,
      "ĠP": 294,
      "to": 295,
      "in": 296,
      "la": 297,
      "Ġf": 298,
      "Ġdo": 299,
      "Ġn": 300,
      "Ġque": 301,
      "Ġda": 302,
      "ĠS": 303,
      "....": 304,
      "ĠC": 305,
      "ĠA": 306,
      "nc": 307,
      "ti": 308,
      "nte": 309,
      "ĠE": 310,
      "Ġpa": 311,
      "Ġse": 312,
      "le": 313,
      "Ġre": 314,
      "as": 315,
      "Ġu": 316,
      "ĠD": 317,
      "Ġcom": 318,
      "Ġv": 319,
      "io": 320,
      "Ġna": 321,
      "ÌĤ": 322,
      "ar": 323,
      "al": 324,
      "Ġes": 325,
      "ĠM": 326,
      "res": 327,
      "Ġem": 328,
      "Ġno": 329,
      "Ġm": 330,
      "âĢ": 331,
      "ns": 332,
      "Ġ1": 333,
      "lo": 334,
      "ac": 335,
      "ĠR": 336,
      "ida": 337,
      "nto": 338,
      "tu": 339,
      "ĠO": 340,
      "Ġma": 341,
      "Ġ2": 342,
      "Ġ(": 343,
      "ha": 344,
      "........": 345,
      "ve": 346,
      "Ġpara": 347,
      "so": 348,
      "Ġt": 349,
      "ĠN": 350,
      "ĠâĢ": 351,
      "sa": 352,
      "ndo": 353,
      "pe": 354,
      "li": 355,
      "ho": 356,
      "ĠL": 357,
      "Ġpro": 358,
      "ria": 359,
      "gu": 360,
      "Ġpe": 361,
      "va": 362,
      "Ġin": 363,
      "ĠF": 364,
      "ei": 365,
      "dos": 366,
      "se": 367,
      "Ġb": 368,
      "ica": 369,
      "Ġi": 370,
      "ĠB": 371,
      "ĠT": 372,
      "co": 373,
      "ce": 374,
      "no": 375,
      "Ġte": 376,
      "ga": 377,
      "ĠCo": 378,
      "il": 379,
      "ncia": 380,
      "Ġme": 381,
      "em": 382,
      "mento": 383,
      "po": 384,
      "ĠâĢĵ": 385,
      "us": 386,
      "ĠI": 387,
      "Ġum": 388,
      "nta": 389,
      "Ġpor": 390,
      "go": 391,
      "mo": 392,
      "Ġso": 393,
      "Ġpo": 394,
      "ca": 395,
      "ĠV": 396,
      "Ġas": 397,
      "ras": 398,
      "di": 399,
      "Ġsu": 400,
      "00": 401,
      "Ġuma": 402,
      "vo": 403,
      "ĠG": 404,
      "Ġ\"": 405,
      "Ġos": 406,
      "Ġex": 407,
      "Ġou": 408,
      "Ġca": 409,
      "Ġj": 410,
      "cu": 411,
      "Ġesta": 412,
      "idade": 413,
      "nal": 414,
      "ĠJ": 415,
      "mente": 416,
      "un": 417,
      "mp": 418,
      "mb": 419,
      "rio": 420,
      "ci": 421,
      "Ġfo": 422,
      "Ġdos": 423,
      "mos": 424,
      "en": 425,
      "Ġdes": 426,
      "Ġdi": 427,
      "ÌĢ": 428,
      "ĠDe": 429,
      "gra": 430,
      "ĠEs": 431,
      "pu": 432,
      "ui": 433,
      "Ġao": 434,
      "................": 435,
      "ide": 436,
      "ni": 437,
      "mi": 438,
      "tos": 439,
      "que": 440,
      "Ġfa": 441,
      "ĠRe": 442,
      "ge": 443,
      "ul": 444,
      "01": 445,
      "ĠSe": 446,
      "Ġta": 447,
      "he": 448,
      "ntes": 449,
      "du": 450,
      "tado": 451,
      "Ġcomo": 452,
      "ico": 453,
      "pa": 454,
      "fe": 455,
      "Ġvo": 456,
      "tra": 457,
      "ver": 458,
      "Ġtra": 459,
      "Ġcon": 460,
      "ĠPa": 461,
      "cio": 462,
      "Ġsa": 463,
      "za": 464,
      "cia": 465,
      "das": 466,
      "Ġ19": 467,
      "Ġar": 468,
      "ram": 469,
      "vi": 470,
      "ne": 471,
      "ros": 472,
      "ral": 473,
      "Ġpre": 474,
      "Ġdis": 475,
      "Ġcons": 476,
      "Ġ-": 477,
      "ĠDE": 478,
      "nde": 479,
      "Ġser": 480,
      "Ġto": 481,
      "Ġap": 482,
      "Ġfoi": 483,
      "ĠH": 484,
      "lu": 485,
      "ru": 486,
      "orma": 487,
      "si": 488,
      "Ġ3": 489,
      "dor": 490,
      "be": 491,
      "Ġdas": 492,
      "Ġmais": 493,
      "titu": 494,
      "Ġnos": 495,
      "ĠU": 496,
      "ĠNo": 497,
      "an": 498,
      "gi": 499,
      "ment": 500,
      "des": 501,
      "TO": 502,
      "Ġcont": 503,
      "tro": 504,
      "ira": 505,
      "Ġpela": 506,
      "je": 507,
      "bl": 508,
      "Ġal": 509,
      "Ġpar": 510,
      "ici": 511,
      "ĠCa": 512,
      "Ġle": 513,
      "ĠSa": 514,
      "ĠNa": 515,
      "ĠMa": 516,
      "bre": 517,
      "rac": 518,
      "reside": 519,
      "EN": 520,
      "ista": 521,
      "Ġmo": 522,
      "RA": 523,
      "esso": 524,
      "Ġ200": 525,
      "Ġpri": 526,
      "Ġac": 527,
      "qui": 528,
      "isa": 529,
      "ou": 530,
      "ĠDepu": 531,
      "Ġter": 532,
      "nos": 533,
      "Ġres": 534,
      "ES": 535,
      "pos": 536,
      "ĠPR": 537,
      "ir": 538,
      "Ġve": 539,
      "Ġpelo": 540,
      "Ġele": 541,
      "Ġsi": 542,
      "Ġtem": 543,
      "Ġsua": 544,
      "Ġper": 545,
      "Ġ201": 546,
      "nas": 547,
      "tor": 548,
      "...": 549,
      "Ġqua": 550,
      "Ġva": 551,
      "el": 552,
      "ja": 553,
      "residente": 554,
      "ita": 555,
      "Ġsobre": 556,
      "Ġfi": 557,
      "Ġau": 558,
      "Ġ4": 559,
      "ĠSr": 560,
      "ito": 561,
      "Ġent": 562,
      "Ġ5": 563,
      "ĠCom": 564,
      "dic": 565,
      "ba": 566,
      "ter": 567,
      "Ġli": 568,
      "iste": 569,
      "nda": 570,
      "rese": 571,
      "Ġho": 572,
      "Ġsegu": 573,
      "min": 574,
      "iro": 575,
      "Ġob": 576,
      "Ġha": 577,
      "tar": 578,
      "tiv": 579,
      "vel": 580,
      "tic": 581,
      "Ġpu": 582,
      "Ġpos": 583,
      "Ġpode": 584,
      "dia": 585,
      "âĢĿ": 586,
      "mbe": 587,
      "der": 588,
      "bu": 589,
      "Ġla": 590,
      "ĠPro": 591,
      "ĠâĢľ": 592,
      "ede": 593,
      "Ġh": 594,
      "tiva": 595,
      "Ġseu": 596,
      "................................": 597,
      "nti": 598,
      "fere": 599,
      "Ġg": 600,
      "tivo": 601,
      "Ġimp": 602,
      "lac": 603,
      "xa": 604,
      "tri": 605,
      "tas": 606,
      "ali": 607,
      "nter": 608,
      "ĠSena": 609,
      "nsa": 610,
      "ĠPresidente": 611,
      "ĠBras": 612,
      "tica": 613,
      "dade": 614,
      "bal": 615,
      "los": 616,
      "les": 617,
      "isso": 618,
      "Ġtambe": 619,
      "ber": 620,
      "ĠLei": 621,
      "Ġmas": 622,
      "ĠQ": 623,
      "),": 624,
      "Ġate": 625,
      "tac": 626,
      "inha": 627,
      "tura": 628,
      "issa": 629,
      "Ġen": 630,
      "tados": 631,
      "Ġeu": 632,
      "Ġgra": 633,
      "ĠEm": 634,
      "Ġmui": 635,
      "bo": 636,
      "Ġvi": 637,
      "eiro": 638,
      "Ġdia": 639,
      "Ġmes": 640,
      "201": 641,
      "ĠPe": 642,
      "gia": 643,
      "ero": 644,
      "RI": 645,
      "fic": 646,
      "ĠW": 647,
      "Ġ6": 648,
      "ĠSu": 649,
      "Ġfaz": 650,
      "ĠRE": 651,
      "rios": 652,
      "Ġra": 653,
      "ional": 654,
      "rar": 655,
      "ĠMin": 656,
      "ĠDeputado": 657,
      "zac": 658,
      "Ġlo": 659,
      "por": 660,
      ").": 661,
      "las": 662,
      "ĠFede": 663,
      "Ġart": 664,
      "Ġor": 665,
      "mentos": 666,
      "ncias": 667,
      "lia": 668,
      "TE": 669,
      "ĠPor": 670,
      "Ġcas": 671,
      "Ġne": 672,
      "\",": 673,
      "Ġentre": 674,
      "Ġins": 675,
      "ranc": 676,
      "lar": 677,
      "ĠAs": 678,
      "200": 679,
      "gos": 680,
      "mas": 681,
      "ĠRo": 682,
      "Ġcontra": 683,
      "ĠAr": 684,
      "ĠCons": 685,
      "nia": 686,
      "TA": 687,
      "Ġespe": 688,
      "Ġl": 689,
      "tes": 690,
      "ĠQu": 691,
      "gis": 692,
      "cre": 693,
      "ur": 694,
      "nha": 695,
      "ĠEu": 696,
      "ile": 697,
      "Ġti": 698,
      "Ġdire": 699,
      "ris": 700,
      "ĠPo": 701,
      "ĠGo": 702,
      "EI": 703,
      "gem": 704,
      "Ġforma": 705,
      "zo": 706,
      "essa": 707,
      "ĠFederal": 708,
      "ĠSR": 709,
      "dores": 710,
      "blica": 711,
      "fica": 712,
      "cional": 713,
      "pre": 714,
      "Ġja": 715,
      "forma": 716,
      "Ġisso": 717,
      "AR": 718,
      "Ġ7": 719,
      "Ġconc": 720,
      "esta": 721,
      "cial": 722,
      "Ġvoce": 723,
      "Ġanos": 724,
      "dio": 725,
      "DO": 726,
      "Ġdu": 727,
      "cor": 728,
      "DB": 729,
      "iso": 730,
      "tal": 731,
      "LA": 732,
      "Ġba": 733,
      "Ġinte": 734,
      "Ġnu": 735,
      "Ġout": 736,
      "ĠBrasil": 737,
      "Ġmu": 738,
      "Ġpas": 739,
      "Ġju": 740,
      "ie": 741,
      "Ġtrabal": 742,
      "Ġ8": 743,
      "Ġpra": 744,
      "Ġenc": 745,
      "idades": 746,
      "Ġcri": 747,
      "jeto": 748,
      "bi": 749,
      "ĠEstado": 750,
      "ĠSo": 751,
      "Ġcor": 752,
      "Ġqual": 753,
      "ĠPRO": 754,
      "ĠAl": 755,
      "Ġce": 756,
      "Ġfor": 757,
      "Ġprime": 758,
      "Ġaos": 759,
      "Ġver": 760,
      "via": 761,
      "Ġinc": 762,
      "__": 763,
      "fi": 764,
      "Ġ9": 765,
      "nd": 766,
      "Ġ:": 767,
      "IC": 768,
      "eira": 769,
      "isto": 770,
      "IS": 771,
      "Ġfu": 772,
      "mina": 773,
      "IN": 774,
      "pres": 775,
      "ĠLi": 776,
      "OS": 777,
      "sos": 778,
      "ER": 779,
      "duc": 780,
      "rias": 781,
      "Ġge": 782,
      "rie": 783,
      "ID": 784,
      "ribu": 785,
      "ino": 786,
      "Ġmuito": 787,
      "ĠMe": 788,
      "iona": 789,
      "cer": 790,
      "Ġpesso": 791,
      "Ġga": 792,
      "hor": 793,
      "Ġapro": 794,
      "ĠK": 795,
      "gar": 796,
      "Ġcar": 797,
      "Ġfe": 798,
      "rado": 799,
      "tituic": 800,
      "ĠCO": 801,
      "ĠCar": 802,
      "nu": 803,
      "nci": 804,
      "Ġnas": 805,
      "rem": 806,
      "inda": 807,
      "menta": 808,
      "pi": 809,
      "nho": 810,
      "Ġbo": 811,
      "cur": 812,
      "im": 813,
      "bri": 814,
      "ĠEx": 815,
      "ĠLe": 816,
      "tou": 817,
      "Ġ199": 818,
      "vol": 819,
      "IA": 820,
      "Ġdeve": 821,
      "ĠComissa": 822,
      "mpe": 823,
      "Ġinter": 824,
      "ĠVo": 825,
      "ĠÂ": 826,
      "ĠNac": 827,
      "\".": 828,
      "Ġad": 829,
      "Ġauto": 830,
      "verno": 831,
      "Ġbem": 832,
      "su": 833,
      "Ġ10": 834,
      "ĠMar": 835,
      "ĠMo": 836,
      "vic": 837,
      "gac": 838,
      "Ġaqui": 839,
      "esa": 840,
      "pac": 841,
      "19": 842,
      "tru": 843,
      "ng": 844,
      "ĠPara": 845,
      "ĠSenador": 846,
      "Ġsub": 847,
      "Ġalgu": 848,
      "Ġcomp": 849,
      "tin": 850,
      "ves": 851,
      "unici": 852,
      "Ġtu": 853,
      "Ġvez": 854,
      "Ġquando": 855,
      "ĠJo": 856,
      "ĠOs": 857,
      "ilho": 858,
      "Ġdese": 859,
      "ulo": 860,
      "ĠEsta": 861,
      "Ġsem": 862,
      "ju": 863,
      "cisa": 864,
      "Ġdiz": 865,
      "Ġapo": 866,
      "bil": 867,
      "lha": 868,
      "Ġlu": 869,
      "ĠNacional": 870,
      "ses": 871,
      "Ġcu": 872,
      "ĠÂ§": 873,
      "Ġ18": 874,
      "Ġbras": 875,
      "icac": 876,
      "idas": 877,
      "dem": 878,
      "fo": 879,
      "ix": 880,
      "resenta": 881,
      "Ġtrans": 882,
      "bro": 883,
      "ntos": 884,
      "ĠTo": 885,
      "Ġpoli": 886,
      "Ġseus": 887,
      "Ġtodos": 888,
      "Ġbrasile": 889,
      "MEN": 890,
      "gado": 891,
      "hos": 892,
      "quer": 893,
      "Ġdef": 894,
      "Ġpres": 895,
      "mbro": 896,
      "Ġmesmo": 897,
      "cie": 898,
      "Ìģ,": 899,
      "ase": 900,
      "Ġseja": 901,
      "Ġainda": 902,
      "Ġtempo": 903,
      "ĠPS": 904,
      "ĠTe": 905,
      "Ġape": 906,
      "for": 907,
      "ĠFo": 908,
      "ciona": 909,
      "rada": 910,
      "ETO": 911,
      "Ìģ-": 912,
      "rito": 913,
      "Ġcer": 914,
      "Ġarti": 915,
      "ĠBa": 916,
      "Ġpai": 917,
      "Ġparti": 918,
      "ĠII": 919,
      "sim": 920,
      "ĠCas": 921,
      "âĢĿ.": 922,
      "rior": 923,
      "Ġgo": 924,
      "rica": 925,
      "Ġ11": 926,
      "orte": 927,
      "sas": 928,
      "Ġera": 929,
      "ula": 930,
      "ntro": 931,
      "Ġrela": 932,
      "Ġro": 933,
      "ene": 934,
      "icos": 935,
      "Ġ0": 936,
      "Ġaco": 937,
      "aliza": 938,
      "ENTE": 939,
      "Ġjo": 940,
      "ĠVa": 941,
      "orta": 942,
      "AL": 943,
      "ine": 944,
      "Ġmar": 945,
      "vimento": 946,
      "TI": 947,
      "ose": 948,
      "AN": 949,
      "Ġrece": 950,
      "ĠPre": 951,
      "unda": 952,
      "Ġforam": 953,
      "Ġesse": 954,
      "ĠEle": 955,
      "nce": 956,
      "Ġ20": 957,
      "Ġprinci": 958,
      "ĠPL": 959,
      "Ġeste": 960,
      "ĠPaulo": 961,
      "Ġano": 962,
      "eito": 963,
      "ĠPar": 964,
      "tre": 965,
      "nico": 966,
      "vac": 967,
      "Ġfazer": 968,
      "Ġrep": 969,
      "cimento": 970,
      "indo": 971,
      "ĠBo": 972,
      "Ġsera": 973,
      "ĠTra": 974,
      "EC": 975,
      "gue": 976,
      "bilidade": 977,
      "Ġrecur": 978,
      "cesso": 979,
      "ĠMinis": 980,
      "ESID": 981,
      "Ġcha": 982,
      "Ġela": 983,
      "usa": 984,
      "Ġcome": 985,
      "nio": 986,
      "Ġservic": 987,
      "OR": 988,
      "ĠDi": 989,
      "ch": 990,
      "ial": 991,
      "xi": 992,
      "mar": 993,
      "Ġprodu": 994,
      "Ġdesta": 995,
      "ĠFa": 996,
      "fa": 997,
      "ĠDo": 998,
      "este": 999,
      "visa": 1000,
      "RO": 1001,
      "Ġtor": 1002,
      "ior": 1003,
      "Ġessa": 1004,
      "ĠDeputados": 1005,
      "ĠPRESID": 1006,
      "20": 1007,
      "Ġmi": 1008,
      "mara": 1009,
      "tico": 1010,
      "ĠRa": 1011,
      "dica": 1012,
      "Ġpassa": 1013,
      "ĠMas": 1014,
      "ĠLo": 1015,
      "DE": 1016,
      "cal": 1017,
      "JETO": 1018,
      "Ġsegui": 1019,
      "SO": 1020,
      "SA": 1021,
      "pal": 1022,
      "rante": 1023,
      "ĠPROJETO": 1024,
      "IO": 1025,
      "Ġparte": 1026,
      "DA": 1027,
      "MA": 1028,
      "ias": 1029,
      "ze": 1030,
      "Ġ15": 1031,
      "inu": 1032,
      "Ġche": 1033,
      "Ġporque": 1034,
      "icas": 1035,
      "mes": 1036,
      "erra": 1037,
      "Ġconhe": 1038,
      "ecu": 1039,
      "Ġempres": 1040,
      "rea": 1041,
      "ĠLEI": 1042,
      "Ġvai": 1043,
      "ĠIn": 1044,
      "ina": 1045,
      "Ġimporta": 1046,
      "ĠDa": 1047,
      "ĠPRESIDENTE": 1048,
      "Ġjul": 1049,
      "val": 1050,
      "Ġcidade": 1051,
      "qua": 1052,
      "Ġ12": 1053,
      "nca": 1054,
      "ĠUni": 1055,
      "LATO": 1056,
      "cono": 1057,
      "plo": 1058,
      "ĠDes": 1059,
      "Ġmeu": 1060,
      "Ġtre": 1061,
      "gora": 1062,
      "nica": 1063,
      "Ġ.": 1064,
      "tivos": 1065,
      "Ġlei": 1066,
      "corre": 1067,
      "MDB": 1068,
      "veis": 1069,
      "istas": 1070,
      "uma": 1071,
      "liza": 1072,
      "Ġonde": 1073,
      "Ġprof": 1074,
      "um": 1075,
      "Ġatu": 1076,
      "lus": 1077,
      "Ġmate": 1078,
      "ces": 1079,
      "pio": 1080,
      "ĠJa": 1081,
      "ais": 1082,
      "Ġmaio": 1083,
      "Ġmel": 1084,
      "Ġdez": 1085,
      "Ġfil": 1086,
      "ing": 1087,
      "Ġsuas": 1088,
      "posic": 1089,
      "ĠSen": 1090,
      "ĠVoce": 1091,
      "Ġval": 1092,
      "ĠConstituic": 1093,
      "Ġpessoas": 1094,
      ".)": 1095,
      "ĠPT": 1096,
      "ndi": 1097,
      "ĠSenado": 1098,
      "Ġprese": 1099,
      "Ġoutros": 1100,
      "tada": 1101,
      "ĠLa": 1102,
      "ĠArt": 1103,
      "ĠGe": 1104,
      "har": 1105,
      "ĠGoverno": 1106,
      "Ġinforma": 1107,
      "Ġcria": 1108,
      "pois": 1109,
      "gal": 1110,
      "ĠRELATO": 1111,
      "Ġpla": 1112,
      "Ġale": 1113,
      "ĠPu": 1114,
      "gua": 1115,
      "Ġgrande": 1116,
      "Ġenco": 1117,
      "has": 1118,
      "vide": 1119,
      "ĠAle": 1120,
      "Ġoutras": 1121,
      "ĠX": 1122,
      "ixa": 1123,
      "ĠDO": 1124,
      "Ġapenas": 1125,
      "Ġnome": 1126,
      "tici": 1127,
      "blico": 1128,
      "cla": 1129,
      "Ġpopu": 1130,
      "Ġpala": 1131,
      "âĢĵ": 1132,
      "Ġdois": 1133,
      "ice": 1134,
      "Ġartigo": 1135,
      "Ġsendo": 1136,
      "Ġesco": 1137,
      "ĠRela": 1138,
      "rece": 1139,
      "Ġtrabalho": 1140,
      "ĠZ": 1141,
      "istra": 1142,
      "Ġ16": 1143,
      "zar": 1144,
      "ĠTribu": 1145,
      "Ġenta": 1146,
      "ĠJu": 1147,
      "ĠRefere": 1148,
      "ĠRio": 1149,
      "ĠHa": 1150,
      "ĠTa": 1151,
      "fia": 1152,
      "Ġordem": 1153,
      "Ġir": 1154,
      "Ġ17": 1155,
      "Ġ13": 1156,
      "posta": 1157,
      "AC": 1158,
      "jo": 1159,
      "dro": 1160,
      "on": 1161,
      "ntar": 1162,
      "Ġprimeiro": 1163,
      "ĠCe": 1164,
      "Ġaf": 1165,
      "cus": 1166,
      "Ġcomun": 1167,
      "lica": 1168,
      "grama": 1169,
      "ado": 1170,
      "Ġpalav": 1171,
      "Ġacor": 1172,
      "Ġ14": 1173,
      "istema": 1174,
      "feri": 1175,
      "Ġcaso": 1176,
      "ĠIs": 1177,
      "bele": 1178,
      "rei": 1179,
      "Ġfunc": 1180,
      "logia": 1181,
      "lti": 1182,
      "gisla": 1183,
      "ticas": 1184,
      "Ġdesen": 1185,
      "cri": 1186,
      "Ġobri": 1187,
      "Ġhoje": 1188,
      "Ġtermos": 1189,
      "ĠMinistro": 1190,
      "rador": 1191,
      "ĠDA": 1192,
      "Ġequi": 1193,
      "Ġci": 1194,
      "ĠCasa": 1195,
      "ig": 1196,
      "dida": 1197,
      "son": 1198,
      "vida": 1199,
      "ministra": 1200,
      "tamente": 1201,
      "rais": 1202,
      "ciac": 1203,
      "Ġconstitu": 1204,
      "Ġvol": 1205,
      "ĠLu": 1206,
      "Ġmaior": 1207,
      "aneiro": 1208,
      "Ġab": 1209,
      "Ġconse": 1210,
      "ĠJose": 1211,
      "____": 1212,
      "esse": 1213,
      "Ġrespe": 1214,
      "Ġminha": 1215,
      "mentar": 1216,
      "ĠPai": 1217,
      "UR": 1218,
      "Ġassim": 1219,
      "ĠJus": 1220,
      "ĠMunici": 1221,
      "nar": 1222,
      "Ġpartici": 1223,
      "11": 1224,
      "Ġ................................": 1225,
      "cos": 1226,
      "ĠComo": 1227,
      "ĠRELATOR": 1228,
      "ĠGra": 1229,
      "ntu": 1230,
      "Ġhisto": 1231,
      "pita": 1232,
      "ĠInter": 1233,
      "ducac": 1234,
      "Ġatra": 1235,
      "Ġmil": 1236,
      "reira": 1237,
      "ĠHo": 1238,
      "Ġestu": 1239,
      "vas": 1240,
      "Ġconta": 1241,
      "ĠMi": 1242,
      "mpre": 1243,
      "Ġfunda": 1244,
      "Ġprojeto": 1245,
      "Ġconside": 1246,
      "loco": 1247,
      "ficac": 1248,
      "rimento": 1249,
      "tera": 1250,
      "per": 1251,
      "nado": 1252,
      "Ġestava": 1253,
      "cido": 1254,
      "almente": 1255,
      "ble": 1256,
      "Ġdesenvol": 1257,
      "Ġmul": 1258,
      "lusi": 1259,
      "ĠSem": 1260,
      "Ġori": 1261,
      "ĠNe": 1262,
      "Ġinic": 1263,
      "ĠOr": 1264,
      "tivas": 1265,
      "Ġreco": 1266,
      "Ġautori": 1267,
      "EL": 1268,
      "Ġide": 1269,
      "taria": 1270,
      "ĠDis": 1271,
      "Ġfina": 1272,
      "hi": 1273,
      "vido": 1274,
      "ĠProjeto": 1275,
      "Ġvida": 1276,
      "Ġqualquer": 1277,
      "dido": 1278,
      "ĠRepu": 1279,
      "ĠTribunal": 1280,
      "NC": 1281,
      "Ġrespo": 1282,
      "Ġdireito": 1283,
      "ĠSegu": 1284,
      "ardo": 1285,
      "Ġ198": 1286,
      "ĠâĢ¢": 1287,
      "tros": 1288,
      "lis": 1289,
      "Ġecono": 1290,
      "vers": 1291,
      "eita": 1292,
      "Ġcada": 1293,
      "recer": 1294,
      "car": 1295,
      "Ġfinal": 1296,
      "Ġdisse": 1297,
      "resso": 1298,
      "embro": 1299,
      "ĠCon": 1300,
      "ĠBe": 1301,
      "Ġpossi": 1302,
      "Ġestabele": 1303,
      "Ġencont": 1304,
      "10": 1305,
      "cussa": 1306,
      "Ġperi": 1307,
      "tt": 1308,
      "RE": 1309,
      "lui": 1310,
      "ĠGu": 1311,
      "Ġdepois": 1312,
      "Ìģ.": 1313,
      "men": 1314,
      "cas": 1315,
      "mpan": 1316,
      "ĠMiniste": 1317,
      "Ġinformac": 1318,
      "dito": 1319,
      "Ġcompe": 1320,
      "Ġagra": 1321,
      "Ġpalavra": 1322,
      "vos": 1323,
      "ĠJoa": 1324,
      "ĠCarlos": 1325,
      "Ġmeio": 1326,
      "cessa": 1327,
      "Ġdeste": 1328,
      "Ġtodo": 1329,
      "gio": 1330,
      "vesti": 1331,
      "ki": 1332,
      "AS": 1333,
      "ĠTem": 1334,
      "Ġsubs": 1335,
      "ĠAu": 1336,
      "cado": 1337,
      "xo": 1338,
      "ĠGa": 1339,
      "menda": 1340,
      "Ġfac": 1341,
      "Ġprec": 1342,
      "mia": 1343,
      "Ġapresenta": 1344,
      "MENTO": 1345,
      "gas": 1346,
      "eiros": 1347,
      "dina": 1348,
      "vado": 1349,
      "Ġpes": 1350,
      "PS": 1351,
      "tante": 1352,
      "cul": 1353,
      "Ġagora": 1354,
      "Ġinf": 1355,
      "Ġpou": 1356,
      "Ġprimeira": 1357,
      "Ġacordo": 1358,
      "ĠEstados": 1359,
      "iros": 1360,
      "cra": 1361,
      "rou": 1362,
      "Ġhome": 1363,
      "Ġprocesso": 1364,
      "alizac": 1365,
      "Ġsol": 1366,
      "ceu": 1367,
      "ĠCh": 1368,
      "pro": 1369,
      "lio": 1370,
      "mais": 1371,
      "Ġcolo": 1372,
      "SP": 1373,
      "th": 1374,
      "par": 1375,
      "Ġnosso": 1376,
      "ntac": 1377,
      "Ġcomec": 1378,
      "Ġregis": 1379,
      "berto": 1380,
      "Ġregi": 1381,
      "Ġrelac": 1382,
      "ando": 1383,
      "Ġof": 1384,
      "itos": 1385,
      "Ġfal": 1386,
      "Ġpelos": 1387,
      "Ġrealiza": 1388,
      "ismo": 1389,
      "Ġdurante": 1390,
      "ĠVer": 1391,
      "ĠSi": 1392,
      "Ġmundo": 1393,
      "Ġprincipal": 1394,
      "Ġ24": 1395,
      "tido": 1396,
      "Ġempre": 1397,
      "osa": 1398,
      "Ġdizer": 1399,
      "Ġeles": 1400,
      "Ġprazo": 1401,
      "Ġesti": 1402,
      "Ġtrata": 1403,
      "Ġtinha": 1404,
      "ĠFranc": 1405,
      "var": 1406,
      "Ġali": 1407,
      "iss": 1408,
      "Ġuti": 1409,
      "ĠJustic": 1410,
      "ĠPMDB": 1411,
      "mental": 1412,
      "Ġrecursos": 1413,
      "Ġsistema": 1414,
      "sar": 1415,
      "Ġsob": 1416,
      "gula": 1417,
      "Ġapre": 1418,
      "IL": 1419,
      "Ġmunici": 1420,
      "Ġsau": 1421,
      "Ġsete": 1422,
      "culo": 1423,
      "lena": 1424,
      "Ġante": 1425,
      "ĠSim": 1426,
      "12": 1427,
      "ona": 1428,
      "Ġsido": 1429,
      "II": 1430,
      "uiz": 1431,
      "Ġdias": 1432,
      "Ġlanc": 1433,
      "nse": 1434,
      "Ġfica": 1435,
      "ĠPri": 1436,
      "Ġag": 1437,
      "Ġquem": 1438,
      "rente": 1439,
      "mero": 1440,
      "sica": 1441,
      "rando": 1442,
      "Ġinvesti": 1443,
      "Ġabri": 1444,
      "ĠOu": 1445,
      "amento": 1446,
      "Ġdezembro": 1447,
      "Ġgu": 1448,
      "Ġexter": 1449,
      "nso": 1450,
      "ĠFer": 1451,
      "ĠSenhor": 1452,
      "tina": 1453,
      "ser": 1454,
      "tores": 1455,
      "Ġdemo": 1456,
      "ĠAG": 1457,
      "gens": 1458,
      "vil": 1459,
      "Ġaca": 1460,
      "Ġproble": 1461,
      "Ġdecisa": 1462,
      "Ġantes": 1463,
      "cha": 1464,
      "UT": 1465,
      "ĠCOM": 1466,
      "Ġsegundo": 1467,
      "ĠPA": 1468,
      "Ġ22": 1469,
      "gani": 1470,
      "bita": 1471,
      "Ġexecu": 1472,
      "09": 1473,
      "Ġnova": 1474,
      "ĠCON": 1475,
      "PT": 1476,
      "Ġempresa": 1477,
      "ton": 1478,
      "Ġtudo": 1479,
      "Ġcul": 1480,
      "Ġcondic": 1481,
      "Ġmor": 1482,
      "Ġgru": 1483,
      "gada": 1484,
      "heiro": 1485,
      "Ġconte": 1486,
      "Ġpartir": 1487,
      "Ġsitu": 1488,
      "Ġchama": 1489,
      "Ġpopulac": 1490,
      "ĠRelator": 1491,
      "Ġente": 1492,
      "Ġexiste": 1493,
      "inho": 1494,
      "ente": 1495,
      "Ġaque": 1496,
      "Ġsenti": 1497,
      "Ġrefere": 1498,
      "Ġamb": 1499,
      "13": 1500,
      "Ġ30": 1501,
      "Ġmelhor": 1502,
      "Ġfami": 1503,
      "tir": 1504,
      "Ġrevisa": 1505,
      "merica": 1506,
      "rui": 1507,
      "pes": 1508,
      "15": 1509,
      "Ġbe": 1510,
      "ÌĪ": 1511,
      "Ġativ": 1512,
      "Ġoutro": 1513,
      "vam": 1514,
      "dri": 1515,
      "Ġprecisa": 1516,
      "Ġdesde": 1517,
      "Ġbase": 1518,
      "gamento": 1519,
      "Ġliv": 1520,
      "Ġmos": 1521,
      "tanto": 1522,
      "dis": 1523,
      "bP": 1524,
      "Ġespecial": 1525,
      "luc": 1526,
      "Ġdifere": 1527,
      ".(": 1528,
      "Ġindi": 1529,
      "duz": 1530,
      "Ġ197": 1531,
      "ini": 1532,
      "dar": 1533,
      "Ġrepresenta": 1534,
      "ĠFi": 1535,
      "Ġcla": 1536,
      "posto": 1537,
      "VO": 1538,
      "Ġ25": 1539,
      "mula": 1540,
      "her": 1541,
      "Ġseguinte": 1542,
      "US": 1543,
      "ĠBar": 1544,
      "Ġdiver": 1545,
      "ins": 1546,
      "ĠCong": 1547,
      "ite": 1548,
      "pios": 1549,
      "nco": 1550,
      "ĠFu": 1551,
      "Ġjus": 1552,
      "ĠComun": 1553,
      "ĠIsso": 1554,
      "Ġnorma": 1555,
      "Ġinteres": 1556,
      "Ġmilho": 1557,
      "ck": 1558,
      "Ġapa": 1559,
      "ĠIN": 1560,
      "ĠUnia": 1561,
      "Ġ23": 1562,
      "Ġato": 1563,
      "gou": 1564,
      "Ġcre": 1565,
      "Ġvotac": 1566,
      "gre": 1567,
      "Ġri": 1568,
      "UN": 1569,
      "Ġcomple": 1570,
      "tando": 1571,
      "creto": 1572,
      "lic": 1573,
      "iu": 1574,
      "Ġsempre": 1575,
      "Ġnove": 1576,
      "fre": 1577,
      "odo": 1578,
      "Ġexer": 1579,
      "Ġnovo": 1580,
      "Ġresponsa": 1581,
      "nder": 1582,
      "nidade": 1583,
      "Ġ:(": 1584,
      "ada": 1585,
      "Ġtrabalha": 1586,
      "mpo": 1587,
      "ĠY": 1588,
      "nhe": 1589,
      "Ġado": 1590,
      "ĠâĢĶ": 1591,
      "ĠVe": 1592,
      "ĠMA": 1593,
      "Ġaconte": 1594,
      "Ġduas": 1595,
      "Ġexem": 1596,
      "ĠDu": 1597,
      "vada": 1598,
      "ĠPer": 1599,
      "mou": 1600,
      "Ġadministra": 1601,
      "unho": 1602,
      "perac": 1603,
      "elho": 1604,
      "nstitu": 1605,
      "xto": 1606,
      "Ġmenos": 1607,
      "Ġ2009": 1608,
      "Ġsus": 1609,
      "ĠEnta": 1610,
      "Ġconf": 1611,
      "Ġvalor": 1612,
      "Ġcompa": 1613,
      "Ġobje": 1614,
      "ĠFoi": 1615,
      "dades": 1616,
      "nge": 1617,
      "gor": 1618,
      "Ġexa": 1619,
      "pera": 1620,
      "Ġdispo": 1621,
      "ĠUm": 1622,
      "Ġseria": 1623,
      "cada": 1624,
      "Ġven": 1625,
      "man": 1626,
      "ĠCongresso": 1627,
      "Ġconfor": 1628,
      "viso": 1629,
      "vio": 1630,
      "Ġru": 1631,
      "Ġusa": 1632,
      "ĠQue": 1633,
      "Ġgoverno": 1634,
      "lizac": 1635,
      "TU": 1636,
      "Ġbrasileiro": 1637,
      "Ġorador": 1638,
      "Ġassu": 1639,
      "Ġverdade": 1640,
      "Ġmomento": 1641,
      "cno": 1642,
      "grafia": 1643,
      "Ġaprovac": 1644,
      "cionais": 1645,
      "ĠExa": 1646,
      "Ġjuri": 1647,
      "Ġextra": 1648,
      "Ġimpe": 1649,
      "Ġcontinu": 1650,
      "Ġfim": 1651,
      "pende": 1652,
      "Ġ2007": 1653,
      "ĠAma": 1654,
      "ĠSul": 1655,
      "Ġresul": 1656,
      "âĢĿ,": 1657,
      "ĠVi": 1658,
      "ndes": 1659,
      "ON": 1660,
      "Ġdeix": 1661,
      "gina": 1662,
      "TRA": 1663,
      "irma": 1664,
      "Ġtodas": 1665,
      "ĠSES": 1666,
      "EG": 1667,
      "ĠPSDB": 1668,
      "2009": 1669,
      "ĠOli": 1670,
      "Ġtenha": 1671,
      "Ġ28": 1672,
      "Ġ@": 1673,
      "Ġnecessa": 1674,
      "Ġvia": 1675,
      "Ġpresente": 1676,
      "Ġnossa": 1677,
      "ĠCor": 1678,
      "lho": 1679,
      "Ġk": 1680,
      "ĠPela": 1681,
      "Ġnesta": 1682,
      "Ġquanto": 1683,
      "Ġ196": 1684,
      "Ġaju": 1685,
      "RIO": 1686,
      "fei": 1687,
      "Ġestra": 1688,
      "Ġ21": 1689,
      "ĠAd": 1690,
      "mica": 1691,
      "idada": 1692,
      "nuncia": 1693,
      "ntas": 1694,
      "Ġhabita": 1695,
      "Ġcole": 1696,
      "Ġaprese": 1697,
      "ĠSanta": 1698,
      "ĠPreside": 1699,
      "creta": 1700,
      "Ġpermi": 1701,
      "ntou": 1702,
      "quanto": 1703,
      "QU": 1704,
      "rial": 1705,
      "Ġdeter": 1706,
      "Ġtribu": 1707,
      "Ġintegra": 1708,
      "Ġvezes": 1709,
      "03": 1710,
      "Ġ27": 1711,
      "ĠSer": 1712,
      "ciais": 1713,
      "Ġini": 1714,
      "Ġcur": 1715,
      "rido": 1716,
      "ĠAnto": 1717,
      "remos": 1718,
      "enh": 1719,
      "tia": 1720,
      "Ġquero": 1721,
      "Ġregia": 1722,
      "cide": 1723,
      "Ġimportante": 1724,
      "sou": 1725,
      "duardo": 1726,
      "Ġcasa": 1727,
      "ĠMui": 1728,
      "truc": 1729,
      "Ġneste": 1730,
      "ĠDia": 1731,
      "18": 1732,
      "rga": 1733,
      "Ġfez": 1734,
      "dir": 1735,
      "ĠMu": 1736,
      "feito": 1737,
      "Ġexi": 1738,
      "Ġnada": 1739,
      "Ġsocial": 1740,
      "Ġcontro": 1741,
      "ticos": 1742,
      "Ġ2008": 1743,
      "Ġprograma": 1744,
      "Ġexternas": 1745,
      "Ġdesco": 1746,
      "Ġpoder": 1747,
      "ĠLigac": 1748,
      "Ġmin": 1749,
      "endo": 1750,
      "ess": 1751,
      "Ġquesta": 1752,
      "cele": 1753,
      "pensa": 1754,
      "rados": 1755,
      "Ġnacional": 1756,
      "Ġass": 1757,
      "Ġtendo": 1758,
      "reiro": 1759,
      "ciedade": 1760,
      "Ġocorre": 1761,
      "Ġpois": 1762,
      "Ġprev": 1763,
      "vor": 1764,
      "ka": 1765,
      "quis": 1766,
      "Ġgos": 1767,
      "Ġlugar": 1768,
      "Ġvoto": 1769,
      "verna": 1770,
      "PR": 1771,
      "ĠCA": 1772,
      "Ġgara": 1773,
      "Ġenca": 1774,
      "gosto": 1775,
      "Ġjulho": 1776,
      "Ġinciso": 1777,
      "ĠSrs": 1778,
      "ĠMIN": 1779,
      "gni": 1780,
      "05": 1781,
      "mpos": 1782,
      "Ġsituac": 1783,
      "tubro": 1784,
      "Ġreun": 1785,
      "cida": 1786,
      "ĠRegi": 1787,
      "ionais": 1788,
      "Ġ26": 1789,
      "Ġmer": 1790,
      "versidade": 1791,
      "cho": 1792,
      "ĠSub": 1793,
      "ĠPAR": 1794,
      "âĢĵâĢĵ": 1795,
      "mentac": 1796,
      "inco": 1797,
      "Ġinicia": 1798,
      "Ġ2011": 1799,
      "Ġconsegu": 1800,
      "Ġalguns": 1801,
      "Ġtal": 1802,
      "Ġ2006": 1803,
      "Ar": 1804,
      "Ġinsta": 1805,
      "nou": 1806,
      "Ġsetembro": 1807,
      "Ġtemos": 1808,
      "cios": 1809,
      "dac": 1810,
      "Ġdar": 1811,
      "ĠSil": 1812,
      "ĠRu": 1813,
      "Ġvou": 1814,
      "ol": 1815,
      "Ġdisso": 1816,
      "Ġexpe": 1817,
      "07": 1818,
      "bui": 1819,
      "Ġrecurso": 1820,
      "UL": 1821,
      "Ġuni": 1822,
      "HO": 1823,
      "ĠCi": 1824,
      "Ġtoda": 1825,
      "fico": 1826,
      "ĠHe": 1827,
      "Ġfala": 1828,
      "Ġnem": 1829,
      "trui": 1830,
      "Ġpodem": 1831,
      "06": 1832,
      "Ġeve": 1833,
      "Ġbene": 1834,
      "querimento": 1835,
      "Ġhi": 1836,
      "Ġsentido": 1837,
      "ps": 1838,
      "nac": 1839,
      "Ġdata": 1840,
      "Ġorgani": 1841,
      "ke": 1842,
      "Ġ2010": 1843,
      "bra": 1844,
      "Ġlocal": 1845,
      "Ġami": 1846,
      "Ġpelas": 1847,
      "ridade": 1848,
      "Ġcorre": 1849,
      "ĠSESSA": 1850,
      "17": 1851,
      "ĠLuiz": 1852,
      "ĠLegisla": 1853,
      "mpanha": 1854,
      "Ġexemplo": 1855,
      "ilia": 1856,
      "ĠDire": 1857,
      "Ġfis": 1858,
      "Ġterc": 1859,
      "Ġregula": 1860,
      "Ġpouco": 1861,
      "Ġteve": 1862,
      "Ġjunho": 1863,
      "bol": 1864,
      "nando": 1865,
      "fici": 1866,
      "Ġtenho": 1867,
      "08": 1868,
      "Ġexc": 1869,
      "Ġcump": 1870,
      "tural": 1871,
      "Ġfato": 1872,
      "Ġdecla": 1873,
      "ĠVamos": 1874,
      "Ġ...": 1875,
      "hia": 1876,
      "CUR": 1877,
      "pc": 1878,
      "Ġpovo": 1879,
      "Ġleva": 1880,
      "Ġestou": 1881,
      "Ġfede": 1882,
      "Ġcoisa": 1883,
      "Ġjor": 1884,
      "Ġproposta": 1885,
      "Ġvio": 1886,
      "Ġdocu": 1887,
      "Ġgrupo": 1888,
      "ĠParla": 1889,
      "ĠRes": 1890,
      "Ġdistri": 1891,
      "Ġconstitucional": 1892,
      "ĠPoder": 1893,
      "UTC": 1894,
      "ty": 1895,
      "Ġinde": 1896,
      "Ġuso": 1897,
      "fusa": 1898,
      "missa": 1899,
      "ntal": 1900,
      "Ġtele": 1901,
      "lares": 1902,
      "Â°": 1903,
      "Ġhuma": 1904,
      "Ġdesenvolvimento": 1905,
      "16": 1906,
      "Ġmarc": 1907,
      "Ġvis": 1908,
      "Ġquais": 1909,
      "Ġeducac": 1910,
      "Ġcompro": 1911,
      "Ġtro": 1912,
      "Ġminu": 1913,
      "ficial": 1914,
      "zes": 1915,
      "Ġtotal": 1916,
      "Ġdetermina": 1917,
      "ĠBrasile": 1918,
      "bate": 1919,
      "Ġ2005": 1920,
      "Ġ29": 1921,
      "Ġvamos": 1922,
      "pital": 1923,
      "porte": 1924,
      "ĠApo": 1925,
      "ĠGrande": 1926,
      "ĠPla": 1927,
      "ques": 1928,
      "Ġbrasileira": 1929,
      "iras": 1930,
      "ĠDecreto": 1931,
      "Ġprote": 1932,
      "ĠTur": 1933,
      "dra": 1934,
      "ntre": 1935,
      "Ġespeci": 1936,
      "titui": 1937,
      "tulo": 1938,
      "ts": 1939,
      "Ġamp": 1940,
      "ncial": 1941,
      "Ġcausa": 1942,
      "ĠFe": 1943,
      "ĠEduardo": 1944,
      "IM": 1945,
      "04": 1946,
      "Ġfinanc": 1947,
      "resce": 1948,
      "Ġprofiss": 1949,
      "CURSO": 1950,
      "Ġquer": 1951,
      "ĠJaneiro": 1952,
      "ĠEspe": 1953,
      "Ġ2013": 1954,
      "Ġbom": 1955,
      "ĠEla": 1956,
      "Ġgeral": 1957,
      "EIRA": 1958,
      "Ġempresas": 1959,
      "Ġagosto": 1960,
      "Ġoutubro": 1961,
      "ly": 1962,
      "Ġprovide": 1963,
      "Ġinclu": 1964,
      "Ġsema": 1965,
      "ncio": 1966,
      "Ġpossa": 1967,
      "ĠSala": 1968,
      "Ġtri": 1969,
      "Ġoutra": 1970,
      "ixo": 1971,
      "lada": 1972,
      "Ġobser": 1973,
      "//": 1974,
      "bora": 1975,
      "Ġnenh": 1976,
      "ĠEM": 1977,
      "Ġproduc": 1978,
      "Pa": 1979,
      "tem": 1980,
      "Ġclas": 1981,
      "ĠIII": 1982,
      "Ġfavor": 1983,
      "riam": 1984,
      "Ġmanda": 1985,
      "cnologia": 1986,
      "Ġanti": 1987,
      "................................................................": 1988,
      "Ġsociedade": 1989,
      "vereiro": 1990,
      "Ġlado": 1991,
      "ran": 1992,
      "ĠTu": 1993,
      "Ġhavia": 1994,
      "Ġlimi": 1995,
      "Ġreconhe": 1996,
      "ĠSupre": 1997,
      "am": 1998,
      "ECER": 1999,
      "ende": 2000,
      "RIA": 2001,
      "mane": 2002,
      "ĠAL": 2003,
      "Ġconce": 2004,
      "VA": 2005,
      "Ġservi": 2006,
      "minha": 2007,
      "digo": 2008,
      "Ġinterna": 2009,
      "ĠTrabal": 2010,
      "Ġpodera": 2011,
      "Ġabril": 2012,
      "Ġsei": 2013,
      "Ġqui": 2014,
      "Co": 2015,
      "perior": 2016,
      "Ġpessoa": 2017,
      "Ġur": 2018,
      "Ġasse": 2019,
      "Ġefe": 2020,
      "Ġbri": 2021,
      "Ġjaneiro": 2022,
      ".\"": 2023,
      "oso": 2024,
      "lita": 2025,
      "nes": 2026,
      "lado": 2027,
      "Ġhabitantes": 2028,
      "Ġestado": 2029,
      "ry": 2030,
      "02": 2031,
      "Ġpubl": 2032,
      "cnica": 2033,
      "://": 2034,
      "tamento": 2035,
      "Ġloc": 2036,
      "ĠMaria": 2037,
      "rida": 2038,
      "ĠMuito": 2039,
      "undia": 2040,
      "pas": 2041,
      "Ġlegisla": 2042,
      "Ġcrianc": 2043,
      "Ġpromo": 2044,
      "diodi": 2045,
      "Ġocu": 2046,
      "Ġnovembro": 2047,
      "Exa": 2048,
      "Ġneces": 2049,
      "ner": 2050,
      "nif": 2051,
      "Ġban": 2052,
      "14": 2053,
      "Ġfunciona": 2054,
      "Ġdessa": 2055,
      "ĠPARECER": 2056,
      "licac": 2057,
      "com": 2058,
      "Ġpresidente": 2059,
      "ĠEX": 2060,
      "ĠPrime": 2061,
      "tida": 2062,
      "Ġsou": 2063,
      "Ġutiliza": 2064,
      "ĠEste": 2065,
      "Ġsabe": 2066,
      "Ġmesma": 2067,
      "ndimento": 2068,
      "quisa": 2069,
      "ordina": 2070,
      "Ġ2012": 2071,
      "ib": 2072,
      "Ġing": 2073,
      "Ġlon": 2074,
      "Ġgarant": 2075,
      "Ġdesse": 2076,
      "Ġforc": 2077,
      "Ġseguranc": 2078,
      "Ġdele": 2079,
      "Ġcabe": 2080,
      "Ġni": 2081,
      "ĠUma": 2082,
      "Ġ2015": 2083,
      "bar": 2084,
      "Ġbas": 2085,
      "Ġ194": 2086,
      "riedade": 2087,
      "Ġestar": 2088,
      "mada": 2089,
      "Ġconju": 2090,
      "Ġestamos": 2091,
      "ĠSau": 2092,
      "Ġrecebe": 2093,
      "Ġfre": 2094,
      "Ġani": 2095,
      "RAL": 2096,
      "Ġsigni": 2097,
      "veira": 2098,
      "ĠNos": 2099,
      "nada": 2100,
      "inheiro": 2101,
      "Ġhtt": 2102,
      "versa": 2103,
      "Ġade": 2104,
      "Ġfic": 2105,
      "Ġsolici": 2106,
      "Ġmelho": 2107,
      "Ġsim": 2108,
      "tria": 2109,
      "199": 2110,
      "venc": 2111,
      "CO": 2112,
      "Ġcompete": 2113,
      "Ġtanto": 2114,
      "Ġmostra": 2115,
      "jetos": 2116,
      "sociac": 2117,
      "diodifusa": 2118,
      "dual": 2119,
      "ĠPoli": 2120,
      "Ġsala": 2121,
      "grafo": 2122,
      "Ġreal": 2123,
      "tivamente": 2124,
      "Ġalgo": 2125,
      "INA": 2126,
      "ĠSou": 2127,
      "Ġcie": 2128,
      "ff": 2129,
      "ĠWi": 2130,
      "Ġens": 2131,
      "ĠRegimento": 2132,
      "Ġdemais": 2133,
      "didas": 2134,
      "Ġquatro": 2135,
      "vis": 2136,
      "ĠPortu": 2137,
      "Ġdesa": 2138,
      "Ġ2004": 2139,
      "IDA": 2140,
      "mbo": 2141,
      "Ġtipo": 2142,
      "Ġcara": 2143,
      "Ġposic": 2144,
      "Ġdeixa": 2145,
      "ĠMac": 2146,
      "Ġenquanto": 2147,
      "Ġnum": 2148,
      "000": 2149,
      "lise": 2150,
      "die": 2151,
      "Ġhoras": 2152,
      "vem": 2153,
      "Ġvolta": 2154,
      "Ġsal": 2155,
      "Ġinstituic": 2156,
      "2015": 2157,
      "Ġima": 2158,
      "Ġambie": 2159,
      "ntado": 2160,
      "ntemente": 2161,
      "Ġhou": 2162,
      "Ġ(\"": 2163,
      "Ġassi": 2164,
      "Ġana": 2165,
      "ĠBrasi": 2166,
      "Ġsessa": 2167,
      "Ġfevereiro": 2168,
      "Ġproduz": 2169,
      "wa": 2170,
      "Ġina": 2171,
      "Ġbus": 2172,
      "Ġtexto": 2173,
      "ĠExecu": 2174,
      "cede": 2175,
      "sui": 2176,
      "ERI": 2177,
      "Ġdentro": 2178,
      "mor": 2179,
      "tora": 2180,
      "tebol": 2181,
      "DT": 2182,
      "Ġaplica": 2183,
      "Ġrespeito": 2184,
      "litar": 2185,
      "PMDB": 2186,
      "Ġcus": 2187,
      "ĠAD": 2188,
      "Ġreg": 2189,
      "Ġman": 2190,
      "liz": 2191,
      "Ġtar": 2192,
      "Bloco": 2193,
      "Ġvem": 2194,
      "icou": 2195,
      "ĠAN": 2196,
      "Ġata": 2197,
      "prio": 2198,
      "Ġcomer": 2199,
      "ÌĤ-": 2200,
      "Ġfalar": 2201,
      "pec": 2202,
      "nais": 2203,
      "Ġdireitos": 2204,
      "mu": 2205,
      "gados": 2206,
      "Ġpeque": 2207,
      "Ġatri": 2208,
      "ĠEducac": 2209,
      "Ġhora": 2210,
      "ĠInterno": 2211,
      "Ġer": 2212,
      "rico": 2213,
      "osta": 2214,
      "Ġponto": 2215,
      "Ġcriac": 2216,
      "ĠSupremo": 2217,
      "Ġapoio": 2218,
      "OL": 2219,
      "HA": 2220,
      "trutura": 2221,
      "ndida": 2222,
      "Ġsignifica": 2223,
      "midade": 2224,
      "Ġmim": 2225,
      "ĠUnidos": 2226,
      "tio": 2227,
      "portu": 2228,
      "ĠAnd": 2229,
      "posi": 2230,
      "Ġfora": 2231,
      "ĠAo": 2232,
      "enc": 2233,
      "Ġtur": 2234,
      "ple": 2235,
      "isco": 2236,
      "Ġmanif": 2237,
      "mpa": 2238,
      "lhe": 2239,
      "POS": 2240,
      "CE": 2241,
      "Ġmedida": 2242,
      "Ġanu": 2243,
      "Ġproblema": 2244,
      "Ġrelato": 2245,
      "mico": 2246,
      "Ġconforme": 2247,
      "Ġ2003": 2248,
      "Ġmuda": 2249,
      "Ġnunca": 2250,
      "osse": 2251,
      "curso": 2252,
      "ĠQuando": 2253,
      "Ġfeito": 2254,
      "gica": 2255,
      "________": 2256,
      "Ġpublica": 2257,
      "Ġcinco": 2258,
      "ĠTi": 2259,
      "lusive": 2260,
      "ĠPP": 2261,
      "zer": 2262,
      "pria": 2263,
      "ĠJor": 2264,
      "tifica": 2265,
      "Ġalte": 2266,
      "Ġ2014": 2267,
      "Ġdados": 2268,
      "30": 2269,
      "Re": 2270,
      "pais": 2271,
      "Ġpermane": 2272,
      "vendo": 2273,
      "25": 2274,
      "Ġthe": 2275,
      "ĠRO": 2276,
      "ĠExcele": 2277,
      "GE": 2278,
      "Ġexp": 2279,
      "Ġama": 2280,
      "Ġesses": 2281,
      "ĠVice": 2282,
      "TRO": 2283,
      "Art": 2284,
      "tenc": 2285,
      "Ġ/": 2286,
      "ĠTurma": 2287,
      "ĠCha": 2288,
      "Ġ195": 2289,
      "reas": 2290,
      "Ġsur": 2291,
      "Ġfilme": 2292,
      "teri": 2293,
      "cac": 2294,
      "ĠSilva": 2295,
      "Ġlegal": 2296,
      "ĠPlena": 2297,
      "Ġder": 2298,
      "iais": 2299,
      "blicos": 2300,
      "Ġ2016": 2301,
      "Ġacesso": 2302,
      "Ġkm": 2303,
      "Ġdiscu": 2304,
      "Ġedi": 2305,
      "Ġdevera": 2306,
      "Ġexerci": 2307,
      "ara": 2308,
      "ĠNO": 2309,
      "emo": 2310,
      "Ġatrave": 2311,
      "ĠSocial": 2312,
      "Ġenvol": 2313,
      "ĠSras": 2314,
      "enda": 2315,
      "ĠThe": 2316,
      "Ġinclui": 2317,
      "Ġestre": 2318,
      "tam": 2319,
      "gir": 2320,
      "mple": 2321,
      "ĠRic": 2322,
      "ĠBu": 2323,
      "ĠUniversidade": 2324,
      "2013": 2325,
      "Ġnego": 2326,
      "Ġdesig": 2327,
      "ĠCla": 2328,
      "ntra": 2329,
      "ocu": 2330,
      "mba": 2331,
      "PL": 2332,
      "ĠOliveira": 2333,
      "crito": 2334,
      "gues": 2335,
      "Ġ,": 2336,
      "Ġregimental": 2337,
      "Ġpec": 2338,
      "Ġmercado": 2339,
      "âĢĻ": 2340,
      "ĠCie": 2341,
      "ĠCu": 2342,
      "tion": 2343,
      "Ġdestina": 2344,
      "Ġextraordina": 2345,
      "ĠTotal": 2346,
      "pressa": 2347,
      "undial": 2348,
      "Ġinco": 2349,
      "Ġsegunda": 2350,
      "ĠSU": 2351,
      "nimo": 2352,
      "mpeona": 2353,
      "Ġcerca": 2354,
      "Ġedic": 2355,
      ".,": 2356,
      "ĠPedro": 2357,
      "ĠSenho": 2358,
      "Ġvista": 2359,
      "Ġai": 2360,
      "Ġseguintes": 2361,
      "Ġpi": 2362,
      "lbu": 2363,
      "Ġparecer": 2364,
      "Ġfazendo": 2365,
      "poca": 2366,
      "buic": 2367,
      "ximo": 2368,
      "mer": 2369,
      "Ġdefesa": 2370,
      "culos": 2371,
      "Ġcate": 2372,
      "vou": 2373,
      "Ġconsu": 2374,
      "Ġmuitos": 2375,
      "Ġraza": 2376,
      "Ġpesquisa": 2377,
      "Ġacre": 2378,
      "Ġreferi": 2379,
      "\")": 2380,
      "unha": 2381,
      "Ġexclusi": 2382,
      "Ġobrigado": 2383,
      "Ġimpos": 2384,
      "feira": 2385,
      "Ġmeses": 2386,
      "ĠConselho": 2387,
      "Ġexplo": 2388,
      "Ġlocaliza": 2389,
      "Ġorigem": 2390,
      "Ġtenta": 2391,
      "Ġoficial": 2392,
      "NCIA": 2393,
      "Ġrespec": 2394,
      "pel": 2395,
      "tadas": 2396,
      "ĠDeputada": 2397,
      "2011": 2398,
      "ĠObri": 2399,
      "Ġatividades": 2400,
      "TF": 2401,
      "ls": 2402,
      "Ġeleito": 2403,
      "mbros": 2404,
      "ĠSP": 2405,
      "ĠSal": 2406,
      "Ġtema": 2407,
      "Ġoportu": 2408,
      "sico": 2409,
      "STI": 2410,
      "Ġalgumas": 2411,
      "ĠComunicac": 2412,
      "Ġage": 2413,
      "Ġencontra": 2414,
      "ĠSegundo": 2415,
      "ĠAgora": 2416,
      "Ġlegis": 2417,
      "Ġgrandes": 2418,
      "Ġessas": 2419,
      "Ġinclusive": 2420,
      "ĠPi": 2421,
      "ĠPode": 2422,
      "ĠBloco": 2423,
      "Ġportu": 2424,
      "NA": 2425,
      "Ġvalo": 2426,
      "sona": 2427,
      "ĠEmenda": 2428,
      "21": 2429,
      "emos": 2430,
      "dre": 2431,
      "dico": 2432,
      "ĠEssa": 2433,
      "sia": 2434,
      "Ġregistra": 2435,
      "entes": 2436,
      "ĠEMEN": 2437,
      "Ġfosse": 2438,
      "66": 2439,
      "bili": 2440,
      "jus": 2441,
      "rus": 2442,
      "Ġradiodifusa": 2443,
      "vista": 2444,
      "ido": 2445,
      "Ġques": 2446,
      "Ġpena": 2447,
      "heres": 2448,
      "Ġparece": 2449,
      "ds": 2450,
      "ĠExecutivo": 2451,
      "Ġpreocu": 2452,
      "Ġnecess": 2453,
      "Ġquase": 2454,
      "ĠFilho": 2455,
      "mir": 2456,
      "Ġw": 2457,
      "riores": 2458,
      "Ġofere": 2459,
      "Ġsimp": 2460,
      "Ġener": 2461,
      "ĠDef": 2462,
      "ĠDesen": 2463,
      "ĠBi": 2464,
      "Ġanterior": 2465,
      "stica": 2466,
      "orde": 2467,
      "Ġnuma": 2468,
      "Ġjornal": 2469,
      "Ġminutos": 2470,
      "Ġquar": 2471,
      "ĠDr": 2472,
      "29": 2473,
      "uro": 2474,
      ".âĢĿ": 2475,
      "ĠHen": 2476,
      "ĠKa": 2477,
      "ĠMari": 2478,
      "Ġfilho": 2479,
      "vul": 2480,
      "sol": 2481,
      "Ġespac": 2482,
      "TADO": 2483,
      "ĠInstitu": 2484,
      "mpeonato": 2485,
      "ĠDeus": 2486,
      "ĠCer": 2487,
      "ĠEd": 2488,
      "ĠBra": 2489,
      "vez": 2490,
      "Ġtive": 2491,
      "Ġ100": 2492,
      "STITU": 2493,
      "Ġchega": 2494,
      "ĠDEM": 2495,
      ");": 2496,
      "Ġparticipac": 2497,
      "Ġindica": 2498,
      "Ġdiscussa": 2499,
      "ĠFor": 2500,
      "iac": 2501,
      "Ġaber": 2502,
      "rcio": 2503,
      "Ġfalta": 2504,
      "Ġreti": 2505,
      "Ġficar": 2506,
      "Ġeram": 2507,
      "uta": 2508,
      "Ġpossui": 2509,
      "Ġcres": 2510,
      "Ġdevido": 2511,
      "ĠInforma": 2512,
      "Ġmaioria": 2513,
      "Ġboa": 2514,
      "mentares": 2515,
      "turas": 2516,
      "terior": 2517,
      "isas": 2518,
      "ÌĤ?": 2519,
      "Ġjogo": 2520,
      "ĠCOMIS": 2521,
      "Ġpublicac": 2522,
      "Ġref": 2523,
      "34": 2524,
      "ĠEsse": 2525,
      "Ġirma": 2526,
      "Ġaba": 2527,
      "veu": 2528,
      "Ġlici": 2529,
      "rique": 2530,
      "Ġdinheiro": 2531,
      "28": 2532,
      "Ġfavo": 2533,
      "reza": 2534,
      "Ġlhe": 2535,
      "Ġqualidade": 2536,
      "Ġ50": 2537,
      "ĠPas": 2538,
      "Ġrec": 2539,
      "Ġbar": 2540,
      "blicas": 2541,
      "volvimento": 2542,
      "ĠAme": 2543,
      "Ġtera": 2544,
      "ĠCul": 2545,
      "Ġreunia": 2546,
      "nsi": 2547,
      "Ġmuitas": 2548,
      "lec": 2549,
      "Ġdeci": 2550,
      "DI": 2551,
      "ĠQua": 2552,
      "ya": 2553,
      "Ġmen": 2554,
      "xe": 2555,
      "tima": 2556,
      "putado": 2557,
      "Ġbrasileiros": 2558,
      "ĠSEN": 2559,
      "ll": 2560,
      "Ġvota": 2561,
      "ircu": 2562,
      "ĠAg": 2563,
      "Ġprocu": 2564,
      "Ġcargo": 2565,
      "essor": 2566,
      "PSDB": 2567,
      "Ġnorte": 2568,
      "Ġhttps": 2569,
      "Ġigu": 2570,
      "Ġcasos": 2571,
      "Ġreforma": 2572,
      "):": 2573,
      "ĠEuro": 2574,
      "ĠSra": 2575,
      "Ġperce": 2576,
      "36": 2577,
      "ĠIta": 2578,
      "............": 2579,
      "ĠPE": 2580,
      "Ġpoderia": 2581,
      "Ġsemana": 2582,
      "media": 2583,
      "doB": 2584,
      "bia": 2585,
      "Ġprova": 2586,
      "ĠLU": 2587,
      "ĠAssim": 2588,
      "Ġtitu": 2589,
      "dios": 2590,
      "ĠLula": 2591,
      "rista": 2592,
      "tis": 2593,
      "Ġredac": 2594,
      "Ġsejam": 2595,
      "ĠAssociac": 2596,
      "PE": 2597,
      "Ġeleic": 2598,
      "Ġlegislac": 2599,
      "Ġconstruc": 2600,
      "Ġdiri": 2601,
      "Ġ2017": 2602,
      "Ġentanto": 2603,
      "35": 2604,
      "Ġpedido": 2605,
      "Ġaumento": 2606,
      "pP": 2607,
      "cais": 2608,
      "ĠEn": 2609,
      "ĠTV": 2610,
      "lina": 2611,
      "ĠAR": 2612,
      "Ġmodo": 2613,
      "ĠDistri": 2614,
      "Ġhomem": 2615,
      "Ġmode": 2616,
      "Ġobjetivo": 2617,
      "Ġoperac": 2618,
      "ĠWil": 2619,
      "leo": 2620,
      "cil": 2621,
      "Ġpensa": 2622,
      "24": 2623,
      "ĠRodri": 2624,
      "ĠMic": 2625,
      "ĠDJ": 2626,
      "Ġ2000": 2627,
      "racteri": 2628,
      "lbum": 2629,
      "Ġdaque": 2630,
      "ko": 2631,
      "ĠFernando": 2632,
      "BA": 2633,
      "Ġmembros": 2634,
      "zado": 2635,
      "27": 2636,
      "Ġagravo": 2637,
      "tc": 2638,
      "Ġsomente": 2639,
      "ĠAte": 2640,
      "ndia": 2641,
      "cidos": 2642,
      "37": 2643,
      "Ġcandida": 2644,
      "nato": 2645,
      "Ġvir": 2646,
      "ĠRoberto": 2647,
      "ltima": 2648,
      "ĠVal": 2649,
      "Ġrecu": 2650,
      "ĠLegislativo": 2651,
      "ltimo": 2652,
      "Ġencaminha": 2653,
      "Ġtarde": 2654,
      "Ġregistro": 2655,
      "ĠNova": 2656,
      "Ġmorte": 2657,
      "Ġrealizac": 2658,
      "feitos": 2659,
      "Ġacho": 2660,
      "Ġjoga": 2661,
      "26": 2662,
      "Ġdeli": 2663,
      "Ġrea": 2664,
      "Ġrei": 2665,
      "net": 2666,
      "ĠPSB": 2667,
      "39": 2668,
      "Ġpassou": 2669,
      "Ġensino": 2670,
      "Ġobras": 2671,
      "ĠGeral": 2672,
      "limina": 2673,
      "PU": 2674,
      "ĠMan": 2675,
      "Ġajuda": 2676,
      "ĠPrograma": 2677,
      "Ġatual": 2678,
      "Ġconstrui": 2679,
      "Ġorie": 2680,
      "teza": 2681,
      "Ġorc": 2682,
      "Ġch": 2683,
      "ficar": 2684,
      "Ġprop": 2685,
      "ny": 2686,
      "Ġmedidas": 2687,
      "sta": 2688,
      "ĠJe": 2689,
      "minho": 2690,
      "ĠBem": 2691,
      "ĠSol": 2692,
      "ĠIV": 2693,
      "titutivo": 2694,
      "ĠHisto": 2695,
      "ion": 2696,
      "Ġ2019": 2697,
      "ges": 2698,
      "ĠMaia": 2699,
      "ĠParecer": 2700,
      "mis": 2701,
      "ĠTrans": 2702,
      "ricul": 2703,
      "dicac": 2704,
      "2000": 2705,
      "Ġnoite": 2706,
      "Ġobjeto": 2707,
      "Ġine": 2708,
      "DINA": 2709,
      "ney": 2710,
      "Ġmembro": 2711,
      "Ġcontrole": 2712,
      "ntral": 2713,
      "ĠAmazo": 2714,
      "ĠTrabalho": 2715,
      "Ġfra": 2716,
      "ICA": 2717,
      "2008": 2718,
      "Ġproblemas": 2719,
      "Ġpagamento": 2720,
      "Ġformula": 2721,
      "mun": 2722,
      "Ġ54": 2723,
      "ssi": 2724,
      "Ġvisa": 2725,
      "The": 2726,
      "ĠPortugal": 2727,
      "Ġatin": 2728,
      "dou": 2729,
      "Ġcoisas": 2730,
      "Ġenergia": 2731,
      "Ġacer": 2732,
      "Ġliber": 2733,
      "ĠMarco": 2734,
      "Ġdeu": 2735,
      "Ġmulheres": 2736,
      "ĠFac": 2737,
      "Ġsetor": 2738,
      "Ġaval": 2739,
      "ĠEntre": 2740,
      "PI": 2741,
      "ados": 2742,
      "Ġproces": 2743,
      "Ġsimples": 2744,
      "vanc": 2745,
      "Ġcli": 2746,
      "Ġinstru": 2747,
      "38": 2748,
      "DEM": 2749,
      "Ġlin": 2750,
      "manda": 2751,
      "ĠLocal": 2752,
      "Ġcerto": 2753,
      "Ġcontribu": 2754,
      "Ġtes": 2755,
      "Ge": 2756,
      "BL": 2757,
      "Ġafirma": 2758,
      "ĠTer": 2759,
      "hel": 2760,
      "IZ": 2761,
      "ĠAdministra": 2762,
      "Ġlongo": 2763,
      "mio": 2764,
      "lube": 2765,
      "ĠMinas": 2766,
      "ĠSua": 2767,
      "Ġsaber": 2768,
      "2007": 2769,
      "ginal": 2770,
      "Ġop": 2771,
      "Ġdeixar": 2772,
      "vernador": 2773,
      "Ġterrito": 2774,
      "Ġrelaciona": 2775,
      "Ġ31": 2776,
      "Ġprincipalmente": 2777,
      "Ġequipe": 2778,
      "ĠEstou": 2779,
      "dora": 2780,
      "ĠAgra": 2781,
      "Ġgente": 2782,
      "nora": 2783,
      "xima": 2784,
      "Ġdivul": 2785,
      "Ġpreciso": 2786,
      "Ġcidada": 2787,
      "ĠInterna": 2788,
      "ĠDesenvolvimento": 2789,
      "naldo": 2790,
      "Ġsen": 2791,
      "Ġjunto": 2792,
      "Ġdemocra": 2793,
      "ĠMen": 2794,
      "ÌĤ.": 2795,
      "Ma": 2796,
      "tras": 2797,
      "ĠFrancisco": 2798,
      "nicos": 2799,
      "ĠNorte": 2800,
      "Ġprete": 2801,
      "Ġarqui": 2802,
      "Ġouvi": 2803,
      "Ġsuper": 2804,
      "diu": 2805,
      "cola": 2806,
      "IV": 2807,
      "greja": 2808,
      "Ġsai": 2809,
      "Ġ2020": 2810,
      "sal": 2811,
      "Ġrequerimento": 2812,
      "Ġdisposi": 2813,
      "ĠSecreta": 2814,
      "Ġmanifes": 2815,
      "ĠMAR": 2816,
      "Ġcal": 2817,
      "Ġaplicac": 2818,
      "amos": 2819,
      "ĠMesa": 2820,
      "GO": 2821,
      "Ġprojetos": 2822,
      "Ġpresenc": 2823,
      "Ġjulgamento": 2824,
      "45": 2825,
      "Ġcircu": 2826,
      "sticas": 2827,
      "Ġcapac": 2828,
      "Ġdecorre": 2829,
      "ĠCAR": 2830,
      "Ġentra": 2831,
      "2010": 2832,
      "Ġhouve": 2833,
      "Ġ2002": 2834,
      "vante": 2835,
      "pri": 2836,
      "Ġfrente": 2837,
      "Ġ:)": 2838,
      "Ġ................................................": 2839,
      "ĠMel": 2840,
      "Ġpapel": 2841,
      "deira": 2842,
      "lh": 2843,
      "Ġindivi": 2844,
      "ĠEles": 2845,
      "Ġconcessa": 2846,
      "Ġforne": 2847,
      "Ġ35": 2848,
      "pia": 2849,
      "stico": 2850,
      "igo": 2851,
      "mericano": 2852,
      "gico": 2853,
      "Ġbenefi": 2854,
      "Ġposso": 2855,
      "Ġdemons": 2856,
      "ĠAc": 2857,
      "ingue": 2858,
      "cendo": 2859,
      "Ġalguma": 2860,
      "Ġgas": 2861,
      "ĠBer": 2862,
      "lores": 2863,
      "BER": 2864,
      "Ġembora": 2865,
      "Ġesca": 2866,
      "Ġparticipa": 2867,
      "Ġluta": 2868,
      "diante": 2869,
      "Ġeconomia": 2870,
      "vidade": 2871,
      "ĠRIC": 2872,
      "ĠFre": 2873,
      "Ġreais": 2874,
      "Ġobra": 2875,
      "Ġconde": 2876,
      "Ġproce": 2877,
      "ĠREQU": 2878,
      "Ġviole": 2879,
      "ĠChe": 2880,
      "nciamento": 2881,
      "22": 2882,
      "Ġorganizac": 2883,
      "Ġconhecido": 2884,
      "cito": 2885,
      "Ġregime": 2886,
      "Ġatividade": 2887,
      "Ġreve": 2888,
      "98": 2889,
      "Ġmorre": 2890,
      "ĠNA": 2891,
      "ĠAntonio": 2892,
      "ĠPDT": 2893,
      "Ġocupa": 2894,
      "Ġfei": 2895,
      "rda": 2896,
      "mendas": 2897,
      "Ġcorpo": 2898,
      "nis": 2899,
      "Ġequipa": 2900,
      "timo": 2901,
      "vin": 2902,
      "Ġconsta": 2903,
      "cric": 2904,
      "Ġportanto": 2905,
      "Ġpodemos": 2906,
      "ĠNor": 2907,
      "ĠPartido": 2908,
      "Ġobriga": 2909,
      "ĠAlex": 2910,
      "Ġcaracteri": 2911,
      "Ġnesse": 2912,
      "Ġarma": 2913,
      "forc": 2914,
      "Ġparce": 2915,
      "Ġmal": 2916,
      "Ìģ?": 2917,
      "RAVO": 2918,
      "Ġcrime": 2919,
      "Ġeletro": 2920,
      "Ġ'": 2921,
      "Ġreno": 2922,
      "nea": 2923,
      "Ġalca": 2924,
      "ĠPos": 2925,
      "Ġcultura": 2926,
      "ĠSE": 2927,
      "ĠServic": 2928,
      "guei": 2929,
      "Ġmaneira": 2930,
      "Ġ1990": 2931,
      "Ġconcor": 2932,
      "lusa": 2933,
      "Ġacompanha": 2934,
      "Ġbusca": 2935,
      "ĠDefesa": 2936,
      "Ġprodutos": 2937,
      "celo": 2938,
      "Ġexecuc": 2939,
      "altera": 2940,
      "Ġrealizada": 2941,
      "Ġdefini": 2942,
      "ĠAra": 2943,
      "ĠQU": 2944,
      "ĠAna": 2945,
      "velmente": 2946,
      "bas": 2947,
      "Ġbanca": 2948,
      "Ġrecebi": 2949,
      "ger": 2950,
      "Ġclassi": 2951,
      "Ġrele": 2952,
      "Ġconjunto": 2953,
      "gen": 2954,
      "ĠEMENDA": 2955,
      "Ġmulher": 2956,
      "ue": 2957,
      "ĠVale": 2958,
      "Ġlegislativa": 2959,
      "Ġpartido": 2960,
      "gory": 2961,
      "rina": 2962,
      "Ġdefin": 2963,
      "Ġcomunicac": 2964,
      "Ġcampo": 2965,
      "Ġand": 2966,
      "Ġqueria": 2967,
      "Ġinteresse": 2968,
      "cretaria": 2969,
      "Ġ2001": 2970,
      "ĠSan": 2971,
      "ERIMENTO": 2972,
      "ĠTecnologia": 2973,
      "ĠDistrito": 2974,
      "ĠGil": 2975,
      "Ġpessoal": 2976,
      "Ġnecessidade": 2977,
      "tureza": 2978,
      "ĠCivil": 2979,
      "mando": 2980,
      "Ġsociais": 2981,
      "Ġlivro": 2982,
      "radas": 2983,
      "TIMA": 2984,
      "Ġris": 2985,
      "Ġmudanc": 2986,
      "pla": 2987,
      "uto": 2988,
      "Ġalgum": 2989,
      "Ġlogo": 2990,
      "ĠMes": 2991,
      "Ġpassado": 2992,
      "Ġacu": 2993,
      "ĠEcono": 2994,
      "itar": 2995,
      "CIO": 2996,
      "Ġsuperior": 2997,
      "AM": 2998,
      "Ġ2018": 2999,
      "Ġveri": 3000,
      "Ġescola": 3001,
      "Ġingle": 3002,
      "Ġcapital": 3003,
      "sua": 3004,
      "vidas": 3005,
      "ĠWiki": 3006,
      "cima": 3007,
      "cou": 3008,
      "Ġlemb": 3009,
      "ĠDemo": 3010,
      "Ġmeta": 3011,
      "Ġhe": 3012,
      "ĠPrimeira": 3013,
      "postas": 3014,
      "Ġavanc": 3015,
      "78": 3016,
      "Ġemenda": 3017,
      "Ġcompan": 3018,
      "Ġoutor": 3019,
      "Ġficou": 3020,
      "Ġfranc": 3021,
      "dy": 3022,
      "ĠES": 3023,
      "48": 3024,
      "Ġenfre": 3025,
      "ĠCal": 3026,
      "ĠSenadores": 3027,
      "Ġinfra": 3028,
      "ĠREQUERIMENTO": 3029,
      "ĠRib": 3030,
      "nicas": 3031,
      "Ġpergu": 3032,
      "Ġjuris": 3033,
      "ĠAn": 3034,
      "2012": 3035,
      "ise": 3036,
      "ws": 3037,
      "Ġescre": 3038,
      "ĠCOMISSA": 3039,
      "ĠObrigado": 3040,
      "Ġsex": 3041,
      "Ġpropo": 3042,
      "dbP": 3043,
      "NAL": 3044,
      "Ġpontos": 3045,
      "Do": 3046,
      "vados": 3047,
      "ĠCidada": 3048,
      "99": 3049,
      "respo": 3050,
      "2016": 3051,
      "tidos": 3052,
      "Ġtorna": 3053,
      "Ġplane": 3054,
      "tto": 3055,
      "âĢĵâĢĵâĢĵâĢĵ": 3056,
      "Ġbilho": 3057,
      "Ġtornou": 3058,
      "redo": 3059,
      "gh": 3060,
      "VI": 3061,
      "Ġpronuncia": 3062,
      "ĠNu": 3063,
      "Ġdisposto": 3064,
      "Ġautos": 3065,
      "ĠEXTRA": 3066,
      "mbito": 3067,
      "Ġproposic": 3068,
      "iar": 3069,
      "ĠCosta": 3070,
      "ph": 3071,
      "ios": 3072,
      "bio": 3073,
      "lhos": 3074,
      "Ġestuda": 3075,
      "lhas": 3076,
      "ĠInstituto": 3077,
      "ĠCunha": 3078,
      "tual": 3079,
      "Ġdispu": 3080,
      "Ġexce": 3081,
      "IB": 3082,
      "CdoB": 3083,
      "Ġnenhum": 3084,
      "Ġvalores": 3085,
      "Ġalterac": 3086,
      "Ġvotos": 3087,
      "Ġproduto": 3088,
      "art": 3089,
      "ĠPROPOS": 3090,
      "Ġinfe": 3091,
      "nidades": 3092,
      "ĠTambe": 3093,
      "put": 3094,
      "Ġinterpre": 3095,
      "Ġbanda": 3096,
      "Ġnormas": 3097,
      "che": 3098,
      "Ġformac": 3099,
      "Ġcumpri": 3100,
      "Ġcerteza": 3101,
      "tificac": 3102,
      "ĠVI": 3103,
      "ĠMINIS": 3104,
      "Ġacha": 3105,
      "Ġconhecimento": 3106,
      "Ġserem": 3107,
      "Ġtrabalhos": 3108,
      "Ġidenti": 3109,
      "Ġinicial": 3110,
      "irmou": 3111,
      "Ġalgue": 3112,
      "ĠCorte": 3113,
      "bou": 3114,
      "Ġseis": 3115,
      "Ġoriginal": 3116,
      "ĠNas": 3117,
      "cias": 3118,
      "ĠDil": 3119,
      "nel": 3120,
      "ĠWal": 3121,
      "ĠBrasileiro": 3122,
      "Ġcatego": 3123,
      "Ġfeita": 3124,
      "Ġsin": 3125,
      "ys": 3126,
      "Apensa": 3127,
      "Se": 3128,
      "ĠCris": 3129,
      "Ġartigos": 3130,
      "ĠMara": 3131,
      "Ġprincipais": 3132,
      "ĠFE": 3133,
      "Ġperde": 3134,
      "Ġ................................................................": 3135,
      "cnico": 3136,
      "Ġvigor": 3137,
      "Ġ40": 3138,
      "Ġlinha": 3139,
      "LTIMA": 3140,
      "Ġfederal": 3141,
      "Ġ1998": 3142,
      "Ġsul": 3143,
      "ĠPortanto": 3144,
      "Ġatenc": 3145,
      "Ġdisponi": 3146,
      "ĠDias": 3147,
      "2014": 3148,
      "ĠDepois": 3149,
      "quia": 3150,
      "Ġfro": 3151,
      "Ġdevem": 3152,
      "50": 3153,
      "gramas": 3154,
      "Ġdor": 3155,
      "ĠQuero": 3156,
      "Ġmante": 3157,
      "Ġplena": 3158,
      "Ġdepende": 3159,
      "ĠInte": 3160,
      "Ġvin": 3161,
      "Ġapose": 3162,
      "Ġindepende": 3163,
      "ĠLeo": 3164,
      "Ġpratica": 3165,
      "Ġapreciac": 3166,
      "23": 3167,
      "gente": 3168,
      "Ġsepa": 3169,
      "Ġisto": 3170,
      "blio": 3171,
      "Ġautoriza": 3172,
      "ĠSTF": 3173,
      "ĠTor": 3174,
      "fra": 3175,
      "Ġlista": 3176,
      "Ġdific": 3177,
      "Ġjudic": 3178,
      "Ġidade": 3179,
      "Ġvence": 3180,
      "ard": 3181,
      "ĠCE": 3182,
      "heiros": 3183,
      "ĠQuem": 3184,
      "didos": 3185,
      "ĠAP": 3186,
      "ĠHu": 3187,
      "ĠPTB": 3188,
      "Ġreali": 3189,
      "arda": 3190,
      "Ġsede": 3191,
      "ossa": 3192,
      "ĠGuerra": 3193,
      "Ġnossos": 3194,
      "Ġdiferentes": 3195,
      "ĠSantos": 3196,
      "ĠTal": 3197,
      "Ġnovos": 3198,
      "erva": 3199,
      "Ġaprovado": 3200,
      "Ġcos": 3201,
      "Ġconqu": 3202,
      "cula": 3203,
      "Ġresol": 3204,
      "amenta": 3205,
      "Ġresultado": 3206,
      "Ġrede": 3207,
      "ĠRECURSO": 3208,
      "Ġnatureza": 3209,
      "ĠSO": 3210,
      "Ġversa": 3211,
      "Ġdemonstra": 3212,
      "Ġteria": 3213,
      "pida": 3214,
      "ĠCri": 3215,
      "Ġcontribuic": 3216,
      "dicional": 3217,
      "ĠTen": 3218,
      "sem": 3219,
      "De": 3220,
      "Ġdebate": 3221,
      "istro": 3222,
      "Ġsenhor": 3223,
      "Ġprofissional": 3224,
      "ĠRicardo": 3225,
      "Ġep": 3226,
      "Ġvei": 3227,
      "88": 3228,
      "Ġdesses": 3229,
      "Ġpare": 3230,
      "ĠSecretaria": 3231,
      "ĠProf": 3232,
      "Ġrenda": 3233,
      "Ġcac": 3234,
      "ADO": 3235,
      "ĠOh": 3236,
      "tle": 3237,
      "Ġargu": 3238,
      "vale": 3239,
      "Ġchegou": 3240,
      "Ġacaba": 3241,
      "ĠAlves": 3242,
      "Ġautoria": 3243,
      "SE": 3244,
      "ĠHenrique": 3245,
      "Ġhipo": 3246,
      "ĠComple": 3247,
      "eiras": 3248,
      "ĠLEG": 3249,
      "ĠAGRAVO": 3250,
      "Ġcaput": 3251,
      "tenta": 3252,
      "pira": 3253,
      "bras": 3254,
      "Ġdec": 3255,
      "br": 3256,
      "Ġbi": 3257,
      "ntem": 3258,
      "ULO": 3259,
      "ad": 3260,
      "RAN": 3261,
      "Ġnota": 3262,
      "Ġescri": 3263,
      "ĠApro": 3264,
      "deste": 3265,
      "Ġretor": 3266,
      "tividade": 3267,
      "ical": 3268,
      "Ġ#": 3269,
      "Ġmanu": 3270,
      "Ġclaro": 3271,
      "Ġrecebeu": 3272,
      "Ġcuida": 3273,
      "ĠPereira": 3274,
      "ĠOrdem": 3275,
      "dita": 3276,
      "bus": 3277,
      "nciona": 3278,
      "ĠEspecial": 3279,
      "Ġterra": 3280,
      "Ġchamado": 3281,
      "Ġpolic": 3282,
      "Ġtransforma": 3283,
      "ror": 3284,
      "Ġcanc": 3285,
      "Ġpenal": 3286,
      "ĠPSD": 3287,
      "Ġcontrato": 3288,
      "Ġprovimento": 3289,
      "Ġreduz": 3290,
      "Ġhomena": 3291,
      "Ġdirec": 3292,
      "65": 3293,
      "FL": 3294,
      "ĠCONSTITU": 3295,
      "ĠCopa": 3296,
      "Ġcarreira": 3297,
      "III": 3298,
      "Geral": 3299,
      "vens": 3300,
      "Ġrazo": 3301,
      "ĠCidadania": 3302,
      "Ġturno": 3303,
      "ĠPres": 3304,
      "ficiente": 3305,
      "ĠCampeonato": 3306,
      "Ġcontri": 3307,
      "Ġforte": 3308,
      "ĠDEC": 3309,
      "Ġexpressa": 3310,
      "Ġcidades": 3311,
      "ack": 3312,
      "Ġbio": 3313,
      "Ġacima": 3314,
      "Ġdificul": 3315,
      "Ġmento": 3316,
      "CIA": 3317,
      "Ġpore": 3318,
      "Ġtemporada": 3319,
      "Ġresponsabilidade": 3320,
      "Ġtrabalhadores": 3321,
      "dispo": 3322,
      "Ġmenor": 3323,
      "ĠMais": 3324,
      "Ġdeles": 3325,
      "Ġcola": 3326,
      "95": 3327,
      "ĠSA": 3328,
      "ler": 3329,
      "rismo": 3330,
      "Ġcaminho": 3331,
      "Ġdiscurso": 3332,
      "Ġcrite": 3333,
      "Ġtermina": 3334,
      "ura": 3335,
      "Ġhos": 3336,
      "ĠPesso": 3337,
      "ntidade": 3338,
      "nexo": 3339,
      "lin": 3340,
      "ĠDilma": 3341,
      "Ġmeus": 3342,
      "ĠWe": 3343,
      "Ġpauta": 3344,
      "Ġfavora": 3345,
      "Ġimedia": 3346,
      "33": 3347,
      "Ġcrise": 3348,
      "versi": 3349,
      "Ġrealmente": 3350,
      "tindo": 3351,
      "ICAC": 3352,
      "ĠVou": 3353,
      "discussa": 3354,
      "ĠSanto": 3355,
      "ĠBio": 3356,
      "Ġfutebol": 3357,
      "Ca": 3358,
      "ley": 3359,
      "Ġprocedi": 3360,
      "lue": 3361,
      "ĠRJ": 3362,
      "ĠPU": 3363,
      "Ġinternacional": 3364,
      "ÌĤ,": 3365,
      "Ġ37": 3366,
      "ĠZe": 3367,
      "Ġestrutura": 3368,
      "ĠSte": 3369,
      "lias": 3370,
      "Ġpacie": 3371,
      "MENTA": 3372,
      "Ġince": 3373,
      "Ġoportunidade": 3374,
      "Ġtransporte": 3375,
      "Ġassunto": 3376,
      "hn": 3377,
      "97": 3378,
      "Ġgesta": 3379,
      "Ġigual": 3380,
      "cidas": 3381,
      "Ġplano": 3382,
      "ROS": 3383,
      "Ġmarca": 3384,
      "ĠBA": 3385,
      "Ġescrito": 3386,
      "Ġelas": 3387,
      "Ġelimina": 3388,
      "Ġple": 3389,
      "ual": 3390,
      "terna": 3391,
      "Ġpens": 3392,
      "Ġprotec": 3393,
      "rita": 3394,
      "ĠPra": 3395,
      "IDADE": 3396,
      "Ġnessa": 3397,
      "Ġesque": 3398,
      "ĠSistema": 3399,
      "trimo": 3400,
      "ĠRequerimento": 3401,
      "zi": 3402,
      "Ġfreque": 3403,
      "Ġassiste": 3404,
      "nomina": 3405,
      "Ġreli": 3406,
      "Ġcriar": 3407,
      "Ġadmi": 3408,
      "Ġresta": 3409,
      "47": 3410,
      "Ġarre": 3411,
      "ĠProviso": 3412,
      "Ġmaiores": 3413,
      "ĠDECURSO": 3414,
      "ĠXX": 3415,
      "Ġfale": 3416,
      "ticu": 3417,
      "ĠSenadora": 3418,
      "Ġanal": 3419,
      "Ġcompre": 3420,
      "ĠDES": 3421,
      "Ġpersona": 3422,
      "stria": 3423,
      "melha": 3424,
      "esar": 3425,
      "Ġrequis": 3426,
      "ĠCata": 3427,
      "ilha": 3428,
      "Ġinstitu": 3429,
      "2005": 3430,
      "Ġnovas": 3431,
      "ltimos": 3432,
      "ĠMarcelo": 3433,
      "ĠConc": 3434,
      "talha": 3435,
      "Ġiniciativa": 3436,
      "ww": 3437,
      "milia": 3438,
      "ĠSeu": 3439,
      "Ġroma": 3440,
      "minal": 3441,
      "Ġocor": 3442,
      "ĠBanco": 3443,
      "Ġmandato": 3444,
      "Ġrou": 3445,
      "ĠĠ": 3446,
      "Ġsucesso": 3447,
      "Ġconclui": 3448,
      "Ġdeclarac": 3449,
      "46": 3450,
      "tude": 3451,
      "cimentos": 3452,
      "ĠFA": 3453,
      "Ġ1997": 3454,
      "ricultura": 3455,
      "Ġcontribui": 3456,
      "Ġrio": 3457,
      "Ġdeveria": 3458,
      "ĠGerais": 3459,
      "Ġcomunita": 3460,
      "PA": 3461,
      "Ġprofessor": 3462,
      "calizac": 3463,
      "Ġpropor": 3464,
      "ĠPorto": 3465,
      "Ġmediante": 3466,
      "oo": 3467,
      "ĠBahia": 3468,
      "ĠEl": 3469,
      "Ġpossibilidade": 3470,
      "Ġassegu": 3471,
      "ĠEra": 3472,
      "90": 3473,
      "Ġdiversos": 3474,
      "by": 3475,
      "Ġevi": 3476,
      "TIVO": 3477,
      "ĠLima": 3478,
      "ĠCel": 3479,
      "ĠDurante": 3480,
      "oro": 3481,
      "Ġame": 3482,
      "ficas": 3483,
      "mac": 3484,
      "ĠJorge": 3485,
      "jui": 3486,
      "ĠAdministrac": 3487,
      "Ġrecor": 3488,
      "dovia": 3489,
      "ĠMer": 3490,
      "ld": 3491,
      "Ġ................": 3492,
      "Ġguerra": 3493,
      "Ġinteressa": 3494,
      "Ġexame": 3495,
      "Ġhomens": 3496,
      "Ġatendimento": 3497,
      "Ġincluindo": 3498,
      "Ġreduc": 3499,
      "tino": 3500,
      "Ġcorrespo": 3501,
      "Ġreque": 3502,
      "Ġobrigato": 3503,
      "EM": 3504,
      "Ġservidores": 3505,
      "Ġcoloca": 3506,
      "ĠOR": 3507,
      "ĠMal": 3508,
      "ĠFaz": 3509,
      "Ġefeitos": 3510,
      "rupc": 3511,
      "Ġon": 3512,
      "Ġnenhuma": 3513,
      "dicidade": 3514,
      "ĠMundial": 3515,
      "tbP": 3516,
      "ĠMedida": 3517,
      "socia": 3518,
      "Ġmodelo": 3519,
      "ICO": 3520,
      "riamente": 3521,
      "Ġextre": 3522,
      "Ġproviso": 3523,
      "Ġexecutar": 3524,
      "tei": 3525,
      "\",\"": 3526,
      "cta": 3527,
      "Ġdiversas": 3528,
      "ĠPAULO": 3529,
      "2019": 3530,
      "Ġfase": 3531,
      "Ġfutu": 3532,
      "Ġusua": 3533,
      "bera": 3534,
      "Ġadequa": 3535,
      "ks": 3536,
      "Ġsuple": 3537,
      "rescenta": 3538,
      "Ġprofissionais": 3539,
      "ĠFla": 3540,
      "Ġgene": 3541,
      "Ġchegar": 3542,
      "ĠBor": 3543,
      "ĠCan": 3544,
      "ĠâĢĺ": 3545,
      "ĠInternacional": 3546,
      "ĠMendes": 3547,
      "Ġcapa": 3548,
      "Ġnega": 3549,
      "ĠBrasileira": 3550,
      "Ġgaro": 3551,
      "ĠFina": 3552,
      "ĠConce": 3553,
      "Ġprepa": 3554,
      "Ġembar": 3555,
      "Ġassina": 3556,
      "ĠAndre": 3557,
      "Ġnaque": 3558,
      "Ġgostaria": 3559,
      "Ġparla": 3560,
      "ruz": 3561,
      "Ġalcanc": 3562,
      "Ġuna": 3563,
      "zinha": 3564,
      "ĠMINISTRO": 3565,
      "Ġaero": 3566,
      "Ġmensa": 3567,
      "nior": 3568,
      "DES": 3569,
      "Ġautor": 3570,
      "Ġconstitucionalidade": 3571,
      "Ġrefle": 3572,
      "No": 3573,
      "CU": 3574,
      "Ġcapacidade": 3575,
      "Ġlice": 3576,
      "Ġfins": 3577,
      "Ġaqueles": 3578,
      "ĠTudo": 3579,
      "ĠFEDE": 3580,
      "nstitucional": 3581,
      "Ġora": 3582,
      "uco": 3583,
      "ĠNesse": 3584,
      "gido": 3585,
      "Ġ1999": 3586,
      "Ġfilhos": 3587,
      "Ġreprese": 3588,
      "Ġsubme": 3589,
      "Ġsenho": 3590,
      "tiu": 3591,
      "ĠParana": 3592,
      "ĠGre": 3593,
      "Ġefeito": 3594,
      "ĠJul": 3595,
      "tua": 3596,
      "ĠAinda": 3597,
      "mble": 3598,
      "Ġ60": 3599,
      "ĠSRA": 3600,
      "ĠSubs": 3601,
      "Ġ45": 3602,
      "96": 3603,
      "gus": 3604,
      "Ġsoluc": 3605,
      "ĠAmb": 3606,
      "40": 3607,
      "Ġdoenc": 3608,
      "ISLA": 3609,
      "Ġmanter": 3610,
      "2017": 3611,
      "Ġaltera": 3612,
      "ĠSesso": 3613,
      "ndic": 3614,
      "Ġprogramas": 3615,
      "Ġexige": 3616,
      "85": 3617,
      "Ġsubstituic": 3618,
      "Ġmus": 3619,
      "Ġentidades": 3620,
      "Ġimportantes": 3621,
      "Ġconstante": 3622,
      "Ġpote": 3623,
      "ĠAta": 3624,
      "emin": 3625,
      "Ġliberdade": 3626,
      "ĠADV": 3627,
      "Ġdela": 3628,
      "ĠPm": 3629,
      "Ġfiz": 3630,
      "Ġaudie": 3631,
      "ĠComisso": 3632,
      "ĠAC": 3633,
      "VIS": 3634,
      "giu": 3635,
      "ĠAcho": 3636,
      "Ġlide": 3637,
      "ĠLEGISLA": 3638,
      "til": 3639,
      "bel": 3640,
      "Es": 3641,
      "Ġaquele": 3642,
      "RADO": 3643,
      "Ġamigo": 3644,
      "Ġjustifica": 3645,
      "Ġsuj": 3646,
      "Ġadministrac": 3647,
      "ĠSAN": 3648,
      "Ġamor": 3649,
      "ĠPEC": 3650,
      "Ġvotar": 3651,
      "Ġcele": 3652,
      "ĠFundo": 3653,
      "mentais": 3654,
      "Ġlivre": 3655,
      "segu": 3656,
      "Ġmaterial": 3657,
      "gno": 3658,
      "duais": 3659,
      "Ġmovimento": 3660,
      "ĠAss": 3661,
      "au": 3662,
      "Ġbenefic": 3663,
      "ĠQui": 3664,
      "Ġapresentac": 3665,
      "ĠHar": 3666,
      "ĠDEPU": 3667,
      "Ġevide": 3668,
      "Ġcrescimento": 3669,
      "Ġpaga": 3670,
      "Ġconve": 3671,
      "Ġdifi": 3672,
      "voluc": 3673,
      "Ġatos": 3674,
      "ORDINA": 3675,
      "ĠWa": 3676,
      "mpea": 3677,
      "Ġvito": 3678,
      "tel": 3679,
      "Ġmilita": 3680,
      "ĠWikipe": 3681,
      "ntivo": 3682,
      "Ġrestri": 3683,
      "!!": 3684,
      "Ġautorizac": 3685,
      "vera": 3686,
      "ĠCampos": 3687,
      "ĠEXTRAORDINA": 3688,
      "ARDO": 3689,
      "IR": 3690,
      "Ġ33": 3691,
      "Ġcivil": 3692,
      "it": 3693,
      "ĠRosa": 3694,
      "Ġtais": 3695,
      "SS": 3696,
      "gular": 3697,
      "Ġ01": 3698,
      "ĠPmdbP": 3699,
      "Ġestavam": 3700,
      "tur": 3701,
      "cip": 3702,
      "Ġause": 3703,
      "ĠLt": 3704,
      "Ġevento": 3705,
      "uri": 3706,
      "Ġfundamental": 3707,
      "pou": 3708,
      "Ġcampanha": 3709,
      "Ġenvia": 3710,
      "Ġmilitar": 3711,
      "Ġpresentes": 3712,
      "Ġmuita": 3713,
      "Ġconsumi": 3714,
      "ĠChina": 3715,
      "ven": 3716,
      "rcito": 3717,
      "ĠAde": 3718,
      "tinho": 3719,
      "Ġ36": 3720,
      "tivesse": 3721,
      "ĠGlo": 3722,
      "Ġsof": 3723,
      "Ġningue": 3724,
      "our": 3725,
      "ĠPARA": 3726,
      "Ġzo": 3727,
      "Ġprestac": 3728,
      "Ġanda": 3729,
      "Ġopin": 3730,
      "ĠTodos": 3731,
      "DU": 3732,
      "oria": 3733,
      "Ġconvo": 3734,
      "ventu": 3735,
      "grac": 3736,
      "Ġrisco": 3737,
      "ĠRos": 3738,
      "Ġderro": 3739,
      "eni": 3740,
      "Ġtratamento": 3741,
      "seu": 3742,
      "Ġatuac": 3743,
      "Ġvisita": 3744,
      "ĠLui": 3745,
      "Ġfamilia": 3746,
      "Ġdiante": 3747,
      "Ġcentro": 3748,
      "EIRO": 3749,
      "ngua": 3750,
      "Ġafas": 3751,
      "rizac": 3752,
      "Ġaparece": 3753,
      "Ġ38": 3754,
      "Ġnatural": 3755,
      "ĠTUR": 3756,
      "hes": 3757,
      "Ġsonora": 3758,
      "Ġespecialmente": 3759,
      "ĠMeu": 3760,
      "Ġ&": 3761,
      "eix": 3762,
      "pare": 3763,
      "HOR": 3764,
      "tero": 3765,
      "bli": 3766,
      "Ġcorresponde": 3767,
      "bres": 3768,
      "vidos": 3769,
      "ĠEdi": 3770,
      "Ġpreve": 3771,
      "iana": 3772,
      "Ġemendas": 3773,
      "Ġmissa": 3774,
      "2006": 3775,
      "ĠInc": 3776,
      "mado": 3777,
      "Na": 3778,
      "ĠQual": 3779,
      "ĠAca": 3780,
      "ĠVossa": 3781,
      "iano": 3782,
      "Ġfer": 3783,
      "ĠFunda": 3784,
      "ĠFEDERAL": 3785,
      "ĠLtda": 3786,
      "Ġcombate": 3787,
      "Ġcontar": 3788,
      "ĠTemer": 3789,
      "Ro": 3790,
      "zada": 3791,
      "Ġpreside": 3792,
      "rin": 3793,
      "misso": 3794,
      "Ġcomum": 3795,
      "Ġcabec": 3796,
      "ĠTURMA": 3797,
      "vadas": 3798,
      "Ġmonta": 3799,
      "aco": 3800,
      "ĠPal": 3801,
      "micos": 3802,
      "Ġexperie": 3803,
      "solu": 3804,
      "Ġfinanceira": 3805,
      "Ġconteu": 3806,
      "IX": 3807,
      "Ġdimin": 3808,
      "Ġpronunciamento": 3809,
      "ustri": 3810,
      "ĠCome": 3811,
      "Ġimpla": 3812,
      "ĠCultura": 3813,
      "ĠDOS": 3814,
      "ĠRibeiro": 3815,
      "ĠCONTRA": 3816,
      "ĠAlexan": 3817,
      "riais": 3818,
      "ĠSta": 3819,
      "Ġeventu": 3820,
      "quac": 3821,
      "ĠSuperior": 3822,
      "trica": 3823,
      "PP": 3824,
      "75": 3825,
      "ĠHoje": 3826,
      "cies": 3827,
      "Ġcurso": 3828,
      "Ġsofre": 3829,
      "Ġdeba": 3830,
      "ĠCentro": 3831,
      "Ġino": 3832,
      "Ġconvida": 3833,
      "Ġambiente": 3834,
      "pido": 3835,
      "sicas": 3836,
      "Ġpartida": 3837,
      "Ġsab": 3838,
      "Ġdessas": 3839,
      "Ġtitular": 3840,
      "Ġvolu": 3841,
      "ĠRel": 3842,
      "rec": 3843,
      "ren": 3844,
      "Ġprisa": 3845,
      "ĠSENHOR": 3846,
      "Ġbastante": 3847,
      "ĠKo": 3848,
      "Ġnovamente": 3849,
      "ĠTenho": 3850,
      "Ġapresentar": 3851,
      "tulos": 3852,
      "Ġusar": 3853,
      "Ġindu": 3854,
      "Ġ55": 3855,
      "Ġ................................................................................................": 3856,
      "Ġaspec": 3857,
      "Ġmilha": 3858,
      "Ġcienti": 3859,
      "'s": 3860,
      "Ġajudar": 3861,
      "Ġdestaque": 3862,
      "Ġadvo": 3863,
      "Ġmic": 3864,
      "Ġtermo": 3865,
      "Ġ32": 3866,
      "ĠBen": 3867,
      "Ġmoder": 3868,
      "Ġamplia": 3869,
      "Ġcomunidade": 3870,
      "Ġescla": 3871,
      "ĠVoto": 3872,
      "Ġles": 3873,
      "Ġtecnologia": 3874,
      "ĠDani": 3875,
      "metros": 3876,
      "ĠParlamentar": 3877,
      "Ġideia": 3878,
      "ĠIgreja": 3879,
      "Ġjovens": 3880,
      "Ġcob": 3881,
      "Ġincide": 3882,
      "Ġinstalac": 3883,
      "ĠSegunda": 3884,
      "cente": 3885,
      "Ġquis": 3886,
      "Ġhon": 3887,
      "ĠDireito": 3888,
      "ĠMonte": 3889,
      "fu": 3890,
      "Ġ1996": 3891,
      "ĠâĢĵ,": 3892,
      "ressa": 3893,
      "CA": 3894,
      "tence": 3895,
      "ficado": 3896,
      "Ġconstitui": 3897,
      "Ġexte": 3898,
      "âĢĲ": 3899,
      "CI": 3900,
      "inema": 3901,
      "Ġprofesso": 3902,
      "Ġepiso": 3903,
      "Ġalema": 3904,
      "ĠPOR": 3905,
      "Ġfundo": 3906,
      "Ìĥ,": 3907,
      "BE": 3908,
      "ĠImpe": 3909,
      "Ġresposta": 3910,
      "Ġfuturo": 3911,
      "Ġsente": 3912,
      "land": 3913,
      "Ġespa": 3914,
      "ĠGO": 3915,
      "Ġquesto": 3916,
      "Ġcumprimento": 3917,
      "Presidente": 3918,
      "ssimo": 3919,
      "guas": 3920,
      "Ġtelefo": 3921,
      "Ġafirmou": 3922,
      "TOS": 3923,
      "eitos": 3924,
      "ĠTO": 3925,
      "Ġcuja": 3926,
      "Ġfatos": 3927,
      "Ġclube": 3928,
      "arte": 3929,
      "ĠRoma": 3930,
      "Ġentende": 3931,
      "gan": 3932,
      "68": 3933,
      "pp": 3934,
      "Ġrealidade": 3935,
      "Ġmente": 3936,
      "Ġjuridicidade": 3937,
      "ncer": 3938,
      "lhi": 3939,
      "ĠAlgu": 3940,
      "rude": 3941,
      "ĠContra": 3942,
      "gais": 3943,
      "et": 3944,
      "Ġalta": 3945,
      "Ġdenu": 3946,
      "Ġflores": 3947,
      "ĠAqui": 3948,
      "ĠTre": 3949,
      "ĠREG": 3950,
      "Ġinstitui": 3951,
      "Ġregras": 3952,
      "Ġmora": 3953,
      "ĠMartin": 3954,
      "Ġprejui": 3955,
      "Ġagrade": 3956,
      "ĠBru": 3957,
      "Ġportugue": 3958,
      "LOS": 3959,
      "ĠHer": 3960,
      "Ġpassar": 3961,
      "Ġcompor": 3962,
      "ĠPaul": 3963,
      "Ġgarantir": 3964,
      "Ġprimeiros": 3965,
      "ĠGros": 3966,
      "nsito": 3967,
      "--": 3968,
      "ĠEuropa": 3969,
      "Ġpequeno": 3970,
      "Ġgrupos": 3971,
      "Ġdro": 3972,
      "ach": 3973,
      "Ġjogos": 3974,
      "Ġmodi": 3975,
      "Ġdenomina": 3976,
      "Ġobrigac": 3977,
      "MS": 3978,
      "partamento": 3979,
      "Ġnobre": 3980,
      "32": 3981,
      "Ġdeixou": 3982,
      "rgio": 3983,
      "Ġimpor": 3984,
      "Ġporta": 3985,
      "ĠTerra": 3986,
      "Ġarts": 3987,
      "nciou": 3988,
      "lmente": 3989,
      "Ġimpre": 3990,
      "Ġgol": 3991,
      "Sa": 3992,
      "Ġdesignado": 3993,
      "lizar": 3994,
      "Ġsair": 3995,
      "Ġfiscal": 3996,
      "ĠJUS": 3997,
      "ĠUS": 3998,
      "Ġlibe": 3999,
      "Ġesteja": 4000,
      "Ġafe": 4001,
      "portes": 4002,
      "Ġcoorde": 4003,
      "ĠDEPUTADO": 4004,
      "lP": 4005,
      "xas": 4006,
      "nsta": 4007,
      "Ġinflue": 4008,
      "pus": 4009,
      "gura": 4010,
      "ĠSar": 4011,
      "Ġfecha": 4012,
      "ell": 4013,
      "vie": 4014,
      "Ġdefici": 4015,
      "ĠFis": 4016,
      "Ġestes": 4017,
      "ĠBol": 4018,
      "ĠRS": 4019,
      "Ġtributa": 4020,
      "Ġcargos": 4021,
      "Ġressal": 4022,
      "ĠRelato": 4023,
      "ĠAM": 4024,
      "Ġaconteceu": 4025,
      "Ġtenham": 4026,
      "ĠTemos": 4027,
      "ginas": 4028,
      "ĠOb": 4029,
      "TADA": 4030,
      "ĠPenal": 4031,
      "ĠOrc": 4032,
      "LO": 4033,
      "ĠComplementar": 4034,
      "Ġdesempe": 4035,
      "ĠMinistros": 4036,
      "BI": 4037,
      "ĠEi": 4038,
      "Ġchamada": 4039,
      "Ġrepe": 4040,
      "ĠDIA": 4041,
      "ĠJun": 4042,
      "ĠJohn": 4043,
      "ntia": 4044,
      "ĠGovernador": 4045,
      "TES": 4046,
      "lou": 4047,
      "SON": 4048,
      "ĠGeo": 4049,
      "nador": 4050,
      "Ġis": 4051,
      "dado": 4052,
      "Ġtrabalhar": 4053,
      "rope": 4054,
      "Ġcober": 4055,
      "Ġconsiderado": 4056,
      "ham": 4057,
      "ĠJOS": 4058,
      "Ġposi": 4059,
      "ĠFlo": 4060,
      "ĠReg": 4061,
      "Ġlocais": 4062,
      "ele": 4063,
      "Ġdistribuic": 4064,
      "77": 4065,
      "Ġsho": 4066,
      "Ġcujo": 4067,
      "ĠColo": 4068,
      "Ġencer": 4069,
      "Ġ48": 4070,
      "tadores": 4071,
      "cedentes": 4072,
      "aram": 4073,
      "ntor": 4074,
      "Ġacerca": 4075,
      "nizac": 4076,
      "44": 4077,
      "Ġtrami": 4078,
      "2003": 4079,
      "Ġamigos": 4080,
      "Ġlevar": 4081,
      "pero": 4082,
      "ĠAnexo": 4083,
      "biliza": 4084,
      "Ġseguida": 4085,
      "Ġmenciona": 4086,
      "Ġcento": 4087,
      "ĠComunita": 4088,
      "Ġgoverna": 4089,
      "gios": 4090,
      "ĠZa": 4091,
      "Ġtelevisa": 4092,
      "Ġnoti": 4093,
      "ĠLis": 4094,
      "Ġtratar": 4095,
      "Ġtreina": 4096,
      "ĠGru": 4097,
      "iou": 4098,
      "ĠBom": 4099,
      "tegory": 4100,
      "lidade": 4101,
      "ĠPortaria": 4102,
      "ĠNi": 4103,
      "ĠCerto": 4104,
      "Ġan": 4105,
      "postos": 4106,
      "ntados": 4107,
      "ĠBri": 4108,
      "ĠPs": 4109,
      "REG": 4110,
      "Ġcusto": 4111,
      "Ġestudo": 4112,
      "ĠApre": 4113,
      "Ġelabo": 4114,
      "ĠMato": 4115,
      "31": 4116,
      "ĠSenhores": 4117,
      "tti": 4118,
      "Ġconformidade": 4119,
      "Ġfun": 4120,
      "jas": 4121,
      "Ġpartes": 4122,
      "erta": 4123,
      "Ġsuspe": 4124,
      "Ġbre": 4125,
      "nero": 4126,
      "ĠCN": 4127,
      "ĠGar": 4128,
      "Ġabsolu": 4129,
      "GL": 4130,
      "Ġgre": 4131,
      "guesa": 4132,
      "zinho": 4133,
      "zou": 4134,
      "UA": 4135,
      "unos": 4136,
      "meros": 4137,
      "lito": 4138,
      "Ġcena": 4139,
      "dicos": 4140,
      "Ġimo": 4141,
      "istemas": 4142,
      "ĠAPR": 4143,
      "Ġdete": 4144,
      "ima": 4145,
      "ELO": 4146,
      "reta": 4147,
      "Ġestabelece": 4148,
      "ticular": 4149,
      "Ġcrimes": 4150,
      "Ġreside": 4151,
      "Ġesforc": 4152,
      "Ġmanutenc": 4153,
      "ĠConstitu": 4154,
      "Ġordina": 4155,
      "Ġcita": 4156,
      "Ġprocessos": 4157,
      "Ġvisto": 4158,
      "Ġocas": 4159,
      "Ġbens": 4160,
      "istos": 4161,
      "Ġterceiro": 4162,
      "Ġcomu": 4163,
      "adas": 4164,
      "mericana": 4165,
      "Ġteste": 4166,
      "wn": 4167,
      "lub": 4168,
      "Ġdocumentos": 4169,
      "Lei": 4170,
      "Ġtraz": 4171,
      "Ġpopular": 4172,
      "Ġtalvez": 4173,
      "cados": 4174,
      "Ġpalavras": 4175,
      "ĠMG": 4176,
      "Ġopera": 4177,
      "ĠSEG": 4178,
      "Ġprevisto": 4179,
      "Ġreceber": 4180,
      "ĠTele": 4181,
      "ĠTrata": 4182,
      "hs": 4183,
      "Ġinvestigac": 4184,
      "quei": 4185,
      "gando": 4186,
      "veram": 4187,
      "ĠPROC": 4188,
      "Ġencontro": 4189,
      "Ġimpac": 4190,
      "ĠPetro": 4191,
      "Ġproferi": 4192,
      "ĠLou": 4193,
      "Ġcategoria": 4194,
      "EX": 4195,
      "Ġentendimento": 4196,
      "Ġirre": 4197,
      "Ġfoto": 4198,
      "ĠAlema": 4199,
      "Ġapu": 4200,
      "Ġadqui": 4201,
      "ĠOfi": 4202,
      "judica": 4203,
      "ĠAssu": 4204,
      "cidade": 4205,
      "ĠPER": 4206,
      "Ġdisposic": 4207,
      "Ġescolas": 4208,
      "55": 4209,
      "Of": 4210,
      "Ġrealizado": 4211,
      "Ġabertura": 4212,
      "Ġ*": 4213,
      "dicia": 4214,
      "Ġgerac": 4215,
      "94": 4216,
      "ĠMor": 4217,
      "ĠCentral": 4218,
      "fer": 4219,
      "vid": 4220,
      "Ġencontrar": 4221,
      "Ġira": 4222,
      "ĠAlme": 4223,
      "gna": 4224,
      "uni": 4225,
      "Ġveio": 4226,
      "ĠBiblio": 4227,
      "Ġautoridade": 4228,
      "ĠAugus": 4229,
      "Ġentidade": 4230,
      "Ġinti": 4231,
      "lipe": 4232,
      "Ġalia": 4233,
      "67": 4234,
      "ĠPorque": 4235,
      "ĠSenhora": 4236,
      "ban": 4237,
      "Ġx": 4238,
      "Ġdefen": 4239,
      "RJ": 4240,
      "Ġind": 4241,
      "mbra": 4242,
      "ĠOla": 4243,
      "ĠEspa": 4244,
      "Ġinclusa": 4245,
      "ĠNel": 4246,
      "Ġvoltar": 4247,
      "Ġorde": 4248,
      "Ġbranc": 4249,
      "ĠPROPOSIC": 4250,
      "erge": 4251,
      "Ġfilha": 4252,
      "valho": 4253,
      "lie": 4254,
      "nita": 4255,
      "Ġglo": 4256,
      "ST": 4257,
      "hado": 4258,
      "ĠProcesso": 4259,
      "Ġoito": 4260,
      "Ġmelhores": 4261,
      "ĠJOSE": 4262,
      "bert": 4263,
      "Ġurba": 4264,
      "Ġmanifestac": 4265,
      "ĠSouza": 4266,
      "boa": 4267,
      "inos": 4268,
      "2004": 4269,
      "Ġblo": 4270,
      "Ġregio": 4271,
      "ĠDJe": 4272,
      "ĠLocalidades": 4273,
      "ĠVir": 4274,
      "ĠCelso": 4275,
      "ĠApoio": 4276,
      "Ġaprovada": 4277,
      "Ġperto": 4278,
      "Ġemprego": 4279,
      "Ġgarantia": 4280,
      "aca": 4281,
      "ĠBas": 4282,
      "Ġinfa": 4283,
      "Ġ1991": 4284,
      "Ġdizendo": 4285,
      "NO": 4286,
      "Ġcolocar": 4287,
      "ĠAp": 4288,
      "ĠJes": 4289,
      "ĠGomes": 4290,
      "ĠRICD": 4291,
      "Ġ[": 4292,
      "logo": 4293,
      "Ġabs": 4294,
      "Ġeta": 4295,
      "Ġtribuna": 4296,
      "ervac": 4297,
      "Ġestudos": 4298,
      "pesar": 4299,
      "Ġinstrumento": 4300,
      "vamente": 4301,
      "ĠMunicipal": 4302,
      "ĠGrosso": 4303,
      "ĠLopes": 4304,
      "Ġmovi": 4305,
      "Ġacide": 4306,
      "terra": 4307,
      "sio": 4308,
      "Ġutilizac": 4309,
      "BERTO": 4310,
      "Ġmeca": 4311,
      "Ġprio": 4312,
      "ĠUN": 4313,
      "Ġalto": 4314,
      "iam": 4315,
      "Ġacontece": 4316,
      "ĠMinistra": 4317,
      "Ġhumanos": 4318,
      "Ġameac": 4319,
      "centes": 4320,
      "ĠPrimeiro": 4321,
      "...)": 4322,
      "Ġapesar": 4323,
      "Ġfazem": 4324,
      "Ġmilitares": 4325,
      "Ġganha": 4326,
      "ĠRocha": 4327,
      "RAS": 4328,
      "rer": 4329,
      "ntina": 4330,
      "ĠSubstitutivo": 4331,
      "Ġtaxa": 4332,
      "Ġabor": 4333,
      "sc": 4334,
      "lei": 4335,
      "Ġ1995": 4336,
      "pone": 4337,
      "Ġunani": 4338,
      "tais": 4339,
      "Ġmundial": 4340,
      "jeic": 4341,
      "ĠAsse": 4342,
      "Ġdiretor": 4343,
      "Ġcondu": 4344,
      "my": 4345,
      "riza": 4346,
      "Ġvale": 4347,
      "Ġconsegui": 4348,
      "itas": 4349,
      "Ġentrar": 4350,
      "ntamente": 4351,
      "Ġdista": 4352,
      "Ġaprove": 4353,
      "Ġposterior": 4354,
      "nan": 4355,
      "Ġconseguiu": 4356,
      "ms": 4357,
      "ladas": 4358,
      "Ġindicac": 4359,
      "van": 4360,
      "Ġmetros": 4361,
      "Ġresultados": 4362,
      "Ġgi": 4363,
      "Ġconsul": 4364,
      "Ġ70": 4365,
      "ĠCatarina": 4366,
      "Ġacabou": 4367,
      "Ġmicro": 4368,
      "ĠParlamentares": 4369,
      "ĠSerra": 4370,
      "Ġnossas": 4371,
      "Ġavaliac": 4372,
      "Ġganho": 4373,
      "Ġdado": 4374,
      "Ġconhecida": 4375,
      "ĠLista": 4376,
      "len": 4377,
      "Ġjovem": 4378,
      "ĠLide": 4379,
      "Pausa": 4380,
      "Ġquali": 4381,
      "ĠDou": 4382,
      "frica": 4383,
      "hei": 4384,
      "Ġcompetic": 4385,
      "Ġacei": 4386,
      "Ġalunos": 4387,
      "tuto": 4388,
      "Ġarte": 4389,
      "ron": 4390,
      "Ġfalando": 4391,
      "Ġexclusividade": 4392,
      "ĠVeja": 4393,
      "ĠIM": 4394,
      "talia": 4395,
      "Ġaquela": 4396,
      "ork": 4397,
      "Ġunidades": 4398,
      "Ġinvestimentos": 4399,
      "Ġurge": 4400,
      "ĠJO": 4401,
      "Ġdiferenc": 4402,
      "Ġofe": 4403,
      "ill": 4404,
      "Ġimple": 4405,
      "Ġinse": 4406,
      "Ġoutorga": 4407,
      "Ġexpor": 4408,
      "ĠRegis": 4409,
      "deo": 4410,
      "Ġampla": 4411,
      "nciais": 4412,
      "Ġdaqui": 4413,
      "ĠDep": 4414,
      "ĠIng": 4415,
      "tudo": 4416,
      "sado": 4417,
      "mune": 4418,
      "Ġsuge": 4419,
      "ĠAi": 4420,
      "Ġremo": 4421,
      "ĠLUIZ": 4422,
      "ĠVol": 4423,
      "Ġconfia": 4424,
      "mon": 4425,
      "Ġespera": 4426,
      "ĠAcre": 4427,
      "Ġsupe": 4428,
      "urso": 4429,
      "Ġimprensa": 4430,
      "ĠMP": 4431,
      "Ġatribuic": 4432,
      "ĠCONSTITUIC": 4433,
      "doso": 4434,
      "ĠEstamos": 4435,
      "Ġcombi": 4436,
      "Ġanuncia": 4437,
      "ĠAb": 4438,
      "tiona": 4439,
      "Ġrevista": 4440,
      "Ġcho": 4441,
      "ĠCARLOS": 4442,
      "Ġpatrimo": 4443,
      "ED": 4444,
      "Ġdiscutir": 4445,
      "Ġcoo": 4446,
      "ĠAmbie": 4447,
      "RETO": 4448,
      "Ġz": 4449,
      "Ġdada": 4450,
      "idac": 4451,
      "Ġcau": 4452,
      "Ġ119": 4453,
      "Ġilus": 4454,
      "Ġcontas": 4455,
      "jos": 4456,
      "Ġrequisitos": 4457,
      "ĠMaranha": 4458,
      "ington": 4459,
      "Ġapare": 4460,
      "Ġsite": 4461,
      "ĠDESP": 4462,
      "mete": 4463,
      "leza": 4464,
      "Ġestrate": 4465,
      "ĠAlmeida": 4466,
      "ĠApesar": 4467,
      "Ġescu": 4468,
      "87": 4469,
      "Ġbancada": 4470,
      "dura": 4471,
      "lados": 4472,
      "Ġ34": 4473,
      "ĠProcu": 4474,
      "sse": 4475,
      "ntil": 4476,
      "Ġluz": 4477,
      "Ġapensa": 4478,
      "gro": 4479,
      "rino": 4480,
      "ĠFiguei": 4481,
      "ĠHuma": 4482,
      "deres": 4483,
      "ĠUSP": 4484,
      "Ġcomigo": 4485,
      "ĠRei": 4486,
      "ĠMEN": 4487,
      "Ġtornar": 4488,
      "Ġâ": 4489,
      "Ġexatamente": 4490,
      "dici": 4491,
      "Ġparticipar": 4492,
      "iclo": 4493,
      "ĠART": 4494,
      "ĠAla": 4495,
      "Ġcomissa": 4496,
      "ĠCont": 4497,
      "Ġespecifica": 4498,
      "ĠRodrigues": 4499,
      "hur": 4500,
      "91": 4501,
      "dim": 4502,
      "tta": 4503,
      "beas": 4504,
      "Ġcia": 4505,
      "ĠCP": 4506,
      "Ġalterna": 4507,
      "ĠEr": 4508,
      "%.": 4509,
      "minou": 4510,
      "Ġrodovia": 4511,
      "Ġmotivo": 4512,
      "ĠPes": 4513,
      "Ġbeneficia": 4514,
      "Ġdiferente": 4515,
      "RU": 4516,
      "Ġcarta": 4517,
      "ĠMO": 4518,
      "Ġnes": 4519,
      "yo": 4520,
      "Ġdireta": 4521,
      "ĠPapa": 4522,
      "han": 4523,
      "tese": 4524,
      "Ġhaver": 4525,
      "Ġhaja": 4526,
      "Ġquilo": 4527,
      "%,": 4528,
      "Ġparticular": 4529,
      "bine": 4530,
      "Ġconseque": 4531,
      "Ġsustenta": 4532,
      "Ġconsidera": 4533,
      "Ġbaixo": 4534,
      "ĠFami": 4535,
      "ĠRodrigo": 4536,
      "Ġves": 4537,
      "ĠAh": 4538,
      "Ġpertence": 4539,
      "estrutura": 4540,
      "prude": 4541,
      "Ġpais": 4542,
      "Ġsubstitu": 4543,
      "Ġpermissa": 4544,
      "Ġdistribui": 4545,
      "namb": 4546,
      "ĠNew": 4547,
      "ĠOnde": 4548,
      "porto": 4549,
      "Ġ80": 4550,
      "ĠFica": 4551,
      "Apensado": 4552,
      "lon": 4553,
      "ĠPrevide": 4554,
      "Ġdevida": 4555,
      "enos": 4556,
      "Ġsuficiente": 4557,
      "nhos": 4558,
      "ĠLideranc": 4559,
      "ĠCarvalho": 4560,
      "atro": 4561,
      "Ġorientac": 4562,
      "Ġcarro": 4563,
      "sibilidade": 4564,
      "ok": 4565,
      "tador": 4566,
      "Ġassocia": 4567,
      "cadas": 4568,
      "Ġfronte": 4569,
      "Ġpros": 4570,
      "minar": 4571,
      "ndido": 4572,
      "nardo": 4573,
      "ÌĦ": 4574,
      "Ġvaria": 4575,
      "Ġcapita": 4576,
      "Ġrejeic": 4577,
      "Ġfixa": 4578,
      "Ag": 4579,
      "ĠRegia": 4580,
      "ers": 4581,
      "Ġremune": 4582,
      "Ġbair": 4583,
      "ĠAge": 4584,
      "Ġalu": 4585,
      "Ġdivi": 4586,
      "Ġobs": 4587,
      "ULA": 4588,
      "ĠConcedo": 4589,
      "((": 4590,
      "ĠAugusto": 4591,
      "enha": 4592,
      "Ġpropostas": 4593,
      "Ġtradic": 4594,
      "ĠRECE": 4595,
      "Ġestadual": 4596,
      "Ġpublicado": 4597,
      "TON": 4598,
      "ĠEscola": 4599,
      "Ġdiscip": 4600,
      "ĠTeix": 4601,
      "Ġontem": 4602,
      "Ġobserva": 4603,
      "cua": 4604,
      "Ġaproxi": 4605,
      "Ġlegais": 4606,
      "ĠJudicia": 4607,
      "zio": 4608,
      "Ġcorrupc": 4609,
      "ĠNordeste": 4610,
      "ridos": 4611,
      "line": 4612,
      "Ġentrega": 4613,
      "ramente": 4614,
      "Ġestrang": 4615,
      "Ġdigi": 4616,
      "ĠPia": 4617,
      "Ġvive": 4618,
      "Ġseguir": 4619,
      "Ġministro": 4620,
      "ĠEstadual": 4621,
      "quim": 4622,
      "Ġambos": 4623,
      "ĠChar": 4624,
      "cante": 4625,
      "ĠMarcos": 4626,
      "Ġpossam": 4627,
      "Ġinterior": 4628,
      "Ġsomos": 4629,
      "Ġsemelha": 4630,
      "Ġextrema": 4631,
      "ĠRIO": 4632,
      "nie": 4633,
      "istir": 4634,
      "ĠFigueiredo": 4635,
      "Ġaprova": 4636,
      "Ġocorreu": 4637,
      "Ġ47": 4638,
      "2018": 4639,
      "ĠBR": 4640,
      "Ġautoridades": 4641,
      "Ġconquista": 4642,
      "ĠCruz": 4643,
      "ĠNelson": 4644,
      "cc": 4645,
      "Ġtoma": 4646,
      "Ġconhece": 4647,
      "ĠSeguranc": 4648,
      "tualmente": 4649,
      "Ġaprecia": 4650,
      "pul": 4651,
      "Ġpartidos": 4652,
      "ĠFinanc": 4653,
      "ticamente": 4654,
      "uldade": 4655,
      "ĠSEC": 4656,
      "ME": 4657,
      "GU": 4658,
      "tres": 4659,
      "ĠRi": 4660,
      "Ġrecla": 4661,
      "Ġgeo": 4662,
      "ixas": 4663,
      "radora": 4664,
      "ĠTeixeira": 4665,
      "toria": 4666,
      "Ġdepo": 4667,
      "ĠTri": 4668,
      "Ġfui": 4669,
      "Ġdispositivo": 4670,
      "ĠVan": 4671,
      "jamento": 4672,
      "erto": 4673,
      "ĠReino": 4674,
      "Ġcontinua": 4675,
      "ĠDra": 4676,
      "Ġperda": 4677,
      "Ġhomenagem": 4678,
      "Ġenfrenta": 4679,
      "Ġdra": 4680,
      "Ġconvi": 4681,
      "ĠAO": 4682,
      "Ġcriado": 4683,
      "ĠTalvez": 4684,
      "Ġreleva": 4685,
      "Ġclasse": 4686,
      "culpe": 4687,
      "ĠDECRETO": 4688,
      "Ġgrave": 4689,
      "86": 4690,
      "ĠGui": 4691,
      "Ìģ!": 4692,
      "ntais": 4693,
      "nomia": 4694,
      "Ġcerta": 4695,
      "Ġpagar": 4696,
      "ĠDesde": 4697,
      "Ġ90": 4698,
      "Ġespi": 4699,
      "Ġlicitac": 4700,
      "Ġmemo": 4701,
      "ECIA": 4702,
      "Ġpetro": 4703,
      "Ġ1988": 4704,
      "mpi": 4705,
      "Ġanimais": 4706,
      "ted": 4707,
      "ĠDei": 4708,
      "ĠSera": 4709,
      "ĠFutebol": 4710,
      "RITO": 4711,
      "Ġestac": 4712,
      "ĠArge": 4713,
      "licar": 4714,
      "ĠJU": 4715,
      "ĠPelo": 4716,
      "TIC": 4717,
      "Ġtentar": 4718,
      "tista": 4719,
      "ĠAlberto": 4720,
      "Ġtado": 4721,
      "Ġentrada": 4722,
      "Ġprevista": 4723,
      "Ġrac": 4724,
      "lando": 4725,
      "ĠRELATORA": 4726,
      "Ġrecorre": 4727,
      "RIB": 4728,
      "Ġleis": 4729,
      "Ġdou": 4730,
      "Ġ02": 4731,
      "Ġjurisprude": 4732,
      "Ġelementos": 4733,
      "posa": 4734,
      "Ġquarto": 4735,
      "Ġatende": 4736,
      "Ġprove": 4737,
      "fim": 4738,
      "Ġfederais": 4739,
      "ĠGoia": 4740,
      "ĠBan": 4741,
      "Ġ49": 4742,
      "ĠReso": 4743,
      "Ġevitar": 4744,
      "Ġabaixo": 4745,
      "Ġequipamentos": 4746,
      "Ġdelibe": 4747,
      "ĠPpP": 4748,
      "Ġrealizar": 4749,
      "gadas": 4750,
      "ispo": 4751,
      "Ġfabri": 4752,
      "Ġope": 4753,
      "Ġbate": 4754,
      "Pro": 4755,
      "Ġcru": 4756,
      "NR": 4757,
      "ĠGrupo": 4758,
      "Ġatualmente": 4759,
      "Ġjui": 4760,
      "Ġmanha": 4761,
      "Ġorigina": 4762,
      "Ġjudicial": 4763,
      "Ġproprie": 4764,
      "Ġbaixa": 4765,
      "reitos": 4766,
      "lige": 4767,
      "usse": 4768,
      "Ġdocumento": 4769,
      "LIO": 4770,
      "Ġprovo": 4771,
      "oa": 4772,
      "xx": 4773,
      "Ġprovas": 4774,
      "AgR": 4775,
      "Ġfemin": 4776,
      "Ġusado": 4777,
      "Ġpermite": 4778,
      "Ġfontes": 4779,
      "ua": 4780,
      "Ġlegi": 4781,
      "ĠRelac": 4782,
      "Ġamericano": 4783,
      "Ġaposentado": 4784,
      "micas": 4785,
      "Ġexpres": 4786,
      "ĠEMENDAS": 4787,
      "ĠAlemanha": 4788,
      "Ġcontinuar": 4789,
      "Ġexpa": 4790,
      "ĠSuper": 4791,
      "ĠSessa": 4792,
      "ĠCristo": 4793,
      "TIN": 4794,
      "ĠAure": 4795,
      "FA": 4796,
      "Ġquadro": 4797,
      "ĠBoa": 4798,
      "Ġintro": 4799,
      "Ġadic": 4800,
      "Ġile": 4801,
      "Ġfeliz": 4802,
      "nhar": 4803,
      "ĠOUT": 4804,
      "ĠMundo": 4805,
      "Ġitalia": 4806,
      "Ġexposto": 4807,
      "mem": 4808,
      "Ġcomemo": 4809,
      "Ġproje": 4810,
      "ĠLisboa": 4811,
      "Ġrural": 4812,
      "ĠArti": 4813,
      "taram": 4814,
      "Ġrepu": 4815,
      "Ġvice": 4816,
      "ĠIna": 4817,
      "ĠJesus": 4818,
      "Ġdiretamente": 4819,
      "ĠDiscussa": 4820,
      "Ġinteresses": 4821,
      "Ġcanto": 4822,
      "ĠAlexandre": 4823,
      "Ġdispositivos": 4824,
      "ĠCaval": 4825,
      "Ġsinto": 4826,
      "bos": 4827,
      "Ġprovi": 4828,
      "Ġface": 4829,
      "MG": 4830,
      "ĠOrgani": 4831,
      "ĠMinha": 4832,
      "Ġdeficie": 4833,
      "ĠAssemble": 4834,
      "ĠPCdoB": 4835,
      "Ġassas": 4836,
      "Mar": 4837,
      "guel": 4838,
      "ntura": 4839,
      "Ġdeciso": 4840,
      "Ġpermitir": 4841,
      "ĠPlano": 4842,
      "64": 4843,
      "ĠCorre": 4844,
      "ĠBarb": 4845,
      "fas": 4846,
      "Ġadoles": 4847,
      "ĠRede": 4848,
      "dap": 4849,
      "Ġimagem": 4850,
      "GA": 4851,
      "Ġexplorar": 4852,
      "icidade": 4853,
      "FF": 4854,
      "Ġpreocupac": 4855,
      "iki": 4856,
      "ĠMilitar": 4857,
      "Ġdefende": 4858,
      "ĠArthur": 4859,
      "________________": 4860,
      "Ġtime": 4861,
      "ĠFazenda": 4862,
      "93": 4863,
      "Ġmoda": 4864,
      "Ġtomar": 4865,
      "ĠQUE": 4866,
      "ĠBene": 4867,
      "Ġquarta": 4868,
      "Ġquantidade": 4869,
      "cro": 4870,
      "Ġ1993": 4871,
      "tidas": 4872,
      "ĠGE": 4873,
      "ĠFundac": 4874,
      "Ġmerece": 4875,
      "ĠDireitos": 4876,
      "Ġapresentou": 4877,
      "TAC": 4878,
      "deia": 4879,
      "RAC": 4880,
      "Ġrepresentante": 4881,
      "ĠHi": 4882,
      "Ġdemanda": 4883,
      "ĠCeara": 4884,
      "Ġcompra": 4885,
      "tizac": 4886,
      "ldo": 4887,
      "Ġunivers": 4888,
      "jar": 4889,
      "Ġimagens": 4890,
      "Ġbu": 4891,
      "fac": 4892,
      "ficie": 4893,
      "Ġopinia": 4894,
      "Ġprevide": 4895,
      "Ġdemocracia": 4896,
      "ĠDaniel": 4897,
      "ugu": 4898,
      "Ġsistemas": 4899,
      "ĠLiv": 4900,
      "Ġiso": 4901,
      "Ġarmas": 4902,
      "ĠResoluc": 4903,
      "Ps": 4904,
      "ĠNossa": 4905,
      "ficos": 4906,
      "Ġestabelecer": 4907,
      "Ġ--": 4908,
      "ĠBro": 4909,
      "Ġdando": 4910,
      "inhos": 4911,
      "Ġlocalizada": 4912,
      "ĠParece": 4913,
      "Ġlevou": 4914,
      "Ġetc": 4915,
      "Ġparcial": 4916,
      "ĠDESPAC": 4917,
      "ĠXV": 4918,
      "ĠIns": 4919,
      "Ġeventos": 4920,
      "rir": 4921,
      "Ġcoro": 4922,
      "tca": 4923,
      "ĠLO": 4924,
      "Ġjustic": 4925,
      "todo": 4926,
      "Ġemerge": 4927,
      "Ġconfi": 4928,
      "Ġambiental": 4929,
      "Ġvinte": 4930,
      "Ġconversa": 4931,
      "cle": 4932,
      "TIVA": 4933,
      "we": 4934,
      "Ġexistem": 4935,
      "Ġviu": 4936,
      "ĠMul": 4937,
      "ĠProposic": 4938,
      "Ġregra": 4939,
      "ĠSobre": 4940,
      "Ġae": 4941,
      "ĠAco": 4942,
      "Ġ00": 4943,
      "Ġconsiderac": 4944,
      "ĠAnge": 4945,
      "Ġfonte": 4946,
      "MARA": 4947,
      "Ġfiscalizac": 4948,
      "ĠVista": 4949,
      "ĠDIS": 4950,
      "Ġhavendo": 4951,
      "forme": 4952,
      "Ġmeios": 4953,
      "LE": 4954,
      "Ġamanha": 4955,
      "cando": 4956,
      "Ġtivesse": 4957,
      "mite": 4958,
      "ĠSch": 4959,
      "ploma": 4960,
      "Ġ|": 4961,
      "60": 4962,
      "Ġpaciente": 4963,
      "RS": 4964,
      "ncar": 4965,
      "Ġpequena": 4966,
      "Ġterras": 4967,
      "alo": 4968,
      "icita": 4969,
      "eta": 4970,
      "Ġtemp": 4971,
      "Ġunidade": 4972,
      "ANDO": 4973,
      "GERAL": 4974,
      "Ġjuros": 4975,
      "bur": 4976,
      "Ġrevo": 4977,
      "Ġcresce": 4978,
      "Ġfize": 4979,
      "tcategory": 4980,
      "und": 4981,
      "Ġpretende": 4982,
      "Ġdade": 4983,
      "Ġatender": 4984,
      "ficada": 4985,
      "Ġ58": 4986,
      "ex": 4987,
      ")(": 4988,
      "Ġincor": 4989,
      "den": 4990,
      "Ġ1994": 4991,
      "ĠMaio": 4992,
      "ĠSER": 4993,
      "Ġdescobri": 4994,
      "ntade": 4995,
      "Ġchu": 4996,
      "mal": 4997,
      "Ġlimites": 4998,
      "Ġemba": 4999,
      "Ġlivros": 5000,
      "Ġinve": 5001,
      "blique": 5002,
      "bilidades": 5003,
      "Ġprecisamos": 5004,
      "lor": 5005,
      "ĠVai": 5006,
      "ĠMoreira": 5007,
      "Ġmesa": 5008,
      "ĠParis": 5009,
      "teriores": 5010,
      "ficiais": 5011,
      "sito": 5012,
      "Ġitem": 5013,
      "galha": 5014,
      "gicos": 5015,
      "ĠCOR": 5016,
      "ĠPRB": 5017,
      "Ġcomenta": 5018,
      "Ġferro": 5019,
      "Ġsubstitutivo": 5020,
      "Ġtinham": 5021,
      "ĠSalva": 5022,
      "DF": 5023,
      "ĠChris": 5024,
      "ĠForc": 5025,
      "ĠJogos": 5026,
      "ĠGene": 5027,
      "ĠProjetos": 5028,
      "Ġbrita": 5029,
      "ĠParai": 5030,
      "RES": 5031,
      "Ġminhas": 5032,
      "Ġacredi": 5033,
      "Ġprima": 5034,
      "ĠLEGISLATIVO": 5035,
      "Ġreceita": 5036,
      "Ġ=": 5037,
      "Ġ................................................................................": 5038,
      "ung": 5039,
      "zos": 5040,
      "Ġpedir": 5041,
      "Ġfinanciamento": 5042,
      "Ġaumenta": 5043,
      "Ġ44": 5044,
      "pesas": 5045,
      "minac": 5046,
      "ĠFederac": 5047,
      "Ġcursos": 5048,
      "ĠNada": 5049,
      "ĠDepartamento": 5050,
      "ĠGeraldo": 5051,
      "Ġvirtude": 5052,
      "ĠEspi": 5053,
      "Ġtorno": 5054,
      "Ġabando": 5055,
      "dam": 5056,
      "Ġcandidato": 5057,
      "Ġcorpus": 5058,
      "Ġtiveram": 5059,
      "mul": 5060,
      "ky": 5061,
      "ric": 5062,
      "ĠSin": 5063,
      "tus": 5064,
      "Ġcomercia": 5065,
      "tela": 5066,
      "74": 5067,
      "ĠDel": 5068,
      "sicos": 5069,
      "Ġganhou": 5070,
      "ENA": 5071,
      "Ġpropriedade": 5072,
      "titude": 5073,
      "Ġformas": 5074,
      "Ġagentes": 5075,
      "Ġcap": 5076,
      "Ġvenda": 5077,
      "fil": 5078,
      "Ġnomes": 5079,
      "Ġantiga": 5080,
      "rato": 5081,
      "92": 5082,
      "ft": 5083,
      "ngue": 5084,
      "ĠMichel": 5085,
      "ĠFil": 5086,
      "Ġcomercial": 5087,
      "ĠMos": 5088,
      "ĠINC": 5089,
      "cnolo": 5090,
      "Ġpreocupa": 5091,
      "ĠNeto": 5092,
      "duca": 5093,
      "jei": 5094,
      "Ġceleb": 5095,
      "genas": 5096,
      "estiv": 5097,
      "Ġexe": 5098,
      "ĠPr": 5099,
      "Ġentender": 5100,
      "Ġcontratac": 5101,
      "polis": 5102,
      "damente": 5103,
      "Ġassumi": 5104,
      "Ġvontade": 5105,
      "Ġdecreta": 5106,
      "Ġreper": 5107,
      "Ġagu": 5108,
      "rativa": 5109,
      "telo": 5110,
      "ĠAcor": 5111,
      "Ġmudar": 5112,
      "ĠFER": 5113,
      "ĠAmazonas": 5114,
      "ĠSIL": 5115,
      "Ġconstitucionais": 5116,
      "quisic": 5117,
      "Ġsobrevi": 5118,
      "ĠApe": 5119,
      "ĠEUA": 5120,
      "Ġconcre": 5121,
      "Ġinternacionais": 5122,
      "trizes": 5123,
      "olo": 5124,
      "ĠPernamb": 5125,
      "ĠBarbosa": 5126,
      "ĠJapa": 5127,
      "MI": 5128,
      "Ġpromover": 5129,
      "ĠRegional": 5130,
      "ĠMus": 5131,
      "ĠLegislativa": 5132,
      "ĠPSC": 5133,
      "Ġemi": 5134,
      "Ġsatis": 5135,
      "Ġcima": 5136,
      "Ġeleitoral": 5137,
      "tte": 5138,
      "ĠMagalha": 5139,
      "Ġcorac": 5140,
      "lizmente": 5141,
      "fos": 5142,
      "undo": 5143,
      "iva": 5144,
      "Ġ05": 5145,
      "Ġcro": 5146,
      "ĠAgravo": 5147,
      "feitura": 5148,
      "gador": 5149,
      "ĠAto": 5150,
      "Ġconsumo": 5151,
      "Ġdestrui": 5152,
      "exa": 5153,
      "rimentos": 5154,
      "âĢĵâĢĵâĢĵâĢĵâĢĵâĢĵâĢĵâĢĵ": 5155,
      "ĠParlamento": 5156,
      "Ġcentral": 5157,
      "Ġouvir": 5158,
      "lico": 5159,
      "trado": 5160,
      "Ġcontratos": 5161,
      "ĠMil": 5162,
      "ting": 5163,
      "ĠPRIM": 5164,
      "roga": 5165,
      "ĠLE": 5166,
      "ĠAltera": 5167,
      "ĠIsto": 5168,
      "Ġjuiz": 5169,
      "PRO": 5170,
      "ĠMeio": 5171,
      "Ġreferido": 5172,
      "neta": 5173,
      "Ġpers": 5174,
      "verso": 5175,
      "ntada": 5176,
      "Ġdesempenho": 5177,
      "Ġmedo": 5178,
      "ĠWillia": 5179,
      "est": 5180,
      "ĠBranc": 5181,
      "queiro": 5182,
      "ĠBarros": 5183,
      "lamento": 5184,
      "Ġtransfere": 5185,
      "Ġcampea": 5186,
      "trac": 5187,
      "Ġlicenc": 5188,
      "Ġposto": 5189,
      "Ġdespesas": 5190,
      "Ġnacionais": 5191,
      "Ġ64": 5192,
      "ĠPala": 5193,
      "ĠPRE": 5194,
      "Ġsubsi": 5195,
      "triz": 5196,
      "ĠPartici": 5197,
      "Ġestilo": 5198,
      "nismo": 5199,
      "Ġleitura": 5200,
      "Ġcolabo": 5201,
      "ndice": 5202,
      "osos": 5203,
      "colo": 5204,
      "ndeira": 5205,
      "ntando": 5206,
      "ĠEstu": 5207,
      "Ġ75": 5208,
      "Ġdestinada": 5209,
      "UNDA": 5210,
      "Ġemisso": 5211,
      "Ġ(...)": 5212,
      "Ġsobretudo": 5213,
      "udio": 5214,
      "Ġpasso": 5215,
      "ĠDESPACHO": 5216,
      "ĠJOA": 5217,
      "Ġculpa": 5218,
      "timas": 5219,
      "Ġapresentado": 5220,
      "tim": 5221,
      "igh": 5222,
      "nadas": 5223,
      "ĠDemocra": 5224,
      "Ġopc": 5225,
      "Ġreconhecimento": 5226,
      "Ġcultural": 5227,
      "Ġcinema": 5228,
      "nciado": 5229,
      "Ġprevistas": 5230,
      "ĠCPI": 5231,
      "nsac": 5232,
      "teiro": 5233,
      "ĠFerreira": 5234,
      "Ġexposic": 5235,
      "Ġexplorac": 5236,
      "mbar": 5237,
      "Ġadap": 5238,
      "Ġatribui": 5239,
      "Ġmetade": 5240,
      "ĠConstitucional": 5241,
      "Ġfrance": 5242,
      "ĠNeste": 5243,
      "Ġ65": 5244,
      "MAR": 5245,
      "Ġ04": 5246,
      "ĠPI": 5247,
      "Ġextensa": 5248,
      "binete": 5249,
      "Ġapresentada": 5250,
      "ĠPublique": 5251,
      "ĠCole": 5252,
      "mbora": 5253,
      "Ġilha": 5254,
      "Ġende": 5255,
      "Ġbrasileiras": 5256,
      "Ġdeputado": 5257,
      "ĠLocalidade": 5258,
      "ingle": 5259,
      "Ġq": 5260,
      "ĠArqui": 5261,
      "Ġtris": 5262,
      "nios": 5263,
      "Ġges": 5264,
      "erson": 5265,
      "ĠMc": 5266,
      "cende": 5267,
      "estival": 5268,
      "ĠEva": 5269,
      "Da": 5270,
      "PSB": 5271,
      "ĠAntes": 5272,
      "ĠApreciac": 5273,
      "ĠExe": 5274,
      "Ġ1992": 5275,
      "Ġfamos": 5276,
      "ense": 5277,
      "rimo": 5278,
      "Ġvige": 5279,
      "Ġsexta": 5280,
      "Ġtama": 5281,
      "lla": 5282,
      "ĠFerna": 5283,
      "Ġmulta": 5284,
      "Ġconclusa": 5285,
      "Ġsac": 5286,
      "Ġsubsta": 5287,
      "Ġlimite": 5288,
      "dada": 5289,
      "mbia": 5290,
      "fonso": 5291,
      "Ġfuncionamento": 5292,
      "RADOR": 5293,
      "Ġajus": 5294,
      "nados": 5295,
      "ĠBAR": 5296,
      "Ġmorreu": 5297,
      "Ġconver": 5298,
      "ĠVila": 5299,
      "Ġpersonagem": 5300,
      "dicina": 5301,
      "ĠEspanha": 5302,
      "Ġtende": 5303,
      "Ġveja": 5304,
      "pacho": 5305,
      "Ġforta": 5306,
      "Ġsabia": 5307,
      "Ġantigo": 5308,
      "Ġrui": 5309,
      "ĠOrie": 5310,
      "Ġterceira": 5311,
      "ESEN": 5312,
      "Ġdivisa": 5313,
      "ĠGeor": 5314,
      "ordo": 5315,
      "Ġcontexto": 5316,
      "ĠDeve": 5317,
      "Ġlocalizado": 5318,
      "ustra": 5319,
      "bado": 5320,
      "Ġros": 5321,
      "Ìĥ.": 5322,
      "Ġvivo": 5323,
      "dicas": 5324,
      "Ġcaus": 5325,
      "Ġenor": 5326,
      "Ġflu": 5327,
      "ĠRA": 5328,
      "Ġpublicada": 5329,
      "ĠEnquanto": 5330,
      "ĠMello": 5331,
      "ĠBel": 5332,
      "NU": 5333,
      "PDT": 5334,
      "ĠFolha": 5335,
      "Ġpoliciais": 5336,
      "Ġjogador": 5337,
      "Ġadministrativa": 5338,
      "Ġolha": 5339,
      "cem": 5340,
      "Ġrepresentantes": 5341,
      "feic": 5342,
      "ĠTRIB": 5343,
      "Ġespanho": 5344,
      "ĠINF": 5345,
      "Ġindo": 5346,
      "QUE": 5347,
      "madamente": 5348,
      "ĠSC": 5349,
      "ĠPRIMEIRA": 5350,
      "rizo": 5351,
      "Ġaquilo": 5352,
      "Ġlar": 5353,
      "Ġtemas": 5354,
      "80": 5355,
      "ĠMartins": 5356,
      "inze": 5357,
      "Su": 5358,
      "ĠAGDO": 5359,
      "Ġfilmes": 5360,
      "Ġestudantes": 5361,
      "Ġdaquele": 5362,
      "gui": 5363,
      "ĠDiretor": 5364,
      "ĠEner": 5365,
      "xico": 5366,
      "Ġgrau": 5367,
      "ress": 5368,
      "Ġfogo": 5369,
      "Ġcomando": 5370,
      "ĠESP": 5371,
      "Ġhumano": 5372,
      "Ġconscie": 5373,
      "Ġdispor": 5374,
      "Ġpossu": 5375,
      "nus": 5376,
      "Ġprofessores": 5377,
      "Ġretirada": 5378,
      "ĠPrefeito": 5379,
      "ĠQuanto": 5380,
      "rinho": 5381,
      "Ġprotes": 5382,
      "Ġesposa": 5383,
      "ĠSarney": 5384,
      "Ġcircunsta": 5385,
      "Ġdomin": 5386,
      "ĠCria": 5387,
      "84": 5388,
      "Ġligac": 5389,
      "ĠEmbora": 5390,
      "ĠClaro": 5391,
      "quisas": 5392,
      "Ġ1913": 5393,
      "dindo": 5394,
      "deu": 5395,
      "tz": 5396,
      "ĠCouto": 5397,
      "ĠIr": 5398,
      "isar": 5399,
      "ĠPac": 5400,
      "lau": 5401,
      "Ġfizeram": 5402,
      "ĠOi": 5403,
      "NI": 5404,
      "Ġvanta": 5405,
      "ĠBibliografia": 5406,
      "Ġconfirma": 5407,
      "scP": 5408,
      "Ġreserva": 5409,
      "Ġquinta": 5410,
      "ĠUr": 5411,
      "ĠAB": 5412,
      "Ġgover": 5413,
      "Ġvelo": 5414,
      "ĠVida": 5415,
      "ĠPiaui": 5416,
      "Ġfeitas": 5417,
      "isos": 5418,
      "PTB": 5419,
      "ĠConside": 5420,
      "ĠAgricultura": 5421,
      "Ġinaugu": 5422,
      "Ġinterpretac": 5423,
      "MIN": 5424,
      "Ġcriada": 5425,
      "Ġfaixa": 5426,
      "cto": 5427,
      "Ġrelator": 5428,
      "Ġhonra": 5429,
      "MO": 5430,
      "ĠVieira": 5431,
      "ĠAprova": 5432,
      "ĠVar": 5433,
      "Ġrepresentac": 5434,
      "ĠPernambuco": 5435,
      "Ġdecreto": 5436,
      "ĠProposta": 5437,
      "Ġquerem": 5438,
      "Ġinu": 5439,
      "Ġintenc": 5440,
      "Ġarquite": 5441,
      "Ġselec": 5442,
      "Ġconsiderada": 5443,
      "Ġimpu": 5444,
      "Ġpaz": 5445,
      "ĠTrabalha": 5446,
      "Ġgeralmente": 5447,
      "Ġolhos": 5448,
      "ltra": 5449,
      "Ġincorpo": 5450,
      "Ġcompromisso": 5451,
      "Ġlitera": 5452,
      "lhar": 5453,
      "ĠBal": 5454,
      "hsP": 5455,
      "Ġviolac": 5456,
      "ĠAt": 5457,
      "Ġanteriores": 5458,
      "Ġcrimin": 5459,
      "Ġunanimidade": 5460,
      "ĠYork": 5461,
      "Ġpequ": 5462,
      "Ġmensagem": 5463,
      "Ġvira": 5464,
      "Ġacompan": 5465,
      "ĠClas": 5466,
      "jor": 5467,
      "ĠCultural": 5468,
      "Ġpopula": 5469,
      "ĠEdital": 5470,
      "ĠConstitui": 5471,
      "rinha": 5472,
      "cnicas": 5473,
      "ĠLea": 5474,
      "ĠBez": 5475,
      "76": 5476,
      "Ġpressa": 5477,
      "ĠMachado": 5478,
      "lva": 5479,
      "ĠCapita": 5480,
      "ĠReun": 5481,
      "Car": 5482,
      "cnicos": 5483,
      "Ġjeito": 5484,
      "gam": 5485,
      "cea": 5486,
      "Ġ46": 5487,
      "Ġaspectos": 5488,
      "ĠPFL": 5489,
      "Ġexterior": 5490,
      "ĠDomin": 5491,
      "Ġcent": 5492,
      "Ġpensar": 5493,
      "sticos": 5494,
      "Ġprocura": 5495,
      "ku": 5496,
      "ĠPaim": 5497,
      "Ġpassando": 5498,
      "Ġpotencial": 5499,
      "Me": 5500,
      "70": 5501,
      "Ġescolha": 5502,
      "ĠContro": 5503,
      "Ġmara": 5504,
      "Ġpobre": 5505,
      "Ġconcurso": 5506,
      "Ġfru": 5507,
      "ĠReal": 5508,
      "Ġhabeas": 5509,
      "Ġdanc": 5510,
      "ĠGos": 5511,
      "Ġnasceu": 5512,
      "Ġbol": 5513,
      "irmar": 5514,
      "para": 5515,
      "ĠCandido": 5516,
      "Ġjulgado": 5517,
      "riou": 5518,
      "Ġeurope": 5519,
      "Ġcorri": 5520,
      "bilitac": 5521,
      "ĠCarreira": 5522,
      "TV": 5523,
      "Ġmunicipal": 5524,
      "2020": 5525,
      "ĠLond": 5526,
      "gicas": 5527,
      "ĠKe": 5528,
      "ĠTRA": 5529,
      "Ġdelas": 5530,
      "Ġpror": 5531,
      "umi": 5532,
      "Ġprodutores": 5533,
      "ĠAuto": 5534,
      "Ġequivale": 5535,
      "\"),": 5536,
      "Ġsorte": 5537,
      "Ġpriva": 5538,
      "ĠQuer": 5539,
      "chi": 5540,
      "Ġconseguir": 5541,
      "Ġentrevista": 5542,
      "Ġparticipou": 5543,
      "lizado": 5544,
      "Ġvenci": 5545,
      "Ġapelo": 5546,
      "Ġsuplente": 5547,
      "ntino": 5548,
      "ĠEDU": 5549,
      "Ġ03": 5550,
      "ĠDispo": 5551,
      "ĠFran": 5552,
      "mulo": 5553,
      "Ġespecia": 5554,
      "ĠMauro": 5555,
      "Ġqueda": 5556,
      "ĠRece": 5557,
      "ĠOUTRO": 5558,
      "Ġsuspensa": 5559,
      "ker": 5560,
      "Ġdistrito": 5561,
      "Ġpoucos": 5562,
      "ĠAGTE": 5563,
      "Ġcomanda": 5564,
      "Ġside": 5565,
      "ĠREGI": 5566,
      "89": 5567,
      "Ġtransferi": 5568,
      "igu": 5569,
      "Ġencar": 5570,
      "ĠJoaquim": 5571,
      "Ġposse": 5572,
      "Ġtrou": 5573,
      "sd": 5574,
      "Ġconsumidor": 5575,
      "Ġesquer": 5576,
      "ĠDar": 5577,
      "ĠPrecisa": 5578,
      "Ġincenti": 5579,
      "ĠAli": 5580,
      "ĠAS": 5581,
      "teca": 5582,
      "Ġpercentu": 5583,
      "Ġdescre": 5584,
      "Ġtempos": 5585,
      "ĠFinal": 5586,
      "iado": 5587,
      "Ġouro": 5588,
      "Ġinternet": 5589,
      "Ġregistrar": 5590,
      "Ġ39": 5591,
      "IONAL": 5592,
      "Ġlido": 5593,
      "ĠExcelenti": 5594,
      "rela": 5595,
      "Ġregular": 5596,
      "Ġimpro": 5597,
      "Ġcolegas": 5598,
      "Ġresponde": 5599,
      "Ġofi": 5600,
      "Ġinconstitucional": 5601,
      "Li": 5602,
      "Ġaquisic": 5603,
      "ĠContas": 5604,
      "reo": 5605,
      "Ġclima": 5606,
      "ĠEurope": 5607,
      "ĠAmbiente": 5608,
      "Ġcapaz": 5609,
      "Ġvigo": 5610,
      "formou": 5611,
      "ĠVene": 5612,
      "quina": 5613,
      "Ġdificuldades": 5614,
      "ĠAdo": 5615,
      "Ġcostu": 5616,
      "Ġcomposic": 5617,
      "nista": 5618,
      "ĠMiguel": 5619,
      "ustrial": 5620,
      "usta": 5621,
      "Ġrecebimento": 5622,
      "tinc": 5623,
      "ĠCidade": 5624,
      "dados": 5625,
      "ĠTho": 5626,
      "nima": 5627,
      "def": 5628,
      "MENTAL": 5629,
      "idos": 5630,
      "Ġarrecada": 5631,
      "Ġutilizado": 5632,
      "Ġlonge": 5633,
      "ridades": 5634,
      "Ġaproximadamente": 5635,
      "Ġsent": 5636,
      "Ġimpacto": 5637,
      "Ġfundamento": 5638,
      "Ġgosta": 5639,
      "true": 5640,
      "Ġautoma": 5641,
      "Ġnegociac": 5642,
      "Ġimplantac": 5643,
      "ristas": 5644,
      "Ġvac": 5645,
      "udo": 5646,
      "Ġderi": 5647,
      "Ġ09": 5648,
      "Ġjuntos": 5649,
      "Ġ43": 5650,
      "ncos": 5651,
      "Ġpior": 5652,
      "Ġdisco": 5653,
      "Po": 5654,
      "conc": 5655,
      "Ġplanos": 5656,
      "ĠMesmo": 5657,
      "TER": 5658,
      "Ġprog": 5659,
      "ssia": 5660,
      "rum": 5661,
      "Ġaltura": 5662,
      "Ġencerra": 5663,
      "ĠJar": 5664,
      "ĠVAL": 5665,
      "Ġdedica": 5666,
      "ĠManu": 5667,
      "nP": 5668,
      "con": 5669,
      "Ġprocedimentos": 5670,
      "Ġqueremos": 5671,
      "Ġnave": 5672,
      "Ġestara": 5673,
      "tismo": 5674,
      "bilizar": 5675,
      "ĠPSOL": 5676,
      "Ġdecidiu": 5677,
      "Ġsecreta": 5678,
      "Ġaz": 5679,
      "Ġbairro": 5680,
      "Ġocasia": 5681,
      "Ġabra": 5682,
      "Ġinex": 5683,
      "Ġadia": 5684,
      "turais": 5685,
      "trou": 5686,
      "Ġedito": 5687,
      "Ġler": 5688,
      "lusiva": 5689,
      "ĠInd": 5690,
      "Ġdiploma": 5691,
      "Ġassassi": 5692,
      "guai": 5693,
      "Ġsolida": 5694,
      "Ġinvestimento": 5695,
      "uela": 5696,
      "Ġprocedimento": 5697,
      "Ġfamiliar": 5698,
      "asse": 5699,
      "Ġimposto": 5700,
      "Ġvoz": 5701,
      "Ġexemp": 5702,
      "Ġmoto": 5703,
      "Ġlicitante": 5704,
      "..............": 5705,
      "ĠLeis": 5706,
      "Ġvigorar": 5707,
      "nismos": 5708,
      "ĠChico": 5709,
      "Ġdisputa": 5710,
      "Ġtrazer": 5711,
      "Ġefica": 5712,
      "Ġdefinic": 5713,
      "Ġchefe": 5714,
      "AG": 5715,
      "Ġsentenc": 5716,
      "ick": 5717,
      "ĠMou": 5718,
      "Ġrua": 5719,
      "Ġatle": 5720,
      "Ġtos": 5721,
      "noce": 5722,
      "Ġconcent": 5723,
      "Ġfinanceiro": 5724,
      "Ġquad": 5725,
      "Ġengen": 5726,
      "ĠEng": 5727,
      "Ġmostrar": 5728,
      "ĠMARC": 5729,
      "Ġhttp": 5730,
      "demia": 5731,
      "prios": 5732,
      "Ġreto": 5733,
      "Ġfinalidade": 5734,
      "lizada": 5735,
      "Ġpreso": 5736,
      "SB": 5737,
      "ĠPPS": 5738,
      "Ġdrogas": 5739,
      "ĠEnte": 5740,
      "porta": 5741,
      "ĠUn": 5742,
      "Ġgrac": 5743,
      "Ġusando": 5744,
      "inic": 5745,
      "ĠEmp": 5746,
      "mil": 5747,
      "Ġobte": 5748,
      "Ġnotas": 5749,
      "Ġamo": 5750,
      "LI": 5751,
      "ĠSabe": 5752,
      "Ġconsol": 5753,
      "Ġy": 5754,
      "Ġescreveu": 5755,
      "nsidade": 5756,
      "xos": 5757,
      "ãĤ": 5758,
      "Ġdocumentac": 5759,
      "Ġ56": 5760,
      "ĠREGIMENTAL": 5761,
      "Ġrepercussa": 5762,
      "ĠEsco": 5763,
      "ASE": 5764,
      "Ġrepro": 5765,
      "ncipe": 5766,
      "La": 5767,
      "duos": 5768,
      "Ġacredita": 5769,
      "Ġprevistos": 5770,
      "bilizac": 5771,
      "riano": 5772,
      "Ġ1980": 5773,
      "Ġvoltou": 5774,
      "Ġidio": 5775,
      "ĠRequer": 5776,
      "dicar": 5777,
      "ZA": 5778,
      "lco": 5779,
      "ĠCD": 5780,
      "Ġataque": 5781,
      "Ġmine": 5782,
      "Ġprecisam": 5783,
      "mericanos": 5784,
      "ĠCompan": 5785,
      "ĠImpos": 5786,
      "Ġseque": 5787,
      "Ġsubstitui": 5788,
      "kk": 5789,
      "Ġdefe": 5790,
      "Ġmono": 5791,
      "SC": 5792,
      "Ġparceria": 5793,
      "Ġmusical": 5794,
      "Ġfesta": 5795,
      "Ġconduz": 5796,
      "Ġinicialmente": 5797,
      "Ġtamanho": 5798,
      "Ġerro": 5799,
      "Ġbanco": 5800,
      "ĠDavid": 5801,
      "Ġinfraco": 5802,
      "Ġseg": 5803,
      "ĠVas": 5804,
      "arti": 5805,
      "Ġgri": 5806,
      "CIONAL": 5807,
      "Ġ2021": 5808,
      "Ġpequenos": 5809,
      "Ġminuto": 5810,
      "Ġeliminac": 5811,
      "Ġporte": 5812,
      "Ġhumana": 5813,
      "canti": 5814,
      "BLICA": 5815,
      "ESS": 5816,
      "ragem": 5817,
      "ĠGal": 5818,
      "NE": 5819,
      "ĠInformac": 5820,
      "Ġviagem": 5821,
      "tacar": 5822,
      "ĠCarta": 5823,
      "Ġ52": 5824,
      "ĠDIAS": 5825,
      "hu": 5826,
      "ĠArau": 5827,
      "bido": 5828,
      "ĠJUSTIC": 5829,
      "fal": 5830,
      "ĠWor": 5831,
      "Ġinsu": 5832,
      "tantes": 5833,
      "Ġ1989": 5834,
      "bs": 5835,
      "ĠCoorde": 5836,
      "ĠPSL": 5837,
      "como": 5838,
      "ĠAcordo": 5839,
      "Ġguarda": 5840,
      "Ġofensa": 5841,
      "Ġcomunica": 5842,
      "Ġinscric": 5843,
      "ĠCastro": 5844,
      "Ġinteiro": 5845,
      "2002": 5846,
      "Ġaniversa": 5847,
      "Ġcasamento": 5848,
      "pica": 5849,
      "ĠSha": 5850,
      "As": 5851,
      "ĠVin": 5852,
      "Ġredes": 5853,
      "Ġcrista": 5854,
      "Ġtotalmente": 5855,
      "Ġtroca": 5856,
      "Ġcontato": 5857,
      "ĠGlobo": 5858,
      "Ġrealizadas": 5859,
      "Ġdeseja": 5860,
      "Ġanunciou": 5861,
      "ĠGuil": 5862,
      "nces": 5863,
      "Ġlideranc": 5864,
      "ĠROBERTO": 5865,
      "Ġtramitac": 5866,
      "Ġzona": 5867,
      "ĠBraga": 5868,
      "Ġescra": 5869,
      "Ġnaquele": 5870,
      "ĠRelatora": 5871,
      "Ġshow": 5872,
      "Ġsimplesmente": 5873,
      "ĠPessoal": 5874,
      "ĠDesculpe": 5875,
      "Ġpun": 5876,
      "cular": 5877,
      "ĠOF": 5878,
      "ndos": 5879,
      "Ġesteve": 5880,
      "ĠAfonso": 5881,
      "Ġmeda": 5882,
      "Ġaper": 5883,
      "ĠPresidenta": 5884,
      "Ġbreve": 5885,
      "Ġenga": 5886,
      "ĠProfessor": 5887,
      "ĠCre": 5888,
      "mail": 5889,
      "Ġigreja": 5890,
      "mann": 5891,
      "Ġcanal": 5892,
      "Ġaceita": 5893,
      "ĠENC": 5894,
      "ĠNunca": 5895,
      "ĠAero": 5896,
      "rim": 5897,
      "ĠMora": 5898,
      "Ġreferida": 5899,
      "ĠMelhor": 5900,
      "Ġintegrantes": 5901,
      "the": 5902,
      "Ġoficiais": 5903,
      "madas": 5904,
      "ditos": 5905,
      "tens": 5906,
      "ĠCle": 5907,
      "teis": 5908,
      "Ġhomo": 5909,
      "lismo": 5910,
      "nito": 5911,
      "ĠHA": 5912,
      "ĠAe": 5913,
      "Ġconvenc": 5914,
      "hou": 5915,
      "neio": 5916,
      "teral": 5917,
      "ĠFal": 5918,
      "AND": 5919,
      "ĠExtra": 5920,
      "Ġjornalista": 5921,
      "Ġ95": 5922,
      "Ġclassificac": 5923,
      "stantivo": 5924,
      "Ġpadra": 5925,
      "beni": 5926,
      "ash": 5927,
      "Ġ)": 5928,
      "ĠImp": 5929,
      "sonaro": 5930,
      "sor": 5931,
      "Ġquiser": 5932,
      "Ġrecomenda": 5933,
      "Ġsolo": 5934,
      "dge": 5935,
      "ĠArgentina": 5936,
      "Ġtirar": 5937,
      "ĠVII": 5938,
      "culino": 5939,
      "bem": 5940,
      "dias": 5941,
      "berta": 5942,
      "ORMA": 5943,
      "Ġ08": 5944,
      "Ġoposic": 5945,
      "bela": 5946,
      "ĠMate": 5947,
      "Ġcustos": 5948,
      "ĠPrec": 5949,
      "Ġmodu": 5950,
      "ĠNorma": 5951,
      "Ġcarga": 5952,
      "lan": 5953,
      "llo": 5954,
      "rvo": 5955,
      "Ġpromoc": 5956,
      "ficou": 5957,
      "Ġposteriormente": 5958,
      "bida": 5959,
      "Ġlida": 5960,
      "Ġproib": 5961,
      "Ġagricultura": 5962,
      "HC": 5963,
      "Ġexis": 5964,
      "Ġaumentar": 5965,
      "Ġtentando": 5966,
      "ĠExiste": 5967,
      "Ġbra": 5968,
      "lubes": 5969,
      "Ġincluir": 5970,
      "ĠTro": 5971,
      "Ġencaminhamento": 5972,
      "Ġilegal": 5973,
      "ĠAU": 5974,
      "Ġesclare": 5975,
      "Ġagri": 5976,
      "lher": 5977,
      "ĠATA": 5978,
      "ĠDF": 5979,
      "quem": 5980,
      "Ġseguro": 5981,
      "tional": 5982,
      "ĠDesta": 5983,
      "Ġfortale": 5984,
      "Ġprocessu": 5985,
      "ĠEstatuto": 5986,
      "americano": 5987,
      "ĠClube": 5988,
      "Ġprefere": 5989,
      "Ġaberto": 5990,
      "laterra": 5991,
      "Ġvul": 5992,
      "ĠBorges": 5993,
      "Ġcou": 5994,
      "requer": 5995,
      "Ġjuntamente": 5996,
      "zia": 5997,
      "doras": 5998,
      "Ġfornece": 5999,
      "ĠORDINA": 6000,
      "Ġ07": 6001,
      "Ġsenhores": 6002,
      "Ġestados": 6003,
      "Ġexclusivamente": 6004,
      "ĠUniversi": 6005,
      "fera": 6006,
      "Ġaposentadoria": 6007,
      "Ġ53": 6008,
      "ĠSete": 6009,
      "zados": 6010,
      "Ġpergunta": 6011,
      "Ġentrou": 6012,
      "ĠVirgi": 6013,
      "ĠNovo": 6014,
      "Ġ500": 6015,
      "Ġ06": 6016,
      "Ġconstantes": 6017,
      "Ġvelho": 6018,
      "ĠJunior": 6019,
      "Ġdaquela": 6020,
      "Ġbru": 6021,
      "ĠOrganizac": 6022,
      "ĠAtualmente": 6023,
      "ĠCara": 6024,
      "inou": 6025,
      "Ġsetores": 6026,
      "ĠRegistro": 6027,
      "log": 6028,
      "Ġprocessa": 6029,
      "ĠCavalcanti": 6030,
      "Ġfronteira": 6031,
      "Ġagente": 6032,
      "ed": 6033,
      "ĠEMB": 6034,
      "Ġconsiste": 6035,
      "CN": 6036,
      "Ġmelhorar": 6037,
      "Ġsemanas": 6038,
      "Ġpolicial": 6039,
      "ndro": 6040,
      "ĠGilmar": 6041,
      "Ġnac": 6042,
      "ĠLin": 6043,
      "Ġmanifesta": 6044,
      "ĠExteriores": 6045,
      "Ġperder": 6046,
      "Ġconstruir": 6047,
      "Ġruas": 6048,
      "ĠCalheiros": 6049,
      "Ġmudou": 6050,
      "Ġconceito": 6051,
      "ĠUnido": 6052,
      "lite": 6053,
      "ĠCol": 6054,
      "gares": 6055,
      "ĠJack": 6056,
      "Ġobjetivos": 6057,
      "Ġdispensa": 6058,
      "ĠIX": 6059,
      "resa": 6060,
      "Ġcomputado": 6061,
      "ĠIra": 6062,
      "Ġadvogado": 6063,
      "Ġdivulgac": 6064,
      "Ġtipos": 6065,
      "ĠEleito": 6066,
      "ĠRecor": 6067,
      "Ġtrecho": 6068,
      "Ġpresi": 6069,
      "Ġefetu": 6070,
      "Ġtornando": 6071,
      "Ġrecuperac": 6072,
      "TAN": 6073,
      "ĠRondo": 6074,
      "Ġassinatura": 6075,
      "Ġ62": 6076,
      "ĠVic": 6077,
      "Ġconsegue": 6078,
      "Ġator": 6079,
      "jeita": 6080,
      "RANC": 6081,
      "Ġcriou": 6082,
      "Ġ300": 6083,
      "Ġsele": 6084,
      "Ġultra": 6085,
      "trio": 6086,
      "ĠForma": 6087,
      "Al": 6088,
      "ĠRousse": 6089,
      "Ġsta": 6090,
      "Ġtrabalhador": 6091,
      "ĠMuseu": 6092,
      "CJ": 6093,
      "brio": 6094,
      "Ġplaneta": 6095,
      "ĠESTADO": 6096,
      "foli": 6097,
      "ĠFIL": 6098,
      "ĠPaes": 6099,
      "reia": 6100,
      "oc": 6101,
      "Ġperante": 6102,
      "Ġcasas": 6103,
      "Ġreforc": 6104,
      "Ġtrouxe": 6105,
      "Ġ57": 6106,
      "RANDE": 6107,
      "presidente": 6108,
      "ĠInglaterra": 6109,
      "Ġ42": 6110,
      "ĠEnca": 6111,
      "neo": 6112,
      "Ġras": 6113,
      "Ġfirma": 6114,
      "PO": 6115,
      "xilia": 6116,
      "ĠMelo": 6117,
      "nciar": 6118,
      "Ġprodutor": 6119,
      "Ġpodia": 6120,
      "Ġmis": 6121,
      "Ġcandidatos": 6122,
      "ĠSec": 6123,
      "metro": 6124,
      "ĠProdu": 6125,
      "ĠVerde": 6126,
      "Ġconsi": 6127,
      "Ġdig": 6128,
      "Ġpsico": 6129,
      "ĠEnergia": 6130,
      "ĠPore": 6131,
      "ĠAlguns": 6132,
      "Ġmedica": 6133,
      "Ġmotivos": 6134,
      "ĠComp": 6135,
      "nses": 6136,
      "Ġadequac": 6137,
      "eitas": 6138,
      "ĠLondres": 6139,
      "Ġedifi": 6140,
      "Ġpudes": 6141,
      "Ġtentativa": 6142,
      "valo": 6143,
      "Ġbatalha": 6144,
      "OLI": 6145,
      "Ġmateriais": 6146,
      "unes": 6147,
      "hy": 6148,
      "Ġembargos": 6149,
      "Ġadoc": 6150,
      "Ġavia": 6151,
      "ĠRoge": 6152,
      "Ġpegar": 6153,
      "Ġinjus": 6154,
      "cessi": 6155,
      "Ġnar": 6156,
      "Ġservidor": 6157,
      "TOR": 6158,
      "Ġcance": 6159,
      "Ġmens": 6160,
      "Ġteo": 6161,
      "So": 6162,
      "Apensados": 6163,
      "Ġcarre": 6164,
      "Ġportuguesa": 6165,
      "ĠDele": 6166,
      "Ġconcede": 6167,
      "ĠIndu": 6168,
      "DRI": 6169,
      "Ġgosto": 6170,
      "drigo": 6171,
      "ficados": 6172,
      "Ġrevela": 6173,
      "ĠLew": 6174,
      "Ġresiste": 6175,
      "Ġenorme": 6176,
      "¿½": 6177,
      "ĠCapi": 6178,
      "ĠFra": 6179,
      "Ġia": 6180,
      "Ġanteriormente": 6181,
      "Ġparlamentar": 6182,
      "ĠSubstantivo": 6183,
      "Ġretra": 6184,
      "Mo": 6185,
      "Ġexpecta": 6186,
      "ï¿½": 6187,
      "Ġacontecendo": 6188,
      "Ġmun": 6189,
      "Ġmesmos": 6190,
      "Ġganhar": 6191,
      "Ġperdeu": 6192,
      "final": 6193,
      "ĠPrese": 6194,
      "ESA": 6195,
      "54": 6196,
      "Ġdever": 6197,
      "Ġtradicional": 6198,
      "ĠPeter": 6199,
      "Ġbebe": 6200,
      "Ġteor": 6201,
      "Ġgastos": 6202,
      "Ġcompanhia": 6203,
      "Ġencontram": 6204,
      "ĠYou": 6205,
      "2001": 6206,
      "Ġimediatamente": 6207,
      "Ġsanc": 6208,
      "bor": 6209,
      "ximos": 6210,
      "ĠExpe": 6211,
      "Ġorgu": 6212,
      "ĠLan": 6213,
      "Rela": 6214,
      "Ġdomi": 6215,
      "Ġexplica": 6216,
      "Ġlonga": 6217,
      "Ġaponta": 6218,
      "ĠMira": 6219,
      "Ġestaduais": 6220,
      "Ġvizinha": 6221,
      "Ġextremamente": 6222,
      "Ġdestinados": 6223,
      "ãĥ": 6224,
      "Ġdesti": 6225,
      "Rodrigo": 6226,
      "Ġatua": 6227,
      "pidamente": 6228,
      "ðŁ": 6229,
      "inente": 6230,
      "ĠNem": 6231,
      "Ġanalisa": 6232,
      "Ġacredito": 6233,
      "ĠPaulista": 6234,
      "tch": 6235,
      "Ġmilhares": 6236,
      "Ġprorro": 6237,
      "61": 6238,
      "ĠOra": 6239,
      "Ġcapi": 6240,
      "ĠMendo": 6241,
      "Ġprejudica": 6242,
      "ĠFreitas": 6243,
      "Ġcin": 6244,
      "Ġpesquisas": 6245,
      "Ġdiminu": 6246,
      "ares": 6247,
      "ĠLI": 6248,
      "Le": 6249,
      "ĠRec": 6250,
      "Ġlembrar": 6251,
      "lculo": 6252,
      "ĠEN": 6253,
      "ĠPV": 6254,
      "Ġmetro": 6255,
      "ĠFM": 6256,
      "rena": 6257,
      "arma": 6258,
      "ĠFaculdade": 6259,
      "Ġequili": 6260,
      "Ġpassag": 6261,
      "Ġpesa": 6262,
      "Ġcobranc": 6263,
      "Ġcelu": 6264,
      "nores": 6265,
      "ĠRep": 6266,
      "Ġpropa": 6267,
      "Ġretorno": 6268,
      "mios": 6269,
      "Ġneg": 6270,
      "ĠSolida": 6271,
      "lanc": 6272,
      "Ġprestar": 6273,
      "Ġdestaca": 6274,
      "Ġanual": 6275,
      "ĠTeo": 6276,
      "Ġpossamos": 6277,
      "ĠReunia": 6278,
      "queira": 6279,
      "57": 6280,
      "Ġdita": 6281,
      "ĠAlia": 6282,
      "Ġespeciais": 6283,
      "Ġexcele": 6284,
      "ilidade": 6285,
      "Ġvaga": 6286,
      "gueira": 6287,
      "Ġchamar": 6288,
      "Ġliga": 6289,
      "Ġdeclarou": 6290,
      "Ġgratu": 6291,
      "Ġfix": 6292,
      "Ġcorrente": 6293,
      "PLS": 6294,
      "TURA": 6295,
      "Ġassociac": 6296,
      "Ġestima": 6297,
      "Ġrus": 6298,
      "Ġpequenas": 6299,
      "Ġprefeito": 6300,
      "Ġcompati": 6301,
      "Ġexercer": 6302,
      "Ġauxi": 6303,
      "Ġfigura": 6304,
      "Ġremunerac": 6305,
      "ĠRonaldo": 6306,
      "Ġerrado": 6307,
      "ĠArnaldo": 6308,
      "Ġvejo": 6309,
      "Ġcente": 6310,
      "DAN": 6311,
      "Ìģ...": 6312,
      "......": 6313,
      "Ġvelocidade": 6314,
      "Ġmassa": 6315,
      "ĠRousseff": 6316,
      "Ġdiminui": 6317,
      "ĠTh": 6318,
      "Ġcafe": 6319,
      "ĠAPRECIA": 6320,
      "Ġdanos": 6321,
      "Ġdito": 6322,
      "ĠGRANDE": 6323,
      "OSA": 6324,
      "Ġprimeiras": 6325,
      "ventude": 6326,
      "ĠHos": 6327,
      "Ġcriminal": 6328,
      "Ġsom": 6329,
      "Eduardo": 6330,
      "Ġdefender": 6331,
      "Ġ101": 6332,
      "penho": 6333,
      "Ġcategory": 6334,
      "ĠSai": 6335,
      "Ġsup": 6336,
      "Ġmulti": 6337,
      "Ġtransmi": 6338,
      "Ġapoia": 6339,
      "gidos": 6340,
      "58": 6341,
      "Ġcaixa": 6342,
      "ndios": 6343,
      "Ġcumprir": 6344,
      "Ġaparte": 6345,
      "ĠDecisa": 6346,
      "Ġ41": 6347,
      "gida": 6348,
      "ĠMAN": 6349,
      "timos": 6350,
      "ĠFI": 6351,
      "Ġinspira": 6352,
      "Ġrurais": 6353,
      "plic": 6354,
      "ĠMARCO": 6355,
      "Ġnotcategory": 6356,
      "Ġdente": 6357,
      "tan": 6358,
      "Ġincisos": 6359,
      "Ġlinhas": 6360,
      "ĠBezerra": 6361,
      "Ġdigital": 6362,
      "ĠCaso": 6363,
      "Ġadul": 6364,
      "dez": 6365,
      "Ġaces": 6366,
      "Ġviver": 6367,
      "Ġbloque": 6368,
      "ĠPROPOSTA": 6369,
      "ĠHumanos": 6370,
      "ĠEDUARDO": 6371,
      "Ġint": 6372,
      "ĠInternet": 6373,
      "Ġresolver": 6374,
      "Ġonda": 6375,
      "ĠCli": 6376,
      "MENTE": 6377,
      "ĠSalvador": 6378,
      "ĠEdson": 6379,
      "ficientes": 6380,
      "Ġ1970": 6381,
      "Ġequipes": 6382,
      "ĠPois": 6383,
      "ĠAlo": 6384,
      "Ġobter": 6385,
      "Ġrenova": 6386,
      "ĠViana": 6387,
      "Ġnor": 6388,
      "ĠSantana": 6389,
      "ĠAPRECIAC": 6390,
      "ĠSENADO": 6391,
      "Ġimpostos": 6392,
      "Ġbac": 6393,
      "Ġoeste": 6394,
      "ji": 6395,
      "ntei": 6396,
      "Ġetapa": 6397,
      "ĠSILVA": 6398,
      "ĠTransportes": 6399,
      "ot": 6400,
      "Ġcompleta": 6401,
      "Ġestas": 6402,
      "Ġpassagem": 6403,
      "Ġ?": 6404,
      "ĠFaria": 6405,
      "Ġhum": 6406,
      "Ġrapidamente": 6407,
      "Ġtempera": 6408,
      "Ġseriam": 6409,
      "ĠOL": 6410,
      "ĠTof": 6411,
      "ricos": 6412,
      "ĠBiografia": 6413,
      "ĠEsses": 6414,
      "ĠCF": 6415,
      "Ġquestiona": 6416,
      "Ġvila": 6417,
      "Ġprivada": 6418,
      "Ġartista": 6419,
      "Ġintitu": 6420,
      "Ġtrabalh": 6421,
      "acrescenta": 6422,
      "Ġintervenc": 6423,
      "Ġgovernador": 6424,
      "ght": 6425,
      "Ġagravada": 6426,
      "ĠEntretanto": 6427,
      "ĠCLA": 6428,
      "tuais": 6429,
      "Ġsimi": 6430,
      "Ġreferente": 6431,
      "Ġpossuem": 6432,
      "ĠEstra": 6433,
      "ĠMarc": 6434,
      "Ġhospita": 6435,
      "Ġsinal": 6436,
      "ĠPsbP": 6437,
      "Ġenderec": 6438,
      "ĠToffoli": 6439,
      "URE": 6440,
      "ĠPen": 6441,
      "Ġmanti": 6442,
      "ries": 6443,
      "vindo": 6444,
      "zuela": 6445,
      "duac": 6446,
      "ĠVO": 6447,
      "Ġgen": 6448,
      "Ġvas": 6449,
      "vamos": 6450,
      "Ġ....................................................................................": 6451,
      "Ġdireto": 6452,
      "ensa": 6453,
      "Ġoferta": 6454,
      "ĠPresi": 6455,
      "Ġnomeado": 6456,
      "Ġnaquela": 6457,
      "Ġdiscri": 6458,
      "Ġautomo": 6459,
      "Ġinferior": 6460,
      "Ġacontecer": 6461,
      "Ġlugares": 6462,
      "ĠFelipe": 6463,
      "Ġciclo": 6464,
      "polita": 6465,
      "ouve": 6466,
      "Ġconhecer": 6467,
      "Ġcorte": 6468,
      "ĠNota": 6469,
      "ĠSei": 6470,
      "PCdoB": 6471,
      "ĠCou": 6472,
      "Ġtecnolo": 6473,
      "tecimento": 6474,
      "Ġdeliberac": 6475,
      "Ġalimentos": 6476,
      "ĠBolsonaro": 6477,
      "ĠAgrade": 6478,
      "tive": 6479,
      "Ġmac": 6480,
      "rade": 6481,
      "Ġsabemos": 6482,
      "Ġpodendo": 6483,
      "wski": 6484,
      "ĠEspere": 6485,
      "ĠDiante": 6486,
      "nza": 6487,
      "ticula": 6488,
      "Ġabrir": 6489,
      "Ġpadro": 6490,
      "hael": 6491,
      "ĠIsa": 6492,
      "taforma": 6493,
      "Ġdel": 6494,
      "Ġdiga": 6495,
      "Ġaerona": 6496,
      "ĠTrabalhadores": 6497,
      "Ġproto": 6498,
      "Ġsensi": 6499,
      "VID": 6500,
      "ĠFerro": 6501,
      "vile": 6502,
      "Ġrespeita": 6503,
      "ĠGeorge": 6504,
      "Ġcomprar": 6505,
      "Ġvagas": 6506,
      "Ġsolicitac": 6507,
      "Ġvolume": 6508,
      "Ġ1973": 6509,
      "Ġfeitos": 6510,
      "orri": 6511,
      "Ġpersonagens": 6512,
      "ĠRODRI": 6513,
      "bral": 6514,
      "Ġrel": 6515,
      "Ġdescri": 6516,
      "Ġhouver": 6517,
      "ĠOutros": 6518,
      "ĠNatal": 6519,
      "Ġdecorrentes": 6520,
      "ĠMauri": 6521,
      "Ġiria": 6522,
      "Ġprivado": 6523,
      "Ġescrita": 6524,
      "Ġtare": 6525,
      "Ġmoral": 6526,
      "nimos": 6527,
      "Ġparar": 6528,
      "Ġmeni": 6529,
      "EMB": 6530,
      "Ġfinalmente": 6531,
      "herme": 6532,
      "nga": 6533,
      "ĠFILHO": 6534,
      "56": 6535,
      "ĠNesta": 6536,
      "ĠReque": 6537,
      "ĠSh": 6538,
      "Ġnegou": 6539,
      "Ġ................................................................................................................................................................": 6540,
      "ĠSUL": 6541,
      "Ġtempora": 6542,
      "Ġprovavelmente": 6543,
      "Ġcadas": 6544,
      "Ġficando": 6545,
      "gri": 6546,
      "Ġbuscar": 6547,
      "Ġconsigo": 6548,
      "melho": 6549,
      "Ġfaci": 6550,
      "Ġvide": 6551,
      "ĠSus": 6552,
      "tb": 6553,
      "ntico": 6554,
      "ĠAssembleia": 6555,
      "Ġreajus": 6556,
      "pesa": 6557,
      "ĠXIX": 6558,
      "Ġdeterminado": 6559,
      "reno": 6560,
      "bis": 6561,
      "BIMENTO": 6562,
      "ĠCaro": 6563,
      "Ġsegue": 6564,
      "Ġprevisa": 6565,
      "Ġpatro": 6566,
      "Ġdina": 6567,
      "ĠPodemos": 6568,
      "ĠDAS": 6569,
      "cin": 6570,
      "Ġet": 6571,
      "Ġdisti": 6572,
      "Ġreduzir": 6573,
      "Ġteoria": 6574,
      "Ġconfigu": 6575,
      "ĠAque": 6576,
      "Ġacidente": 6577,
      "Ġdentre": 6578,
      "parte": 6579,
      "Ġglobal": 6580,
      "Ġapresentadas": 6581,
      "Ġmenores": 6582,
      "Ġchance": 6583,
      "ĠLiga": 6584,
      "ĠHC": 6585,
      "mber": 6586,
      "www": 6587,
      "Ġconduta": 6588,
      "Ġdomingo": 6589,
      "Ġpermanente": 6590,
      "Ġindividual": 6591,
      "teira": 6592,
      "Ġartistas": 6593,
      "ĠVil": 6594,
      "Ġtari": 6595,
      "Ġfundamentos": 6596,
      "ware": 6597,
      "Ġdrama": 6598,
      "SOL": 6599,
      "ĠArru": 6600,
      "ĠWilliam": 6601,
      "Ġdeterminar": 6602,
      "RG": 6603,
      "ntica": 6604,
      "Ġ115": 6605,
      "ĠJAN": 6606,
      "ntamento": 6607,
      "Ġefetiva": 6608,
      "Ġacus": 6609,
      "Ġaprovou": 6610,
      "Ġinstrumentos": 6611,
      "UI": 6612,
      "Ġintroduz": 6613,
      "Ġempregos": 6614,
      "Ġher": 6615,
      "Ġdome": 6616,
      "Ġsexo": 6617,
      "ĠJeff": 6618,
      "Ġdime": 6619,
      "Ġtriste": 6620,
      ".....": 6621,
      "Ġacabar": 6622,
      "ste": 6623,
      "ĠAlegre": 6624,
      "Eu": 6625,
      "ĠLucia": 6626,
      "king": 6627,
      "Ġfalou": 6628,
      "Ġpaul": 6629,
      "Ġati": 6630,
      "Ġdepu": 6631,
      "mino": 6632,
      "all": 6633,
      "ĠMana": 6634,
      "Ġproduzir": 6635,
      "ĠMendonc": 6636,
      "ĠPrecedentes": 6637,
      "bril": 6638,
      "vios": 6639,
      "Ġcenso": 6640,
      "Ġestru": 6641,
      "mici": 6642,
      "Ġbancos": 6643,
      "alizar": 6644,
      "Ġfaze": 6645,
      "Ġseparado": 6646,
      "ĠGuimara": 6647,
      "ĠWik": 6648,
      "RELATO": 6649,
      "KI": 6650,
      "VES": 6651,
      "ĠParque": 6652,
      "Ġcomunidades": 6653,
      "AI": 6654,
      "cimo": 6655,
      "rentes": 6656,
      "Ġpraticamente": 6657,
      "Ġfundac": 6658,
      "ĠAnte": 6659,
      "issiona": 6660,
      "Ġdevidamente": 6661,
      "Ġpediu": 6662,
      "TS": 6663,
      "Ġjogar": 6664,
      "Ġredor": 6665,
      "Ġtrinta": 6666,
      "Ġnormal": 6667,
      "Ġverdadeira": 6668,
      "Ġsexual": 6669,
      "ĠMetro": 6670,
      "Ġacrescenta": 6671,
      "Ġreflexa": 6672,
      "landa": 6673,
      "))": 6674,
      "ĠSho": 6675,
      "ĠGua": 6676,
      "Ġcantora": 6677,
      "Ġdiretrizes": 6678,
      "Ġimpo": 6679,
      "ĠMax": 6680,
      "Ġ1986": 6681,
      "ĠVerea": 6682,
      "Ġpilo": 6683,
      "ire": 6684,
      "Ġmovimentos": 6685,
      "Ġnecessi": 6686,
      "fede": 6687,
      "Ġprogramac": 6688,
      "ther": 6689,
      "ĠGeografia": 6690,
      "presa": 6691,
      "zz": 6692,
      "Ġnaturais": 6693,
      "ĠIma": 6694,
      "ILIDADE": 6695,
      "Ġpassada": 6696,
      "Ġrespectivamente": 6697,
      "ĠKi": 6698,
      "ĠChefe": 6699,
      "Os": 6700,
      "dical": 6701,
      "sina": 6702,
      "ĠTia": 6703,
      "ĠOk": 6704,
      "Ġane": 6705,
      "Ġinstruc": 6706,
      "Ġlou": 6707,
      "Ġprevidencia": 6708,
      "Ġreser": 6709,
      "tbPscP": 6710,
      "Ġesperanc": 6711,
      "TIF": 6712,
      "ĠSEGUNDA": 6713,
      "Ġhavera": 6714,
      "Ġfir": 6715,
      "ĠLeonardo": 6716,
      "ĠAcademia": 6717,
      "Ġquaisquer": 6718,
      "Ġ223": 6719,
      "Ġuns": 6720,
      "Ġadministrativo": 6721,
      "Ġtex": 6722,
      "Ġensina": 6723,
      "STF": 6724,
      "Ġcomportamento": 6725,
      "Ġenvio": 6726,
      "Ġindependente": 6727,
      "ĠGonc": 6728,
      "Ġtraduz": 6729,
      "Ġfla": 6730,
      "Ġdizem": 6731,
      "43": 6732,
      "borato": 6733,
      "tter": 6734,
      "Ġrestric": 6735,
      "**": 6736,
      "Ġmorto": 6737,
      "ĠCardoso": 6738,
      "ĠQuadro": 6739,
      "ĠBac": 6740,
      "Ġintegrar": 6741,
      "MB": 6742,
      "espe": 6743,
      "Ġhero": 6744,
      "Ġtiver": 6745,
      "Ġrecebido": 6746,
      "ĠHO": 6747,
      "yer": 6748,
      "Ġ279": 6749,
      "sen": 6750,
      "Ġconsiderando": 6751,
      "ĠISB": 6752,
      "Ġgaroto": 6753,
      "meu": 6754,
      "Ġrelacionados": 6755,
      "Ġcedo": 6756,
      "ĠPassa": 6757,
      "Ġcombus": 6758,
      "ĠReco": 6759,
      "ĠMonteiro": 6760,
      "Ġat": 6761,
      "osamente": 6762,
      "Ġexpansa": 6763,
      "ĠISBN": 6764,
      "ĠLeite": 6765,
      "ACIONAL": 6766,
      "Ġrestau": 6767,
      "ĠVargas": 6768,
      "reiras": 6769,
      "nibus": 6770,
      "plicy": 6771,
      "ĠAssuntos": 6772,
      "ĠDez": 6773,
      "Ġestabelecido": 6774,
      "Deputado": 6775,
      "Ġrelativas": 6776,
      "ĠCali": 6777,
      "Ġobrigada": 6778,
      "Ġjogadores": 6779,
      "ramento": 6780,
      "Ġrelativos": 6781,
      "Ġolhar": 6782,
      "ĠJornal": 6783,
      "ĠSuplicy": 6784,
      "Ġ+": 6785,
      "mpicos": 6786,
      "Ġassegurar": 6787,
      "Ġpercentual": 6788,
      "Ġconflito": 6789,
      "ĠGuilherme": 6790,
      "ĠVicente": 6791,
      "Por": 6792,
      "Ġrever": 6793,
      "nias": 6794,
      "ĠTempo": 6795,
      "bitos": 6796,
      "Ġresto": 6797,
      "ĠFlores": 6798,
      "Ġpressu": 6799,
      "ĠAustra": 6800,
      "Ġorga": 6801,
      "ĠOlha": 6802,
      "ustria": 6803,
      "ĠPopu": 6804,
      "Ġmodulada": 6805,
      "Ġformal": 6806,
      "Ġprivile": 6807,
      "Ġessencial": 6808,
      "ĠHugo": 6809,
      "Ġregistrado": 6810,
      "ĠAni": 6811,
      "Ġesquerda": 6812,
      "ood": 6813,
      "ĠEleitoral": 6814,
      "brar": 6815,
      "ĠContrato": 6816,
      "ĠInde": 6817,
      "ĠTodas": 6818,
      "CURADOR": 6819,
      "minhar": 6820,
      "Ġauxilia": 6821,
      "Ġ102": 6822,
      "ĠNove": 6823,
      "Ġ59": 6824,
      "Ġbal": 6825,
      "Ġdecorrente": 6826,
      "ĠCH": 6827,
      "ĠObrigada": 6828,
      "Ġsocie": 6829,
      "Ġcompetente": 6830,
      "ĠJustificac": 6831,
      "ĠManuel": 6832,
      "cionar": 6833,
      "ĠOS": 6834,
      "Ġrealizados": 6835,
      "Ġobrigatoriedade": 6836,
      "Ġtese": 6837,
      ")\"": 6838,
      "Ġcompletamente": 6839,
      "ĠBur": 6840,
      "Ġestabelecimento": 6841,
      "Ġresga": 6842,
      "rmen": 6843,
      "ÌĮ": 6844,
      "Ġficara": 6845,
      "mentado": 6846,
      "rgia": 6847,
      "Ġperspec": 6848,
      "Ġvc": 6849,
      "deiro": 6850,
      "Ġficam": 6851,
      "Ġferra": 6852,
      "Ġdificuldade": 6853,
      "berg": 6854,
      "Ġbrac": 6855,
      "Ġregulamentac": 6856,
      "Ġparticipantes": 6857,
      "Ġsangue": 6858,
      "Ġcai": 6859,
      "ĠHarry": 6860,
      "Ġpertin": 6861,
      "Ġpapa": 6862,
      "Ġrecente": 6863,
      "42": 6864,
      "Ġeventual": 6865,
      "fio": 6866,
      "Ba": 6867,
      "ICI": 6868,
      "tificado": 6869,
      "ĠAF": 6870,
      "ĠPetrobras": 6871,
      "Ġidentificac": 6872,
      "ĠTorres": 6873,
      "83": 6874,
      "quo": 6875,
      "pela": 6876,
      "VAL": 6877,
      "VIMENTO": 6878,
      "Ġestiver": 6879,
      "Ġcompo": 6880,
      "Ġconfere": 6881,
      ".......": 6882,
      "leiro": 6883,
      "ĠJames": 6884,
      "Ġexclui": 6885,
      "Ġproprieta": 6886,
      "ĠRECEBIMENTO": 6887,
      "riac": 6888,
      "ĠDie": 6889,
      "ĠFrei": 6890,
      "ĠManato": 6891,
      "Ġestreia": 6892,
      "Pe": 6893,
      "ĠArruda": 6894,
      "erc": 6895,
      "Ġsaiu": 6896,
      "ridas": 6897,
      "ville": 6898,
      "Ġcomba": 6899,
      "ĠRus": 6900,
      "Ġhabilitac": 6901,
      "ĠSociedade": 6902,
      "Ġsec": 6903,
      "RELATOR": 6904,
      "rez": 6905,
      "Ġdenuncia": 6906,
      "inhas": 6907,
      "lip": 6908,
      "Ġassis": 6909,
      "Ġusada": 6910,
      "Ġpobres": 6911,
      "ĠÐ": 6912,
      "gena": 6913,
      "Ġoutorgada": 6914,
      "Ġimi": 6915,
      "Ġboas": 6916,
      "Ġrequer": 6917,
      "Ġrejei": 6918,
      "Ġespor": 6919,
      "Ġinfraconstitucional": 6920,
      "ĠOrdina": 6921,
      "Ġatriz": 6922,
      "ĠAnti": 6923,
      "ĠPec": 6924,
      "Ġrecorrente": 6925,
      "osas": 6926,
      "Ġcontemp": 6927,
      "Ġparabeni": 6928,
      "Ġutilizados": 6929,
      "Ġagricul": 6930,
      "cedente": 6931,
      "ĠAMA": 6932,
      "CAL": 6933,
      "Ġcomerciais": 6934,
      "UNAL": 6935,
      "Ġocupac": 6936,
      "Ġoferece": 6937,
      "IG": 6938,
      "Ġcaminha": 6939,
      "ĠED": 6940,
      "Ġfara": 6941,
      "assa": 6942,
      "Ġfiscais": 6943,
      "pace": 6944,
      "Ġquo": 6945,
      "AB": 6946,
      "gante": 6947,
      "ĠLuis": 6948,
      "Ġgar": 6949,
      "amente": 6950,
      "ricas": 6951,
      "ĠWar": 6952,
      "Ġvizinhanc": 6953,
      "41": 6954,
      "Ġcobertos": 6955,
      "ĠAudie": 6956,
      "Ġfinanceiros": 6957,
      "ĠOLIV": 6958,
      "Ġconjunta": 6959,
      "ĠFestival": 6960,
      "Ġpassaram": 6961,
      "Ġaprovar": 6962,
      "PFL": 6963,
      "Ġdespe": 6964,
      "ĠEssas": 6965,
      "Ġinconstitucionalidade": 6966,
      "cant": 6967,
      "Ġcata": 6968,
      "49": 6969,
      "ĠEMENTA": 6970,
      "ĠNil": 6971,
      "Ġcoloco": 6972,
      "ĠWalter": 6973,
      "ĠWilson": 6974,
      "Ġnobres": 6975,
      "itores": 6976,
      "Ġalegac": 6977,
      "Ġinimi": 6978,
      ".:": 6979,
      "Ġ93": 6980,
      "Ġassinado": 6981,
      "Ġsidente": 6982,
      "Ġeduca": 6983,
      "Ġdecre": 6984,
      "ĠFU": 6985,
      "ĠWorld": 6986,
      "Ġacusac": 6987,
      "Ġreso": 6988,
      "Ġpassageiros": 6989,
      "riti": 6990,
      "ĠLogo": 6991,
      "sivo": 6992,
      "ĠVIII": 6993,
      "Ġcuidado": 6994,
      "PUS": 6995,
      "Ġresi": 6996,
      "MAN": 6997,
      "mprego": 6998,
      "Ġvera": 6999,
      "Ġdevo": 7000,
      "ĠAssiste": 7001,
      "ang": 7002,
      "Ġexportac": 7003,
      "Ġmatar": 7004,
      "Ġsubi": 7005,
      "ĠForam": 7006,
      "osofia": 7007,
      "Ġ85": 7008,
      "ĠAndrade": 7009,
      "ĠOutro": 7010,
      "ĠVito": 7011,
      "namento": 7012,
      "nhas": 7013,
      "ĠYa": 7014,
      "Ġclara": 7015,
      "neiro": 7016,
      "Ġnecessidades": 7017,
      "ĠJean": 7018,
      "Ìģ:": 7019,
      "Ġafro": 7020,
      "Ġcolu": 7021,
      "Ġterminou": 7022,
      "Ġefetivamente": 7023,
      "ĠWeber": 7024,
      "ĠSara": 7025,
      "sonal": 7026,
      "BEAS": 7027,
      "Ġdetal": 7028,
      "endi": 7029,
      "Ġestabelecidas": 7030,
      "Ġterem": 7031,
      "Ġempregados": 7032,
      "Ġaberta": 7033,
      "ĠOLIVEIRA": 7034,
      "ye": 7035,
      "ĠSelec": 7036,
      "Ġtrac": 7037,
      "Ġelaborac": 7038,
      "ĠAURE": 7039,
      "Ġiniciou": 7040,
      "Ġuniversidades": 7041,
      "elhos": 7042,
      "Ġimpossi": 7043,
      "Ġverdadeiro": 7044,
      "ionado": 7045,
      "ĠCORPUS": 7046,
      "Ġpoderes": 7047,
      "feita": 7048,
      "ganda": 7049,
      "Ġferrovia": 7050,
      "ĠApenas": 7051,
      "Ġgravado": 7052,
      "ĠInic": 7053,
      "ian": 7054,
      "ĠOperac": 7055,
      "ĠFrank": 7056,
      "\").": 7057,
      "ĠRadiodifusa": 7058,
      "Ġsenador": 7059,
      "Ġfrequ": 7060,
      "Ġrecentemente": 7061,
      "ĠFERN": 7062,
      "ĠNotas": 7063,
      "Ġregional": 7064,
      "ĠUF": 7065,
      "ĠMinoria": 7066,
      "neamento": 7067,
      "Ġdesconhe": 7068,
      "Ġtelefone": 7069,
      "Ġestive": 7070,
      "gere": 7071,
      "eses": 7072,
      "cel": 7073,
      "\":": 7074,
      "Ġ1984": 7075,
      "Ġquerida": 7076,
      "Ġvenceu": 7077,
      "Ġtrabalhando": 7078,
      "Ġexcec": 7079,
      "ĠRenato": 7080,
      "Ġdestino": 7081,
      "ĠPatri": 7082,
      "Ġsuste": 7083,
      "ĠLiber": 7084,
      "Ġreme": 7085,
      "ĠMENDES": 7086,
      "Ġreligi": 7087,
      "Ġentendo": 7088,
      "BLICO": 7089,
      "Ġresoluc": 7090,
      "Ġpeso": 7091,
      "Ġquei": 7092,
      "ĠReceita": 7093,
      "??": 7094,
      "ĠPinheiro": 7095,
      "Ġpoderiam": 7096,
      "ĠControle": 7097,
      "comun": 7098,
      "ĠCanada": 7099,
      "Preside": 7100,
      "ionar": 7101,
      "Ġbrilha": 7102,
      "Ġexistentes": 7103,
      "Ġdisciplina": 7104,
      "ĠNACIONAL": 7105,
      "ĠGesta": 7106,
      "tamos": 7107,
      "Ġprofissa": 7108,
      "viamente": 7109,
      "ward": 7110,
      "72": 7111,
      "Ġconsiderar": 7112,
      "Ġmunicipais": 7113,
      "lido": 7114,
      "ĠRua": 7115,
      "Ġindis": 7116,
      "Ġreac": 7117,
      "ĠEletro": 7118,
      "Ġdaqueles": 7119,
      "Ġrios": 7120,
      "Ġgolpe": 7121,
      "Ġargumentos": 7122,
      "fone": 7123,
      "79": 7124,
      "tec": 7125,
      "war": 7126,
      "istou": 7127,
      "Ġhospital": 7128,
      "Ġagro": 7129,
      "unide": 7130,
      "ĠAPRO": 7131,
      "Ġreivin": 7132,
      "ĠPinto": 7133,
      "Ġgravac": 7134,
      "ncesa": 7135,
      "Ġili": 7136,
      "Ġlingua": 7137,
      "Ġrenovac": 7138,
      "Ġvindo": 7139,
      "Ġcomprome": 7140,
      "ĠBul": 7141,
      "Ġargumento": 7142,
      "ĠPessoa": 7143,
      "mida": 7144,
      "Ġcadeira": 7145,
      "Ġcompone": 7146,
      "Ġaprendi": 7147,
      "missibilidade": 7148,
      "ĠAVIS": 7149,
      "ĠEdito": 7150,
      "ĠArtigo": 7151,
      "ĠFux": 7152,
      "ĠBranco": 7153,
      "Ġoferecer": 7154,
      "mpeo": 7155,
      "81": 7156,
      "Ġvincu": 7157,
      "ĠGabinete": 7158,
      "Ġ1985": 7159,
      "icar": 7160,
      "Ġparlamentares": 7161,
      "Ġtransmissa": 7162,
      "pt": 7163,
      "ĠGonza": 7164,
      "ĠAssis": 7165,
      "ĠTRIBUNAL": 7166,
      "ford": 7167,
      "ĠReis": 7168,
      "Ġinterno": 7169,
      "Ġsemi": 7170,
      "Ġplataforma": 7171,
      "RAIS": 7172,
      "Ġcomposta": 7173,
      "Ġsindica": 7174,
      "Ġvendo": 7175,
      "Ġpesca": 7176,
      "Ġruim": 7177,
      "ĠPosso": 7178,
      "71": 7179,
      "ĠFASE": 7180,
      "siva": 7181,
      "Ġpreca": 7182,
      "ĠSuple": 7183,
      "ĠTha": 7184,
      "UNIA": 7185,
      "ĠCOMISSO": 7186,
      "Ġ150": 7187,
      "ĠPesquisa": 7188,
      "mentada": 7189,
      "Ġlevando": 7190,
      "Ġlembra": 7191,
      "ĠReti": 7192,
      "lagem": 7193,
      "Ġmarido": 7194,
      "Ġdeixando": 7195,
      "Ġocorrido": 7196,
      "diente": 7197,
      "Ġcombusti": 7198,
      "Ġacres": 7199,
      "clo": 7200,
      "Â§": 7201,
      "mm": 7202,
      "fina": 7203,
      "Ġintegral": 7204,
      "73": 7205,
      "Ġacade": 7206,
      "pias": 7207,
      "82": 7208,
      "ĠCampo": 7209,
      "ĠAbre": 7210,
      "ulta": 7211,
      "Ġdevemos": 7212,
      "lim": 7213,
      "ĠPrecisamos": 7214,
      "ich": 7215,
      "Ġnele": 7216,
      "ĠOta": 7217,
      "ENTES": 7218,
      "Ġcomparti": 7219,
      "ĠAPRESEN": 7220,
      "Ġcana": 7221,
      "Ġfamiliares": 7222,
      "Ġmeia": 7223,
      "Ġanteci": 7224,
      "ĠAze": 7225,
      "ĠTru": 7226,
      "cidental": 7227,
      "ĠEmendas": 7228,
      "Ġvisando": 7229,
      "Ġcorrec": 7230,
      "ĠDespacho": 7231,
      "Ġclubes": 7232,
      "cursos": 7233,
      "bato": 7234,
      "ĠConvenc": 7235,
      "Ġpreser": 7236,
      "ĠToda": 7237,
      "ĠCEL": 7238,
      "Ġmant": 7239,
      "Ġconfianc": 7240,
      "Ġ116": 7241,
      "exame": 7242,
      "ĠPp": 7243,
      "Ġfinais": 7244,
      "perar": 7245,
      "riu": 7246,
      "ĠAuse": 7247,
      "Ġfrac": 7248,
      "teses": 7249,
      "666": 7250,
      "ndio": 7251,
      "tago": 7252,
      "Fa": 7253,
      "Ġperigos": 7254,
      "glia": 7255,
      "RETA": 7256,
      "Ġ1960": 7257,
      "Ġquadri": 7258,
      "ĠComba": 7259,
      "Ġescritor": 7260,
      "Ġmomentos": 7261,
      "dd": 7262,
      "ĠMichael": 7263,
      "gs": 7264,
      "...........": 7265,
      "ĠImposto": 7266,
      "Ġreferentes": 7267,
      "Ġcompreen": 7268,
      "ssima": 7269,
      "Ġlav": 7270,
      "ndu": 7271,
      "Ġparc": 7272,
      "ĠCada": 7273,
      "Ġenfrentar": 7274,
      "Ġdebater": 7275,
      "Ġabrac": 7276,
      "Ġitens": 7277,
      "Ġatraso": 7278,
      "lea": 7279,
      "vando": 7280,
      "Ġnisso": 7281,
      "Ġguer": 7282,
      "ĠMista": 7283,
      "Ġcampeonato": 7284,
      "lam": 7285,
      "Ġinfraestrutura": 7286,
      "Ġexti": 7287,
      "Ġassumiu": 7288,
      "Ġacresce": 7289,
      "ngu": 7290,
      "Ġmortos": 7291,
      "Ġpromul": 7292,
      "ling": 7293,
      "ĠNingue": 7294,
      "ĠTE": 7295,
      "52": 7296,
      "ĠCaixa": 7297,
      "anda": 7298,
      "Ġdai": 7299,
      "Ġintegrac": 7300,
      "Ġassuntos": 7301,
      "ĠAlencar": 7302,
      "ĠIB": 7303,
      "ndeu": 7304,
      "ĠDEL": 7305,
      "Ġ66": 7306,
      "ĠCac": 7307,
      "Ġrelativa": 7308,
      "ĠMarinha": 7309,
      "ĠÂ«": 7310,
      "Ġaproveita": 7311,
      "ĠDom": 7312,
      "Ġfinanceiras": 7313,
      "Ġirregula": 7314,
      "Ġproteger": 7315,
      "ãģ": 7316,
      "Ġesperar": 7317,
      "Ġinvia": 7318,
      "Ġabrange": 7319,
      "eda": 7320,
      "Ġestabelecidos": 7321,
      "Ġtaqui": 7322,
      "ĠPIB": 7323,
      "Ġinca": 7324,
      "grado": 7325,
      "EGA": 7326,
      "ĠGover": 7327,
      "Ġleste": 7328,
      "Ġpersegu": 7329,
      "ĠLucas": 7330,
      "Ġestaria": 7331,
      "ĠRenan": 7332,
      "Ġdespesa": 7333,
      "ĠMDB": 7334,
      "zas": 7335,
      "ĠSeguridade": 7336,
      "lix": 7337,
      "Ġ51": 7338,
      "Ġacompanhar": 7339,
      "ĠSUS": 7340,
      "Ġsubse": 7341,
      "bano": 7342,
      "gle": 7343,
      "ĠFernandes": 7344,
      "Ġconsiderados": 7345,
      "ĠPubl": 7346,
      "ĠTar": 7347,
      "Ġescala": 7348,
      "ĠEspero": 7349,
      "Ġbaseado": 7350,
      "ĠMag": 7351,
      "mbi": 7352,
      "ĠParabe": 7353,
      "ĠKu": 7354,
      "pedia": 7355,
      "Ġatuais": 7356,
      "Ġestad": 7357,
      "ĠSUB": 7358,
      "Ġsemelhante": 7359,
      "ĠRora": 7360,
      "ĠDemografia": 7361,
      "Ġplu": 7362,
      "Ġvie": 7363,
      "ĠMoura": 7364,
      "Ġhidro": 7365,
      "Ġpostos": 7366,
      "Ġdesca": 7367,
      "Ġdesejo": 7368,
      "ĠBelo": 7369,
      "cleo": 7370,
      "ĠHil": 7371,
      "ndado": 7372,
      "Ġpreservac": 7373,
      "ĠSimon": 7374,
      "Ġacusa": 7375,
      "Ġimplica": 7376,
      "TJ": 7377,
      "Ġimpedi": 7378,
      "ĠCoo": 7379,
      "Ġcomplementar": 7380,
      "Ġpronto": 7381,
      "ĠFle": 7382,
      "ssemos": 7383,
      "Ġ1940": 7384,
      "ouro": 7385,
      "nic": 7386,
      "Ġdesenvolver": 7387,
      "Ġ1987": 7388,
      "Ġculturais": 7389,
      "TANTE": 7390,
      "mpora": 7391,
      "nente": 7392,
      "Ġnegar": 7393,
      "Ġampliac": 7394,
      "ĠGas": 7395,
      "Ġdesigu": 7396,
      "Ġefetivo": 7397,
      "Ġrespectivo": 7398,
      "ĠAmerica": 7399,
      "ring": 7400,
      "ĠConsumi": 7401,
      "Ġgera": 7402,
      "Ġbranco": 7403,
      "ndemia": 7404,
      "Ġcompeti": 7405,
      "ude": 7406,
      "Â»": 7407,
      "ĠQuinta": 7408,
      "Ġpedi": 7409,
      "Ġsonho": 7410,
      "ĠCrianc": 7411,
      "ĠCRI": 7412,
      "Ġria": 7413,
      "Ġcertamente": 7414,
      "Ġvege": 7415,
      "ĠPare": 7416,
      ".............": 7417,
      "ĠTim": 7418,
      "gin": 7419,
      "ĠJulho": 7420,
      "Ġaspecto": 7421,
      "Ġultrapas": 7422,
      "Ġinscri": 7423,
      "Ġuniversidade": 7424,
      "Ġpole": 7425,
      "Ġforem": 7426,
      "Ġliminar": 7427,
      "Ġleve": 7428,
      "ĠPEN": 7429,
      "aa": 7430,
      "Ġautores": 7431,
      "bede": 7432,
      "Ġdiminuic": 7433,
      "pto": 7434,
      "giado": 7435,
      "Ġsujeita": 7436,
      "Ġdirigido": 7437,
      "Ġmatema": 7438,
      "ĠAtla": 7439,
      "ĠMano": 7440,
      "Ġsequer": 7441,
      "Ġtivemos": 7442,
      "Ġprevenc": 7443,
      "marca": 7444,
      "Ġsoma": 7445,
      "Ġparcela": 7446,
      "Ġagre": 7447,
      "Ġtaxas": 7448,
      "chos": 7449,
      "Ġinterro": 7450,
      "gentes": 7451,
      "ime": 7452,
      "Ġvincula": 7453,
      "Ġguitar": 7454,
      "MINIS": 7455,
      "Ġfigu": 7456,
      "ĠXII": 7457,
      "ferir": 7458,
      "ĠCur": 7459,
      "Ġpacientes": 7460,
      "ĠEstati": 7461,
      "Ġtran": 7462,
      "rizonte": 7463,
      "HADO": 7464,
      "Ġfossem": 7465,
      "Ġmedicamentos": 7466,
      "ĠPAC": 7467,
      "bara": 7468,
      "bens": 7469,
      "Ġdescul": 7470,
      "Ġlegislativo": 7471,
      "rit": 7472,
      "Ġenqua": 7473,
      "ĠPELO": 7474,
      "Ġarmaze": 7475,
      "ĠParte": 7476,
      "ntiago": 7477,
      "ĠRobert": 7478,
      "ĠDio": 7479,
      "Ġdoac": 7480,
      "Ġconso": 7481,
      "ores": 7482,
      "Ġarrecadac": 7483,
      "bito": 7484,
      "Ġadequado": 7485,
      "nove": 7486,
      "',": 7487,
      "Ð¸": 7488,
      "ĠRICARDO": 7489,
      "Ġocorrer": 7490,
      "ĠAno": 7491,
      "Ġfas": 7492,
      "vistas": 7493,
      "Ġdigo": 7494,
      "venida": 7495,
      "imento": 7496,
      "Ġbiblio": 7497,
      "Ġrique": 7498,
      "Ġtaquigra": 7499,
      "ĠMoraes": 7500,
      "\";": 7501,
      "Ġdeterminac": 7502,
      "renta": 7503,
      "federac": 7504,
      "Ġimpedir": 7505,
      "mendo": 7506,
      "uais": 7507,
      "pen": 7508,
      "ĠStu": 7509,
      "Ġinvas": 7510,
      "Ġcontinuidade": 7511,
      "...............": 7512,
      "ĠRegula": 7513,
      "Ð°": 7514,
      "tiza": 7515,
      "Ġpude": 7516,
      "Ġbrinca": 7517,
      "Ġcelular": 7518,
      "Ġsubsidia": 7519,
      "ĠOficial": 7520,
      "ĠMedicina": 7521,
      "ĠSab": 7522,
      "Ġconcluir": 7523,
      "Ġ1964": 7524,
      "plica": 7525,
      "ea": 7526,
      "Ġpaulista": 7527,
      "Ġmorrer": 7528,
      "ĠRoraima": 7529,
      "Ġsobera": 7530,
      "guesia": 7531,
      "ĠAdvo": 7532,
      "definic": 7533,
      "litos": 7534,
      "gil": 7535,
      "Ġabsoluta": 7536,
      "asso": 7537,
      "Ġcomposto": 7538,
      "gila": 7539,
      "ĠFrente": 7540,
      "Ġvalidade": 7541,
      "Ġapensado": 7542,
      "Ra": 7543,
      "Ġimplementac": 7544,
      "ĠEri": 7545,
      "ĠREC": 7546,
      "Ġprocessual": 7547,
      "ZO": 7548,
      "Ġteatro": 7549,
      "meno": 7550,
      "ĠNascimento": 7551,
      "ĠMS": 7552,
      "Ġpremia": 7553,
      "Ġgols": 7554,
      "ĠCoelho": 7555,
      "Ġpasse": 7556,
      "ĠFC": 7557,
      "ĠPaula": 7558,
      "Ġrespectivos": 7559,
      "Ġdupla": 7560,
      "goas": 7561,
      "Ġescrever": 7562,
      "hard": 7563,
      "sac": 7564,
      "Ġinva": 7565,
      "ĠTerc": 7566,
      "Ġinformou": 7567,
      "ĠUru": 7568,
      "eld": 7569,
      "Ġcategorias": 7570,
      "desa": 7571,
      "Ġplanta": 7572,
      "ĠGeneral": 7573,
      "Ġpreenc": 7574,
      "ĠIsra": 7575,
      "Ġ120": 7576,
      "Ġaperfeic": 7577,
      "org": 7578,
      "DRO": 7579,
      "ila": 7580,
      "Ġsuperfi": 7581,
      "ltimas": 7582,
      "Ġcato": 7583,
      "rel": 7584,
      ".........": 7585,
      "ĠPreto": 7586,
      "Ġestimada": 7587,
      "Ġbor": 7588,
      "Ġadolescentes": 7589,
      "..........": 7590,
      "Ġimpug": 7591,
      "Ġisenc": 7592,
      "Ġchegando": 7593,
      "Ġrenu": 7594,
      "Ġcolocou": 7595,
      "Ġfisc": 7596,
      "Ġindireta": 7597,
      "ĠCompanhia": 7598,
      "ĠRebe": 7599,
      "neas": 7600,
      "AMIN": 7601,
      "Ġcorrespondente": 7602,
      "DADE": 7603,
      "Ġmata": 7604,
      "Ġaproxima": 7605,
      "Ġpeix": 7606,
      "tivac": 7607,
      "Ġagravante": 7608,
      "Ġfeminino": 7609,
      "ĠAir": 7610,
      "Ġassumir": 7611,
      "Ġavo": 7612,
      "ivo": 7613,
      "Ġsentir": 7614,
      "niente": 7615,
      "To": 7616,
      "Ġvenha": 7617,
      "ĠOposic": 7618,
      "ĠSujeita": 7619,
      "URI": 7620,
      "ĠJan": 7621,
      "ĠSantiago": 7622,
      "Ġfotos": 7623,
      "Ġnegocia": 7624,
      "Ġcoopera": 7625,
      "59": 7626,
      "Ġpudesse": 7627,
      "Ġsabem": 7628,
      "culas": 7629,
      "Ġincri": 7630,
      "Ġboca": 7631,
      "Ġverifica": 7632,
      "ĠLewando": 7633,
      "Ġconhec": 7634,
      "ĠConsumidor": 7635,
      "Ġextinc": 7636,
      "way": 7637,
      "meras": 7638,
      "Ġace": 7639,
      "lulas": 7640,
      "ĠPB": 7641,
      "Ġinfantil": 7642,
      "Ġconfro": 7643,
      "Ġinflac": 7644,
      "Ġsena": 7645,
      "?!": 7646,
      "ENE": 7647,
      "Ġequivalente": 7648,
      "od": 7649,
      "ĠMI": 7650,
      "Ġquerido": 7651,
      "112": 7652,
      "Ġtac": 7653,
      "ĠEnc": 7654,
      "lida": 7655,
      "ĠHospital": 7656,
      "Ġlhes": 7657,
      "Ġgarota": 7658,
      "1999": 7659,
      "Ġdecidir": 7660,
      "Ġ61": 7661,
      "rian": 7662,
      "ĠLewandowski": 7663,
      "ĠAlfre": 7664,
      "Ġsile": 7665,
      "nime": 7666,
      "mnP": 7667,
      "Ġperio": 7668,
      "Ġaquelas": 7669,
      "Ġindustrial": 7670,
      "ĠPrefeitura": 7671,
      "Ġseguimento": 7672,
      "Ġnamo": 7673,
      "ĠAf": 7674,
      "Ġmesmas": 7675,
      "ĠEns": 7676,
      "ĠCombate": 7677,
      "ĠDan": 7678,
      "rine": 7679,
      "ĠCI": 7680,
      "Ġilustre": 7681,
      "ried": 7682,
      "Ġfeno": 7683,
      "Ġpreju": 7684,
      "Inoce": 7685,
      "Ġidentidade": 7686,
      "ĠDen": 7687,
      "ĠZona": 7688,
      "ĠMaior": 7689,
      "lack": 7690,
      "Ġgere": 7691,
      "ĠAbril": 7692,
      "Ġdefinido": 7693,
      "Ġtabela": 7694,
      "hip": 7695,
      "Ġdireita": 7696,
      "ĠTes": 7697,
      "ĠINFORMA": 7698,
      "ĠEsporte": 7699,
      "Ġpersonal": 7700,
      "Ġescolar": 7701,
      "Ġnormalmente": 7702,
      "Ġrelevante": 7703,
      "prias": 7704,
      "tego": 7705,
      "Ġamiga": 7706,
      "53": 7707,
      "ĠBruno": 7708,
      "TAL": 7709,
      "Ġdestes": 7710,
      "ESSO": 7711,
      "Ġconvidados": 7712,
      "Ġdignidade": 7713,
      "ĠBus": 7714,
      "Ġ1983": 7715,
      "Ġcomida": 7716,
      "Qu": 7717,
      "jado": 7718,
      "unidense": 7719,
      "Ġfinancia": 7720,
      "Ġcontou": 7721,
      "Ġutilizada": 7722,
      "VISA": 7723,
      "Ġanimal": 7724,
      "Ġreu": 7725,
      "Ġorganiza": 7726,
      "Ġaborda": 7727,
      "ĠAbreu": 7728,
      "briel": 7729,
      "Ġproduzido": 7730,
      "Ġpresos": 7731,
      "ĠTurismo": 7732,
      "ashington": 7733,
      "essiona": 7734,
      "Ġoradora": 7735,
      "mera": 7736,
      "tsu": 7737,
      "Ġprazos": 7738,
      "moc": 7739,
      "Ġgerais": 7740,
      "Ġjusta": 7741,
      "Ġdevol": 7742,
      "Ġespero": 7743,
      "Ġespecificamente": 7744,
      "Ġprazer": 7745,
      "Ġnal": 7746,
      "ĠCabo": 7747,
      "ĠCro": 7748,
      "Ġtados": 7749,
      "EITO": 7750,
      "Ġrapa": 7751,
      "ĠRES": 7752,
      "ĠPO": 7753,
      "Ġpovos": 7754,
      "Ġdeco": 7755,
      "Ġescolhi": 7756,
      "rativo": 7757,
      "ĠAparte": 7758,
      "69": 7759,
      "Ġdiscipli": 7760,
      "Ġdesigual": 7761,
      "Carlos": 7762,
      "ĠPmdbPpP": 7763,
      "Ġutilizar": 7764,
      "Ġprotago": 7765,
      "ĠOutubro": 7766,
      "pPsd": 7767,
      "ĠEmenta": 7768,
      "ĠJUSTIF": 7769,
      "Ġlocalidades": 7770,
      "Ġdensidade": 7771,
      "lizou": 7772,
      "cantins": 7773,
      "ĠSetembro": 7774,
      "Ġconti": 7775,
      "TONIO": 7776,
      "ĠEsti": 7777,
      "Ġesgo": 7778,
      "ĠPlane": 7779,
      "Ġabre": 7780,
      "ĠSUP": 7781,
      "yal": 7782,
      "Ġdevendo": 7783,
      "Ġserve": 7784,
      "dobP": 7785,
      "Ġsesso": 7786,
      "valdo": 7787,
      "ĠRan": 7788,
      "Ġprofunda": 7789,
      "umo": 7790,
      "Ġderru": 7791,
      "ĠPossui": 7792,
      "Ġinfrac": 7793,
      "MP": 7794,
      "ĠOsmar": 7795,
      "Ġesto": 7796,
      "Lo": 7797,
      "Ġcomuns": 7798,
      "Ġfazia": 7799,
      "62": 7800,
      "Ġcivis": 7801,
      "Ġidos": 7802,
      "tions": 7803,
      "Ġmelhoria": 7804,
      "Pu": 7805,
      "stri": 7806,
      "Ġtorneio": 7807,
      "gindo": 7808,
      "ĠDIST": 7809,
      "Ġandar": 7810,
      "Ġquinze": 7811,
      "ĠComite": 7812,
      "mular": 7813,
      "Ġamericana": 7814,
      "Ġbaix": 7815,
      "rioca": 7816,
      "Ġvolunta": 7817,
      "Ġobteve": 7818,
      "ĠAgradec": 7819,
      "Ġformato": 7820,
      "Ġdomina": 7821,
      "Ġoli": 7822,
      "Ġquebra": 7823,
      "ĠLar": 7824,
      "Ġadequada": 7825,
      "ĠJardim": 7826,
      "Ġinteira": 7827,
      "ĠVenezuela": 7828,
      "ĠOf": 7829,
      "Ġevoluc": 7830,
      "ĠEconomia": 7831,
      "INO": 7832,
      "Ġ1976": 7833,
      "ĠJefferson": 7834,
      "Ġsingle": 7835,
      "gby": 7836,
      "Ġquerer": 7837,
      "Ġtido": 7838,
      "Ġagenda": 7839,
      "Ġurbana": 7840,
      "fls": 7841,
      "Comissa": 7842,
      "lly": 7843,
      "ĠMED": 7844,
      "Ġcolocado": 7845,
      "ĠDessa": 7846,
      "ĠTOFF": 7847,
      "mana": 7848,
      "ĠTOFFOLI": 7849,
      "ĠHel": 7850,
      "ĠHABEAS": 7851,
      "ĠOutra": 7852,
      "Ġpales": 7853,
      "Ġ1979": 7854,
      "ĠCIDA": 7855,
      "Ġmaravil": 7856,
      "ĠSue": 7857,
      "Ġdeixe": 7858,
      "Ġpandemia": 7859,
      "Ġitaliano": 7860,
      "Ġregistros": 7861,
      "Ġrespectiva": 7862,
      "ĠPresentes": 7863,
      "comunicac": 7864,
      "Ġdem": 7865,
      "Ġciru": 7866,
      "ĠNunes": 7867,
      "Ġlutar": 7868,
      "Ġtela": 7869,
      "Ġgale": 7870,
      "ĠRamos": 7871,
      "Ġcontrove": 7872,
      "irs": 7873,
      "Ġativa": 7874,
      "nego": 7875,
      "ĠJui": 7876,
      "ionamento": 7877,
      "Ġsupri": 7878,
      "Ġautonomia": 7879,
      "uito": 7880,
      "ĠCamp": 7881,
      "Ġmagis": 7882,
      "Ġense": 7883,
      "ĠTocantins": 7884,
      "ĠDivisa": 7885,
      "Ġrepa": 7886,
      "Ġmadeira": 7887,
      "ĠYo": 7888,
      "GM": 7889,
      "ĠDEPUTADOS": 7890,
      "ĠRafa": 7891,
      "Ġ400": 7892,
      "Ġocupada": 7893,
      "Ġtopo": 7894,
      "ERRA": 7895,
      "Ġcaiu": 7896,
      "ĠSebas": 7897,
      "Ġdestinado": 7898,
      "ĠConforme": 7899,
      "Ġfique": 7900,
      "TEN": 7901,
      "gadores": 7902,
      "PSOL": 7903,
      "Ġsocio": 7904,
      "niza": 7905,
      "Ġapos": 7906,
      "cep": 7907,
      "Ġtrabalhou": 7908,
      "ĠDEF": 7909,
      "ĠUnidas": 7910,
      "Ġaceitar": 7911,
      "grafos": 7912,
      "DANIA": 7913,
      "Ġrecorrido": 7914,
      "ĠBre": 7915,
      "Ġempa": 7916,
      "itac": 7917,
      "Ġexcep": 7918,
      "Ġrelacionadas": 7919,
      "gesta": 7920,
      "ĠAmaral": 7921,
      "Ġacusado": 7922,
      "Ġfundada": 7923,
      "ĠFro": 7924,
      "Ġreexame": 7925,
      "Ġpreventi": 7926,
      "ĠCarneiro": 7927,
      "Ġalo": 7928,
      "Ġdestacar": 7929,
      "leta": 7930,
      "Ġcone": 7931,
      "estre": 7932,
      "Ġdefinir": 7933,
      "Ġobservado": 7934,
      "ĠBatalha": 7935,
      "Ġcadeia": 7936,
      "Ġpertencente": 7937,
      "ĠRubens": 7938,
      "Ġimagina": 7939,
      "Ġcaro": 7940,
      "Ġvistas": 7941,
      "Ġcem": 7942,
      "brica": 7943,
      "mic": 7944,
      "hsPen": 7945,
      "gne": 7946,
      "ĠVotac": 7947,
      "Ġestrada": 7948,
      "DER": 7949,
      "ĠAtle": 7950,
      "Ġapresentados": 7951,
      "Ġmodificac": 7952,
      "ĠAlgue": 7953,
      "Ġpaci": 7954,
      "Ġguar": 7955,
      "ĠCapital": 7956,
      "ĠConfere": 7957,
      "Ġsuposta": 7958,
      "Ġjornais": 7959,
      "ĠData": 7960,
      "Ġpares": 7961,
      "ĠFonte": 7962,
      "Ġcaptura": 7963,
      "Ġreceitas": 7964,
      "undos": 7965,
      "ĠRural": 7966,
      "km": 7967,
      "Ġwiki": 7968,
      "ĠSampa": 7969,
      "Ġabsolutamente": 7970,
      "bilia": 7971,
      "Ġgaranti": 7972,
      "Ġcondenac": 7973,
      "ĠAgosto": 7974,
      "Ġ1943": 7975,
      "ĠDelegado": 7976,
      "Ġ84": 7977,
      "ĠAmapa": 7978,
      "Ġconvers": 7979,
      "Ġadjudica": 7980,
      "ĠCato": 7981,
      "Ġhomenage": 7982,
      "Ġachar": 7983,
      "ĠIde": 7984,
      "Ġcontribuir": 7985,
      "ĠIsrael": 7986,
      "Ġproi": 7987,
      "Ġcobertura": 7988,
      "Ġconcorda": 7989,
      "lenda": 7990,
      "Ġfundos": 7991,
      "alves": 7992,
      "Ġespanhol": 7993,
      "ĠConsta": 7994,
      "ĠCharles": 7995,
      "Ġmensal": 7996,
      "ĠPeri": 7997,
      "ĠCastelo": 7998,
      "51": 7999,
      "TADAS": 8000,
      "licos": 8001,
      "ĠIno": 8002,
      "Ġdeveriam": 8003,
      "ĠGer": 8004,
      "Ġexpl": 8005,
      "ĠManaus": 8006,
      "PES": 8007,
      "Ġtransformac": 8008,
      "ĠEstre": 8009,
      "63": 8010,
      "ĠRose": 8011,
      "osco": 8012,
      "rsia": 8013,
      "achment": 8014,
      "Ġsalvo": 8015,
      "Ġgovernos": 8016,
      "ĠRomero": 8017,
      "Ġformado": 8018,
      "Ġtomou": 8019,
      "Ġdesper": 8020,
      "Ġambas": 8021,
      "nir": 8022,
      "Ġdeslo": 8023,
      "Ġpris": 8024,
      "Ġestatal": 8025,
      "Ġhaviam": 8026,
      "BAL": 8027,
      "Ġconsig": 8028,
      "Ġcombinado": 8029,
      "gria": 8030,
      "ĠFiscal": 8031,
      "ĠPrP": 8032,
      "ĠIC": 8033,
      "ĠSeus": 8034,
      "ison": 8035,
      "ĠAgu": 8036,
      "Ġcantor": 8037,
      "Ġestabelecimentos": 8038,
      "ĠEnco": 8039,
      "Ġimediata": 8040,
      "Ġcient": 8041,
      "ntudo": 8042,
      "Ġsalvar": 8043,
      "ĠPrac": 8044,
      "ĠAVISOS": 8045,
      "bidas": 8046,
      "pin": 8047,
      "Ġim": 8048,
      "Ġincluem": 8049,
      "Ġintelec": 8050,
      "ĠAdemais": 8051,
      "Ġoriginalmente": 8052,
      "Ġfundamentais": 8053,
      "trico": 8054,
      "Ġcompleto": 8055,
      "Ġbasta": 8056,
      "ĠRodovia": 8057,
      "grada": 8058,
      "Ġjusto": 8059,
      "Ġsegre": 8060,
      "cunda": 8061,
      "Ġfaixas": 8062,
      "ĠJr": 8063,
      "ĠWashington": 8064,
      "Ġespal": 8065,
      "ĠSebastia": 8066,
      "Ġprioridade": 8067,
      "Ġlembro": 8068,
      "ĠTom": 8069,
      "Ġtitulares": 8070,
      "tbPscPhsPen": 8071,
      "ĠArte": 8072,
      "Ġsobrevive": 8073,
      "VIDO": 8074,
      "Ġcaute": 8075,
      "Ġlac": 8076,
      "ĠLatina": 8077,
      "ĠGi": 8078,
      "ĠWell": 8079,
      "ĠPmdbPpPtbPscPhsPen": 8080,
      "nial": 8081,
      "Ġveic": 8082,
      "pico": 8083,
      "tente": 8084,
      "ĠDIR": 8085,
      "cera": 8086,
      "Ġjusti": 8087,
      "Ġbons": 8088,
      "cena": 8089,
      "Ġimportac": 8090,
      "Ġverificar": 8091,
      "ĠIND": 8092,
      "Ġaplicada": 8093,
      "Ġfirme": 8094,
      "ĠBis": 8095,
      "ĠCorpo": 8096,
      "ĠFIN": 8097,
      "ĠJunho": 8098,
      "ĠGabriel": 8099,
      "ĠGostaria": 8100,
      "estade": 8101,
      "ĠBN": 8102,
      "Ġpontu": 8103,
      "Ġusados": 8104,
      "nch": 8105,
      "Ġdeputados": 8106,
      "quista": 8107,
      "Ġreporta": 8108,
      "deos": 8109,
      "ĠFG": 8110,
      "ĠRock": 8111,
      "ĠRaim": 8112,
      "ĠPle": 8113,
      "Ġverso": 8114,
      "MULA": 8115,
      "gma": 8116,
      "Ġemissa": 8117,
      "lindo": 8118,
      "pical": 8119,
      "ĠAI": 8120,
      "Ġpoe": 8121,
      "Ġcolaborac": 8122,
      "ĠGIL": 8123,
      "ĠDeli": 8124,
      "Ġvantagem": 8125,
      "Ġtranspor": 8126,
      "pina": 8127,
      "ĠHelena": 8128,
      "Ġjamais": 8129,
      "Ġraio": 8130,
      "Ġanalisar": 8131,
      "ĠAgri": 8132,
      "Ġobjetos": 8133,
      "ĠJuri": 8134,
      "Ġpassam": 8135,
      "ĠPortuguesa": 8136,
      "Ġcarne": 8137,
      "ĠCONC": 8138,
      "ĠANTONIO": 8139,
      "Ġnao": 8140,
      "Ġresponder": 8141,
      "una": 8142,
      "MC": 8143,
      "Ġabas": 8144,
      "Ġvidas": 8145,
      "Ġtantos": 8146,
      "Ġcausas": 8147,
      "Ġ1969": 8148,
      "Ġcooperac": 8149,
      "ficadas": 8150,
      "Ġtropas": 8151,
      "ĠPan": 8152,
      "Ġconquistou": 8153,
      "ĠLira": 8154,
      "ĠTVR": 8155,
      "lizados": 8156,
      "ĠNovembro": 8157,
      "mpanhas": 8158,
      "ĠContudo": 8159,
      "Ġfran": 8160,
      "Ġparque": 8161,
      "AD": 8162,
      "Ġinfelizmente": 8163,
      "ĠRibeira": 8164,
      "ĠCONTRATADA": 8165,
      "mulac": 8166,
      "dinho": 8167,
      "Ġrecons": 8168,
      "Ġvariac": 8169,
      "ĠDISTRITO": 8170,
      "VIO": 8171,
      "gov": 8172,
      "rnia": 8173,
      "Ġexclusiva": 8174,
      "ĠBolsa": 8175,
      "cara": 8176,
      "Ġ68": 8177,
      "Ġverificac": 8178,
      "positor": 8179,
      "Ġreligios": 8180,
      "nciada": 8181,
      "fabe": 8182,
      "alizado": 8183,
      "Ġmecanismos": 8184,
      "gonha": 8185,
      "ĠGL": 8186,
      "ISA": 8187,
      "ĠSampaio": 8188,
      "Ġestivesse": 8189,
      "raram": 8190,
      "Ġfator": 8191,
      "fes": 8192,
      "Ġfornecimento": 8193,
      "dt": 8194,
      "Ġsuporte": 8195,
      "Bo": 8196,
      "mens": 8197,
      "ĠPrinci": 8198,
      "ĠRob": 8199,
      "togra": 8200,
      "ĠDESTA": 8201,
      "Ġtratado": 8202,
      "Ġfatores": 8203,
      "BRAS": 8204,
      "ĠInfa": 8205,
      "Ġlaborato": 8206,
      "dobPr": 8207,
      "Ġvisi": 8208,
      "Ġigualdade": 8209,
      "ĠObser": 8210,
      "ĠENCAMIN": 8211,
      "uca": 8212,
      "ĠValdir": 8213,
      "Ġpega": 8214,
      "Ġvende": 8215,
      "Ġfome": 8216,
      "rmula": 8217,
      "Ġadicional": 8218,
      "Ho": 8219,
      "Te": 8220,
      "Ġturismo": 8221,
      "ĠTributac": 8222,
      "Ġ1982": 8223,
      "bic": 8224,
      "ĠCELSO": 8225,
      "ĠDezembro": 8226,
      "ĠPELA": 8227,
      "Ġfortes": 8228,
      "lhimento": 8229,
      "teu": 8230,
      "Ġdevia": 8231,
      "ĠVA": 8232,
      "itou": 8233,
      "Ġ1967": 8234,
      "Ġgerar": 8235,
      "Ġvenho": 8236,
      "Ġconsumidores": 8237,
      "tral": 8238,
      "Ġcabi": 8239,
      "Tra": 8240,
      "Ġdestru": 8241,
      "Ġcorrida": 8242,
      "del": 8243,
      "port": 8244,
      "ĠSino": 8245,
      "Ġapensados": 8246,
      "Ġatingir": 8247,
      "ĠOri": 8248,
      "df": 8249,
      "Ġ1950": 8250,
      "Ġinexiste": 8251,
      "Ġrealizou": 8252,
      "Ġideias": 8253,
      "ĠGilberto": 8254,
      "ĠMiranda": 8255,
      "Ġjulgar": 8256,
      "Ġabu": 8257,
      "ĠForta": 8258,
      "Ġrelatoria": 8259,
      "Ġataques": 8260,
      "Ġ67": 8261,
      "ĠConstituinte": 8262,
      "ĠVie": 8263,
      "tara": 8264,
      "Ġreconhecer": 8265,
      "Ġdescende": 8266,
      "Ġcoletivo": 8267,
      "riana": 8268,
      "blicou": 8269,
      "ĠEspera": 8270,
      "ĠREPU": 8271,
      "Ġdizia": 8272,
      "ĠSto": 8273,
      "PC": 8274,
      "funda": 8275,
      "Ġ1972": 8276,
      "ĠAPROVA": 8277,
      "ĠRespo": 8278,
      "Ġaposentados": 8279,
      "Ġgraves": 8280,
      "ides": 8281,
      "plas": 8282,
      "Ġbandeira": 8283,
      "ĠPoderes": 8284,
      "Ġinovac": 8285,
      "ĠDois": 8286,
      "ĠLos": 8287,
      "lene": 8288,
      "ĠCondado": 8289,
      "Ġantigos": 8290,
      "rendo": 8291,
      "ĠCabe": 8292,
      "rs": 8293,
      "Ġalvo": 8294,
      "missi": 8295,
      "Ġexpectativa": 8296,
      "Ġ1974": 8297,
      "ĠSolicita": 8298,
      "Ġjapo": 8299,
      "mith": 8300,
      "Ġrigor": 8301,
      "Ġretirar": 8302,
      "ĠSempre": 8303,
      "Ġcional": 8304,
      "ĠDefe": 8305,
      "Ġpensamento": 8306,
      "ĠConta": 8307,
      "grantes": 8308,
      "Ġrazoa": 8309,
      "Ġobjetiva": 8310,
      "Ġplantas": 8311,
      "Ġapurac": 8312,
      "ĠLava": 8313,
      "Paulo": 8314,
      "Ġmoradores": 8315,
      "Ġencaminhar": 8316,
      "ALDO": 8317,
      "ĠBatista": 8318,
      "áħ": 8319,
      "Ġconsider": 8320,
      "Ġintelige": 8321,
      "don": 8322,
      "ĠAPRESENTADAS": 8323,
      "ĠSpe": 8324,
      "Ġcerimo": 8325,
      "dice": 8326,
      "Ġprivadas": 8327,
      "quinas": 8328,
      "Ġencerramento": 8329,
      "ital": 8330,
      "ĠSousa": 8331,
      "Ġhistoria": 8332,
      "ĠAmi": 8333,
      "Ġexperi": 8334,
      "ĠRac": 8335,
      "ĠEnsino": 8336,
      "ĠFederativa": 8337,
      "PLE": 8338,
      "ĠCCJ": 8339,
      "Ġficaram": 8340,
      "Ġigualmente": 8341,
      "Ġdescu": 8342,
      "Ne": 8343,
      "Ġpensando": 8344,
      "ĠDiretora": 8345,
      "institui": 8346,
      "Ġdesenvolvido": 8347,
      "ĠFiscalizac": 8348,
      "ĠConse": 8349,
      "CON": 8350,
      "Ġelenco": 8351,
      "ĠNico": 8352,
      "Ġdurac": 8353,
      "ĠDeixe": 8354,
      "Ġoficialmente": 8355,
      "Pre": 8356,
      "Ġalterar": 8357,
      "rizar": 8358,
      "ĠJuca": 8359,
      "Ġdeso": 8360,
      "ĠArtes": 8361,
      "bac": 8362,
      "duo": 8363,
      "vita": 8364,
      "Ġfoco": 8365,
      "Ġtone": 8366,
      "Ġemo": 8367,
      "Ġencerrar": 8368,
      "ĠMEL": 8369,
      "Ġmanifestar": 8370,
      "ĠSoares": 8371,
      "ĠSugere": 8372,
      "ĠEmpresa": 8373,
      "Ġestejam": 8374,
      "ĠFel": 8375,
      "ĠLA": 8376,
      "ĠJos": 8377,
      "Ġconservac": 8378,
      "preende": 8379,
      "Ġlinguagem": 8380,
      "ĠRau": 8381,
      "BS": 8382,
      "Ġchamados": 8383,
      "ĠAND": 8384,
      "Ġmole": 8385,
      "Ġbro": 8386,
      "Ġobservac": 8387,
      "base": 8388,
      "Ġreconhecida": 8389,
      "Ġema": 8390,
      "ĠUnited": 8391,
      "Ġmistura": 8392,
      "ribe": 8393,
      "Ġteremos": 8394,
      "Ġcompartilha": 8395,
      "cinco": 8396,
      "Ġagradecer": 8397,
      "ISTA": 8398,
      "ĠHera": 8399,
      "corro": 8400,
      "Ġabsur": 8401,
      "Ġchegada": 8402,
      "Ġporto": 8403,
      "Ġmedalha": 8404,
      "ĠGonzaga": 8405,
      "Ġjustamente": 8406,
      "áĦ": 8407,
      "ĠMulher": 8408,
      "ĠVel": 8409,
      "Ġenvolvidos": 8410,
      "ĠEstudos": 8411,
      "tha": 8412,
      "Ġindependentemente": 8413,
      "ICE": 8414,
      "Ġemissora": 8415,
      "Ġcostuma": 8416,
      "ĠBRAS": 8417,
      "Ġvendas": 8418,
      "Ġmortes": 8419,
      "ĠCho": 8420,
      "ĠAlva": 8421,
      "Ġplanejamento": 8422,
      "ĠPastor": 8423,
      "Ġreunio": 8424,
      "ĠCIDADANIA": 8425,
      "Ġ1981": 8426,
      "Ġrespectivas": 8427,
      "Ġmex": 8428,
      "Ġnavio": 8429,
      "ĠPolo": 8430,
      "PSD": 8431,
      "ĠJANEIRO": 8432,
      "Ġconcedida": 8433,
      "Ġinterme": 8434,
      "Ġinterposto": 8435,
      "Ġempenho": 8436,
      "ĠWellington": 8437,
      "arque": 8438,
      "Ġtributos": 8439,
      "ĠPic": 8440,
      "Ġcarto": 8441,
      "Ġestudar": 8442,
      "VAS": 8443,
      "ĠSANTA": 8444,
      "ĠSuas": 8445,
      "Ġpeda": 8446,
      "Ġperspectiva": 8447,
      "ĠFederais": 8448,
      "ĠConclusiva": 8449,
      "ĠTeatro": 8450,
      "inel": 8451,
      "ĠNenh": 8452,
      "Ġ1975": 8453,
      "Ġdespro": 8454,
      "ĠConde": 8455,
      "Ġ:(((": 8456,
      "Ġtentou": 8457,
      "Ġtranspare": 8458,
      "Ġcarros": 8459,
      "Ġempreendi": 8460,
      "wit": 8461,
      "Ġ________________": 8462,
      "Ġhar": 8463,
      "ĠOuro": 8464,
      "ĠIlha": 8465,
      "ĠConhe": 8466,
      "diano": 8467,
      "Ġinade": 8468,
      "ĠTI": 8469,
      "Ġpul": 8470,
      "Ġdeus": 8471,
      "nadora": 8472,
      "ĠON": 8473,
      "Ġcoluna": 8474,
      "Vo": 8475,
      "ĠRaimundo": 8476,
      "Ġreclamac": 8477,
      "Ġinteressante": 8478,
      "ĠDomingos": 8479,
      "Ð¾": 8480,
      "ĠSy": 8481,
      "Ġprofessora": 8482,
      "ĠREUNIA": 8483,
      "ĠTitu": 8484,
      "ind": 8485,
      "UC": 8486,
      "Ġtextos": 8487,
      "ĠBARROS": 8488,
      "quita": 8489,
      "Ġaula": 8490,
      "nque": 8491,
      "ĠSergio": 8492,
      "Pal": 8493,
      "Ġvivem": 8494,
      "Ġacreditar": 8495,
      "Ġeventuais": 8496,
      "inc": 8497,
      "ĠFranco": 8498,
      "tdobPr": 8499,
      "Ġmostrou": 8500,
      "EZ": 8501,
      "Ġuniversi": 8502,
      "sg": 8503,
      "TTO": 8504,
      "Ġarro": 8505,
      "Ġirri": 8506,
      "ĠInfe": 8507,
      "ĠIndi": 8508,
      "ĠConf": 8509,
      "Ġcidadania": 8510,
      "Ġtomada": 8511,
      "Ġmandado": 8512,
      "DOS": 8513,
      "Ġza": 8514,
      "Ġprac": 8515,
      "Ġdebates": 8516,
      "Ġsoft": 8517,
      "ĠSESSO": 8518,
      "Ġorienta": 8519,
      "ĠIntegrac": 8520,
      "Ġdeferi": 8521,
      "ĠGarcia": 8522,
      "BC": 8523,
      "Ġsegundos": 8524,
      "Ga": 8525,
      "Ġqualificac": 8526,
      "Ġatualizac": 8527,
      "Ġbola": 8528,
      "Ġjudiciais": 8529,
      "ĠChile": 8530,
      "Ġencaminhado": 8531,
      "ĠChi": 8532,
      "ĠGERAL": 8533,
      "ĠSinto": 8534,
      "Ġquant": 8535,
      "id": 8536,
      "Ġprego": 8537,
      "ĠMy": 8538,
      "nera": 8539,
      "Ġcama": 8540,
      "Ġconselho": 8541,
      "todos": 8542,
      "Ġmodalidade": 8543,
      "Ġpobreza": 8544,
      "Ġreconhecido": 8545,
      "ĠLinha": 8546,
      "Ġconser": 8547,
      "ĠGusta": 8548,
      "Ġpia": 8549,
      "Ġcampanhas": 8550,
      "Ġestranho": 8551,
      "MENTAR": 8552,
      "Ġfloresta": 8553,
      "ĠVia": 8554,
      "Ġconcessiona": 8555,
      "ĠVera": 8556,
      "utica": 8557,
      "Ġenvolvendo": 8558,
      "Ġjustificadamente": 8559,
      "Ġnucle": 8560,
      "VER": 8561,
      "mpio": 8562,
      "ĠAbra": 8563,
      "ĠMorais": 8564,
      "Ġpessoais": 8565,
      "Ġderrota": 8566,
      "Ġcolec": 8567,
      "tory": 8568,
      "Ġdesma": 8569,
      "ana": 8570,
      "ten": 8571,
      "ĠAda": 8572,
      "essora": 8573,
      "ĠDEP": 8574,
      "ĠPadre": 8575,
      "Ġindividuais": 8576,
      "xxxx": 8577,
      "Ġcontudo": 8578,
      "Ġconsenso": 8579,
      "Ġfuncional": 8580,
      "Ġilu": 8581,
      "ndou": 8582,
      "ĠProduc": 8583,
      "Mic": 8584,
      "ĠLem": 8585,
      "Ġfes": 8586,
      "Ġconstar": 8587,
      "giram": 8588,
      "Jose": 8589,
      "Ġestrangeiros": 8590,
      "ĠLau": 8591,
      "ĠHan": 8592,
      "Ġ1966": 8593,
      "Ġcentros": 8594,
      "ĠContinu": 8595,
      "ĠFUX": 8596,
      "ritiba": 8597,
      "ERA": 8598,
      "Ġfle": 8599,
      "ĠOlhe": 8600,
      "Ġ000": 8601,
      "Ġvencedor": 8602,
      "Ġatitude": 8603,
      "Ġingresso": 8604,
      "ĠJer": 8605,
      "Ġformar": 8606,
      "Ġabo": 8607,
      "Ġexplicar": 8608,
      "Ġesporte": 8609,
      "ĠPROS": 8610,
      "Ġ1978": 8611,
      "volu": 8612,
      "mbio": 8613,
      "teroide": 8614,
      "Ġ\"\"": 8615,
      "pra": 8616,
      "Ġvigente": 8617,
      "irou": 8618,
      "Ġponte": 8619,
      "ĠRecurso": 8620,
      "ĠTodo": 8621,
      "Ġ1977": 8622,
      "ĠTuma": 8623,
      "Ġcompanheiro": 8624,
      "DC": 8625,
      "Ġcomplexo": 8626,
      "Ġsenhora": 8627,
      "Ġpropaganda": 8628,
      "500": 8629,
      "Ġolho": 8630,
      "naval": 8631,
      "radoria": 8632,
      "Ġestreou": 8633,
      "Ġrelativamente": 8634,
      "ĠPatrimo": 8635,
      "ĠHorizonte": 8636,
      "Ġambientais": 8637,
      "Ġdesafio": 8638,
      "Ġcomercializac": 8639,
      "ĠStar": 8640,
      "Ġtestes": 8641,
      "Ġatuar": 8642,
      "ĠMarinho": 8643,
      "zendo": 8644,
      "lidos": 8645,
      "wood": 8646,
      "Ex": 8647,
      "reu": 8648,
      "Ġingles": 8649,
      "ĠClub": 8650,
      "ĠMusic": 8651,
      "Ġtemperatura": 8652,
      "Ġobservar": 8653,
      "bei": 8654,
      "ĠMuitos": 8655,
      "Ġverde": 8656,
      "idado": 8657,
      "Ġ63": 8658,
      "\"?": 8659,
      "Ġliberac": 8660,
      "Ġconceder": 8661,
      "Ġgeogra": 8662,
      "Ġmodelos": 8663,
      "ĠKen": 8664,
      "ĠÂ§Â§": 8665,
      "elos": 8666,
      "Ġdesli": 8667,
      "Ġfantas": 8668,
      "nseca": 8669,
      "Ġpercebe": 8670,
      "ĠLy": 8671,
      "Ġdormir": 8672,
      "ĠCarmen": 8673,
      "Ġfrancesa": 8674,
      "dire": 8675,
      "Ġcores": 8676,
      "Ġ>": 8677,
      "Ġala": 8678,
      "tcPs": 8679,
      "trina": 8680,
      "Ġromance": 8681,
      "ĠSergi": 8682,
      "Ġmini": 8683,
      "pula": 8684,
      "ĠMovimento": 8685,
      "Ġregionais": 8686,
      "ĠIvan": 8687,
      "Ġpatroci": 8688,
      "Ġriscos": 8689,
      "Ġelo": 8690,
      "STRU": 8691,
      "ĠExistem": 8692,
      "Ġalcance": 8693,
      "Ġorganizado": 8694,
      "ĠAmo": 8695,
      "ĠSI": 8696,
      "Ġtraduc": 8697,
      "ĠPROCE": 8698,
      "ĠClasse": 8699,
      "mnPr": 8700,
      "ĠCAPI": 8701,
      "ĠPraia": 8702,
      "cife": 8703,
      "Ha": 8704,
      "Ġconstru": 8705,
      "Ġleite": 8706,
      "Ġner": 8707,
      "ĠValada": 8708,
      "Ġcredi": 8709,
      "Ġservir": 8710,
      "Ġazul": 8711,
      "ĠSustenta": 8712,
      "Ġzero": 8713,
      "ĠPeru": 8714,
      "ĠHenry": 8715,
      "Ġjurisdic": 8716,
      "ĠORDEM": 8717,
      "Ġcosta": 8718,
      "belece": 8719,
      "Ġexistente": 8720,
      "wer": 8721,
      "Ġimpeachment": 8722,
      "MINISTRA": 8723,
      "ĠMEMB": 8724,
      "Ġalimentac": 8725,
      "Ġdiscutidos": 8726,
      "Ġestadunidense": 8727,
      "rildo": 8728,
      "Ġalternativa": 8729,
      "nsas": 8730,
      "Ġindicado": 8731,
      "Ġconhecidos": 8732,
      "Ġreele": 8733,
      "Ġvocal": 8734,
      "ĠIor": 8735,
      "Ġampliar": 8736,
      "Ġpositivo": 8737,
      "ĠChinaglia": 8738,
      "Ġoportunidades": 8739,
      "mbeiros": 8740,
      "ĠBoli": 8741,
      "Ġaeroporto": 8742,
      "Ġavalia": 8743,
      "áĥ": 8744,
      "Ġdoze": 8745,
      "Ġesperando": 8746,
      "gimento": 8747,
      "Ġadmissibilidade": 8748,
      "ĠNogueira": 8749,
      "ĠConfederac": 8750,
      "Ġsozinho": 8751,
      "Ġedital": 8752,
      "Ġmasculino": 8753,
      "ĠMATE": 8754,
      "ĠSco": 8755,
      "ĠÂ·": 8756,
      "Ġeficie": 8757,
      "Ġhospitais": 8758,
      "Ġconflitos": 8759,
      "Ġcontradito": 8760,
      "cionado": 8761,
      "1993": 8762,
      "Ġevidente": 8763,
      "ĠDI": 8764,
      "Ġpedidos": 8765,
      "Ġpublicou": 8766,
      "Ġexcelente": 8767,
      "Ġenvolve": 8768,
      "ĠÎ": 8769,
      "Ġbei": 8770,
      "Ġcondenado": 8771,
      "Ġcampos": 8772,
      "Ġvencer": 8773,
      "ĠPlanejamento": 8774,
      "Ġpedra": 8775,
      "incide": 8776,
      "ĠAnt": 8777,
      "ĠABA": 8778,
      "ĠCONTRATANTE": 8779,
      "Ġastro": 8780,
      "Ġrock": 8781,
      "IXO": 8782,
      "Ġchamou": 8783,
      "Ġchegaram": 8784,
      "lera": 8785,
      "prova": 8786,
      "âĢĵâĢĵâĢĵâĢĵâĢĵâĢĵâĢĵâĢĵâĢĵâĢĵâĢĵâĢĵâĢĵâĢĵâĢĵâĢĵ": 8787,
      "Ġconsa": 8788,
      "icais": 8789,
      "ĠGri": 8790,
      "parece": 8791,
      "Ġcolega": 8792,
      "Ġuniversita": 8793,
      "ĠMEMBROS": 8794,
      "Ġcuidar": 8795,
      "âĢľ": 8796,
      "ĠFontes": 8797,
      "Ġloja": 8798,
      "Ġadi": 8799,
      "Ġterminar": 8800,
      "Ġfusa": 8801,
      "Ġsoldados": 8802,
      "Ġcontempora": 8803,
      "bes": 8804,
      "ĠFUN": 8805,
      "Ġminis": 8806,
      "yu": 8807,
      "ĠDuarte": 8808,
      "Ġpio": 8809,
      "Ġcoragem": 8810,
      "Ġsolicita": 8811,
      "ĠPslP": 8812,
      "Ġestrela": 8813,
      "Ġpesquisadores": 8814,
      "ĠDor": 8815,
      "Ġnesses": 8816,
      "100": 8817,
      "GEM": 8818,
      "Ġalegria": 8819,
      "sificac": 8820,
      "Ġgeneral": 8821,
      "Ġconstituic": 8822,
      "mindo": 8823,
      "ĠVenha": 8824,
      "Ġcujos": 8825,
      "ENS": 8826,
      "eu": 8827,
      "ĠNessa": 8828,
      "ÌĤ!": 8829,
      "Ġtru": 8830,
      "ĠReforma": 8831,
      "Ġobede": 8832,
      "Ġpopulares": 8833,
      "Ġjornada": 8834,
      "ĠPC": 8835,
      "ĠAlgumas": 8836,
      "rvore": 8837,
      "Ġparcialmente": 8838,
      "gola": 8839,
      "Go": 8840,
      "eto": 8841,
      "Ġliteratura": 8842,
      "ĠPronuncia": 8843,
      "Ġpopulacional": 8844,
      "Ġacompanhado": 8845,
      "nsor": 8846,
      "ĠBNDES": 8847,
      "far": 8848,
      "Ġ87": 8849,
      "RMEN": 8850,
      "Ġbases": 8851,
      "ĠFortes": 8852,
      "ĠAssocia": 8853,
      "Ġsalva": 8854,
      "Ġpiso": 8855,
      "Ġimperador": 8856,
      "Ġturne": 8857,
      "cita": 8858,
      "Ġconvocac": 8859,
      "Ġtestem": 8860,
      "ĠDiego": 8861,
      "Ġdetalhes": 8862,
      "Ġdesas": 8863,
      "Ġdescobrir": 8864,
      "mato": 8865,
      "Ġsaneamento": 8866,
      "Ġdio": 8867,
      "TICA": 8868,
      "Ġexterna": 8869,
      "strias": 8870,
      "Ġerros": 8871,
      "Ġapareceu": 8872,
      "Ġpublicidade": 8873,
      "Ġrelatados": 8874,
      "Ġcontinuou": 8875,
      "ĠBernardo": 8876,
      "Ġexpul": 8877,
      "sei": 8878,
      "ĠPEREIRA": 8879,
      "Ġdelegac": 8880,
      "ĠPmdbPtc": 8881,
      "Fo": 8882,
      "Ġtribunal": 8883,
      "ĠMINAS": 8884,
      "ĠIorque": 8885,
      "Ġtira": 8886,
      "Ġmetas": 8887,
      "ĠPETRO": 8888,
      "char": 8889,
      "TINS": 8890,
      "ARES": 8891,
      "Ġpleito": 8892,
      "pho": 8893,
      "ntam": 8894,
      "ĠAlto": 8895,
      "Ġretro": 8896,
      "ĠDeixa": 8897,
      "ĠInfra": 8898,
      "resentac": 8899,
      "Ġmargem": 8900,
      "Ġpropriedades": 8901,
      "ings": 8902,
      "ĠCabral": 8903,
      "nei": 8904,
      "PRESID": 8905,
      "xia": 8906,
      "Ġmontante": 8907,
      "ĠEditora": 8908,
      "ĠManoel": 8909,
      "ndidos": 8910,
      "ĠSuprema": 8911,
      "Ġcris": 8912,
      "bana": 8913,
      "ndices": 8914,
      "Ġcurto": 8915,
      "ulos": 8916,
      "mprimento": 8917,
      "In": 8918,
      "Ġcalc": 8919,
      "Ġmanteve": 8920,
      "INHO": 8921,
      "tira": 8922,
      "ĠBuarque": 8923,
      "Ġacompanhamento": 8924,
      "Ġcompreensa": 8925,
      "Ġtrajeto": 8926,
      "Ġrecorde": 8927,
      "ĠUNIA": 8928,
      "ĠCompe": 8929,
      "blicado": 8930,
      "Ġinque": 8931,
      "STITUCIONAL": 8932,
      "ĠPh": 8933,
      "Ġclientes": 8934,
      "ĠME": 8935,
      "Ġconvite": 8936,
      "licas": 8937,
      "ropecua": 8938,
      "ĠBarroso": 8939,
      "Ġtreinamento": 8940,
      "ĠMace": 8941,
      "Ġtarefa": 8942,
      "ĠEqui": 8943,
      "ĠAlagoas": 8944,
      "Ġprocede": 8945,
      "Ġgala": 8946,
      "Ġreajuste": 8947,
      "Ġcra": 8948,
      "ĠDos": 8949,
      "ĠGol": 8950,
      "amentos": 8951,
      "nguas": 8952,
      "ĠBandeira": 8953,
      "Esta": 8954,
      "Ġencontrado": 8955,
      "ight": 8956,
      "dras": 8957,
      "Ġatletas": 8958,
      "Ġcompanh": 8959,
      "ĠVOTO": 8960,
      "Ġcontratado": 8961,
      "Des": 8962,
      "Ġchave": 8963,
      "Ġinad": 8964,
      "cusso": 8965,
      "ĠEngenha": 8966,
      "Ġnha": 8967,
      "Ġportugues": 8968,
      "Ġinteg": 8969,
      "ixada": 8970,
      "Ġ69": 8971,
      "ĠSEGU": 8972,
      "Ġpleno": 8973,
      "Ġassus": 8974,
      "cy": 8975,
      "Ġapar": 8976,
      "Ġomissa": 8977,
      "ĠRECEBE": 8978,
      "Ġimpres": 8979,
      "Ġparale": 8980,
      "Ġprorrogac": 8981,
      "Ġaulas": 8982,
      "ĠBob": 8983,
      "ĠPrado": 8984,
      "ĠSupe": 8985,
      "Ġestrelas": 8986,
      "ĠSOMENTE": 8987,
      "ĠCinema": 8988,
      "USULA": 8989,
      "Ġorgulho": 8990,
      "503": 8991,
      "ĠXXX": 8992,
      "ĠAbas": 8993,
      "ĠTendo": 8994,
      "stenes": 8995,
      "Ġcitado": 8996,
      "ĠGio": 8997,
      "ĠCama": 8998,
      "ĠNar": 8999,
      "nalto": 9000,
      "Ġ72": 9001,
      "ĠMensa": 9002,
      "inte": 9003,
      "lista": 9004,
      "Ġestati": 9005,
      "Ġcompanheiros": 9006,
      "Ġment": 9007,
      "Ġconvidado": 9008,
      "turac": 9009,
      "icamente": 9010,
      "procu": 9011,
      "Ġsofreu": 9012,
      "ternidade": 9013,
      "Ġpau": 9014,
      "ĠXa": 9015,
      "tinos": 9016,
      "Ġ1968": 9017,
      "Ġteriam": 9018,
      "Ġaparente": 9019,
      "ĠCoro": 9020,
      "Ġcasal": 9021,
      "Ġfolha": 9022,
      "UTA": 9023,
      "ĠBrito": 9024,
      "Ġentregue": 9025,
      "Ġ78": 9026,
      "ĠSimp": 9027,
      "ĠMT": 9028,
      "ĠMatos": 9029,
      "Ġregulamento": 9030,
      "tegoria": 9031,
      "Ġ1962": 9032,
      "ĠCOS": 9033,
      "Ġnascimento": 9034,
      "ĠADMINISTRA": 9035,
      "Ġmama": 9036,
      "Ġelemento": 9037,
      "Ġnomeac": 9038,
      "cons": 9039,
      "Ġempregado": 9040,
      "ture": 9041,
      "Ġfrequentemente": 9042,
      "PRESIDENTE": 9043,
      "Ġcasou": 9044,
      "dad": 9045,
      "tricas": 9046,
      "Ġ1965": 9047,
      "ĠPermane": 9048,
      "book": 9049,
      "Relator": 9050,
      "tini": 9051,
      "Ġautomaticamente": 9052,
      "jou": 9053,
      "Ġsina": 9054,
      "ĠINSS": 9055,
      "Ġalternativas": 9056,
      "Ġlocalizac": 9057,
      "tuac": 9058,
      "reto": 9059,
      "ENC": 9060,
      "Ja": 9061,
      "nome": 9062,
      "ĠValadares": 9063,
      "Ġrelevantes": 9064,
      "Ġdemonstrac": 9065,
      "clito": 9066,
      "nham": 9067,
      "Ġcontratar": 9068,
      "Ġentretanto": 9069,
      "Ġressaltar": 9070,
      "ĠFreire": 9071,
      "baldi": 9072,
      "logos": 9073,
      "Ġletra": 9074,
      "Ġsolidariedade": 9075,
      "VEL": 9076,
      "ĠMAC": 9077,
      "Ġaguarda": 9078,
      "Ġcorreta": 9079,
      "OF": 9080,
      "Ġdura": 9081,
      "Ġtradicionais": 9082,
      "ligac": 9083,
      "Ġexemplos": 9084,
      "Ġreuniu": 9085,
      "Ġditadura": 9086,
      "zinhos": 9087,
      "Ġmarcou": 9088,
      "Ġespeta": 9089,
      "Ġformada": 9090,
      "pha": 9091,
      "ĠSergipe": 9092,
      "kay": 9093,
      "ĠPLENA": 9094,
      "Ġcabo": 9095,
      "Ġcomparac": 9096,
      "ĠCalifo": 9097,
      "ĠCAM": 9098,
      "Ġestabelecida": 9099,
      "Ġfreguesia": 9100,
      "ĠSui": 9101,
      "pper": 9102,
      "ĠMadeira": 9103,
      "ĠABAIXO": 9104,
      "fl": 9105,
      "Ġcapazes": 9106,
      "ĠINSTRU": 9107,
      "Ġespec": 9108,
      "imbra": 9109,
      "zu": 9110,
      "rint": 9111,
      "lcool": 9112,
      "Ġuniverso": 9113,
      "SF": 9114,
      "ĠXI": 9115,
      "ĠRafael": 9116,
      "PROCURADOR": 9117,
      "isi": 9118,
      "ĠTER": 9119,
      "Ġconcentrac": 9120,
      "Ġpede": 9121,
      "tiram": 9122,
      "VE": 9123,
      "ĠAlfredo": 9124,
      "Ġlegalidade": 9125,
      "Ġ77": 9126,
      "Ġeconom": 9127,
      "ĠXVIII": 9128,
      "Ġbalanc": 9129,
      "ĠPROF": 9130,
      "mena": 9131,
      "ĠSociais": 9132,
      "ESSA": 9133,
      "Ġnador": 9134,
      "Ġsalarial": 9135,
      "ogle": 9136,
      "Ġprevale": 9137,
      "ĠCOMPLE": 9138,
      "Ġun": 9139,
      "Ġacumula": 9140,
      "Ġdeze": 9141,
      "ĠUnivers": 9142,
      "Ġlucro": 9143,
      "Ġpossibi": 9144,
      "ENO": 9145,
      "ĠProcurador": 9146,
      "ĠMat": 9147,
      "Ġreligia": 9148,
      "Ġcorreto": 9149,
      "Ġinstitucional": 9150,
      "ĠTermo": 9151,
      "duto": 9152,
      "ĠNes": 9153,
      "Ġadotado": 9154,
      "ĠMPV": 9155,
      "Ġsanita": 9156,
      "Ġassesso": 9157,
      "ĠCristovam": 9158,
      "ĠBlo": 9159,
      "ĠPREC": 9160,
      "ĠXVI": 9161,
      "Ġproporcional": 9162,
      "Ġdetalha": 9163,
      "Ġ73": 9164,
      "Ġmons": 9165,
      "Ġsujeito": 9166,
      "ĠPin": 9167,
      "Ġharmo": 9168,
      "Ġdivulgado": 9169,
      "ĠRepublica": 9170,
      "Ġmaravilhos": 9171,
      "bama": 9172,
      "ĠTA": 9173,
      "ĠSolidaried": 9174,
      "Ġiniciar": 9175,
      "Ġnominal": 9176,
      "Ġconclu": 9177,
      "Ġacidentes": 9178,
      "Ġagricultores": 9179,
      "Ġmental": 9180,
      "ĠFERNANDO": 9181,
      "Ġacele": 9182,
      "Ġnegros": 9183,
      "Ġmostram": 9184,
      "Ġsociedades": 9185,
      "Ġpenas": 9186,
      "Ġcriando": 9187,
      "ĠRugby": 9188,
      "Ġpele": 9189,
      "landes": 9190,
      "ĠLago": 9191,
      "ĠDoutor": 9192,
      "Ġconsequ": 9193,
[...]
