{
  "version": "1.0",
  "truncation": {
    "direction": "Right",
    "max_length": 1024,
    "strategy": "LongestFirst",
    "stride": 0
  },
  "padding": null,
  "added_tokens": [
    {
      "id": 0,
      "content": "[PAD]",
      "single_word": false,
      "lstrip": false,
      "rstrip": false,
      "normalized": false,
      "special": true
    },
    {
      "id": 1,
      "content": "[SEP]",
      "single_word": false,
      "lstrip": false,
      "rstrip": false,
      "normalized": false,
      "special": true
    },
    {
      "id": 2,
      "content": "[EOS]",
      "single_word": false,
      "lstrip": false,
      "rstrip": false,
      "normalized": false,
      "special": true
    },
    {
      "id": 3,
      "content": "[UNK]",
      "single_word": false,
      "lstrip": false,
      "rstrip": false,
      "normalized": false,
      "special": true
    }
  ],
  "normalizer": {
    "type": "Sequence",
    "normalizers": [
      {
        "type": "Strip",
        "strip_left": true,
        "strip_right": true
      },
      {
        "type": "NFKD"
      }
    ]
  },
  "pre_tokenizer": {
    "type": "ByteLevel",
    "add_prefix_space": true,
    "trim_offsets": true,
    "use_regex": true
  },
  "post_processor": {
    "type": "Sequence",
    "processors": [
      {
        "type": "ByteLevel",
        "add_prefix_space": true,
        "trim_offsets": true,
        "use_regex": true
      },
      {
        "type": "TemplateProcessing",
        "single": [
          {
            "Sequence": {
              "id": "A",
              "type_id": 0
            }
          },
          {
            "SpecialToken": {
              "id": "[EOS]",
              "type_id": 0
            }
          }
        ],
        "pair": [
          {
            "Sequence": {
              "id": "A",
              "type_id": 0
            }
          },
          {
            "SpecialToken": {
              "id": "[SEP]",
              "type_id": 0
            }
          },
          {
            "Sequence": {
              "id": "B",
              "type_id": 0
            }
          },
          {
            "SpecialToken": {
              "id": "[EOS]",
              "type_id": 0
            }
          }
        ],
        "special_tokens": {
          "[EOS]": {
            "id": "[EOS]",
            "ids": [
              2
            ],
            "tokens": [
              "[EOS]"
            ]
          },
          "[SEP]": {
            "id": "[SEP]",
            "ids": [
              1
            ],
            "tokens": [
              "[SEP]"
            ]
          }
        }
      }
    ]
  },
  "decoder": {
    "type": "ByteLevel",
    "add_prefix_space": true,
    "trim_offsets": true,
    "use_regex": true
  },
  "model": {
    "type": "Unigram",
    "unk_id": 3,
    "vocab": [
      [
        "[PAD]",
        0.0
      ],
      [
        "[SEP]",
        0.0
      ],
      [
        "[EOS]",
        0.0
      ],
      [
        "[UNK]",
        0.0
      ],
      [
        "Ġ",
        -2.1041950290100715
      ],
      [
        "Ì",
        -2.7978584345806823
      ],
      [
        "a",
        -2.958939566660358
      ],
      [
        "o",
        -3.0225027128414084
      ],
      [
        "s",
        -3.34164633988442
      ],
      [
        "e",
        -3.475432667620467
      ],
      [
        ",",
        -3.4989724278250804
      ],
      [
        "ģ",
        -3.592050135598374
      ],
      [
        ".",
        -3.721528678215712
      ],
      [
        "Ġde",
        -3.849906952105094
      ],
      [
        "ĥ",
        -3.8983306891948897
      ],
      [
        "§",
        -4.337627276532341
      ],
      [
        "d",
        -4.397173256795181
      ],
      [
        "u",
        -4.736345687683794
      ],
      [
        "r",
        -4.754693529070092
      ],
      [
        "m",
        -4.793762524854824
      ],
      [
        "Ġdo",
        -4.822084315002012
      ],
      [
        "Ġque",
        -4.825189601364158
      ],
      [
        "-",
        -4.83414383410317
      ],
      [
        "n",
        -4.9864182743925305
      ],
      [
        "i",
        -5.009163168594235
      ],
      [
        "c",
        -5.190999645553116
      ],
      [
        "ÌĤ",
        -5.2143604810074855
      ],
      [
        "Ġna",
        -5.34629087416203
      ],
      [
        "A",
        -5.372549230048332
      ],
      [
        "O",
        -5.384661944695878
      ],
      [
        "Ġem",
        -5.408584574139081
      ],
      [
        "l",
        -5.425067035735417
      ],
      [
        "\"",
        -5.469063549182877
      ],
      [
        "t",
        -5.4727445474209375
      ],
      [
        "Ġno",
        -5.495515001082506
      ],
      [
        "(",
        -5.5240498224122625
      ],
      [
        ")",
        -5.525509417913309
      ],
      [
        "Ġpara",
        -5.619469656102787
      ],
      [
        "Ġcom",
        -5.740024027431446
      ],
      [
        ":",
        -5.961719608901886
      ],
      [
        "Ġum",
        -5.971081338155434
      ],
      [
        "ĠâĢĵ",
        -6.000413889566195
      ],
      [
        "/",
        -6.004202403312352
      ],
      [
        "p",
        -6.072804363265254
      ],
      [
        "E",
        -6.094771803008266
      ],
      [
        "Ġuma",
        -6.224756274696048
      ],
      [
        "Ġpor",
        -6.231398330490443
      ],
      [
        "ncia",
        -6.298858982300816
      ],
      [
        "S",
        -6.334115896048175
      ],
      [
        "ÌĢ",
        -6.3530880560508525
      ],
      [
        "rio",
        -6.445652030607409
      ],
      [
        "g",
        -6.446661403769051
      ],
      [
        "1",
        -6.453978276554096
      ],
      [
        "ria",
        -6.499641104776
      ],
      [
        "Ġdos",
        -6.5328517211548025
      ],
      [
        "C",
        -6.53469875808692
      ],
      [
        "b",
        -6.5586689040325545
      ],
      [
        "2",
        -6.5797867990009955
      ],
      [
        "Ġcomo",
        -6.6578909356317855
      ],
      [
        "v",
        -6.684019514868071
      ],
      [
        "?",
        -6.692942097374905
      ],
      [
        "3",
        -6.72814432653464
      ],
      [
        "Ġesta",
        -6.734392265458569
      ],
      [
        "f",
        -6.742886833943611
      ],
      [
        "6",
        -6.751420669146546
      ],
      [
        "Ġfoi",
        -6.7517572976795375
      ],
      [
        "7",
        -6.760456721784545
      ],
      [
        "I",
        -6.774704755778226
      ],
      [
        "5",
        -6.8203267678189174
      ],
      [
        "Ġmais",
        -6.821641310736128
      ],
      [
        "h",
        -6.8255398909211475
      ],
      [
        "ndo",
        -6.826744058101772
      ],
      [
        "4",
        -6.831328401827173
      ],
      [
        "!",
        -6.836021790027621
      ],
      [
        "Ġdas",
        -6.86925481103755
      ],
      [
        "8",
        -6.883871489233304
      ],
      [
        "R",
        -6.9335509118719525
      ],
      [
        "ĠNo",
        -6.933696842532187
      ],
      [
        "ĠNa",
        -6.939885000354225
      ],
      [
        "ti",
        -6.947156150653818
      ],
      [
        ";",
        -6.9574923996221845
      ],
      [
        "Ġpela",
        -6.969701208760718
      ],
      [
        "ĠDE",
        -6.975113769463345
      ],
      [
        "z",
        -7.038561800119396
      ],
      [
        "Ġpelo",
        -7.038961701348883
      ],
      [
        "y",
        -7.0554452411169635
      ],
      [
        "Ġsua",
        -7.059256535286977
      ],
      [
        "Ġser",
        -7.08440439602307
      ],
      [
        "N",
        -7.1057061414579525
      ],
      [
        "ĠSr",
        -7.116015231714309
      ],
      [
        "de",
        -7.153459977470028
      ],
      [
        "................",
        -7.163249554484674
      ],
      [
        "ri",
        -7.171987251222692
      ],
      [
        "9",
        -7.203697244875478
      ],
      [
        "D",
        -7.205670424176427
      ],
      [
        "Ġsobre",
        -7.212604316299906
      ],
      [
        "...",
        -7.230215673943032
      ],
      [
        "U",
        -7.252104659911204
      ],
      [
        "V",
        -7.260918584460521
      ],
      [
        "P",
        -7.264630494614405
      ],
      [
        "k",
        -7.282605312910171
      ],
      [
        "Ġseu",
        -7.288273314495818
      ],
      [
        "T",
        -7.300189294009382
      ],
      [
        "L",
        -7.301186752324369
      ],
      [
        "ĠâĢľ",
        -7.302576315771155
      ],
      [
        "B",
        -7.306506761346309
      ],
      [
        "vel",
        -7.321883407453877
      ],
      [
        "ĠPresidente",
        -7.358477185186148
      ],
      [
        "dos",
        -7.373689667558256
      ],
      [
        "Ġtambe",
        -7.395768286148627
      ],
      [
        "li",
        -7.398010795313885
      ],
      [
        "ĠEm",
        -7.402087232470556
      ],
      [
        "ĠLei",
        -7.418302961267322
      ],
      [
        "mente",
        -7.418926805187072
      ],
      [
        "M",
        -7.419668648048846
      ],
      [
        "ĠCa",
        -7.488538139525097
      ],
      [
        "Ġnos",
        -7.49039901270732
      ],
      [
        "Ġtem",
        -7.498043124832664
      ],
      [
        "Ġ19",
        -7.4986387864007025
      ],
      [
        "Ġmas",
        -7.500308268235907
      ],
      [
        "mos",
        -7.501430970471782
      ],
      [
        "ĠDeputado",
        -7.501906293188105
      ],
      [
        "Ġte",
        -7.536808954535974
      ],
      [
        "Ġpro",
        -7.542981753624803
      ],
      [
        "Ġele",
        -7.5449908217168336
      ],
      [
        "tica",
        -7.570025918450653
      ],
      [
        "cio",
        -7.580945723254832
      ],
      [
        "F",
        -7.581724695670287
      ],
      [
        "ĠSR",
        -7.627671850095467
      ],
      [
        "ĠSa",
        -7.629072886349052
      ],
      [
        "Ġart",
        -7.632396186803332
      ],
      [
        "Ġpu",
        -7.65453952756695
      ],
      [
        "G",
        -7.654612088471991
      ],
      [
        "ĠFederal",
        -7.661664492888329
      ],
      [
        "Ġisso",
        -7.676339817468365
      ],
      [
        "rios",
        -7.6765254463138515
      ],
      [
        "Ġvoce",
        -7.680245357474851
      ],
      [
        "ncias",
        -7.680652685044402
      ],
      [
        "Ġanos",
        -7.706193571017147
      ],
      [
        "ĠBrasil",
        -7.715223974789039
      ],
      [
        "ĠEstado",
        -7.717295034147835
      ],
      [
        "ĠSenador",
        -7.722299439039201
      ],
      [
        "ram",
        -7.744435490524845
      ],
      [
        "j",
        -7.746151880802135
      ],
      [
        "x",
        -7.774590335385698
      ],
      [
        "ĠEu",
        -7.77739750695952
      ],
      [
        "cia",
        -7.777683447462065
      ],
      [
        "Ġate",
        -7.7917190662118845
      ],
      [
        "Ġentre",
        -7.792578207969415
      ],
      [
        "Ġmuito",
        -7.799146555568662
      ],
      [
        "idade",
        -7.81031648515882
      ],
      [
        "que",
        -7.825567630883155
      ],
      [
        "das",
        -7.829160360483701
      ],
      [
        "Ġja",
        -7.829517572785868
      ],
      [
        "lia",
        -7.831771684386856
      ],
      [
        "ĠSe",
        -7.845882566468518
      ],
      [
        "%",
        -7.870216406548101
      ],
      [
        "blica",
        -7.877133453356093
      ],
      [
        "ĠComissa",
        -7.91571155002231
      ],
      [
        "w",
        -7.931143881293709
      ],
      [
        "ter",
        -7.937252140431159
      ],
      [
        "Ġbem",
        -7.938274102336784
      ],
      [
        "era",
        -7.941330728548024
      ],
      [
        "ci",
        -7.954785619371492
      ],
      [
        "ĠDe",
        -7.9683394635435185
      ],
      [
        "Ġforma",
        -7.98108392872126
      ],
      [
        "Ġpode",
        -7.982369294398923
      ],
      [
        "Ġcontra",
        -7.985604809257856
      ],
      [
        "Ġquando",
        -7.994982774043519
      ],
      [
        "0",
        -7.998951665209706
      ],
      [
        "dia",
        -8.001638007009046
      ],
      [
        "Ġin",
        -8.00882420375231
      ],
      [
        "Ġco",
        -8.014896858362944
      ],
      [
        "Ġaqui",
        -8.02297199028942
      ],
      [
        "Ġmesmo",
        -8.027776536505616
      ],
      [
        "Ġsem",
        -8.036149659645014
      ],
      [
        "ĠNacional",
        -8.038223040177119
      ],
      [
        "Ġdia",
        -8.039089456793123
      ],
      [
        "Ġ10",
        -8.040610645977873
      ],
      [
        "Ġpoli",
        -8.042972097617499
      ],
      [
        "Ġha",
        -8.067483994735728
      ],
      [
        "Ġpre",
        -8.068199408870745
      ],
      [
        "ĠÂ§",
        -8.078962796429966
      ],
      [
        "nte",
        -8.080354643780034
      ],
      [
        "Ġva",
        -8.084935310366188
      ],
      [
        "Ġtodos",
        -8.088660462959998
      ],
      [
        "Ġpai",
        -8.094315908993124
      ],
      [
        "Ġainda",
        -8.100263933690403
      ],
      [
        "Ġ18",
        -8.10030870298004
      ],
      [
        "Ġter",
        -8.102237290163705
      ],
      [
        "J",
        -8.126925123485567
      ],
      [
        "ĠPor",
        -8.127822596002405
      ],
      [
        "dio",
        -8.13458529080867
      ],
      [
        "ĠOs",
        -8.13878477061415
      ],
      [
        "ĠMa",
        -8.140619745421688
      ],
      [
        "Ġseus",
        -8.141755234993797
      ],
      [
        "vi",
        -8.143037024256309
      ],
      [
        "âĢĿ.",
        -8.152757108888627
      ],
      [
        "Ġcidade",
        -8.160500677674811
      ],
      [
        "Ìģ-",
        -8.168658587414756
      ],
      [
        "Ġparte",
        -8.169930288750573
      ],
      [
        "ĠRe",
        -8.17488194865003
      ],
      [
        "Ġforam",
        -8.185342681362071
      ],
      [
        "Ġano",
        -8.193372285225669
      ],
      [
        "Ġfazer",
        -8.194253228326582
      ],
      [
        "ĠPaulo",
        -8.19917790056584
      ],
      [
        "Ġcaso",
        -8.203905699599254
      ],
      [
        "gu",
        -8.211096346463354
      ],
      [
        "rias",
        -8.225586884739686
      ],
      [
        "ES",
        -8.232414010531564
      ],
      [
        "Ġservic",
        -8.234313159489096
      ],
      [
        "Ġex",
        -8.237755356356057
      ],
      [
        "ĠPL",
        -8.238143425771078
      ],
      [
        "fi",
        -8.239810697445686
      ],
      [
        "Ġesse",
        -8.242438774506594
      ],
      [
        "ĠCom",
        -8.246085025146481
      ],
      [
        "Ġvi",
        -8.250955632845042
      ],
      [
        "Ġessa",
        -8.266637475993127
      ],
      [
        "nia",
        -8.267549028034823
      ],
      [
        "Ġseja",
        -8.275911849799863
      ],
      [
        "ĠCo",
        -8.279466924074862
      ],
      [
        "'",
        -8.286842563956604
      ],
      [
        "Ġtempo",
        -8.290420471285522
      ],
      [
        "ĠPara",
        -8.293381636152638
      ],
      [
        "ĠPROJETO",
        -8.296718495153359
      ],
      [
        "min",
        -8.29682177484639
      ],
      [
        "pio",
        -8.304303609630647
      ],
      [
        "ĠEsta",
        -8.30687095981679
      ],
      [
        "Ġcon",
        -8.307200150908942
      ],
      [
        "Ġporque",
        -8.307904115773864
      ],
      [
        "Ġmeu",
        -8.3086938999128
      ],
      [
        "H",
        -8.311843901637873
      ],
      [
        "Ġvai",
        -8.31192919127941
      ],
      [
        "ĠLEI",
        -8.314502880393393
      ],
      [
        "mara",
        -8.328164769181207
      ],
      [
        "ĠAs",
        -8.333369612961022
      ],
      [
        "nico",
        -8.336021621383246
      ],
      [
        "ĠPRESIDENTE",
        -8.339353975388308
      ],
      [
        "Ġprimeiro",
        -8.346425073551893
      ],
      [
        "veis",
        -8.346991278414283
      ],
      [
        "ĠDeputados",
        -8.349411800763756
      ],
      [
        "ĠMas",
        -8.349986010075884
      ],
      [
        "ĠEle",
        -8.351784916123307
      ],
      [
        "Ġela",
        -8.364508960513065
      ],
      [
        "Ġ12",
        -8.367499356047826
      ],
      [
        "fica",
        -8.367835266232188
      ],
      [
        "Ġpa",
        -8.36949751423123
      ],
      [
        "ita",
        -8.372155085523222
      ],
      [
        "Ġonde",
        -8.379538164897701
      ],
      [
        "ĠGoverno",
        -8.379592262109934
      ],
      [
        "ĠMinistro",
        -8.383341781123125
      ],
      [
        "ĠLi",
        -8.389155886586511
      ],
      [
        "ĠVoce",
        -8.390592263366697
      ],
      [
        "ĠConstituic",
        -8.390965275142335
      ],
      [
        "Ġ11",
        -8.391768477567059
      ],
      [
        "ĠDo",
        -8.392121993207649
      ],
      [
        "Ġsera",
        -8.393969709276874
      ],
      [
        "amento",
        -8.395900980176284
      ],
      [
        "tra",
        -8.398122250316675
      ],
      [
        "ĠMe",
        -8.405491515622778
      ],
      [
        "Ġpessoas",
        -8.407134537732624
      ],
      [
        "der",
        -8.4101845389
      ],
      [
        "tro",
        -8.412317472158264
      ],
      [
        "gi",
        -8.41456083881022
      ],
      [
        "Ġvez",
        -8.418579494581513
      ],
      [
        "Ġgrande",
        -8.419155263387612
      ],
      [
        "Ġartigo",
        -8.425049113540313
      ],
      [
        "Ġoutros",
        -8.425724280760711
      ],
      [
        "ĠTe",
        -8.43023863772442
      ],
      [
        "Ġtrabalho",
        -8.443597029603916
      ],
      [
        "Ġapenas",
        -8.444208627722539
      ],
      [
        "res",
        -8.446170351215933
      ],
      [
        "nio",
        -8.4486188443304
      ],
      [
        "00",
        -8.448961887670164
      ],
      [
        "âĢĿ",
        -8.449312505349875
      ],
      [
        "Ġ15",
        -8.449358076599985
      ],
      [
        "Ġoutras",
        -8.453004031733224
      ],
      [
        "blico",
        -8.45404426857127
      ],
      [
        "ĠHa",
        -8.460636033822587
      ],
      [
        "ĠJa",
        -8.460729979389287
      ],
      [
        "19",
        -8.463183666706456
      ],
      [
        "ĠRELATOR",
        -8.46447106498186
      ],
      [
        "sta",
        -8.46467072553352
      ],
      [
        "ver",
        -8.467019747831014
      ],
      [
        "Ġsendo",
        -8.468267039745403
      ],
      [
        "ch",
        -8.468974686636523
      ],
      [
        "Ġdois",
        -8.470366307453249
      ],
      [
        "mento",
        -8.473397433113991
      ],
      [
        "Ġeste",
        -8.474043162005959
      ],
      [
        "ĠArt",
        -8.474258819917239
      ],
      [
        "Ġlei",
        -8.481597644214562
      ],
      [
        "ĠMo",
        -8.482634580594615
      ],
      [
        "tico",
        -8.486842458049114
      ],
      [
        "ĠRefere",
        -8.489475672133135
      ],
      [
        "Ġapo",
        -8.493057672619761
      ],
      [
        "ĠRio",
        -8.495976798843033
      ],
      [
        "Ġordem",
        -8.499451219620392
      ],
      [
        "Ġfi",
        -8.502295489014019
      ],
      [
        "Ġnosso",
        -8.50306811863159
      ],
      [
        "ĠProjeto",
        -8.509338071992962
      ],
      [
        "Ġpo",
        -8.513143227127895
      ],
      [
        "ĠII",
        -8.513514705503022
      ],
      [
        "tar",
        -8.522637888507447
      ],
      [
        "bi",
        -8.52443615645649
      ],
      [
        "Ġsuas",
        -8.525328375379976
      ],
      [
        "ĠW",
        -8.533417901841867
      ],
      [
        "Ġminha",
        -8.536536281441968
      ],
      [
        "um",
        -8.538129512606004
      ],
      [
        "ĠCasa",
        -8.539812580637514
      ],
      [
        "Ġmaior",
        -8.54135563783666
      ],
      [
        "ĠPai",
        -8.541672802835073
      ],
      [
        "Ġhoje",
        -8.543950077101512
      ],
      [
        "Ġtermos",
        -8.552468735432745
      ],
      [
        "Ġ16",
        -8.555682893255373
      ],
      [
        "ando",
        -8.559197576723424
      ],
      [
        "Ġprocesso",
        -8.560885375990626
      ],
      [
        "ĠRa",
        -8.561660990735794
      ],
      [
        "Ġassim",
        -8.564407912269171
      ],
      [
        "Ġmeio",
        -8.564660646658174
      ],
      [
        "Ġpra",
        -8.568609913726876
      ],
      [
        "ĠDO",
        -8.571211350684244
      ],
      [
        "Ġ17",
        -8.573369029822294
      ],
      [
        "ira",
        -8.573749299621886
      ],
      [
        "Ġprojeto",
        -8.575431711993975
      ],
      [
        "ĠJose",
        -8.575501946601195
      ],
      [
        "tor",
        -8.575619658389986
      ],
      [
        "Ġqual",
        -8.57792574155738
      ],
      [
        "Ġ20",
        -8.580373948805539
      ],
      [
        "ĠLa",
        -8.58325963328587
      ],
      [
        "Ġ13",
        -8.584839950583032
      ],
      [
        "10",
        -8.586037019800601
      ],
      [
        "ĠAl",
        -8.586195717257986
      ],
      [
        "ĠPu",
        -8.58816281454526
      ],
      [
        "PSDB",
        -8.589662250268136
      ],
      [
        "Ġ14",
        -8.592416879283551
      ],
      [
        "ĠCon",
        -8.598136228747157
      ],
      [
        "rito",
        -8.6100571294992
      ],
      [
        "Ġfa",
        -8.615890717249863
      ],
      [
        "ĠDA",
        -8.616492979852952
      ],
      [
        "ĠSenado",
        -8.61856317210533
      ],
      [
        "Ġdesta",
        -8.61881590945632
      ],
      [
        "Ġdireito",
        -8.623212280974222
      ],
      [
        "ja",
        -8.625602943230183
      ],
      [
        "iz",
        -8.633028869854648
      ],
      [
        "nica",
        -8.640010845015736
      ],
      [
        "and",
        -8.641395395167951
      ],
      [
        "Ġdisse",
        -8.642027471621823
      ],
      [
        "Ġnome",
        -8.642111241980492
      ],
      [
        "$",
        -8.643725968318295
      ],
      [
        "Ġsistema",
        -8.646080417786992
      ],
      [
        "Ġqualquer",
        -8.647435526013746
      ],
      [
        "DO",
        -8.64932160631337
      ],
      [
        "ĠTribunal",
        -8.652538559067906
      ],
      [
        "Ġdeste",
        -8.653219509178799
      ],
      [
        "Ġseguinte",
        -8.653396399997112
      ],
      [
        "Ġhisto",
        -8.654982248368547
      ],
      [
        "Ġprimeira",
        -8.656107329875718
      ],
      [
        "br",
        -8.659962401768722
      ],
      [
        "ĠâĢ¢",
        -8.660710507169073
      ],
      [
        "ĠSem",
        -8.662692664316628
      ],
      [
        "ĠComo",
        -8.665928785112376
      ],
      [
        "ĠJu",
        -8.667047164984284
      ],
      [
        "ĠIn",
        -8.67003295359938
      ],
      [
        "ĠBa",
        -8.671255009315173
      ],
      [
        "Ġvoto",
        -8.67372165472987
      ],
      [
        "Ġpalavra",
        -8.675838343227248
      ],
      [
        "Ġtre",
        -8.677141717444991
      ],
      [
        "nha",
        -8.680818219807815
      ],
      [
        "Ġacordo",
        -8.683911737202017
      ],
      [
        "Ġvida",
        -8.683947259859831
      ],
      [
        "qui",
        -8.690468861092585
      ],
      [
        "Ġdepois",
        -8.6928260508919
      ],
      [
        "Ġcada",
        -8.693866658648549
      ],
      [
        "ĠMiniste",
        -8.69686477738807
      ],
      [
        "Ġinformac",
        -8.697032071976784
      ],
      [
        "ĠLe",
        -8.700119536393856
      ],
      [
        "Ġtodo",
        -8.701494734957956
      ],
      [
        "ĠRepu",
        -8.708137551493708
      ],
      [
        "enta",
        -8.71515388545801
      ],
      [
        "Ġtra",
        -8.71583471633059
      ],
      [
        "ĠDi",
        -8.716090200009699
      ],
      [
        "Ġprazo",
        -8.716385084265735
      ],
      [
        "ck",
        -8.717452845929396
      ],
      [
        "Ġdeve",
        -8.718214287843004
      ],
      [
        "Ġnas",
        -8.718435872533519
      ],
      [
        "11",
        -8.72184108991727
      ],
      [
        "th",
        -8.721898264777565
      ],
      [
        "ĠCarlos",
        -8.724646598815067
      ],
      [
        "rem",
        -8.726019841784856
      ],
      [
        "ĠSim",
        -8.728491063996216
      ],
      [
        "eira",
        -8.735340101016856
      ],
      [
        "ntes",
        -8.736622501817173
      ],
      [
        "09",
        -8.7369943873359
      ],
      [
        "Ġmate",
        -8.737512936708084
      ],
      [
        "sica",
        -8.737592580486432
      ],
      [
        "X",
        -8.739927080573322
      ],
      [
        "ĠPT",
        -8.740811143490122
      ],
      [
        "ista",
        -8.74148370549779
      ],
      [
        "Ġagora",
        -8.742623785838445
      ],
      [
        "ĠRelator",
        -8.742897128928083
      ],
      [
        "ĠSenhor",
        -8.744684468144053
      ],
      [
        "ĠVi",
        -8.744742131391337
      ],
      [
        "Ġpresente",
        -8.746469934366559
      ],
      [
        "ĠPa",
        -8.75669324318376
      ],
      [
        "Ġcomec",
        -8.758178067916086
      ],
      [
        "ing",
        -8.75998965307632
      ],
      [
        "per",
        -8.760121403726078
      ],
      [
        "ente",
        -8.76140908086421
      ],
      [
        "ĠDa",
        -8.764241620547674
      ],
      [
        "tos",
        -8.764895531195629
      ],
      [
        "Ġsob",
        -8.766964741190119
      ],
      [
        "Ġrelac",
        -8.76975657765402
      ],
      [
        "Ġmil",
        -8.774721951885805
      ],
      [
        "Ġver",
        -8.776246419515193
      ],
      [
        "Ġmelhor",
        -8.776663935525452
      ],
      [
        "Bloco",
        -8.777085918318242
      ],
      [
        "Ġsegundo",
        -8.781612349639975
      ],
      [
        "Ġmundo",
        -8.784520156822035
      ],
      [
        "Ġperi",
        -8.784781277548571
      ],
      [
        "durante",
        -8.789030841189348
      ],
      [
        "Ġdizer",
        -8.78922972791335
      ],
      [
        "lio",
        -8.791645410581697
      ],
      [
        "Ġsu",
        -8.80098127682854
      ],
      [
        "ĠJustic",
        -8.806994088298934
      ],
      [
        "Ġnossa",
        -8.807987014028468
      ],
      [
        "_",
        -8.808569408968667
      ],
      [
        "gua",
        -8.808878162262976
      ],
      [
        "RIO",
        -8.811350215860568
      ],
      [
        "ĠMunici",
        -8.81232635605975
      ],
      [
        "com",
        -8.815437205016364
      ],
      [
        "ĠMi",
        -8.821353747364492
      ],
      [
        "eiro",
        -8.823136746016699
      ],
      [
        "Ġsido",
        -8.824534948328752
      ],
      [
        "ĠMar",
        -8.825843415894813
      ],
      [
        "ha",
        -8.832928058126495
      ],
      [
        "Ġrecursos",
        -8.83829357155563
      ],
      [
        "Ġdezembro",
        -8.841035693612938
      ],
      [
        "Ġato",
        -8.847988505359163
      ],
      [
        "via",
        -8.848448442269476
      ],
      [
        "Ġ24",
        -8.84866237118112
      ],
      [
        "gra",
        -8.850366688849341
      ],
      [
        "decisa",
        -8.850753724851028
      ],
      [
        "ĠEstados",
        -8.851989259357646
      ],
      [
        "rga",
        -8.852622243770076
      ],
      [
        "Ġestava",
        -8.85632801175952
      ],
      [
        "Ġoutro",
        -8.858452638611306
      ],
      [
        "Ġpopulac",
        -8.860465358298885
      ],
      [
        "cie",
        -8.861443504563907
      ],
      [
        "ĠVer",
        -8.861446740400384
      ],
      [
        "Ġpartir",
        -8.862004802698351
      ],
      [
        "Y",
        -8.864563547595974
      ],
      [
        "Ġlanc",
        -8.865309521989206
      ],
      [
        "ĠLu",
        -8.866948515237917
      ],
      [
        "ĠJoa",
        -8.86709555130228
      ],
      [
        "Ġtudo",
        -8.867526225155244
      ],
      [
        "Z",
        -8.867773197195355
      ],
      [
        "=",
        -8.869654796632908
      ],
      [
        "orador",
        -8.87103673104975
      ],
      [
        "culo",
        -8.871100797614345
      ],
      [
        "Ġfinal",
        -8.872982777432197
      ],
      [
        "Ġfami",
        -8.875310856052812
      ],
      [
        "Ġfato",
        -8.876410373217281
      ],
      [
        "TE",
        -8.876557553022632
      ],
      [
        "men",
        -8.877007668279083
      ],
      [
        "mero",
        -8.879835275872995
      ],
      [
        "Ġrevisa",
        -8.880843685083066
      ],
      [
        "cer",
        -8.888402856211215
      ],
      [
        "2009",
        -8.891975740341312
      ],
      [
        "Ġmomento",
        -8.892823402979772
      ],
      [
        "ĠPMDB",
        -8.893213689950509
      ],
      [
        "@",
        -8.893948658230354
      ],
      [
        "15",
        -8.894883655046447
      ],
      [
        "Ġempresa",
        -8.895527635814132
      ],
      [
        "Ġvalor",
        -8.897063396895671
      ],
      [
        "ĠAn",
        -8.897850525925808
      ],
      [
        "ĠFa",
        -8.901232538985154
      ],
      [
        "Ġdesde",
        -8.902140046110683
      ],
      [
        "Ġgrupo",
        -8.902254394764075
      ],
      [
        "ÌĪ",
        -8.902528349057892
      ],
      [
        "Ġcondic",
        -8.902572733443497
      ],
      [
        "Ġgoverno",
        -8.90381748988262
      ],
      [
        "ĠSu",
        -8.907102937674942
      ],
      [
        "Ġantes",
        -8.90992112862797
      ],
      [
        "tado",
        -8.911378473578647
      ],
      [
        "PT",
        -8.91668440946362
      ],
      [
        "Ġdias",
        -8.917426821150563
      ],
      [
        "Ġcasa",
        -8.917481306336876
      ],
      [
        "dito",
        -8.918868055571991
      ],
      [
        "AS",
        -8.921850994897278
      ],
      [
        "ĠUm",
        -8.921952212468813
      ],
      [
        "ĠTa",
        -8.922447457529328
      ],
      [
        "car",
        -8.924208250889155
      ],
      [
        "Ġnovo",
        -8.927061719516274
      ],
      [
        "ĠPe",
        -8.92823458427342
      ],
      [
        "bra",
        -8.928356982555345
      ],
      [
        "Ġpe",
        -8.931170509358138
      ],
      [
        "rac",
        -8.9323914514501
      ],
      [
        "ĠIsso",
        -8.933189642402622
      ],
      [
        "ĠAr",
        -8.933987074162374
      ],
      [
        "Ġmilho",
        -8.934380157030708
      ],
      [
        "ĠUnia",
        -8.936122510925863
      ],
      [
        "12",
        -8.936231222546361
      ],
      [
        "Ġeles",
        -8.936321009521565
      ],
      [
        "Ġ30",
        -8.939715396710723
      ],
      [
        "20",
        -8.940374898218815
      ],
      [
        "Ġve",
        -8.943444050372255
      ],
      [
        "Ġproposta",
        -8.944999335740656
      ],
      [
        "Ġconta",
        -8.950325976079208
      ],
      [
        "Ġsempre",
        -8.952093256356806
      ],
      [
        "TO",
        -8.954437285293885
      ],
      [
        "05",
        -8.957774017728369
      ],
      [
        "Ġ21",
        -8.960641025276555
      ],
      [
        "Ġinciso",
        -8.961850382874257
      ],
      [
        "Ġmarc",
        -8.964488857430279
      ],
      [
        "Ġba",
        -8.965725843028538
      ],
      [
        "votac",
        -8.966002222033262
      ],
      [
        "ĠPro",
        -8.966586203619357
      ],
      [
        "ĠJo",
        -8.967306034287867
      ],
      [
        "Ġbrasileiro",
        -8.968594549398237
      ],
      [
        "Ġ:(",
        -8.973069640374087
      ],
      [
        "OS",
        -8.973531470734443
      ],
      [
        "Ġduas",
        -8.973959644558244
      ],
      [
        "ticas",
        -8.976939232249576
      ],
      [
        "pios",
        -8.977315981961711
      ],
      [
        "ĠâĢĶ",
        -8.980874659769105
      ],
      [
        "ste",
        -8.982452305710694
      ],
      [
        "Ġmenos",
        -8.983109939329573
      ],
      [
        "ĠEnta",
        -8.985199814675596
      ],
      [
        "Ġpouco",
        -8.985441787910794
      ],
      [
        "vida",
        -8.986474709897973
      ],
      [
        "mica",
        -8.986991465380587
      ],
      [
        "Ġenta",
        -8.989325783615769
      ],
      [
        "Ġsau",
        -8.990034796081716
      ],
      [
        "ina",
        -8.990160247007047
      ],
      [
        "ĠFoi",
        -8.990926476401508
      ],
      [
        "Congresso",
        -8.991218267452792
      ],
      [
        "Ġali",
        -8.993838991495043
      ],
      [
        "ava",
        -8.997267645121758
      ],
      [
        "ĠPre",
        -8.99747830270022
      ],
      [
        "Ġale",
        -8.997847403532075
      ],
      [
        "03",
        -9.000028372932302
      ],
      [
        "fer",
        -9.000557578147497
      ],
      [
        "Ġtinha",
        -9.001181209984196
      ],
      [
        "Ġ23",
        -9.003393699872401
      ],
      [
        "ĠQue",
        -9.003931139613178
      ],
      [
        "ante",
        -9.004083845749086
      ],
      [
        "Ġ25",
        -9.006225896968377
      ],
      [
        "mar",
        -9.006486415286686
      ],
      [
        "ry",
        -9.006857306407026
      ],
      [
        "Ġpelos",
        -9.007130100841543
      ],
      [
        "Ġquanto",
        -9.007267050097248
      ],
      [
        "dica",
        -9.00981855339771
      ],
      [
        "lha",
        -9.010508286064663
      ],
      [
        "ĠPela",
        -9.011024457882932
      ],
      [
        "ismo",
        -9.01251577115979
      ],
      [
        "ĠSul",
        -9.01280352662762
      ],
      [
        "neste",
        -9.014712802240256
      ],
      [
        "aprovac",
        -9.017293879409324
      ],
      [
        "18",
        -9.020364767702285
      ],
      [
        "Ġnesta",
        -9.020806005937317
      ],
      [
        "tiva",
        -9.021766081181328
      ],
      [
        "Ġ22",
        -9.024192492704431
      ],
      [
        "Ġfim",
        -9.028580842664642
      ],
      [
        "pre",
        -9.03166434183438
      ],
      [
        "08",
        -9.033085475528104
      ],
      [
        "lho",
        -9.035379835053964
      ],
      [
        "Ġimportante",
        -9.035592267954966
      ],
      [
        "Ġdar",
        -9.035826701394466
      ],
      [
        "ĠK",
        -9.036291643334254
      ],
      [
        "âĢĵ",
        -9.045901705085187
      ],
      [
        "lin",
        -9.050358582798156
      ],
      [
        "lar",
        -9.053738078075956
      ],
      [
        "Ġbom",
        -9.054389139022058
      ],
      [
        "gar",
        -9.054612134146492
      ],
      [
        "lhe",
        -9.054821119648388
      ],
      [
        "Ġbase",
        -9.056309046178123
      ],
      [
        "Ġtodas",
        -9.056642482656684
      ],
      [
        "07",
        -9.057826387970538
      ],
      [
        "Ġsub",
        -9.059906871159386
      ],
      [
        "Ġfaz",
        -9.060803306675462
      ],
      [
        "Ġvezes",
        -9.062578391516524
      ],
      [
        "ĠPoder",
        -9.063716094251449
      ],
      [
        "Ġdata",
        -9.065977715434538
      ],
      [
        "RE",
        -9.06705459330592
      ],
      [
        "K",
        -9.067946331257454
      ],
      [
        "Ġregia",
        -9.06837435249736
      ],
      [
        "Ġsocial",
        -9.068652248592358
      ],
      [
        "Ġfor",
        -9.069109808623864
      ],
      [
        "tal",
        -9.073683780875188
      ],
      [
        "Ġexemplo",
        -9.076920647979303
      ],
      [
        "los",
        -9.077643138335008
      ],
      [
        "ĠGo",
        -9.078058029605518
      ],
      [
        "17",
        -9.078159652396396
      ],
      [
        "âĢĿ,",
        -9.078259888310903
      ],
      [
        "Ġfez",
        -9.079787417273694
      ],
      [
        "rica",
        -9.08513528230743
      ],
      [
        "Ġmaio",
        -9.085666184480386
      ],
      [
        "ĠMA",
        -9.086685839010244
      ],
      [
        "Q",
        -9.087556914462464
      ],
      [
        "Ġ2007",
        -9.087893399155046
      ],
      [
        "Ġexternas",
        -9.089682049497586
      ],
      [
        "ate",
        -9.0912864609177
      ],
      [
        "ĠLuiz",
        -9.091864818342785
      ],
      [
        "ton",
        -9.09192663634298
      ],
      [
        "W",
        -9.092889867178323
      ],
      [
        "Ligac",
        -9.093458663378762
      ],
      [
        "Ġnecessa",
        -9.096358614922908
      ],
      [
        "rado",
        -9.096510428570449
      ],
      [
        "Ġcausa",
        -9.0983484994608
      ],
      [
        "Ġdiz",
        -9.100381443065071
      ],
      [
        "tri",
        -9.10038929039015
      ],
      [
        "ĠTi",
        -9.1007100077713
      ],
      [
        "RA",
        -9.101519481389742
      ],
      [
        "ĠBo",
        -9.101645463048342
      ],
      [
        "ĠFe",
        -9.102096222313882
      ],
      [
        "discussa",
        -9.102490868787148
      ],
      [
        "Ġtendo",
        -9.103054139712771
      ],
      [
        "Ġpois",
        -9.105029188129294
      ],
      [
        "Ġlugar",
        -9.106530144549934
      ],
      [
        "ĠBi",
        -9.107560034514524
      ],
      [
        "Ġpoder",
        -9.108046227850696
      ],
      [
        "Ġmunici",
        -9.109918755405785
      ],
      [
        "Ġrecurso",
        -9.11117519487181
      ],
      [
        "digo",
        -9.111452699062555
      ],
      [
        "Ġ28",
        -9.112996193313863
      ],
      [
        "Ġjulho",
        -9.11406661057706
      ],
      [
        "Ġtoda",
        -9.114156182496512
      ],
      [
        "ĠPR",
        -9.115124656593656
      ],
      [
        "ĠGa",
        -9.1156109861239
      ],
      [
        "ĠSt",
        -9.116324647117562
      ],
      [
        "ĠBe",
        -9.116409673297063
      ],
      [
        "Ġsituac",
        -9.11840870425033
      ],
      [
        "Exa",
        -9.119791415426269
      ],
      [
        "Ġquero",
        -9.121257086257744
      ],
      [
        "Ġnacional",
        -9.121654122667708
      ],
      [
        "Ġpossi",
        -9.122869728098888
      ],
      [
        "ĠSESS",
        -9.124128201601597
      ],
      [
        "16",
        -9.124504450665956
      ],
      [
        "ĠMu",
        -9.124762326758873
      ],
      [
        "06",
        -9.128216821200027
      ],
      [
        "fico",
        -9.12851340406176
      ],
      [
        "che",
        -9.13028989923067
      ],
      [
        "Ġsentido",
        -9.131251928437948
      ],
      [
        "Ġalguns",
        -9.1312731135814
      ],
      [
        "Ġ2009",
        -9.136021960466506
      ],
      [
        "Ġsetembro",
        -9.136124166809726
      ],
      [
        "Ġseria",
        -9.137853128921687
      ],
      [
        "ndi",
        -9.138904364958996
      ],
      [
        "Ġnova",
        -9.139168187278576
      ],
      [
        "Ġpovo",
        -9.13976465425926
      ],
      [
        "Ġtrata",
        -9.143084419610172
      ],
      [
        "Ġnada",
        -9.144075132210055
      ],
      [
        "Ġvou",
        -9.14531054317302
      ],
      [
        "menta",
        -9.1461249945397
      ],
      [
        "NA",
        -9.147210877704524
      ],
      [
        "Ġper",
        -9.148340179870203
      ],
      [
        "Ġtemos",
        -9.149227758544091
      ],
      [
        "TA",
        -9.150238243118402
      ],
      [
        "ito",
        -9.1506206607937
      ],
      [
        "Ġecono",
        -9.152146528709878
      ],
      [
        "ador",
        -9.153673959791464
      ],
      [
        "Ġfavor",
        -9.153732444220834
      ],
      [
        "tac",
        -9.15664507797673
      ],
      [
        "Ġmedida",
        -9.15776169214396
      ],
      [
        "dores",
        -9.158264470469382
      ],
      [
        "Â°",
        -9.159514838107231
      ],
      [
        "Ġcoisa",
        -9.16304025607116
      ],
      [
        "Ġ2008",
        -9.165519672679627
      ],
      [
        "Ġpodem",
        -9.165564075745507
      ],
      [
        "Ġsociedade",
        -9.167331204337312
      ],
      [
        "ite",
        -9.169040657031196
      ],
      [
        "Ġmesma",
        -9.174051630281031
      ],
      [
        "cios",
        -9.174808447487532
      ],
      [
        "junho",
        -9.17601546610554
      ],
      [
        "nos",
        -9.177847623726755
      ],
      [
        "ĠExa",
        -9.179037603720015
      ],
      [
        "ĠEla",
        -9.17956979938448
      ],
      [
        "Ġteve",
        -9.179617186381227
      ],
      [
        "Ġdisso",
        -9.181400142593686
      ],
      [
        "ĠPo",
        -9.18160723025181
      ],
      [
        "Ġespe",
        -9.183356848893162
      ],
      [
        "Ġtipo",
        -9.183422667483388
      ],
      [
        "UTC",
        -9.183516494604095
      ],
      [
        "Ġtenho",
        -9.183765146489282
      ],
      [
        "Ġnem",
        -9.184351664145217
      ],
      [
        "Ġ2006",
        -9.184403143848815
      ],
      [
        "ĠMuito",
        -9.186379484710738
      ],
      [
        "pen",
        -9.18683762935207
      ],
      [
        "Ġ26",
        -9.18692062080592
      ],
      [
        "ĠGrande",
        -9.187099748858984
      ],
      [
        "ĠVamos",
        -9.190061867431709
      ],
      [
        "inho",
        -9.190654173813996
      ],
      [
        "13",
        -9.19095354365636
      ],
      [
        "questa",
        -9.194212011461955
      ],
      [
        "rei",
        -9.194530120662671
      ],
      [
        "Ġbrasileira",
        -9.194544513941446
      ],
      [
        "ĠSra",
        -9.19456833166548
      ],
      [
        "grafo",
        -9.194798180930992
      ],
      [
        "Ġestou",
        -9.194898371383928
      ],
      [
        "tulo",
        -9.195835165278718
      ],
      [
        "ĠSanta",
        -9.195977158820916
      ],
      [
        "Ġprograma",
        -9.198659286649791
      ],
      [
        "cha",
        -9.199496733952708
      ],
      [
        "ĠSi",
        -9.202537341496486
      ],
      [
        "Ġcre",
        -9.205637745442068
      ],
      [
        "ĠFi",
        -9.206013648053297
      ],
      [
        "tes",
        -9.206165177337276
      ],
      [
        "Ġdesenvolvimento",
        -9.206276106834853
      ],
      [
        "30",
        -9.209092607039592
      ],
      [
        "ĠDecreto",
        -9.21085873177978
      ],
      [
        "art",
        -9.211742389765432
      ],
      [
        "IS",
        -9.213920011751496
      ],
      [
        "ĠTo",
        -9.214934414207608
      ],
      [
        "gen",
        -9.21799130842324
      ],
      [
        "nal",
        -9.219283821858738
      ],
      [
        "Ġsabe",
        -9.219599020070271
      ],
      [
        "Ġimporta",
        -9.220357624641217
      ],
      [
        "Ġtanto",
        -9.220874698218148
      ],
      [
        "Ġconstitucional",
        -9.22101480075271
      ],
      [
        "Ġoutra",
        -9.22506961764516
      ],
      [
        "tion",
        -9.226810071830812
      ],
      [
        "Ġ2011",
        -9.226817821864232
      ],
      [
        "ĠCi",
        -9.227999283943925
      ],
      [
        "con",
        -9.23097459069659
      ],
      [
        "Ġsei",
        -9.232546701163516
      ],
      [
        "ional",
        -9.233519929546402
      ],
      [
        "RI",
        -9.233977873988689
      ],
      [
        "tre",
        -9.234076044230973
      ],
      [
        "ĠHo",
        -9.235510938376606
      ],
      [
        "000",
        -9.23612250521943
      ],
      [
        "ĠPoli",
        -9.23632319292216
      ],
      [
        "...............",
        -9.238742149218911
      ],
      [
        "Ġcor",
        -9.241113127014597
      ],
      [
        "Ġrefere",
        -9.243858979361566
      ],
      [
        "ĠEste",
        -9.246379949129008
      ],
      [
        "04",
        -9.246541633921003
      ],
      [
        "2015",
        -9.249210183722823
      ],
      [
        "Ġvei",
        -9.249929929880556
      ],
      [
        "Ġ2010",
        -9.2507701660907
      ],
      [
        "Ġvamos",
        -9.25080667906121
      ],
      [
        "par",
        -9.250959612136938
      ],
      [
        "Ġpessoa",
        -9.251909786996489
      ],
      [
        "Art",
        -9.25222828664456
      ],
      [
        "ĠJaneiro",
        -9.252836428305685
      ],
      [
        "AL",
        -9.254737406248449
      ],
      [
        "Ġagosto",
        -9.25485349691975
      ],
      [
        "Ġoutubro",
        -9.255127302053143
      ],
      [
        "Ġprovide",
        -9.25652863793626
      ],
      [
        "ĠHe",
        -9.259105319623847
      ],
      [
        "Ġtexto",
        -9.260320601626097
      ],
      [
        "ĠDr",
        -9.267025469413706
      ],
      [
        "PMDB",
        -9.26751133137319
      ],
      [
        "Ġfeito",
        -9.268777075554254
      ],
      [
        "Ġlado",
        -9.268819338014175
      ],
      [
        "ĠSala",
        -9.271086599661343
      ],
      [
        "Ġexiste",
        -9.271558168884836
      ],
      [
        "ximo",
        -9.271652589028342
      ],
      [
        "ĠIII",
        -9.272214568889094
      ],
      [
        "Ġestado",
        -9.273225807244746
      ],
      [
        "Ġproduc",
        -9.274383402286848
      ],
      [
        "ĠFo",
        -9.27541181554156
      ],
      [
        "ĠEduardo",
        -9.27562753230533
      ],
      [
        "ĠCA",
        -9.277380091643622
      ],
      [
        "cnica",
        -9.2782440413426
      ],
      [
        "Ġhavia",
        -9.2802617217163
      ],
      [
        "EL",
        -9.283000208846724
      ],
      [
        "Ġ2005",
        -9.28645616653569
      ],
      [
        "RIA",
        -9.286554309798364
      ],
      [
        "ĠNO",
        -9.286588146414784
      ],
      [
        "RO",
        -9.287727329651752
      ],
      [
        "Ġrec",
        -9.288320921285544
      ],
      [
        "Ġdessa",
        -9.288348700285413
      ],
      [
        "Ġabril",
        -9.288400026201584
      ],
      [
        "ĠDia",
        -9.289913705612747
      ],
      [
        "ber",
        -9.290821032248974
      ],
      [
        "ĠTem",
        -9.291622537020674
      ],
      [
        "Ġcara",
        -9.292661030061971
      ],
      [
        "Ġini",
        -9.29404970721159
      ],
      [
        "Ġficar",
        -9.294727765552537
      ],
      [
        "Ġprincipal",
        -9.296569045296508
      ],
      [
        "Ġjaneiro",
        -9.297538510865406
      ],
      [
        "Ġdesse",
        -9.298246794152572
      ],
      [
        "Ġ27",
        -9.29893349267977
      ],
      [
        "Ġpresidente",
        -9.29939872465038
      ],
      [
        "Ġhabitantes",
        -9.3002249261025
      ],
      [
        "ĠVa",
        -9.301093347965748
      ],
      [
        "://",
        -9.303242430726852
      ],
      [
        "ĠPreside",
        -9.303528086849765
      ],
      [
        "seguranc",
        -9.305655319522836
      ],
      [
        "Ġjuri",
        -9.306134466680938
      ],
      [
        "Ġempresas",
        -9.306165903142718
      ],
      [
        "02",
        -9.306248483041218
      ],
      [
        "Ġcrianc",
        -9.306458339329296
      ],
      [
        "Ġsemana",
        -9.30651233010997
      ],
      [
        "amos",
        -9.307938020290962
      ],
      [
        "MA",
        -9.308078590943856
      ],
      [
        "Ġnovembro",
        -9.308982504073311
      ],
      [
        "ĠPARECER",
        -9.31213223380418
      ],
      [
        "chi",
        -9.312302466191571
      ],
      [
        "Ġeducac",
        -9.317575526258366
      ],
      [
        "vam",
        -9.318559421242496
      ],
      [
        "ticos",
        -9.321230622445038
      ],
      [
        "Ġ29",
        -9.321538486871203
      ],
      [
        "est",
        -9.32331793405339
      ],
      [
        "Ġforc",
        -9.32333630394611
      ],
      [
        "bel",
        -9.325902372506723
      ],
      [
        "Ġge",
        -9.32647403977418
      ],
      [
        "ex",
        -9.329208222240824
      ],
      [
        "Ġfalar",
        -9.329886319336948
      ],
      [
        "xi",
        -9.3303592043133
      ],
      [
        "Ġnum",
        -9.33389733191787
      ],
      [
        "ĠPE",
        -9.334595387188472
      ],
      [
        "Ġtenha",
        -9.336483131224666
      ],
      [
        "Ġexerci",
        -9.336739483323717
      ],
      [
        "Ġatrave",
        -9.33701436392186
      ],
      [
        "50",
        -9.338686288198868
      ],
      [
        "Ġsim",
        -9.340193437621163
      ],
      [
        "ĠVe",
        -9.341392861314468
      ],
      [
        "Ġfunc",
        -9.341477239391237
      ],
      [
        "Ġpec",
        -9.34472680369056
      ],
      [
        "Ġestamos",
        -9.34501453831014
      ],
      [
        "ĠPi",
        -9.34619910046577
      ],
      [
        "bar",
        -9.346573405130718
      ],
      [
        "ĠH",
        -9.348529994815332
      ],
      [
        "ĠGu",
        -9.348555629697795
      ],
      [
        "2013",
        -9.34856167124189
      ],
      [
        "Ġprec",
        -9.35060633086306
      ],
      [
        "ĠEssa",
        -9.352129141743555
      ],
      [
        "Ġpodera",
        -9.357245964305967
      ],
      [
        "Ġpena",
        -9.358780511277986
      ],
      [
        "qua",
        -9.359388310526873
      ],
      [
        "DE",
        -9.35939818269056
      ],
      [
        "lise",
        -9.35943077396681
      ],
      [
        "ĠEmenda",
        -9.36006580595232
      ],
      [
        "prio",
        -9.360868768688404
      ],
      [
        "Ġvolta",
        -9.362215040606856
      ],
      [
        "tur",
        -9.362397713649042
      ],
      [
        "ĠAle",
        -9.362921044572303
      ],
      [
        "Ġestar",
        -9.36341150379073
      ],
      [
        "Regimento",
        -9.363447716441
      ],
      [
        "bri",
        -9.36385349827468
      ],
      [
        "ĠSau",
        -9.36406809326419
      ],
      [
        "ĠEsse",
        -9.365463440480484
      ],
      [
        "gina",
        -9.366660433627551
      ],
      [
        "ral",
        -9.367801876532974
      ],
      [
        "les",
        -9.36838621762456
      ],
      [
        "Ġcargo",
        -9.371977437821403
      ],
      [
        "ner",
        -9.372111156948543
      ],
      [
        "ĠFranc",
        -9.372629294724716
      ],
      [
        "ang",
        -9.374634271535395
      ],
      [
        "Ġverdade",
        -9.375112866147072
      ],
      [
        "Ġ2013",
        -9.375490425782823
      ],
      [
        "Ġquatro",
        -9.376679315858842
      ],
      [
        "Ġ31",
        -9.377345860074742
      ],
      [
        "Ġenquanto",
        -9.377432449179055
      ],
      [
        "Ġvista",
        -9.37758095195496
      ],
      [
        "bal",
        -9.378131223714576
      ],
      [
        "ĠMin",
        -9.380681991217411
      ],
      [
        "Ġrespeito",
        -9.38180732383017
      ],
      [
        "ini",
        -9.383280145401743
      ],
      [
        "Ġponto",
        -9.383945463899986
      ],
      [
        "mina",
        -9.384153955680857
      ],
      [
        "Ġinstituic",
        -9.385356734571314
      ],
      [
        "mico",
        -9.386664276274162
      ],
      [
        "nho",
        -9.386950848003142
      ],
      [
        "SP",
        -9.387172810481486
      ],
      [
        "Ġobjetivo",
        -9.387313796774825
      ],
      [
        "14",
        -9.38798141976092
      ],
      [
        "Ġdis",
        -9.38869735128131
      ],
      [
        "DI",
        -9.3889602077272
      ],
      [
        "Ġfevereiro",
        -9.389547658735726
      ],
      [
        "feira",
        -9.391380950558183
      ],
      [
        "Ġsessa",
        -9.393038629561271
      ],
      [
        "Ġdentro",
        -9.395672818489407
      ],
      [
        "por",
        -9.395824418551404
      ],
      [
        "2011",
        -9.39692296496611
      ],
      [
        "Ġquais",
        -9.399120327038348
      ],
      [
        "Ġprecisa",
        -9.399131379829116
      ],
      [
        "Ġlocal",
        -9.399261522448937
      ],
      [
        "Ġdemais",
        -9.400497652434012
      ],
      [
        "gica",
        -9.401076820275613
      ],
      [
        "Deputada",
        -9.401569617872592
      ],
      [
        "Ġmim",
        -9.402354408377308
      ],
      [
        "ĠBrasi",
        -9.402372731143885
      ],
      [
        "Ġhora",
        -9.402661713844092
      ],
      [
        "Ġproblema",
        -9.402956107290963
      ],
      [
        "ĠUma",
        -9.404972480753507
      ],
      [
        "dico",
        -9.40510544072263
      ],
      [
        "ato",
        -9.405914654457575
      ],
      [
        "Ġsala",
        -9.406956763911872
      ],
      [
        "ĠKa",
        -9.40774959526622
      ],
      [
        "Ġalgo",
        -9.408622069306778
      ],
      [
        "Ġinteresse",
        -9.40881154043199
      ],
      [
        "zar",
        -9.41054172822986
      ],
      [
        "ĠInterno",
        -9.411213650282416
      ],
      [
        "tivo",
        -9.411273802619682
      ],
      [
        "Ġapoio",
        -9.41128372571026
      ],
      [
        "Ġ2012",
        -9.411758207646422
      ],
      [
        "Ġ(\"",
        -9.4127343837062
      ],
      [
        "ciona",
        -9.414237967455152
      ],
      [
        "ĠMaria",
        -9.41493315264146
      ],
      [
        "ĠEducac",
        -9.41529959928268
      ],
      [
        "Ġhoras",
        -9.416024731454572
      ],
      [
        "ĠNi",
        -9.419233919568056
      ],
      [
        "nas",
        -9.419445174319357
      ],
      [
        "ĠSupremo",
        -9.419556774354213
      ],
      [
        "aram",
        -9.420611258783977
      ],
      [
        "Ġcriac",
        -9.423643170233015
      ],
      [
        "pri",
        -9.423876872428956
      ],
      [
        "ist",
        -9.42450468358142
      ],
      [
        "ĠCha",
        -9.426679654127406
      ],
      [
        "Ġparecer",
        -9.42732533042874
      ],
      [
        "rico",
        -9.427785448383432
      ],
      [
        "Ġtotal",
        -9.42934187568054
      ],
      [
        "tua",
        -9.429625017603296
      ],
      [
        "Ġ2004",
        -9.430920952079733
      ],
      [
        "tada",
        -9.432675696611266
      ],
      [
        "cada",
        -9.432747319147994
      ],
      [
        "ĠUnidos",
        -9.434702273725208
      ],
      [
        "ele",
        -9.435372574842344
      ],
      [
        "Ġfalta",
        -9.43746220258388
      ],
      [
        "Ġconforme",
        -9.438119234874629
      ],
      [
        "cho",
        -9.43846408787754
      ],
      [
        "Ġfilme",
        -9.43852040091991
      ],
      [
        "ĠTurma",
        -9.440082952097306
      ],
      [
        "ĠEn",
        -9.440130067469903
      ],
      [
        "Ġnunca",
        -9.442243824809802
      ],
      [
        "ĠConselho",
        -9.443777393900987
      ],
      [
        "Ġacesso",
        -9.44536625175198
      ],
      [
        "tura",
        -9.44797043109168
      ],
      [
        "Ġjogo",
        -9.449291142146503
      ],
      [
        "Ġcerca",
        -9.449515104240731
      ],
      [
        "nimo",
        -9.450942982531013
      ],
      [
        "Ġespecial",
        -9.45103246287378
      ],
      [
        "gue",
        -9.45163164100732
      ],
      [
        "ĠQuando",
        -9.451795632372855
      ],
      [
        "Ġsou",
        -9.453425749497516
      ],
      [
        "Ġdeixa",
        -9.45348120369102
      ],
      [
        "ĠUniversidade",
        -9.454328791920112
      ],
      [
        "cre",
        -9.45467074570894
      ],
      [
        "poca",
        -9.455770534414029
      ],
      [
        "reas",
        -9.456151104677872
      ],
      [
        "Ġcri",
        -9.461055881259696
      ],
      [
        "Ġobrigado",
        -9.462372317546093
      ],
      [
        "tima",
        -9.463502222027756
      ],
      [
        "Ġrelato",
        -9.464246707854263
      ],
      [
        "inha",
        -9.465741587148266
      ],
      [
        "ĠEx",
        -9.465751141410596
      ],
      [
        "ano",
        -9.465823609752007
      ],
      [
        "ĠSilva",
        -9.466256467035326
      ],
      [
        "Ġdados",
        -9.468211753620372
      ],
      [
        "cil",
        -9.469214730126035
      ],
      [
        "Ġequipe",
        -9.469240463751731
      ],
      [
        "Ġcinco",
        -9.469270862230282
      ],
      [
        "ĠPlena",
        -9.469805873272664
      ],
      [
        "adas",
        -9.470287218945684
      ],
      [
        "Ġprinci",
        -9.471696931194693
      ],
      [
        "ĠPedro",
        -9.472103603524078
      ],
      [
        "her",
        -9.473212543971869
      ],
      [
        "istas",
        -9.474893720012387
      ],
      [
        "registro",
        -9.476240196849911
      ],
      [
        "rcio",
        -9.476915263764845
      ],
      [
        "uma",
        -9.477498103045413
      ],
      [
        "Ġregimental",
        -9.478154368680046
      ],
      [
        "Ġ2015",
        -9.478899753668534
      ],
      [
        "Ġdefesa",
        -9.480705994528403
      ],
      [
        "Ġvota",
        -9.481787437805009
      ],
      [
        "Ġmercado",
        -9.48344091487578
      ],
      [
        "Ġsegunda",
        -9.483548084032709
      ],
      [
        "âĢĻ",
        -9.483698669660214
      ],
      [
        "98",
        -9.484093572742376
      ],
      [
        "25",
        -9.48610573263864
      ],
      [
        "ĠOliveira",
        -9.486409243185363
      ],
      [
        "Ġpedido",
        -9.486831735185204
      ],
      [
        "Ġfac",
        -9.487477195129657
      ],
      [
        "las",
        -9.48950123448679
      ],
      [
        "ten",
        -9.489751578417984
      ],
      [
        "Ġdireitos",
        -9.490420103700718
      ],
      [
        "cula",
        -9.490959056619104
      ],
      [
        "Ġfora",
        -9.491810179974667
      ],
      [
        "Ġluta",
        -9.491872287455744
      ],
      [
        "ĠCar",
        -9.492074234744152
      ],
      [
        "Ġrealizada",
        -9.494256296827048
      ],
      [
        "devido",
        -9.495662405311998
      ],
      [
        "mer",
        -9.495933624807387
      ],
      [
        "ense",
        -9.496130973909835
      ],
      [
        "PE",
        -9.496205212639824
      ],
      [
        "ĠTotal",
        -9.496595808546006
      ],
      [
        "vol",
        -9.496931314052098
      ],
      [
        "Ġextraordina",
        -9.498213467640282
      ],
      [
        "Ġpesquisa",
        -9.498650080265564
      ],
      [
        "pro",
        -9.499007139970333
      ],
      [
        "ki",
        -9.49966541360585
      ],
      [
        "Ġmorte",
        -9.500488508908989
      ],
      [
        "cas",
        -9.501033041628991
      ],
      [
        "ĠRE",
        -9.50226018407301
      ],
      [
        "Ġedic",
        -9.502465368592777
      ],
      [
        "dade",
        -9.503480373256211
      ],
      [
        "DA",
        -9.504165312978
      ],
      [
        "ĠBar",
        -9.504613769387358
      ],
      [
        "Ġ2003",
        -9.50657180380463
      ],
      [
        "Ġkm",
        -9.50682459401938
      ],
      [
        "Ġfazendo",
        -9.506835029611278
      ],
      [
        "amenta",
        -9.5081044271687
      ],
      [
        "Ġfo",
        -9.508182791837916
      ],
      [
        "Ġgra",
        -9.509409192568777
      ],
      [
        "Ġvem",
        -9.509969890189383
      ],
      [
        "Ġobjeto",
        -9.511522946468864
      ],
      [
        "Ġdele",
        -9.513376748496109
      ],
      [
        "Ġraza",
        -9.513578783749397
      ],
      [
        "val",
        -9.513766805893384
      ],
      [
        "ĠRu",
        -9.514658405014725
      ],
      [
        "Ġthe",
        -9.517072316636131
      ],
      [
        "rada",
        -9.517307787260265
      ],
      [
        "Ġfeita",
        -9.517597899468852
      ],
      [
        "ĠPP",
        -9.520476507048455
      ],
      [
        "Ġmeses",
        -9.523345628319698
      ],
      [
        "Executivo",
        -9.525067741660733
      ],
      [
        "ela",
        -9.525457008698892
      ],
      [
        "Ġprova",
        -9.525744207940024
      ],
      [
        "Ġorigem",
        -9.526532303837476
      ],
      [
        "ĠSocial",
        -9.530284556949567
      ],
      [
        "CE",
        -9.530390221343286
      ],
      [
        "ĠEM",
        -9.531371817312952
      ],
      [
        "Ġposic",
        -9.531826570793154
      ],
      [
        "Ġpelas",
        -9.532970860257436
      ],
      [
        "Ġcrime",
        -9.534672026490842
      ],
      [
        "LA",
        -9.53792080574861
      ],
      [
        "ĠSegundo",
        -9.539658938611364
      ],
      [
        "97",
        -9.54041409375538
      ],
      [
        "Ġfilho",
        -9.540802110976976
      ],
      [
        "Ġnota",
        -9.541531986746136
      ],
      [
        "ĠComunicac",
        -9.542429084839084
      ],
      [
        "IC",
        -9.54264888424538
      ],
      [
        "Ġgeral",
        -9.542789433625693
      ],
      [
        "ĠFilho",
        -9.543941646438704
      ],
      [
        "ĠAgora",
        -9.544796132755318
      ],
      [
        "Ġinclusive",
        -9.54582061995985
      ],
      [
        "PTB",
        -9.54681228122401
      ],
      [
        "ĠHi",
        -9.547132653669044
      ],
      [
        "Ġdispo",
        -9.54814660404943
      ],
      [
        "Ġ2014",
        -9.548545763833689
      ],
      [
        "Ġpossui",
        -9.549039498500605
      ],
      [
        "Ġpassa",
        -9.549376433036636
      ],
      [
        "essa",
        -9.550538216265595
      ],
      [
        "Ġfunciona",
        -9.553136903783749
      ],
      [
        "Ġfosse",
        -9.55452394406976
      ],
      [
        "blicos",
        -9.554656639520145
      ],
      [
        "port",
        -9.55521270656239
      ],
      [
        "radiodifusa",
        -9.55795844364246
      ],
      [
        "Ġresponsa",
        -9.55920421871753
      ],
      [
        "Ġ50",
        -9.560127523885845
      ],
      [
        "SE",
        -9.560728478771589
      ],
      [
        "2000",
        -9.560805679396198
      ],
      [
        "Ġpagamento",
        -9.561367483335
      ],
      [
        "Ġpartido",
        -9.561773638133324
      ],
      [
        "Ġquase",
        -9.56209053036341
      ],
      [
        "Ġatividades",
        -9.562497489398634
      ],
      [
        "Ġinter",
        -9.562853644935872
      ],
      [
        "Ġqualidade",
        -9.563612239870324
      ],
      [
        "The",
        -9.564383706608774
      ],
      [
        "Ġlegal",
        -9.565726103118216
      ],
      [
        "LI",
        -9.566549502869368
      ],
      [
        "ĠThe",
        -9.568419674828704
      ],
      [
        "Ġmal",
        -9.568880004962288
      ],
      [
        "Ġemenda",
        -9.570532960389752
      ],
      [
        "ĠTra",
        -9.570859949790057
      ],
      [
        "ĠDeus",
        -9.571397356675917
      ],
      [
        "Ġalgumas",
        -9.571544416599505
      ],
      [
        "Ġpoderia",
        -9.57158258261365
      ],
      [
        "Ġnecessidade",
        -9.571619909165538
      ],
      [
        "NCIA",
        -9.572364383090465
      ],
      [
        "2008",
        -9.57276225103931
      ],
      [
        "Ġ2016",
        -9.574110946892445
      ],
      [
        ".âĢĿ",
        -9.574898665372306
      ],
      [
        "Ġtrans",
        -9.577450949002683
      ],
      [
        "Ġaco",
        -9.578718990092806
      ],
      [
        "ĠAc",
        -9.578880840112326
      ],
      [
        "tel",
        -9.580178207582202
      ],
      [
        "Ġminutos",
        -9.58283571627062
      ],
      [
        "Ġparticipac",
        -9.583708323164364
      ],
      [
        "Ġesses",
        -9.585929162952478
      ],
      [
        "Ġmaioria",
        -9.587968526247527
      ],
      [
        "ĠApo",
        -9.58863311778064
      ],
      [
        "timo",
        -9.590971194251305
      ],
      [
        "for",
        -9.591163301274625
      ],
      [
        "Ġlinha",
        -9.592116010138074
      ],
      [
        "__",
        -9.592367406362204
      ],
      [
        "gio",
        -9.593769481308575
      ],
      [
        "ĠCOM",
        -9.594123099907543
      ],
      [
        "2007",
        -9.595569477433887
      ],
      [
        "Ð",
        -9.59605713383666
      ],
      [
        "bio",
        -9.596339567885678
      ],
      [
        "ĠAme",
        -9.59706298052999
      ],
      [
        "Ġpublicac",
        -9.59830005138111
      ],
      [
        "Ġdinheiro",
        -9.59889113822952
      ],
      [
        "Ġcerto",
        -9.599970693635536
      ],
      [
        "Ġmodo",
        -9.60101108132082
      ],
      [
        "Ġconhecido",
        -9.601231076786725
      ],
      [
        "Ġtal",
        -9.603509253307816
      ],
      [
        "Ġmar",
        -9.60386921978722
      ],
      [
        "Ġpossa",
        -9.604415217687896
      ],
      [
        "Ġboa",
        -9.60443889774181
      ],
      [
        "ĠMan",
        -9.605228826757328
      ],
      [
        "ĠCie",
        -9.605245857501428
      ],
      [
        "vio",
        -9.605394536089175
      ],
      [
        "Ġdeixar",
        -9.605966177282625
      ],
      [
        "ĠDu",
        -9.606248911874513
      ],
      [
        "fl",
        -9.607692088934852
      ],
      [
        "lbum",
        -9.607883089841115
      ],
      [
        "ĠAG",
        -9.60789701355953
      ],
      [
        "Ġrequerimento",
        -9.609368987391548
      ],
      [
        "Ġfala",
        -9.61294500875621
      ],
      [
        "Ġeram",
        -9.613374104523476
      ],
      [
        "Ġnesse",
        -9.614324563429967
      ],
      [
        "ltimo",
        -9.614339755799993
      ],
      [
        "Ġaumento",
        -9.614899674844368
      ],
      [
        ");",
        -9.615067097114313
      ],
      [
        "Ġirma",
        -9.61508836179612
      ],
      [
        "ais",
        -9.616851587038935
      ],
      [
        "Ġfu",
        -9.61690547926442
      ],
      [
        "Ġproduto",
        -9.617567972937891
      ],
      [
        "Ġocorre",
        -9.618255331320398
      ],
      [
        "Ġensino",
        -9.619453334843534
      ],
      [
        "28",
        -9.621728752794658
      ],
      [
        "https",
        -9.62175693412413
      ],
      [
        "bilidade",
        -9.621954194768934
      ],
      [
        "agravo",
        -9.62342023010959
      ],
      [
        "Ġjunto",
        -9.6238587952677
      ],
      [
        "ĠRi",
        -9.624272485794584
      ],
      [
        "ĠPrograma",
        -9.624911184489976
      ],
      [
        "2010",
        -9.625692417406198
      ],
      [
        "Ġreforma",
        -9.626141162126082
      ],
      [
        "ĠGra",
        -9.626856779729412
      ],
      [
        "Ġnorte",
        -9.627156562398236
      ],
      [
        "ento",
        -9.62816606928742
      ],
      [
        "88",
        -9.628861720808452
      ],
      [
        "ĠFu",
        -9.629018715620592
      ],
      [
        "ĠPar",
        -9.629534835988766
      ],
      [
        "ĠNova",
        -9.629725544267414
      ],
      [
        "Ġredac",
        -9.631126607144177
      ],
      [
        "Ġcampo",
        -9.632218637553583
      ],
      [
        "ĠHisto",
        -9.633190004664764
      ],
      [
        "ltima",
        -9.634215880897004
      ],
      [
        "ĠAssim",
        -9.634942986633956
      ],
      [
        "29",
        -9.636721109791877
      ],
      [
        "ĠParecer",
        -9.636835253726352
      ],
      [
        "eleic",
        -9.636936582947362
      ],
      [
        "Ġmuitas",
        -9.637307492612615
      ],
      [
        "Ġnoite",
        -9.637961849072052
      ],
      [
        "Ġnuma",
        -9.63803690877076
      ],
      [
        "ĠBu",
        -9.638130649279391
      ],
      [
        "ĠLula",
        -9.638137424236213
      ],
      [
        "cal",
        -9.63990170918432
      ],
      [
        "agem",
        -9.640414122327352
      ],
      [
        "Ġtema",
        -9.640868103438736
      ],
      [
        "vin",
        -9.641080956463306
      ],
      [
        "PR",
        -9.641357702727955
      ],
      [
        "ĠSua",
        -9.641423885885438
      ],
      [
        "ĠAssociac",
        -9.6427702058856
      ],
      [
        "Ġingle",
        -9.643415273759263
      ],
      [
        "Ġlegislac",
        -9.643541078709903
      ],
      [
        "Ġres",
        -9.644434467408267
      ],
      [
        "Ġconstruc",
        -9.644601831587178
      ],
      [
        "entanto",
        -9.645170308171416
      ],
      [
        "somente",
        -9.645602910652912
      ],
      [
        "int",
        -9.64661393720266
      ],
      [
        "Ġsuperior",
        -9.647631441206943
      ],
      [
        "Ġcompete",
        -9.649088588591624
      ],
      [
        "ĠLegislativo",
        -9.649328481071748
      ],
      [
        "TI",
        -9.649587105011868
      ],
      [
        "Ġcontrato",
        -9.64970069661286
      ],
      [
        "Ġoperac",
        -9.649745270356943
      ],
      [
        "Ġatual",
        -9.650263971132988
      ],
      [
        "culos",
        -9.6508696385605
      ],
      [
        "Ġhomem",
        -9.651365277584905
      ],
      [
        "ĠPer",
        -9.65309702183977
      ],
      [
        "96",
        -9.653176311491984
      ],
      [
        "Ġ100",
        -9.655468530444384
      ],
      [
        "Ġ40",
        -9.656942305244923
      ],
      [
        "ĠDJ",
        -9.657483847051314
      ],
      [
        "ende",
        -9.658584902710365
      ],
      [
        "Ġgrandes",
        -9.658614345591616
      ],
      [
        "ff",
        -9.659384077068957
      ],
      [
        "US",
        -9.660222986991228
      ],
      [
        "Ġsai",
        -9.661658869008225
      ],
      [
        "Ġcontrole",
        -9.661748204138014
      ],
      [
        "vis",
        -9.66211035542082
      ],
      [
        "Ġtarde",
        -9.662351965304216
      ],
      [
        "Ġoficial",
        -9.662439104468326
      ],
      [
        "stica",
        -9.664049227406307
      ],
      [
        "altera",
        -9.664124062450275
      ],
      [
        "Ġsetor",
        -9.664409574473186
      ],
      [
        "Ġlongo",
        -9.665022937414856
      ],
      [
        "ĠFernando",
        -9.665511525833647
      ],
      [
        "Ġlhe",
        -9.66566199086574
      ],
      [
        "Ġmembro",
        -9.666533645689166
      ],
      [
        "BA",
        -9.667822202851736
      ],
      [
        "ant",
        -9.669212283727129
      ],
      [
        "ly",
        -9.670491805717134
      ],
      [
        "dic",
        -9.673870306621067
      ],
      [
        "Ġrealizac",
        -9.674760278399017
      ],
      [
        "bil",
        -9.675412717697984
      ],
      [
        "pria",
        -9.676219969682014
      ],
      [
        "ĠPl",
        -9.676665964381812
      ],
      [
        "var",
        -9.676984481665151
      ],
      [
        "ĠCor",
        -9.677297199827484
      ],
      [
        "ĠDEM",
        -9.677605594581578
      ],
      [
        "ĠTrabalho",
        -9.678576673623324
      ],
      [
        "ĠVI",
        -9.67880907554216
      ],
      [
        "lado",
        -9.678980054508491
      ],
      [
        "ĠRoberto",
        -9.680945659662632
      ],
      [
        "Ġsaber",
        -9.681068200773442
      ],
      [
        "Ġessas",
        -9.681764382044353
      ],
      [
        "Ġacho",
        -9.682551159074034
      ],
      [
        "Ġorc",
        -9.682720759426497
      ],
      [
        "Ġjulgamento",
        -9.682932225888042
      ],
      [
        "tina",
        -9.683034287717277
      ],
      [
        "45",
        -9.6850193616386
      ],
      [
        "gia",
        -9.687031142230753
      ],
      [
        "Ġpreciso",
        -9.687302404907678
      ],
      [
        "ĠIta",
        -9.688389480881316
      ],
      [
        "Ġbrasileiros",
        -9.689246707688016
      ],
      [
        "ĠSP",
        -9.69133443800506
      ],
      [
        "len",
        -9.6914409750872
      ],
      [
        "27",
        -9.691741477325772
      ],
      [
        "ĠSE",
        -9.691757770277912
      ],
      [
        "Ġpresenc",
        -9.692304071950511
      ],
      [
        "\")",
        -9.692614760649327
      ],
      [
        "Ġespac",
        -9.692837676869797
      ],
      [
        "ĠMaia",
        -9.693178145848863
      ],
      [
        "99",
        -9.693834528939858
      ],
      [
        "mula",
        -9.695948109765364
      ],
      [
        "Ġmembros",
        -9.696408055867131
      ],
      [
        "Ġman",
        -9.69684901229359
      ],
      [
        "Ġbenefi",
        -9.697028880687643
      ],
      [
        "ara",
        -9.697758765752022
      ],
      [
        "passou",
        -9.698106951292722
      ],
      [
        "40",
        -9.699319230319796
      ],
      [
        "ĠBem",
        -9.700854642729828
      ],
      [
        "til",
        -9.70478509504462
      ],
      [
        "ula",
        -9.704861612266606
      ],
      [
        "35",
        -9.706570004623034
      ],
      [
        "Ġformula",
        -9.71031311877478
      ],
      [
        "NI",
        -9.710768528717097
      ],
      [
        "ĠGe",
        -9.71085201714521
      ],
      [
        "Ġenergia",
        -9.711300850145248
      ],
      [
        "Ġobras",
        -9.71249002197293
      ],
      [
        "Ġmulheres",
        -9.713435949704724
      ],
      [
        "ĠSan",
        -9.713648790255377
      ],
      [
        "ĠPortugal",
        -9.714528565327615
      ],
      [
        "Ġregime",
        -9.715033399579502
      ],
      [
        "Ġterra",
        -9.715325357758664
      ],
      [
        "ÌĤ?",
        -9.715863197822951
      ],
      [
        "dora",
        -9.716643043065666
      ],
      [
        "2012",
        -9.71856143573546
      ],
      [
        "devera",
        -9.71954147672643
      ],
      [
        "pia",
        -9.720084625627566
      ],
      [
        "22",
        -9.721769512309464
      ],
      [
        "Ġins",
        -9.72186966851402
      ],
      [
        "Ġmaneira",
        -9.7227808106899
      ],
      [
        "Ġmuitos",
        -9.723339046968654
      ],
      [
        "Ġeconomia",
        -9.724590509952115
      ],
      [
        "Ġpar",
        -9.72481658678706
      ],
      [
        "Ġassunto",
        -9.724831732745374
      ],
      [
        "gico",
        -9.72714260634234
      ],
      [
        "Ġcorpo",
        -9.727439431037912
      ],
      [
        "2016",
        -9.728133073481056
      ],
      [
        "Ġdebate",
        -9.7298593756086
      ],
      [
        "ĠMinas",
        -9.730571433088176
      ],
      [
        "Ġ54",
        -9.730578526795156
      ],
      [
        "ĠZ",
        -9.73105832339884
      ],
      [
        "ĠPA",
        -9.731078631419743
      ],
      [
        "Í",
        -9.731405234492286
      ],
      [
        "Ġfrente",
        -9.731632939175348
      ],
      [
        "Ġauto",
        -9.731676900991143
      ],
      [
        "Ġinc",
        -9.733089206765284
      ],
      [
        "ĠMesa",
        -9.733258418334076
      ],
      [
        "Ġ32",
        -9.733316856454282
      ],
      [
        "ĠPSB",
        -9.733404471893769
      ],
      [
        "Ġprincipalmente",
        -9.733893996746806
      ],
      [
        "Ġrei",
        -9.73411814511242
      ],
      [
        "Ġchamado",
        -9.734480331771602
      ],
      [
        "lidade",
        -9.735463956154453
      ],
      [
        "ĠAnto",
        -9.736325385970488
      ],
      [
        "Ġestrutura",
        -9.73669711636419
      ],
      [
        "legislativa",
        -9.736806614177317
      ],
      [
        "izac",
        -9.737604255392371
      ],
      [
        "ĠEstou",
        -9.738382787283058
      ],
      [
        "Ġconjunto",
        -9.73841078478806
      ],
      [
        "remos",
        -9.740110477962467
      ],
      [
        "ncio",
        -9.740748515825448
      ],
      [
        "ĠDesenvolvimento",
        -9.741129737757102
      ],
      [
        "ty",
        -9.742049345792877
      ],
      [
        "Ġforte",
        -9.74275489399455
      ],
      [
        "46",
        -9.742801827846495
      ],
      [
        "Ġvo",
        -9.742872098473162
      ],
      [
        "Ġ2017",
        -9.7428827545382
      ],
      [
        "Ġpapel",
        -9.743305936813664
      ],
      [
        "OR",
        -9.743612406771089
      ],
      [
        "Ġparece",
        -9.745027003508714
      ],
      [
        "ĠFrancisco",
        -9.745440016913648
      ],
      [
        "ĠNorte",
        -9.746548107672169
      ],
      [
        "Ġencontra",
        -9.74774210256709
      ],
      [
        "Ġindi",
        -9.749140898332907
      ],
      [
        "reais",
        -9.749183941999604
      ],
      [
        "ĠPartido",
        -9.75325042099921
      ],
      [
        "stria",
        -9.753262931367342
      ],
      [
        "Ġatividade",
        -9.75373143948294
      ],
      [
        "ĠIV",
        -9.755266018646958
      ],
      [
        "Ġproblemas",
        -9.755351875391188
      ],
      [
        "Ġgente",
        -9.7559845978939
      ],
      [
        "cla",
        -9.7563095763431
      ],
      [
        "Ġobra",
        -9.758223649994024
      ],
      [
        "Ġaplicac",
        -9.75842161159574
      ],
      [
        "Ġhouve",
        -9.758848482978848
      ],
      [
        "Ġbusca",
        -9.759322572894993
      ],
      [
        "Ġcapital",
        -9.760057004970532
      ],
      [
        "ger",
        -9.762431889669909
      ],
      [
        "90",
        -9.762785532111078
      ],
      [
        "Ġautor",
        -9.763131197311548
      ],
      [
        "concessa",
        -9.763972099305915
      ],
      [
        "Ġbanda",
        -9.764049593953436
      ],
      [
        "Ġaprovado",
        -9.765368644275888
      ],
      [
        "q",
        -9.765595985432272
      ],
      [
        "#",
        -9.76617683823116
      ],
      [
        "cul",
        -9.767201937829116
      ],
      [
        "Ġmovimento",
        -9.768725542878377
      ],
      [
        "Ġconhecimento",
        -9.768835993785254
      ],
      [
        "ĠSA",
        -9.769488321555936
      ],
      [
        "2014",
        -9.77180314772458
      ],
      [
        "bol",
        -9.771839568188543
      ],
      [
        "Ġposso",
        -9.771891319723736
      ],
      [
        "Ġajuda",
        -9.77232812115198
      ],
      [
        "):",
        -9.772369936766603
      ],
      [
        "Ġcoisas",
        -9.772733888863597
      ],
      [
        "Ġreal",
        -9.772797745885477
      ],
      [
        "rte",
        -9.773464903547977
      ],
      [
        "land",
        -9.773834987904335
      ],
      [
        "ler",
        -9.774306777230072
      ],
      [
        "Ġprofessor",
        -9.775445806944337
      ],
      [
        "01",
        -9.776257420880484
      ],
      [
        "Ġdez",
        -9.77747209582088
      ],
      [
        "Ġembora",
        -9.77785456969657
      ],
      [
        "Ġalgum",
        -9.778087280976862
      ],
      [
        "Ġ:)",
        -9.778508818056812
      ],
      [
        "ĠSecreta",
        -9.78055792851902
      ],
      [
        "ngua",
        -9.781809734054086
      ],
      [
        "Ġoportunidade",
        -9.782927010925278
      ],
      [
        "Ġdeveria",
        -9.783296502726165
      ],
      [
        "Ġpassado",
        -9.7834670005101
      ],
      [
        "rus",
        -9.784289893468388
      ],
      [
        "Ġcusto",
        -9.78443212020838
      ],
      [
        "Ġlivro",
        -9.785869422846384
      ],
      [
        "lica",
        -9.7865914167263
      ],
      [
        "Ġorganizac",
        -9.78687391470248
      ],
      [
        "iva",
        -9.78735949286784
      ],
      [
        "Ġalguma",
        -9.788770928964214
      ],
      [
        "para",
        -9.789761980998778
      ],
      [
        "ĠPode",
        -9.79049849039828
      ],
      [
        "portanto",
        -9.790575839374927
      ],
      [
        "Ġsuper",
        -9.790644263178889
      ],
      [
        "ĠCO",
        -9.79169062796074
      ],
      [
        "COMISSA",
        -9.793503310707036
      ],
      [
        "Ġinclui",
        -9.7941728438629
      ],
      [
        "responsabilidade",
        -9.79484734022559
      ],
      [
        "zado",
        -9.795321156068894
      ],
      [
        "Ġeletro",
        -9.796283496273738
      ],
      [
        "Distrito",
        -9.797195528009606
      ],
      [
        "xima",
        -9.797351399870132
      ],
      [
        "ĠAntonio",
        -9.797963630729884
      ],
      [
        "Ġ2019",
        -9.798256541283118
      ],
      [
        "Ġcanc",
        -9.799003112876232
      ],
      [
        "ago",
        -9.79914867547595
      ],
      [
        "ĠBra",
        -9.799383024423635
      ],
      [
        "23",
        -9.800785234518008
      ],
      [
        "RECURSO",
        -9.801894641568042
      ],
      [
        "26",
        -9.80284397143596
      ],
      [
        "Defesa",
        -9.80352430067145
      ],
      [
        "nado",
        -9.803723527570478
      ],
      [
        "ĠServic",
        -9.803779297492587
      ],
      [
        "blicas",
        -9.803948345710166
      ],
      [
        "let",
        -9.803980682664683
      ],
      [
        "ĠWi",
        -9.804906940179372
      ],
      [
        "ĠCivil",
        -9.80503107824346
      ],
      [
        "disposto",
        -9.805294344733843
      ],
      [
        "Ġ2000",
        -9.806740186988447
      ],
      [
        "Ġlista",
        -9.80696228862348
      ],
      [
        "&",
        -9.80781363277187
      ],
      [
        "Ġ2020",
        -9.807931377852578
      ],
      [
        "plan",
        -9.808054856388312
      ],
      [
        "*",
        -9.811313412740017
      ],
      [
        "Ġmulher",
        -9.8115818772215
      ],
      [
        "ĠMarco",
        -9.81221812463452
      ],
      [
        "cola",
        -9.8128552752802
      ],
      [
        "Ġsenhor",
        -9.812907948453516
      ],
      [
        "Ġ2002",
        -9.816553676834811
      ],
      [
        "sociais",
        -9.817970857388149
      ],
      [
        "ĠAna",
        -9.818030985057362
      ],
      [
        "ĠEMENDA",
        -9.818225315381175
      ],
      [
        "ĠCri",
        -9.81834726654975
      ],
      [
        "Ġescola",
        -9.81865206764908
      ],
      [
        "ndia",
        -9.818940587710884
      ],
      [
        "Ġchegar",
        -9.819971241930787
      ],
      [
        "Ġexecuc",
        -9.820331206505235
      ],
      [
        "Ġnego",
        -9.820504866072204
      ],
      [
        "ell",
        -9.820925142632795
      ],
      [
        "Ġcar",
        -9.821583060995984
      ],
      [
        "Ġcomunicac",
        -9.822101682055507
      ],
      [
        "Ġ1990",
        -9.822291612215643
      ],
      [
        "Ġcomunidade",
        -9.822367943985295
      ],
      [
        "Ġreuni",
        -9.82238163041796
      ],
      [
        "Ġmodelo",
        -9.82260655982763
      ],
      [
        "Ġbe",
        -9.824428734341666
      ],
      [
        "ser",
        -9.82460981306874
      ],
      [
        "ĠTecnologia",
        -9.824685352610132
      ],
      [
        "tida",
        -9.824919572607946
      ],
      [
        "ĠVice",
        -9.826427110011744
      ],
      [
        "isto",
        -9.826683052988924
      ],
      [
        "Ġdirec",
        -9.82712485400343
      ],
      [
        "Ġpessoal",
        -9.828346736050133
      ],
      [
        "Ġefeito",
        -9.828710608954337
      ],
      [
        "Ġnenhum",
        -9.828934406687257
      ],
      [
        "Ġmudanc",
        -9.82971782108152
      ],
      [
        "nel",
        -9.829860736249
      ],
      [
        "bert",
        -9.830502491314189
      ],
      [
        "risco",
        -9.830819745358657
      ],
      [
        "AC",
        -9.831602473104908
      ],
      [
        "Ġavanc",
        -9.833873910736306
      ],
      [
        "ĠPrimeira",
        -9.836861245333775
      ],
      [
        "Ġalcanc",
        -9.837205361235004
      ],
      [
        "Ġentra",
        -9.837503408853395
      ],
      [
        "IM",
        -9.8380748085699
      ],
      [
        "ban",
        -9.83856882968312
      ],
      [
        "Ġespeci",
        -9.839357787234976
      ],
      [
        "Ġiniciativa",
        -9.83966189196077
      ],
      [
        "48",
        -9.840567260383612
      ],
      [
        "Ìģ?",
        -9.84206300230094
      ],
      [
        "ĠBrasileiro",
        -9.843270429944996
      ],
      [
        "stico",
        -9.843564017436549
      ],
      [
        "mas",
        -9.844599231127706
      ],
      [
        "ĠCorte",
        -9.844973746830938
      ],
      [
        "zada",
        -9.8451653777897
      ],
      [
        "nessa",
        -9.84541602083579
      ],
      [
        "ĠPDT",
        -9.845480906754076
      ],
      [
        "Campeonato",
        -9.845711890279368
      ],
      [
        "Ġ33",
        -9.8464607340884
      ],
      [
        "ĠExcele",
        -9.84728464314929
      ],
      [
        "â",
        -9.847569025991591
      ],
      [
        "podemos",
        -9.84822224761483
      ],
      [
        "CN",
        -9.84891942158456
      ],
      [
        "Ġfinanceira",
        -9.849035651220476
      ],
      [
        "Ġficou",
        -9.84997325532725
      ],
      [
        "ĠREQUERIMENTO",
        -9.850555899087029
      ],
      [
        "Ġpropo",
        -9.85072029382284
      ],
      [
        "prevista",
        -9.850732106131678
      ],
      [
        "Ġterrito",
        -9.851842956510776
      ],
      [
        "sim",
        -9.853168078437047
      ],
      [
        "sejam",
        -9.853237157834648
      ],
      [
        "Ġcarreira",
        -9.855160992465962
      ],
      [
        "dispo",
        -9.85520217105694
      ],
      [
        "ĠObrigado",
        -9.855211044255649
      ],
      [
        "Ġsucesso",
        -9.85579778117631
      ],
      [
        "ĠTV",
        -9.858013594647106
      ],
      [
        "ĠRosa",
        -9.858144860467936
      ],
      [
        "sico",
        -9.860011112660445
      ],
      [
        "ĠAte",
        -9.86021289485467
      ],
      [
        "Ġexpressa",
        -9.86036922042897
      ],
      [
        "Ġtemporada",
        -9.862913216961694
      ],
      [
        "mbito",
        -9.863513530251014
      ],
      [
        "Ġalgue",
        -9.86353250780068
      ],
      [
        "ĠInstituto",
        -9.863825136708249
      ],
      [
        "entes",
        -9.8643574209049
      ],
      [
        "discurso",
        -9.86673987084563
      ],
      [
        "Ġbilho",
        -9.867419028137208
      ],
      [
        "Ġaquele",
        -9.868793638480598
      ],
      [
        "Ġquer",
        -9.868870309263713
      ],
      [
        "Ġanterior",
        -9.86930459150799
      ],
      [
        "Presidente",
        -9.869594488386149
      ],
      [
        "ĠCosta",
        -9.870229655873477
      ],
      [
        "Ġtornou",
        -9.871847613194182
      ],
      [
        "idades",
        -9.872675083130394
      ],
      [
        "Ġvigor",
        -9.87304158905968
      ],
      [
        "Ġ2001",
        -9.874691574808509
      ],
      [
        "Ġproposic",
        -9.875260794553313
      ],
      [
        "pol",
        -9.875716153862816
      ],
      [
        "Ġmandato",
        -9.875782186538489
      ],
      [
        "Ġclube",
        -9.8758622168154
      ],
      [
        "Geral",
        -9.875951101043672
      ],
      [
        "ĠCunha",
        -9.876289413725344
      ],
      [
        "Ġpauta",
        -9.876923215510484
      ],
      [
        "Ġcampanha",
        -9.877300449027135
      ],
      [
        "Ġprojetos",
        -9.87732397567095
      ],
      [
        "95",
        -9.878441932315363
      ],
      [
        "ĠGi",
        -9.878875634827418
      ],
      [
        "ĠRequerimento",
        -9.879236356339698
      ],
      [
        "ĠTambe",
        -9.881423220768031
      ],
      [
        "Ġfederal",
        -9.88187582083216
      ],
      [
        "Ġteria",
        -9.881916251002105
      ],
      [
        "Ġcerteza",
        -9.882241410181216
      ],
      [
        "Ġtransporte",
        -9.884502045561256
      ],
      [
        "serem",
        -9.884917867528404
      ],
      [
        "ĠNA",
        -9.884966169027926
      ],
      [
        "sticas",
        -9.8855328240144
      ],
      [
        "Ġvalores",
        -9.885575346974791
      ],
      [
        "..............",
        -9.88651115488348
      ],
      [
        "Ġalterac",
        -9.886549705351346
      ],
      [
        "Ġtitular",
        -9.886704082813257
      ],
      [
        "Depois",
        -9.886992216750016
      ],
      [
        "Ġexame",
        -9.887439723654744
      ],
      [
        "DEM",
        -9.889318371492378
      ],
      [
        "possibilidade",
        -9.889716310651968
      ],
      [
        "lida",
        -9.890819584121749
      ],
      [
        "cnico",
        -9.890831825910244
      ],
      [
        "Ġcentro",
        -9.891197207285296
      ],
      [
        "Ġ60",
        -9.891948893014929
      ],
      [
        "ĠGuerra",
        -9.892516446834248
      ],
      [
        "Ġprofissional",
        -9.892689205466857
      ],
      [
        "2005",
        -9.892878380594636
      ],
      [
        "Ġbo",
        -9.894611215758408
      ],
      [
        "Ġresultado",
        -9.894790076804636
      ],
      [
        "Ġfra",
        -9.894896824010722
      ],
      [
        "Ġrealizado",
        -9.895888734399836
      ],
      [
        "Ġsede",
        -9.89741330443634
      ],
      [
        "Ġhaver",
        -9.898949778313884
      ],
      [
        "ĠCopa",
        -9.899319458899772
      ],
      [
        "MENTO",
        -9.899381296321415
      ],
      [
        "Ġprincipais",
        -9.899414511100346
      ],
      [
        "á",
        -9.899997018480704
      ],
      [
        "Ġacha",
        -9.900145820791886
      ],
      [
        "Ġnobre",
        -9.900334319068884
      ],
      [
        "dios",
        -9.900566614247062
      ],
      [
        "ĠBel",
        -9.900651759861567
      ],
      [
        "apreciac",
        -9.90100301194648
      ],
      [
        "LTIMA",
        -9.901629317818434
      ],
      [
        "gal",
        -9.902301382301948
      ],
      [
        "Ġatenc",
        -9.902696384978658
      ],
      [
        "ĠPortant",
        -9.90344821729024
      ],
      [
        "ĠSecretaria",
        -9.903452216547931
      ],
      [
        "Ġplena",
        -9.903466155310108
      ],
      [
        "Ġcaminho",
        -9.908340752021962
      ],
      [
        "Ġclaro",
        -9.908485918772996
      ],
      [
        "tando",
        -9.908922244031931
      ],
      [
        "Ġdenu",
        -9.908987915819532
      ],
      [
        "Ġrenda",
        -9.90899913194824
      ],
      [
        "ley",
        -9.909264927337922
      ],
      [
        "ĠEspecial",
        -9.909347793181238
      ],
      [
        "Ġsul",
        -9.909617474192933
      ],
      [
        "GO",
        -9.91114476595122
      ],
      [
        "Ġalta",
        -9.912596135621582
      ],
      [
        "Ġideia",
        -9.914212726781836
      ],
      [
        "Ġautos",
        -9.915162026281248
      ],
      [
        "Ġpontos",
        -9.916643422524784
      ],
      [
        "Ġconsiderado",
        -9.916839545762846
      ],
      [
        "24",
        -9.917201290597102
      ],
      [
        "Ġcrise",
        -9.91744177521435
      ],
      [
        "trica",
        -9.918195096814737
      ],
      [
        "Ġ2018",
        -9.91821421375754
      ],
      [
        "lan",
        -9.918542366430028
      ],
      [
        "21",
        -9.91869598839658
      ],
      [
        "Ġnatureza",
        -9.919426845191582
      ],
      [
        "Ġestu",
        -9.922596538269444
      ],
      [
        "ĠEles",
        -9.92289116005708
      ],
      [
        "Ġconte",
        -9.923115036935146
      ],
      [
        "Ġformac",
        -9.9239294861078
      ],
      [
        "Ġturno",
        -9.924476235942407
      ],
      [
        "sito",
        -9.925473876048429
      ],
      [
        "2019",
        -9.925875512385376
      ],
      [
        "Ġrede",
        -9.928232580459651
      ],
      [
        "Ġhipo",
        -9.928630144496449
      ],
      [
        "ĠDireito",
        -9.929998211815189
      ],
      [
        "80",
        -9.93011999740524
      ],
      [
        "Ġ35",
        -9.930582122121592
      ],
      [
        "Ġlivre",
        -9.930835523319416
      ],
      [
        "Ġ1998",
        -9.93280979762852
      ],
      [
        "Ġporta",
        -9.933945433602084
      ],
      [
        "MI",
        -9.93530014376342
      ],
      [
        "Ġcontribuic",
        -9.935828950589872
      ],
      [
        "ĠSistema",
        -9.93593494665592
      ],
      [
        "provimento",
        -9.936101375209187
      ],
      [
        "Ordem",
        -9.938149852418038
      ],
      [
        "ĠRicardo",
        -9.938385878052276
      ],
      [
        "iano",
        -9.938420912868972
      ],
      [
        "ĠQuero",
        -9.938566123127
      ],
      [
        "ĠRel",
        -9.938817870031034
      ],
      [
        "chegou",
        -9.940407349094084
      ],
      [
        "ĠHenrique",
        -9.940904071129706
      ],
      [
        "amente",
        -9.941036417602144
      ],
      [
        "ĠQuem",
        -9.941085846207136
      ],
      [
        "ment",
        -9.941151161562598
      ],
      [
        "ĠAL",
        -9.942113916976842
      ],
      [
        "ĠAndre",
        -9.942741629823765
      ],
      [
        "ĠAGRAV",
        -9.94489490033401
      ],
      [
        "Ġconstante",
        -9.94492117638024
      ],
      [
        "Ġfase",
        -9.945240003445615
      ],
      [
        "FI",
        -9.945574159104051
      ],
      [
        "60",
        -9.945714535429111
      ],
      [
        "ĠAlves",
        -9.94622742324966
      ],
      [
        "Ġlogo",
        -9.946289344079554
      ],
      [
        "Ġdiferentes",
        -9.94691348245357
      ],
      [
        "Ġautoria",
        -9.947565551281436
      ],
      [
        "Ġcriar",
        -9.947766875604628
      ],
      [
        "ĠOh",
        -9.949166675698494
      ],
      [
        "reunia",
        -9.949280544707728
      ],
      [
        "Ġcaput",
        -9.949910728593048
      ],
      [
        "Ġpartida",
        -9.949995863799462
      ],
      [
        "ĠSanto",
        -9.950525982419435
      ],
      [
        "49",
        -9.95099924933884
      ],
      [
        "Ġcaracteri",
        -9.952276232009725
      ],
      [
        "ĠMINISTR",
        -9.953036318507165
      ],
      [
        "Ġguerra",
        -9.953338178481168
      ],
      [
        "cias",
        -9.953780426572482
      ],
      [
        "Ġtaxa",
        -9.954317560369336
      ],
      [
        "logo",
        -9.95474652933354
      ],
      [
        "Ġafirma",
        -9.956683336358882
      ],
      [
        "ĠPereira",
        -9.95686974889401
      ],
      [
        "gado",
        -9.956891532447589
      ],
      [
        "Ġcategoria",
        -9.95792759208677
      ],
      [
        "ĠHu",
        -9.959436315839175
      ],
      [
        "Ġvir",
        -9.960125280030638
      ],
      [
        "ĠSantos",
        -9.96053126908935
      ],
      [
        "log",
        -9.960627057122297
      ],
      [
        "2017",
        -9.962021388132117
      ],
      [
        "Ġgesta",
        -9.96245031700032
      ],
      [
        "Ġseis",
        -9.962618293940526
      ],
      [
        "ĠME",
        -9.963525954078744
      ],
      [
        "Ġcidada",
        -9.963653637492774
      ],
      [
        "ilha",
        -9.963830301756254
      ],
      [
        "nada",
        -9.964968947530702
      ],
      [
        "Ġversa",
        -9.96597675679013
      ],
      [
        "pin",
        -9.966137470535836
      ],
      [
        "Ġmenor",
        -9.966144917906773
      ],
      [
        "Ġpequeno",
        -9.966807896113314
      ],
      [
        "Ġvisita",
        -9.967791989874874
      ],
      [
        "Ġpenal",
        -9.968091028738542
      ],
      [
        "Cidadania",
        -9.96966168699194
      ],
      [
        "ĠMIN",
        -9.969779253767229
      ],
      [
        "ĠBen",
        -9.96995718613232
      ],
      [
        "Ġqueria",
        -9.970210340561
      ],
      [
        "tem",
        -9.97050924683524
      ],
      [
        "ĠLocal",
        -9.971816316783372
      ],
      [
        "CURSO",
        -9.971904667482509
      ],
      [
        "lic",
        -9.972769177363176
      ],
      [
        "ologia",
        -9.973010343266342
      ],
      [
        "ĠMais",
        -9.973203431467567
      ],
      [
        "ĠSTF",
        -9.974244157269052
      ],
      [
        "cujo",
        -9.975489688609416
      ],
      [
        "ã",
        -9.975749608852835
      ],
      [
        "Ġtorna",
        -9.975815706812066
      ],
      [
        "Ġinternacional",
        -9.976689386461237
      ],
      [
        "tido",
        -9.978386824427291
      ],
      [
        "Ġfl",
        -9.978483584718273
      ],
      [
        "Ġusua",
        -9.978862041869476
      ],
      [
        "ĠDias",
        -9.980803444540223
      ],
      [
        "IN",
        -9.981113538704792
      ],
      [
        "ĠFor",
        -9.981160300618432
      ],
      [
        "ĠEra",
        -9.98122309332912
      ],
      [
        "Ġplano",
        -9.982020397856202
      ],
      [
        "39",
        -9.982479988834935
      ],
      [
        "acima",
        -9.983234049568996
      ],
      [
        "ĠPorto",
        -9.983665812734206
      ],
      [
        "trabalhadores",
        -9.984742223967602
      ],
      [
        "reta",
        -9.986456559852687
      ],
      [
        "ĠUn",
        -9.988090133358371
      ],
      [
        "Ġdestaque",
        -9.988114583907503
      ],
      [
        "Ġcrite",
        -9.989471144008542
      ],
      [
        "Medida",
        -9.990133287420903
      ],
      [
        "ĠSou",
        -9.9901553638654
      ],
      [
        "PA",
        -9.990273280394897
      ],
      [
        "Ġconstitui",
        -9.990751488026756
      ],
      [
        "Ġfundo",
        -9.991051625959924
      ],
      [
        "Ġviole",
        -9.991167631868818
      ],
      [
        "Ġrel",
        -9.992012886433182
      ],
      [
        "MS",
        -9.99214818774607
      ],
      [
        "ĠDilma",
        -9.99334812005848
      ],
      [
        "mediante",
        -9.993712075796031
      ],
      [
        "Ġprotec",
        -9.995196562772035
      ],
      [
        "ĠPSD",
        -9.996012575395588
      ],
      [
        "cuja",
        -9.99650277232152
      ],
      [
        "realmente",
        -9.998520341382669
      ],
      [
        "ĠFl",
        -9.998593017589448
      ],
      [
        "enti",
        -9.999242946153236
      ],
      [
        "pensado",
        -10.000583768360242
      ],
      [
        "ting",
        -10.000603615288384
      ],
      [
        "Ġapresenta",
        -10.001079388772736
      ],
      [
        "ĠBanco",
        -10.00194572162543
      ],
      [
        "Of",
        -10.002369675104363
      ],
      [
        "Ġvisa",
        -10.003343754919868
      ],
      [
        "Ġatendimento",
        -10.003626888570375
      ],
      [
        "ĠVou",
        -10.003787817837829
      ],
      [
        "Ġexige",
        -10.004873881957089
      ],
      [
        "Ġsignifica",
        -10.005048830909262
      ],
      [
        "Ġpassar",
        -10.005506302049785
      ],
      [
        "Ġcla",
        -10.00564662279576
      ],
      [
        "ĠGre",
        -10.00633376954859
      ],
      [
        "ĠMato",
        -10.008607125569108
      ],
      [
        "Ġpri",
        -10.009765348517256
      ],
      [
        "Ġcultura",
        -10.010203780570858
      ],
      [
        "Ġdesses",
        -10.01041976276538
      ],
      [
        "Ġindu",
        -10.01179744417042
      ],
      [
        "ĠNesse",
        -10.012830032097163
      ],
      [
        "gem",
        -10.014063509408142
      ],
      [
        "category",
        -10.01588624228163
      ],
      [
        "ME",
        -10.016621787191072
      ],
      [
        "recebeu",
        -10.017658807951822
      ],
      [
        "ĠBrasileira",
        -10.018898916466664
      ],
      [
        "Ġvotar",
        -10.020823200731078
      ],
      [
        "Ġresposta",
        -10.021217772950797
      ],
      [
        "van",
        -10.021734091709522
      ],
      [
        "ĠProviso",
        -10.021920203813403
      ],
      [
        "Ġrazo",
        -10.022164729180368
      ],
      [
        "tados",
        -10.022328784544124
      ],
      [
        "NC",
        -10.022404695547303
      ],
      [
        "ĠSeu",
        -10.02290794693426
      ],
      [
        "PP",
        -10.023847186555368
      ],
      [
        "nero",
        -10.024357393862214
      ],
      [
        "ĠMeu",
        -10.02495421788158
      ],
      [
        "Ġnovos",
        -10.025644327696044
      ],
      [
        "ĠMarcelo",
        -10.026051953017252
      ],
      [
        "Ġescrito",
        -10.026406204840052
      ],
      [
        "ĠFundo",
        -10.027348736180716
      ],
      [
        "Ġvia",
        -10.028225582612396
      ],
      [
        "70",
        -10.028228074502117
      ],
      [
        "Gerais",
        -10.028487734754249
      ],
      [
        "Ġeleito",
        -10.02978038515331
      ],
      [
        "Durante",
        -10.030022071047824
      ],
      [
        "tese",
        -10.030292129796804
      ],
      [
        "Ġmarca",
        -10.030362377828393
      ],
      [
        "Ġrecebe",
        -10.030591769585763
      ],
      [
        "Ġcapacidade",
        -10.0312754460516
      ],
      [
        "2006",
        -10.03178893771662
      ],
      [
        "ĠEntre",
        -10.033026324441227
      ],
      [
        "Ġautoridade",
        -10.033419112797644
      ],
      [
        "ĠVale",
        -10.033732610692766
      ],
      [
        "Ġliberdade",
        -10.03382679412856
      ],
      [
        "Ġdeclarac",
        -10.03392644878899
      ],
      [
        "Ġreceber",
        -10.036047341744077
      ],
      [
        "PAULO",
        -10.036861696374242
      ],
      [
        "ĠEl",
        -10.03687791577426
      ],
      [
        "Ġcomunita",
        -10.038552788640544
      ],
      [
        "Ġdifi",
        -10.038914608711693
      ],
      [
        "ĠBA",
        -10.039215120407118
      ],
      [
        "Ġcriado",
        -10.03942857115284
      ],
      [
        "ĠBahia",
        -10.040530512246695
      ],
      [
        "ĠComiss",
        -10.040591816919225
      ],
      [
        "RS",
        -10.041033639098268
      ],
      [
        "lei",
        -10.041180798050744
      ],
      [
        "Ġmanter",
        -10.042580303951974
      ],
      [
        "Ġautoriza",
        -10.043650679367948
      ],
      [
        "Ġtera",
        -10.043684733844112
      ],
      [
        "Ġatra",
        -10.043735017743792
      ],
      [
        "ĠLima",
        -10.04452010025093
      ],
      [
        "gan",
        -10.044605775233247
      ],
      [
        "Ġexecutar",
        -10.04506026543157
      ],
      [
        "Ġreduc",
        -10.045130502390586
      ],
      [
        "Ġbi",
        -10.045811177644673
      ],
      [
        "ĠJorge",
        -10.046093092523664
      ],
      [
        "esta",
        -10.046238470221962
      ],
      [
        "Ĥ",
        -10.047564470109675
      ],
      [
        "Ġnoti",
        -10.04774983443466
      ],
      [
        "ĠAdministrac",
        -10.047759813633396
      ],
      [
        "Ġterceiro",
        -10.048227338326514
      ],
      [
        "shi",
        -10.048417025979807
      ],
      [
        "Ġdiversos",
        -10.049147357032636
      ],
      [
        "Ġtrabalhos",
        -10.049538473797078
      ],
      [
        "Ġoriginal",
        -10.050055640324976
      ],
      [
        "tual",
        -10.05023161028014
      ],
      [
        "Ġdiretor",
        -10.050405985099166
      ],
      [
        "servidores",
        -10.050425882201496
      ],
      [
        "pido",
        -10.050478633587712
      ],
      [
        "Ġhomens",
        -10.05136062689154
      ],
      [
        "ĠSENHOR",
        -10.051962529951624
      ],
      [
        "Ġapresentado",
        -10.052214045930716
      ],
      [
        "Ġmaterial",
        -10.05279758250828
      ],
      [
        "Ġconstrui",
        -10.053008525330934
      ],
      [
        "Ġchamada",
        -10.05301098816748
      ],
      [
        "Ġincluindo",
        -10.053226280698691
      ],
      [
        "Ġambiente",
        -10.053342944185774
      ],
      [
        "Ġdela",
        -10.053791375277031
      ],
      [
        "ĠMundial",
        -10.054372513951716
      ],
      [
        "mentos",
        -10.05457661704646
      ],
      [
        "SC",
        -10.055046386827888
      ],
      [
        "Ġmostra",
        -10.05509967079596
      ],
      [
        "ĠRIC",
        -10.056178215277871
      ],
      [
        "doenc",
        -10.056428007385795
      ],
      [
        "Ġusar",
        -10.05690311680084
      ],
      [
        "Ġhomenage",
        -10.05772741633642
      ],
      [
        "Ġisto",
        -10.0581815355363
      ],
      [
        "Ġsol",
        -10.058803863546272
      ],
      [
        "Ġamor",
        -10.059480522207831
      ],
      [
        "Ġestudo",
        -10.059525161284387
      ],
      [
        "ĠPri",
        -10.059829410189554
      ],
      [
        "Ġleva",
        -10.060748890785376
      ],
      [
        "ÌĤ-",
        -10.061444575902788
      ],
      [
        "Ġartigos",
        -10.06168966729128
      ],
      [
        "maiores",
        -10.061896689737353
      ],
      [
        "the",
        -10.062388857513069
      ],
      [
        "Ġemprego",
        -10.062641220122991
      ],
      [
        "Ġproviso",
        -10.06305206233944
      ],
      [
        "ĠZe",
        -10.063260922481549
      ],
      [
        "CIA",
        -10.063672284380011
      ],
      [
        "ĠCE",
        -10.06508305907406
      ],
      [
        "ĠAta",
        -10.065603285658426
      ],
      [
        "Ġgene",
        -10.06616622562049
      ],
      [
        "nior",
        -10.066228607073448
      ],
      [
        "Ġ1997",
        -10.066348573065657
      ],
      [
        "ĠCla",
        -10.066359936187569
      ],
      [
        "Ainda",
        -10.066523939077998
      ],
      [
        "Ġcena",
        -10.067008018635914
      ],
      [
        "Ġprofissionais",
        -10.067174031432822
      ],
      [
        "ĠInternacional",
        -10.06733112286944
      ],
      [
        "Ġcivil",
        -10.06833508286887
      ],
      [
        "ĠâĢĺ",
        -10.069549236596256
      ],
      [
        "Ġdiversas",
        -10.069795081099372
      ],
      [
        "rcito",
        -10.070174706562495
      ],
      [
        "ĠMendes",
        -10.070640743272303
      ],
      [
        "tratamento",
        -10.070760632910549
      ],
      [
        "qu",
        -10.072993199294292
      ],
      [
        "dura",
        -10.073383452264784
      ],
      [
        "Ġgarantia",
        -10.073387634405575
      ],
      [
        "Ġamigo",
        -10.074234032437069
      ],
      [
        "ĠTudo",
        -10.07431586034124
      ],
      [
        "Ġsoluc",
        -10.07474480923183
      ],
      [
        "Ģ",
        -10.076667071023826
      ],
      [
        "Ġrepresenta",
        -10.078534333423717
      ],
      [
        "Ġcan",
        -10.078702184935166
      ],
      [
        "Ġinstrumento",
        -10.079746963882592
      ],
      [
        "ltimos",
        -10.08004930605335
      ],
      [
        "imo",
        -10.0803449043781
      ],
      [
        "gostaria",
        -10.08171100985832
      ],
      [
        "Ġapresentar",
        -10.082819168628877
      ],
      [
        "Ġdeles",
        -10.084445229298169
      ],
      [
        "Ġfins",
        -10.08469866871052
      ],
      [
        "ssimo",
        -10.085469886417629
      ],
      [
        "Ġsolicita",
        -10.085634059865662
      ],
      [
        "Ġnorma",
        -10.08696397867821
      ],
      [
        "metros",
        -10.087764592218411
      ],
      [
        "PCdoB",
        -10.088067706729072
      ],
      [
        "ĠRos",
        -10.08902615630014
      ],
      [
        "Ġfundamental",
        -10.089163717523428
      ],
      [
        "Ġcumprimento",
        -10.089180559988227
      ],
      [
        "ĠADV",
        -10.09121967730037
      ],
      [
        "ĠParana",
        -10.091589663087229
      ],
      [
        "ĠGovernador",
        -10.092344995027126
      ],
      [
        "ĠVoss",
        -10.092359433584477
      ],
      [
        "Ġfuturo",
        -10.092901863356854
      ],
      [
        "ĠAb",
        -10.093226700393998
      ],
      [
        "ĠMari",
        -10.09443528041092
      ],
      [
        "anta",
        -10.0946837768396
      ],
      [
        "ĠOfi",
        -10.0953865016251
      ],
      [
        "cado",
        -10.096104914853733
      ],
      [
        "Ġesti",
        -10.0965116987223
      ],
      [
        "ong",
        -10.0976389601405
      ],
      [
        "ĠSesso",
        -10.097769180414003
      ],
      [
        "Ġevento",
        -10.098376508394027
      ],
      [
        "ĠHer",
        -10.098743685529865
      ],
      [
        "by",
        -10.100265860549174
      ],
      [
        "ĠAqui",
        -10.100662838292124
      ],
      [
        "Ġmuita",
        -10.101475029441405
      ],
      [
        "pronunciamento",
        -10.10173797257917
      ],
      [
        "ĠSol",
        -10.102437694991416
      ],
      [
        "ĠInforma",
        -10.103665399632662
      ],
      [
        "Ġgrave",
        -10.104483214644851
      ],
      [
        "rum",
        -10.104574495529812
      ],
      [
        "tic",
        -10.104634261866684
      ],
      [
        "Ġaudie",
        -10.10493761631627
      ],
      [
        "Ġju",
        -10.106125620656336
      ],
      [
        "Ġalto",
        -10.106428286576786
      ],
      [
        "Ġmilitar",
        -10.108651157059391
      ],
      [
        "Ġnatural",
        -10.108949830534248
      ],
      [
        "ĠAcho",
        -10.10977225289242
      ],
      [
        "Ġcompra",
        -10.109845199045168
      ],
      [
        "Ġcabe",
        -10.110031777684233
      ],
      [
        "Ġadministrac",
        -10.112039492263532
      ],
      [
        "Ġide",
        -10.112558697100578
      ],
      [
        "REG",
        -10.113961567528044
      ],
      [
        "Ġ37",
        -10.11404374628978
      ],
      [
        "ĠRoma",
        -10.114099302270766
      ],
      [
        "Ġnovas",
        -10.114215015919678
      ],
      [
        "Ġdisponi",
        -10.114587395843287
      ],
      [
        "ĠSuperior",
        -10.11475629613838
      ],
      [
        "Ġjornal",
        -10.114818648203048
      ],
      [
        "ili",
        -10.114981295798598
      ],
      [
        "voca",
        -10.115298804570124
      ],
      [
        "ĠPEC",
        -10.11573423892026
      ],
      [
        "Ġinstitui",
        -10.115740481264703
      ],
      [
        "Ġcrescimento",
        -10.116810355294064
      ],
      [
        "ĠRJ",
        -10.119022760539576
      ],
      [
        "Ġextra",
        -10.119152393543326
      ],
      [
        "ĠEcono",
        -10.119322508865164
      ],
      [
        "nima",
        -10.120308273512617
      ],
      [
        "Ġajudar",
        -10.120588526050811
      ],
      [
        "ĠCentro",
        -10.120795139151696
      ],
      [
        "Ġnenhuma",
        -10.122528793414665
      ],
      [
        "Ġ70",
        -10.123465232235771
      ],
      [
        "Ġfavora",
        -10.123701009288204
      ],
      [
        "Ġapresentac",
        -10.124577202287798
      ],
      [
        "Ġningue",
        -10.12511507302206
      ],
      [
        "Ġsonora",
        -10.125318097019314
      ],
      [
        "ĠWikipe",
        -10.12534471869632
      ],
      [
        "RG",
        -10.12534760366388
      ],
      [
        "entidades",
        -10.125530048985627
      ],
      [
        "ĠSub",
        -10.125801853948246
      ],
      [
        "Ġcontar",
        -10.126222807903869
      ],
      [
        "EXTRAORDINA",
        -10.126534904277626
      ],
      [
        "antes",
        -10.127473081526311
      ],
      [
        "substituic",
        -10.127827178366683
      ],
      [
        "mont",
        -10.127908129724352
      ],
      [
        "Ġsimples",
        -10.12821301227486
      ],
      [
        "normas",
        -10.129181609805324
      ],
      [
        "ĠVoto",
        -10.129870252937764
      ],
      [
        "RJ",
        -10.130202073721852
      ],
      [
        "Ġvito",
        -10.130687692633044
      ],
      [
        "ĠPmdbP",
        -10.13105697251117
      ],
      [
        "zer",
        -10.132341494065445
      ],
      [
        "tecnologia",
        -10.132529280712385
      ],
      [
        "Ġautorizac",
        -10.132655797011994
      ],
      [
        "Ġimposto",
        -10.132683888337354
      ],
      [
        "devem",
        -10.133387110582609
      ],
      [
        "ĠNu",
        -10.134058681857242
      ],
      [
        "Ġtributa",
        -10.13498165219813
      ],
      [
        "ĠCan",
        -10.13507944157722
      ],
      [
        "Ġ1999",
        -10.13627892067854
      ],
      [
        "Ltd",
        -10.136422869267191
      ],
      [
        "Ġmeta",
        -10.136545038793138
      ],
      [
        "Ġcompro",
        -10.137934505278086
      ],
      [
        "ĠBR",
        -10.138098048148688
      ],
      [
        "Lei",
        -10.13825184991574
      ],
      [
        "dando",
        -10.1383061782684
      ],
      [
        "2003",
        -10.138306763013958
      ],
      [
        "ĠCampos",
        -10.141262564937108
      ],
      [
        "Ġesca",
        -10.143451548798328
      ],
      [
        "Ġmotivo",
        -10.143898138890052
      ],
      [
        "ĠPI",
        -10.145051886119973
      ],
      [
        "lla",
        -10.145632065084772
      ],
      [
        "Ġprestac",
        -10.145669483193789
      ],
      [
        "ĠFA",
        -10.14632142923204
      ],
      [
        "Hoje",
        -10.146603127295418
      ],
      [
        "ĠTodos",
        -10.14671238094708
      ],
      [
        "Ġvisto",
        -10.147239494367051
      ],
      [
        "Ġdespes",
        -10.147291714702645
      ],
      [
        "Ġcombate",
        -10.14745113784081
      ],
      [
        "produtos",
        -10.147947409522034
      ],
      [
        "Ġfilhos",
        -10.149487339815863
      ],
      [
        "Anexo",
        -10.149844323997309
      ],
      [
        "ĠIgreja",
        -10.150618024958424
      ],
      [
        "Ñ",
        -10.15075701383645
      ],
      [
        "line",
        -10.151169242238767
      ],
      [
        "Ġmedi",
        -10.15212312999948
      ],
      [
        "Ġreceita",
        -10.15282654303901
      ],
      [
        "ĠDes",
        -10.154037963214266
      ],
      [
        "tores",
        -10.154390007894452
      ],
      [
        "IA",
        -10.154863310835356
      ],
      [
        "Ġaplica",
        -10.15621028763053
      ],
      [
        "bas",
        -10.156475284522672
      ],
      [
        "Ġdiante",
        -10.156548682070335
      ],
      [
        "Ġdiferenc",
        -10.156742722632544
      ],
      [
        "ssem",
        -10.157553406964794
      ],
      [
        "Ġacaba",
        -10.157660349205315
      ],
      [
        "ĠTri",
        -10.158020892345888
      ],
      [
        "designado",
        -10.158026866659348
      ],
      [
        "ĠTu",
        -10.158168895618063
      ],
      [
        "Ġespecialmente",
        -10.158901131978167
      ],
      [
        "pur",
        -10.159978169267118
      ],
      [
        "Ġlevar",
        -10.160033681539328
      ],
      [
        "Ġaquela",
        -10.16035550934502
      ],
      [
        "Ġtermo",
        -10.160949737922737
      ],
      [
        "Ġestavam",
        -10.161753822158628
      ],
      [
        "PFL",
        -10.161767386393665
      ],
      [
        "ĠParlamentar",
        -10.163568201691062
      ],
      [
        "Ġconhecida",
        -10.164664556242812
      ],
      [
        "ĠCultura",
        -10.164812578761824
      ],
      [
        "juridicidade",
        -10.165209119020668
      ],
      [
        "Ġgarantir",
        -10.166558152635876
      ],
      [
        "ble",
        -10.166820575707185
      ],
      [
        "Ġcurso",
        -10.167302308218154
      ],
      [
        "Ġfutebol",
        -10.167732900244877
      ],
      [
        "ĠTerra",
        -10.167938191873262
      ],
      [
        "ĠFEDERAL",
        -10.168308158200414
      ],
      [
        "Ġdispositivo",
        -10.168466073486334
      ],
      [
        "Tenho",
        -10.169019310090263
      ],
      [
        "cido",
        -10.170420173408212
      ],
      [
        "RES",
        -10.170608780112014
      ],
      [
        "ĠTemer",
        -10.170931017228115
      ],
      [
        "ĠCON",
        -10.171348467969946
      ],
      [
        "Ġcabec",
        -10.171363112813582
      ],
      [
        "atuac",
        -10.17174536165392
      ],
      [
        "lares",
        -10.17316206221522
      ],
      [
        "oli",
        -10.173171025668104
      ],
      [
        "URMA",
        -10.17373436238926
      ],
      [
        "Ġespi",
        -10.174197289514304
      ],
      [
        "Ġcam",
        -10.177073953670668
      ],
      [
        "Ġrevista",
        -10.177627694999495
      ],
      [
        "Ġfilha",
        -10.177676392650609
      ],
      [
        "prisa",
        -10.177895028927388
      ],
      [
        "Ġbastante",
        -10.177989641885352
      ],
      [
        "ĠTre",
        -10.178866564643522
      ],
      [
        "ĠRibeiro",
        -10.179395756387768
      ],
      [
        "CH",
        -10.180218560094463
      ],
      [
        "emos",
        -10.18025632731016
      ],
      [
        "Ġvoltar",
        -10.180622031874345
      ],
      [
        "IDADE",
        -10.180845501978542
      ],
      [
        "ĠMarc",
        -10.181125879217436
      ],
      [
        "Ġaprovada",
        -10.182418459298209
      ],
      [
        "cimento",
        -10.182671712024035
      ],
      [
        "Ġcarta",
        -10.18271938938416
      ],
      [
        "Ġpublicado",
        -10.183524435764737
      ],
      [
        "ĠBom",
        -10.183528586013056
      ],
      [
        "Ġtrabalhar",
        -10.183685673208862
      ],
      [
        "Ġrealidade",
        -10.184660551096224
      ],
      [
        "ĠMac",
        -10.184868600689022
      ],
      [
        "Ġchega",
        -10.184926890790502
      ],
      [
        "Ġprogramas",
        -10.187194437389254
      ],
      [
        "ĠDep",
        -10.18723922528698
      ],
      [
        "Ġvale",
        -10.188132840314486
      ],
      [
        "Ġconteu",
        -10.18861370275438
      ],
      [
        "nsito",
        -10.189760008426644
      ],
      [
        "afirmou",
        -10.189839080706047
      ],
      [
        "instalac",
        -10.189861853913918
      ],
      [
        "âĢĲ",
        -10.1909686629236
      ],
      [
        "Ġvenda",
        -10.19099588161077
      ],
      [
        "Ġsair",
        -10.191393911141416
      ],
      [
        "Ġ53",
        -10.191729358210834
      ],
      [
        "Ġnovamente",
        -10.192700562845689
      ],
      [
        "Ġcienti",
        -10.192988606489092
      ],
      [
        "ficas",
        -10.195571161047296
      ],
      [
        "enda",
        -10.196016060790988
      ],
      [
        "Ġdisputa",
        -10.196726265618432
      ],
      [
        "leg",
        -10.19800940829267
      ],
      [
        "Ġmeus",
        -10.198080380437974
      ],
      [
        "jovens",
        -10.19808432579373
      ],
      [
        "Ġcomum",
        -10.19819536013326
      ],
      [
        "2004",
        -10.19863962519673
      ],
      [
        "Ġtais",
        -10.198726426652014
      ],
      [
        "bancada",
        -10.198799261499689
      ],
      [
        "Ġclasse",
        -10.19954433459484
      ],
      [
        "iana",
        -10.19995499377118
      ],
      [
        "han",
        -10.200133557832832
      ],
      [
        "PL",
        -10.200302855729309
      ],
      [
        "ĠSegunda",
        -10.2014987454802
      ],
      [
        "ĠKi",
        -10.201509329767578
      ],
      [
        "NT",
        -10.201537029095048
      ],
      [
        "ĠOrc",
        -10.201754516290595
      ],
      [
        "ĠJohn",
        -10.2026820807044
      ],
      [
        "ĠDiretor",
        -10.205979529219492
      ],
      [
        "ĠAprova",
        -10.20621828242137
      ],
      [
        "Ġfiscal",
        -10.207607566159483
      ],
      [
        "Ġinflue",
        -10.207933797296135
      ],
      [
        "Ġseguida",
        -10.2080146085607
      ],
      [
        "Ġimportantes",
        -10.208112939716758
      ],
      [
        "medidas",
        -10.209464396929372
      ],
      [
        "tenham",
        -10.20992649162592
      ],
      [
        "Ġepiso",
        -10.210205074475246
      ],
      [
        "Ġmissa",
        -10.210400911590463
      ],
      [
        "rgio",
        -10.210916837130702
      ],
      [
        "ker",
        -10.21097300519764
      ],
      [
        "ung",
        -10.21178830238335
      ],
      [
        "Ġquesto",
        -10.212332564610952
      ],
      [
        "Ġexe",
        -10.212395943917569
      ],
      [
        "part",
        -10.212846292746956
      ],
      [
        "Ġalema",
        -10.212935729150852
      ],
      [
        "ĠTom",
        -10.213400179422852
      ],
      [
        "Ġassiste",
        -10.213936368996547
      ],
      [
        "Ġpopular",
        -10.214717954031943
      ],
      [
        "ĠSI",
        -10.216418657812984
      ],
      [
        "ĠTrata",
        -10.21694583493647
      ],
      [
        "Ġempre",
        -10.216970690265171
      ],
      [
        "]",
        -10.219235666755104
      ],
      [
        "Ġpropriedade",
        -10.219418489377146
      ],
      [
        "ĠKe",
        -10.219790412790916
      ],
      [
        "Ġconquista",
        -10.22057304194446
      ],
      [
        "ĠPRO",
        -10.22241540999886
      ],
      [
        "ĠReal",
        -10.222491829256926
      ],
      [
        "Ġelas",
        -10.223927442768666
      ],
      [
        "[",
        -10.224525565706262
      ],
      [
        "ĠAli",
        -10.224901661804076
      ],
      [
        "ĠComplementar",
        -10.22498419631819
      ],
      [
        "meros",
        -10.225125899300568
      ],
      [
        "Ġreco",
        -10.22554720587692
      ],
      [
        "tividade",
        -10.226605923706254
      ],
      [
        "Ġtom",
        -10.226715448101375
      ],
      [
        "Ġcontinua",
        -10.226883865806483
      ],
      [
        "espe",
        -10.227370843677084
      ],
      [
        "Ġ38",
        -10.22779745249892
      ],
      [
        "Ġportugue",
        -10.227993169887354
      ],
      [
        "Ġprejui",
        -10.228023520475164
      ],
      [
        "micos",
        -10.229710273745654
      ],
      [
        "ĠBer",
        -10.22971424962383
      ],
      [
        "Ġministro",
        -10.230317499134513
      ],
      [
        "Ġsuficiente",
        -10.230355233829474
      ],
      [
        "ĠEuropa",
        -10.230540720720631
      ],
      [
        "Ġrepresentante",
        -10.231940078793496
      ],
      [
        "aqueles",
        -10.231967238136749
      ],
      [
        "Ġquadro",
        -10.232598655001365
      ],
      [
        "AgR",
        -10.232672860137802
      ],
      [
        "Ġentrar",
        -10.233170548966974
      ],
      [
        "deixou",
        -10.233767926664274
      ],
      [
        "Ġcai",
        -10.233961040478976
      ],
      [
        "Ġencontrar",
        -10.234079792886403
      ],
      [
        "Ġobrigac",
        -10.234510919785144
      ],
      [
        "Ġantigo",
        -10.23466520297288
      ],
      [
        "Ġtri",
        -10.234748663453995
      ],
      [
        "Ġperda",
        -10.23485738801038
      ],
      [
        "ĠEscola",
        -10.235683824498016
      ],
      [
        "Ġcolocar",
        -10.235972164641408
      ],
      [
        "Ġ1996",
        -10.237177546661622
      ],
      [
        "entendimento",
        -10.237810907833564
      ],
      [
        "Ġliga",
        -10.237830688255666
      ],
      [
        "Ġestabelece",
        -10.238034056523636
      ],
      [
        "Ġconsegui",
        -10.239773991404537
      ],
      [
        "ndice",
        -10.239795255579416
      ],
      [
        "å",
        -10.239864343313972
      ],
      [
        "Ġcac",
        -10.239964780729178
      ],
      [
        "Ġfaixa",
        -10.23997484158392
      ],
      [
        "entidade",
        -10.240157132382906
      ],
      [
        "ĠChi",
        -10.242328275671216
      ],
      [
        "Ġsite",
        -10.245009989827151
      ],
      [
        "Prefeito",
        -10.245584626114114
      ],
      [
        "Ġ36",
        -10.245948872125757
      ],
      [
        "Substitutivo",
        -10.246224351880697
      ],
      [
        "entrada",
        -10.2466105485889
      ],
      [
        "dina",
        -10.24664702958369
      ],
      [
        "ĠAmazo",
        -10.246686400439362
      ],
      [
        "Ġexperie",
        -10.247948914650967
      ],
      [
        "ĠRelato",
        -10.247968811249477
      ],
      [
        "Ġcontinuar",
        -10.248249602916248
      ],
      [
        "ĠFla",
        -10.248817283674873
      ],
      [
        "Ġdisco",
        -10.249173253849458
      ],
      [
        "ĠPenal",
        -10.249211638529804
      ],
      [
        "Ġbaixa",
        -10.249387174969604
      ],
      [
        "Portaria",
        -10.250306861864502
      ],
      [
        "Ġ45",
        -10.253556059255333
      ],
      [
        "+",
        -10.253916992718953
      ],
      [
        "ney",
        -10.253996131637232
      ],
      [
        "previsto",
        -10.254397192345523
      ],
      [
        "Ġfonte",
        -10.25489940949537
      ],
      [
        "ĠJU",
        -10.256128028941816
      ],
      [
        "Ġoutorga",
        -10.256384240223886
      ],
      [
        "gac",
        -10.256511650720512
      ],
      [
        "zes",
        -10.257366300322246
      ],
      [
        "ĠDOS",
        -10.258074014757025
      ],
      [
        "Ġusado",
        -10.258319575667818
      ],
      [
        "conformidade",
        -10.258490629222385
      ],
      [
        "Ġbaixo",
        -10.25876306861492
      ],
      [
        "Ġ80",
        -10.258822312832514
      ],
      [
        "vidas",
        -10.259704651417124
      ],
      [
        "Ġdemanda",
        -10.260669309561136
      ],
      [
        "Ġaconteceu",
        -10.2609234120964
      ],
      [
        "sic",
        -10.261417929171664
      ],
      [
        "Ġdepende",
        -10.261871696483633
      ],
      [
        "locais",
        -10.26244031348687
      ],
      [
        "Ġapre",
        -10.262776791577446
      ],
      [
        "efeitos",
        -10.262784379445584
      ],
      [
        "Ġpermite",
        -10.263036526931629
      ],
      [
        "Ġdever",
        -10.265743810782451
      ],
      [
        "ĠVo",
        -10.266935829877388
      ],
      [
        "Ġopera",
        -10.267822236565944
      ],
      [
        "QUE",
        -10.268366412414784
      ],
      [
        "Ġtratar",
        -10.26868317373482
      ],
      [
        "cida",
        -10.269246475514738
      ],
      [
        "DEPUTADO",
        -10.27000601676528
      ],
      [
        "Ġacerca",
        -10.270063601820068
      ],
      [
        "pida",
        -10.270171600133423
      ],
      [
        "Ġpequena",
        -10.270387918352425
      ],
      [
        "Ġouvi",
        -10.2705469004386
      ],
      [
        "Ġmor",
        -10.27164801851216
      ],
      [
        "Ġigual",
        -10.271791346119276
      ],
      [
        "ĠPU",
        -10.271851636193444
      ],
      [
        "Ġpaciente",
        -10.272043868677422
      ],
      [
        "Ġsete",
        -10.272226829991784
      ],
      [
        "PSOL",
        -10.27307455995427
      ],
      [
        "ĠComunita",
        -10.273865809847692
      ],
      [
        "Ġtelevisa",
        -10.273963597554577
      ],
      [
        "talvez",
        -10.274404482425249
      ],
      [
        "lada",
        -10.27452835164488
      ],
      [
        "oeste",
        -10.275334854251884
      ],
      [
        "Ġcandidato",
        -10.2753859732204
      ],
      [
        "ĠFre",
        -10.275598978295523
      ],
      [
        "cita",
        -10.275963870192175
      ],
      [
        "Ġluz",
        -10.276076478893014
      ],
      [
        "Ġdessas",
        -10.2796934427784
      ],
      [
        "tulos",
        -10.279715215544616
      ],
      [
        "GL",
        -10.28182941536918
      ],
      [
        "destinada",
        -10.283565982157729
      ],
      [
        "Ġdada",
        -10.284898643268724
      ],
      [
        "PRB",
        -10.28501213477694
      ],
      [
        "age",
        -10.285928733692046
      ],
      [
        "Ġtornar",
        -10.28599404008486
      ],
      [
        "PtbP",
        -10.286189162254614
      ],
      [
        "Ġabertura",
        -10.286408570385348
      ],
      [
        "ĠPrimeiro",
        -10.286903945313949
      ],
      [
        "Ġordina",
        -10.28701972109087
      ],
      [
        "Ġsin",
        -10.28709394514796
      ],
      [
        "Ġesforc",
        -10.287417212789856
      ],
      [
        "Ġpla",
        -10.287617123664452
      ],
      [
        "ĠVal",
        -10.287944132887745
      ],
      [
        "manutenc",
        -10.288101353476089
      ],
      [
        "Ġ43",
        -10.289814190303323
      ],
      [
        "ngel",
        -10.289853256275489
      ],
      [
        "Ġparticipar",
        -10.290230958524017
      ],
      [
        "gerac",
        -10.290987020677685
      ],
      [
        "Ġantiga",
        -10.292016533575277
      ],
      [
        "ĠAcre",
        -10.293704668242013
      ],
      [
        "distribuic",
        -10.295124658398963
      ],
      [
        "Ĩ",
        -10.295486775792064
      ],
      [
        "Ġmulta",
        -10.296571888428614
      ],
      [
        "Ġhi",
        -10.297195424580302
      ],
      [
        "ĠPOR",
        -10.297279764534744
      ],
      [
        "Ġpreve",
        -10.29744118495433
      ],
      [
        "Ġbens",
        -10.2975526695981
      ],
      [
        "NAL",
        -10.29918702402551
      ],
      [
        "ĠSal",
        -10.299408027804626
      ],
      [
        "Ġdireta",
        -10.299470175983023
      ],
      [
        "press",
        -10.300301318478398
      ],
      [
        "Ġtime",
        -10.300520194249446
      ],
      [
        "ĠRO",
        -10.3020692022039
      ],
      [
        "Ġause",
        -10.302646870091598
      ],
      [
        "\",\"",
        -10.303466526886416
      ],
      [
        "seguintes",
        -10.30382549880482
      ],
      [
        "bin",
        -10.304143209545984
      ],
      [
        "bli",
        -10.304631455861491
      ],
      [
        "ĠTrans",
        -10.305255202946508
      ],
      [
        "Ġcorre",
        -10.305431858710508
      ],
      [
        "lizac",
        -10.306325032485546
      ],
      [
        "Ġinvestigac",
        -10.306346893208246
      ],
      [
        "Ġtomar",
        -10.30779066226038
      ],
      [
        "inclusa",
        -10.308017617960948
      ],
      [
        "Ġ44",
        -10.308703436803192
      ],
      [
        "Ġregra",
        -10.309399808589504
      ],
      [
        "NTE",
        -10.309861335716793
      ],
      [
        "Ġinsta",
        -10.31004334150954
      ],
      [
        "ĠProcesso",
        -10.31013292768802
      ],
      [
        "Ġpergunta",
        -10.310823626940316
      ],
      [
        "Ġarti",
        -10.311424727571486
      ],
      [
        "legais",
        -10.31187165360773
      ],
      [
        "Ġjogos",
        -10.31206054752946
      ],
      [
        "Ġaltera",
        -10.312508120705369
      ],
      [
        "Ġreserva",
        -10.312912800646682
      ],
      [
        "|",
        -10.312970510544565
      ],
      [
        "PSC",
        -10.31362791834452
      ],
      [
        "Ġdisposic",
        -10.31376625064968
      ],
      [
        "2018",
        -10.315278508868143
      ],
      [
        "mbi",
        -10.315319156467329
      ],
      [
        "ĠOli",
        -10.315450431004962
      ],
      [
        "Ġamigos",
        -10.315759295219014
      ],
      [
        "LIO",
        -10.316191907387044
      ],
      [
        "Ġrealizar",
        -10.316769636547614
      ],
      [
        "ĠCentral",
        -10.316886097088211
      ],
      [
        "apesar",
        -10.317292422808771
      ],
      [
        "Ġmac",
        -10.317603731194382
      ],
      [
        "Ġcolega",
        -10.317957064945285
      ],
      [
        "Ġpermitir",
        -10.318533053481213
      ],
      [
        "referido",
        -10.31887020405673
      ],
      [
        "ĠMon",
        -10.320127791259434
      ],
      [
        "sicas",
        -10.320650818761708
      ],
      [
        "Ġ34",
        -10.321155993743767
      ],
      [
        "Ġpasso",
        -10.321934458379774
      ],
      [
        "Ġtribuna",
        -10.322245613409263
      ],
      [
        "Ġcento",
        -10.322437053821409
      ],
      [
        "Ġdecreta",
        -10.322588411160677
      ],
      [
        "utilizac",
        -10.322699730289624
      ],
      [
        "ĠJOSE",
        -10.32296645194949
      ],
      [
        "ĠPROPOSI",
        -10.323763613296984
      ],
      [
        "nic",
        -10.324283462128337
      ],
      [
        "ĠQual",
        -10.324803034685983
      ],
      [
        "ĠPorque",
        -10.3249671578641
      ],
      [
        "Ġ55",
        -10.32686805053446
      ],
      [
        "ĠUS",
        -10.32766757219049
      ],
      [
        "Apoio",
        -10.327682481217838
      ],
      [
        "Ġdado",
        -10.327741720645877
      ],
      [
        "ĠPlano",
        -10.328517432333264
      ],
      [
        "ĠOla",
        -10.32863398980502
      ],
      [
        "Ġapro",
        -10.329067439928023
      ],
      [
        "Ġaprova",
        -10.329173867839636
      ],
      [
        "Ġdocumentos",
        -10.32994245638541
      ],
      [
        "ĠChe",
        -10.329982332529145
      ],
      [
        "Ġregio",
        -10.330346675180763
      ],
      [
        "ĠSouza",
        -10.330401113202306
      ],
      [
        "Ġlegi",
        -10.330704290746674
      ],
      [
        "ias",
        -10.330905318706902
      ],
      [
        "ĠMal",
        -10.331439927102084
      ],
      [
        "ĠCelso",
        -10.331910125516655
      ],
      [
        "ham",
        -10.332117032955294
      ],
      [
        "Ġperto",
        -10.332330859456665
      ],
      [
        "Ġmanifestac",
        -10.332768501074687
      ],
      [
        "ĠFra",
        -10.334252961087826
      ],
      [
        "lizar",
        -10.334324183125466
      ],
      [
        "Ġcha",
        -10.334631152605803
      ],
      [
        "Ġmelhores",
        -10.334932679271745
      ],
      [
        "Ġdizendo",
        -10.335032324031802
      ],
      [
        "Ġsofre",
        -10.33504061684324
      ],
      [
        "Ġ49",
        -10.335923205818368
      ],
      [
        "Ġinterna",
        -10.33613448416741
      ],
      [
        "ĠGomes",
        -10.336536495960315
      ],
      [
        "militares",
        -10.336990825432183
      ],
      [
        "Ġpermiti",
        -10.337127393067432
      ],
      [
        "Ġdiscutir",
        -10.33754042266328
      ],
      [
        "Ġfazem",
        -10.337615115904253
      ],
      [
        "ĠFami",
        -10.337904866705689
      ],
      [
        "ĠGrosso",
        -10.33879892960508
      ],
      [
        "Ġconti",
        -10.339136681758063
      ],
      [
        "Ġinterior",
        -10.339165508023736
      ],
      [
        "ĠMunicipal",
        -10.33980482112935
      ],
      [
        "ĠMinistra",
        -10.34050181106342
      ],
      [
        "Ġprovi",
        -10.3408514336634
      ],
      [
        "ĠLopes",
        -10.341435883867744
      ],
      [
        "Ġlimite",
        -10.342226484513665
      ],
      [
        "Ġcapaz",
        -10.34245527032882
      ],
      [
        "Ġtentar",
        -10.343554292581477
      ],
      [
        "CARLOS",
        -10.34371866174755
      ],
      [
        "Ġdistribui",
        -10.343722273357637
      ],
      [
        "Ġoito",
        -10.343768496998454
      ],
      [
        "ĠMilitar",
        -10.343812614679871
      ],
      [
        "ĠRocha",
        -10.34442178055804
      ],
      [
        "Ġ42",
        -10.344527627682057
      ],
      [
        "Ġconclui",
        -10.344672733924858
      ],
      [
        "Ġsustenta",
        -10.3457644524605
      ],
      [
        "Ġconsiderada",
        -10.346022062127105
      ],
      [
        "metro",
        -10.34624974294827
      ],
      [
        "Ġameac",
        -10.346537119767302
      ],
      [
        "AM",
        -10.347009983234225
      ],
      [
        "ĠConced",
        -10.3476606866969
      ],
      [
        "MG",
        -10.34790506987749
      ],
      [
        "Ġadministrativa",
        -10.34921324756246
      ],
      [
        "Pausa",
        -10.352985638541524
      ],
      [
        "ĠSU",
        -10.35343314692184
      ],
      [
        "Ġ48",
        -10.353501434440677
      ],
      [
        "ĠLista",
        -10.353790160731425
      ],
      [
        "hy",
        -10.354500225177407
      ],
      [
        "Ġtroca",
        -10.355009902500491
      ],
      [
        "ĠKo",
        -10.355384801377609
      ],
      [
        "Estamos",
        -10.355915808129897
      ],
      [
        "Ġcomercial",
        -10.356376426899358
      ],
      [
        "Ġapresentada",
        -10.356548402042804
      ],
      [
        "ĠPARA",
        -10.356836993855742
      ],
      [
        "Ġalega",
        -10.357110633139834
      ],
      [
        "Ġ01",
        -10.357495518452389
      ],
      [
        "Ġcompromisso",
        -10.357818872755262
      ],
      [
        "CIO",
        -10.357854327508177
      ],
      [
        "indicac",
        -10.358799301588377
      ],
      [
        "Ġconsidera",
        -10.358807311519076
      ],
      [
        "Ġ52",
        -10.359249312046645
      ],
      [
        "GERAL",
        -10.35936240422022
      ],
      [
        "Ġconversa",
        -10.360258508606554
      ],
      [
        "Ġlocalizado",
        -10.3615148841725
      ],
      [
        "logia",
        -10.36162391592142
      ],
      [
        "ficado",
        -10.36229966530225
      ],
      [
        "Ġcerta",
        -10.362493025993087
      ],
      [
        "ĠColo",
        -10.362997358203016
      ],
      [
        "Ġ39",
        -10.36309002644942
      ],
      [
        "Ġvige",
        -10.363566008180303
      ],
      [
        "ĠCatarina",
        -10.363630445411214
      ],
      [
        "Ġacabou",
        -10.363696846177763
      ],
      [
        "Ġavaliac",
        -10.363994221874853
      ],
      [
        "Ġseguir",
        -10.36463653062229
      ],
      [
        "dicos",
        -10.364909877752456
      ],
      [
        "Pro",
        -10.365200202682509
      ],
      [
        "ĠPubli",
        -10.365420454132009
      ],
      [
        "Ġinforma",
        -10.365723550451042
      ],
      [
        "Ġjovem",
        -10.3660021759713
      ],
      [
        "exposto",
        -10.366753284584613
      ],
      [
        "gor",
        -10.367300994887277
      ],
      [
        "exclusividade",
        -10.367324616457376
      ],
      [
        "Ġdiferente",
        -10.367452507627156
      ],
      [
        "cle",
        -10.36800253010317
      ],
      [
        "Ġrelativa",
        -10.368272880332777
      ],
      [
        "Ġsal",
        -10.368518704612768
      ],
      [
        "ĠVeja",
        -10.368712545990116
      ],
      [
        "Ġdaquel",
        -10.369211706395982
      ],
      [
        "Ġcompetic",
        -10.369320022609148
      ],
      [
        "Ġ1991",
        -10.369853070865124
      ],
      [
        "Ġlicenc",
        -10.370650952618796
      ],
      [
        "Ġconseguiu",
        -10.3708600028487
      ],
      [
        "Ġquarto",
        -10.37101240636313
      ],
      [
        "ontem",
        -10.371802856015565
      ],
      [
        "Ġescolas",
        -10.372352948391187
      ],
      [
        "anti",
        -10.372464493223283
      ],
      [
        "Ġhumano",
        -10.373711560678966
      ],
      [
        "Apesar",
        -10.374185524022954
      ],
      [
        "Ġperde",
        -10.37441025176584
      ],
      [
        "Ġconfi",
        -10.374433562657568
      ],
      [
        "Â",
        -10.374665540952664
      ],
      [
        "Ġenca",
        -10.3747732727518
      ],
      [
        "Ġfiz",
        -10.376370726351926
      ],
      [
        "Ġcompleta",
        -10.376436381479076
      ],
      [
        "CONSTITUIC",
        -10.377008843556943
      ],
      [
        "ĠProfessor",
        -10.377434913354644
      ],
      [
        "americana",
        -10.377470963851964
      ],
      [
        "Ġentrega",
        -10.377675809157164
      ],
      [
        "tivos",
        -10.378095879059208
      ],
      [
        "rida",
        -10.378829229998964
      ],
      [
        "ĠJudicia",
        -10.37894783526152
      ],
      [
        "ĠLUIZ",
        -10.37911827232303
      ],
      [
        "estabelecimento",
        -10.379422681770254
      ],
      [
        "pica",
        -10.379614524152036
      ],
      [
        "ginas",
        -10.379904887578336
      ],
      [
        "Ġfinanciamento",
        -10.380646372204437
      ],
      [
        "Ġimprensa",
        -10.380821309949908
      ],
      [
        "Ġquantidade",
        -10.381007144931637
      ],
      [
        "iros",
        -10.381018719306848
      ],
      [
        "Ġhonra",
        -10.381084525021516
      ],
      [
        "riamente",
        -10.381739345366078
      ],
      [
        "ĠCidade",
        -10.381815660552997
      ],
      [
        "Ġbeneficia",
        -10.3827254456549
      ],
      [
        "ĠSabe",
        -10.383209257144776
      ],
      [
        "tante",
        -10.383553696518153
      ],
      [
        "Ġpagar",
        -10.383659332207936
      ],
      [
        "Maranha",
        -10.383854375683436
      ],
      [
        "Ġcolo",
        -10.384049600476926
      ],
      [
        "falando",
        -10.384723999091031
      ],
      [
        "dez",
        -10.38479349790942
      ],
      [
        "ĠRS",
        -10.38502208255444
      ],
      [
        "Ġ41",
        -10.385647041015956
      ],
      [
        "ĠAh",
        -10.385905161463633
      ],
      [
        "Ġquarta",
        -10.3862086963761
      ],
      [
        "Ġcria",
        -10.386365607511935
      ],
      [
        "Ġestudos",
        -10.386458792174407
      ],
      [
        "rita",
        -10.386592207382348
      ],
      [
        "Ł",
        -10.386699550817577
      ],
      [
        "tiveram",
        -10.387784502308383
      ],
      [
        ".............",
        -10.388147351130725
      ],
      [
        "rece",
        -10.388652312576594
      ],
      [
        "ĠFica",
        -10.388877547351775
      ],
      [
        "Ġ1995",
        -10.389418795387334
      ],
      [
        "NR",
        -10.389687455784944
      ],
      [
        "Ġdaqui",
        -10.39029311169254
      ],
      [
        "Ġcarro",
        -10.390717045049234
      ],
      [
        "burg",
        -10.3912928800391
      ],
      [
        "war",
        -10.391877447402832
      ],
      [
        "INA",
        -10.392712367479398
      ],
      [
        "Ġchama",
        -10.392745744856056
      ],
      [
        "Ġdeputado",
        -10.39344510843308
      ],
      [
        "ĠAlmeida",
        -10.393862384529791
      ],
      [
        "Ġdecidi",
        -10.393975756092916
      ],
      [
        "Ġlocalizada",
        -10.393984547966983
      ],
      [
        "Ġestrate",
        -10.394039724394714
      ],
      [
        "ĠLou",
        -10.39410027667374
      ],
      [
        "gol",
        -10.394180283791863
      ],
      [
        "ĠToda",
        -10.39455737503566
      ],
      [
        "ĠPelo",
        -10.394773582761298
      ],
      [
        "ĠLui",
        -10.394966737639038
      ],
      [
        "Ġrenova",
        -10.396120587672543
      ],
      [
        "ĠGeral",
        -10.396167913695445
      ],
      [
        "Ġcomigo",
        -10.398525183706894
      ],
      [
        "ĠUSP",
        -10.39893680821125
      ],
      [
        "deres",
        -10.399844699531942
      ],
      [
        "Î",
        -10.400200154656316
      ],
      [
        "Ġexatamente",
        -10.400472487394405
      ],
      [
        "ĠParlamentare",
        -10.40256147701923
      ],
      [
        "Ġunidades",
        -10.402746681348985
      ],
      [
        "Ġcomissa",
        -10.403349615206148
      ],
      [
        "ĠRodrigues",
        -10.403509900537015
      ],
      [
        "ĠInter",
        -10.403560390509789
      ],
      [
        "Lideran",
        -10.403979026599805
      ],
      [
        "Ġinicial",
        -10.405116424241193
      ],
      [
        "Ġ58",
        -10.405914831114432
      ],
      [
        "frica",
        -10.405969562777589
      ],
      [
        "atriz",
        -10.406606451992443
      ],
      [
        "Ġrodovia",
        -10.4071158411723
      ],
      [
        "ĠGrupo",
        -10.407414969843456
      ],
      [
        "diretamente",
        -10.408384880040533
      ],
      [
        "Ġ119",
        -10.408698072784926
      ],
      [
        "ĠSin",
        -10.409197773576992
      ],
      [
        "ĠQUE",
        -10.410301901604615
      ],
      [
        "ĠCre",
        -10.410565951143116
      ],
      [
        "ħ",
        -10.41063436378035
      ],
      [
        "ĠCarvalho",
        -10.41161623468344
      ],
      [
        "Ġpensa",
        -10.411671881365814
      ],
      [
        "STA",
        -10.412276596211758
      ],
      [
        "corrupc",
        -10.41324139393105
      ],
      [
        "Ġhaja",
        -10.413519182079328
      ],
      [
        "Ġjulgado",
        -10.415044729087809
      ],
      [
        "ambos",
        -10.41586570789449
      ],
      [
        "permissa",
        -10.41638691009587
      ],
      [
        "atribuic",
        -10.416593963100414
      ],
      [
        "ĠReco",
        -10.416982447019548
      ],
      [
        "ĠOnde",
        -10.41716300065169
      ],
      [
        "Ġassumi",
        -10.417697355814814
      ],
      [
        "bairro",
        -10.418406042428538
      ],
      [
        "Li",
        -10.419550332551166
      ],
      [
        "ĠPrevide",
        -10.419719346557455
      ],
      [
        "Ġestabelecer",
        -10.419846807506396
      ],
      [
        "Ġ64",
        -10.41987041245028
      ],
      [
        "Ġresultados",
        -10.420628216047584
      ],
      [
        "ĠAP",
        -10.420669183872269
      ],
      [
        "Ġposto",
        -10.421973693198158
      ],
      [
        "ĠMinha",
        -10.422075416149422
      ],
      [
        "chefe",
        -10.422762402925631
      ],
      [
        "Ġencontro",
        -10.423284256164091
      ],
      [
        "Ġsec",
        -10.42355730832541
      ],
      [
        "Ġconseguir",
        -10.423721806555555
      ],
      [
        "ĠGil",
        -10.4260216608267
      ],
      [
        "ĠDaniel",
        -10.426836255822671
      ],
      [
        "Ġmundial",
        -10.427444479666008
      ],
      [
        "Ġorientac",
        -10.42799057133541
      ],
      [
        "criada",
        -10.428001654420452
      ],
      [
        "tenc",
        -10.42800204764948
      ],
      [
        "ĠMG",
        -10.4282604344176
      ],
      [
        "rejeic",
        -10.428415937153302
      ],
      [
        "ĠSuper",
        -10.428925701734489
      ],
      [
        "ĠLEGISLATIV",
        -10.429867685519268
      ],
      [
        "ĠSer",
        -10.43006777148594
      ],
      [
        "ĠSenhora",
        -10.430344439817736
      ],
      [
        "Ġestadual",
        -10.430853886286217
      ],
      [
        "ĠRegia",
        -10.431258964155829
      ],
      [
        "ativo",
        -10.431407159926977
      ],
      [
        "org",
        -10.43211406702629
      ],
      [
        "Ġvaria",
        -10.432473826167804
      ],
      [
        "Ġsubstitui",
        -10.433192194982846
      ],
      [
        "Ġvivo",
        -10.43355749982806
      ],
      [
        "plica",
        -10.43406888280167
      ],
      [
        "ĠGoia",
        -10.4342862597395
      ],
      [
        "ĠReino",
        -10.43454840003972
      ],
      [
        "DF",
        -10.434680563724124
      ],
      [
        "ĠSenhore",
        -10.43520545361682
      ],
      [
        "Ġevitar",
        -10.435389008827938
      ],
      [
        "ĠNew",
        -10.43765222883798
      ],
      [
        "somos",
        -10.437671435683718
      ],
      [
        "ĠLU",
        -10.439068130814633
      ],
      [
        "Certo",
        -10.440080166759545
      ],
      [
        "Ġfigura",
        -10.44027942016463
      ],
      [
        "ĠAM",
        -10.441039383229306
      ],
      [
        "ĠNordeste",
        -10.441332688213768
      ],
      [
        "licitac",
        -10.441600462039618
      ],
      [
        "atualmente",
        -10.441854701800295
      ],
      [
        "Seguranc",
        -10.441864429072863
      ],
      [
        "IDA",
        -10.442140440233342
      ],
      [
        "Ġgosta",
        -10.44215472707235
      ],
      [
        "Ġpior",
        -10.442515778462743
      ],
      [
        "Ġinfra",
        -10.442928011178273
      ],
      [
        "uplente",
        -10.443214145910195
      ],
      [
        "cies",
        -10.443450328371844
      ],
      [
        "Ħ",
        -10.443723572631772
      ],
      [
        "Talvez",
        -10.444061940359475
      ],
      [
        "nato",
        -10.444724370972477
      ],
      [
        "Ġanti",
        -10.444993477113307
      ],
      [
        "impacto",
        -10.44532478839334
      ],
      [
        "ĠEstadual",
        -10.445720733712085
      ],
      [
        "ĠAugusto",
        -10.445870244065103
      ],
      [
        "Ġcomenta",
        -10.446070900108896
      ],
      [
        "Ġmerece",
        -10.44641936851924
      ],
      [
        "Figueiredo",
        -10.447078265860656
      ],
      [
        "Ġdocumento",
        -10.447509890409288
      ],
      [
        "Ġacontece",
        -10.447780531368284
      ],
      [
        "ĠTemo",
        -10.447867852720895
      ],
      [
        "Ġ(...)",
        -10.447988055407016
      ],
      [
        "Ġrece",
        -10.448214233238158
      ],
      [
        "ĠDECRET",
        -10.449003402015691
      ],
      [
        "Ġprocura",
        -10.450024874476254
      ],
      [
        "ĠNelson",
        -10.45022449464601
      ],
      [
        "lias",
        -10.451640720748326
      ],
      [
        "Teixeira",
        -10.452390821925
      ],
      [
        "grafia",
        -10.453162195426696
      ],
      [
        "ssia",
        -10.45346537414698
      ],
      [
        "ĠGen",
        -10.45435574548726
      ],
      [
        "ĠBal",
        -10.454391832748748
      ],
      [
        "Ġpaga",
        -10.454619252741692
      ],
      [
        "alunos",
        -10.454941578313884
      ],
      [
        "Ġmudar",
        -10.455000692008356
      ],
      [
        "ĠFazenda",
        -10.455766748818313
      ],
      [
        "Ġgrau",
        -10.455826796689898
      ],
      [
        "Ġpublicada",
        -10.45633661898679
      ],
      [
        "Con",
        -10.456845028047052
      ],
      [
        "bon",
        -10.458243864805024
      ],
      [
        "Ġ90",
        -10.458275451125944
      ],
      [
        "Discussa",
        -10.458611986993512
      ],
      [
        "Ġshow",
        -10.458998804646926
      ],
      [
        "Ġcentral",
        -10.459257696337506
      ],
      [
        "Ġjudicial",
        -10.45948294127605
      ],
      [
        "ĠDom",
        -10.461007576715518
      ],
      [
        "Ġinvestimento",
        -10.461200458136128
      ],
      [
        "Ġmemo",
        -10.461672713921336
      ],
      [
        "lizado",
        -10.462314443933192
      ],
      [
        "Ġquilo",
        -10.462823189566803
      ],
      [
        "Ġfundamento",
        -10.46295028229808
      ],
      [
        "Ġconce",
        -10.463248672518208
      ],
      [
        "usada",
        -10.46355562350336
      ],
      [
        "cito",
        -10.463609162496892
      ],
      [
        "ĠPp",
        -10.46401321524684
      ],
      [
        "requisitos",
        -10.464360080766047
      ],
      [
        "ricos",
        -10.46502963909968
      ],
      [
        "ĠART",
        -10.465266587901215
      ],
      [
        "Ġprocedimento",
        -10.465803778325729
      ],
      [
        "ĠDesde",
        -10.465851743764588
      ],
      [
        "bado",
        -10.465979679880776
      ],
      [
        "nicos",
        -10.466281513237364
      ],
      [
        "levou",
        -10.466373954552196
      ],
      [
        "Ġdista",
        -10.466770542558873
      ],
      [
        "Ġpetro",
        -10.467116296885273
      ],
      [
        "Ġanimais",
        -10.467966162839884
      ],
      [
        "ĠFutebol",
        -10.468260904634318
      ],
      [
        "Ġ1988",
        -10.468400684371648
      ],
      [
        "Ġespera",
        -10.468704439810947
      ],
      [
        "ĠRelac",
        -10.469697858125716
      ],
      [
        "Ġfui",
        -10.469809898869952
      ],
      [
        "Ġreside",
        -10.470012386650383
      ],
      [
        "onde",
        -10.471160041936995
      ],
      [
        "ĠChina",
        -10.471786049968536
      ],
      [
        "Ġabaixo",
        -10.471834389870416
      ],
      [
        "licitante",
        -10.472076479270877
      ],
      [
        "ĠEspi",
        -10.472338116869274
      ],
      [
        "Ġestilo",
        -10.47247485485723
      ],
      [
        "pec",
        -10.472792839239718
      ],
      [
        "ĠAto",
        -10.472960442985247
      ],
      [
        "federai",
        -10.47300491882849
      ],
      [
        "Ġjurisprude",
        -10.473035227180626
      ],
      [
        "Ġamericano",
        -10.473148955259727
      ],
      [
        "Ġconde",
        -10.474041045592791
      ],
      [
        "ĠGal",
        -10.475041715419048
      ],
      [
        "Ġestes",
        -10.475774675215304
      ],
      [
        "Ġdeficie",
        -10.478308402694411
      ],
      [
        "ĠNossa",
        -10.4784619848791
      ],
      [
        "Ġmanha",
        -10.479063415462498
      ],
      [
        "ĠRequer",
        -10.479117418785394
      ],
      [
        "ionais",
        -10.479658923085704
      ],
      [
        "Ġterc",
        -10.4799436574246
      ],
      [
        "ĠAure",
        -10.48117362453638
      ],
      [
        "ĠAlberto",
        -10.481357599745929
      ],
      [
        "Ġentrevista",
        -10.48206953420934
      ],
      [
        "lis",
        -10.48213512703569
      ],
      [
        "ky",
        -10.482535580939963
      ],
      [
        "Ġadvogado",
        -10.482545174483006
      ],
      [
        "possam",
        -10.482810089902218
      ],
      [
        "Ġvive",
        -10.483711661666344
      ],
      [
        "Ġ62",
        -10.484476720448898
      ],
      [
        "Ġconhece",
        -10.485140531482484
      ],
      [
        "ĠMundo",
        -10.485340937952078
      ],
      [
        "Ġpretende",
        -10.485591951834378
      ],
      [
        "existente",
        -10.486143679045195
      ],
      [
        "Ġconseque",
        -10.486185269245226
      ],
      [
        "ĠAlemanha",
        -10.486826520799609
      ],
      [
        "xico",
        -10.4869292577991
      ],
      [
        "regras",
        -10.488057661254135
      ],
      [
        "Ġ47",
        -10.489630947244828
      ],
      [
        "Ġatender",
        -10.489635857542831
      ],
      [
        "Ġacidente",
        -10.490312924657651
      ],
      [
        "ÌĦ",
        -10.491090252094132
      ],
      [
        "Ġ56",
        -10.49132771680214
      ],
      [
        "Ġpalavras",
        -10.492230080184733
      ],
      [
        "Sessa",
        -10.492256230231296
      ],
      [
        "EMENTA",
        -10.492305815449566
      ],
      [
        "ciais",
        -10.492486559997024
      ],
      [
        "Ġvice",
        -10.49275123237745
      ],
      [
        "Ġmesa",
        -10.493048753322569
      ],
      [
        "Ġdemocracia",
        -10.493399581139611
      ],
      [
        "ĠAma",
        -10.49401894282128
      ],
      [
        "ĠBoa",
        -10.494641937831435
      ],
      [
        "vemos",
        -10.495244394639696
      ],
      [
        "ligac",
        -10.495295404350946
      ],
      [
        "Ġdistrito",
        -10.49569788405572
      ],
      [
        "Ġexplorar",
        -10.495815345009424
      ],
      [
        "Ġoferece",
        -10.496347794898236
      ],
      [
        "Ġrural",
        -10.496551422371732
      ],
      [
        "ĠAC",
        -10.496977116284048
      ],
      [
        "EUA",
        -10.497013687408389
      ],
      [
        "Ġfinanceiro",
        -10.49704445825885
      ],
      [
        "ĠForc",
        -10.497072572646486
      ],
      [
        "Ġfesta",
        -10.497145417091172
      ],
      [
        "ĠFU",
        -10.497576050023998
      ],
      [
        "Ġerro",
        -10.497580370287798
      ],
      [
        "PSL",
        -10.497808173182188
      ],
      [
        "ĠSerra",
        -10.498568471171318
      ],
      [
        "ĠFundac",
        -10.498763090988517
      ],
      [
        "ĠRede",
        -10.498830489472926
      ],
      [
        "ĠJesus",
        -10.4990586829533
      ],
      [
        "Ġguarda",
        -10.499128193919091
      ],
      [
        "Ġbanco",
        -10.499458152347334
      ],
      [
        "ĠDepu",
        -10.499509900864904
      ],
      [
        "virtude",
        -10.500799800528666
      ],
      [
        "nsul",
        -10.501630590292166
      ],
      [
        "Resoluc",
        -10.50244435158803
      ],
      [
        "Ġarma",
        -10.502801995351092
      ],
      [
        "Ġjornalista",
        -10.5030765131119
      ],
      [
        "ĠGar",
        -10.50326585027342
      ],
      [
        "Ġsecreta",
        -10.50357965014408
      ],
      [
        "Ġdeciso",
        -10.503667225544724
      ],
      [
        "preocupac",
        -10.503806366726913
      ],
      [
        "fronteira",
        -10.504479090709289
      ],
      [
        "ĠWal",
        -10.504625847186691
      ],
      [
        "pico",
        -10.505080676094208
      ],
      [
        "Ġtraz",
        -10.505439436554235
      ],
      [
        "Geraldo",
        -10.50564235537754
      ],
      [
        "PSB",
        -10.505687869021004
      ],
      [
        "ĠAlexandre",
        -10.506079973073144
      ],
      [
        "Ġataque",
        -10.506203885282094
      ],
      [
        "ĠMichel",
        -10.506915733534598
      ],
      [
        "Ġimagem",
        -10.507190686773509
      ],
      [
        "Ġdano",
        -10.50740444288212
      ],
      [
        "Ġpedir",
        -10.507859590526367
      ],
      [
        "decreto",
        -10.508243130513176
      ],
      [
        "ĠRodrigo",
        -10.50863034367494
      ],
      [
        "Ġefetiva",
        -10.508745713040245
      ],
      [
        "ĠLisboa",
        -10.50932006553577
      ],
      [
        "ĠArthur",
        -10.509572403782313
      ],
      [
        "apresentou",
        -10.511422985082952
      ],
      [
        "Ġganha",
        -10.5115250361257
      ],
      [
        "Ġconcurso",
        -10.511620070042836
      ],
      [
        "Ġzona",
        -10.51166910317693
      ],
      [
        "Ġunidade",
        -10.511957780802415
      ],
      [
        "imagens",
        -10.512558422167606
      ],
      [
        "ĠAge",
        -10.512822302596836
      ],
      [
        "ĠQuer",
        -10.513267733116392
      ],
      [
        "nunciou",
        -10.513609827054124
      ],
      [
        "Ġpromover",
        -10.513963192726829
      ],
      [
        "rido",
        -10.514018555804864
      ],
      [
        "Ġ59",
        -10.514637024135457
      ],
      [
        "privado",
        -10.514896763315669
      ],
      [
        "Ġrua",
        -10.51513242243665
      ],
      [
        "Departamento",
        -10.515916864366886
      ],
      [
        "BRA",
        -10.515993944577655
      ],
      [
        "ĠVai",
        -10.51720918160943
      ],
      [
        "ĠCeara",
        -10.51740224110788
      ],
      [
        "Ġjui",
        -10.517892660674809
      ],
      [
        "trecho",
        -10.517967181563732
      ],
      [
        "ĠMarcos",
        -10.518127095465028
      ],
      [
        "velmente",
        -10.519232994086346
      ],
      [
        "ĠAgrav",
        -10.519889170314608
      ],
      [
        "Ġurge",
        -10.521209702187194
      ],
      [
        "PDT",
        -10.52147102611804
      ],
      [
        "Ġopinia",
        -10.521757944402054
      ],
      [
        "ĠLegislativa",
        -10.521907713170428
      ],
      [
        "Ìģ!",
        -10.52280986212255
      ],
      [
        "Ġentender",
        -10.522828664689923
      ],
      [
        "rato",
        -10.5231077623122
      ],
      [
        "nacionais",
        -10.52355173586833
      ],
      [
        "Ġpreso",
        -10.525237550201004
      ],
      [
        "Ġqu",
        -10.52535268997348
      ],
      [
        "ĠZa",
        -10.525407792210078
      ],
      [
        "Ġretorno",
        -10.525429388494969
      ],
      [
        "Ġigreja",
        -10.525911444255252
      ],
      [
        "ĠSobre",
        -10.526132388707522
      ],
      [
        "Proposic",
        -10.526887751060066
      ],
      [
        "Ġconceito",
        -10.527038897169517
      ],
      [
        "ĠDESPACH",
        -10.527575966618777
      ],
      [
        "Ġatribui",
        -10.527967221822855
      ],
      [
        "Ġfreque",
        -10.528455025945588
      ],
      [
        "Ġetc",
        -10.528758771975763
      ],
      [
        "Ġjustic",
        -10.529480343064275
      ],
      [
        "ĠSera",
        -10.530168440143113
      ],
      [
        "Ġpais",
        -10.530356201005018
      ],
      [
        "Ġseguro",
        -10.532043907830854
      ],
      [
        "Ġprovoc",
        -10.53210719192878
      ],
      [
        "Ġface",
        -10.532598320177616
      ],
      [
        "Ġrevela",
        -10.533776021614244
      ],
      [
        "daquele",
        -10.53440282430901
      ],
      [
        "Ġaparece",
        -10.534746817949872
      ],
      [
        "ĠEli",
        -10.534877262533064
      ],
      [
        "Ġindependente",
        -10.535566779036268
      ],
      [
        "referida",
        -10.535754582205644
      ],
      [
        "Ï",
        -10.536315023863777
      ],
      [
        "Ġconsegue",
        -10.5366560941503
      ],
      [
        "ĠVista",
        -10.536676164045083
      ],
      [
        "RN",
        -10.53893067426002
      ],
      [
        "Ġabsoluta",
        -10.54000450864772
      ],
      [
        "Ġdiminui",
        -10.540306499266745
      ],
      [
        "Ġamanha",
        -10.540621262900377
      ],
      [
        "ĠParis",
        -10.541282590896184
      ],
      [
        "Ġconsiderac",
        -10.54327823779279
      ],
      [
        "juros",
        -10.543402197731758
      ],
      [
        "www",
        -10.544073484222972
      ],
      [
        "Ġouvir",
        -10.54473841841319
      ],
      [
        "ĠMO",
        -10.544959516864104
      ],
      [
        "bus",
        -10.546356647166949
      ],
      [
        "ĠOUTR",
        -10.546369260770067
      ],
      [
        "Ġdireto",
        -10.54638994746795
      ],
      [
        "ENTE",
        -10.546607460630996
      ],
      [
        "Ġfeliz",
        -10.547020412019595
      ],
      [
        "Ġcontas",
        -10.547127936195055
      ],
      [
        "substitutivo",
        -10.547551161286748
      ],
      [
        "ĠQuanto",
        -10.548033588313736
      ],
      [
        "Ġquebra",
        -10.549266771104849
      ],
      [
        "elli",
        -10.549568239629531
      ],
      [
        "Ġqui",
        -10.550656601992518
      ],
      [
        "Moreira",
        -10.550866998894136
      ],
      [
        "Ġambiental",
        -10.551647384777564
      ],
      [
        "ĠAltera",
        -10.552867028354024
      ],
      [
        "ĠMen",
        -10.553339926492203
      ],
      [
        "TOR",
        -10.55339872797262
      ],
      [
        "fiscalizac",
        -10.553781974761232
      ],
      [
        "ĠRoge",
        -10.55409119202402
      ],
      [
        "Ġcarga",
        -10.554325516533574
      ],
      [
        "Ġmetros",
        -10.554472696422604
      ],
      [
        "PI",
        -10.556230664682664
      ],
      [
        "parceria",
        -10.55779153516508
      ],
      [
        "Ġarmas",
        -10.5599054720846
      ],
      [
        "Ġtorno",
        -10.560312001042076
      ],
      [
        "ĠCome",
        -10.560440605694149
      ],
      [
        "constitucionai",
        -10.560742925956111
      ],
      [
        "Ġ75",
        -10.561254907168903
      ],
      [
        "Ġleitura",
        -10.561768580317104
      ],
      [
        "Ġbrita",
        -10.56179828982122
      ],
      [
        "riedade",
        -10.562971228389548
      ],
      [
        "Ġvontade",
        -10.563291680111282
      ],
      [
        "Proposta",
        -10.563689148355303
      ],
      [
        "Ġitem",
        -10.564079114857492
      ],
      [
        "ĠCruz",
        -10.564096183936527
      ],
      [
        "Ġcuidado",
        -10.564353768629717
      ],
      [
        "ĠDan",
        -10.564644385515727
      ],
      [
        "Ġconve",
        -10.565500518237773
      ],
      [
        "Ġtrabalhador",
        -10.565801784869883
      ],
      [
        "quia",
        -10.565884206720789
      ],
      [
        "Ġ65",
        -10.565901391906422
      ],
      [
        "hin",
        -10.566559584844844
      ],
      [
        "MARA",
        -10.56795535717416
      ],
      [
        "mulo",
        -10.568378956252287
      ],
      [
        "ĠAR",
        -10.568455651022193
      ],
      [
        "Ġquinta",
        -10.568694148771463
      ],
      [
        "Ġdivisa",
        -10.569331694678931
      ],
      [
        "bora",
        -10.569433887249511
      ],
      [
        "Ġhumana",
        -10.56991651353197
      ],
      [
        "ĠFederac",
        -10.56997479521448
      ],
      [
        "ĠSec",
        -10.570490026747724
      ],
      [
        "ĠNeste",
        -10.57062531993777
      ],
      [
        "Ġmante",
        -10.571488736425596
      ],
      [
        "ĠRei",
        -10.571854960331123
      ],
      [
        "ĠCamp",
        -10.572858939655733
      ],
      [
        "Ġdetermina",
        -10.573164823384584
      ],
      [
        "Ġcorpus",
        -10.573719051292043
      ],
      [
        "tinho",
        -10.574371317525948
      ],
      [
        "Ġopc",
        -10.574486594702885
      ],
      [
        "Ġregistrado",
        -10.574801343057452
      ],
      [
        "2020",
        -10.574805229989703
      ],
      [
        "Ġ1993",
        -10.574840363961886
      ],
      [
        "Ġdefende",
        -10.574957169413787
      ],
      [
        "Ġcur",
        -10.57525814928148
      ],
      [
        "ĠPan",
        -10.575368536021168
      ],
      [
        "Ġjuiz",
        -10.576392370667676
      ],
      [
        "Ġ57",
        -10.576461444943693
      ],
      [
        "gravada",
        -10.576931288878864
      ],
      [
        "Ġcompanhia",
        -10.578347760467858
      ],
      [
        "precisamos",
        -10.5784862815619
      ],
      [
        "contratac",
        -10.578538199009964
      ],
      [
        "Ġdispor",
        -10.578962033761876
      ],
      [
        "Ġmedo",
        -10.579244411200934
      ],
      [
        "Ġvinte",
        -10.58093972241623
      ],
      [
        "etapa",
        -10.582319462165318
      ],
      [
        "pula",
        -10.582488990374202
      ],
      [
        "ĠVila",
        -10.583043070164685
      ],
      [
        "ĠParlamento",
        -10.583193791223698
      ],
      [
        "retirada",
        -10.583677749266664
      ],
      [
        "consumo",
        -10.58384513936329
      ],
      [
        "Ġ1994",
        -10.583977779393438
      ],
      [
        "Ġaberto",
        -10.584133943335264
      ],
      [
        "Ġmulti",
        -10.584177923868342
      ],
      [
        "ĠCur",
        -10.584452644240931
      ],
      [
        "Ġeventos",
        -10.584572068205196
      ],
      [
        "havend",
        -10.584704480220372
      ],
      [
        "ĠNeto",
        -10.58493209979148
      ],
      [
        "Ġdesen",
        -10.585203267853377
      ],
      [
        "Ġinve",
        -10.585392986939906
      ],
      [
        "Ġobrigato",
        -10.586215370758817
      ],
      [
        "agentes",
        -10.586770704661635
      ],
      [
        "ĠImpe",
        -10.5869387020995
      ],
      [
        "Ġgosto",
        -10.587135046123851
      ],
      [
        "Ġoferta",
        -10.58736731705904
      ],
      [
        "Barbosa",
        -10.587714498552918
      ],
      [
        "extensa",
        -10.588177605484576
      ],
      [
        "ĠAprecia",
        -10.588926006976823
      ],
      [
        "Ġrespectiva",
        -10.589128003947524
      ],
      [
        "Ġcomemora",
        -10.590363011185508
      ],
      [
        "Ġdemocra",
        -10.590632768389897
      ],
      [
        "ĠNada",
        -10.591122222178768
      ],
      [
        "TER",
        -10.591841786181757
      ],
      [
        "contexto",
        -10.592098943136412
      ],
      [
        "Ġescolha",
        -10.592378213382592
      ],
      [
        "ĠMeio",
        -10.592886558607136
      ],
      [
        "ĠAmazonas",
        -10.59376434982505
      ],
      [
        "Magalha",
        -10.59446601688839
      ],
      [
        "Ġpermanece",
        -10.59451703166136
      ],
      [
        "ĠRegional",
        -10.59484489231994
      ],
      [
        "Ġinternacionais",
        -10.594941854589404
      ],
      [
        "Ġvelho",
        -10.59548277289838
      ],
      [
        "SRA",
        -10.595552792467949
      ],
      [
        "genas",
        -10.59604587348257
      ],
      [
        "Ġ51",
        -10.59638146575628
      ],
      [
        "Ġprodutor",
        -10.596401421425266
      ],
      [
        "Ġesteja",
        -10.596568539769848
      ],
      [
        "Ġfogo",
        -10.597033598482108
      ],
      [
        "desempenho",
        -10.597340676879645
      ],
      [
        "Ġseque",
        -10.597354166466593
      ],
      [
        "Ġresto",
        -10.597417606083852
      ],
      [
        "Ġ46",
        -10.598010472149053
      ],
      [
        "Ġtinham",
        -10.598500595025389
      ],
      [
        "Ġparti",
        -10.598637942718092
      ],
      [
        "ĠNac",
        -10.598683893945935
      ],
      [
        "Ġtenta",
        -10.599269826510309
      ],
      [
        "Ġvoz",
        -10.599274171102556
      ],
      [
        "Ġesposa",
        -10.59977460911348
      ],
      [
        "Ġcorac",
        -10.599881575140394
      ],
      [
        "Ġcomando",
        -10.599954558095366
      ],
      [
        "ĠEr",
        -10.600134957727406
      ],
      [
        "Ġtive",
        -10.600305276799972
      ],
      [
        "Ġposse",
        -10.600472703548686
      ],
      [
        "Ġeleitoral",
        -10.6006028552127
      ],
      [
        "Ġsexta",
        -10.600632620085914
      ],
      [
        "ĠSha",
        -10.601026572111609
      ],
      [
        "ĠJapa",
        -10.601049768897552
      ],
      [
        "Ġ02",
        -10.601132613681894
      ],
      [
        "............",
        -10.60115133194845
      ],
      [
        "Ġjogador",
        -10.601618775155885
      ],
      [
        "Ġutilizado",
        -10.602583211305006
      ],
      [
        "Jogos",
        -10.60264600069844
      ],
      [
        "http",
        -10.60272389189208
      ],
      [
        "Ġpatrimo",
        -10.60288864612283
      ],
      [
        "Ġfrance",
        -10.603070374466688
      ],
      [
        "rez",
        -10.603428108949872
      ],
      [
        "Ġcorte",
        -10.60368388382749
      ],
      [
        "ncer",
        -10.604049974630948
      ],
      [
        "Ġatingi",
        -10.604910178449025
      ],
      [
        "Ġcap",
        -10.6051451904204
      ],
      [
        "ganhou",
        -10.605360978059911
      ],
      [
        "atos",
        -10.60590712337392
      ],
      [
        "polis",
        -10.606233603797268
      ],
      [
        "nicas",
        -10.606279441295422
      ],
      [
        "Ġjoga",
        -10.60743211221996
      ],
      [
        "Ġtentativa",
        -10.608011292565966
      ],
      [
        "Ġofi",
        -10.608070202449571
      ],
      [
        "Ġampla",
        -10.609356549091876
      ],
      [
        "reconhecimento",
        -10.60941422683359
      ],
      [
        "Ġdecorre",
        -10.60983988222593
      ],
      [
        "apensado",
        -10.609927568172546
      ],
      [
        "ĠIsto",
        -10.609981990563162
      ],
      [
        "sobretudo",
        -10.61015293825917
      ],
      [
        "Ġconhec",
        -10.611048288967831
      ],
      [
        "ocorreu",
        -10.611092369028912
      ],
      [
        "humanos",
        -10.611262347590076
      ],
      [
        "habea",
        -10.611401401255474
      ],
      [
        "ĠFer",
        -10.612768839544414
      ],
      [
        "ĠParai",
        -10.61321602105098
      ],
      [
        "Ġperder",
        -10.613685168283649
      ],
      [
        "convidado",
        -10.614133442610854
      ],
      [
        "ĠPRIMEIR",
        -10.614485647962791
      ],
      [
        "apelo",
        -10.6146035317193
      ],
      [
        "equipamentos",
        -10.614748173861024
      ],
      [
        "ĠBarros",
        -10.61575805737392
      ],
      [
        "udio",
        -10.616281697163362
      ],
      [
        "Ġtransfere",
        -10.61691689737867
      ],
      [
        "ĠCarreira",
        -10.61723060055143
      ],
      [
        "all",
        -10.61773369614258
      ],
      [
        "ĠMARCO",
        -10.61792059581391
      ],
      [
        "elementos",
        -10.618444047407946
      ],
      [
        "Ġmassa",
        -10.618633717245103
      ],
      [
        "ĠClaro",
        -10.619277987341572
      ],
      [
        "ĠJOA",
        -10.619940263463445
      ],
      [
        "Ĵ",
        -10.620049685229104
      ],
      [
        "investimentos",
        -10.620765770793025
      ],
      [
        "ĠExterior",
        -10.6213720260938
      ],
      [
        "lite",
        -10.622375947278366
      ],
      [
        "metade",
        -10.624678815924014
      ],
      [
        "Ġassinatura",
        -10.62580967492019
      ],
      [
        "gicos",
        -10.625867477284128
      ],
      [
        "Ġatua",
        -10.626202074313149
      ],
      [
        "missa",
        -10.626787170428296
      ],
      [
        "Ġcursos",
        -10.627327720314796
      ],
      [
        "ĠCPI",
        -10.627332134659012
      ],
      [
        "ĠFolha",
        -10.627713130907429
      ],
      [
        "ric",
        -10.627881436206907
      ],
      [
        "ĠFerreira",
        -10.628743794117154
      ],
      [
        "Ġderrota",
        -10.629078296645275
      ],
      [
        "Ġrelator",
        -10.630126236039834
      ],
      [
        "Ġexposic",
        -10.630186337366716
      ],
      [
        "ĠClube",
        -10.63021309285296
      ],
      [
        "Enquanto",
        -10.63044374247436
      ],
      [
        "Ġexterior",
        -10.630462689893864
      ],
      [
        "ĠConstitucional",
        -10.63097421061265
      ],
      [
        "Ġexplorac",
        -10.631486386173956
      ],
      [
        "rais",
        -10.632266795792182
      ],
      [
        "Ġcontato",
        -10.632722466631972
      ],
      [
        "Ġlivros",
        -10.632793582197309
      ],
      [
        "ĠCer",
        -10.633025546228854
      ],
      [
        "Ġrever",
        -10.634128242313478
      ],
      [
        "Ġviu",
        -10.634334160903464
      ],
      [
        "ĠIN",
        -10.635525306819128
      ],
      [
        "Ġcultural",
        -10.635800965594116
      ],
      [
        "americano",
        -10.636288033677628
      ],
      [
        "Ġaumenta",
        -10.636829306535253
      ],
      [
        "finalidade",
        -10.63726443799444
      ],
      [
        "Ġentende",
        -10.63755024586105
      ],
      [
        "ĠGer",
        -10.63786255330912
      ],
      [
        "PB",
        -10.638220362488024
      ],
      [
        "ADA",
        -10.638270260085555
      ],
      [
        "requer",
        -10.638656758142004
      ],
      [
        "Ġvencedor",
        -10.638730854105829
      ],
      [
        "ĠVito",
        -10.638920536273968
      ],
      [
        "Ġbebe",
        -10.639412992449865
      ],
      [
        "Ġincide",
        -10.639577517850451
      ],
      [
        "bia",
        -10.639725554003933
      ],
      [
        "gin",
        -10.639858971256352
      ],
      [
        "Ġprima",
        -10.640237153367316
      ],
      [
        "Ġonda",
        -10.640275398488363
      ],
      [
        "ĠVirgi",
        -10.640289556352958
      ],
      [
        "conclusa",
        -10.640421564507902
      ],
      [
        "Ġregistrar",
        -10.64072028979358
      ],
      [
        "Ġterceira",
        -10.640789482431927
      ],
      [
        "hei",
        -10.640860133210696
      ],
      [
        "micas",
        -10.641680500575385
      ],
      [
        "Ġesco",
        -10.64253776275955
      ],
      [
        "ĠExe",
        -10.642981670280964
      ],
      [
        "Outra",
        -10.64315369195856
      ],
      [
        "ĠMello",
        -10.643832476852124
      ],
      [
        "ESTADO",
        -10.643848372108431
      ],
      [
        "Ġselec",
        -10.64479644673298
      ],
      [
        "Ġdanc",
        -10.644889067522277
      ],
      [
        "funcionamento",
        -10.645148328462888
      ],
      [
        "Ġdiploma",
        -10.645623994684753
      ],
      [
        "ĠEspanha",
        -10.64623923141336
      ],
      [
        "Ġauxi",
        -10.646301344667645
      ],
      [
        "Ġinteiro",
        -10.646699309231966
      ],
      [
        "Ġpersonagem",
        -10.64690299801751
      ],
      [
        "Ġsabia",
        -10.647116183869608
      ],
      [
        "Ġveja",
        -10.648285637446604
      ],
      [
        "Ġmorreu",
        -10.648548966445793
      ],
      [
        "Ġproduzir",
        -10.648586719319312
      ],
      [
        "Ġquiser",
        -10.64893501700594
      ],
      [
        "vendo",
        -10.649513330024142
      ],
      [
        "Embora",
        -10.650071386833984
      ],
      [
        "Ġreferente",
        -10.650529174248105
      ],
      [
        "Ġprefeito",
        -10.651185728807716
      ],
      [
        "sicos",
        -10.652423955343243
      ],
      [
        "Ġsenti",
        -10.652588834916152
      ],
      [
        "Ġtende",
        -10.653926137663644
      ],
      [
        "policiais",
        -10.65415334343306
      ],
      [
        "Pont",
        -10.654184567133017
      ],
      [
        "Ġpermanente",
        -10.65490803526999
      ],
      [
        "trinta",
        -10.65523192171042
      ],
      [
        "cadas",
        -10.655447673566638
      ],
      [
        "ĠVida",
        -10.6557188131637
      ],
      [
        "Ġnove",
        -10.656549989684592
      ],
      [
        "Ġinu",
        -10.656934834667084
      ],
      [
        "geralmente",
        -10.656985267471471
      ],
      [
        "Ġdeterminado",
        -10.657044184960853
      ],
      [
        "2002",
        -10.65786895969314
      ],
      [
        "Ġcampea",
        -10.65852861535766
      ],
      [
        "Ġadministrativo",
        -10.658853095688452
      ],
      [
        "tio",
        -10.659433247782877
      ],
      [
        "suspensa",
        -10.659924094436864
      ],
      [
        "Ġcrista",
        -10.66001469202821
      ],
      [
        "Ġdestaca",
        -10.660278338072278
      ],
      [
        "Ġadolescente",
        -10.66059928293426
      ],
      [
        "ĠYork",
        -10.6608116180097
      ],
      [
        "ĠMartins",
        -10.661108016986706
      ],
      [
        "Ġcima",
        -10.66127227876634
      ],
      [
        "ĠMc",
        -10.662605155972464
      ],
      [
        "Assunto",
        -10.662755105559146
      ],
      [
        "ĠMuseu",
        -10.662840421355591
      ],
      [
        "mantid",
        -10.663921578697876
      ],
      [
        "Ġatende",
        -10.664002300066064
      ],
      [
        "ĠMelhor",
        -10.664216898939143
      ],
      [
        "lico",
        -10.664264734789294
      ],
      [
        "Sarney",
        -10.664883308484054
      ],
      [
        "Ġaquilo",
        -10.665534462523263
      ],
      [
        "fizeram",
        -10.665604011313162
      ],
      [
        "Ġservi",
        -10.665679518031926
      ],
      [
        "ĠParte",
        -10.665830800761318
      ],
      [
        "presidente",
        -10.666048516228388
      ],
      [
        "Ġpensar",
        -10.666289197929755
      ],
      [
        "Couto",
        -10.66646279696412
      ],
      [
        "Ġresulta",
        -10.666945076556445
      ],
      [
        "Bibliografia",
        -10.667533501558664
      ],
      [
        "ficos",
        -10.667912807091025
      ],
      [
        "Ġamplia",
        -10.66804011582627
      ],
      [
        "STF",
        -10.668104574370693
      ],
      [
        "Ġ1992",
        -10.669190593444236
      ],
      [
        "Ġdomi",
        -10.66920607333278
      ],
      [
        "Ġprivada",
        -10.669754103601925
      ],
      [
        "Pernambuco",
        -10.669918603982977
      ],
      [
        "Ġprofessores",
        -10.66993058693997
      ],
      [
        "ĠConstitui",
        -10.670142260833748
      ],
      [
        "ĠNota",
        -10.671212580268932
      ],
      [
        "Ġmostrar",
        -10.671241768571786
      ],
      [
        "ĠAntes",
        -10.67201495127117
      ],
      [
        "ĠFac",
        -10.67221290021662
      ],
      [
        "dig",
        -10.672256953529724
      ],
      [
        "Ġpressa",
        -10.672313269331246
      ],
      [
        "Ġintenc",
        -10.672321147632168
      ],
      [
        "Ġpaz",
        -10.672439465529168
      ],
      [
        "Ġ1913",
        -10.672961348201028
      ],
      [
        "estudantes",
        -10.67323001416966
      ],
      [
        "Ġconsumidor",
        -10.673370043484637
      ],
      [
        "Ġenorme",
        -10.67444535489097
      ],
      [
        "ĠAgricultura",
        -10.674971713209803
      ],
      [
        "Ġcorrente",
        -10.675065042835548
      ],
      [
        "ĠMonte",
        -10.675742621489142
      ],
      [
        "terminou",
        -10.67645713593927
      ],
      [
        "ĠEdita",
        -10.676874284775351
      ],
      [
        "Ġestac",
        -10.677103931173797
      ],
      [
        "ĠPiaui",
        -10.677552379913257
      ],
      [
        "Ġfamiliar",
        -10.677622695266525
      ],
      [
        "ĠEsper",
        -10.678303999192092
      ],
      [
        "Ġclara",
        -10.6791458110175
      ],
      [
        "Ġparcela",
        -10.679551842664504
      ],
      [
        "Ġlonga",
        -10.679649303854582
      ],
      [
        "Vieira",
        -10.679885864379465
      ],
      [
        "Ġdeseja",
        -10.68001458290142
      ],
      [
        "ĠReuni",
        -10.680689174309189
      ],
      [
        "Ġinterpretac",
        -10.6812607841474
      ],
      [
        "ĠYa",
        -10.681615099093932
      ],
      [
        "tava",
        -10.68175683108317
      ],
      [
        "vit",
        -10.682010481499924
      ],
      [
        "Ġobservado",
        -10.682324499479728
      ],
      [
        "nanimidade",
        -10.682350627615016
      ],
      [
        "Ġcompetente",
        -10.683436938126542
      ],
      [
        "Estatuto",
        -10.683784780502757
      ],
      [
        "Ġjeito",
        -10.6839221204474
      ],
      [
        "Ġ200",
        -10.68472802037701
      ],
      [
        "companheiro",
        -10.686196819387836
      ],
      [
        "ĠNovo",
        -10.686474541781948
      ],
      [
        "Ġvolume",
        -10.686568183933243
      ],
      [
        "versa",
        -10.687353404715756
      ],
      [
        "Ġviolac",
        -10.687385040653634
      ],
      [
        "ĠParece",
        -10.687857673790498
      ],
      [
        "usou",
        -10.68857579702086
      ],
      [
        "Ġsenador",
        -10.688850715965213
      ],
      [
        "Ġmilha",
        -10.688880937812645
      ],
      [
        "ĠCD",
        -10.689240967042071
      ],
      [
        "Ġplanta",
        -10.689511573800274
      ],
      [
        "Ġinferior",
        -10.689868960589015
      ],
      [
        "·",
        -10.690248859736146
      ],
      [
        "Ġmensagem",
        -10.690307432520914
      ],
      [
        "Ġanteriores",
        -10.690936461593289
      ],
      [
        "Ġbatalha",
        -10.691353181075431
      ],
      [
        "Ġtivesse",
        -10.691517878424388
      ],
      [
        "Ġimpe",
        -10.6918403830963
      ],
      [
        "Ġofens",
        -10.692129824091552
      ],
      [
        "ĠMachado",
        -10.6921630369891
      ],
      [
        "Ġinicia",
        -10.692738428156636
      ],
      [
        "usando",
        -10.692770938231796
      ],
      [
        "Ġconvenc",
        -10.693794377937742
      ],
      [
        "Ġcinema",
        -10.693922788065407
      ],
      [
        "Ġrepresentac",
        -10.693985825625564
      ],
      [
        "todo",
        -10.69413257050318
      ],
      [
        "Ġindividual",
        -10.696202430559724
      ],
      [
        "recebido",
        -10.696303869796152
      ],
      [
        "emendas",
        -10.696592505215614
      ],
      [
        "PLS",
        -10.697576781779755
      ],
      [
        "erra",
        -10.69764222848807
      ],
      [
        "ncipe",
        -10.697809840320538
      ],
      [
        "aposentadoria",
        -10.698088498766282
      ],
      [
        "ĠCultural",
        -10.698303912402327
      ],
      [
        "âĢĵâĢĵâĢĵâĢĵâĢĵ",
        -10.698444955821856
      ],
      [
        "Ġindivi",
        -10.698557773812643
      ],
      [
        "Ġintegral",
        -10.69866016315469
      ],
      [
        "Ġaberta",
        -10.699146160011567
      ],
      [
        "ĠPala",
        -10.700131407159905
      ],
      [
        "Ġfrequ",
        -10.701123908405838
      ],
      [
        "Ġpromoc",
        -10.70114449769913
      ],
      [
        "Ġrealiza",
        -10.701344057972126
      ],
      [
        "Ġaceita",
        -10.70160918870308
      ],
      [
        "Ġindo",
        -10.702648840306558
      ],
      [
        "ĠWilliam",
        -10.703037668536108
      ],
      [
        "produtores",
        -10.703662057917054
      ],
      [
        "Ġcaixa",
        -10.704158109645704
      ],
      [
        "Ġolhos",
        -10.704291628511646
      ],
      [
        "Ġpassando",
        -10.704356575723445
      ],
      [
        "Ġaltura",
        -10.704883738862074
      ],
      [
        "HC",
        -10.705459340040164
      ],
      [
        "desafio",
        -10.705594235279568
      ],
      [
        "Ġilha",
        -10.705947916317731
      ],
      [
        "ĠPare",
        -10.706891578055656
      ],
      [
        "timas",
        -10.707618033156006
      ],
      [
        "Ġage",
        -10.708275148043338
      ],
      [
        "Ġclima",
        -10.708518593408645
      ],
      [
        "Candido",
        -10.709177844754308
      ],
      [
        "Ġcircunsta",
        -10.70949613703672
      ],
      [
        "Ġacontecer",
        -10.710924038229193
      ],
      [
        "aproximadamente",
        -10.712218081167716
      ],
      [
        "Ġsentenc",
        -10.712296096865972
      ],
      [
        "hon",
        -10.712423739399709
      ],
      [
        "ling",
        -10.713309790091332
      ],
      [
        "casamento",
        -10.71337051263417
      ],
      [
        "posic",
        -10.71343189677784
      ],
      [
        "mil",
        -10.713552089301144
      ],
      [
        "Ġtirar",
        -10.71374218577263
      ],
      [
        "MAN",
        -10.713831901768284
      ],
      [
        "Ġtamanho",
        -10.715156692912975
      ],
      [
        "postos",
        -10.715468183192856
      ],
      [
        "ĠCapita",
        -10.716149079462138
      ],
      [
        "Ġparticipou",
        -10.71620164516367
      ],
      [
        "aspectos",
        -10.71784191747411
      ],
      [
        "quina",
        -10.718034522053491
      ],
      [
        "Ġganhar",
        -10.718210336934575
      ],
      [
        "Mesmo",
        -10.718331684098825
      ],
      [
        "conduta",
        -10.719485269989242
      ],
      [
        "Ġrepercuss",
        -10.71972838491817
      ],
      [
        "ĠIndu",
        -10.719974270733786
      ],
      [
        "ĠMauro",
        -10.720089467411324
      ],
      [
        "true",
        -10.72014599112414
      ],
      [
        "rinha",
        -10.720416284763724
      ],
      [
        "Ġpotencial",
        -10.720789090376911
      ],
      [
        "Ġquerem",
        -10.720984279953989
      ],
      [
        "Ġchance",
        -10.721066941158965
      ],
      [
        "Ġcoloca",
        -10.722123977535109
      ],
      [
        "iretrizes",
[...]
