{
  "version": "1.0",
  "truncation": {
    "direction": "Right",
    "max_length": 1024,
    "strategy": "LongestFirst",
    "stride": 0
  },
  "padding": null,
  "added_tokens": [
    {
      "id": 0,
      "content": "[PAD]",
      "single_word": false,
      "lstrip": false,
      "rstrip": false,
      "normalized": false,
      "special": true
    },
    {
      "id": 1,
      "content": "[SEP]",
      "single_word": false,
      "lstrip": false,
      "rstrip": false,
      "normalized": false,
      "special": true
    },
    {
      "id": 2,
      "content": "[EOS]",
      "single_word": false,
      "lstrip": false,
      "rstrip": false,
      "normalized": false,
      "special": true
    },
    {
      "id": 3,
      "content": "[UNK]",
      "single_word": false,
      "lstrip": false,
      "rstrip": false,
      "normalized": false,
      "special": true
    }
  ],
  "normalizer": {
    "type": "Sequence",
    "normalizers": [
      {
        "type": "Strip",
        "strip_left": true,
        "strip_right": true
      },
      {
        "type": "NFD"
      }
    ]
  },
  "pre_tokenizer": {
    "type": "ByteLevel",
    "add_prefix_space": true,
    "trim_offsets": true,
    "use_regex": true
  },
  "post_processor": {
    "type": "Sequence",
    "processors": [
      {
        "type": "ByteLevel",
        "add_prefix_space": true,
        "trim_offsets": true,
        "use_regex": true
      },
      {
        "type": "TemplateProcessing",
        "single": [
          {
            "Sequence": {
              "id": "A",
              "type_id": 0
            }
          },
          {
            "SpecialToken": {
              "id": "[EOS]",
              "type_id": 0
            }
          }
        ],
        "pair": [
          {
            "Sequence": {
              "id": "A",
              "type_id": 0
            }
          },
          {
            "SpecialToken": {
              "id": "[SEP]",
              "type_id": 0
            }
          },
          {
            "Sequence": {
              "id": "B",
              "type_id": 0
            }
          },
          {
            "SpecialToken": {
              "id": "[EOS]",
              "type_id": 0
            }
          }
        ],
        "special_tokens": {
          "[EOS]": {
            "id": "[EOS]",
            "ids": [
              2
            ],
            "tokens": [
              "[EOS]"
            ]
          },
          "[SEP]": {
            "id": "[SEP]",
            "ids": [
              1
            ],
            "tokens": [
              "[SEP]"
            ]
          }
        }
      }
    ]
  },
  "decoder": {
    "type": "ByteLevel",
    "add_prefix_space": true,
    "trim_offsets": true,
    "use_regex": true
  },
  "model": {
    "type": "Unigram",
    "unk_id": 3,
    "vocab": [
      [
        "[PAD]",
        0.0
      ],
      [
        "[SEP]",
        0.0
      ],
      [
        "[EOS]",
        0.0
      ],
      [
        "[UNK]",
        0.0
      ],
      [
        "Ġ",
        -2.2086267419274463
      ],
      [
        "o",
        -3.0257065373869274
      ],
      [
        "a",
        -3.111667673209631
      ],
      [
        "s",
        -3.2844565757492497
      ],
      [
        ",",
        -3.3972547670036306
      ],
      [
        "Ìģ",
        -3.462367474490218
      ],
      [
        "e",
        -3.5426365280681367
      ],
      [
        ".",
        -3.620835476582325
      ],
      [
        "Ġde",
        -3.732888710067666
      ],
      [
        "Ìĥ",
        -3.7829122045309305
      ],
      [
        "Ì§",
        -4.221344625483656
      ],
      [
        "-",
        -4.676524746857893
      ],
      [
        "Ġque",
        -4.7036511425658105
      ],
      [
        "Ġdo",
        -4.722541965450127
      ],
      [
        "r",
        -4.8205926769927245
      ],
      [
        "Ġda",
        -4.877214402719208
      ],
      [
        "u",
        -4.9208403973498065
      ],
      [
        "m",
        -4.9706695326259265
      ],
      [
        "ÌĤ",
        -5.08823533507109
      ],
      [
        "c",
        -5.127894248336936
      ],
      [
        "Ġna",
        -5.233926163917797
      ],
      [
        "n",
        -5.258838668756869
      ],
      [
        "i",
        -5.269511387911411
      ],
      [
        "Ġem",
        -5.298009308058891
      ],
      [
        "O",
        -5.306148327515672
      ],
      [
        "\"",
        -5.351141292788739
      ],
      [
        "(",
        -5.406573434014593
      ],
      [
        "Ġpara",
        -5.502927083071796
      ],
      [
        "l",
        -5.512698586253773
      ],
      [
        "Ġcom",
        -5.623018205681561
      ],
      [
        "Ġno",
        -5.639921861773871
      ],
      [
        ")",
        -5.661657781318567
      ],
      [
        "t",
        -5.694027627642221
      ],
      [
        "ĠA",
        -5.747914858791088
      ],
      [
        ":",
        -5.8449414966877065
      ],
      [
        "Ġum",
        -5.857142880392285
      ],
      [
        "ĠâĢĵ",
        -5.882133599168352
      ],
      [
        "/",
        -5.886765309159255
      ],
      [
        "d",
        -6.068869947135179
      ],
      [
        "do",
        -6.090735925030945
      ],
      [
        "Ġuma",
        -6.095656587562061
      ],
      [
        "Ġpor",
        -6.110635494253298
      ],
      [
        "Ġse",
        -6.126259135508512
      ],
      [
        "A",
        -6.1396635974539
      ],
      [
        "ncia",
        -6.173270800690615
      ],
      [
        "p",
        -6.198220851383352
      ],
      [
        "ÌĢ",
        -6.2340078114998505
      ],
      [
        "da",
        -6.323133681424183
      ],
      [
        "rio",
        -6.329365937776622
      ],
      [
        "ria",
        -6.333519962958594
      ],
      [
        "ĠE",
        -6.348301028358653
      ],
      [
        "Ġdos",
        -6.429506787027369
      ],
      [
        "g",
        -6.466572966404666
      ],
      [
        "2",
        -6.4936165052753
      ],
      [
        "?",
        -6.532789400555307
      ],
      [
        "Ġcomo",
        -6.540369580608319
      ],
      [
        "7",
        -6.579626716551855
      ],
      [
        "de",
        -6.591923057707522
      ],
      [
        "3",
        -6.5970678924405455
      ],
      [
        "Ġesta",
        -6.606980536982446
      ],
      [
        "b",
        -6.6128117294395246
      ],
      [
        "ndo",
        -6.62197655603479
      ],
      [
        "C",
        -6.6338681929301
      ],
      [
        "Ġfoi",
        -6.634229900246385
      ],
      [
        "S",
        -6.665060270256706
      ],
      [
        "5",
        -6.679509761760695
      ],
      [
        "!",
        -6.69424820153009
      ],
      [
        "Ġmais",
        -6.702478276214036
      ],
      [
        "Ġou",
        -6.74401255079497
      ],
      [
        "8",
        -6.760928619843385
      ],
      [
        "ĠNa",
        -6.821125997877733
      ],
      [
        ";",
        -6.8322519665843515
      ],
      [
        "h",
        -6.842617308709784
      ],
      [
        "Ġpela",
        -6.848308738557083
      ],
      [
        "ĠDE",
        -6.855648525684893
      ],
      [
        "ĠnÂº",
        -6.869695593865849
      ],
      [
        "f",
        -6.914227471596899
      ],
      [
        "Ġpelo",
        -6.917802935527996
      ],
      [
        "na",
        -6.935611402848522
      ],
      [
        "Ġsua",
        -6.936148135461176
      ],
      [
        "ti",
        -6.955255251769852
      ],
      [
        "Ġ1",
        -6.9664956671362415
      ],
      [
        "................",
        -6.974905975343441
      ],
      [
        "Ġser",
        -6.987935895306013
      ],
      [
        "y",
        -6.989792886641347
      ],
      [
        "ĠSr",
        -7.008359468515005
      ],
      [
        "Âº",
        -7.018731361578569
      ],
      [
        "Ġdas",
        -7.031139971470578
      ],
      [
        "6",
        -7.078732776641759
      ],
      [
        "Ġsobre",
        -7.090878764321156
      ],
      [
        "ri",
        -7.09743119343784
      ],
      [
        "...",
        -7.105362865481762
      ],
      [
        "te",
        -7.1151328743440025
      ],
      [
        "Ġme",
        -7.133615734923376
      ],
      [
        "9",
        -7.1372583852381055
      ],
      [
        "z",
        -7.1556105994927535
      ],
      [
        "va",
        -7.1796558381369895
      ],
      [
        "dos",
        -7.180260206194644
      ],
      [
        "ĠâĢľ",
        -7.184511030070043
      ],
      [
        "mente",
        -7.187186782733306
      ],
      [
        "Ġseu",
        -7.188287508202224
      ],
      [
        "vel",
        -7.209340495254731
      ],
      [
        "ĠPresidente",
        -7.239809718735366
      ],
      [
        "mos",
        -7.249121555246191
      ],
      [
        "1",
        -7.269542012278153
      ],
      [
        "la",
        -7.275065302987317
      ],
      [
        "Ġtambe",
        -7.27809914961888
      ],
      [
        "k",
        -7.278933503591032
      ],
      [
        "ĠLei",
        -7.304222870698947
      ],
      [
        "ĠEm",
        -7.306389597604431
      ],
      [
        "ĠI",
        -7.354306835669895
      ],
      [
        "Ġre",
        -7.368316309328426
      ],
      [
        "ĠCa",
        -7.370302971278651
      ],
      [
        "Ġpro",
        -7.378451017058529
      ],
      [
        "ĠDeputado",
        -7.38118190264837
      ],
      [
        "ni",
        -7.381359110205336
      ],
      [
        "D",
        -7.386196108545521
      ],
      [
        "cio",
        -7.386518365629724
      ],
      [
        "Ġtem",
        -7.391415595553706
      ],
      [
        "Ġ19",
        -7.395923255528906
      ],
      [
        "Ġnos",
        -7.402046661856687
      ],
      [
        "Ġmas",
        -7.40967809477759
      ],
      [
        "Ġele",
        -7.417382355123504
      ],
      [
        "ram",
        -7.419851131055404
      ],
      [
        "U",
        -7.442333936743886
      ],
      [
        "tica",
        -7.466300129860139
      ],
      [
        "L",
        -7.471132772090108
      ],
      [
        "M",
        -7.480372951071773
      ],
      [
        "P",
        -7.5050216766543905
      ],
      [
        "Ġart",
        -7.513235624069797
      ],
      [
        "ĠSR",
        -7.525103799077192
      ],
      [
        "4",
        -7.530591178419248
      ],
      [
        "R",
        -7.5320297474502595
      ],
      [
        "li",
        -7.53751418843914
      ],
      [
        "ĠSa",
        -7.540675757987264
      ],
      [
        "Ġpu",
        -7.541788300332165
      ],
      [
        "ĠFederal",
        -7.544198613063669
      ],
      [
        "),",
        -7.54665488175538
      ],
      [
        "em",
        -7.547366481566149
      ],
      [
        "v",
        -7.54787715201126
      ],
      [
        "ĠNo",
        -7.549196800657496
      ],
      [
        "Ġte",
        -7.550424613575759
      ],
      [
        "E",
        -7.556219306979603
      ],
      [
        "Ġisso",
        -7.558881438283533
      ],
      [
        "das",
        -7.562402857556547
      ],
      [
        "Ġvoce",
        -7.562813955352221
      ],
      [
        "rios",
        -7.567842203306869
      ],
      [
        "ĠS",
        -7.568887385045235
      ],
      [
        "ĠNÂº",
        -7.574067719355059
      ],
      [
        "ve",
        -7.574520853221776
      ],
      [
        "ncias",
        -7.5756373061066355
      ],
      [
        "I",
        -7.582002806364921
      ],
      [
        "B",
        -7.587426133380205
      ],
      [
        "Ġanos",
        -7.589762387598004
      ],
      [
        "ĠBrasil",
        -7.597459327294635
      ],
      [
        "ĠEstado",
        -7.598071122046809
      ],
      [
        "ĠSenador",
        -7.607588452853799
      ],
      [
        ").",
        -7.643522028552775
      ],
      [
        "Ġate",
        -7.645037049413853
      ],
      [
        "x",
        -7.645987356044643
      ],
      [
        "ĠEu",
        -7.65643966601646
      ],
      [
        "T",
        -7.659021984852522
      ],
      [
        "Ġentre",
        -7.672795395484451
      ],
      [
        "que",
        -7.674631533493153
      ],
      [
        "lia",
        -7.676004123589058
      ],
      [
        "Ġmuito",
        -7.678751469952404
      ],
      [
        "no",
        -7.684362478965355
      ],
      [
        "Ġaos",
        -7.6857082976333775
      ],
      [
        "ĠV",
        -7.6878587949200945
      ],
      [
        "ĠSe",
        -7.691975429347501
      ],
      [
        "ba",
        -7.694103735899248
      ],
      [
        "in",
        -7.699518344918339
      ],
      [
        "idade",
        -7.704370386158635
      ],
      [
        "Ġma",
        -7.7071401119743665
      ],
      [
        "Ġja",
        -7.709575708860333
      ],
      [
        "vi",
        -7.731708877117501
      ],
      [
        "%",
        -7.74399034459282
      ],
      [
        "F",
        -7.754173742496089
      ],
      [
        "blica",
        -7.756353988156608
      ],
      [
        "N",
        -7.764026007177224
      ],
      [
        "Ġ4",
        -7.767105747367816
      ],
      [
        "w",
        -7.768694579301478
      ],
      [
        "ĠDe",
        -7.77577735986887
      ],
      [
        "ter",
        -7.786748567628361
      ],
      [
        "0",
        -7.796022620948905
      ],
      [
        "ĠComissa",
        -7.79668543880717
      ],
      [
        "cia",
        -7.801874523871481
      ],
      [
        "j",
        -7.802624402359783
      ],
      [
        "nte",
        -7.8039974933845215
      ],
      [
        "Ġbem",
        -7.820915801778742
      ],
      [
        "Ġforma",
        -7.822251462401381
      ],
      [
        "Ġpode",
        -7.859911734490168
      ],
      [
        "Ġcontra",
        -7.863125615701231
      ],
      [
        "dia",
        -7.864690323718348
      ],
      [
        "gu",
        -7.877074366288882
      ],
      [
        "Ġquando",
        -7.877644173657776
      ],
      [
        "Ġco",
        -7.890688067239136
      ],
      [
        "ci",
        -7.902892828481788
      ],
      [
        "Ġaqui",
        -7.9052502388835
      ],
      [
        "Ġ6",
        -7.908421602666911
      ],
      [
        "Ġmesmo",
        -7.910385186112146
      ],
      [
        "ĠNacional",
        -7.920998803710148
      ],
      [
        "Ġpoli",
        -7.92464898812494
      ],
      [
        "G",
        -7.929357931273598
      ],
      [
        "Ġdia",
        -7.935196921189084
      ],
      [
        "ĠÂ§",
        -7.961360698992596
      ],
      [
        "Ġsem",
        -7.964227740034923
      ],
      [
        "Ġ10",
        -7.965047391967147
      ],
      [
        "Ġpre",
        -7.96807609837067
      ],
      [
        "Ġtodos",
        -7.972217514363008
      ],
      [
        "Ġha",
        -7.974520948896027
      ],
      [
        "Ġpai",
        -7.977044406736784
      ],
      [
        "Ġter",
        -7.981910658298345
      ],
      [
        "Ġainda",
        -7.982835250939143
      ],
      [
        "Ġca",
        -7.98379731535511
      ],
      [
        "Ġ18",
        -7.998830380259042
      ],
      [
        "dio",
        -8.001563013712989
      ],
      [
        "min",
        -8.005214874008752
      ],
      [
        "ĠMa",
        -8.005803819245335
      ],
      [
        "Ġin",
        -8.007764690352417
      ],
      [
        "ĠOs",
        -8.015498287618733
      ],
      [
        "Ġera",
        -8.024167058221828
      ],
      [
        "Ġseus",
        -8.030950645461324
      ],
      [
        "âĢĿ.",
        -8.038335109111484
      ],
      [
        "ĠPor",
        -8.040616660343254
      ],
      [
        "Ġcidade",
        -8.04302860984567
      ],
      [
        "Ġparte",
        -8.05213349781759
      ],
      [
        "ĠR",
        -8.056407877094458
      ],
      [
        "Ġano",
        -8.060290089209078
      ],
      [
        "Ġvi",
        -8.063801862498833
      ],
      [
        "ES",
        -8.064369673517328
      ],
      [
        "Ġforam",
        -8.067536583924236
      ],
      [
        "ĠRe",
        -8.068719605645517
      ],
      [
        "Ġfazer",
        -8.07617792962175
      ],
      [
        "Ġex",
        -8.080171390108468
      ],
      [
        "ĠPaulo",
        -8.081055493604012
      ],
      [
        "Ġcaso",
        -8.088194821619837
      ],
      [
        "Ġta",
        -8.091816102159939
      ],
      [
        "ĠB",
        -8.110762086299157
      ],
      [
        "ĠCom",
        -8.115842052194743
      ],
      [
        "Ġservic",
        -8.116933860244684
      ],
      [
        "ĠPL",
        -8.118215427140598
      ],
      [
        "rias",
        -8.119085370335759
      ],
      [
        "Ġesse",
        -8.121972423585044
      ],
      [
        "V",
        -8.124738892344054
      ],
      [
        "ĠCo",
        -8.12760666651688
      ],
      [
        "fi",
        -8.130610257169689
      ],
      [
        "Ġessa",
        -8.143258161000562
      ],
      [
        "ĠLi",
        -8.155952295701667
      ],
      [
        "tra",
        -8.160102150050573
      ],
      [
        "Ġseja",
        -8.161921043951244
      ],
      [
        "Ġtempo",
        -8.168531459743951
      ],
      [
        "'",
        -8.169397564288218
      ],
      [
        "Ġva",
        -8.1714703366751
      ],
      [
        "ĠPara",
        -8.171519775731785
      ],
      [
        "ĠPROJETO",
        -8.179273495478533
      ],
      [
        "pi",
        -8.190945799513885
      ],
      [
        "Ġporque",
        -8.191030236574383
      ],
      [
        "ĠEsta",
        -8.191379383683906
      ],
      [
        "Ġvai",
        -8.193406240722654
      ],
      [
        "ir",
        -8.194957763667228
      ],
      [
        "ĠLEI",
        -8.19696657275184
      ],
      [
        "Ġmeu",
        -8.208697765091445
      ],
      [
        "mara",
        -8.209613514436183
      ],
      [
        "nico",
        -8.216157776475901
      ],
      [
        "nia",
        -8.220094463620274
      ],
      [
        "ĠPRESIDENTE",
        -8.221022613018015
      ],
      [
        "Ġela",
        -8.22428576819705
      ],
      [
        "ĠEle",
        -8.227847341050788
      ],
      [
        "Ġprimeiro",
        -8.22899282492619
      ],
      [
        "ĠP",
        -8.229528616086009
      ],
      [
        "veis",
        -8.229968217095188
      ],
      [
        "H",
        -8.23001533575612
      ],
      [
        "pio",
        -8.231220122533035
      ],
      [
        "res",
        -8.235175470121982
      ],
      [
        "ĠDeputados",
        -8.238387433134715
      ],
      [
        "ĠMas",
        -8.238465960447368
      ],
      [
        "Ġsera",
        -8.245727682341775
      ],
      [
        "ĠMe",
        -8.24713764253473
      ],
      [
        "Ġpa",
        -8.24774899805031
      ],
      [
        "bi",
        -8.252188833039966
      ],
      [
        "der",
        -8.25572113482566
      ],
      [
        "Ġonde",
        -8.260014919338166
      ],
      [
        "ĠGoverno",
        -8.26216432446914
      ],
      [
        "ĠT",
        -8.262739858867906
      ],
      [
        "ĠMinistro",
        -8.265531751419203
      ],
      [
        "gi",
        -8.26842448783868
      ],
      [
        "ch",
        -8.271261490968502
      ],
      [
        "ĠVoce",
        -8.272544248875228
      ],
      [
        "ĠConstituic",
        -8.27356586068735
      ],
      [
        "âĢĿ",
        -8.280887716121677
      ],
      [
        "mento",
        -8.285819065399734
      ],
      [
        "Ġpessoas",
        -8.290819399557476
      ],
      [
        "19",
        -8.292490525848784
      ],
      [
        "amento",
        -8.293888651845355
      ],
      [
        "ĠDo",
        -8.296887772436225
      ],
      [
        "Ġvez",
        -8.297601259873101
      ],
      [
        "Ġgrande",
        -8.298500373964899
      ],
      [
        "Ġartigo",
        -8.304691454419402
      ],
      [
        "ĠHa",
        -8.305904117680472
      ],
      [
        "00",
        -8.306630443502415
      ],
      [
        "Ġoutros",
        -8.309952627347755
      ],
      [
        "Ġcon",
        -8.31074815601793
      ],
      [
        "Ġ12",
        -8.311633217807696
      ],
      [
        "Ġtrabalho",
        -8.322946974207563
      ],
      [
        "Ġapenas",
        -8.326776324125396
      ],
      [
        "Ġ11",
        -8.332055794624415
      ],
      [
        "blico",
        -8.333858239253049
      ],
      [
        "Ġoutras",
        -8.336732234540635
      ],
      [
        "Ġ15",
        -8.339773677806434
      ],
      [
        "ĠMo",
        -8.342003744050356
      ],
      [
        "ĠRELATOR",
        -8.34578301057483
      ],
      [
        "Ġeste",
        -8.34799016540075
      ],
      [
        "ver",
        -8.348270649737644
      ],
      [
        "tro",
        -8.350324920472842
      ],
      [
        "Ġdois",
        -8.350532852424285
      ],
      [
        "ĠArt",
        -8.352337013924116
      ],
      [
        "Âª",
        -8.352511371556286
      ],
      [
        "Ġseguinte",
        -8.360526386021808
      ],
      [
        "ĠU",
        -8.361460226283047
      ],
      [
        "Ġsendo",
        -8.36338328717504
      ],
      [
        "Ġlei",
        -8.364529358779537
      ],
      [
        "tico",
        -8.365059833870879
      ],
      [
        "rea",
        -8.366001638328715
      ],
      [
        "ĠRefere",
        -8.372032721010685
      ],
      [
        "tar",
        -8.37600464097949
      ],
      [
        "um",
        -8.376392896703653
      ],
      [
        "ntes",
        -8.38019886340918
      ],
      [
        "Ġordem",
        -8.38200597147055
      ],
      [
        "ĠRio",
        -8.382647548400422
      ],
      [
        "Ġnosso",
        -8.385546793329997
      ],
      [
        "ĠProjeto",
        -8.39190255309642
      ],
      [
        "ĠII",
        -8.397680627669265
      ],
      [
        "Ġnu",
        -8.398815414559685
      ],
      [
        "ĠG",
        -8.399677250397422
      ],
      [
        "Ġfa",
        -8.40141147245335
      ],
      [
        "ge",
        -8.401432909519212
      ],
      [
        "Ġapo",
        -8.402437041615956
      ],
      [
        "ĠPai",
        -8.405418622826026
      ],
      [
        "sta",
        -8.40767193620202
      ],
      [
        "nha",
        -8.408667526708864
      ],
      [
        "ĠJa",
        -8.410941672220462
      ],
      [
        "Ġminha",
        -8.416015649648008
      ],
      [
        "Ġsuas",
        -8.420310775390167
      ],
      [
        "ĠCasa",
        -8.422126674701891
      ],
      [
        "Ġmaior",
        -8.422668388691621
      ],
      [
        "Ġfi",
        -8.426088590781513
      ],
      [
        "Ġhoje",
        -8.426512687358317
      ],
      [
        "ja",
        -8.432657838566296
      ],
      [
        "ita",
        -8.433570061152874
      ],
      [
        "Ġtermos",
        -8.435805925426685
      ],
      [
        "ng",
        -8.441613324880663
      ],
      [
        "Ġprocesso",
        -8.443458598671583
      ],
      [
        "Ġassim",
        -8.447216966663506
      ],
      [
        "Ġmeio",
        -8.448125360565026
      ],
      [
        "nio",
        -8.4482607069787
      ],
      [
        "ĠDO",
        -8.448716063881323
      ],
      [
        "ĠW",
        -8.449331065022218
      ],
      [
        "Ġ16",
        -8.452337350599036
      ],
      [
        "Ġ17",
        -8.4552264566172
      ],
      [
        "Ġprojeto",
        -8.455234359521778
      ],
      [
        "ĠJose",
        -8.456971795518898
      ],
      [
        "Ġdesta",
        -8.45948931154076
      ],
      [
        "Ġ20",
        -8.459535266821746
      ],
      [
        "ĠCon",
        -8.460218877473327
      ],
      [
        "PSDB",
        -8.4720627281477
      ],
      [
        "ĠD",
        -8.474951661855298
      ],
      [
        "10",
        -8.477494308890888
      ],
      [
        "Ġqual",
        -8.478728980215116
      ],
      [
        "ĠPu",
        -8.480211911833704
      ],
      [
        "br",
        -8.485967306793315
      ],
      [
        "ĠRo",
        -8.48641706518139
      ],
      [
        "Ġto",
        -8.489415198703941
      ],
      [
        "ĠLa",
        -8.491396512083078
      ],
      [
        "ĠRa",
        -8.493208866259824
      ],
      [
        "Ġpo",
        -8.494873947593145
      ],
      [
        "ĠSenado",
        -8.498521624385637
      ],
      [
        "Ġpra",
        -8.501636573897231
      ],
      [
        "Ġdireito",
        -8.503053374100084
      ],
      [
        "ĠJu",
        -8.503543101199375
      ],
      [
        "Ġmi",
        -8.504036990269796
      ],
      [
        "ĠDA",
        -8.505233101799313
      ],
      [
        "man",
        -8.50713722596166
      ],
      [
        "enta",
        -8.509634069964221
      ],
      [
        "rito",
        -8.514190936476236
      ],
      [
        "Ġ13",
        -8.515481538816166
      ],
      [
        "Ġmu",
        -8.516646393593078
      ],
      [
        "nica",
        -8.517489571735455
      ],
      [
        "Ġprimeira",
        -8.519221107233669
      ],
      [
        "Ġnome",
        -8.520531523150524
      ],
      [
        "Ġtra",
        -8.522722982989754
      ],
      [
        "Ġdeste",
        -8.525750829646812
      ],
      [
        "Ġla",
        -8.52617491531282
      ],
      [
        "$",
        -8.52628439060328
      ],
      [
        "Ġli",
        -8.526447533240995
      ],
      [
        "Ġsistema",
        -8.528624406993988
      ],
      [
        "Ġqualquer",
        -8.52999773365182
      ],
      [
        "ĠTribunal",
        -8.535093559347272
      ],
      [
        "Ġhisto",
        -8.537515003055141
      ],
      [
        "fica",
        -8.540751137782022
      ],
      [
        "ĠâĢ¢",
        -8.543265507504008
      ],
      [
        "tor",
        -8.543741835469966
      ],
      [
        "Ġ14",
        -8.545132550265846
      ],
      [
        "ĠSem",
        -8.54577312872618
      ],
      [
        "qui",
        -8.545831816846334
      ],
      [
        "ĠComo",
        -8.550551629061221
      ],
      [
        "11",
        -8.552394311380855
      ],
      [
        "Ġdisse",
        -8.55407221390927
      ],
      [
        "Ġpalavra",
        -8.555440290491312
      ],
      [
        "Ġvoto",
        -8.556151294784721
      ],
      [
        "Ġtre",
        -8.562138342666268
      ],
      [
        "Ġdi",
        -8.565409696682403
      ],
      [
        "ck",
        -8.565499478237024
      ],
      [
        "Ġacordo",
        -8.566485332053052
      ],
      [
        "Ġvida",
        -8.569287086584795
      ],
      [
        "Ġcada",
        -8.569655589338607
      ],
      [
        "ĠLe",
        -8.575074996026704
      ],
      [
        "Ġdepois",
        -8.575381518806992
      ],
      [
        "ĠDa",
        -8.57700856220855
      ],
      [
        "ĠIn",
        -8.57758236924621
      ],
      [
        "ĠMiniste",
        -8.57942136749155
      ],
      [
        "Ġinformac",
        -8.580130297312754
      ],
      [
        "J",
        -8.582468433900143
      ],
      [
        "Ġtodo",
        -8.583829473342965
      ],
      [
        "ĠRepu",
        -8.590944142616419
      ],
      [
        "Ġprazo",
        -8.599042305851576
      ],
      [
        "men",
        -8.60119310672653
      ],
      [
        "ĠCarlos",
        -8.605674891003122
      ],
      [
        "09",
        -8.608977315997736
      ],
      [
        "ĠSim",
        -8.609946362480517
      ],
      [
        "ĠPT",
        -8.610528600716396
      ],
      [
        "lha",
        -8.612782633076218
      ],
      [
        "Ġagora",
        -8.625111987194536
      ],
      [
        "ĠRelator",
        -8.625301031248279
      ],
      [
        "sica",
        -8.625663081419797
      ],
      [
        "Ġato",
        -8.626994065924343
      ],
      [
        "DO",
        -8.631387590569144
      ],
      [
        "via",
        -8.632934061620574
      ],
      [
        "Ġmate",
        -8.633510216409322
      ],
      [
        "ĠAl",
        -8.634803756664633
      ],
      [
        "ĠSenhor",
        -8.636398008953654
      ],
      [
        "Ġpresente",
        -8.637744440178116
      ],
      [
        "Ġcomec",
        -8.640775612529538
      ],
      [
        "gua",
        -8.642847300341577
      ],
      [
        "ĠPa",
        -8.644240104861376
      ],
      [
        "Ġver",
        -8.645808582647923
      ],
      [
        "ĠTe",
        -8.651260944342905
      ],
      [
        "Ġrelac",
        -8.652464883811698
      ],
      [
        "Ġmelhor",
        -8.653023345972993
      ],
      [
        "Ġdeve",
        -8.65459517498932
      ],
      [
        "ista",
        -8.65630994055388
      ],
      [
        "hi",
        -8.658997305396744
      ],
      [
        "Bloco",
        -8.659641250849663
      ],
      [
        "lio",
        -8.66158440778933
      ],
      [
        "Ġsob",
        -8.661604598831781
      ],
      [
        "Ġsegundo",
        -8.66418395374206
      ],
      [
        "ando",
        -8.667576802642596
      ],
      [
        "Ġmundo",
        -8.668251109620764
      ],
      [
        "durante",
        -8.671672413591978
      ],
      [
        "Ġdizer",
        -8.671789462596927
      ],
      [
        "ĠAs",
        -8.673248571002961
      ],
      [
        "ira",
        -8.67464324246273
      ],
      [
        "Ġperi",
        -8.67650615319397
      ],
      [
        "Ġmil",
        -8.679268389334531
      ],
      [
        "th",
        -8.684477124928163
      ],
      [
        "ha",
        -8.686543678157898
      ],
      [
        "Ġnossa",
        -8.689217010633275
      ],
      [
        "ĠJustic",
        -8.68955060967278
      ],
      [
        "ĠMunici",
        -8.694469979210409
      ],
      [
        "RIO",
        -8.69487260252535
      ],
      [
        "vida",
        -8.702454543814698
      ],
      [
        "Ġsido",
        -8.708440576065808
      ],
      [
        "_",
        -8.711474014198062
      ],
      [
        "rem",
        -8.712319231400823
      ],
      [
        "ente",
        -8.716766123981229
      ],
      [
        "rie",
        -8.718243962194538
      ],
      [
        "nto",
        -8.721188589501969
      ],
      [
        "rga",
        -8.721727910355447
      ],
      [
        "Ġrecursos",
        -8.722797118391238
      ],
      [
        "Ġdezembro",
        -8.72405216464364
      ],
      [
        "tos",
        -8.725442146599248
      ],
      [
        "par",
        -8.731858105569676
      ],
      [
        "decisa",
        -8.733411526120316
      ],
      [
        "Ġ24",
        -8.733996988106536
      ],
      [
        "Ġnas",
        -8.738736526142903
      ],
      [
        "ing",
        -8.739778996814936
      ],
      [
        "Ġoutro",
        -8.740177619187202
      ],
      [
        "ĠBa",
        -8.741165592273028
      ],
      [
        "Ġcasa",
        -8.742191251813336
      ],
      [
        "Ġpopulac",
        -8.743254369453425
      ],
      [
        "ĠEstados",
        -8.743503268498191
      ],
      [
        "lhe",
        -8.744704758734017
      ],
      [
        "cie",
        -8.744954015401897
      ],
      [
        "Ġpartir",
        -8.745169309243806
      ],
      [
        "Ġestava",
        -8.746150447649068
      ],
      [
        "ĠJoa",
        -8.747728068041011
      ],
      [
        "Ġantes",
        -8.748520923621872
      ],
      [
        "Ġlanc",
        -8.750913669306213
      ],
      [
        "Ġtudo",
        -8.751013659473234
      ],
      [
        "=",
        -8.752334196282213
      ],
      [
        "mar",
        -8.752776795064506
      ],
      [
        "mero",
        -8.752865189175587
      ],
      [
        "ĠF",
        -8.753085412135993
      ],
      [
        "Ġfinal",
        -8.753172021927973
      ],
      [
        "dores",
        -8.753644828333353
      ],
      [
        "dor",
        -8.755729303565902
      ],
      [
        "culo",
        -8.755876062555199
      ],
      [
        "orador",
        -8.756020899405161
      ],
      [
        "cer",
        -8.756903802835547
      ],
      [
        "bra",
        -8.757033318161973
      ],
      [
        "Ġfami",
        -8.757453462934388
      ],
      [
        "Ġfato",
        -8.758814662747334
      ],
      [
        "Ġpe",
        -8.762284902148298
      ],
      [
        "Ġrevisa",
        -8.763296876147846
      ],
      [
        "ĠPMDB",
        -8.764274669335103
      ],
      [
        "com",
        -8.768458610753624
      ],
      [
        "ĠSo",
        -8.770080223607433
      ],
      [
        "iz",
        -8.771283416319932
      ],
      [
        "Ġempresa",
        -8.775294891277492
      ],
      [
        "Ġmomento",
        -8.775353105209987
      ],
      [
        "@",
        -8.776516843187377
      ],
      [
        "ÌĪ",
        -8.779165093472677
      ],
      [
        "Ġvalor",
        -8.77957515537592
      ],
      [
        "rac",
        -8.781945009507057
      ],
      [
        "Ġgrupo",
        -8.784207005934073
      ],
      [
        "gra",
        -8.785473567817897
      ],
      [
        "Ġgoverno",
        -8.786396906981153
      ],
      [
        "dito",
        -8.786617012304236
      ],
      [
        "Ġdesde",
        -8.786876062588457
      ],
      [
        "ĠLu",
        -8.787804852600203
      ],
      [
        "ĠVer",
        -8.788329892307127
      ],
      [
        "tal",
        -8.7895036027264
      ],
      [
        "Ġconta",
        -8.7913831208545
      ],
      [
        "2009",
        -8.793526365034245
      ],
      [
        "pu",
        -8.795978813669754
      ],
      [
        "15",
        -8.799803936532996
      ],
      [
        "20",
        -8.802999211995976
      ],
      [
        "ĠMar",
        -8.805566009148944
      ],
      [
        "Ġnovo",
        -8.805613433667897
      ],
      [
        "Ġdias",
        -8.806000853151511
      ],
      [
        "rica",
        -8.808429403333049
      ],
      [
        "PT",
        -8.813893793243984
      ],
      [
        "ĠIsso",
        -8.81600828163827
      ],
      [
        "Ġmilho",
        -8.817099333555035
      ],
      [
        "Ġti",
        -8.817726309615201
      ],
      [
        "12",
        -8.818712834718221
      ],
      [
        "ina",
        -8.819119501457093
      ],
      [
        "eira",
        -8.81956976882673
      ],
      [
        "Ġ30",
        -8.820062540178997
      ],
      [
        "ĠUm",
        -8.820433103479038
      ],
      [
        "car",
        -8.822827956284756
      ],
      [
        "AS",
        -8.823289678017776
      ],
      [
        "dica",
        -8.82358904898636
      ],
      [
        "ĠTa",
        -8.826258565199328
      ],
      [
        "Ġproposta",
        -8.827596961941644
      ],
      [
        "OS",
        -8.828755515378814
      ],
      [
        "ĠUnia",
        -8.829528749493708
      ],
      [
        "Ġeles",
        -8.830070856640177
      ],
      [
        "Ġsempre",
        -8.83471699286526
      ],
      [
        "ĠSu",
        -8.835698424313671
      ],
      [
        "ĠVi",
        -8.836665917473727
      ],
      [
        "05",
        -8.837687643633801
      ],
      [
        "ismo",
        -8.837818061907617
      ],
      [
        "Ġinciso",
        -8.844402533531651
      ],
      [
        "Ġ21",
        -8.8455280869314
      ],
      [
        "lar",
        -8.846723945166472
      ],
      [
        "Ġbrasileiro",
        -8.848457058804549
      ],
      [
        "Ġfaz",
        -8.848574109526753
      ],
      [
        "Ġcondic",
        -8.850442469961836
      ],
      [
        "TO",
        -8.85258854231798
      ],
      [
        "Ġ:(",
        -8.855694006048191
      ],
      [
        "votac",
        -8.856247766609952
      ],
      [
        "Ġduas",
        -8.856356224978825
      ],
      [
        "ĠJo",
        -8.861504550859712
      ],
      [
        "ĠâĢĶ",
        -8.86194968673119
      ],
      [
        "fer",
        -8.862155076910446
      ],
      [
        "mica",
        -8.862479073677772
      ],
      [
        "pios",
        -8.865519380821034
      ],
      [
        "Ġmenos",
        -8.866565505210591
      ],
      [
        "ĠEnta",
        -8.867701721024414
      ],
      [
        "Ġpouco",
        -8.868010567451241
      ],
      [
        "pre",
        -8.868430899367706
      ],
      [
        "ticas",
        -8.868708570394803
      ],
      [
        "ĠQue",
        -8.870341601995818
      ],
      [
        "ĠFoi",
        -8.871540929157389
      ],
      [
        "Congresso",
        -8.874030623447682
      ],
      [
        "Ġale",
        -8.87671394654055
      ],
      [
        "Ġenta",
        -8.880148325577782
      ],
      [
        "03",
        -8.880521788578003
      ],
      [
        "ros",
        -8.882389827802912
      ],
      [
        "TE",
        -8.882664106997774
      ],
      [
        "Ġsau",
        -8.883718929993696
      ],
      [
        "Ġtinha",
        -8.884711146177489
      ],
      [
        "Ġ25",
        -8.886299582478294
      ],
      [
        "tiva",
        -8.886918699995693
      ],
      [
        "Ġ23",
        -8.887642016284651
      ],
      [
        "Ġquanto",
        -8.888681453380842
      ],
      [
        "Ġper",
        -8.889832588966094
      ],
      [
        "Ġali",
        -8.89002471363571
      ],
      [
        "18",
        -8.892545124897604
      ],
      [
        "ĠLo",
        -8.892878746879703
      ],
      [
        "ĠPela",
        -8.893734947340302
      ],
      [
        "ĠFa",
        -8.89459834583211
      ],
      [
        "ĠSul",
        -8.89481722509414
      ],
      [
        "and",
        -8.8956554443373
      ],
      [
        "neste",
        -8.89686824943873
      ],
      [
        "tua",
        -8.90224089026434
      ],
      [
        "aprovac",
        -8.902999806134822
      ],
      [
        "Ġnesta",
        -8.903208636491986
      ],
      [
        "tri",
        -8.905780104849825
      ],
      [
        "Ġ22",
        -8.907632914849641
      ],
      [
        "Ġfim",
        -8.90811466837311
      ],
      [
        "08",
        -8.909800120493248
      ],
      [
        "ĠJ",
        -8.91170223006465
      ],
      [
        "Ġpelos",
        -8.911771294251409
      ],
      [
        "ĠPre",
        -8.914005852344106
      ],
      [
        "Ġimportante",
        -8.915485603656704
      ],
      [
        "ĠDi",
        -8.923535506289694
      ],
      [
        "cha",
        -8.923560726793992
      ],
      [
        "07",
        -8.924565441235513
      ],
      [
        "Ġmarc",
        -8.92711747732543
      ],
      [
        "rei",
        -8.9282303429861
      ],
      [
        "Ġbase",
        -8.939980652224943
      ],
      [
        "ĠPoder",
        -8.94179798651203
      ],
      [
        "Ġtodas",
        -8.94244972839556
      ],
      [
        "Ġof",
        -8.943122890203641
      ],
      [
        "Ġvezes",
        -8.94513233989415
      ],
      [
        "âĢĵ",
        -8.946178189906638
      ],
      [
        "Ġsocial",
        -8.951213753979868
      ],
      [
        "Ġregia",
        -8.951369803364917
      ],
      [
        "los",
        -8.958299384550655
      ],
      [
        "discussa",
        -8.958405032095605
      ],
      [
        "ĠK",
        -8.95899277666274
      ],
      [
        "Ġexemplo",
        -8.959486202785564
      ],
      [
        "Ġ2007",
        -8.96028967668291
      ],
      [
        "che",
        -8.96035741268302
      ],
      [
        "Ġfor",
        -8.960807275369218
      ],
      [
        "Ġcausa",
        -8.961033525752654
      ],
      [
        "Ġmedida",
        -8.961130134924078
      ],
      [
        "Ġfez",
        -8.963132998526321
      ],
      [
        "nos",
        -8.965383657595678
      ],
      [
        "17",
        -8.965665922816548
      ],
      [
        "ĠAr",
        -8.965789368032516
      ],
      [
        "Ġmaio",
        -8.968542735428574
      ],
      [
        "Ġba",
        -8.96968134813604
      ],
      [
        "âĢĿ,",
        -8.970542267355723
      ],
      [
        "K",
        -8.97152069057148
      ],
      [
        "Ġexternas",
        -8.972539516980646
      ],
      [
        "Ġdiz",
        -8.974513374492657
      ],
      [
        "06",
        -8.976466435255304
      ],
      [
        "Ligac",
        -8.977124406707869
      ],
      [
        "RA",
        -8.978699853627294
      ],
      [
        "Ġnecessa",
        -8.97882358699957
      ],
      [
        "Ì",
        -8.978884207318208
      ],
      [
        "ĠLuiz",
        -8.979023781777313
      ],
      [
        "ĠMu",
        -8.981863089969947
      ],
      [
        "Ġtendo",
        -8.987181687636356
      ],
      [
        "Ġpois",
        -8.987488565054512
      ],
      [
        "zo",
        -8.98875300748284
      ],
      [
        "Ġlugar",
        -8.989134967116865
      ],
      [
        "ĠBo",
        -8.989729370297555
      ],
      [
        "Ġdata",
        -8.990224117995275
      ],
      [
        "Ġ28",
        -8.990355954915211
      ],
      [
        "digo",
        -8.9905067758136
      ],
      [
        "Ġrecurso",
        -8.991278530341694
      ],
      [
        "tas",
        -8.991579634730353
      ],
      [
        "Ġmunici",
        -8.992489680197032
      ],
      [
        "Ġ2009",
        -8.994914520547123
      ],
      [
        "ry",
        -8.996458340746543
      ],
      [
        "Ġjulho",
        -8.996633859162555
      ],
      [
        "zar",
        -8.997295932574842
      ],
      [
        "Ġtoda",
        -8.997341230527681
      ],
      [
        "ĠMA",
        -8.998316326871514
      ],
      [
        "Ġquero",
        -8.998615779872875
      ],
      [
        "ĠExÂª",
        -8.998666058342009
      ],
      [
        "con",
        -8.998845661819795
      ],
      [
        "Ġsituac",
        -9.001437295005935
      ],
      [
        "TA",
        -9.002418699116246
      ],
      [
        "ĠDr",
        -9.00439481914952
      ],
      [
        "16",
        -9.00514792269798
      ],
      [
        "Ġnacional",
        -9.005583060344355
      ],
      [
        "Ġpoder",
        -9.007337568482146
      ],
      [
        "les",
        -9.013295192060673
      ],
      [
        "ber",
        -9.013808969115264
      ],
      [
        "Ġalguns",
        -9.013836467800328
      ],
      [
        "Ġsentido",
        -9.01413486325522
      ],
      [
        "ĠM",
        -9.015026411459065
      ],
      [
        "Ġsabe",
        -9.01594886573534
      ],
      [
        "lin",
        -9.016040232909877
      ],
      [
        "Ġsub",
        -9.01628791125373
      ],
      [
        "fico",
        -9.016697882314126
      ],
      [
        "Ġsu",
        -9.01722454878142
      ],
      [
        "Ġsetembro",
        -9.018681977032957
      ],
      [
        "Ġpovo",
        -9.023195343219031
      ],
      [
        "ĠL",
        -9.023678817415094
      ],
      [
        "Ġtrata",
        -9.025796125121827
      ],
      [
        "ĠSESS",
        -9.026501478996575
      ],
      [
        "Ġtemos",
        -9.03293023732841
      ],
      [
        "ĠAn",
        -9.033761275264302
      ],
      [
        "Ġnem",
        -9.03377640347535
      ],
      [
        "mor",
        -9.033911454480872
      ],
      [
        "Ġecono",
        -9.034695599944126
      ],
      [
        "ĠGa",
        -9.03611944234942
      ],
      [
        "ton",
        -9.036761221156317
      ],
      [
        "Ġ2008",
        -9.0368783035351
      ],
      [
        "Ġnova",
        -9.039318444080138
      ],
      [
        "Ġpodem",
        -9.041373455238846
      ],
      [
        "Ġvou",
        -9.04200358079699
      ],
      [
        "Â°",
        -9.042363815102556
      ],
      [
        "Ġcoisa",
        -9.042944590207854
      ],
      [
        "ĠMi",
        -9.043191203856995
      ],
      [
        "Ġfavor",
        -9.043659002358574
      ],
      [
        "lho",
        -9.045967348456994
      ],
      [
        "Ġuso",
        -9.048794863447783
      ],
      [
        "Ġsociedade",
        -9.049891958908118
      ],
      [
        "ĠN",
        -9.050862241145488
      ],
      [
        "Z",
        -9.052527130962758
      ],
      [
        "Ġmesma",
        -9.056652215191644
      ],
      [
        "ĠTi",
        -9.056692733908264
      ],
      [
        "ĠFi",
        -9.057232096556248
      ],
      [
        "junho",
        -9.058725194884977
      ],
      [
        "Ġ2006",
        -9.05966636647563
      ],
      [
        "Ġseria",
        -9.061128909617349
      ],
      [
        "Ġdisso",
        -9.063731410541148
      ],
      [
        "Ġtipo",
        -9.064513192667269
      ],
      [
        "Ġteve",
        -9.06482265849247
      ],
      [
        "Ġcor",
        -9.064828995800893
      ],
      [
        "UTC",
        -9.066067230979783
      ],
      [
        "Ġtenho",
        -9.066443027816996
      ],
      [
        "04",
        -9.066630030689163
      ],
      [
        "tulo",
        -9.068159526937052
      ],
      [
        "13",
        -9.06869181854729
      ],
      [
        "ĠMuito",
        -9.068947698420606
      ],
      [
        "ĠGrande",
        -9.069653540868284
      ],
      [
        "Ġespe",
        -9.070397140720628
      ],
      [
        "grafo",
        -9.070838362151198
      ],
      [
        "ĠEla",
        -9.072065673773526
      ],
      [
        "Ġnada",
        -9.072897750804753
      ],
      [
        "ĠVamos",
        -9.073005891905249
      ],
      [
        "Ġ26",
        -9.07332191871492
      ],
      [
        "rda",
        -9.074030090300315
      ],
      [
        "Ġbrasileira",
        -9.074162904126176
      ],
      [
        "Ġestou",
        -9.077473787784012
      ],
      [
        "ĠSanta",
        -9.077796985506971
      ],
      [
        "Ġprograma",
        -9.077945629775265
      ],
      [
        "Ġcargo",
        -9.078655910031506
      ],
      [
        "ato",
        -9.08022827744408
      ],
      [
        "30",
        -9.081830768921767
      ],
      [
        "cios",
        -9.087320706292331
      ],
      [
        "Ġdesenvolvimento",
        -9.088851939346265
      ],
      [
        "Ġimporta",
        -9.089237088138235
      ],
      [
        "ĠPro",
        -9.090339771583997
      ],
      [
        "Exa",
        -9.090957902832224
      ],
      [
        "NA",
        -9.091256092513287
      ],
      [
        "ĠBe",
        -9.093114214033037
      ],
      [
        "ĠDecreto",
        -9.093413736588705
      ],
      [
        "Ġ2011",
        -9.09442279651141
      ],
      [
        "W",
        -9.09887919975157
      ],
      [
        "Ġconstitucional",
        -9.100475959540873
      ],
      [
        "Ġini",
        -9.101083127015515
      ],
      [
        "RI",
        -9.10209587048356
      ],
      [
        "Ġcre",
        -9.10267033741156
      ],
      [
        "ura",
        -9.10304000167728
      ],
      [
        "Ġtanto",
        -9.103962453353178
      ],
      [
        "vam",
        -9.104842817096436
      ],
      [
        "Ġrefere",
        -9.10783140063681
      ],
      [
        "gar",
        -9.107919308177474
      ],
      [
        "Ġoutra",
        -9.108175993328963
      ],
      [
        "ĠSi",
        -9.108754049630406
      ],
      [
        "Ġbom",
        -9.10961767698686
      ],
      [
        "ante",
        -9.110506657035575
      ],
      [
        "000",
        -9.112136897931464
      ],
      [
        "ĠPoli",
        -9.116274898285118
      ],
      [
        "tion",
        -9.11697139378644
      ],
      [
        "questa",
        -9.119385510517493
      ],
      [
        "X",
        -9.119414990272714
      ],
      [
        "Ġ2010",
        -9.121280403814287
      ],
      [
        "ĠPe",
        -9.12247592204469
      ],
      [
        "art",
        -9.12288948665574
      ],
      [
        "ine",
        -9.12553131325065
      ],
      [
        "Ġpossi",
        -9.127360191849284
      ],
      [
        "Ġga",
        -9.127605024888776
      ],
      [
        "ĠHo",
        -9.129663468213147
      ],
      [
        "Ġvamos",
        -9.129697494107878
      ],
      [
        "Ġpessoa",
        -9.132306525206904
      ],
      [
        "ĠJaneiro",
        -9.135413222121224
      ],
      [
        "per",
        -9.135986382366037
      ],
      [
        "ĠEste",
        -9.13618298024102
      ],
      [
        "Ġagosto",
        -9.137408019763988
      ],
      [
        "Ġoutubro",
        -9.137682306630118
      ],
      [
        "Ġprovide",
        -9.139188146991074
      ],
      [
        "seguranc",
        -9.13971910197055
      ],
      [
        "Ġtexto",
        -9.1428788198379
      ],
      [
        "MA",
        -9.143473473467138
      ],
      [
        "Ġlado",
        -9.144730647599486
      ],
      [
        "Ġexiste",
        -9.14511312387479
      ],
      [
        "RIA",
        -9.14630517014571
      ],
      [
        "14",
        -9.14683692250976
      ],
      [
        "Art",
        -9.147812212482933
      ],
      [
        "ĠDia",
        -9.148954129530471
      ],
      [
        "2015",
        -9.150737668407784
      ],
      [
        "zi",
        -9.151560727128649
      ],
      [
        "ĠPo",
        -9.151781204584688
      ],
      [
        "ĠIII",
        -9.15346199530099
      ],
      [
        "Ġfeito",
        -9.153526842212534
      ],
      [
        "IS",
        -9.154144579192726
      ],
      [
        "ximo",
        -9.154497622134976
      ],
      [
        "ĠEduardo",
        -9.154576580279311
      ],
      [
        "ĠSala",
        -9.15458869898222
      ],
      [
        "tre",
        -9.155818672904283
      ],
      [
        "Ġproduc",
        -9.156360691872802
      ],
      [
        "tado",
        -9.158133609254609
      ],
      [
        "cnica",
        -9.15855180783134
      ],
      [
        "ĠCi",
        -9.159081722177168
      ],
      [
        "Ġ2005",
        -9.159939530531146
      ],
      [
        "Ġhavia",
        -9.162924848645885
      ],
      [
        "tac",
        -9.164311911531238
      ],
      [
        "Ġdessa",
        -9.166971264716636
      ],
      [
        "PMDB",
        -9.167039090444316
      ],
      [
        "ĠGo",
        -9.16991551755622
      ],
      [
        "RE",
        -9.169927591520988
      ],
      [
        "Ġabril",
        -9.17093935748376
      ],
      [
        "Ġsemana",
        -9.171409662372602
      ],
      [
        "Y",
        -9.171463469101742
      ],
      [
        "Ġcara",
        -9.172713558509148
      ],
      [
        "Ġestado",
        -9.175250076747224
      ],
      [
        "ĠNe",
        -9.17525554949378
      ],
      [
        "Ġ27",
        -9.176983983486528
      ],
      [
        "Ġpresidente",
        -9.177885850326977
      ],
      [
        "Ġprincipal",
        -9.178965591367309
      ],
      [
        "Ġdesse",
        -9.179219938999909
      ],
      [
        "lise",
        -9.179542322561868
      ],
      [
        "Ġjaneiro",
        -9.180134036080757
      ],
      [
        "ral",
        -9.181857541243252
      ],
      [
        "Ġhabitantes",
        -9.182803530561165
      ],
      [
        "ndi",
        -9.183755358906112
      ],
      [
        "AL",
        -9.18450769561978
      ],
      [
        "://",
        -9.185842569456094
      ],
      [
        "ĠTo",
        -9.186970496647978
      ],
      [
        "ito",
        -9.187227877413438
      ],
      [
        "DE",
        -9.187974142625285
      ],
      [
        "Ġjuri",
        -9.188307633903367
      ],
      [
        "Ġcrianc",
        -9.18902562861462
      ],
      [
        "ĠPreside",
        -9.190174060083956
      ],
      [
        "ĠBi",
        -9.190623937995303
      ],
      [
        "Ġnovembro",
        -9.19155081449692
      ],
      [
        "Ġempresas",
        -9.192803657640138
      ],
      [
        "ĠPARECER",
        -9.194687234148864
      ],
      [
        "Ġ29",
        -9.196613446585973
      ],
      [
        "Ġvolta",
        -9.197532470949117
      ],
      [
        "ĠPR",
        -9.197690392937632
      ],
      [
        "Ġeducac",
        -9.1991544176935
      ],
      [
        "LI",
        -9.199582413765162
      ],
      [
        "Ġsim",
        -9.199757930269604
      ],
      [
        "Ġvei",
        -9.20134353997804
      ],
      [
        "ER",
        -9.20445811705251
      ],
      [
        "Ġforc",
        -9.206051645373226
      ],
      [
        "Ġcrime",
        -9.206309425512355
      ],
      [
        "tivo",
        -9.207259230616003
      ],
      [
        "DI",
        -9.207553054011512
      ],
      [
        "Ġficar",
        -9.208466466076093
      ],
      [
        "ĠMaria",
        -9.209327770416056
      ],
      [
        "ticos",
        -9.21052520104507
      ],
      [
        "ĠFe",
        -9.212223258589862
      ],
      [
        "ĠCA",
        -9.213510010757616
      ],
      [
        "Ġir",
        -9.214414586634872
      ],
      [
        "Ġtenha",
        -9.215705123753288
      ],
      [
        "02",
        -9.216514356718395
      ],
      [
        "ĠHe",
        -9.217662746823995
      ],
      [
        "Q",
        -9.217893581786058
      ],
      [
        "Ġsei",
        -9.21878332965256
      ],
      [
        "Ġexerci",
        -9.219450499363235
      ],
      [
        "Ġfalar",
        -9.219519449450432
      ],
      [
        "Ġatrave",
        -9.219783700490751
      ],
      [
        "est",
        -9.22092778578108
      ],
      [
        "tes",
        -9.220960728050738
      ],
      [
        "Ġpec",
        -9.223642052024378
      ],
      [
        "Ġana",
        -9.224175983890932
      ],
      [
        "nho",
        -9.22498718547863
      ],
      [
        "50",
        -9.22600772315485
      ],
      [
        "Ġpodera",
        -9.22912968881224
      ],
      [
        "chi",
        -9.229801212611472
      ],
      [
        "ais",
        -9.229835594879685
      ],
      [
        "Ġestamos",
        -9.2299608253563
      ],
      [
        "gina",
        -9.230064864112284
      ],
      [
        "ten",
        -9.231824849739564
      ],
      [
        "Ġestar",
        -9.234411082684964
      ],
      [
        "Ġfunc",
        -9.235344942661037
      ],
      [
        "ĠEssa",
        -9.23566362838553
      ],
      [
        "ju",
        -9.236555027058898
      ],
      [
        "ĠMin",
        -9.23675177896967
      ],
      [
        "tur",
        -9.238566771045296
      ],
      [
        "ĠSau",
        -9.238715668200278
      ],
      [
        "ĠAme",
        -9.238801967872671
      ],
      [
        "xi",
        -9.239139371628127
      ],
      [
        "Ġ2013",
        -9.23958685654502
      ],
      [
        "prio",
        -9.241880496913064
      ],
      [
        "Ġprec",
        -9.242127058573672
      ],
      [
        "ĠEmenda",
        -9.242671827235764
      ],
      [
        "Ġpena",
        -9.242891251183664
      ],
      [
        "Regimento",
        -9.24624370702593
      ],
      [
        "ner",
        -9.248336456819752
      ],
      [
        "ĠEsse",
        -9.248663964556949
      ],
      [
        "2013",
        -9.249466424168595
      ],
      [
        "rico",
        -9.252951741204727
      ],
      [
        "ĠFranc",
        -9.25369445722589
      ],
      [
        "ĠKa",
        -9.25450339483452
      ],
      [
        "Ġprova",
        -9.254757335563976
      ],
      [
        "Ġnum",
        -9.256054686601043
      ],
      [
        "ĠAle",
        -9.25728254025668
      ],
      [
        "EL",
        -9.257730428730037
      ],
      [
        "Ġverdade",
        -9.258128407632832
      ],
      [
        "Ġquatro",
        -9.258252054090924
      ],
      [
        "mico",
        -9.258488283997671
      ],
      [
        "Ġvista",
        -9.258633317240784
      ],
      [
        "SP",
        -9.259328331551458
      ],
      [
        "Ġenquanto",
        -9.25999351606571
      ],
      [
        "Ġhora",
        -9.260053441474945
      ],
      [
        "Ġponto",
        -9.264199619377369
      ],
      [
        "Ġrespeito",
        -9.264318828657926
      ],
      [
        "ĠNO",
        -9.265096652676464
      ],
      [
        "DA",
        -9.267009053834132
      ],
      [
        "Ġinstituic",
        -9.268145386805106
      ],
      [
        "ida",
        -9.26872471134772
      ],
      [
        "Ġobjetivo",
        -9.269868797042388
      ],
      [
        "nal",
        -9.270273301692294
      ],
      [
        "Ġfevereiro",
        -9.272102676882206
      ],
      [
        "feira",
        -9.273569686138105
      ],
      [
        "Ġfe",
        -9.274140194576317
      ],
      [
        "ĠUma",
        -9.275826026286865
      ],
      [
        "Ġdemais",
        -9.275932312587445
      ],
      [
        "gica",
        -9.276518950964352
      ],
      [
        "Ġsessa",
        -9.277004372109516
      ],
      [
        "Ġdentro",
        -9.278159104955368
      ],
      [
        "Ġpartido",
        -9.278408934380924
      ],
      [
        "cho",
        -9.278892082907708
      ],
      [
        "Ġprecisa",
        -9.279480404558273
      ],
      [
        "Ġlocal",
        -9.280841926541378
      ],
      [
        "Ġ2012",
        -9.281472110632292
      ],
      [
        "Ġquais",
        -9.281724534279087
      ],
      [
        "Ġsala",
        -9.282877554211298
      ],
      [
        "Ġproblema",
        -9.282895849556514
      ],
      [
        "cula",
        -9.283799273002996
      ],
      [
        "ĠBrasi",
        -9.28455964556702
      ],
      [
        "Deputada",
        -9.28531182447342
      ],
      [
        "dico",
        -9.285592532779114
      ],
      [
        "ĠPi",
        -9.287616331716904
      ],
      [
        "Ġalgo",
        -9.291161586974104
      ],
      [
        "Ġinteresse",
        -9.291366202014222
      ],
      [
        "Ġapoio",
        -9.293645146541186
      ],
      [
        "ĠInterno",
        -9.294004631999156
      ],
      [
        "Ġ(\"",
        -9.295462465803814
      ],
      [
        "ĠCe",
        -9.295696347889734
      ],
      [
        "2011",
        -9.297619725549366
      ],
      [
        "ment",
        -9.299335537868444
      ],
      [
        "Ġhoras",
        -9.30095363750437
      ],
      [
        "Ġaco",
        -9.30106249680066
      ],
      [
        "ĠSupremo",
        -9.30211549678624
      ],
      [
        "Ġmim",
        -9.302184986750127
      ],
      [
        "Ġ2004",
        -9.305572723481484
      ],
      [
        "Ġvota",
        -9.306894955636434
      ],
      [
        "Ġcriac",
        -9.30705536660509
      ],
      [
        "rado",
        -9.308043801091175
      ],
      [
        "pri",
        -9.309900829349788
      ],
      [
        "ĠNi",
        -9.310314321608102
      ],
      [
        "ĠEducac",
        -9.310789786264763
      ],
      [
        "ĠEx",
        -9.311831390441714
      ],
      [
        "Ġtotal",
        -9.312107541372576
      ],
      [
        "Ð",
        -9.312661226232445
      ],
      [
        "Ġparecer",
        -9.312868255267736
      ],
      [
        "ĠCha",
        -9.313553191847875
      ],
      [
        "ĠRE",
        -9.315922479874368
      ],
      [
        "Ġfilme",
        -9.317468205239008
      ],
      [
        "ĠUnidos",
        -9.318186107354832
      ],
      [
        "logia",
        -9.319374655979908
      ],
      [
        "Ġfalta",
        -9.319963044296529
      ],
      [
        "Ġconforme",
        -9.320681790747944
      ],
      [
        "ĠTurma",
        -9.32254100083044
      ],
      [
        "Ġ31",
        -9.323064638490765
      ],
      [
        "rcio",
        -9.323411786490365
      ],
      [
        "Ġcri",
        -9.323488455680828
      ],
      [
        "Ġnunca",
        -9.324817386540174
      ],
      [
        "cil",
        -9.325195802319891
      ],
      [
        "Ġespecial",
        -9.325283689046753
      ],
      [
        "ĠConselho",
        -9.326332415142891
      ],
      [
        "nimo",
        -9.327545526633742
      ],
      [
        "Ġacesso",
        -9.327729100338024
      ],
      [
        "ata",
        -9.328836110978582
      ],
      [
        "Ġsou",
        -9.329120281507285
      ],
      [
        "Ġjogo",
        -9.329126311627476
      ],
      [
        "Ġcerca",
        -9.331521584088
      ],
      [
        "poca",
        -9.331851470122553
      ],
      [
        "ĠQuando",
        -9.333812412120825
      ],
      [
        "ĠUniversidade",
        -9.3368902166784
      ],
      [
        "Ġ2015",
        -9.338144070482617
      ],
      [
        "pro",
        -9.33865471258407
      ],
      [
        "vis",
        -9.33968524251908
      ],
      [
        "tima",
        -9.341480248014282
      ],
      [
        "por",
        -9.341678277636175
      ],
      [
        "LA",
        -9.34193522077874
      ],
      [
        "Ġrelato",
        -9.342185393910816
      ],
      [
        "Ġobrigado",
        -9.344966226804804
      ],
      [
        "ĠSilva",
        -9.348830926158977
      ],
      [
        "Ġcinco",
        -9.348945102826669
      ],
      [
        "Ġfo",
        -9.349209766446853
      ],
      [
        "her",
        -9.349827313719688
      ],
      [
        "ĠH",
        -9.351250370045951
      ],
      [
        "Ġequipe",
        -9.35184333446205
      ],
      [
        "ras",
        -9.352329927088755
      ],
      [
        "ĠPlena",
        -9.352385188036989
      ],
      [
        "Ġprinci",
        -9.353858322875112
      ],
      [
        "dic",
        -9.355739482357189
      ],
      [
        "ĠCar",
        -9.357009071892609
      ],
      [
        "Ġmercado",
        -9.357226286262817
      ],
      [
        "ĠSocial",
        -9.357304240667432
      ],
      [
        "registro",
        -9.358795360834348
      ],
      [
        "ĠPedro",
        -9.358969983082057
      ],
      [
        "Ġregimental",
        -9.36070940762936
      ],
      [
        "CA",
        -9.362638834415344
      ],
      [
        "Ġdefesa",
        -9.36325968333023
      ],
      [
        "Ġfora",
        -9.363948279830524
      ],
      [
        "Ġsegunda",
        -9.366115083459762
      ],
      [
        "âĢĻ",
        -9.366253670139406
      ],
      [
        "ĠTem",
        -9.367957028652304
      ],
      [
        "ĠOliveira",
        -9.36896821197604
      ],
      [
        "96",
        -9.369652083231818
      ],
      [
        "Ġluta",
        -9.369838088218422
      ],
      [
        "Ġpedido",
        -9.36988793969707
      ],
      [
        "25",
        -9.370398158702162
      ],
      [
        "cre",
        -9.371089490866751
      ],
      [
        "para",
        -9.375148386053072
      ],
      [
        "AR",
        -9.37663199795318
      ],
      [
        "Ġrealizada",
        -9.377252975260255
      ],
      [
        "inha",
        -9.37794455677266
      ],
      [
        "qua",
        -9.378688877932005
      ],
      [
        "Ġkm",
        -9.378832306410471
      ],
      [
        "ĠTotal",
        -9.37919353617364
      ],
      [
        "Ġdireitos",
        -9.379488937223464
      ],
      [
        "gen",
        -9.379741597686746
      ],
      [
        "Ġpesquisa",
        -9.380135855614393
      ],
      [
        "cada",
        -9.380240642612424
      ],
      [
        "Ġ2003",
        -9.380357192123244
      ],
      [
        "devido",
        -9.38055161949528
      ],
      [
        "Ġextraordina",
        -9.380768468208284
      ],
      [
        "Ġmorte",
        -9.381708750981243
      ],
      [
        "Ġthe",
        -9.382874984916166
      ],
      [
        "Ġedic",
        -9.385361472829292
      ],
      [
        "Ġemenda",
        -9.385437224296489
      ],
      [
        "Ġnota",
        -9.388722396168836
      ],
      [
        "remos",
        -9.388866735659336
      ],
      [
        "Ġfazendo",
        -9.38924361497367
      ],
      [
        "Ġcontrato",
        -9.38942385982778
      ],
      [
        "Ġvem",
        -9.389567404909988
      ],
      [
        "lan",
        -9.392513318112083
      ],
      [
        "Ġobjeto",
        -9.394079533752242
      ],
      [
        "ser",
        -9.395245994078069
      ],
      [
        "ist",
        -9.395452074024377
      ],
      [
        "Ġraza",
        -9.39612157680174
      ],
      [
        "Ġgra",
        -9.397865671882425
      ],
      [
        "97",
        -9.400191022516529
      ],
      [
        "Ġfeita",
        -9.40040963700066
      ],
      [
        "CE",
        -9.403025104450604
      ],
      [
        "Ġpassa",
        -9.403568509154276
      ],
      [
        "ĠVe",
        -9.403788119875996
      ],
      [
        "len",
        -9.404094608946098
      ],
      [
        "essa",
        -9.405475828447312
      ],
      [
        "Ġmeses",
        -9.40604794085098
      ],
      [
        "ĠPP",
        -9.407581199644191
      ],
      [
        "Ġposic",
        -9.40769958468696
      ],
      [
        "Ġinter",
        -9.408309558623062
      ],
      [
        "Ġorigem",
        -9.409087463655672
      ],
      [
        "98",
        -9.409754927054324
      ],
      [
        "Ġproduto",
        -9.412372292225268
      ],
      [
        "Ġge",
        -9.412799909596853
      ],
      [
        "amos",
        -9.413033767121307
      ],
      [
        "NE",
        -9.413312332368996
      ],
      [
        "pria",
        -9.415504611540994
      ],
      [
        "bel",
        -9.41582309101744
      ],
      [
        "Ġ2014",
        -9.41702521551364
      ],
      [
        "Ġdispo",
        -9.417476481108409
      ],
      [
        "TI",
        -9.418069889781355
      ],
      [
        "dita",
        -9.420616868337534
      ],
      [
        "Ġfilho",
        -9.420631095563705
      ],
      [
        "Ġgeral",
        -9.421194003535836
      ],
      [
        "Ġterra",
        -9.42217901144097
      ],
      [
        "ĠSegundo",
        -9.422219597697248
      ],
      [
        "Ġdados",
        -9.42278078010548
      ],
      [
        "Ġfala",
        -9.422892656572712
      ],
      [
        "ĠComunicac",
        -9.424987510026948
      ],
      [
        "ĠFilho",
        -9.426507247595447
      ],
      [
        "ĠAgora",
        -9.427352527200272
      ],
      [
        "PTB",
        -9.427807565213868
      ],
      [
        "Ġinclusive",
        -9.428375632759552
      ],
      [
        "NCIA",
        -9.429420684982365
      ],
      [
        "ĠThe",
        -9.432368275749967
      ],
      [
        "Ġpossui",
        -9.434860530564457
      ],
      [
        "mer",
        -9.43516513846153
      ],
      [
        "ense",
        -9.436581565937905
      ],
      [
        "Ġfunciona",
        -9.436860125034542
      ],
      [
        "Ġfosse",
        -9.437463019855324
      ],
      [
        "for",
        -9.440044575177348
      ],
      [
        "radiodifusa",
        -9.440517517924505
      ],
      [
        "Ġ2016",
        -9.441288136581475
      ],
      [
        "inho",
        -9.441319359212825
      ],
      [
        "Ġresponsa",
        -9.441419016451905
      ],
      [
        "tura",
        -9.443564395372796
      ],
      [
        "Ġpagamento",
        -9.443995419669635
      ],
      [
        "Executivo",
        -9.444441282825704
      ],
      [
        "Ġquase",
        -9.445001927490337
      ],
      [
        "Ġtema",
        -9.445353195442376
      ],
      [
        "blicos",
        -9.445379630051589
      ],
      [
        "Ġqualidade",
        -9.446319889674726
      ],
      [
        "Ġlegal",
        -9.446447010969504
      ],
      [
        "gia",
        -9.447082485901312
      ],
      [
        "Ġatividades",
        -9.44716616487699
      ],
      [
        "PE",
        -9.447462568031428
      ],
      [
        "reas",
        -9.447831345997736
      ],
      [
        "Ġ50",
        -9.448105761190243
      ],
      [
        "Ġins",
        -9.449009430243366
      ],
      [
        "ĠDeus",
        -9.453905061312048
      ],
      [
        "Ġnecessidade",
        -9.454179726599186
      ],
      [
        "SE",
        -9.455894094136154
      ],
      [
        "Ġalgumas",
        -9.456209815872256
      ],
      [
        "ĠFu",
        -9.456854799679569
      ],
      [
        "istas",
        -9.457115126532024
      ],
      [
        "Ġpoderia",
        -9.457593228520537
      ],
      [
        "vio",
        -9.458094308973129
      ],
      [
        "ĠVa",
        -9.458304455286548
      ],
      [
        "Ġpelas",
        -9.459605125473573
      ],
      [
        "Ġfac",
        -9.459616858453906
      ],
      [
        "tina",
        -9.459961459271172
      ],
      [
        "bar",
        -9.460402602053785
      ],
      [
        "Ġve",
        -9.461132269251454
      ],
      [
        "2000",
        -9.462151794011232
      ],
      [
        "Ġocorre",
        -9.46516440457872
      ],
      [
        "Ġminutos",
        -9.466178079038423
      ],
      [
        "ell",
        -9.466441650931728
      ],
      [
        "Ġparticipac",
        -9.466472258929237
      ],
      [
        "The",
        -9.46664260816637
      ],
      [
        "bilidade",
        -9.46704438561375
      ],
      [
        "CI",
        -9.46889206131094
      ],
      [
        "Ġmaioria",
        -9.47064459696069
      ],
      [
        "Ġpossa",
        -9.471919493393733
      ],
      [
        "2008",
        -9.4725127233713
      ],
      [
        "eiro",
        -9.47284762117793
      ],
      [
        "Ġlinha",
        -9.475083775796646
      ],
      [
        ".âĢĿ",
        -9.47610196803122
      ],
      [
        "Ġlhe",
        -9.476167376941897
      ],
      [
        "ĠZ",
        -9.476417552260544
      ],
      [
        "timo",
        -9.47669427960978
      ],
      [
        "bio",
        -9.477780175197498
      ],
      [
        "RO",
        -9.47807640887712
      ],
      [
        "Ġesses",
        -9.479636544575602
      ],
      [
        "Ġatual",
        -9.479713606699349
      ],
      [
        "Ġmal",
        -9.480154300747024
      ],
      [
        "Ġpublicac",
        -9.48100202133232
      ],
      [
        "Ġdinheiro",
        -9.481481110584062
      ],
      [
        "Ġcerto",
        -9.482523929909895
      ],
      [
        "Ġdeixa",
        -9.48281345767934
      ],
      [
        "Ġboa",
        -9.482899624851685
      ],
      [
        "ĠCie",
        -9.483762587498708
      ],
      [
        "Ġconhecido",
        -9.483809442894833
      ],
      [
        "Ġmodo",
        -9.484126219685628
      ],
      [
        "28",
        -9.484952906301157
      ],
      [
        "val",
        -9.486277401030696
      ],
      [
        "ĠSra",
        -9.486634193488166
      ],
      [
        "Ġdele",
        -9.48705711249033
      ],
      [
        "ĠSt",
        -9.488312936665452
      ],
      [
        "ltimo",
        -9.489670357394026
      ],
      [
        ");",
        -9.490330125707056
      ],
      [
        "lbum",
        -9.490357838848032
      ],
      [
        "Ġrequerimento",
        -9.491923955647737
      ],
      [
        "ff",
        -9.492121149500507
      ],
      [
        "ĠRu",
        -9.492481461129543
      ],
      [
        "Ġirma",
        -9.4943945632879
      ],
      [
        "2007",
        -9.49541450033281
      ],
      [
        "rada",
        -9.495486017638695
      ],
      [
        "Ġnesse",
        -9.496891830763726
      ],
      [
        "Ġaumento",
        -9.497398184545736
      ],
      [
        "gio",
        -9.49950348113656
      ],
      [
        "Ġdeixar",
        -9.501760648832224
      ],
      [
        "Ġensino",
        -9.502017597609624
      ],
      [
        "ĠApo",
        -9.502942980804708
      ],
      [
        "Ġjunto",
        -9.503617154953826
      ],
      [
        "36",
        -9.505016787402866
      ],
      [
        "US",
        -9.505031776269869
      ],
      [
        "https",
        -9.505256465729436
      ],
      [
        "agravo",
        -9.50611303032697
      ],
      [
        "ĠPrograma",
        -9.507516094289992
      ],
      [
        "ĠNova",
        -9.507984225358507
      ],
      [
        "Ġnuma",
        -9.50929111866408
      ],
      [
        "Ġnorte",
        -9.509541591094235
      ],
      [
        "ĠEM",
        -9.510627184968566
      ],
      [
        "Ġreforma",
        -9.510689902065977
      ],
      [
        "ĠSua",
        -9.51182937153638
      ],
      [
        "ltima",
        -9.512842495692029
      ],
      [
        "ĠDu",
        -9.513526242881715
      ],
      [
        "eleic",
        -9.51365862294912
      ],
      [
        "Ġredac",
        -9.513929092562002
      ],
      [
        "Ġcampo",
        -9.514730225389892
      ],
      [
        "Ġformula",
        -9.515137843527397
      ],
      [
        "ide",
        -9.516519517548016
      ],
      [
        "NI",
        -9.517256199994035
      ],
      [
        "ĠAssim",
        -9.517549027450134
      ],
      [
        "Ġnoite",
        -9.518010525681618
      ],
      [
        "ador",
        -9.518425216992316
      ],
      [
        "ĠParecer",
        -9.519884120691607
      ],
      [
        "Ġmuitas",
        -9.5214692095298
      ],
      [
        "ĠLula",
        -9.522112657391986
      ],
      [
        "40",
        -9.522359984060367
      ],
      [
        "Ġfica",
        -9.522537715174966
      ],
      [
        "Ġbo",
        -9.523061540196908
      ],
      [
        "Ġeram",
        -9.524445307688612
      ],
      [
        "ĠAssociac",
        -9.52539876266737
      ],
      [
        "Ġingle",
        -9.525972324343966
      ],
      [
        "Ġlegislac",
        -9.52609615954968
      ],
      [
        "2010",
        -9.526174215500864
      ],
      [
        "ĠHisto",
        -9.526213090303008
      ],
      [
        "\")",
        -9.526748353218894
      ],
      [
        "amenta",
        -9.527123826976524
      ],
      [
        "Ġconstruc",
        -9.527156831600085
      ],
      [
        "Ġsuperior",
        -9.530174987164326
      ],
      [
        "Ġcompete",
        -9.531040774750174
      ],
      [
        "Ġoperac",
        -9.531138335082444
      ],
      [
        "entanto",
        -9.53119461358109
      ],
      [
        "27",
        -9.53149116569285
      ],
      [
        "Ġsai",
        -9.531520550872523
      ],
      [
        "ĠLegislativo",
        -9.531883481405892
      ],
      [
        "somente",
        -9.532016203529516
      ],
      [
        "mula",
        -9.532029989592507
      ],
      [
        "Ġhomem",
        -9.533929840002058
      ],
      [
        "cional",
        -9.535060765733595
      ],
      [
        "ĠCor",
        -9.536096657009455
      ],
      [
        "ler",
        -9.539185226161289
      ],
      [
        "stica",
        -9.53964528000471
      ],
      [
        "mio",
        -9.539985293681386
      ],
      [
        "ara",
        -9.540147312240792
      ],
      [
        "culos",
        -9.540339360485484
      ],
      [
        "ĠRi",
        -9.540663817893494
      ],
      [
        "Ġoficial",
        -9.54315543654756
      ],
      [
        "Ġcontrole",
        -9.544303212418322
      ],
      [
        "ĠBu",
        -9.544740754069284
      ],
      [
        "Ġtarde",
        -9.5450383193612
      ],
      [
        "Ġ100",
        -9.545384262526529
      ],
      [
        "Ġlongo",
        -9.546028249013697
      ],
      [
        "ĠGra",
        -9.54640885677891
      ],
      [
        "Ġmembro",
        -9.546516567747975
      ],
      [
        "ger",
        -9.546555824689197
      ],
      [
        "OR",
        -9.54710505787086
      ],
      [
        "ĠFernando",
        -9.54740283966609
      ],
      [
        "ĠFo",
        -9.54897697005207
      ],
      [
        "Ġgrandes",
        -9.551033922544052
      ],
      [
        "cul",
        -9.555429032801063
      ],
      [
        "ĠDEM",
        -9.555661612855722
      ],
      [
        "bal",
        -9.556862818889549
      ],
      [
        "Ġrealizac",
        -9.557386343940037
      ],
      [
        "zado",
        -9.557682431280416
      ],
      [
        "ĠTrabalho",
        -9.56113172153164
      ],
      [
        "net",
        -9.56201185698954
      ],
      [
        "ĠBar",
        -9.5630903825554
      ],
      [
        "Ġtal",
        -9.563469341654324
      ],
      [
        "ĠRoberto",
        -9.563578525065454
      ],
      [
        "Ġacho",
        -9.564006536914832
      ],
      [
        "Ġorc",
        -9.56412300084219
      ],
      [
        "altera",
        -9.564181905262062
      ],
      [
        "Ġjulgamento",
        -9.565492058078638
      ],
      [
        "fl",
        -9.566064322337905
      ],
      [
        "Ġsaber",
        -9.567578921202005
      ],
      [
        "88",
        -9.568002774667054
      ],
      [
        "ĠSP",
        -9.568560304405567
      ],
      [
        "Ġpreciso",
        -9.569874091034432
      ],
      [
        "Ġdar",
        -9.57009800054889
      ],
      [
        "devera",
        -9.570654738202494
      ],
      [
        "MI",
        -9.57462190361685
      ],
      [
        "ĠMaia",
        -9.5751890078834
      ],
      [
        "Ġpresenc",
        -9.575238496174151
      ],
      [
        "ncio",
        -9.576410570217272
      ],
      [
        "cas",
        -9.576484756136889
      ],
      [
        "ĠHi",
        -9.57678250331799
      ],
      [
        "Ġbrasileiros",
        -9.577373402412231
      ],
      [
        "tan",
        -9.578310216881382
      ],
      [
        "ĠEn",
        -9.578391335169352
      ],
      [
        "passou",
        -9.578776346419108
      ],
      [
        "Ġessas",
        -9.578778950710598
      ],
      [
        "ly",
        -9.580413890448645
      ],
      [
        "ngua",
        -9.5804879881058
      ],
      [
        "Ġmembros",
        -9.581620995768809
      ],
      [
        "ĠMan",
        -9.583597926751084
      ],
      [
        "ĠBem",
        -9.583876990532724
      ],
      [
        "las",
        -9.58517182379726
      ],
      [
        "Ġcorpo",
        -9.58578987105215
      ],
      [
        "cola",
        -9.586552007295056
      ],
      [
        "ĠPode",
        -9.586771957663975
      ],
      [
        "Ġajuda",
        -9.587188418144711
      ],
      [
        "99",
        -9.587506185684852
      ],
      [
        "PR",
        -9.58918730451754
      ],
      [
        "22",
        -9.5911291394704
      ],
      [
        "Ġsetor",
        -9.591261034380734
      ],
      [
        "Ġbe",
        -9.591655235504842
      ],
      [
        "tido",
        -9.593032435831937
      ],
      [
        "Ġenergia",
        -9.593860751075985
      ],
      [
        "Ġbenefi",
        -9.594264197439694
      ],
      [
        "45",
        -9.594768597498836
      ],
      [
        "Ġmulheres",
        -9.59599188817131
      ],
      [
        "Ġregime",
        -9.596175709636569
      ],
      [
        "ĠPortugal",
        -9.596263219072114
      ],
      [
        "46",
        -9.596473833749812
      ],
      [
        "Ġobras",
        -9.597319715086144
      ],
      [
        "Ġencontra",
        -9.597711327628152
      ],
      [
        "cial",
        -9.59772053245692
      ],
      [
        "AC",
        -9.598190552959574
      ],
      [
        "35",
        -9.598821137910814
      ],
      [
        "Ġgente",
        -9.60232579384104
      ],
      [
        "Ġdis",
        -9.602520916724044
      ],
      [
        "Ġparece",
        -9.602924721263472
      ],
      [
        "ele",
        -9.605205644588304
      ],
      [
        "Ġmaneira",
        -9.605255483903674
      ],
      [
        "lica",
        -9.605304121991384
      ],
      [
        "aram",
        -9.605333190829796
      ],
      [
        "gico",
        -9.6066083496388
      ],
      [
        "Ġeconomia",
        -9.607153374829082
      ],
      [
        "Ġassunto",
        -9.60738684971471
      ],
      [
        "ĠX",
        -9.607846005517974
      ],
      [
        "ĠPer",
        -9.607942311935057
      ],
      [
        "ĠPSB",
        -9.608429802153562
      ],
      [
        "29",
        -9.608954370105586
      ],
      [
        "Ġespac",
        -9.609451848326229
      ],
      [
        "Ġ2017",
        -9.611110070521814
      ],
      [
        "Ġdebate",
        -9.612247201430622
      ],
      [
        "ĠTra",
        -9.612769942543231
      ],
      [
        "ĠMinas",
        -9.61291229428041
      ],
      [
        "Í",
        -9.61396023481023
      ],
      [
        "Ġfrente",
        -9.614316398354756
      ],
      [
        "Ġestrutura",
        -9.614862763235372
      ],
      [
        "ĠMesa",
        -9.6156153765636
      ],
      [
        "Ġpar",
        -9.61654486075523
      ],
      [
        "Ġprincipalmente",
        -9.616699290178994
      ],
      [
        "Ġchamado",
        -9.61870324951844
      ],
      [
        "2012",
        -9.618912712884269
      ],
      [
        "Ġ32",
        -9.619083763388328
      ],
      [
        "legislativa",
        -9.619361640824334
      ],
      [
        "Ġauto",
        -9.619510003115822
      ],
      [
        "ÌĤ?",
        -9.619972275071136
      ],
      [
        "Ġefeito",
        -9.620355408621505
      ],
      [
        "ĠEstou",
        -9.620815879519196
      ],
      [
        "Ġconjunto",
        -9.620970953971748
      ],
      [
        "BA",
        -9.622033166274283
      ],
      [
        "ĠDesenvolvimento",
        -9.623677555967628
      ],
      [
        "Ġpapel",
        -9.62525292186603
      ],
      [
        "EN",
        -9.625454957800178
      ],
      [
        "ĠAnto",
        -9.625969246542784
      ],
      [
        "Ġmuitos",
        -9.62673432688893
      ],
      [
        "Ġforte",
        -9.626801692609911
      ],
      [
        "ĠFrancisco",
        -9.628010453322236
      ],
      [
        "26",
        -9.62809270581607
      ],
      [
        "ite",
        -9.62847009681084
      ],
      [
        "ĠNorte",
        -9.62879472187706
      ],
      [
        "mas",
        -9.628936260255877
      ],
      [
        "2016",
        -9.629015456313605
      ],
      [
        "):",
        -9.63062045045898
      ],
      [
        "Ġindi",
        -9.63064574054196
      ],
      [
        "Ġautor",
        -9.63258123040451
      ],
      [
        "Ġatividade",
        -9.63285948606797
      ],
      [
        "Ġaquele",
        -9.633489315135469
      ],
      [
        "stria",
        -9.635070811973602
      ],
      [
        "ĠPartido",
        -9.635824342508444
      ],
      [
        "Ġobra",
        -9.638128909431158
      ],
      [
        "ĠIta",
        -9.638257995133417
      ],
      [
        "Ġcapital",
        -9.638528348969734
      ],
      [
        "ndia",
        -9.64006263698858
      ],
      [
        "ĠVI",
        -9.640235250983714
      ],
      [
        "reais",
        -9.641354284511555
      ],
      [
        "Ġaplicac",
        -9.641431229017028
      ],
      [
        "Ġbusca",
        -9.641524091021555
      ],
      [
        "Ġproblemas",
        -9.641654318933522
      ],
      [
        "Ġhouve",
        -9.641834995204542
      ],
      [
        "tem",
        -9.642417042608018
      ],
      [
        "01",
        -9.642623704341505
      ],
      [
        "90",
        -9.642670302455086
      ],
      [
        "Ġand",
        -9.64589908000207
      ],
      [
        "Ġbanda",
        -9.64638369522546
      ],
      [
        "concessa",
        -9.646577953032455
      ],
      [
        "land",
        -9.646998345758472
      ],
      [
        "ĠDJ",
        -9.647872536194164
      ],
      [
        "#",
        -9.648752865795666
      ],
      [
        "q",
        -9.649182271305122
      ],
      [
        "Ġaprovado",
        -9.649254609108633
      ],
      [
        "Ġmovimento",
        -9.651279500261706
      ],
      [
        "Ġconhecimento",
        -9.651406707640328
      ],
      [
        "ula",
        -9.652938681626566
      ],
      [
        "lidade",
        -9.653715779332588
      ],
      [
        "Ġposso",
        -9.654474049776804
      ],
      [
        "FI",
        -9.65620967940256
      ],
      [
        "bert",
        -9.656421951294368
      ],
      [
        "Ġ:)",
        -9.656672521858056
      ],
      [
        "ã",
        -9.656934380669714
      ],
      [
        "Ġprofessor",
        -9.658014859756504
      ],
      [
        "Ġcoisas",
        -9.660212812323804
      ],
      [
        "Ġpequeno",
        -9.660355751485852
      ],
      [
        "Ġtrans",
        -9.660679216020638
      ],
      [
        "Ġembora",
        -9.661184414424374
      ],
      [
        "Ġalguma",
        -9.661224554357156
      ],
      [
        "Ġconstante",
        -9.661263404922936
      ],
      [
        "agem",
        -9.66259257931894
      ],
      [
        "Ġ2019",
        -9.664891031754888
      ],
      [
        "23",
        -9.66507001240306
      ],
      [
        "responsabilidade",
        -9.665317558451632
      ],
      [
        "Ġoportunidade",
        -9.665477515613082
      ],
      [
        "Ġlivro",
        -9.665697638631798
      ],
      [
        "Ġ2000",
        -9.665873671785878
      ],
      [
        "SA",
        -9.666936832394072
      ],
      [
        "Ġcusto",
        -9.666985461209292
      ],
      [
        "cal",
        -9.66734969763714
      ],
      [
        "Ġdeveria",
        -9.667646673575142
      ],
      [
        "Ġalgum",
        -9.668149479597284
      ],
      [
        "Ġpassado",
        -9.668513600683472
      ],
      [
        "ĠCOM",
        -9.66873638642503
      ],
      [
        "ki",
        -9.670940051284823
      ],
      [
        "ĠCO",
        -9.67104659115824
      ],
      [
        "Ġ40",
        -9.671178883298111
      ],
      [
        "COMISSA",
        -9.671222667733804
      ],
      [
        "56",
        -9.671917912212058
      ],
      [
        "2014",
        -9.672373815763612
      ],
      [
        "ĠPA",
        -9.6724395746076
      ],
      [
        "Ġsuper",
        -9.673414563851534
      ],
      [
        "ĠSeu",
        -9.673571332949823
      ],
      [
        "Ġorganizac",
        -9.673729403834692
      ],
      [
        "portanto",
        -9.674594325102568
      ],
      [
        "Ġinclui",
        -9.675944869085296
      ],
      [
        "pol",
        -9.676852168226851
      ],
      [
        "ĠIV",
        -9.677197929135954
      ],
      [
        "iro",
        -9.678443408567018
      ],
      [
        "Ġeletro",
        -9.678979448982826
      ],
      [
        "ĠAntonio",
        -9.679134744686005
      ],
      [
        "Distrito",
        -9.679754481483862
      ],
      [
        "xima",
        -9.680146634964016
      ],
      [
        "ĠSan",
        -9.681781061733131
      ],
      [
        "ĠSecreta",
        -9.681871725028302
      ],
      [
        "Ġcanc",
        -9.682099128539914
      ],
      [
        "ĠTu",
        -9.682442213396484
      ],
      [
        "Ġ2020",
        -9.682776102027226
      ],
      [
        "ĠCri",
        -9.683482150059357
      ],
      [
        "RECURSO",
        -9.684593451936372
      ],
      [
        "rus",
        -9.684827973736628
      ],
      [
        "ĠAna",
        -9.685100235475415
      ],
      [
        "let",
        -9.685276178743726
      ],
      [
        "Defesa",
        -9.686078861988412
      ],
      [
        "Ġpropo",
        -9.68613264952288
      ],
      [
        "ĠServic",
        -9.68633602676534
      ],
      [
        "ĠMarco",
        -9.68687776075788
      ],
      [
        "Ġlista",
        -9.687316376536234
      ],
      [
        "ĠCivil",
        -9.687598101284513
      ],
      [
        "disposto",
        -9.687883662533242
      ],
      [
        "21",
        -9.690107596618535
      ],
      [
        "&",
        -9.690461801656424
      ],
      [
        "Ġescola",
        -9.691942368747874
      ],
      [
        "bol",
        -9.69199502957203
      ],
      [
        "Ġ2002",
        -9.692004039952469
      ],
      [
        "Ġreuni",
        -9.692795777187737
      ],
      [
        "Ġdez",
        -9.693041253503402
      ],
      [
        "*",
        -9.693842094057928
      ],
      [
        "Ġmulher",
        -9.694152897184962
      ],
      [
        "bil",
        -9.694210802053062
      ],
      [
        "ĠGe",
        -9.696827939968562
      ],
      [
        "var",
        -9.69692840738495
      ],
      [
        "til",
        -9.697326144195324
      ],
      [
        "sociais",
        -9.700691109602076
      ],
      [
        "ĠEMENDA",
        -9.700780360986853
      ],
      [
        "Ġexecuc",
        -9.701475070892906
      ],
      [
        "...............",
        -9.701968452420756
      ],
      [
        "Ġsenhor",
        -9.702136132790518
      ],
      [
        "Ġ1990",
        -9.702816021715211
      ],
      [
        "Ġnego",
        -9.702906291300147
      ],
      [
        "IC",
        -9.70436689617364
      ],
      [
        "ĠVice",
        -9.704426061107972
      ],
      [
        "Ġcomunidade",
        -9.704927517310267
      ],
      [
        "Ġcomunicac",
        -9.70507019593441
      ],
      [
        "Ġmodelo",
        -9.705236148441909
      ],
      [
        "DEM",
        -9.705745441694106
      ],
      [
        "ĠSE",
        -9.70604007952148
      ],
      [
        "izac",
        -9.706927502186767
      ],
      [
        "ĠTecnologia",
        -9.707242196400069
      ],
      [
        "blicas",
        -9.707348486988469
      ],
      [
        "Ġentra",
        -9.707386349511234
      ],
      [
        "Ġpessoal",
        -9.708297353108216
      ],
      [
        "47",
        -9.71020531858837
      ],
      [
        "ional",
        -9.710343019429976
      ],
      [
        "ĠRosa",
        -9.710429618339704
      ],
      [
        "ex",
        -9.71172689158036
      ],
      [
        "Ġmudanc",
        -9.712268870100024
      ],
      [
        "risco",
        -9.712486174205768
      ],
      [
        "Ġcla",
        -9.713681265968123
      ],
      [
        "Ġavanc",
        -9.71643531235639
      ],
      [
        "Ġalta",
        -9.716929268561614
      ],
      [
        "post",
        -9.718000150839924
      ],
      [
        "Ġvia",
        -9.718610321608637
      ],
      [
        "Ġnenhum",
        -9.718812338139449
      ],
      [
        "ĠPrimeira",
        -9.719415962871423
      ],
      [
        "ĠPDT",
        -9.719702377233023
      ],
      [
        "Ġalcanc",
        -9.719766005487283
      ],
      [
        "Â²",
        -9.720733543922597
      ],
      [
        "IN",
        -9.720854245213546
      ],
      [
        "Ġ54",
        -9.721119001648123
      ],
      [
        "Ġiniciativa",
        -9.722238192226278
      ],
      [
        "sim",
        -9.72233475598366
      ],
      [
        "44",
        -9.724681225303067
      ],
      [
        "entes",
        -9.724967492597392
      ],
      [
        "nessa",
        -9.725549983387408
      ],
      [
        "ĠBrasileiro",
        -9.7256960058896
      ],
      [
        "Ġfu",
        -9.725796557000976
      ],
      [
        "sejam",
        -9.726957477125367
      ],
      [
        "ĠGu",
        -9.727559549277617
      ],
      [
        "Campeonato",
        -9.728267029861886
      ],
      [
        "ĠExcele",
        -9.728344367132651
      ],
      [
        "ĠAc",
        -9.728516309593312
      ],
      [
        "ĠCorte",
        -9.72854701645135
      ],
      [
        "ang",
        -9.728792163708542
      ],
      [
        "Ġtu",
        -9.730574521563645
      ],
      [
        "lida",
        -9.730605117881344
      ],
      [
        "Ġespeci",
        -9.73130629433781
      ],
      [
        "Ġfinanceira",
        -9.731596362458154
      ],
      [
        "Ġreal",
        -9.731685619387855
      ],
      [
        "Ġficou",
        -9.732019064628972
      ],
      [
        "Ġ33",
        -9.732441323062613
      ],
      [
        "48",
        -9.732819679668362
      ],
      [
        "ĠREQUERIMENTO",
        -9.733110899418124
      ],
      [
        "â",
        -9.733339699891816
      ],
      [
        "PA",
        -9.733433606107871
      ],
      [
        "prevista",
        -9.73361063091896
      ],
      [
        "stico",
        -9.735159596322395
      ],
      [
        "ĠDireito",
        -9.735674945636513
      ],
      [
        "34",
        -9.736904283848755
      ],
      [
        "Ġcarreira",
        -9.73772169297616
      ],
      [
        "ĠObrigado",
        -9.737889555378937
      ],
      [
        "Ġsucesso",
        -9.738061177055448
      ],
      [
        "ĠPar",
        -9.738549857933258
      ],
      [
        "nas",
        -9.73870380827842
      ],
      [
        "nel",
        -9.739228005801197
      ],
      [
        "sico",
        -9.740790551429276
      ],
      [
        "ĠInstituto",
        -9.741356245991904
      ],
      [
        "ĠPE",
        -9.7422793325596
      ],
      [
        "Ġexpressa",
        -9.742956971528365
      ],
      [
        "gem",
        -9.744926342242854
      ],
      [
        "mbito",
        -9.745264215841251
      ],
      [
        "Ġalgue",
        -9.746050129487022
      ],
      [
        "Ġtemporada",
        -9.746104710114878
      ],
      [
        "discurso",
        -9.749327418202144
      ],
      [
        "Ġ2001",
        -9.749862245663822
      ],
      [
        "Ġbilho",
        -9.749984104170323
      ],
      [
        "Ġcar",
        -9.75000066985847
      ],
      [
        "podemos",
        -9.750203701235671
      ],
      [
        "Ġanterior",
        -9.75171185282762
      ],
      [
        "ĠCosta",
        -9.753004130567158
      ],
      [
        "Ġtornou",
        -9.753678618485898
      ],
      [
        "Ġnobre",
        -9.75396908234674
      ],
      [
        "Ġporta",
        -9.75443790682616
      ],
      [
        "Ġdirec",
        -9.75446259912828
      ],
      [
        "Ġvigor",
        -9.755429153924052
      ],
      [
        "possibilidade",
        -9.75677890209575
      ],
      [
        "Ġproposic",
        -9.757881659460708
      ],
      [
        "Ġmandato",
        -9.758350513209807
      ],
      [
        "Ġclube",
        -9.758423074200032
      ],
      [
        "GO",
        -9.758426724458191
      ],
      [
        "ĠCunha",
        -9.75900990949997
      ],
      [
        "Ġpauta",
        -9.7592193265119
      ],
      [
        "Ġcampanha",
        -9.759873060856735
      ],
      [
        "dispo",
        -9.760181734552877
      ],
      [
        "ĠHu",
        -9.761433492074282
      ],
      [
        "Ġterrito",
        -9.762637727318284
      ],
      [
        "Ġchegar",
        -9.763873528663002
      ],
      [
        "ĠTambe",
        -9.763978230495445
      ],
      [
        "Ġfederal",
        -9.764442301256135
      ],
      [
        "Ġcerteza",
        -9.764808225238076
      ],
      [
        "ley",
        -9.766784936524886
      ],
      [
        "Presidente",
        -9.766793154879934
      ],
      [
        "Ġteria",
        -9.766985563824273
      ],
      [
        "Ġtransporte",
        -9.767055947223817
      ],
      [
        "log",
        -9.767123704895784
      ],
      [
        "Ġvalores",
        -9.768128698528404
      ],
      [
        "Ġtitular",
        -9.768358705578745
      ],
      [
        "ĠRequerimento",
        -9.769231691794047
      ],
      [
        "ny",
        -9.769321800304612
      ],
      [
        "Depois",
        -9.76954176854285
      ],
      [
        "Ġalterac",
        -9.769653366555932
      ],
      [
        "Ġexame",
        -9.769969832512407
      ],
      [
        "Ġprojetos",
        -9.770273835384849
      ],
      [
        "lado",
        -9.771050076398057
      ],
      [
        "24",
        -9.772196236853096
      ],
      [
        "cnico",
        -9.772922482056478
      ],
      [
        "Ġcentro",
        -9.773840178387957
      ],
      [
        "idades",
        -9.773843092539575
      ],
      [
        "ĠGuerra",
        -9.775044525711822
      ],
      [
        "Ġprofissional",
        -9.775436879008945
      ],
      [
        "Ġresultado",
        -9.775632521166424
      ],
      [
        "ĠBel",
        -9.776229581751323
      ],
      [
        "Ġoriginal",
        -9.776591020179744
      ],
      [
        "Geral",
        -9.776816585537125
      ],
      [
        "Ġacha",
        -9.777056607865552
      ],
      [
        "sticas",
        -9.777906237977389
      ],
      [
        "tel",
        -9.778909287210714
      ],
      [
        "Ġrealizado",
        -9.779609738667736
      ],
      [
        "Ġfra",
        -9.779691348609282
      ],
      [
        "ĠCopa",
        -9.781771216148655
      ],
      [
        "Ġhaver",
        -9.78181358130418
      ],
      [
        "Ġprincipais",
        -9.781969593152663
      ],
      [
        "60",
        -9.782319042338582
      ],
      [
        "Ġemprego",
        -9.78278710925388
      ],
      [
        "apreciac",
        -9.783560024147189
      ],
      [
        "ava",
        -9.78380103714606
      ],
      [
        "LTIMA",
        -9.784109767896714
      ],
      [
        "Ġatenc",
        -9.785191745830184
      ],
      [
        "iano",
        -9.78526588020074
      ],
      [
        "Ġplena",
        -9.785928388556329
      ],
      [
        "ĠPortant",
        -9.786012035059551
      ],
      [
        "ĠSecretaria",
        -9.786306009083551
      ],
      [
        "á",
        -9.787540266434291
      ],
      [
        "ĠTV",
        -9.7876368097849
      ],
      [
        "Ġres",
        -9.78778989259652
      ],
      [
        "Ġsul",
        -9.787970959603992
      ],
      [
        "ty",
        -9.788866635550848
      ],
      [
        "Ġ2018",
        -9.789136136422176
      ],
      [
        "80",
        -9.78949916268355
      ],
      [
        "Ġcaminho",
        -9.790718959407773
      ],
      [
        "Ġclaro",
        -9.791193067751632
      ],
      [
        "Ġmar",
        -9.791472470646063
      ],
      [
        "Ġrenda",
        -9.791624454306472
      ],
      [
        "2005",
        -9.791796569265156
      ],
      [
        "ĠEspecial",
        -9.792143213363753
      ],
      [
        "Ġrepresenta",
        -9.793356736886944
      ],
      [
        "trica",
        -9.79656826683146
      ],
      [
        "Ġideia",
        -9.796766736329705
      ],
      [
        "Ġinstrumento",
        -9.797001968860297
      ],
      [
        "pia",
        -9.79781365194802
      ],
      [
        "Ġmotivo",
        -9.798982443795756
      ],
      [
        "nada",
        -9.799046950335637
      ],
      [
        "Ġcrise",
        -9.800022907164788
      ],
      [
        "Ġvo",
        -9.800521714533245
      ],
      [
        "Ġautos",
        -9.800616780949172
      ],
      [
        "Ġconsiderado",
        -9.801031781483378
      ],
      [
        "Ġnatureza",
        -9.801981842336549
      ],
      [
        "Ġapresenta",
        -9.803004300171365
      ],
      [
        "Ġmarca",
        -9.803106372494684
      ],
      [
        "Ġpontos",
        -9.80380791337072
      ],
      [
        "Ġrei",
        -9.804469049089484
      ],
      [
        "Ġturno",
        -9.807113654333287
      ],
      [
        "gado",
        -9.808283450006453
      ],
      [
        "Ġhipo",
        -9.810940872827436
      ],
      [
        "Ġ1998",
        -9.811526150788824
      ],
      [
        "Ġformac",
        -9.81165650522159
      ],
      [
        "Ġfase",
        -9.81174418804388
      ],
      [
        "Ġlivre",
        -9.81340179362019
      ],
      [
        "Ġlogo",
        -9.813897574371266
      ],
      [
        "sito",
        -9.814952633733016
      ],
      [
        "dios",
        -9.815169941961509
      ],
      [
        "ĠSA",
        -9.816902290316692
      ],
      [
        "provimento",
        -9.817651076437183
      ],
      [
        "Ġsol",
        -9.818429727487295
      ],
      [
        "ĠSistema",
        -9.818489926389486
      ],
      [
        "Ġcontribuic",
        -9.818609455867106
      ],
      [
        "ĠQuero",
        -9.819126335310232
      ],
      [
        "ĠHenrique",
        -9.819985871621292
      ],
      [
        "Ordem",
        -9.820770656366616
      ],
      [
        "ĠRicardo",
        -9.820972474001309
      ],
      [
        "ĠQuem",
        -9.821137897455294
      ],
      [
        "leo",
        -9.821711670037066
      ],
      [
        "Ġrede",
        -9.822275204992216
      ],
      [
        "ĠEles",
        -9.8229125665966
      ],
      [
        "chegou",
        -9.82298222317887
      ],
      [
        "ĠAndre",
        -9.8233012411414
      ],
      [
        "ĠMIN",
        -9.823584246309853
      ],
      [
        "lon",
        -9.824168927513572
      ],
      [
        "ĠAGRAV",
        -9.82466312453941
      ],
      [
        "ĠFor",
        -9.825273540124895
      ],
      [
        "2019",
        -9.826820343519666
      ],
      [
        "ĠAlves",
        -9.828846611259625
      ],
      [
        "oli",
        -9.82895450537084
      ],
      [
        "Ġautoria",
        -9.830289031595848
      ],
      [
        "Ġdiferentes",
        -9.83121208395887
      ],
      [
        "49",
        -9.831617241421132
      ],
      [
        "ĠNA",
        -9.831842483873666
      ],
      [
        "ĠSanto",
        -9.832141073102338
      ],
      [
        "Ġcaput",
        -9.832450739656592
      ],
      [
        "Ġ35",
        -9.832504159257985
      ],
      [
        "tic",
        -9.833541135254348
      ],
      [
        "gan",
        -9.834284131054446
      ],
      [
        "Ġautoridade",
        -9.834455987578655
      ],
      [
        "Ġcaracteri",
        -9.834917833196526
      ],
      [
        "Ġleva",
        -9.835455229247335
      ],
      [
        "ĠMINISTR",
        -9.83559131853309
      ],
      [
        "Ġsede",
        -9.836743787886926
      ],
      [
        "ĠAG",
        -9.836978935027014
      ],
      [
        "Ġtaxa",
        -9.836994458899545
      ],
      [
        "ĠPereira",
        -9.839410137728184
      ],
      [
        "Ġcategoria",
        -9.840488962181755
      ],
      [
        "Ġpenal",
        -9.840499175648317
      ],
      [
        "ĠSTF",
        -9.842125929277335
      ],
      [
        "Ġcriar",
        -9.84260442161522
      ],
      [
        "Ġguerra",
        -9.842940341457767
      ],
      [
        "Ġpartida",
        -9.843913954044972
      ],
      [
        "reunia",
        -9.84437031714412
      ],
      [
        "Ġcontinua",
        -9.844658559994942
      ],
      [
        "ĠOh",
        -9.844673458452425
      ],
      [
        "Ġgesta",
        -9.844982716622296
      ],
      [
        "VI",
        -9.845264972261424
      ],
      [
        "ĠSantos",
        -9.845715168253438
      ],
      [
        "Ġcidada",
        -9.845750352043153
      ],
      [
        "Ġquer",
        -9.846145833135086
      ],
      [
        "uma",
        -9.847667581279088
      ],
      [
        "Ġmenor",
        -9.847789565383977
      ],
      [
        "54",
        -9.848311971467153
      ],
      [
        "Ġesca",
        -9.848365539274926
      ],
      [
        "Ġ37",
        -9.848691017940562
      ],
      [
        "Ġvisita",
        -9.848836834989108
      ],
      [
        "ĠRel",
        -9.850665650057453
      ],
      [
        "Ġseis",
        -9.850881581188926
      ],
      [
        "Cidadania",
        -9.852282235476292
      ],
      [
        "Ġversa",
        -9.852754076958718
      ],
      [
        "Ġsignifica",
        -9.85294109414115
      ],
      [
        "CURSO",
        -9.85428245126542
      ],
      [
        "Ġplano",
        -9.855657985312504
      ],
      [
        "ĠMais",
        -9.855829728155708
      ],
      [
        "logo",
        -9.85692144756926
      ],
      [
        "cujo",
        -9.85804027560742
      ],
      [
        "Ġtorna",
        -9.858223875372069
      ],
      [
        "Ġinternacional",
        -9.859284886614304
      ],
      [
        "ire",
        -9.85977014174381
      ],
      [
        "Ġusua",
        -9.861253444072217
      ],
      [
        "31",
        -9.862302423335136
      ],
      [
        "2017",
        -9.862824322070864
      ],
      [
        "Ġpla",
        -9.862980477136382
      ],
      [
        "acima",
        -9.863628665940578
      ],
      [
        "ĠPorto",
        -9.865927921180775
      ],
      [
        "ĠDias",
        -9.867179319386244
      ],
      [
        "trabalhadores",
        -9.8681275756627
      ],
      [
        "Ġtera",
        -9.86928075738944
      ],
      [
        "Ġconstitui",
        -9.869848486943496
      ],
      [
        "Ģ",
        -9.870361818245732
      ],
      [
        "Ġdestaque",
        -9.871017525503282
      ],
      [
        "Ĥ",
        -9.871635632160055
      ],
      [
        "Ġviole",
        -9.87258241220404
      ],
      [
        "Ġvisa",
        -9.873188022756942
      ],
      [
        "Ġcrite",
        -9.873340514663951
      ],
      [
        "ĠPSD",
        -9.874296706928671
      ],
      [
        "95",
        -9.875297071394792
      ],
      [
        "ĠDilma",
        -9.875926331849527
      ],
      [
        "Ġfundo",
        -9.876161807896692
      ],
      [
        "mediante",
        -9.876207310522895
      ],
      [
        "94",
        -9.876913201948671
      ],
      [
        "Medida",
        -9.877277807700224
      ],
      [
        "Ġdifi",
        -9.877565651895509
      ],
      [
        "Ġprotec",
        -9.87803748594776
      ],
      [
        "Ġrecebe",
        -9.878312674172376
      ],
      [
        "cuja",
        -9.879049096205478
      ],
      [
        "ĠGi",
        -9.879312367261958
      ],
      [
        "Î",
        -9.87975121321202
      ],
      [
        "Ġautoriza",
        -9.8799990893565
      ],
      [
        "Ġchega",
        -9.88200866329719
      ],
      [
        "MS",
        -9.8825526209649
      ],
      [
        "ĠVou",
        -9.882925649337372
      ],
      [
        "realmente",
        -9.883024159944764
      ],
      [
        "cias",
        -9.883032744718408
      ],
      [
        "Of",
        -9.883250884104688
      ],
      [
        "ĠBen",
        -9.88466840134866
      ],
      [
        "ĠBanco",
        -9.88467153094439
      ],
      [
        "van",
        -9.886038382312684
      ],
      [
        "Ġatendimento",
        -9.886182514505196
      ],
      [
        "ĠLocal",
        -9.886337078456163
      ],
      [
        "Ġexige",
        -9.887390421384824
      ],
      [
        "Ġeleito",
        -9.889136202559888
      ],
      [
        "Ġaquela",
        -9.889504206774587
      ],
      [
        "Ġpassar",
        -9.889785833951278
      ],
      [
        "ĠEra",
        -9.889791290487132
      ],
      [
        "port",
        -9.890755995660436
      ],
      [
        "Ġcultura",
        -9.891157826547158
      ],
      [
        "ĠGre",
        -9.891224607141403
      ],
      [
        "ĠMato",
        -9.891478254018292
      ],
      [
        "Ġinco",
        -9.891879286394026
      ],
      [
        "ĠNesse",
        -9.895482525016826
      ],
      [
        "Ġ60",
        -9.895492843358102
      ],
      [
        "41",
        -9.895690480043722
      ],
      [
        "Ġdesses",
        -9.898335303525062
      ],
      [
        "Ġmostra",
        -9.898359352421968
      ],
      [
        "category",
        -9.898441242484568
      ],
      [
        "Pen",
        -9.898462117007112
      ],
      [
        "ĠBrasileira",
        -9.901473606119282
      ],
      [
        "61",
        -9.902052058119397
      ],
      [
        "ĠMeu",
        -9.902094886582375
      ],
      [
        "lei",
        -9.902379979846534
      ],
      [
        "recebeu",
        -9.902668108113518
      ],
      [
        "ĥ",
        -9.903029497491604
      ],
      [
        "Ġescrito",
        -9.903063538721955
      ],
      [
        "ĠInter",
        -9.903686907948677
      ],
      [
        "Ġresposta",
        -9.90379227961408
      ],
      [
        "ĠProviso",
        -9.904506644680254
      ],
      [
        "Ġrazo",
        -9.904794700523802
      ],
      [
        "Ġqueria",
        -9.905413989023272
      ],
      [
        "ĠSou",
        -9.905952291807576
      ],
      [
        "ĠBra",
        -9.906920618714851
      ],
      [
        "PP",
        -9.907815319796894
      ],
      [
        "ĠMarcelo",
        -9.90864728055199
      ],
      [
        "Ġnoti",
        -9.909727325491328
      ],
      [
        "Ġatra",
        -9.910076699552391
      ],
      [
        "ĠFundo",
        -9.910445937789698
      ],
      [
        "Gerais",
        -9.911317178362069
      ],
      [
        "Ġ70",
        -9.91197992558858
      ],
      [
        "ting",
        -9.912257964886296
      ],
      [
        "Ġnorma",
        -9.912446337269651
      ],
      [
        "Durante",
        -9.9125791193928
      ],
      [
        "nero",
        -9.912943394501728
      ],
      [
        "Ġcapacidade",
        -9.913830637111593
      ],
      [
        "Ġliberdade",
        -9.916402394279215
      ],
      [
        "ĠEntre",
        -9.916477322915991
      ],
      [
        "serem",
        -9.91730645404174
      ],
      [
        "dora",
        -9.917506722254544
      ],
      [
        "Ġdeclarac",
        -9.918201659262628
      ],
      [
        "Ġnovos",
        -9.919569492008549
      ],
      [
        "PAULO",
        -9.920125178944703
      ],
      [
        "Ġisto",
        -9.920165538360347
      ],
      [
        "Ġcomunita",
        -9.921120082827224
      ],
      [
        "Ġcriado",
        -9.92206729979016
      ],
      [
        "ĠBahia",
        -9.9231175500189
      ],
      [
        "gal",
        -9.923156621644962
      ],
      [
        "tese",
        -9.923994460314455
      ],
      [
        "Ġvotar",
        -9.926033226318204
      ],
      [
        "Ġmanter",
        -9.92606996849555
      ],
      [
        "Ġindu",
        -9.926454718165784
      ],
      [
        "Ġdenu",
        -9.92662444284264
      ],
      [
        "ĠLima",
        -9.926980485486554
      ],
      [
        "Ġreduc",
        -9.927694298472092
      ],
      [
        "ĠJorge",
        -9.928687721895445
      ],
      [
        "Ġgene",
        -9.929831665711706
      ],
      [
        "ĠAdministrac",
        -9.93031456558188
      ],
      [
        "Ġexecutar",
        -9.930450935070102
      ],
      [
        "Ġterceiro",
        -9.930872171884667
      ],
      [
        "ĠComiss",
        -9.931181832075392
      ],
      [
        "2006",
        -9.93143779679219
      ],
      [
        "Ġdiversos",
        -9.932036950292815
      ],
      [
        "Ġfl",
        -9.93251992108026
      ],
      [
        "servidores",
        -9.933792063842146
      ],
      [
        "Ġhomens",
        -9.933912542156712
      ],
      [
        "Ġconstrui",
        -9.933947380038942
      ],
      [
        "ĠSENHOR",
        -9.934518200513796
      ],
      [
        "Ġmaterial",
        -9.934703849243398
      ],
      [
        "dura",
        -9.93555907322409
      ],
      [
        "Ġambiente",
        -9.935896328431244
      ],
      [
        "Ġincluindo",
        -9.936120856372328
      ],
      [
        "ĠMundial",
        -9.936927687148666
      ],
      [
        "Ġuni",
        -9.937053536679208
      ],
      [
        "Ġchamada",
        -9.937183356252271
      ],
      [
        "ĠRIC",
        -9.937232615132164
      ],
      [
        "Ġmeta",
        -9.93833249647471
      ],
      [
        "nima",
        -9.938685868319649
      ],
      [
        "doenc",
        -9.938738447568497
      ],
      [
        "Ġhomenage",
        -9.939500236685577
      ],
      [
        "ĠVale",
        -9.940466008120778
      ],
      [
        "Ġestudo",
        -9.940627513507648
      ],
      [
        "ME",
        -9.941375035329449
      ],
      [
        "Ġsolicita",
        -9.94366463280581
      ],
      [
        "Ġapresentado",
        -9.943673760132391
      ],
      [
        "ĠHer",
        -9.943890313231664
      ],
      [
        "Ġ1997",
        -9.945101440632335
      ],
      [
        "Ġproviso",
        -9.945731662262386
      ],
      [
        "Ġtrabalhos",
        -9.946834321591997
      ],
      [
        "ido",
        -9.94731480170952
      ],
      [
        "Ġamor",
        -9.947886839763733
      ],
      [
        "ĠCE",
        -9.947935752663303
      ],
      [
        "nior",
        -9.948264639699437
      ],
      [
        "Ġdiretor",
        -9.94873815361837
      ],
      [
        "ble",
        -9.949187466567937
      ],
      [
        "Ainda",
        -9.949683700876658
      ],
      [
        "Ġprofissionais",
        -9.94975744404084
      ],
      [
        "ĠInternacional",
        -9.94988594116405
      ],
      [
        "Ġsoluc",
        -9.949895086357696
      ],
      [
        "ĠZe",
        -9.950119575876675
      ],
      [
        "maiores",
        -9.95132537276606
      ],
      [
        "Ġcivil",
        -9.951486032581991
      ],
      [
        "rcito",
        -9.952045730698469
      ],
      [
        "ĠâĢĺ",
        -9.952104236948925
      ],
      [
        "Ġreceber",
        -9.952293575185276
      ],
      [
        "Ġdiversas",
        -9.952815709429558
      ],
      [
        "ĠMendes",
        -9.95320125263166
      ],
      [
        "Ġbi",
        -9.954211748933783
      ],
      [
        "Ġamigo",
        -9.954219936307718
      ],
      [
        "tratamento",
        -9.9555449403237
      ],
      [
        "Ġgarantia",
        -9.956143191207012
      ],
      [
        "qu",
        -9.957469238754204
      ],
      [
        "pido",
        -9.958509307121098
      ],
      [
        "Ġartigos",
        -9.959360042604336
      ],
      [
        "ĠTudo",
        -9.959776884279483
      ],
      [
        "ĠWe",
        -9.961174074631424
      ],
      [
        "Ġcena",
        -9.965696521089496
      ],
      [
        "ssimo",
        -9.966608036805583
      ],
      [
        "ltimos",
        -9.966998230565524
      ],
      [
        "Ġfins",
        -9.967013253791391
      ],
      [
        "gostaria",
        -9.96709720779627
      ],
      [
        "Ġdispositivo",
        -9.96743909862182
      ],
      [
        "by",
        -9.968207704997983
      ],
      [
        "Ġpri",
        -9.968975238389593
      ],
      [
        "PCdoB",
        -9.970622557809712
      ],
      [
        "ĠJe",
        -9.971497423156574
      ],
      [
        "Ġfundamental",
        -9.971725565174353
      ],
      [
        "Ġcumprimento",
        -9.971732583364249
      ],
      [
        "Ġcarro",
        -9.973097870220125
      ],
      [
        "ĠGovernador",
        -9.97315686246714
      ],
      [
        "ĠADV",
        -9.97378246130812
      ],
      [
        "ĠVoss",
        -9.97457109220908
      ],
      [
        "Ġfuturo",
        -9.975456209968591
      ],
      [
        "vidas",
        -9.976545567835789
      ],
      [
        "Ġcompra",
        -9.976590721358342
      ],
      [
        "ĠNos",
        -9.977128164780286
      ],
      [
        "ĠOfi",
        -9.977427697248984
      ],
      [
        "ĠAta",
        -9.977792104908062
      ],
      [
        "Ġevento",
        -9.978292531597395
      ],
      [
        "ĠParana",
        -9.978947622712957
      ],
      [
        "ĠInforma",
        -9.979049061799149
      ],
      [
        "ĠSesso",
        -9.980448236098791
      ],
      [
        "Ġafirma",
        -9.98102532005956
      ],
      [
        "Ġmuita",
        -9.982413035490872
      ],
      [
        "pronunciamento",
        -9.98429297285018
      ],
      [
        "ĠRJ",
        -9.984718558657583
      ],
      [
        "Ġpaciente",
        -9.985213611319928
      ],
      [
        "Ġdeles",
        -9.986227451245238
      ],
      [
        "Ġfavora",
        -9.98706063382536
      ],
      [
        "Ġaudie",
        -9.987496812716008
      ],
      [
        "Ġgrave",
        -9.988069634144503
      ],
      [
        "Ġalto",
        -9.988725768906278
      ],
      [
        "Ġmilitar",
        -9.990221750805045
      ],
      [
        "Ġapresentar",
        -9.990384538532936
      ],
      [
        "ĠAL",
        -9.990855586577227
      ],
      [
        "Ġesti",
        -9.991070955194534
      ],
      [
        "tando",
        -9.991314478085654
      ],
      [
        "ĠCla",
        -9.991786412399488
      ],
      [
        "Ġinstitui",
        -9.992092172657305
      ],
      [
        "Ġnatural",
        -9.99280098668833
      ],
      [
        "Ġjornal",
        -9.99346608612558
      ],
      [
        "Ġadministrac",
        -9.994781227181011
      ],
      [
        "metros",
        -9.994965064723676
      ],
      [
        "Ġnenhuma",
        -9.99536030194582
      ],
      [
        "ĠAte",
        -9.995387200586554
      ],
      [
        "mentos",
        -9.996158386583708
      ],
      [
        "ĠPEC",
        -9.99684805780855
      ],
      [
        "ĠSuperior",
        -9.99730550617551
      ],
      [
        "lico",
        -9.997503105315744
      ],
      [
        "REG",
        -9.997730458056076
      ],
      [
        "ĠAcho",
        -9.998983218025874
      ],
      [
        "Ġcrescimento",
        -9.999365334319544
      ],
      [
        "pp",
        -9.999613428777302
      ],
      [
        "Ġanu",
        -10.001296510362137
      ],
      [
        "ĠEcono",
        -10.002111319164255
      ],
      [
        "Ġusado",
        -10.00248115710235
      ],
      [
        "Ġinflue",
        -10.00286117093495
      ],
      [
        "Ġacaba",
        -10.002949904833198
      ],
      [
        "ĠCentro",
        -10.00336752041681
      ],
      [
        "cita",
        -10.00353838498624
      ],
      [
        "Ġusar",
        -10.003635414793768
      ],
      [
        "ĠFA",
        -10.004039650891208
      ],
      [
        "ĠCan",
        -10.004070659135165
      ],
      [
        "ĠCON",
        -10.00453399445458
      ],
      [
        "ĠOu",
        -10.00454221502352
      ],
      [
        "Ġnovas",
        -10.004558646900364
      ],
      [
        "Ġcabe",
        -10.00484762965836
      ],
      [
        "ĠMari",
        -10.005144779085317
      ],
      [
        "Ġinsta",
        -10.00545427854584
      ],
      [
        "Ġaplica",
        -10.006083310083552
      ],
      [
        "NTE",
        -10.00611237819174
      ],
      [
        "Ġtributa",
        -10.007142086083508
      ],
      [
        "Ġningue",
        -10.007722342057995
      ],
      [
        "Ġmon",
        -10.007730008060122
      ],
      [
        "Ġsonora",
        -10.007871492282693
      ],
      [
        "ĠWikipe",
        -10.007902857212134
      ],
      [
        "Ġapresentac",
        -10.00832820019119
      ],
      [
        "tados",
        -10.00849675236093
      ],
      [
        "Ġlu",
        -10.008933944770485
      ],
      [
        "EXTRAORDINA",
        -10.009089904609612
      ],
      [
        "the",
        -10.009683954108652
      ],
      [
        "Ġvito",
        -10.010288939466992
      ],
      [
        "entidades",
        -10.010527372535366
      ],
      [
        "Ġsimples",
        -10.010614078295582
      ],
      [
        "Ġextra",
        -10.010970639686487
      ],
      [
        "rum",
        -10.01165838605336
      ],
      [
        "ĠVoto",
        -10.012191089699185
      ],
      [
        "Ġ1999",
        -10.012333673256489
      ],
      [
        "Ġcontar",
        -10.01287307787144
      ],
      [
        "ĠPmdbP",
        -10.013610665876662
      ],
      [
        "Ġajudar",
        -10.013739204064375
      ],
      [
        "tecnologia",
        -10.015167859199778
      ],
      [
        "Ġimposto",
        -10.015221655679609
      ],
      [
        "devem",
        -10.015839274392135
      ],
      [
        "Ġautorizac",
        -10.015997149149577
      ],
      [
        "substituic",
        -10.018100695851754
      ],
      [
        "ini",
        -10.0200509180624
      ],
      [
        "AI",
        -10.021984489084632
      ],
      [
        "Ġcombate",
        -10.02221720459784
      ],
      [
        "Ġbu",
        -10.022758014639344
      ],
      [
        "Ltd",
        -10.02337860034159
      ],
      [
        "pes",
        -10.023757794226317
      ],
      [
        "ĠCampos",
        -10.024295803137449
      ],
      [
        "SC",
        -10.024811795515514
      ],
      [
        "bin",
        -10.02728852311172
      ],
      [
        "..............",
        -10.02802757034045
      ],
      [
        "Â",
        -10.02805712510087
      ],
      [
        "Ġprestac",
        -10.028984593151852
      ],
      [
        "Hoje",
        -10.029157638865607
      ],
      [
        "Ġvisto",
        -10.029350998021975
      ],
      [
        "ĠAqui",
        -10.029574082977032
      ],
      [
        "ĠTodos",
        -10.02981363916949
      ],
      [
        "iam",
        -10.030612621803389
      ],
      [
        "Ġestabelece",
        -10.031632085120153
      ],
      [
        "Anexo",
        -10.032376841216092
      ],
      [
        "MENTO",
        -10.032452819090995
      ],
      [
        "Ġvir",
        -10.032800961274775
      ],
      [
        "ĠIgreja",
        -10.03317302633758
      ],
      [
        "Ñ",
        -10.033312014168065
      ],
      [
        "Ġrepresentante",
        -10.033430697877034
      ],
      [
        "Ġju",
        -10.033983306560163
      ],
      [
        "ĠKi",
        -10.034610278918093
      ],
      [
        "Lei",
        -10.034890409309083
      ],
      [
        "ĠBA",
        -10.034936846226518
      ],
      [
        "Ġreceita",
        -10.035313757299988
      ],
      [
        "ĠRoma",
        -10.037116792410552
      ],
      [
        "Ġfilhos",
        -10.037247877483184
      ],
      [
        "2003",
        -10.03784893234298
      ],
      [
        "Ġdiante",
        -10.038006337267566
      ],
      [
        "RJ",
        -10.03817058012914
      ],
      [
        "Ġdiferenc",
        -10.039361704908218
      ],
      [
        "Ġestavam",
        -10.0404295611314
      ],
      [
        "Ġtermo",
        -10.040456190832472
      ],
      [
        "designado",
        -10.040581767109831
      ],
      [
        "Ġdespes",
        -10.040866754075289
      ],
      [
        "ĠNu",
        -10.040902506144556
      ],
      [
        "Ġespecialmente",
        -10.04180624870272
      ],
      [
        "Ġlevar",
        -10.04351317583865
      ],
      [
        "tores",
        -10.043965999769028
      ],
      [
        "tida",
        -10.044063365841144
      ],
      [
        "line",
        -10.044170607773223
      ],
      [
        "ĠDep",
        -10.0442133755289
      ],
      [
        "PFL",
        -10.044328336039555
      ],
      [
        "GE",
        -10.044554336613844
      ],
      [
        "Ġdisputa",
        -10.04531814464515
      ],
      [
        "vos",
        -10.045913850175031
      ],
      [
        "shi",
        -10.047026500769558
      ],
      [
        "ĠCu",
        -10.047065982750034
      ],
      [
        "Ġconhecida",
        -10.047281018274328
      ],
      [
        "ĠCultura",
        -10.04764131725204
      ],
      [
        "juridicidade",
        -10.047764484706171
      ],
      [
        "ĠParlamentar",
        -10.048020541745798
      ],
      [
        "Ġcurso",
        -10.049160307263326
      ],
      [
        "Ġgarantir",
        -10.049889387570571
      ],
      [
        "Ġfutebol",
        -10.050092719466951
      ],
      [
        "ĠSrÂª",
        -10.050378707617927
      ],
      [
        "ĠFEDERAL",
        -10.050863158675511
      ],
      [
        "Ġreco",
        -10.050956496073775
      ],
      [
        "ĠTerra",
        -10.051054740123796
      ],
      [
        "Tenho",
        -10.05166053453725
      ],
      [
        "Ġarti",
        -10.051686543264166
      ],
      [
        "ĠTemer",
        -10.053203063644444
      ],
      [
        "Ġfonte",
        -10.053355895794152
      ],
      [
        "Ġconquista",
        -10.053716961377711
      ],
      [
        "Ġcabec",
        -10.054426060074068
      ],
      [
        "espe",
        -10.054666905236024
      ],
      [
        "URMA",
        -10.05628176973902
      ],
      [
        "Ġcha",
        -10.057051085839026
      ],
      [
        "Ġconte",
        -10.058252295335288
      ],
      [
        "leg",
        -10.058696122537262
      ],
      [
        "Ġora",
        -10.059709169278827
      ],
      [
        "prisa",
        -10.060042062018226
      ],
      [
        "IDADE",
        -10.060058881664665
      ],
      [
        "Ġfilha",
        -10.060410635895288
      ],
      [
        "Ġrevista",
        -10.060519798756507
      ],
      [
        "Ġbastante",
        -10.060628662115576
      ],
      [
        "Ġvale",
        -10.060953925108487
      ],
      [
        "ĠME",
        -10.06120061079059
      ],
      [
        "ĠRibeiro",
        -10.061966485106144
      ],
      [
        "RS",
        -10.063221311011612
      ],
      [
        "IA",
        -10.063357477808443
      ],
      [
        "ĠSub",
        -10.063892915062098
      ],
      [
        "nsito",
        -10.064394250464112
      ],
      [
        "atuac",
        -10.064395470610355
      ],
      [
        "Ġcarta",
        -10.066170803869474
      ],
      [
        "Ġ55",
        -10.066347264694896
      ],
      [
        "Ġaprovada",
        -10.066431523430325
      ],
      [
        "Apensa",
        -10.066864555988516
      ],
      [
        "Ġpublicado",
        -10.067248896407158
      ],
      [
        "Ġrealidade",
        -10.067335864201738
      ],
      [
        "Ġconteu",
        -10.067425885368294
      ],
      [
        "Ġ53",
        -10.069705397275978
      ],
      [
        "Ġrel",
        -10.07095842620636
      ],
      [
        "ficas",
        -10.07153798576015
      ],
      [
        "Ġliga",
        -10.071705305212683
      ],
      [
        "ela",
        -10.071717182016336
      ],
      [
        "esta",
        -10.071828530527714
      ],
      [
        "instalac",
        -10.072460266540938
      ],
      [
        "ĠBom",
        -10.072758522933256
      ],
      [
        "ssem",
        -10.072851464402389
      ],
      [
        "afirmou",
        -10.073048335475503
      ],
      [
        "dez",
        -10.073731231166768
      ],
      [
        "han",
        -10.073737082574524
      ],
      [
        "cido",
        -10.07537477390421
      ],
      [
        "ĠTrata",
        -10.07570749901432
      ],
      [
        "Ġnovamente",
        -10.075737343151934
      ],
      [
        "ĠTri",
        -10.075887704602492
      ],
      [
        "lares",
        -10.076138471627834
      ],
      [
        "Ġsair",
        -10.07631636621082
      ],
      [
        "Ġpequena",
        -10.077353564288758
      ],
      [
        "Ġvenda",
        -10.07745810974361
      ],
      [
        "Ġprogramas",
        -10.077698974804475
      ],
      [
        "Ġconsegui",
        -10.078136991740116
      ],
      [
        "Ġcomum",
        -10.078743542893744
      ],
      [
        "ĠTre",
        -10.07888651795777
      ],
      [
        "ĠEi",
        -10.079588152072448
      ],
      [
        "ĠWi",
        -10.080017043967242
      ],
      [
        "jovens",
        -10.080639369029427
      ],
      [
        "ĠMarc",
        -10.081374986565413
      ],
      [
        "Ġtais",
        -10.081608795509714
      ],
      [
        "Ġmissa",
        -10.081903691639834
      ],
      [
        "Ġclasse",
        -10.082120824642605
      ],
      [
        "Ġcandidato",
        -10.082374195645643
      ],
      [
        "ĠBer",
        -10.08255989357764
      ],
      [
        "Ġvoltar",
        -10.08299314852318
      ],
      [
        "GL",
        -10.083457054369168
      ],
      [
        "ĠFla",
        -10.083837261365552
      ],
      [
        "ĠSegunda",
        -10.084070024470526
      ],
      [
        "STA",
        -10.084281740186706
      ],
      [
        "Ġtrabalhar",
        -10.084368314927284
      ],
      [
        "ĠJohn",
        -10.085350396194686
      ],
      [
        "ĠEl",
        -10.085582484422988
      ],
      [
        "normas",
        -10.08568568839608
      ],
      [
        "ĠOrc",
        -10.086293153245604
      ],
      [
        "âĢĳ",
        -10.086754580553796
      ],
      [
        "Ġusa",
        -10.08791153587937
      ],
      [
        "Ġcienti",
        -10.08833669240169
      ],
      [
        "ĠAprova",
        -10.088968631163842
      ],
      [
        "ĠDiretor",
        -10.089153418966587
      ],
      [
        "ĠCamp",
        -10.089359800294336
      ],
      [
        "bancada",
        -10.08976718260655
      ],
      [
        "Ġfiscal",
        -10.09011486192073
      ],
      [
        "rgio",
        -10.090843912543574
      ],
      [
        "Ġseguida",
        -10.091107424687046
      ],
      [
        "Ġassiste",
        -10.0922324228097
      ],
      [
        "vendo",
        -10.092619597158029
      ],
      [
        "Ġepiso",
        -10.09275820900883
      ],
      [
        "Ġalema",
        -10.092985988772202
      ],
      [
        "Ġcru",
        -10.093238651740842
      ],
      [
        "Ġquesto",
        -10.094764368901004
      ],
      [
        "tto",
        -10.09548108754684
      ],
      [
        "Ġpopular",
        -10.095495666975106
      ],
      [
        "2004",
        -10.098126045285214
      ],
      [
        "NT",
        -10.098519587191952
      ],
      [
        "Ġimportantes",
        -10.099892450436691
      ],
      [
        "zada",
        -10.100568159604167
      ],
      [
        "CH",
        -10.101745708571483
      ],
      [
        "Ġmeus",
        -10.101953167949183
      ],
      [
        "]",
        -10.101964341373437
      ],
      [
        "Ġpropriedade",
        -10.101973236952196
      ],
      [
        "ĠComplementar",
        -10.103662436395329
      ],
      [
        "ĠRO",
        -10.10367262945202
      ],
      [
        "Ġinforma",
        -10.10421127840821
      ],
      [
        "CN",
        -10.104962954151247
      ],
      [
        "Ġbeneficia",
        -10.106016985253872
      ],
      [
        "ĠMac",
        -10.106024175641457
      ],
      [
        "ĠPri",
        -10.10668926015309
      ],
      [
        "meros",
        -10.107102959668262
      ],
      [
        "Ġministro",
        -10.107208935780085
      ],
      [
        "Ġdeputado",
        -10.108579947927558
      ],
      [
        "ias",
        -10.108628817814024
      ],
      [
        "Ġportugue",
        -10.108891914947748
      ],
      [
        "Ġregra",
        -10.108926249788851
      ],
      [
        "Ġentrar",
        -10.109655712458943
      ],
      [
        "Ġprejui",
        -10.110591330475035
      ],
      [
        "Ġsuficiente",
        -10.11087594122218
      ],
      [
        "ngel",
        -10.111343080669185
      ],
      [
        "Ġarma",
        -10.111528533798896
      ],
      [
        "Ġ38",
        -10.112347824368587
      ],
      [
        "ĠEuropa",
        -10.113095321448425
      ],
      [
        "Ġbaixa",
        -10.113667579884282
      ],
      [
        "zes",
        -10.113701306877866
      ],
      [
        "AgR",
        -10.113858582876022
      ],
      [
        "Ġvige",
        -10.114351155576282
      ],
      [
        "Ġquadro",
        -10.115154733035885
      ],
      [
        "Ġ1996",
        -10.11588251381682
      ],
      [
        "deixou",
        -10.116281543880586
      ],
      [
        "Ġrevela",
        -10.116287433387686
      ],
      [
        "Ġencontrar",
        -10.116547953006252
      ],
      [
        "Ġantigo",
        -10.11721518175017
      ],
      [
        "Ġobrigac",
        -10.117221586048442
      ],
      [
        "dina",
        -10.11742681902591
      ],
      [
        "micos",
        -10.118530786379448
      ],
      [
        "ĠEscola",
        -10.11860500281136
      ],
      [
        "entidade",
        -10.120127378659346
      ],
      [
        "entendimento",
        -10.120582303023903
      ],
      [
        "Ġide",
        -10.120838852751127
      ],
      [
        "ker",
        -10.121157971095768
      ],
      [
        "sic",
        -10.12204898010278
      ],
      [
        "ndice",
        -10.122136609077003
      ],
      [
        "å",
        -10.122419343645584
      ],
      [
        "Ġfaixa",
        -10.122538158818
      ],
      [
        "Ġsite",
        -10.123267684250804
      ],
      [
        "Ġperda",
        -10.12425680251724
      ],
      [
        "Ġaltera",
        -10.12460468414652
      ],
      [
        "Ġexperie",
        -10.125047811602892
      ],
      [
        "ĠRelato",
        -10.125304391582633
      ],
      [
        "tividade",
        -10.12563677537356
      ],
      [
        "Ġoutorga",
        -10.12656159253453
      ],
      [
        "ano",
        -10.127046650873991
      ],
      [
        "Ġdepende",
        -10.127204486967608
      ],
      [
        "Ġelas",
        -10.128404592912185
      ],
      [
        "ĠAmazo",
        -10.129475364754308
      ],
      [
        "ģ",
        -10.13089013685298
      ],
      [
        "Certo",
        -10.132810393567574
      ],
      [
        "Portaria",
        -10.132857442695236
      ],
      [
        "ĠPenal",
        -10.132939141667014
      ],
      [
        "tivos",
        -10.133947877046223
      ],
      [
        "previsto",
        -10.134289242385524
      ],
      [
        "tenham",
        -10.13451935015128
      ],
      [
        "CIA",
        -10.134956895516362
      ],
      [
        "Ġchama",
        -10.135317577115744
      ],
      [
        "Ġcolocar",
        -10.135743279089532
      ],
      [
        "elo",
        -10.1364202633386
      ],
      [
        "Ġdisco",
        -10.136550410633824
      ],
      [
        "+",
        -10.13701150134329
      ],
      [
        "Ġbaixo",
        -10.137783443196676
      ],
      [
        "ĠDOS",
        -10.13821786501336
      ],
      [
        "Ġlimite",
        -10.139452383352854
      ],
      [
        "ĠSU",
        -10.139561378277442
      ],
      [
        "Ġconti",
        -10.140831662296078
      ],
      [
        "conformidade",
        -10.141045631376832
      ],
      [
        "Ġaconteceu",
        -10.142487251397624
      ],
      [
        "Ġdemanda",
        -10.143822674362095
      ],
      [
        "locais",
        -10.144996549741386
      ],
      [
        "Ġpermite",
        -10.145668109304156
      ],
      [
        "zer",
        -10.145866313526843
      ],
      [
        "Mar",
        -10.14749207149928
      ],
      [
        "entrada",
        -10.147883277533293
      ],
      [
        "Ġtratar",
        -10.147982806524952
      ],
      [
        "ĠSp",
        -10.148945108753091
      ],
      [
        "distribuic",
        -10.149076855615442
      ],
      [
        "PtbP",
        -10.149294431623678
      ],
      [
        "Ġ80",
        -10.149365446574054
      ],
      [
        "Ġ36",
        -10.150438051190813
      ],
      [
        "ĠChe",
        -10.152097218770994
      ],
      [
        "Ġacerca",
        -10.152616809404051
      ],
      [
        "Ġigual",
        -10.15281326063548
      ],
      [
        "Substitutivo",
        -10.153109760894864
      ],
      [
        "ĠBR",
        -10.154833935331396
      ],
      [
        "Ġcerta",
        -10.155837009815231
      ],
      [
        "PSOL",
        -10.155934285754515
      ],
      [
        "ĠComunita",
        -10.156422115260938
      ],
      [
        "Ġtelevisa",
        -10.156519120101338
      ],
      [
        "talvez",
        -10.1568395422671
      ],
      [
        "Ġapre",
        -10.15694695167732
      ],
      [
        "Ġtornar",
        -10.158588467225115
      ],
      [
        "ĠPU",
        -10.159847112332224
      ],
      [
        "bli",
        -10.160163340953275
      ],
      [
        "NC",
        -10.16156384280497
      ],
      [
        "PRB",
        -10.163019487895031
      ],
      [
        "Ġcontinuar",
        -10.163145103908438
      ],
      [
        "Ġreserva",
        -10.163701708530558
      ],
      [
        "Ġcria",
        -10.163716617359936
      ],
      [
        "Ġluz",
        -10.16452851758755
      ],
      [
        "ĠJU",
        -10.165612031975382
      ],
      [
        "Ġparticipar",
        -10.16594932612638
      ],
      [
        "destinada",
        -10.166174986126231
      ],
      [
        "Ġapresentada",
        -10.166317035006966
      ],
      [
        "ĠVal",
        -10.166485359110368
      ],
      [
        "Na",
        -10.168418144584171
      ],
      [
        "press",
        -10.16859766143395
      ],
      [
        "Ġabertura",
        -10.168964333266308
      ],
      [
        "ĠPrimeiro",
        -10.169476116635376
      ],
      [
        "Ġdessas",
        -10.169491056176788
      ],
      [
        "Ġordina",
        -10.169565047366744
      ],
      [
        "Ġesforc",
        -10.16997226212849
      ],
      [
        "Ġpreso",
        -10.170091974265668
      ],
      [
        "tulos",
        -10.170291568452454
      ],
      [
        "manutenc",
        -10.17065415057352
      ],
      [
        "Ġhumano",
        -10.171412085928294
      ],
      [
        "Ġestu",
        -10.172314742125677
      ],
      [
        "ĠPRO",
        -10.173917813532553
      ],
      [
        "Ġtomar",
        -10.17456008709384
      ],
      [
        "Ġantiga",
        -10.1745606153544
      ],
      [
        "Ġause",
        -10.176116271325752
      ],
      [
        "enda",
        -10.177338140594932
      ],
      [
        "Ġaprova",
        -10.178811826969758
      ],
      [
        "Ġmulta",
        -10.179169789295946
      ],
      [
        "Ġbens",
        -10.18005989639466
      ],
      [
        "Ġdireta",
        -10.180229669183957
      ],
      [
        "ĠMal",
        -10.180979186832136
      ],
      [
        "pida",
        -10.181152842667837
      ],
      [
        "ĠPOR",
        -10.1811656387025
      ],
      [
        "Ġtime",
        -10.181432089591908
      ],
      [
        "AM",
        -10.182541634657769
      ],
      [
        "Prefeito",
        -10.18324962669056
      ],
      [
        "tante",
        -10.183282452589962
      ],
      [
        "DEPUTADO",
        -10.18342808222664
      ],
      [
        "amente",
        -10.184695408398728
      ],
      [
        "lis",
        -10.185024196553355
      ],
      [
        "Ġataque",
        -10.187285994098264
      ],
      [
        "Ġespi",
        -10.187634418256255
      ],
      [
        "ĠTrans",
        -10.187643063832896
      ],
      [
        "gerac",
        -10.18813541962685
      ],
      [
        "Ġalega",
        -10.18866993082502
      ],
      [
        "ĠProcesso",
        -10.18937934079263
      ],
      [
        "Ġinvestigac",
        -10.189384147079416
      ],
      [
        "Ġerro",
        -10.189445593844049
      ],
      [
        "cimento",
        -10.189680384959544
      ],
      [
        "\",\"",
        -10.189926223572446
      ],
      [
        "Ġpermiti",
        -10.18998810746642
      ],
      [
        "produtos",
        -10.19054670423508
      ],
      [
        "inclusa",
        -10.19073761525742
      ],
      [
        "ĠSal",
        -10.191761172324314
      ],
      [
        "INA",
        -10.19217745174353
      ],
      [
        "Ġpergunta",
        -10.192641813998522
      ],
      [
        "legais",
        -10.194471461921744
      ],
      [
        "ĠOli",
        -10.194583128216832
      ],
      [
        "cida",
        -10.195599070130616
      ],
      [
        "Ġdisposic",
        -10.196339177031907
      ],
      [
        "PSC",
        -10.198171074106236
      ],
      [
        "ĠCentral",
        -10.198252117443207
      ],
      [
        "Ġcento",
        -10.19953608690653
      ],
      [
        "apesar",
        -10.19995806556776
      ],
      [
        "Ġcolega",
        -10.200531043162652
      ],
      [
        "metro",
        -10.200813568742168
      ],
      [
        "Ġjogos",
        -10.201111103367982
      ],
      [
        "Ġcomercial",
        -10.201275189924914
      ],
      [
        "Ġamigos",
        -10.201640063078663
      ],
      [
        "Ġanti",
        -10.202238715120778
      ],
      [
        "LIO",
        -10.203077415074448
      ],
      [
        "Ġmedi",
        -10.203785861156463
      ],
      [
        "Ġdecreta",
        -10.204380984390882
      ],
      [
        "brica",
        -10.20470572416754
      ],
      [
        "Ġprovi",
        -10.205445781679105
      ],
      [
        "Ġtribuna",
        -10.205450440933962
      ],
      [
        "Ġopera",
        -10.205518216028992
      ],
      [
        "ĠJOSE",
        -10.20552588990391
      ],
      [
        "RES",
        -10.20602037537815
      ],
      [
        "ĠPROPOSI",
        -10.206318612606024
      ],
      [
        "Ġsofre",
        -10.207360967251322
      ],
      [
        "Ġpasso",
        -10.207660893549155
      ],
      [
        "Ġmante",
        -10.20776912382501
      ],
      [
        "uti",
        -10.207777174518329
      ],
      [
        "ĠPorque",
        -10.208032433784068
      ],
      [
        "Apoio",
        -10.20939893328993
      ],
      [
        "Ġrealizar",
        -10.210355249297663
      ],
      [
        "Ġdaquel",
        -10.210377068550304
      ],
      [
        "ĠPlano",
        -10.211047870639364
      ],
      [
        "Ġinterna",
        -10.211588104908936
      ],
      [
        "Ġpermitir",
        -10.212173395555324
      ],
      [
        "Ġregio",
        -10.212402968559095
      ],
      [
        "Ġlegi",
        -10.212439441844698
      ],
      [
        "utilizac",
        -10.212907261964974
      ],
      [
        "ĠSouza",
        -10.212935796384988
      ],
      [
        "ĠCelso",
        -10.214419347555015
      ],
      [
        "Ġperto",
        -10.214784779378755
      ],
      [
        "Ġdocumentos",
        -10.214794683972343
      ],
      [
        "sal",
        -10.2153577510038
      ],
      [
        "Ġmora",
        -10.215537409542137
      ],
      [
        "2018",
        -10.215587960346516
      ],
      [
        "Ġmanifestac",
        -10.215831386564195
      ],
      [
        "Ġsustenta",
        -10.215840916546536
      ],
      [
        "Ġfazem",
        -10.216373208831143
      ],
      [
        "Ġperde",
        -10.216681918574526
      ],
      [
        "lizac",
        -10.216832717107582
      ],
      [
        "Ġvive",
        -10.217012201369808
      ],
      [
        "sicas",
        -10.217326279190546
      ],
      [
        "Ġdecidi",
        -10.217529548893015
      ],
      [
        "Ġmelhores",
        -10.21753150676063
      ],
      [
        "Ġdistribui",
        -10.217563204756711
      ],
      [
        "Ġdizendo",
        -10.217625561005478
      ],
      [
        "Ġtri",
        -10.217928619542818
      ],
      [
        "Ġcorre",
        -10.218367208543787
      ],
      [
        "Ġdever",
        -10.218679887658524
      ],
      [
        "ĠGomes",
        -10.219083527958556
      ],
      [
        "ĠOla",
        -10.220038696722746
      ],
      [
        "ĠFami",
        -10.220176858020585
      ],
      [
        "militares",
        -10.22078569735901
      ],
      [
        "CIO",
        -10.22101892185631
      ],
      [
        "ĠGrosso",
        -10.221342312935183
      ],
      [
        "Ġinterior",
        -10.22183777457774
      ],
      [
        "mont",
        -10.221965112102382
      ],
      [
        "ĠMunicipal",
        -10.221965606674464
      ],
      [
        "ĠConced",
        -10.22208986432948
      ],
      [
        "ĠUS",
        -10.222548004243588
      ],
      [
        "ĠMinistra",
        -10.223056859076149
      ],
      [
        "riamente",
        -10.223316966624584
      ],
      [
        "referido",
        -10.223712660600974
      ],
      [
        "Ġoito",
        -10.224108553781388
      ],
      [
        "ĠLopes",
        -10.224186401057322
      ],
      [
        "ĠQual",
        -10.225261197411394
      ],
      [
        "Ġcapaz",
        -10.225754555315408
      ],
      [
        "CARLOS",
        -10.226273644960454
      ],
      [
        "Ġconclui",
        -10.226370463723866
      ],
      [
        "ĠMilitar",
        -10.226376387339856
      ],
      [
        "Ġdiscutir",
        -10.226517187803744
      ],
      [
        "ĠRocha",
        -10.227835686945264
      ],
      [
        "Ġsete",
        -10.228517184169965
      ],
      [
        "hy",
        -10.228952290328442
      ],
      [
        "ham",
        -10.229013788945508
      ],
      [
        "Ġameac",
        -10.22913163881091
      ],
      [
        "ĠGeral",
        -10.230346689911132
      ],
      [
        "Ġconsiderada",
        -10.23042123589124
      ],
      [
        "Ġconsidera",
        -10.23087402737126
      ],
      [
        "Ġtroca",
        -10.234165073549368
      ],
      [
        "Ġ[",
        -10.234969465765596
      ],
      [
        "Pausa",
        -10.235530971807284
      ],
      [
        "ĠLista",
        -10.237325127481816
      ],
      [
        "plica",
        -10.237806876493526
      ],
      [
        "Ġvaria",
        -10.237841398668964
      ],
      [
        "ĠKo",
        -10.238216904201105
      ],
      [
        "Ġadministrativa",
        -10.238410195510284
      ],
      [
        "ĠPARA",
        -10.239597282721938
      ],
      [
        "QUE",
        -10.239601088450112
      ],
      [
        "Ġ01",
        -10.2399061346317
      ],
      [
        "Ġcompromisso",
        -10.240373871183628
      ],
      [
        "Ġconversa",
        -10.241944219497528
      ],
      [
        "GERAL",
        -10.24230921855188
      ],
      [
        "ĠSabe",
        -10.243342707771196
      ],
      [
        "Ġ45",
        -10.243369198791331
      ],
      [
        "ĠSol",
        -10.243480996085813
      ],
      [
        "nic",
        -10.243846488774196
      ],
      [
        "Ġlocalizado",
        -10.245047674794732
      ],
      [
        "Ġdiferente",
        -10.245373775031648
      ],
      [
        "SRA",
        -10.245560137781592
      ],
      [
        "ĠRS",
        -10.246039499599467
      ],
      [
        "ĠCatarina",
        -10.24618603397584
      ],
      [
        "Ġacabou",
        -10.24626138382976
      ],
      [
        "Ġavaliac",
        -10.246567998420396
      ],
      [
        "ssia",
        -10.246912270783394
      ],
      [
        "MG",
        -10.24742027704201
      ],
      [
        "Ġ1991",
        -10.248552128640078
      ],
      [
        "Ġjovem",
        -10.248576543891064
      ],
      [
        "Ġentrega",
        -10.248599889077065
      ],
      [
        "Ġrelativa",
        -10.248796089912677
      ],
      [
        "Ġ39",
        -10.24881515238322
      ],
      [
        "ĠReco",
        -10.24917784095473
      ],
      [
        "Ġseguir",
        -10.249411108809776
      ],
      [
        "exclusividade",
        -10.249879616788988
      ],
      [
        "indicac",
        -10.25006339056626
      ],
      [
        "Ġ52",
        -10.250423627095945
      ],
      [
        "exposto",
        -10.250549764903642
      ],
      [
        "ĠPubli",
        -10.250984223218436
      ],
      [
        "Ġ34",
        -10.251164787052522
      ],
      [
        "ĠVeja",
        -10.251361127794835
      ],
      [
        "Ġcompetic",
        -10.25213360232476
      ],
      [
        "Ġconseguiu",
        -10.25251141014394
      ],
      [
        "pel",
        -10.253228793919456
      ],
      [
        "Ġquarto",
        -10.253568753212354
      ],
      [
        "Ġtentar",
        -10.253641255655507
      ],
      [
        "ĠOr",
        -10.253725657590117
      ],
      [
        "Estamos",
        -10.253872003500115
      ],
      [
        "Ġconfi",
        -10.253888584761963
      ],
      [
        "nus",
        -10.253913710694317
      ],
      [
        "bora",
        -10.25436390525705
      ],
      [
        "dicos",
        -10.255368490979414
      ],
      [
        "Apesar",
        -10.256754773281257
      ],
      [
        "Ġpreve",
        -10.257841366221951
      ],
      [
        "Ġinvestimento",
        -10.258172345950111
      ],
      [
        "NR",
        -10.258346974413534
      ],
      [
        "ncer",
        -10.258798536999585
      ],
      [
        "americana",
        -10.259748163117916
      ],
      [
        "CONSTITUIC",
        -10.259952878677192
      ],
      [
        "ĠProfessor",
        -10.25999958965838
      ],
      [
        "Ġcompleta",
        -10.260149836438664
      ],
      [
        "Ġescolas",
        -10.26052178102154
      ],
      [
        "Ł",
        -10.260668175180887
      ],
      [
        "ĠLUIZ",
        -10.261362037513528
      ],
      [
        "ĠJudicia",
        -10.261512162298889
      ],
      [
        "estabelecimento",
        -10.261977682228222
      ],
      [
        "Ġhonra",
        -10.262457892648335
      ],
      [
        "Ġfinanciamento",
        -10.26320137892933
      ],
      [
        "Ġimprensa",
        -10.263386029888249
      ],
      [
        "ĠCidade",
        -10.26351798418985
      ],
      [
        "Ġquantidade",
        -10.26354229821266
      ],
      [
        "Ġcac",
        -10.26355219156433
      ],
      [
        "ontem",
        -10.263959240724272
      ],
      [
        "Ġfundamento",
        -10.264317264215686
      ],
      [
        "Ġprocedimento",
        -10.264969855376252
      ],
      [
        "ĠCre",
        -10.26502513051346
      ],
      [
        "Ġpensa",
        -10.265137274718745
      ],
      [
        "Ġconce",
        -10.265715629260717
      ],
      [
        "Ġagr",
        -10.265994432877148
      ],
      [
        "Maranha",
        -10.266493847030397
      ],
      [
        "Ġexe",
        -10.266696773295692
      ],
      [
        "ĠUni",
        -10.266815785659752
      ],
      [
        "Ġrenova",
        -10.26717237275879
      ],
      [
        "Ġ1995",
        -10.267452027931348
      ],
      [
        "ĠLui",
        -10.267648440218569
      ],
      [
        "ginas",
        -10.267723414273206
      ],
      [
        "Ġinfra",
        -10.268636460878527
      ],
      [
        "Ġquarta",
        -10.268804243144878
      ],
      [
        "deira",
        -10.26904394187199
      ],
      [
        "Ġfr",
        -10.269752463019536
      ],
      [
        "Ġpagar",
        -10.269775764719666
      ],
      [
        "nato",
        -10.270699745253362
      ],
      [
        "ĠDis",
        -10.271354646563454
      ],
      [
        "ĠFica",
        -10.2720456280952
      ],
      [
        "Ġestudos",
        -10.272512567257188
      ],
      [
        "burg",
        -10.274177241983487
      ],
      [
        "ĠSenhora",
        -10.27495569820274
      ],
      [
        "ĠAlmeida",
        -10.276427340505244
      ],
      [
        "Ġestrate",
        -10.276595177320818
      ],
      [
        "falando",
        -10.277024504093587
      ],
      [
        "Ġ90",
        -10.27709330880917
      ],
      [
        "Ġlocalizada",
        -10.27715177262414
      ],
      [
        "Ġdela",
        -10.278739499797643
      ],
      [
        "voca",
        -10.278759365054038
      ],
      [
        "Ġassumi",
        -10.278801300074928
      ],
      [
        "rita",
        -10.279203177806949
      ],
      [
        "ĠMO",
        -10.279262312925338
      ],
      [
        "ĠQUE",
        -10.280802828832485
      ],
      [
        "Ġcomigo",
        -10.281077753564547
      ],
      [
        "ĠUSP",
        -10.28184967848701
      ],
      [
        "Ġ48",
        -10.2825877733596
      ],
      [
        "ĠParlamentare",
        -10.282712333244367
      ],
      [
        "Ġexatamente",
        -10.282948447426556
      ],
      [
        "Ġinicial",
        -10.284506333898932
      ],
      [
        "ĠReal",
        -10.284950839503
      ],
      [
        "ĠToda",
        -10.28518797508296
      ],
      [
        "deres",
        -10.285316193880185
      ],
      [
        "Ġcomissa",
        -10.28588809913514
      ],
      [
        "ĠRodrigues",
        -10.286114616000246
      ],
      [
        "ħ",
        -10.286422904992996
      ],
      [
        "Lideran",
        -10.286521977759492
      ],
      [
        "Ġganha",
        -10.286726094217308
      ],
      [
        "Ġ58",
        -10.286752974526594
      ],
      [
        "Ġunidades",
        -10.287650076603123
      ],
      [
        "frica",
        -10.288356280139148
      ],
      [
        "Ġrodovia",
        -10.28967126482194
      ],
      [
        "ĠGrupo",
        -10.289977072301552
      ],
      [
        "ima",
        -10.290998158863117
      ],
      [
        "atriz",
        -10.29145206411003
      ],
      [
        "Ġfinanceiro",
        -10.29308092307624
      ],
      [
        "Ġlicenc",
        -10.293316700951303
      ],
      [
        "ĠMG",
        -10.293382976621254
      ],
      [
        "Ġposto",
        -10.293564599253587
      ],
      [
        "ĠCarvalho",
        -10.294171464795008
      ],
      [
        "ku",
        -10.295591180355304
      ],
      [
        "diretamente",
        -10.295735202632562
      ],
      [
        "corrupc",
        -10.295796390331494
      ],
      [
        "Ġhaja",
        -10.296407682861933
      ],
      [
        "Ġjulgado",
        -10.296673397197535
      ],
      [
        "Ġouvi",
        -10.297882292480889
      ],
      [
        "pica",
        -10.297917087347464
      ],
      [
        "Ġrua",
        -10.29838123283966
      ],
      [
        "ambos",
        -10.29841104894363
      ],
      [
        "permissa",
        -10.299084214112437
      ],
      [
        "ĠOnde",
        -10.299732449672776
      ],
      [
        "Ġbanco",
        -10.300491353913396
      ],
      [
        "bairro",
        -10.300981096092649
      ],
      [
        "Ġ119",
        -10.301462687822642
      ],
      [
        "rez",
        -10.301553229926744
      ],
      [
        "ĠPrevide",
        -10.302275676020164
      ],
      [
        "Ġefetiva",
        -10.303470554859164
      ],
      [
        "ĠQui",
        -10.303758895744586
      ],
      [
        "ĠMinha",
        -10.304980707412607
      ],
      [
        "chefe",
        -10.30531136070019
      ],
      [
        "Ġsubstitui",
        -10.305562093853144
      ],
      [
        "PL",
        -10.30634665396778
      ],
      [
        "ĠSenhore",
        -10.307275389211688
      ],
      [
        "Ġencontro",
        -10.307366134232876
      ],
      [
        "ĠGoia",
        -10.30777809653046
      ],
      [
        "Ġresultados",
        -10.307886465061673
      ],
      [
        "Ġmundial",
        -10.30793845451337
      ],
      [
        "atribuic",
        -10.308768724729529
      ],
      [
        "nis",
        -10.309354569319757
      ],
      [
        "ĠDaniel",
        -10.309419428066308
      ],
      [
        "ĠTemo",
        -10.310302841637249
      ],
      [
        "rejeic",
        -10.310970998774724
      ],
      [
        "Ġorientac",
        -10.311174394699584
      ],
      [
        "ĠPI",
        -10.311985378128684
      ],
      [
        "Ġgosta",
        -10.31261901087479
      ],
      [
        "ĠLEGISLATIV",
        -10.312683524910844
      ],
      [
        "onde",
        -10.31288989563399
      ],
      [
        "Ġaberto",
        -10.313190244860769
      ],
      [
        "Ġestadual",
        -10.31339381948238
      ],
      [
        "ĠChi",
        -10.31343542021826
      ],
      [
        "ĠGal",
        -10.313940378908692
      ],
      [
        "ĠRegia",
        -10.313972941422174
      ],
      [
        "Ġamericano",
        -10.314693843946085
      ],
      [
        "ÌĦ",
        -10.314855145762436
      ],
      [
        "Ġacontece",
        -10.315794791781345
      ],
      [
        "Ġestabelecer",
        -10.316909624257182
      ],
      [
        "tenc",
        -10.317055401669418
      ],
      [
        "org",
        -10.317643373129954
      ],
      [
        "ĠReino",
        -10.317644256619266
      ],
      [
        "licitac",
        -10.318248745404713
      ],
      [
        "Ġvivo",
        -10.318297165857874
      ],
      [
        "ĠMon",
        -10.319091419102287
      ],
      [
        "Ġpaga",
        -10.32015038632976
      ],
      [
        "vemos",
        -10.321689240374912
      ],
      [
        "tiveram",
        -10.322102031426631
      ],
      [
        "Ġespera",
        -10.322564806305271
      ],
      [
        "Ġdeficie",
        -10.32330795134358
      ],
      [
        "Ġfigura",
        -10.323323023032046
      ],
      [
        "ĠNordeste",
        -10.323908301937657
      ],
      [
        "Seguranc",
        -10.324414410854814
      ],
      [
        "ĠRelac",
        -10.325418627426648
      ],
      [
        "ĠART",
        -10.32555609397952
      ],
      [
        "ĠLU",
        -10.325680950380391
      ],
      [
        "criada",
        -10.326390366797083
      ],
      [
        "Talvez",
        -10.326578757595332
      ],
      [
        "Ġdocumento",
        -10.32749796122402
      ],
      [
        "impacto",
        -10.327873133759796
      ],
      [
        "ĠEstadual",
        -10.328275524795671
      ],
      [
        "Ġpior",
        -10.32830618752654
      ],
      [
        "ĠAugusto",
        -10.328612838879112
      ],
      [
        "Ġmerece",
        -10.328960655003616
      ],
      [
        "grafia",
        -10.329001211089096
      ],
      [
        "atualmente",
        -10.32926188849346
      ],
      [
        "Figueiredo",
        -10.329614311563102
      ],
      [
        "eiros",
        -10.329845856459668
      ],
      [
        "DF",
        -10.330037836682951
      ],
      [
        "Ġindependente",
        -10.330048752826697
      ],
      [
        "ĠSuper",
        -10.330335343866937
      ],
      [
        "ĠDECRET",
        -10.331558388152068
      ],
      [
        "ĠSer",
        -10.331877596792014
      ],
      [
        "Ġcomenta",
        -10.33189050577618
      ],
      [
        "ĠPelo",
        -10.332258752399804
      ],
      [
        "Ġevitar",
        -10.332314710624646
      ],
      [
        "ĠNelson",
        -10.332776579328852
      ],
      [
        "Ġgrau",
        -10.333037999307455
      ],
      [
        "ĠFlo",
        -10.333827614482225
      ],
      [
        "Teixeira",
        -10.334945815933503
      ],
      [
        "Li",
        -10.335543165215451
      ],
      [
        "Ġprocura",
        -10.336394876619734
      ],
      [
        "Ġcolo",
        -10.337411804707088
      ],
      [
        "ĠFazenda",
        -10.33832472758078
      ],
      [
        "all",
        -10.338952090587698
      ],
      [
        "cies",
        -10.339297612168274
      ],
      [
        "Ġpublicada",
        -10.339853564132827
      ],
      [
        "lias",
        -10.339915295817468
      ],
      [
        "cito",
        -10.340012638485309
      ],
      [
        "nÂº",
        -10.340767351340794
      ],
      [
        "Discussa",
        -10.341167011687183
      ],
      [
        "Ġshow",
        -10.341546084768188
      ],
      [
        "somos",
        -10.342012482614315
      ],
      [
        "Ġjudicial",
        -10.342137102421407
      ],
      [
        "Ġcentral",
        -10.342577142350269
      ],
      [
        "ĠSin",
        -10.3432884872234
      ],
      [
        "Ġimpe",
        -10.34360740517633
      ],
      [
        "dar",
        -10.345258539892932
      ],
      [
        "PI",
        -10.346098530071412
      ],
      [
        "Ġ49",
        -10.346386023236182
      ],
      [
        "Ġconhece",
        -10.34643654048787
      ],
      [
        "Ġfui",
        -10.34696345461606
      ],
      [
        "ĠDesde",
        -10.34716532437816
      ],
      [
        "ĠNew",
        -10.347331192506145
      ],
      [
        "ĠChina",
        -10.348401019017976
      ],
      [
        "Ġpetro",
        -10.349791819600998
      ],
      [
        "Ġimo",
        -10.349900593771736
      ],
      [
        "Ġanimais",
        -10.3505204121488
      ],
      [
        "ĠFutebol",
        -10.35082663404136
      ],
      [
        "ciais",
        -10.35296341396759
      ],
      [
        "levou",
        -10.353382090440306
      ],
      [
        "Pro",
        -10.35371359284094
      ],
      [
        "Ġabaixo",
        -10.353937133902653
      ],
      [
        "Ġempre",
        -10.354863832078982
      ],
      [
        "oeste",
        -10.35505199479513
      ],
      [
        "Ġestilo",
        -10.355075175064684
      ],
      [
        "Ġjurisprude",
        -10.35559022447582
      ],
      [
        "federai",
        -10.35560897637553
      ],
      [
        "Ġcompro",
        -10.355621071917922
      ],
      [
        "ĠEspi",
        -10.355761535118877
      ],
      [
        "Ġmudar",
        -10.355818991374145
      ],
      [
        "Ġdisponi",
        -10.35582606571095
      ],
      [
        "licitante",
        -10.356544647980046
      ],
      [
        "Ġtraz",
        -10.358920013870089
      ],
      [
        "nsul",
        -10.359979484595865
      ],
      [
        "pec",
        -10.360479555142325
      ],
      [
        "ĠNossa",
        -10.36230954188648
      ],
      [
        "In",
        -10.362391907129942
      ],
      [
        "medidas",
        -10.363283407972563
      ],
      [
        "ĠAlberto",
        -10.363885922388851
      ],
      [
        "ĠAure",
        -10.363923730748605
      ],
      [
        "BE",
        -10.364101805698564
      ],
      [
        "xico",
        -10.36412787806958
      ],
      [
        "Ġmanha",
        -10.364472549420604
      ],
      [
        "mil",
        -10.364606181590217
      ],
      [
        "Ġentrevista",
        -10.364690423044232
      ],
      [
        "ney",
        -10.365044313540894
      ],
      [
        "riz",
        -10.3650702872452
      ],
      [
        "Ġadvogado",
        -10.36511092799608
      ],
      [
        "Ġpretende",
        -10.366462115779292
      ],
      [
        "Con",
        -10.36673213605367
      ],
      [
        "ricos",
        -10.36699712789982
      ],
      [
        "Ġterc",
        -10.367189322429498
      ],
      [
        "ĠAh",
        -10.367367515022645
      ],
      [
        "ĠMundo",
        -10.369085906800125
      ],
      [
        "ĠAlemanha",
        -10.369392439075645
      ],
      [
        "Ġilha",
        -10.370487205782068
      ],
      [
        "Ġ1988",
        -10.37096306169868
      ],
      [
        "usada",
        -10.371673126944774
      ],
      [
        "Ġacidente",
        -10.372889271141162
      ],
      [
        "usp",
        -10.373320481250278
      ],
      [
        "ĠRequer",
        -10.37382557666308
      ],
      [
        "ky",
        -10.374335869642549
      ],
      [
        "Ġvice",
        -10.374397046960418
      ],
      [
        "Ġatender",
        -10.374616862069772
      ],
      [
        "ĠSerra",
        -10.37465117543063
      ],
      [
        "nicos",
        -10.37539341865157
      ],
      [
        "Ġquilo",
        -10.375774324429573
      ],
      [
        "Ġdemocracia",
        -10.375966644336854
      ],
      [
        "ĠRede",
        -10.377478230806265
      ],
      [
        "ĠBal",
        -10.377607060711869
      ],
      [
        "ĠRodrigo",
        -10.377712287930422
      ],
      [
        "Ġoferece",
        -10.37782548608982
      ],
      [
        "alunos",
        -10.377984138119883
      ],
      [
        "uplente",
        -10.378013098325832
      ],
      [
        "ĠBoa",
        -10.378148042833535
      ],
      [
        "Ġdistrito",
        -10.378251597584146
      ],
      [
        "Ġconseguir",
        -10.378428834582696
      ],
      [
        "ĠGil",
        -10.378499795560648
      ],
      [
        "ric",
        -10.378878762616402
      ],
      [
        "Ġrural",
        -10.37914621323912
      ],
      [
        "Ġexplorar",
        -10.379332679041294
      ],
      [
        "requisitos",
        -10.379470611538643
      ],
      [
        "EUA",
        -10.379886450363632
      ],
      [
        "ĠWal",
        -10.380216870164563
      ],
      [
        "Ġfesta",
        -10.38035271194306
      ],
      [
        "PSL",
        -10.380370319951917
      ],
      [
        "ĠForc",
        -10.380413357757735
      ],
      [
        "ĠFundac",
        -10.381318676210268
      ],
      [
        "ĠJesus",
        -10.381630109123153
      ],
      [
        "Ġguarda",
        -10.38176162441124
      ],
      [
        "ĠMichel",
        -10.38194187804417
      ],
      [
        "ĠDepu",
        -10.382245248444418
      ],
      [
        "tomada",
        -10.382287612554384
      ],
      [
        "ung",
        -10.382424865456562
      ],
      [
        "Ġmemo",
        -10.382571186912584
      ],
      [
        "Ġtrabalha",
        -10.382693671272207
      ],
      [
        "Ġestes",
        -10.383341217465064
      ],
      [
        "virtude",
        -10.383354645928115
      ],
      [
        "Ġinve",
        -10.384078365292307
      ],
      [
        "quia",
        -10.384439159717918
      ],
      [
        "Ġcai",
        -10.384736267279791
      ],
      [
        "Resoluc",
        -10.384999352990578
      ],
      [
        "ĠFer",
        -10.385593485782676
      ],
      [
        "Ġjornalista",
        -10.38562841543624
      ],
      [
        "ĠFU",
        -10.3859822383516
      ],
      [
        "Ġmesa",
        -10.386156022843872
      ],
      [
        "Ġdeciso",
        -10.386316137500486
      ],
      [
        "preocupac",
        -10.386361367027783
      ],
      [
        "Sessa",
        -10.386697270894492
      ],
      [
        "fronteira",
        -10.386977133878352
      ],
      [
        "ĠAge",
        -10.387684125458012
      ],
      [
        "ĠAlexandre",
        -10.388348462604624
      ],
      [
        "Ġimagem",
        -10.389768329416894
      ],
      [
        "ĠLisboa",
        -10.390230059989287
      ],
      [
        "decreto",
        -10.390849976553971
      ],
      [
        "Ġunidade",
        -10.391831484437942
      ],
      [
        "Ġabsoluta",
        -10.39197661503608
      ],
      [
        "ĠArthur",
        -10.39212728030756
      ],
      [
        "pico",
        -10.392160362329868
      ],
      [
        "efeitos",
        -10.3930052793138
      ],
      [
        "Ġpalavras",
        -10.39316147800957
      ],
      [
        "apresentou",
        -10.39398506545182
      ],
      [
        "Ġconcurso",
        -10.394199048562305
      ],
      [
        "Ġzona",
        -10.395162991634765
      ],
      [
        "imagens",
        -10.395167566596948
      ],
      [
        "nunciou",
        -10.39535984990933
      ],
      [
        "ngue",
        -10.39718064915924
      ],
      [
        "privado",
        -10.397249192777595
      ],
      [
        "ĠVai",
        -10.397423377357333
      ],
      [
        "nacionais",
        -10.397936689120634
      ],
      [
        "ĠZa",
        -10.397945206967114
      ],
      [
        "nci",
        -10.398378868097302
      ],
      [
        "Departamento",
        -10.398471461943911
      ],
      [
        "Ġpedir",
        -10.39926274479752
      ],
      [
        "tivas",
        -10.399669476391066
      ],
      [
        "lizado",
        -10.399830985937296
      ],
      [
        "Ġatribui",
        -10.399877847191892
      ],
      [
        "ĠCeara",
        -10.400219971358874
      ],
      [
        "Ħ",
        -10.40061645057516
      ],
      [
        "Ġdista",
        -10.400706524810552
      ],
      [
        "Ġdireto",
        -10.401101891476024
      ],
      [
        "Ġatende",
        -10.401558424863182
      ],
      [
        "Ġjui",
        -10.401791863026284
      ],
      [
        "ĠSera",
        -10.401880290179497
      ],
      [
        "trecho",
        -10.4021681923
      ],
      [
        "Ġpromover",
        -10.402192489416832
      ],
      [
        "possam",
        -10.402832299924082
      ],
      [
        "ĠMen",
        -10.4030332488589
      ],
      [
        "Ġface",
        -10.40307337965105
      ],
      [
        "Ġurge",
        -10.403205314054214
      ],
      [
        "EM",
        -10.403921237421637
      ],
      [
        "Ġopinia",
        -10.404344280026953
      ],
      [
        "Ġmetros",
        -10.404383169029126
      ],
      [
        "ĠLegislativa",
        -10.40447390607894
      ],
      [
        "PSB",
        -10.40472511857277
      ],
      [
        "velmente",
        -10.40514866066757
      ],
      [
        "Ġsecreta",
        -10.40535690080704
      ],
      [
        "ĠMarcos",
        -10.405920949229133
      ],
      [
        "Ġacu",
        -10.40676737799342
      ],
      [
        "Ġretorno",
        -10.4079977814474
      ],
      [
        "ĠSobre",
        -10.408109177050829
      ],
      [
        "Ġigreja",
        -10.408477681244742
      ],
      [
        "·",
        -10.408500154988518
      ],
      [
        "ZA",
        -10.408956052555869
      ],
      [
        "Ġselec",
        -10.40945071972856
      ],
      [
        "Proposic",
        -10.409558628879346
      ],
      [
        "Geraldo",
        -10.409615263230894
      ],
      [
        "Ġconceito",
        -10.409621600442811
      ],
      [
        "ĠDESPACH",
        -10.410130967681846
      ],
      [
        "Ġetc",
        -10.410139511280263
      ],
      [
        "Ġqui",
        -10.41029736491604
      ],
      [
        "Ġrecu",
        -10.410357325917415
      ],
      [
        "Ġobrigato",
        -10.410593288420964
      ],
      [
        "existente",
        -10.410845762458363
      ],
      [
        "NS",
        -10.41141988500778
      ],
      [
        "Ġjustic",
        -10.412044225534228
      ],
      [
        "Ġentender",
        -10.412421123472855
      ],
      [
        "ĠGar",
        -10.413349340605482
      ],
      [
        "Ġseguro",
        -10.414647025803996
      ],
      [
        "Ġ59",
        -10.41518431773451
      ],
      [
        "ĠAcre",
        -10.415836350174434
      ],
      [
        "Ġprovoc",
        -10.415930373483672
      ],
      [
        "Ġrece",
        -10.416618528034965
      ],
      [
        "Ï",
        -10.41785994602708
      ],
      [
        "ĠQuer",
        -10.41925142669068
      ],
      [
        "Ġconsegue",
        -10.419494237361294
      ],
      [
        "Ġ47",
        -10.419520686004455
      ],
      [
        "PDT",
        -10.420611562854324
      ],
      [
        "versa",
        -10.420625075668148
      ],
      [
        "Ġdemonstra",
        -10.420657598233204
      ],
      [
        "elli",
        -10.421279153902582
      ],
      [
        "Ġreside",
        -10.421782897100384
      ],
      [
        "ĠVista",
        -10.421792180837128
      ],
      [
        "Ġdiminui",
        -10.422571988375251
      ],
      [
        "Ġtenta",
        -10.42285207870098
      ],
      [
        "Ġamanha",
        -10.423201382587491
      ],
      [
        "ĠParis",
        -10.423709016473197
      ],
      [
        "ĠAto",
        -10.425074288860891
      ],
      [
        "constitucionai",
        -10.426073260698931
      ],
      [
        "Ġconsiderac",
        -10.42655985912564
      ],
      [
        "www",
        -10.42663751942518
      ],
      [
        "Ġfeliz",
        -10.426641289479562
      ],
      [
        "juros",
        -10.428340185537266
      ],
      [
        "ĠOUTR",
        -10.42892415949052
      ],
      [
        "Ġ64",
        -10.429155250810377
      ],
      [
        "Ġdetermina",
        -10.429289008852248
      ],
      [
        "ligac",
        -10.429601399699116
      ],
      [
        "substitutivo",
        -10.430198031690772
      ],
      [
        "ĠQuanto",
        -10.430735419756836
      ],
      [
        "ĠAltera",
        -10.43256276369769
      ],
      [
        "Ġambiental",
        -10.432601664438067
      ],
      [
        "Ġfiz",
        -10.432898529841951
      ],
      [
        "Moreira",
        -10.4334333518438
      ],
      [
        "Ġ02",
        -10.433761981897398
      ],
      [
        "Ġquebra",
        -10.433881120644084
      ],
      [
        "referida",
        -10.434585452634067
      ],
      [
        "Ġ43",
        -10.436392265824868
      ],
      [
        "Ġouvir",
        -10.436527568572911
      ],
      [
        "ionais",
        -10.436991208168806
      ],
      [
        "gou",
        -10.437889608312704
      ],
      [
        "Ġrecente",
        -10.438027185720966
      ],
      [
        "Ġresulta",
        -10.43863995120278
      ],
      [
        "Ġcarga",
        -10.438689239239364
      ],
      [
        "bia",
        -10.440240842205467
      ],
      [
        "parceria",
        -10.440349921703133
      ],
      [
        "ĠCome",
        -10.4406461853108
      ],
      [
        "NAL",
        -10.441233502880246
      ],
      [
        "fiscalizac",
        -10.441416809045265
      ],
      [
        "ĠSI",
        -10.44222327363102
      ],
      [
        "Ġbrita",
        -10.444155584211986
      ],
      [
        "Ġleitura",
        -10.444333325873954
      ],
      [
        "Ġitem",
        -10.444549268762003
      ],
      [
        "Ġtorno",
        -10.444587616590557
      ],
      [
        "Ġsom",
        -10.444672217834963
      ],
      [
        "Ġ42",
        -10.444808760097231
      ],
      [
        "Ġage",
        -10.44525724538738
      ],
      [
        "Ġ57",
        -10.445523538991052
      ],
      [
        "Ġvontade",
        -10.445869923033516
      ],
      [
        "Ġfreque",
        -10.446303924738942
      ],
      [
        "bado",
        -10.44662051945481
      ],
      [
        "apensado",
        -10.446655136686063
      ],
      [
        "Proposta",
        -10.446782931466563
      ],
      [
        "ED",
        -10.446923619156818
      ],
      [
        "Ġtrabalhador",
        -10.447537068099331
      ],
      [
        "Ġ1993",
        -10.448206631320186
      ],
      [
        "ĠBan",
        -10.448353652182483
      ],
      [
        "ĠAgrav",
        -10.448618826996384
      ],
      [
        "Ġatua",
        -10.449456529492572
      ],
      [
        "mulo",
        -10.450587342201512
      ],
      [
        "MARA",
        -10.45083118035376
      ],
      [
        "Ġquinta",
        -10.451248347505995
      ],
      [
        "Ġatingi",
        -10.45173940105773
      ],
      [
        "Ġdivisa",
        -10.451931433593918
      ],
      [
        "ĠRei",
        -10.45207673591887
      ],
      [
        "Ġdefende",
        -10.452091217620064
      ],
      [
        "Ġhumana",
        -10.45247832889298
      ],
      [
        "TOR",
        -10.452510437357404
      ],
      [
        "Ġreferente",
        -10.452617969029896
      ],
      [
        "ĠFederac",
        -10.452972219579468
      ],
      [
        "ĠNeste",
        -10.453484695318863
      ],
      [
        "Ġcontas",
        -10.453571544529495
      ],
      [
        "Ġcuidado",
        -10.453732543285454
      ],
      [
        "ĠColo",
        -10.45408799616053
      ],
      [
        "Ġconve",
        -10.454461308575144
      ],
      [
        "ĠCruz",
        -10.454524927039795
      ],
      [
        "EIRA",
        -10.45486937772781
      ],
      [
        "Ġaparece",
        -10.455299847258551
      ],
      [
        "ĠRoge",
        -10.455801946158156
      ],
      [
        "Ġcorpus",
        -10.456296821348046
      ],
      [
        "Ġarmas",
        -10.456846080478282
      ],
      [
        "Ġjuiz",
        -10.457085448652135
      ],
      [
        "tinho",
        -10.458090057603942
      ],
      [
        "Ġdispor",
        -10.458355431456386
      ],
      [
        "Ġ|",
        -10.458524205008414
      ],
      [
        "gravada",
        -10.459106838196318
      ],
      [
        "rida",
        -10.460809016348623
      ],
      [
        "Ġcompanhia",
        -10.460902761228324
      ],
      [
        "Ġcur",
        -10.460978789663798
      ],
      [
        "Ġvinte",
        -10.461078848140122
      ],
      [
        "Ġjoga",
        -10.462168882590218
      ],
      [
        "contratac",
        -10.462355511764835
      ],
      [
        "Ġ75",
        -10.462854375762042
      ],
      [
        "Ġentende",
        -10.463145696564258
      ],
      [
        "Ġdemocra",
        -10.463291461928184
      ],
      [
        "Ġ1994",
        -10.463456660384214
      ],
      [
        "etapa",
        -10.464879783544976
      ],
      [
        "Ĵ",
        -10.465639068153443
      ],
      [
        "ĠParlamento",
        -10.465748804138858
      ],
      [
        "Ġregistrado",
        -10.466058644712358
      ],
      [
        "Ġfoto",
        -10.46611098892965
      ],
      [
        "consumo",
        -10.466527444530026
      ],
      [
        "Ġopc",
        -10.46689780512694
      ],
      [
        "ĠVila",
        -10.468010581870148
      ],
      [
        "ĠNeto",
        -10.468115161085494
      ],
      [
        "Ġpermanece",
        -10.469072971532468
      ],
      [
        "Ġoferta",
        -10.469443554940955
      ],
      [
        "Ġdaqui",
        -10.469582400965558
      ],
      [
        "Ġjogador",
        -10.469649887285108
      ],
      [
        "Ġgosto",
        -10.469736251782182
      ],
      [
        "Ī",
        -10.46985347842628
      ],
      [
        "precisamos",
        -10.470085764625448
      ],
      [
        "Barbosa",
        -10.470268896371463
      ],
      [
        "ĠImpe",
        -10.470518717695697
      ],
      [
        "Ġeventos",
        -10.471379461227306
      ],
      [
        "ĠAprecia",
        -10.471482334492404
      ],
      [
        "Ġrespectiva",
        -10.47154537829512
      ],
      [
        "extensa",
        -10.472142150384546
      ],
      [
        "Ġcomemora",
        -10.472207711042795
      ],
      [
        "agentes",
        -10.47223138162438
      ],
      [
        "retirada",
        -10.472265777576164
      ],
      [
        "Ġderrota",
        -10.472765090082602
      ],
      [
        "ĠPan",
        -10.47318437287318
      ],
      [
        "Ġclara",
        -10.474513733022556
      ],
      [
        "2020",
        -10.474588819231055
      ],
      [
        "contexto",
        -10.474653734157984
      ],
      [
        "ĠMeio",
        -10.474932504637646
      ],
      [
        "Ġescolha",
        -10.475003903168714
      ],
      [
        "Ġtinham",
        -10.475104515326372
      ],
      [
        "Ġseque",
        -10.475211485179804
      ],
      [
        "ĠNota",
        -10.476207044688492
      ],
      [
        "ĠAmazonas",
        -10.476336443531242
      ],
      [
        "genas",
        -10.476769407683372
      ],
      [
        "ficado",
        -10.476908119682014
      ],
      [
        "Magalha",
        -10.47702170096207
      ],
      [
        "vista",
        -10.477120178818904
      ],
      [
        "ĠRegional",
        -10.477406156588852
      ],
      [
        "Ġinternacionais",
        -10.477504177775476
      ],
      [
        "Ġvelho",
        -10.478009507315166
      ],
      [
        "Ġsur",
        -10.47839090266352
      ],
      [
        "Ġesteja",
        -10.479561791572356
      ],
      [
        "Ġfogo",
        -10.479604505944335
      ],
      [
        "Ġvoz",
        -10.479628779057665
      ],
      [
        "Ġmulti",
        -10.479725130821969
      ],
      [
        "ĠSec",
        -10.480330955273416
      ],
      [
        "desempenho",
        -10.480948467802357
      ],
      [
        "Ġcomando",
        -10.481246295454415
      ],
      [
        "gresso",
        -10.481264817931358
      ],
      [
        "ĠParai",
        -10.481276713695824
      ],
      [
        "Ġesposa",
        -10.48232921809481
      ],
      [
        "ĠBor",
        -10.482563927400706
      ],
      [
        "BRA",
        -10.48257412926375
      ],
      [
        "http",
        -10.48271441650364
      ],
      [
        "Ġcorac",
        -10.482747260650484
      ],
      [
        "regras",
        -10.483115906124546
      ],
      [
        "Ġeleitoral",
        -10.483190517820926
      ],
      [
        "Ġsexta",
        -10.48322204604697
      ],
      [
        "ĠMil",
        -10.483352859924718
      ],
      [
        "Ġposse",
        -10.483569900091982
      ],
      [
        "Ġfrance",
        -10.484111728547994
      ],
      [
        "ĠJapa",
        -10.484183073057428
      ],
      [
        "Ġpatrimo",
        -10.48520083631659
      ],
      [
        "ganhou",
        -10.486183355940767
      ],
      [
        "Ġutilizado",
        -10.486977860571017
      ],
      [
        "Ġprodutor",
        -10.48829011373201
      ],
      [
        "Ġcorte",
        -10.489658278478748
      ],
      [
        "Ġampla",
        -10.489873526846775
      ],
      [
        "Ġ51",
        -10.490599084435752
      ],
      [
        "Ġtentativa",
        -10.49064147984289
      ],
      [
        "Ġdecorre",
        -10.491768057010386
      ],
      [
        "reconhecimento",
        -10.49197184099951
      ],
      [
        "ĠIsto",
        -10.492657405675484
      ],
      [
        "sobretudo",
        -10.49271811414158
      ],
      [
        "polis",
        -10.493045528219747
      ],
      [
        "Ġcobra",
        -10.49313319112354
      ],
      [
        "Ġmassa",
        -10.493526501086452
      ],
      [
        "Ġdestaca",
        -10.495359206733417
      ],
      [
        "¾",
        -10.495836969909456
      ],
      [
        "convidado",
        -10.496766385841113
      ],
      [
        "ĠPRIMEIR",
        -10.497039530065216
      ],
      [
        "Ġexigi",
        -10.497181170057756
      ],
      [
        "ĠPessoa",
        -10.497211471143276
      ],
      [
        "rais",
        -10.49831810421969
      ],
      [
        "ĠBarros",
        -10.49866455307007
      ],
      [
        "ð",
        -10.499005941234158
      ],
      [
        "todo",
        -10.4990612770465
      ],
      [
        "ocorreu",
        -10.49922128765517
      ],
      [
        "habea",
        -10.499404115830274
      ],
      [
        "Ġtransfere",
        -10.499507872249955
      ],
      [
        "ĠCarreira",
        -10.499785619501328
      ],
      [
        "pula",
        -10.499970694741204
      ],
      [
        "ĠMARCO",
        -10.500471148473132
      ],
      [
        "ĠClaro",
        -10.502076013430468
      ],
      [
        "Ġconhec",
        -10.502464983674251
      ],
      [
        "ĠJOA",
        -10.50249621279658
      ],
      [
        "ĠExterior",
        -10.503928013758172
      ],
      [
        "ENTE",
        -10.50486641499551
      ],
      [
        "Jogos",
        -10.50660529916424
      ],
      [
        "Ġapro",
        -10.50679849677416
      ],
      [
        "Ġagra",
        -10.506798529945245
      ],
      [
        "cadas",
        -10.50710771617078
      ],
      [
        "apelo",
        -10.507117197192278
      ],
      [
        "ĠSte",
        -10.507213583002418
      ],
      [
        "Ġtive",
        -10.507552683538968
      ],
      [
        "Ġassinatura",
        -10.508042258564098
      ],
      [
        "lite",
        -10.508312029121925
      ],
      [
        "Ġrelator",
        -10.508324098108996
      ],
      [
        "berg",
        -10.509221145525084
      ],
      [
        "Vi",
        -10.509372417398184
      ],
      [
        "Ġquiser",
        -10.509788352343238
      ],
      [
        "Ġ62",
        -10.509858001116513
      ],
      [
        "ĠCPI",
        -10.509863364293224
      ],
      [
        "PpP",
        -10.50988768324342
      ],
      [
        "Ġdomi",
        -10.509937685862624
      ],
      [
        "Ġviu",
        -10.510525717304375
      ],
      [
        "Ġofi",
        -10.510543150944992
      ],
      [
        "ĠFolha",
        -10.51091257344477
      ],
      [
        "aqueles",
        -10.510920363587116
      ],
      [
        "ĠNac",
        -10.511302159978625
      ],
      [
        "ĠFerreira",
        -10.511311296754185
      ],
      [
        "bus",
        -10.51227941194632
      ],
      [
        "Ĩ",
        -10.51244244678842
      ],
      [
        "ĠClube",
        -10.512768087050796
      ],
      [
        "Ġexposic",
        -10.512798950889652
      ],
      [
        "Enquanto",
        -10.513015767413924
      ],
      [
        "Ġexterior",
        -10.513018061204669
      ],
      [
        "ĠConstitucional",
        -10.513541693843557
      ],
      [
        "Ġcursos",
        -10.513961291192514
      ],
      [
        "Ġexplorac",
        -10.514322390618275
      ],
      [
        "gicos",
        -10.51483854829076
      ],
      [
        "Ġincide",
        -10.515106803686855
      ],
      [
        "Ġcontato",
        -10.515400254021117
      ],
      [
        "metade",
        -10.515415672739223
      ],
      [
        "Ġtende",
        -10.516749738574203
      ],
      [
        "nicas",
        -10.516862942256164
      ],
      [
        "havend",
        -10.517403439516738
      ],
      [
        "Ġcultural",
        -10.51770912460101
      ],
      [
        "ĠNada",
        -10.520750992372314
      ],
      [
        "ĠKe",
        -10.52097551477331
      ],
      [
        "Ġvencedor",
        -10.521315139538649
      ],
      [
        "ĠVito",
        -10.521479067747409
      ],
      [
        "Ġlivros",
        -10.52175139131804
      ],
      [
        "Ġ1992",
        -10.522086222522686
      ],
      [
        "iana",
        -10.522199483712464
      ],
      [
        "conclusa",
        -10.522494240214318
      ],
      [
        "ĠVirgi",
        -10.522829712513802
      ],
      [
        "Ġprima",
        -10.5228507851099
      ],
      [
        "mbia",
        -10.522891894576857
      ],
      [
        "Ġterceira",
        -10.523351930316444
      ],
      [
        "Ġmorto",
        -10.52358613768694
      ],
      [
        "ĠGer",
        -10.523952903321286
      ],
      [
        "Ġbebe",
        -10.524523051748693
      ],
      [
        "PB",
        -10.52547694120472
      ],
      [
        "ESTADO",
        -10.525665316051942
      ],
      [
        "Ġesco",
        -10.526141812726088
      ],
      [
        "ĠMello",
        -10.526408461928664
      ],
      [
        "IDA",
        -10.526860389146323
      ],
      [
        "Ġconseque",
        -10.527557721162523
      ],
      [
        "finalidade",
        -10.527580413021324
      ],
      [
        "Ġdiploma",
        -10.527829074119046
      ],
      [
        "Ġamplia",
        -10.52829127904149
      ],
      [
        "ica",
        -10.52863355363901
      ],
      [
        "Ġauxi",
        -10.528753548530831
      ],
      [
        "ĠEspanha",
        -10.528773401803225
      ],
      [
        "Ġqua",
        -10.52913369763747
      ],
      [
        "Ġinteiro",
        -10.52922859067066
      ],
      [
        "Ġpersonagem",
        -10.52950871914032
      ],
      [
        "funcionamento",
        -10.529574475337643
      ],
      [
        "Ġsabia",
        -10.529635594446365
      ],
      [
        "Ġsauda",
        -10.530108677913756
      ],
      [
        "Outra",
        -10.530128896452515
      ],
      [
        "ĠFre",
        -10.530182125391956
      ],
      [
        "Ġveja",
        -10.531010465620325
      ],
      [
        "Ġmorreu",
        -10.531094358613514
      ],
      [
        "Ġproduzir",
        -10.5315606838544
      ],
      [
        "udio",
        -10.532799184231614
      ],
      [
        "ĠBru",
        -10.532852160476995
      ],
      [
        "Ġservi",
        -10.533188003005938
      ],
      [
        "Ġprefeito",
        -10.533814484268168
      ],
      [
        "ADA",
        -10.533869744638857
      ],
      [
        "Embora",
        -10.535392787169496
      ],
      [
        "ĠEdita",
        -10.535779573564213
      ],
      [
        "mantid",
        -10.535824607669756
      ],
      [
        "Ġcampea",
        -10.53620334882311
      ],
      [
        "Ġcima",
        -10.53645470438129
      ],
      [
        "ĠExe",
        -10.53645669242476
      ],
      [
        "duto",
        -10.536456797913306
      ],
      [
        "americano",
        -10.5372964022541
      ],
      [
        "Ġdanc",
        -10.537702138640617
      ],
      [
        "Ġpermanente",
        -10.53773927780768
      ],
      [
        "trinta",
        -10.537772859127264
      ],
      [
        "policiais",
        -10.537841380851344
      ],
      [
        "Ġinu",
        -10.539145615810964
      ],
      [
        "micas",
        -10.539783356249838
      ],
      [
        "sicos",
        -10.540608012028184
      ],
      [
        "Ġadministrativo",
        -10.54145902444983
      ],
      [
        "Ġinc",
        -10.541482811249065
      ],
      [
        "suspensa",
        -10.542478763112996
      ],
      [
        "Ġcrista",
        -10.542538021049234
      ],
      [
        "Ġgera",
        -10.542576950703031
      ],
      [
        "Ġdeterminado",
        -10.542741375673195
      ],
      [
        "Ġcoloca",
        -10.542858964734949
      ],
      [
        "Ġmedo",
        -10.542944513439291
      ],
      [
        "Ġinicia",
        -10.543118867047324
      ],
      [
        "Ġsemelhante",
        -10.543250182368611
      ],
      [
        "Ġfrequ",
        -10.543306072749257
      ],
      [
        "Ġadolescente",
        -10.543316782005272
      ],
      [
        "ĠYork",
        -10.543420516876743
      ],
      [
        "ĠMartins",
        -10.543663023300477
      ],
      [
        "ĠAP",
        -10.543806769816287
      ],
      [
        "Ġanual",
        -10.543886039064356
      ],
      [
        "ĠMelhor",
        -10.544035049287592
      ],
      [
        "Ġfloresta",
        -10.54431103095384
      ],
      [
        "Ġperder",
        -10.5448962270061
      ],
      [
        "Assunto",
        -10.545314715056584
      ],
      [
        "ĠMuseu",
        -10.545392682724652
      ],
      [
        "geralmente",
        -10.545658154088846
      ],
      [
        "Ġrever",
        -10.54580705739476
      ],
      [
        "ĠVida",
        -10.546186787302256
      ],
      [
        "ĠPala",
        -10.547114396092152
      ],
      [
        "Sarney",
        -10.54743537388094
      ],
      [
        "pra",
        -10.548831149538383
      ],
      [
        "Couto",
        -10.549023291887586
      ],
      [
        "fizeram",
        -10.549123533761186
      ],
      [
        "Ġaquilo",
        -10.549231194357088
      ],
      [
        "ĠParte",
        -10.549344894202504
      ],
      [
        "Bibliografia",
        -10.550114396715628
      ],
      [
        "Ġ46",
        -10.550400882526054
      ],
      [
        "Ġcircunsta",
        -10.550723107894536
      ],
      [
        "Ġmilha",
        -10.550868672354587
      ],
      [
        "negociac",
        -10.55150576916544
      ],
      [
        "½",
        -10.551837884389794
      ],
      [
        "posic",
        -10.551868006732551
      ],
      [
        "ĠConstitui",
        -10.552265840852016
      ],
      [
        "Ġprofessores",
        -10.552476826019197
      ],
      [
        "Pernambuco",
        -10.552577433671456
      ],
      [
        "Ġpensar",
        -10.55260769991862
      ],
      [
        "equipamentos",
        -10.55272251178572
      ],
      [
        "Ġpressa",
        -10.552812312274972
      ],
      [
        "Ġconflito",
        -10.554603830478362
      ],
      [
        "Ġpaz",
        -10.554659660302995
      ],
      [
        "Ġconsumidor",
        -10.554913223610727
      ],
      [
        "Ġaceita",
        -10.55526077435008
      ],
      [
        "Ġintenc",
        -10.555263733480755
      ],
      [
        "ET",
        -10.5555104176781
      ],
      [
        "Ġcorrente",
        -10.55551219093886
      ],
      [
        "Ġ1913",
        -10.555819106862144
      ],
      [
        "Ġenorme",
        -10.557000395150606
      ],
      [
        "2002",
        -10.557434212086402
      ],
      [
        "Ġobserva",
        -10.557453471467312
      ],
      [
        "Ġlonga",
        -10.557505177794956
      ],
      [
        "ĠAgricultura",
        -10.557527603050447
      ],
      [
        "estudantes",
        -10.558261977732151
      ],
      [
        "Ġregistrar",
        -10.558585149379706
      ],
      [
        "terminou",
        -10.559013621247448
      ],
      [
        "Ġfamiliar",
        -10.559193684249337
      ],
      [
        "elementos",
        -10.559294771285233
      ],
      [
        "ĠFac",
        -10.55972722674057
      ],
      [
        "ĠPiaui",
        -10.560198274536344
      ],
      [
        "quina",
        -10.560699770377235
      ],
      [
        "Ġparcela",
        -10.561319087195445
      ],
      [
        "Ġ200",
        -10.561360944993456
      ],
      [
        "requer",
        -10.561442485925191
      ],
      [
        "Vieira",
        -10.562144013311151
      ],
      [
        "ĠTro",
        -10.562216630080224
      ],
      [
        "ĠMonte",
        -10.562542775142177
      ],
      [
        "ĠReuni",
        -10.562547264248431
      ],
      [
        "tais",
        -10.563780016673574
      ],
      [
        "ficos",
        -10.564147156777551
      ],
      [
        "Ġinterpretac",
        -10.564317654312534
      ],
      [
        "Ġdeseja",
        -10.564620231990348
      ],
      [
        "nanimidade",
        -10.56490702241085
      ],
      [
        "presidente",
        -10.564980689466289
      ],
      [
        "MP",
        -10.565360221098304
      ],
      [
        "cionado",
        -10.566221753237604
      ],
      [
        "Estatuto",
        -10.566339490705332
      ],
      [
        "Ġjeito",
        -10.566488735794955
      ],
      [
        "ĠParece",
        -10.566951218919236
      ],
[...]
