{
  "version": "1.0",
  "truncation": {
    "direction": "Right",
    "max_length": 2048,
    "strategy": "LongestFirst",
    "stride": 0
  },
  "padding": null,
  "added_tokens": [
    {
      "id": 0,
      "content": "[PAD]",
      "single_word": false,
      "lstrip": false,
      "rstrip": false,
      "normalized": false,
      "special": true
    },
    {
      "id": 1,
      "content": "[SEP]",
      "single_word": false,
      "lstrip": false,
      "rstrip": false,
      "normalized": false,
      "special": true
    },
    {
      "id": 2,
      "content": "[EOS]",
      "single_word": false,
      "lstrip": false,
      "rstrip": false,
      "normalized": false,
      "special": true
    },
    {
      "id": 3,
      "content": "[UNK]",
      "single_word": false,
      "lstrip": false,
      "rstrip": false,
      "normalized": false,
      "special": true
    }
  ],
  "normalizer": {
    "type": "Sequence",
    "normalizers": [
      {
        "type": "Strip",
        "strip_left": true,
        "strip_right": true
      },
      {
        "type": "NFKD"
      }
    ]
  },
  "pre_tokenizer": {
    "type": "ByteLevel",
    "add_prefix_space": true,
    "trim_offsets": true,
    "use_regex": true
  },
  "post_processor": {
    "type": "Sequence",
    "processors": [
      {
        "type": "ByteLevel",
        "add_prefix_space": true,
        "trim_offsets": true,
        "use_regex": true
      },
      {
        "type": "TemplateProcessing",
        "single": [
          {
            "Sequence": {
              "id": "A",
              "type_id": 0
            }
          },
          {
            "SpecialToken": {
              "id": "[EOS]",
              "type_id": 0
            }
          }
        ],
        "pair": [
          {
            "Sequence": {
              "id": "A",
              "type_id": 0
            }
          },
          {
            "SpecialToken": {
              "id": "[SEP]",
              "type_id": 0
            }
          },
          {
            "Sequence": {
              "id": "B",
              "type_id": 0
            }
          },
          {
            "SpecialToken": {
              "id": "[EOS]",
              "type_id": 0
            }
          }
        ],
        "special_tokens": {
          "[EOS]": {
            "id": "[EOS]",
            "ids": [
              2
            ],
            "tokens": [
              "[EOS]"
            ]
          },
          "[SEP]": {
            "id": "[SEP]",
            "ids": [
              1
            ],
            "tokens": [
              "[SEP]"
            ]
          }
        }
      }
    ]
  },
  "decoder": {
    "type": "ByteLevel",
    "add_prefix_space": true,
    "trim_offsets": true,
    "use_regex": true
  },
  "model": {
    "type": "Unigram",
    "unk_id": 3,
    "vocab": [
      [
        "[PAD]",
        0.0
      ],
      [
        "[SEP]",
        0.0
      ],
      [
        "[EOS]",
        0.0
      ],
      [
        "[UNK]",
        0.0
      ],
      [
        "Ġ",
        -2.1391356722575843
      ],
      [
        "a",
        -2.879511185015051
      ],
      [
        "Ì",
        -2.9015547903372116
      ],
      [
        "o",
        -2.9706102734267397
      ],
      [
        "s",
        -3.268816410919438
      ],
      [
        "e",
        -3.35163160452343
      ],
      [
        ",",
        -3.602515323258693
      ],
      [
        "ģ",
        -3.695732206313824
      ],
      [
        ".",
        -3.8218997284123337
      ],
      [
        "Ġde",
        -3.9272609886882393
      ],
      [
        "ĥ",
        -4.0023527045256735
      ],
      [
        "d",
        -4.246690160225565
      ],
      [
        "r",
        -4.2850889398649485
      ],
      [
        "§",
        -4.441814653430551
      ],
      [
        "u",
        -4.517482585501597
      ],
      [
        "i",
        -4.560262524708772
      ],
      [
        "m",
        -4.598259343291176
      ],
      [
        "n",
        -4.6257913905418455
      ],
      [
        "c",
        -4.695535440157929
      ],
      [
        "l",
        -4.865497056848934
      ],
      [
        "Ġdo",
        -4.917589684736637
      ],
      [
        "Ġque",
        -4.921606927322806
      ],
      [
        "-",
        -4.936786947641522
      ],
      [
        "t",
        -5.002344651646293
      ],
      [
        "A",
        -5.241317791742748
      ],
      [
        "ÌĤ",
        -5.319193867742225
      ],
      [
        "O",
        -5.363140852297654
      ],
      [
        "Ġna",
        -5.443231693001724
      ],
      [
        "Ġem",
        -5.506007444746377
      ],
      [
        "p",
        -5.508645777025137
      ],
      [
        "\"",
        -5.5734265473951865
      ],
      [
        "Ġno",
        -5.583817210434297
      ],
      [
        ")",
        -5.623638422064204
      ],
      [
        "(",
        -5.627184985658712
      ],
      [
        "Ġpara",
        -5.7106181592572085
      ],
      [
        "Ġcom",
        -5.763286939699967
      ],
      [
        "g",
        -5.8450730499914805
      ],
      [
        "E",
        -5.899771950492418
      ],
      [
        "b",
        -6.037291306553106
      ],
      [
        ":",
        -6.066322169666096
      ],
      [
        "Ġum",
        -6.077006488399565
      ],
      [
        "ĠâĢĵ",
        -6.104384088267988
      ],
      [
        "/",
        -6.1083932325399015
      ],
      [
        "v",
        -6.124569789553565
      ],
      [
        "I",
        -6.125042540785676
      ],
      [
        "S",
        -6.158622739372456
      ],
      [
        "C",
        -6.216985886099444
      ],
      [
        "Ġpor",
        -6.330554501119032
      ],
      [
        "Ġuma",
        -6.33507561147667
      ],
      [
        "N",
        -6.349673137801522
      ],
      [
        "2",
        -6.357641094178662
      ],
      [
        "ncia",
        -6.357996412309621
      ],
      [
        "3",
        -6.367457937472105
      ],
      [
        "4",
        -6.370893864524511
      ],
      [
        "f",
        -6.383478823489696
      ],
      [
        "5",
        -6.416427374188965
      ],
      [
        "ÌĢ",
        -6.457661292426527
      ],
      [
        "6",
        -6.458688489226436
      ],
      [
        "ti",
        -6.479000534338496
      ],
      [
        "1",
        -6.49378137778454
      ],
      [
        "ria",
        -6.505813203075311
      ],
      [
        "R",
        -6.542264499001542
      ],
      [
        "7",
        -6.553323696956921
      ],
      [
        "rio",
        -6.554010901657103
      ],
      [
        "ri",
        -6.579744782532565
      ],
      [
        "8",
        -6.581686252520528
      ],
      [
        "h",
        -6.5870465055756675
      ],
      [
        "z",
        -6.601637987041389
      ],
      [
        "Ġdos",
        -6.666103545611669
      ],
      [
        "li",
        -6.686081029386566
      ],
      [
        "P",
        -6.703889955777772
      ],
      [
        "ndo",
        -6.763306300735012
      ],
      [
        "9",
        -6.7720424918763005
      ],
      [
        "Ġcomo",
        -6.776996473491275
      ],
      [
        "de",
        -6.780150504573763
      ],
      [
        "?",
        -6.78703260759176
      ],
      [
        "Ġesta",
        -6.787776228627775
      ],
      [
        "Ġfoi",
        -6.857105965960006
      ],
      [
        "M",
        -6.882157643247032
      ],
      [
        "!",
        -6.892106779811547
      ],
      [
        "Ġmais",
        -6.923993839610544
      ],
      [
        "U",
        -6.937396876171391
      ],
      [
        "L",
        -6.960063463499964
      ],
      [
        "y",
        -6.966387780211377
      ],
      [
        "B",
        -6.970476729906348
      ],
      [
        "Ġdas",
        -6.990140261745955
      ],
      [
        "D",
        -7.000494518557284
      ],
      [
        "ĠNo",
        -7.003306104250138
      ],
      [
        "ĠNa",
        -7.016952235156886
      ],
      [
        ";",
        -7.053947276601177
      ],
      [
        "ĠDE",
        -7.058116433315572
      ],
      [
        "V",
        -7.070933928326767
      ],
      [
        "Ġpela",
        -7.071446473764475
      ],
      [
        "F",
        -7.074998021208357
      ],
      [
        "dos",
        -7.095412790099257
      ],
      [
        "T",
        -7.115242413386502
      ],
      [
        "G",
        -7.131107604683711
      ],
      [
        "Ġcon",
        -7.132229113740584
      ],
      [
        "Ġpelo",
        -7.14028717940012
      ],
      [
        "Ġsua",
        -7.167974407052045
      ],
      [
        "Ġ19",
        -7.168768280485796
      ],
      [
        "Ġpro",
        -7.1714440760432705
      ],
      [
        "Ġser",
        -7.1834529149948665
      ],
      [
        "ĠCa",
        -7.186963681601593
      ],
      [
        "Ġin",
        -7.1904917186666335
      ],
      [
        "que",
        -7.196549511212247
      ],
      [
        "k",
        -7.197330833566184
      ],
      [
        "ĠSr",
        -7.2159099201695245
      ],
      [
        "...",
        -7.229242688656129
      ],
      [
        "ci",
        -7.238731457720945
      ],
      [
        "................",
        -7.238823760886016
      ],
      [
        "mente",
        -7.271128007844192
      ],
      [
        "Ġsobre",
        -7.311569764162588
      ],
      [
        "vi",
        -7.351202727055254
      ],
      [
        "ita",
        -7.358702183135616
      ],
      [
        "vel",
        -7.363780288069281
      ],
      [
        "Ġseu",
        -7.391003143946701
      ],
      [
        "ĠâĢľ",
        -7.399843931249297
      ],
      [
        "j",
        -7.408536347534483
      ],
      [
        "idade",
        -7.412872503969449
      ],
      [
        "nte",
        -7.443792948114851
      ],
      [
        "x",
        -7.458054644883765
      ],
      [
        "ĠPresidente",
        -7.462485172268517
      ],
      [
        "ĠEm",
        -7.463799746906847
      ],
      [
        "ter",
        -7.467325965428557
      ],
      [
        "res",
        -7.468270185222592
      ],
      [
        "Ġpre",
        -7.478496434255014
      ],
      [
        "ĠLei",
        -7.49705862444336
      ],
      [
        "Ġtambe",
        -7.498523553556481
      ],
      [
        "ĠMa",
        -7.51233774259723
      ],
      [
        "ĠSa",
        -7.537742988900021
      ],
      [
        "w",
        -7.545129040145875
      ],
      [
        "cia",
        -7.566059283799271
      ],
      [
        "Ġte",
        -7.568801902006193
      ],
      [
        "mos",
        -7.569670705688111
      ],
      [
        "Ġex",
        -7.570248402766337
      ],
      [
        "Ġele",
        -7.571045122283602
      ],
      [
        "tica",
        -7.579008439074555
      ],
      [
        "Ġtem",
        -7.586882104189634
      ],
      [
        "bi",
        -7.595171207848402
      ],
      [
        "ĠDeputado",
        -7.603519965295515
      ],
      [
        "Ġmas",
        -7.606663505556071
      ],
      [
        "das",
        -7.60674223849559
      ],
      [
        "Ġpu",
        -7.608338936147634
      ],
      [
        "sta",
        -7.611157265546851
      ],
      [
        "ĠSe",
        -7.621186940991752
      ],
      [
        "Ġnos",
        -7.621677992056462
      ],
      [
        "min",
        -7.621870500815461
      ],
      [
        "Ġart",
        -7.631183990292692
      ],
      [
        "0",
        -7.631794640537414
      ],
      [
        "cio",
        -7.636003748412421
      ],
      [
        "Ġco",
        -7.674053071781479
      ],
      [
        "ver",
        -7.67626612458543
      ],
      [
        "fi",
        -7.721712797676251
      ],
      [
        "ĠSR",
        -7.729028397480938
      ],
      [
        "tor",
        -7.742004884700956
      ],
      [
        "ĠDe",
        -7.76141823236361
      ],
      [
        "ĠFederal",
        -7.76594584536992
      ],
      [
        "lia",
        -7.769145661195619
      ],
      [
        "rios",
        -7.773897613404891
      ],
      [
        "dia",
        -7.774333742359575
      ],
      [
        "mento",
        -7.776613383069739
      ],
      [
        "Ġisso",
        -7.780631890884331
      ],
      [
        "Ġvoce",
        -7.7845099948782845
      ],
      [
        "ĠRe",
        -7.785248698880753
      ],
      [
        "ram",
        -7.785954456668174
      ],
      [
        "fica",
        -7.794718438418997
      ],
      [
        "ncias",
        -7.800002661855148
      ],
      [
        "Ġanos",
        -7.813458913290713
      ],
      [
        "ĠBrasil",
        -7.816985007991018
      ],
      [
        "ĠEstado",
        -7.819196219159267
      ],
      [
        "ira",
        -7.835337575958098
      ],
      [
        "ĠSenador",
        -7.83573572269604
      ],
      [
        "qui",
        -7.846858523674642
      ],
      [
        "ĠW",
        -7.853041794233041
      ],
      [
        "ĠEu",
        -7.854129938704711
      ],
      [
        "gu",
        -7.858298763019024
      ],
      [
        "ente",
        -7.865728478445176
      ],
      [
        "era",
        -7.87898883989542
      ],
      [
        "Ġentre",
        -7.885355345155551
      ],
      [
        "tra",
        -7.88663945965553
      ],
      [
        "blica",
        -7.886956701600903
      ],
      [
        "Ġate",
        -7.891654016159883
      ],
      [
        "J",
        -7.893001383187238
      ],
      [
        "Ġmuito",
        -7.901216888966214
      ],
      [
        "Ġcontra",
        -7.902339035555821
      ],
      [
        "Ġforma",
        -7.9084915507288915
      ],
      [
        "tro",
        -7.914737938996197
      ],
      [
        "tar",
        -7.917870259198974
      ],
      [
        "%",
        -7.920082850913964
      ],
      [
        "ina",
        -7.944200332361801
      ],
      [
        "Ġja",
        -7.953966441204619
      ],
      [
        "Ġvi",
        -7.961319963778916
      ],
      [
        "lha",
        -7.9665806510609904
      ],
      [
        "Ġpa",
        -7.97673154939616
      ],
      [
        "ĠIn",
        -7.983888193743615
      ],
      [
        "gi",
        -7.987482241719908
      ],
      [
        "enta",
        -8.000519473340628
      ],
      [
        "ando",
        -8.003605175501447
      ],
      [
        "eiro",
        -8.01824925902955
      ],
      [
        "ES",
        -8.019898613316874
      ],
      [
        "ĠComissa",
        -8.020221359940567
      ],
      [
        "ĠCo",
        -8.021083671759769
      ],
      [
        "ĠCon",
        -8.021176396908293
      ],
      [
        "dio",
        -8.039098176781375
      ],
      [
        "ĠCom",
        -8.042881088950733
      ],
      [
        "Ġbem",
        -8.043636869899013
      ],
      [
        "Ġ10",
        -8.046764491622909
      ],
      [
        "ĠMe",
        -8.04839258404637
      ],
      [
        "Ġsem",
        -8.050046330359399
      ],
      [
        "par",
        -8.05452493206858
      ],
      [
        "tado",
        -8.056868444572297
      ],
      [
        "Ġha",
        -8.058637484127653
      ],
      [
        "Ġter",
        -8.061363110805075
      ],
      [
        "gra",
        -8.061615204356498
      ],
      [
        "Ġaqui",
        -8.063811024838145
      ],
      [
        "tiva",
        -8.070682195540405
      ],
      [
        "Ġpode",
        -8.079525343752671
      ],
      [
        "iz",
        -8.08158824286915
      ],
      [
        "Ġva",
        -8.083144667741736
      ],
      [
        "H",
        -8.094360514758042
      ],
      [
        "Ġquando",
        -8.099145017177186
      ],
      [
        "amento",
        -8.100722575129453
      ],
      [
        "Ġdia",
        -8.102645055376247
      ],
      [
        "ĠLi",
        -8.104040615971948
      ],
      [
        "ĠMo",
        -8.112383369866498
      ],
      [
        "ntes",
        -8.114375957559451
      ],
      [
        "per",
        -8.116580707549302
      ],
      [
        "ing",
        -8.122824783161555
      ],
      [
        "rac",
        -8.12570290328623
      ],
      [
        "nha",
        -8.126880195202876
      ],
      [
        "car",
        -8.127060303823384
      ],
      [
        "Ġmesmo",
        -8.131900087848699
      ],
      [
        "Ġpoli",
        -8.141411647521114
      ],
      [
        "ĠNacional",
        -8.142422832017072
      ],
      [
        "tos",
        -8.147569375130324
      ],
      [
        "pre",
        -8.153236745594821
      ],
      [
        "der",
        -8.17202486166658
      ],
      [
        "ĠÂ§",
        -8.183195636708808
      ],
      [
        "ĠVi",
        -8.185237109367986
      ],
      [
        "Ġtodos",
        -8.189331918235379
      ],
      [
        "ĠPa",
        -8.19039931028614
      ],
      [
        "Ġpai",
        -8.190609611588945
      ],
      [
        "Ġ18",
        -8.19637533881427
      ],
      [
        "X",
        -8.19801966762575
      ],
      [
        "ĠPor",
        -8.200270824249426
      ],
      [
        "Ġainda",
        -8.204453704321878
      ],
      [
        "RA",
        -8.204720479766591
      ],
      [
        "ĠOs",
        -8.205164133969678
      ],
      [
        "ador",
        -8.209148493355677
      ],
      [
        "Ġpe",
        -8.209526301096439
      ],
      [
        "Ġpo",
        -8.210435334122383
      ],
      [
        "ĠAl",
        -8.211652563536251
      ],
      [
        "ĠDo",
        -8.23432054358031
      ],
      [
        "DO",
        -8.23639611670133
      ],
      [
        "nia",
        -8.241267091451943
      ],
      [
        "Ġseus",
        -8.25184898207049
      ],
      [
        "âĢĿ.",
        -8.25621497468394
      ],
      [
        "19",
        -8.2567816877371
      ],
      [
        "pro",
        -8.263819822604571
      ],
      [
        "_",
        -8.263908205860115
      ],
      [
        "Ìģ-",
        -8.26452416220943
      ],
      [
        "Ġcidade",
        -8.265802556243226
      ],
      [
        "tri",
        -8.272594520730337
      ],
      [
        "Ġparte",
        -8.27380425160062
      ],
      [
        "um",
        -8.277721843891323
      ],
      [
        "Ġfa",
        -8.281573788260982
      ],
      [
        "ĠTe",
        -8.282541198141237
      ],
      [
        "fer",
        -8.285413708047303
      ],
      [
        "00",
        -8.286340904089355
      ],
      [
        "rado",
        -8.286531534288681
      ],
      [
        "Ġforam",
        -8.290297925365957
      ],
      [
        "ĠPaulo",
        -8.293416016147194
      ],
      [
        "ja",
        -8.296872787433315
      ],
      [
        "Ġfazer",
        -8.297986844066418
      ],
      [
        "Z",
        -8.304194678815168
      ],
      [
        "ch",
        -8.304196936407088
      ],
      [
        "Ġcaso",
        -8.306947417104832
      ],
      [
        "rias",
        -8.310789510082486
      ],
      [
        "ĠHa",
        -8.310904372792063
      ],
      [
        "Ġano",
        -8.311528991847421
      ],
      [
        "ĠPL",
        -8.312261880167945
      ],
      [
        "qu",
        -8.325706823493396
      ],
      [
        "ĠLe",
        -8.33021848017665
      ],
      [
        "and",
        -8.33588699141969
      ],
      [
        "Ġsu",
        -8.336742969745515
      ],
      [
        "Ġessa",
        -8.337760396751097
      ],
      [
        "Ġservic",
        -8.33898910401509
      ],
      [
        "tivo",
        -8.339055910675327
      ],
      [
        "bra",
        -8.342738862712023
      ],
      [
        "Ġesse",
        -8.344614566310257
      ],
      [
        "Ġ11",
        -8.34645604314307
      ],
      [
        "ber",
        -8.346905032255522
      ],
      [
        "pio",
        -8.352451168669175
      ],
      [
        "rem",
        -8.35419739000806
      ],
      [
        "ĠEsta",
        -8.354958395727992
      ],
      [
        "ĠDa",
        -8.35855539542829
      ],
      [
        "ndi",
        -8.360156485652745
      ],
      [
        "br",
        -8.367233600559684
      ],
      [
        "ĠSu",
        -8.369639225570502
      ],
      [
        "ist",
        -8.369980177992188
      ],
      [
        "Ġseja",
        -8.370623877019165
      ],
      [
        "Ġve",
        -8.38110063187546
      ],
      [
        "Ġapo",
        -8.384731736049645
      ],
      [
        "TO",
        -8.385962566392474
      ],
      [
        "ĠBa",
        -8.388603075462127
      ],
      [
        "ĠEle",
        -8.390123228418059
      ],
      [
        "Ġfi",
        -8.390135325308844
      ],
      [
        "'",
        -8.391031032286342
      ],
      [
        "Ġtempo",
        -8.391162618525067
      ],
      [
        "ĠAs",
        -8.391341927325218
      ],
      [
        "ite",
        -8.396170347222055
      ],
      [
        "ĠDi",
        -8.397090065386369
      ],
      [
        "ĠMar",
        -8.399728267596346
      ],
      [
        "ĠPROJETO",
        -8.400906963471465
      ],
      [
        "ĠPara",
        -8.40518876793992
      ],
      [
        "via",
        -8.405917307986899
      ],
      [
        "Ġmeu",
        -8.41162549552162
      ],
      [
        "nico",
        -8.4137069057542
      ],
      [
        "Ġporque",
        -8.41481193426319
      ],
      [
        "ĠLa",
        -8.41538509662686
      ],
      [
        "ĠLEI",
        -8.418493144076285
      ],
      [
        "ĠJa",
        -8.420209770563362
      ],
      [
        "mara",
        -8.421636169860578
      ],
      [
        "Ġvai",
        -8.422273320925663
      ],
      [
        "lar",
        -8.423491112643068
      ],
      [
        "ste",
        -8.430289880780693
      ],
      [
        "Ġlei",
        -8.436468906468441
      ],
      [
        "ĠJu",
        -8.442632245670858
      ],
      [
        "tal",
        -8.442724243415316
      ],
      [
        "ĠPRESIDENTE",
        -8.443256456301583
      ],
      [
        "Ġres",
        -8.44469685268019
      ],
      [
        "ĠArt",
        -8.449096483891799
      ],
      [
        "Ġprimeiro",
        -8.450613282319102
      ],
      [
        "Ġpra",
        -8.45088600082067
      ],
      [
        "veis",
        -8.451394689576395
      ],
      [
        "ĠDeputados",
        -8.459378729546614
      ],
      [
        "nio",
        -8.461491313333239
      ],
      [
        "ela",
        -8.463922190340478
      ],
      [
        "Ġtra",
        -8.47032562090347
      ],
      [
        "ante",
        -8.47107224946541
      ],
      [
        "ĠBe",
        -8.472526417180623
      ],
      [
        "Ġ12",
        -8.474422838395764
      ],
      [
        "Ġver",
        -8.477822256045611
      ],
      [
        "cer",
        -8.479787668201718
      ],
      [
        "ĠPro",
        -8.483668880362378
      ],
      [
        "ĠGoverno",
        -8.483762963842706
      ],
      [
        "ĠMinistro",
        -8.484884216452043
      ],
      [
        "ĠMas",
        -8.486163803170403
      ],
      [
        "Ġ15",
        -8.49043781680196
      ],
      [
        "ĠVoce",
        -8.491005724966241
      ],
      [
        "Ġela",
        -8.491429933347092
      ],
      [
        "con",
        -8.493096929648123
      ],
      [
        "Ġba",
        -8.493219322530662
      ],
      [
        "Ġgrande",
        -8.495435876908672
      ],
      [
        "ĠConstituic",
        -8.495508350562844
      ],
      [
        "lin",
        -8.4964894006334
      ],
      [
        "Ġonde",
        -8.496755255756272
      ],
      [
        "ĠAn",
        -8.498106791750843
      ],
      [
        "cre",
        -8.500964179566735
      ],
      [
        "blico",
        -8.503618398035139
      ],
      [
        "cha",
        -8.505620759860083
      ],
      [
        "ck",
        -8.506714807361698
      ],
      [
        "tico",
        -8.50834662303247
      ],
      [
        "Ġeste",
        -8.511285709064977
      ],
      [
        "ĠRa",
        -8.512325758527325
      ],
      [
        "Ġpessoas",
        -8.512465618736648
      ],
      [
        "Ġ20",
        -8.512979739970298
      ],
      [
        "tac",
        -8.513404915423434
      ],
      [
        "Ġsera",
        -8.51858635255427
      ],
      [
        "ĠMi",
        -8.519839542796172
      ],
      [
        "Ġvez",
        -8.520103944607554
      ],
      [
        "com",
        -8.523974205501164
      ],
      [
        "âĢĿ",
        -8.52409555129222
      ],
      [
        "Ġartigo",
        -8.526994552698092
      ],
      [
        "Ġoutros",
        -8.531628738214954
      ],
      [
        "ista",
        -8.534791016642869
      ],
      [
        "Ġtrabalho",
        -8.543633853414033
      ],
      [
        "tua",
        -8.545216645465587
      ],
      [
        "Ġminha",
        -8.54830704022524
      ],
      [
        "Ġapenas",
        -8.548401065266201
      ],
      [
        "Ġoutras",
        -8.558425483576197
      ],
      [
        "dito",
        -8.56035966051563
      ],
      [
        "ĠPe",
        -8.564123522854468
      ],
      [
        "ten",
        -8.564148288907619
      ],
      [
        "ĠPre",
        -8.566225161311712
      ],
      [
        "ĠRELATOR",
        -8.567851159265778
      ],
      [
        "ĠAr",
        -8.572622748373298
      ],
      [
        "Ġsendo",
        -8.572764349505599
      ],
      [
        "Ġdois",
        -8.574055804975533
      ],
      [
        "Ġper",
        -8.57886529956681
      ],
      [
        "men",
        -8.581423456968968
      ],
      [
        "Ġnome",
        -8.58457832192493
      ],
      [
        "gar",
        -8.585489796271563
      ],
      [
        "gue",
        -8.587259228691183
      ],
      [
        "ant",
        -8.59353016754626
      ],
      [
        "ĠRefere",
        -8.593678333391802
      ],
      [
        "Q",
        -8.594100566038803
      ],
      [
        "ĠK",
        -8.596981280690876
      ],
      [
        "DA",
        -8.598159269026617
      ],
      [
        "Ġordem",
        -8.603644151401518
      ],
      [
        "gen",
        -8.603675623352771
      ],
      [
        "ĠRio",
        -8.605646996401793
      ],
      [
        "izac",
        -8.607919548664444
      ],
      [
        "Ġnosso",
        -8.608262638166336
      ],
      [
        "ĠProjeto",
        -8.613526564131567
      ],
      [
        "ĠFo",
        -8.616974002289007
      ],
      [
        "che",
        -8.618348585847986
      ],
      [
        "lho",
        -8.61873554132627
      ],
      [
        "ĠII",
        -8.61896476348845
      ],
      [
        "ĠBo",
        -8.623556517836986
      ],
      [
        "ser",
        -8.624374623030132
      ],
      [
        "ĠCasa",
        -8.624891670835252
      ],
      [
        "ha",
        -8.625315233974925
      ],
      [
        "ĠTo",
        -8.627785311446505
      ],
      [
        "Ġqual",
        -8.628049574022436
      ],
      [
        "mar",
        -8.629329570257497
      ],
      [
        "ĠFi",
        -8.634048937818186
      ],
      [
        "gua",
        -8.634511907911403
      ],
      [
        "inha",
        -8.635937250788485
      ],
      [
        "Ġsuas",
        -8.640633613527015
      ],
      [
        "Ġmaior",
        -8.645615018451025
      ],
      [
        "rito",
        -8.646442346296043
      ],
      [
        "Ġhoje",
        -8.648139093956317
      ],
      [
        "ĠPai",
        -8.648465583263576
      ],
      [
        "rica",
        -8.648740627203562
      ],
      [
        "ĠVa",
        -8.651529969389907
      ],
      [
        "Ġ16",
        -8.657335933394318
      ],
      [
        "Ġtermos",
        -8.657439104077323
      ],
      [
        "ĠPu",
        -8.659666382140049
      ],
      [
        "Ġsub",
        -8.66103127288066
      ],
      [
        "Ġprocesso",
        -8.665022392217267
      ],
      [
        "Ġassim",
        -8.66552915864042
      ],
      [
        "ava",
        -8.668581502111802
      ],
      [
        "ĠFa",
        -8.66866500784263
      ],
      [
        "Ġmeio",
        -8.668919623720882
      ],
      [
        "ĠSim",
        -8.670437138664791
      ],
      [
        "Y",
        -8.671726653311495
      ],
      [
        "10",
        -8.672119494178535
      ],
      [
        "Ġtre",
        -8.672752190341269
      ],
      [
        "ton",
        -8.673591980986142
      ],
      [
        "Ġ17",
        -8.674984252741886
      ],
      [
        "Ġprojeto",
        -8.677267149745427
      ],
      [
        "tura",
        -8.67745434396346
      ],
      [
        "ĠJose",
        -8.679647289781592
      ],
      [
        "nica",
        -8.68547799736329
      ],
      [
        "Ġrelac",
        -8.686685106633496
      ],
      [
        "cie",
        -8.691000531176133
      ],
      [
        "ĠPo",
        -8.69110463098323
      ],
      [
        "Ġfo",
        -8.69219492460862
      ],
      [
        "ĠHe",
        -8.69407043717339
      ],
      [
        "PSDB",
        -8.694271284408277
      ],
      [
        "ĠDA",
        -8.694666690000046
      ],
      [
        "Ġ14",
        -8.695487598982213
      ],
      [
        "dade",
        -8.696639555940832
      ],
      [
        "Ġ13",
        -8.699450130794688
      ],
      [
        "ĠSenado",
        -8.699651834200507
      ],
      [
        "ismo",
        -8.699723068745977
      ],
      [
        "ĠDO",
        -8.707925824195874
      ],
      [
        "11",
        -8.709429283291064
      ],
      [
        "dores",
        -8.712849211899853
      ],
      [
        "ĠSem",
        -8.715958290967233
      ],
      [
        "ex",
        -8.719031853479285
      ],
      [
        "rga",
        -8.719703958598524
      ],
      [
        "ĠFe",
        -8.72329619883039
      ],
      [
        "Ġdireito",
        -8.724935492815598
      ],
      [
        "tada",
        -8.7330700906871
      ],
      [
        "dica",
        -8.73442467466322
      ],
      [
        "nado",
        -8.73689173602826
      ],
      [
        "Ġdesta",
        -8.736977363066757
      ],
      [
        "les",
        -8.737805135897958
      ],
      [
        "Ġprimeira",
        -8.74084408306006
      ],
      [
        "Ġseguinte",
        -8.745855000402218
      ],
      [
        "inho",
        -8.746364432467447
      ],
      [
        "Ġdisse",
        -8.74742795406114
      ],
      [
        "OS",
        -8.747446388355172
      ],
      [
        "$",
        -8.747914436648033
      ],
      [
        "Ġsistema",
        -8.750252869481558
      ],
      [
        "Ġqualquer",
        -8.751631366113996
      ],
      [
        "vida",
        -8.75315138376608
      ],
      [
        "gem",
        -8.754960243848853
      ],
      [
        "ĠRepu",
        -8.756488308254232
      ],
      [
        "ĠTribunal",
        -8.756727028531039
      ],
      [
        "iva",
        -8.758719872146159
      ],
      [
        "Ġhisto",
        -8.75912212457482
      ],
      [
        "ional",
        -8.759696208614773
      ],
      [
        "Ġcada",
        -8.760648493024464
      ],
      [
        "Ġperi",
        -8.762015571279626
      ],
      [
        "DE",
        -8.763390180100405
      ],
      [
        "IS",
        -8.763489837133632
      ],
      [
        "ĠâĢ¢",
        -8.764898975505403
      ],
      [
        "Ġdeve",
        -8.765834695279654
      ],
      [
        "Ġdeste",
        -8.768446506256081
      ],
      [
        "ento",
        -8.773505400897175
      ],
      [
        "Ġmarc",
        -8.774832900529464
      ],
      [
        "Ġpalavra",
        -8.777861966090404
      ],
      [
        "th",
        -8.778754783333211
      ],
      [
        "RE",
        -8.779205583343089
      ],
      [
        "Ġvoto",
        -8.779464524005697
      ],
      [
        "Ġacordo",
        -8.788109680997845
      ],
      [
        "rei",
        -8.789284811716048
      ],
      [
        "sica",
        -8.790952642557647
      ],
      [
        "RIO",
        -8.79531275648154
      ],
      [
        "ĠMA",
        -8.796404329664961
      ],
      [
        "Ġdepois",
        -8.796999633595302
      ],
      [
        "ĠComo",
        -8.797503835305227
      ],
      [
        "Ġcasa",
        -8.798675412219696
      ],
      [
        "ciona",
        -8.79893513631481
      ],
      [
        "ĠTa",
        -8.79916429607746
      ],
      [
        "Ġnas",
        -8.799822624377073
      ],
      [
        "ĠMiniste",
        -8.8010567237377
      ],
      [
        "Ġinformac",
        -8.803113492079127
      ],
      [
        "ĠGa",
        -8.80694686191972
      ],
      [
        "12",
        -8.807642384833178
      ],
      [
        "Ġinter",
        -8.809374710046
      ],
      [
        "ĠPR",
        -8.810050083218442
      ],
      [
        "Ġtodo",
        -8.810680270364593
      ],
      [
        "TE",
        -8.811194894089146
      ],
      [
        "ate",
        -8.814550971071789
      ],
      [
        "Ġju",
        -8.81992567230096
      ],
      [
        "Ġprazo",
        -8.820592339331766
      ],
      [
        "bar",
        -8.82523106051046
      ],
      [
        "Ġvida",
        -8.825855002203173
      ],
      [
        "ĠCarlos",
        -8.828302359430864
      ],
      [
        "AS",
        -8.82859120176201
      ],
      [
        "ĠCar",
        -8.829819437421245
      ],
      [
        "Ġdis",
        -8.832427965327671
      ],
      [
        "ĠRelator",
        -8.834104528226089
      ],
      [
        "Ġmate",
        -8.83495947899331
      ],
      [
        "09",
        -8.837637435397783
      ],
      [
        "Ġmil",
        -8.839987859998722
      ],
      [
        "ĠSenhor",
        -8.842382350842662
      ],
      [
        "ĠPT",
        -8.843070122341308
      ],
      [
        "ĠLu",
        -8.844266710928771
      ],
      [
        "Ġconta",
        -8.844704144199564
      ],
      [
        "Ġagora",
        -8.846734499311117
      ],
      [
        "Ġpresente",
        -8.850690051651243
      ],
      [
        "Ġsob",
        -8.856941641878233
      ],
      [
        "ĠMu",
        -8.859706815840111
      ],
      [
        "ĠGe",
        -8.862000953233196
      ],
      [
        "Ġcomec",
        -8.865884492410254
      ],
      [
        "Ġfu",
        -8.872294695439162
      ],
      [
        "ĠMunici",
        -8.876424837668711
      ],
      [
        "Ġmelhor",
        -8.878310896279181
      ],
      [
        "Ġlanc",
        -8.881177639827069
      ],
      [
        "Bloco",
        -8.881275350411453
      ],
      [
        "Ġsegundo",
        -8.885801120159762
      ],
      [
        "AL",
        -8.886473289811551
      ],
      [
        "nos",
        -8.887284556129016
      ],
      [
        "Ġmundo",
        -8.888370952166913
      ],
      [
        "durante",
        -8.893143066248918
      ],
      [
        "Ġdizer",
        -8.893620461848624
      ],
      [
        "RO",
        -8.894169096428701
      ],
      [
        "tes",
        -8.896273311900652
      ],
      [
        "ĠJo",
        -8.896530396565334
      ],
      [
        "Ġcri",
        -8.896590041481813
      ],
      [
        "fl",
        -8.903214016013271
      ],
      [
        "Ġfato",
        -8.906212452034755
      ],
      [
        "las",
        -8.906987389537555
      ],
      [
        "ele",
        -8.907602027185316
      ],
      [
        "ĠVer",
        -8.90859101546564
      ],
      [
        "ĠJustic",
        -8.911186256869966
      ],
      [
        "Ġ24",
        -8.911407925906786
      ],
      [
        "lhe",
        -8.911905920547078
      ],
      [
        "gado",
        -8.913189999845423
      ],
      [
        "13",
        -8.913659325118049
      ],
      [
        "Ġnossa",
        -8.913901001801579
      ],
      [
        "adas",
        -8.915230801846688
      ],
      [
        "15",
        -8.917455980321574
      ],
      [
        "RI",
        -8.919144109050908
      ],
      [
        "Ġespe",
        -8.928040813708112
      ],
      [
        "Ġsido",
        -8.928858558954657
      ],
      [
        "ĠSi",
        -8.929766147883043
      ],
      [
        "vol",
        -8.93013446897361
      ],
      [
        "ger",
        -8.933026727770832
      ],
      [
        "Ġempresa",
        -8.936036216711003
      ],
      [
        "ĠSt",
        -8.938633737907153
      ],
      [
        "Ġsau",
        -8.941270016590243
      ],
      [
        "Ġ22",
        -8.94296431809624
      ],
      [
        "lio",
        -8.944025902882116
      ],
      [
        "Ġrecursos",
        -8.94448479526159
      ],
      [
        "Ġdezembro",
        -8.945224164601072
      ],
      [
        "orador",
        -8.94657478726019
      ],
      [
        "ĠHo",
        -8.94757275858912
      ],
      [
        "Ġfor",
        -8.949816313328585
      ],
      [
        "ral",
        -8.949943808177359
      ],
      [
        "ki",
        -8.951431058247483
      ],
      [
        "EL",
        -8.954706677160123
      ],
      [
        "ry",
        -8.955903449249067
      ],
      [
        "decisa",
        -8.956205645644706
      ],
      [
        "lica",
        -8.956332882905771
      ],
      [
        "Ġale",
        -8.956386189176348
      ],
      [
        "Ġestava",
        -8.959454111213025
      ],
      [
        "Ġoutro",
        -8.960111299619271
      ],
      [
        "Ġfinal",
        -8.961932382318466
      ],
      [
        "Ġato",
        -8.962257026684636
      ],
      [
        "Ġ30",
        -8.962647867480623
      ],
      [
        "ĠEstados",
        -8.964041897188473
      ],
      [
        "Ġpopulac",
        -8.964125497034178
      ],
      [
        "Ġfaz",
        -8.96727445255186
      ],
      [
        "Ġpartir",
        -8.968385578418475
      ],
      [
        "amos",
        -8.971685072051411
      ],
      [
        "Ġtudo",
        -8.971746907289472
      ],
      [
        "ende",
        -8.972388390195054
      ],
      [
        "=",
        -8.973843264962683
      ],
      [
        "MA",
        -8.978654598321608
      ],
      [
        "Ġfami",
        -8.980151733895667
      ],
      [
        "ĠJoa",
        -8.982368157573026
      ],
      [
        "Ġcondic",
        -8.984416364011206
      ],
      [
        "Ġantes",
        -8.98467288402421
      ],
      [
        "Ġrevisa",
        -8.98483698909411
      ],
      [
        "los",
        -8.985650765618571
      ],
      [
        "culo",
        -8.99351688591822
      ],
      [
        "ĠPMDB",
        -8.994494072640748
      ],
      [
        "mero",
        -8.99672344498508
      ],
      [
        "Ġmomento",
        -8.997088379724465
      ],
      [
        "@",
        -8.998137126560092
      ],
      [
        "2009",
        -9.000139730772284
      ],
      [
        "Ġvalor",
        -9.000282666771634
      ],
      [
        "Ġgrupo",
        -9.001842324805645
      ],
      [
        "cada",
        -9.002627967080572
      ],
      [
        "Ġali",
        -9.003167290431572
      ],
      [
        "Ġ21",
        -9.003761900611753
      ],
      [
        "PT",
        -9.004005111087913
      ],
      [
        "por",
        -9.006764332711459
      ],
      [
        "Ġvo",
        -9.00695113242355
      ],
      [
        "Ġgoverno",
        -9.008006010020576
      ],
      [
        "ÌĪ",
        -9.008387126797391
      ],
      [
        "aram",
        -9.008477951001094
      ],
      [
        "Ġdesde",
        -9.009682010543674
      ],
      [
        "tur",
        -9.01368546627697
      ],
      [
        "ĠQue",
        -9.017097564927557
      ],
      [
        "for",
        -9.020356630359393
      ],
      [
        "ĠH",
        -9.02178180660828
      ],
      [
        "K",
        -9.022122058251886
      ],
      [
        "Ġcor",
        -9.022647599655151
      ],
      [
        "20",
        -9.023489636714435
      ],
      [
        "ĠUm",
        -9.026190845841263
      ],
      [
        "03",
        -9.028229851003088
      ],
      [
        "Ġnovo",
        -9.030337220231209
      ],
      [
        "ĠGu",
        -9.0322944011607
      ],
      [
        "ĠIsso",
        -9.037472252571565
      ],
      [
        "Ġdias",
        -9.037495298416822
      ],
      [
        "Ġmilho",
        -9.03859975868499
      ],
      [
        "ĠUnia",
        -9.04028769958352
      ],
      [
        "cul",
        -9.04390634202936
      ],
      [
        "tre",
        -9.048117091346988
      ],
      [
        "Ġproposta",
        -9.04942548576103
      ],
      [
        "Ġ23",
        -9.05007779402393
      ],
      [
        "nho",
        -9.051641325520505
      ],
      [
        "ĠCi",
        -9.054550527950305
      ],
      [
        "ĠPar",
        -9.05584646798546
      ],
      [
        "18",
        -9.056244062798848
      ],
      [
        "Ġsempre",
        -9.056738550360862
      ],
      [
        "Ġtrans",
        -9.058106760996688
      ],
      [
        "nas",
        -9.058388298236949
      ],
      [
        "ĠGo",
        -9.065265365600444
      ],
      [
        "02",
        -9.065582926726742
      ],
      [
        "Ġinciso",
        -9.066041408979778
      ],
      [
        "Ġeles",
        -9.066351455667668
      ],
      [
        "05",
        -9.066714369475411
      ],
      [
        "ĠRE",
        -9.06880069142675
      ],
      [
        "Ġbrasileiro",
        -9.070286229773911
      ],
      [
        "Ġtrata",
        -9.07422006246346
      ],
      [
        "pen",
        -9.075795210848094
      ],
      [
        "Ġ:(",
        -9.07598060974425
      ],
      [
        "var",
        -9.076438407185677
      ],
      [
        "gina",
        -9.0768664677752
      ],
      [
        "ĠPi",
        -9.078159857211151
      ],
      [
        "Ġduas",
        -9.078299232540198
      ],
      [
        "art",
        -9.080231577889895
      ],
      [
        "mica",
        -9.08350977285446
      ],
      [
        "ĠâĢĶ",
        -9.084632997214218
      ],
      [
        "07",
        -9.085784065986894
      ],
      [
        "len",
        -9.086071161248691
      ],
      [
        "Ġmenos",
        -9.08746656141343
      ],
      [
        "cula",
        -9.087979905785684
      ],
      [
        "ĠEx",
        -9.088079307973588
      ],
      [
        "ticas",
        -9.088316040685514
      ],
      [
        "ĠEnta",
        -9.089573556867808
      ],
      [
        "Ġpouco",
        -9.089639205298337
      ],
      [
        "pios",
        -9.090703503289388
      ],
      [
        "Ġtinha",
        -9.090837167605878
      ],
      [
        "votac",
        -9.092270159388743
      ],
      [
        "W",
        -9.092438839191818
      ],
      [
        "rece",
        -9.0945104180761
      ],
      [
        "Congresso",
        -9.095259855966496
      ],
      [
        "Ġpoder",
        -9.095413979658902
      ],
      [
        "Ġseria",
        -9.09662268246822
      ],
      [
        "tel",
        -9.098391934082532
      ],
      [
        "ĠTi",
        -9.100499522056309
      ],
      [
        "ano",
        -9.106063524439422
      ],
      [
        "ĠFoi",
        -9.106261894553771
      ],
      [
        "Ġcre",
        -9.10695264998344
      ],
      [
        "Ġquanto",
        -9.111118504453232
      ],
      [
        "Ġ25",
        -9.111966270271758
      ],
      [
        "Ġbrasileira",
        -9.114647154158131
      ],
      [
        "ĠPela",
        -9.115679297901496
      ],
      [
        "neste",
        -9.119614854010118
      ],
      [
        "Ġfavor",
        -9.12163414039887
      ],
      [
        "06",
        -9.123019104132949
      ],
      [
        "08",
        -9.124750880052437
      ],
      [
        "Ġnesta",
        -9.124857900320368
      ],
      [
        "ĠSul",
        -9.12648646327686
      ],
      [
        "Ġpelos",
        -9.126587331882462
      ],
      [
        "xi",
        -9.12941116986216
      ],
      [
        "aprovac",
        -9.130243082546492
      ],
      [
        "ban",
        -9.133762399056682
      ],
      [
        "Ġimportante",
        -9.137620808520476
      ],
      [
        "Ġcausa",
        -9.137919391022388
      ],
      [
        "Ġbom",
        -9.139016232967638
      ],
      [
        "ĠCA",
        -9.143131273453005
      ],
      [
        "Ġfim",
        -9.14346096858607
      ],
      [
        "Ġdar",
        -9.145169961945175
      ],
      [
        "Ġprograma",
        -9.14734814056575
      ],
      [
        "ĠBi",
        -9.148513348688564
      ],
      [
        "17",
        -9.150724271084997
      ],
      [
        "âĢĵ",
        -9.15468932349149
      ],
      [
        "Ġdata",
        -9.156673560649496
      ],
      [
        "bilidade",
        -9.157356503800113
      ],
      [
        "Ġpossi",
        -9.157771658051743
      ],
      [
        "Ġbase",
        -9.158903476719797
      ],
      [
        "ĠVe",
        -9.15956457618817
      ],
      [
        "ĠPoder",
        -9.16310678712068
      ],
      [
        "Ġtodas",
        -9.163411573980932
      ],
      [
        "Ġvezes",
        -9.167286801841518
      ],
      [
        "Ġ27",
        -9.168646534984692
      ],
      [
        "val",
        -9.168922696722792
      ],
      [
        "fico",
        -9.169655405421198
      ],
      [
        "16",
        -9.169707165294437
      ],
      [
        "Ġregia",
        -9.172596041119984
      ],
      [
        "Ġpovo",
        -9.172616841581938
      ],
      [
        "ĠAle",
        -9.172781938290145
      ],
      [
        "Ġsocial",
        -9.172794573860864
      ],
      [
        "mer",
        -9.172859650950793
      ],
      [
        "ĠAc",
        -9.176669883687596
      ],
      [
        "âĢĿ,",
        -9.178891275734411
      ],
      [
        "amenta",
        -9.179401871594182
      ],
      [
        "discussa",
        -9.180038460456986
      ],
      [
        "ĠMan",
        -9.180887402439112
      ],
      [
        "Ġexemplo",
        -9.181109117475764
      ],
      [
        "04",
        -9.183020923352313
      ],
      [
        "Ġmaio",
        -9.183135282182787
      ],
      [
        "Ġfez",
        -9.184040545871271
      ],
      [
        "tina",
        -9.186990214851908
      ],
      [
        "Ġnacional",
        -9.188808393301564
      ],
      [
        "Ġ2007",
        -9.189298986717656
      ],
      [
        "Ligac",
        -9.189661566555165
      ],
      [
        "ĠDr",
        -9.191694225458988
      ],
      [
        "Ġpla",
        -9.192924530013888
      ],
      [
        "Ġexternas",
        -9.1941883306522
      ],
      [
        "ĠLuiz",
        -9.196824803365116
      ],
      [
        "zar",
        -9.197704459557915
      ],
      [
        "Ġnecessa",
        -9.200401050657083
      ],
      [
        "Ġdiz",
        -9.204254003116963
      ],
      [
        "digo",
        -9.205952951247
      ],
      [
        "Ġ28",
        -9.207473092381724
      ],
      [
        "ang",
        -9.208281798704856
      ],
      [
        "Ġtendo",
        -9.208771645749586
      ],
      [
        "ĠRu",
        -9.209642735728488
      ],
      [
        "Ġpois",
        -9.2098880731585
      ],
      [
        "Ġlugar",
        -9.210498861357426
      ],
      [
        "cnica",
        -9.21068092066915
      ],
      [
        "Ġrecurso",
        -9.212734125232643
      ],
      [
        "enti",
        -9.21336833117972
      ],
      [
        "ense",
        -9.213566086698926
      ],
      [
        "Ġmunici",
        -9.214106751864248
      ],
      [
        "Ġtoda",
        -9.215919128242662
      ],
      [
        "PE",
        -9.217835399634676
      ],
      [
        "Ġjulho",
        -9.218459342024955
      ],
      [
        "vam",
        -9.21871092321882
      ],
      [
        "ly",
        -9.21939489485203
      ],
      [
        "Ġpar",
        -9.220372139029362
      ],
      [
        "Ġsituac",
        -9.221815357336094
      ],
      [
        "ĠSESS",
        -9.222594364524932
      ],
      [
        "Ġ26",
        -9.229189952934515
      ],
      [
        "Exa",
        -9.229733641620006
      ],
      [
        "Ġenta",
        -9.231235505990991
      ],
      [
        "chi",
        -9.232605540878598
      ],
      [
        "Ġ2009",
        -9.234937510893124
      ],
      [
        "Ġsentido",
        -9.235209591297066
      ],
      [
        "Ġalguns",
        -9.235461640697944
      ],
      [
        "tion",
        -9.23662973866314
      ],
      [
        "cho",
        -9.23856582857749
      ],
      [
        "Ġsetembro",
        -9.24031266351207
      ],
      [
        "ini",
        -9.242234912286753
      ],
      [
        "Ġnova",
        -9.243433758431651
      ],
      [
        "Ġmedida",
        -9.245317630722448
      ],
      [
        "TI",
        -9.246116058606692
      ],
      [
        "Ġquero",
        -9.24671167366347
      ],
      [
        "bal",
        -9.247201948802068
      ],
      [
        "nada",
        -9.248130312640582
      ],
      [
        "ĠBu",
        -9.249063904124732
      ],
      [
        "Ġdisso",
        -9.249149507834243
      ],
      [
        "ĠPer",
        -9.251599008626032
      ],
      [
        "ĠCha",
        -9.252172486105582
      ],
      [
        "ncer",
        -9.253419025237864
      ],
      [
        "lado",
        -9.253617582134394
      ],
      [
        "Ġestado",
        -9.253808847141904
      ],
      [
        "prio",
        -9.254422282877927
      ],
      [
        "Ġtemos",
        -9.2550858616201
      ],
      [
        "Ġnem",
        -9.25604481130702
      ],
      [
        "Ġecono",
        -9.256627969929305
      ],
      [
        "Ġvou",
        -9.258914374341996
      ],
      [
        "ĠEn",
        -9.259662902625813
      ],
      [
        "ĠExa",
        -9.263223503361129
      ],
      [
        "Â°",
        -9.263704429307314
      ],
      [
        "gio",
        -9.264500872323934
      ],
      [
        "Ġcoisa",
        -9.26478378274058
      ],
      [
        "lan",
        -9.265829667849724
      ],
      [
        "Ġ2008",
        -9.266674506958852
      ],
      [
        "RIA",
        -9.267767040676718
      ],
      [
        "ĠNi",
        -9.268436163567468
      ],
      [
        "50",
        -9.269991369704083
      ],
      [
        "int",
        -9.270709466558053
      ],
      [
        "Ġsociedade",
        -9.271519732971257
      ],
      [
        "Ġpodem",
        -9.272666265082606
      ],
      [
        "Ġtipo",
        -9.27296959829664
      ],
      [
        "Ġsabe",
        -9.27583238448488
      ],
      [
        "Ġmesma",
        -9.278146505160633
      ],
      [
        "gica",
        -9.280881662902946
      ],
      [
        "junho",
        -9.28141220337471
      ],
      [
        "Ġsim",
        -9.283137237517984
      ],
      [
        "Ġteve",
        -9.284059461411754
      ],
      [
        "cios",
        -9.284654246151346
      ],
      [
        "Ġ2006",
        -9.286500619129855
      ],
      [
        "UTC",
        -9.287715099928883
      ],
      [
        "Ġge",
        -9.288132866963526
      ],
      [
        "Ġtenho",
        -9.288240974855617
      ],
      [
        "ĠPE",
        -9.2886396749457
      ],
      [
        "tulo",
        -9.2903730408939
      ],
      [
        "ĠMuito",
        -9.290484023950109
      ],
      [
        "ĠGrande",
        -9.291297616566604
      ],
      [
        "grafo",
        -9.292708742263178
      ],
      [
        "OR",
        -9.29391424057034
      ],
      [
        "ĠVamos",
        -9.29480987042308
      ],
      [
        "gan",
        -9.29530044984566
      ],
      [
        "mula",
        -9.297707518946355
      ],
      [
        "Ġprecisa",
        -9.29792313093476
      ],
      [
        "ticos",
        -9.298244865557663
      ],
      [
        "Ġinve",
        -9.298539029352852
      ],
      [
        "Ġestou",
        -9.299142528437494
      ],
      [
        "Ġrefere",
        -9.299601324627972
      ],
      [
        "ĠEla",
        -9.300125423107303
      ],
      [
        "ĠSanta",
        -9.30023004450322
      ],
      [
        "Art",
        -9.30036413240819
      ],
      [
        "sico",
        -9.300931715388383
      ],
      [
        "ĠEste",
        -9.301602996389343
      ],
      [
        "ner",
        -9.303957592522762
      ],
      [
        "istas",
        -9.306311997818431
      ],
      [
        "Ġimporta",
        -9.306759035716704
      ],
      [
        "Ġfilme",
        -9.308099334391123
      ],
      [
        "30",
        -9.309856521037895
      ],
      [
        "Ġdesenvolvimento",
        -9.310366975286628
      ],
      [
        "ell",
        -9.311382692730067
      ],
      [
        "Ġnada",
        -9.312034943590533
      ],
      [
        "Ġprec",
        -9.314325294939266
      ],
      [
        "ĠDecreto",
        -9.315047586033051
      ],
      [
        "rico",
        -9.31628685540023
      ],
      [
        "Ġficar",
        -9.321130738430863
      ],
      [
        "14",
        -9.322824898502729
      ],
      [
        "ĠSra",
        -9.323280514375549
      ],
      [
        "Ġconstitucional",
        -9.324987669927332
      ],
      [
        "Ġtanto",
        -9.325126757782655
      ],
      [
        "Ġoutra",
        -9.326772452913149
      ],
      [
        "Ġ2011",
        -9.327519988015071
      ],
      [
        "Ġgra",
        -9.327778352292826
      ],
      [
        "cido",
        -9.330073018457188
      ],
      [
        "Ġestar",
        -9.332791753527571
      ],
      [
        "ĠVI",
        -9.337346457732275
      ],
      [
        "ĠPoli",
        -9.337525845786846
      ],
      [
        "Ġsei",
        -9.342537309701353
      ],
      [
        "000",
        -9.344473946298033
      ],
      [
        "cola",
        -9.344826619642843
      ],
      [
        "Ġvolta",
        -9.347897935224688
      ],
      [
        "Ġatra",
        -9.347905081903624
      ],
      [
        "Ġcara",
        -9.348420737114562
      ],
      [
        "Ġfeito",
        -9.349417459732214
      ],
      [
        "Ġpessoa",
        -9.3494617455141
      ],
      [
        "Ġexiste",
        -9.34980220290243
      ],
      [
        "ĠTem",
        -9.350082665290904
      ],
      [
        "SP",
        -9.351550785993709
      ],
      [
        "Ġ2010",
        -9.35205332406641
      ],
      [
        "her",
        -9.35222821085532
      ],
      [
        "bio",
        -9.354238940389514
      ],
      [
        "\")",
        -9.356239372923614
      ],
      [
        "Ġvamos",
        -9.356653459928204
      ],
      [
        "ĠJaneiro",
        -9.357030772763494
      ],
      [
        "Ġpropo",
        -9.357210574653788
      ],
      [
        "2015",
        -9.35746635173038
      ],
      [
        "Ġagosto",
        -9.35904160833224
      ],
      [
        "ĠSala",
        -9.359061144707107
      ],
      [
        "Ġoutubro",
        -9.359315771053664
      ],
      [
        "NT",
        -9.359446878963016
      ],
      [
        "Ġprovide",
        -9.360870453168852
      ],
      [
        "Ġpec",
        -9.3608889724267
      ],
      [
        "seguranc",
        -9.361506265498123
      ],
      [
        "ĠGi",
        -9.363325454540126
      ],
      [
        "Ġtexto",
        -9.364513409311602
      ],
      [
        "ty",
        -9.36571463325286
      ],
      [
        "Ġvei",
        -9.372192990631406
      ],
      [
        "Ġproduc",
        -9.3724326318547
      ],
      [
        "PMDB",
        -9.376039295053936
      ],
      [
        "ximo",
        -9.377326271569476
      ],
      [
        "ĠIII",
        -9.378592967943138
      ],
      [
        "ĠEduardo",
        -9.378824472533497
      ],
      [
        "nimo",
        -9.379192253206565
      ],
      [
        "Ġnum",
        -9.38131250673494
      ],
      [
        "Ġlocal",
        -9.38221839349127
      ],
      [
        "Ġhavia",
        -9.385003987757967
      ],
      [
        "ĠPP",
        -9.38713332890727
      ],
      [
        "Ġ2005",
        -9.388067263763622
      ],
      [
        "bel",
        -9.390768631503024
      ],
      [
        "98",
        -9.390823380652948
      ],
      [
        "let",
        -9.391487507766314
      ],
      [
        "Ġsemana",
        -9.3922530138703
      ],
      [
        "ĠPreside",
        -9.39226427014081
      ],
      [
        "CE",
        -9.392384812425744
      ],
      [
        "Ġabril",
        -9.39266473301937
      ],
      [
        "Ġpassa",
        -9.393236120995724
      ],
      [
        "Ġdessa",
        -9.393249251695922
      ],
      [
        "ĠAme",
        -9.393442202843447
      ],
      [
        "Ġluta",
        -9.393810618370768
      ],
      [
        "lise",
        -9.399363961226385
      ],
      [
        "Ġprincipal",
        -9.400648364551513
      ],
      [
        "Ġaco",
        -9.401056711871435
      ],
      [
        "Ġjaneiro",
        -9.401737547587633
      ],
      [
        "Ġpresidente",
        -9.40240456704148
      ],
      [
        "ĠFranc",
        -9.402572458844109
      ],
      [
        "Ġdesse",
        -9.403058109912552
      ],
      [
        "Ġhabitantes",
        -9.404374379980542
      ],
      [
        "://",
        -9.407398925229828
      ],
      [
        "01",
        -9.409235774408852
      ],
      [
        "ĠNO",
        -9.409977400792368
      ],
      [
        "Ġcrianc",
        -9.410641879402185
      ],
      [
        "Ġnovembro",
        -9.41317095199738
      ],
      [
        "Ġjuri",
        -9.413462635583194
      ],
      [
        "Ġeducac",
        -9.413508300185004
      ],
      [
        "Ġindi",
        -9.41487873734646
      ],
      [
        "Ġfunc",
        -9.415629210565465
      ],
      [
        "ĠFu",
        -9.415661299516762
      ],
      [
        "Ġlado",
        -9.416119373992045
      ],
      [
        "ĠPARECER",
        -9.416320702092689
      ],
      [
        "amente",
        -9.416939253279995
      ],
      [
        "tido",
        -9.417027849361762
      ],
      [
        "Ġempresas",
        -9.41721885290262
      ],
      [
        "lida",
        -9.418305247000196
      ],
      [
        "ĠGra",
        -9.419316160414908
      ],
      [
        "Ġfac",
        -9.42302034506029
      ],
      [
        "Ġtenha",
        -9.425654711712008
      ],
      [
        "Ġ29",
        -9.426832132131665
      ],
      [
        "Ġrei",
        -9.427491129463476
      ],
      [
        "Ġsou",
        -9.427578781581612
      ],
      [
        "ĠMin",
        -9.429191683084824
      ],
      [
        "questa",
        -9.430048628818218
      ],
      [
        "ĠMaria",
        -9.43057009924514
      ],
      [
        "uma",
        -9.430797620457438
      ],
      [
        "ĠDia",
        -9.43445249191155
      ],
      [
        "Ġforc",
        -9.436203810945932
      ],
      [
        "Ġfalar",
        -9.437491593715054
      ],
      [
        "press",
        -9.438596093378091
      ],
      [
        "Ġexerci",
        -9.440628561072092
      ],
      [
        "Ġatrave",
        -9.441197758699284
      ],
      [
        "tima",
        -9.442141826261356
      ],
      [
        "pin",
        -9.445386265394545
      ],
      [
        "ler",
        -9.445524636455636
      ],
      [
        "Ġestamos",
        -9.449319739448628
      ],
      [
        "Ġvista",
        -9.451670035553809
      ],
      [
        "ĠEssa",
        -9.456443297536218
      ],
      [
        "2013",
        -9.456947967936022
      ],
      [
        "bil",
        -9.462304411174392
      ],
      [
        "ĠEmenda",
        -9.464023764564478
      ],
      [
        "Ġcargo",
        -9.46473539562307
      ],
      [
        "dico",
        -9.46661274689276
      ],
      [
        "Regimento",
        -9.467644400571144
      ],
      [
        "Ġespecial",
        -9.46797031858085
      ],
      [
        "Ġalgo",
        -9.468110763891518
      ],
      [
        "ĠEsse",
        -9.4697566051686
      ],
      [
        "Ġini",
        -9.472072529476405
      ],
      [
        "Ġquatro",
        -9.472155243106643
      ],
      [
        "Ġjunto",
        -9.472348229485204
      ],
      [
        "Ġdele",
        -9.472794217479768
      ],
      [
        "Ġpena",
        -9.472858909684872
      ],
      [
        "Ġpodera",
        -9.475543400471526
      ],
      [
        "Ġ2013",
        -9.475557869933615
      ],
      [
        "Ġtotal",
        -9.47562750040989
      ],
      [
        "ĠDu",
        -9.476455175233554
      ],
      [
        "Ġencontra",
        -9.47783549700513
      ],
      [
        "mico",
        -9.479262422870338
      ],
      [
        "pia",
        -9.47984325604293
      ],
      [
        "Ġverdade",
        -9.480855554072754
      ],
      [
        "Ġenquanto",
        -9.481622498555549
      ],
      [
        "ĠBar",
        -9.481749650457624
      ],
      [
        "Ġhora",
        -9.481795957898264
      ],
      [
        "ĠPA",
        -9.48431829738557
      ],
      [
        "Ġnorma",
        -9.48449565184658
      ],
      [
        "Ġponto",
        -9.48561510847792
      ],
      [
        "Ġrespeito",
        -9.485987700591412
      ],
      [
        "ĠSau",
        -9.49136304143191
      ],
      [
        "Ġobjetivo",
        -9.491502265680992
      ],
      [
        "ĠKa",
        -9.491967362096313
      ],
      [
        "Ġinstituic",
        -9.492085216964512
      ],
      [
        "Ġsala",
        -9.492256272200748
      ],
      [
        "Ġ31",
        -9.492302974736456
      ],
      [
        "Ġvota",
        -9.492679094697191
      ],
      [
        "40",
        -9.493194522961836
      ],
      [
        "Ġfevereiro",
        -9.493736137965042
      ],
      [
        "feira",
        -9.49374505123079
      ],
      [
        "Ġrelato",
        -9.493769786119582
      ],
      [
        "Ġsessa",
        -9.493822493185924
      ],
      [
        "Ġboa",
        -9.495986037633422
      ],
      [
        "99",
        -9.497049370126268
      ],
      [
        "Ġdemais",
        -9.499510783899144
      ],
      [
        "Ġposic",
        -9.499739933230115
      ],
      [
        "Ġdentro",
        -9.500437179688856
      ],
      [
        "US",
        -9.500618549353604
      ],
      [
        "pria",
        -9.501899725659598
      ],
      [
        "Ġquais",
        -9.503204072064756
      ],
      [
        "ĠBrasi",
        -9.503541053153835
      ],
      [
        "vin",
        -9.504300949694189
      ],
      [
        "Ġproblema",
        -9.50458682151052
      ],
      [
        "Deputada",
        -9.504852635746738
      ],
      [
        "2011",
        -9.505347437123037
      ],
      [
        "Ġmim",
        -9.507581022383802
      ],
      [
        "ĠRi",
        -9.508259004905629
      ],
      [
        "cida",
        -9.510431869011606
      ],
      [
        "til",
        -9.51286378117791
      ],
      [
        "Ġ2012",
        -9.51292243405114
      ],
      [
        "Ġinteresse",
        -9.513004904896851
      ],
      [
        "Ġ(\"",
        -9.513753545093405
      ],
      [
        "ĠInterno",
        -9.515248692389395
      ],
      [
        "sim",
        -9.515419241553651
      ],
      [
        "ĠUma",
        -9.515630909611618
      ],
      [
        "nic",
        -9.515740207095858
      ],
      [
        "Ġapoio",
        -9.51627653996782
      ],
      [
        "gia",
        -9.51922234619205
      ],
      [
        "ĠEducac",
        -9.519487199079338
      ],
      [
        "Ġhoras",
        -9.5225243692845
      ],
      [
        "ĠSupremo",
        -9.523745734358082
      ],
      [
        "Ġcriac",
        -9.525748799136313
      ],
      [
        "PR",
        -9.529875381204096
      ],
      [
        "Ġfunciona",
        -9.531461865979978
      ],
      [
        "Ġ2004",
        -9.532842723408974
      ],
      [
        "ĠTra",
        -9.536400338662755
      ],
      [
        "ĠUnidos",
        -9.539569547330656
      ],
      [
        "rcio",
        -9.539823197431632
      ],
      [
        "Ġfalta",
        -9.541634562136638
      ],
      [
        "SE",
        -9.542272184244185
      ],
      [
        "Ġconforme",
        -9.542308104145382
      ],
      [
        "Ġparecer",
        -9.543450370670438
      ],
      [
        "Ġ50",
        -9.54362864989991
      ],
      [
        "ĠTurma",
        -9.544178979687205
      ],
      [
        "Ġoperac",
        -9.5443457994605
      ],
      [
        "cil",
        -9.545214313000075
      ],
      [
        "Ġnunca",
        -9.546432969940197
      ],
      [
        "iano",
        -9.546465420853613
      ],
      [
        "25",
        -9.547366221400532
      ],
      [
        "ĠConselho",
        -9.547966627869885
      ],
      [
        "Ġacesso",
        -9.548089574436403
      ],
      [
        "Ġcorre",
        -9.548529990653916
      ],
      [
        "ĠQuando",
        -9.54885447028449
      ],
      [
        "tic",
        -9.549822505196046
      ],
      [
        "Ġimpe",
        -9.55043855079638
      ],
      [
        "Ġjogo",
        -9.551009943548882
      ],
      [
        "Ġcerca",
        -9.553917934268336
      ],
      [
        "van",
        -9.554795535478933
      ],
      [
        "Ġeleito",
        -9.555682335382574
      ],
      [
        "ĠSU",
        -9.55698994968494
      ],
      [
        "ĠUniversidade",
        -9.55850444083794
      ],
      [
        "devido",
        -9.559307437826792
      ],
      [
        "Ġdeixa",
        -9.560198632500256
      ],
      [
        "ĠAb",
        -9.560933783775589
      ],
      [
        "BA",
        -9.562493478383962
      ],
      [
        "Ġrepresenta",
        -9.563205687791385
      ],
      [
        "reas",
        -9.564119844759336
      ],
      [
        "poca",
        -9.564166798506934
      ],
      [
        "Ġauto",
        -9.566519345470953
      ],
      [
        "Ġobrigado",
        -9.56651989061355
      ],
      [
        "Ġbe",
        -9.566702403879347
      ],
      [
        "ĠSA",
        -9.567156751881042
      ],
      [
        "Ġreal",
        -9.570381234430585
      ],
      [
        "ĠSilva",
        -9.570447373470236
      ],
      [
        "Ġcinco",
        -9.572663652848902
      ],
      [
        "Ġequipe",
        -9.573419289235275
      ],
      [
        "ĠHi",
        -9.57384562551969
      ],
      [
        "ĠPlena",
        -9.57399587044052
      ],
      [
        "Ġdados",
        -9.574019412028584
      ],
      [
        "Ġprinci",
        -9.57490780424052
      ],
      [
        "ĠPedro",
        -9.576309866924351
      ],
      [
        "Ġ2015",
        -9.578066012424191
      ],
      [
        "ĠSocial",
        -9.578786721816442
      ],
      [
        "registro",
        -9.58042869594707
      ],
      [
        "Ġregimental",
        -9.582343989828162
      ],
      [
        "Ġdefesa",
        -9.584911987934934
      ],
      [
        "ltima",
        -9.586622973163903
      ],
      [
        "Ġsegunda",
        -9.587736559012818
      ],
      [
        "âĢĻ",
        -9.587887138243088
      ],
      [
        "Ġmercado",
        -9.58854241796471
      ],
      [
        "Ġkm",
        -9.58934655145658
      ],
      [
        "Ġleva",
        -9.589553095054242
      ],
      [
        "Ġpedido",
        -9.59041718051852
      ],
      [
        "ĠOliveira",
        -9.590597642306635
      ],
      [
        "Ġmal",
        -9.593945620530526
      ],
      [
        "stria",
        -9.595294692901778
      ],
      [
        "Ġrealizada",
        -9.59730909335668
      ],
      [
        "ĠEM",
        -9.598192524334632
      ],
      [
        "Ġdireitos",
        -9.600501094592891
      ],
      [
        "ĠTotal",
        -9.601171524803192
      ],
      [
        "Ġdebate",
        -9.601505334815403
      ],
      [
        "Ġextraordina",
        -9.602401929749066
      ],
      [
        "Ġpesquisa",
        -9.602510412091908
      ],
      [
        "Ġmorte",
        -9.602953859485304
      ],
      [
        "Ġedic",
        -9.603978767679305
      ],
      [
        "xima",
        -9.60400562933632
      ],
      [
        "Ġempre",
        -9.605838632450633
      ],
      [
        "Ġ2003",
        -9.608139226076126
      ],
      [
        "ĠCri",
        -9.609685680420018
      ],
      [
        "Ġfazendo",
        -9.610878076324274
      ],
      [
        "Ġatual",
        -9.611028942250329
      ],
      [
        "lei",
        -9.611264105471356
      ],
      [
        "vio",
        -9.611681447030914
      ],
      [
        "Ġprova",
        -9.612301045608596
      ],
      [
        "Ġocorre",
        -9.61264625139168
      ],
      [
        "Ġobjeto",
        -9.615711420340428
      ],
      [
        "Ġraza",
        -9.617834459816278
      ],
      [
        "ĠApo",
        -9.618951300837026
      ],
      [
        "ĠEl",
        -9.620255297138
      ],
      [
        "Ġestu",
        -9.62131931413083
      ],
      [
        "Ġfeita",
        -9.621835056770298
      ],
      [
        "Ġcrime",
        -9.626288885209927
      ],
      [
        "Ġgeral",
        -9.626490233827816
      ],
      [
        "Ġthe",
        -9.626514645421237
      ],
      [
        "Ġfora",
        -9.627204480298513
      ],
      [
        "Ġmeses",
        -9.627296414773962
      ],
      [
        "Executivo",
        -9.62940954873164
      ],
      [
        "ĠCor",
        -9.629945035732536
      ],
      [
        "Ġorigem",
        -9.6307392489092
      ],
      [
        "ĠAG",
        -9.632692800641316
      ],
      [
        "Ġvem",
        -9.63284396154975
      ],
      [
        "Ġsuper",
        -9.636018085484654
      ],
      [
        "Ġmar",
        -9.639890132359328
      ],
      [
        "28",
        -9.639997034558537
      ],
      [
        "land",
        -9.64137068443649
      ],
      [
        "MENTO",
        -9.641459912105091
      ],
      [
        "NCIA",
        -9.641943957357388
      ],
      [
        "devera",
        -9.64248222262364
      ],
      [
        "Ġfilho",
        -9.642893599782989
      ],
      [
        "Ġcla",
        -9.643582171188529
      ],
      [
        "ĠSegundo",
        -9.64384950361002
      ],
      [
        "Ġnota",
        -9.64462257763456
      ],
      [
        "29",
        -9.645364412109137
      ],
      [
        "Ġdispo",
        -9.646589734166083
      ],
      [
        "ĠComunicac",
        -9.646594918890964
      ],
      [
        "Ġresponsa",
        -9.6470485818049
      ],
      [
        "oli",
        -9.648397307093225
      ],
      [
        "ĠFilho",
        -9.648456260843805
      ],
      [
        "ĠAgora",
        -9.648964829464704
      ],
      [
        "Ġ2014",
        -9.649421054936486
      ],
      [
        "zado",
        -9.649713159931666
      ],
      [
        "Ġinclusive",
        -9.650009086939958
      ],
      [
        "Ġpossui",
        -9.65322852385965
      ],
      [
        "timo",
        -9.653638946701529
      ],
      [
        "PTB",
        -9.655329617253548
      ],
      [
        "eleic",
        -9.65575394112289
      ],
      [
        "Ġpartido",
        -9.6558190085509
      ],
      [
        "ĠSE",
        -9.656345136304228
      ],
      [
        "Ġcultura",
        -9.65674403099527
      ],
      [
        "Ġemenda",
        -9.657631601497483
      ],
      [
        "Ġfosse",
        -9.66019729481438
      ],
      [
        "Ġpelas",
        -9.660709836059874
      ],
      [
        "radiodifusa",
        -9.66213066432297
      ],
      [
        "Ġpagamento",
        -9.665596271589338
      ],
      [
        ".âĢĿ",
        -9.665737524933082
      ],
      [
        "Ġlegal",
        -9.666083708236446
      ],
      [
        "Ġquase",
        -9.666133878478508
      ],
      [
        "Ġpoderia",
        -9.666197305406284
      ],
      [
        "Ġsenhor",
        -9.667207149229162
      ],
      [
        "Ġqualidade",
        -9.668249417629738
      ],
      [
        "ĠThe",
        -9.668475337784631
      ],
      [
        "Ġatividades",
        -9.668767513766516
      ],
      [
        "2000",
        -9.668939921128532
      ],
      [
        "dios",
        -9.670964439413616
      ],
      [
        "blicos",
        -9.671278915556709
      ],
      [
        "Ġfala",
        -9.671938064902088
      ],
      [
        "The",
        -9.673000978990125
      ],
      [
        "Ġ2016",
        -9.6747443794506
      ],
      [
        "Ġformula",
        -9.67525887096536
      ],
      [
        "Ġnecessidade",
        -9.675806304239138
      ],
      [
        "putado",
        -9.676298476742778
      ],
      [
        "ĠDeus",
        -9.676912088861956
      ],
      [
        "culos",
        -9.677335488813709
      ],
      [
        "Ġalgumas",
        -9.678082012345806
      ],
      [
        "Ġsai",
        -9.679299634759474
      ],
      [
        "2008",
        -9.68105786437618
      ],
      [
        "ĠCOM",
        -9.682384662140905
      ],
      [
        "ff",
        -9.683292595263456
      ],
      [
        "Ġconte",
        -9.683364810822926
      ],
      [
        "Ġminutos",
        -9.687860380883311
      ],
      [
        "90",
        -9.68859779246512
      ],
      [
        "ĠAna",
        -9.688820059062229
      ],
      [
        "Ġparticipac",
        -9.689574202487488
      ],
      [
        "Ġmaioria",
        -9.692927988793322
      ],
      [
        "cnico",
        -9.693335146473284
      ],
      [
        "Ġproduto",
        -9.695041444180513
      ],
      [
        "Ġlinha",
        -9.698844437220655
      ],
      [
        "â",
        -9.69896847239313
      ],
      [
        "Ġesses",
        -9.69916522864188
      ],
      [
        "Ġrede",
        -9.699694861230334
      ],
      [
        "Ð",
        -9.700240511290852
      ],
      [
        "imo",
        -9.700969517038008
      ],
      [
        "Ġpublicac",
        -9.701045400895104
      ],
      [
        "Ġpossa",
        -9.701356584354295
      ],
      [
        "Ġdinheiro",
        -9.703077931345227
      ],
      [
        "2007",
        -9.703891267277491
      ],
      [
        "Ġcerto",
        -9.704449587867092
      ],
      [
        "q",
        -9.704606574259746
      ],
      [
        "Ġirma",
        -9.70515208699427
      ],
      [
        "Ġconhecido",
        -9.705441374937784
      ],
      [
        "Ġmodo",
        -9.705864381514427
      ],
      [
        "Ġdeixar",
        -9.707388913989844
      ],
      [
        ");",
        -9.711027804992742
      ],
      [
        "ncio",
        -9.71201064854032
      ],
      [
        "lbum",
        -9.712290851785708
      ],
      [
        "Ġtal",
        -9.713207916341714
      ],
      [
        "Ġrequerimento",
        -9.713556770080707
      ],
      [
        "ltimo",
        -9.713653489627358
      ],
      [
        "ĠCie",
        -9.716876373610075
      ],
      [
        "Ġnesse",
        -9.718531694460063
      ],
      [
        "Ġaumento",
        -9.719369468417272
      ],
      [
        "log",
        -9.722187111333678
      ],
      [
        "Ġensino",
        -9.72364190758692
      ],
      [
        "agravo",
        -9.72411034943693
      ],
      [
        "Ġeram",
        -9.726146882270898
      ],
      [
        "ĠNova",
        -9.726394973370189
      ],
      [
        "Ġplano",
        -9.726552322549242
      ],
      [
        "ĠIta",
        -9.726592818966028
      ],
      [
        "https",
        -9.726951297521744
      ],
      [
        "zada",
        -9.727434892358833
      ],
      [
        "Ġnorte",
        -9.728423143555831
      ],
      [
        "ĠSan",
        -9.728625478309496
      ],
      [
        "ĠPrograma",
        -9.72910088859732
      ],
      [
        "Ġreforma",
        -9.730402788088956
      ],
      [
        "americano",
        -9.730780555585769
      ],
      [
        "altera",
        -9.733722483209544
      ],
      [
        "2010",
        -9.73414903754395
      ],
      [
        "Ġreuni",
        -9.734635310517564
      ],
      [
        "Ġredac",
        -9.735314716787794
      ],
      [
        "Ġespera",
        -9.73576534114025
      ],
      [
        "Ġcampo",
        -9.736343598505789
      ],
      [
        "Ġ100",
        -9.73674259895214
      ],
      [
        "stica",
        -9.73686089110151
      ],
      [
        "ĠAL",
        -9.737294563999612
      ],
      [
        "ĠHisto",
        -9.737303743377929
      ],
      [
        "ĠAssim",
        -9.738888552100974
      ],
      [
        "ĠParecer",
        -9.741422422731514
      ],
      [
        "ĠLula",
        -9.74280427326052
      ],
      [
        "Ġmuitas",
        -9.743162267073195
      ],
      [
        "ong",
        -9.74548398202506
      ],
      [
        "ĠAssociac",
        -9.7463308836434
      ],
      [
        "Ġlegislac",
        -9.747729597738813
      ],
      [
        "Ġingle",
        -9.748089880257211
      ],
      [
        "Ġcontrato",
        -9.74876447120212
      ],
      [
        "Ġconstruc",
        -9.748790301970043
      ],
      [
        "QUE",
        -9.74900306550674
      ],
      [
        "entanto",
        -9.749425275906342
      ],
      [
        "Ġnoite",
        -9.749706683599076
      ],
      [
        "Ġnuma",
        -9.751752359554446
      ],
      [
        "Ġsuperior",
        -9.7518203051583
      ],
      [
        "Ġcompete",
        -9.751909365101657
      ],
      [
        "ĠLegislativo",
        -9.753516949403233
      ],
      [
        "Ġhomem",
        -9.755554028285047
      ],
      [
        "Ġregime",
        -9.756943820753362
      ],
      [
        "somente",
        -9.757252597809211
      ],
      [
        "ĠDJ",
        -9.761959667846888
      ],
      [
        "Ġautor",
        -9.762863551512837
      ],
      [
        "Ġcorpo",
        -9.763010086156152
      ],
      [
        "ĠFernando",
        -9.764176545632838
      ],
      [
        "Ġsetor",
        -9.764884053027307
      ],
      [
        "Ġoficial",
        -9.765672985741936
      ],
      [
        "Ġcontrole",
        -9.765938672232918
      ],
      [
        "Ġpresenc",
        -9.766013768983113
      ],
      [
        "Ġtarde",
        -9.767334043643336
      ],
      [
        "Ġlongo",
        -9.767703763668058
      ],
      [
        "Ġmembro",
        -9.76812428972187
      ],
      [
        "ĠRoberto",
        -9.7712924184798
      ],
      [
        "Ġtema",
        -9.771548866270418
      ],
      [
        "Ġgrandes",
        -9.773520667005084
      ],
      [
        "Ġacha",
        -9.774746483625082
      ],
      [
        "Ġrealizac",
        -9.777154483912774
      ],
      [
        "ĠTu",
        -9.7780641241013
      ],
      [
        "Ġterra",
        -9.782374379678824
      ],
      [
        "ĠTrabalho",
        -9.782765165342113
      ],
      [
        "ĠIV",
        -9.782779314790572
      ],
      [
        "rus",
        -9.783907905546371
      ],
      [
        "ili",
        -9.785392643240122
      ],
      [
        "Ġ40",
        -9.785718841574868
      ],
      [
        "Ġaplica",
        -9.786677962396029
      ],
      [
        "Ġjulgamento",
        -9.787070140319477
      ],
      [
        "passou",
        -9.7876947909181
      ],
      [
        "Ġbenefi",
        -9.790169749185198
      ],
      [
        "Ġacho",
        -9.79057885773778
      ],
      [
        "Ġpreciso",
        -9.791521329777735
      ],
      [
        "ĠDEM",
        -9.794388648393555
      ],
      [
        "Ġessas",
        -9.794434092067997
      ],
      [
        "Ġinsta",
        -9.79447097078816
      ],
      [
        "Ġsaber",
        -9.7946753130926
      ],
      [
        "Ġorc",
        -9.795515719492602
      ],
      [
        "Ġdez",
        -9.795726709418592
      ],
      [
        "ÌĤ?",
        -9.795979353214513
      ],
      [
        "ĠPI",
        -9.796320619305686
      ],
      [
        "Ġespac",
        -9.796572749836688
      ],
      [
        "ĠMarco",
        -9.797282133105984
      ],
      [
        "ĠNA",
        -9.797667905676176
      ],
      [
        "lla",
        -9.798085815206694
      ],
      [
        "Ġbrasileiros",
        -9.798584312609371
      ],
      [
        "ĠMaia",
        -9.80124722991079
      ],
      [
        "Ġmembros",
        -9.803280280564698
      ],
      [
        "Ġlhe",
        -9.806039048642091
      ],
      [
        "Ġentra",
        -9.812175509523954
      ],
      [
        "ĠPortugal",
        -9.812388514832897
      ],
      [
        "ĠPode",
        -9.813257617839616
      ],
      [
        "remos",
        -9.813799765951952
      ],
      [
        "Ġenergia",
        -9.815489543084858
      ],
      [
        "ĠSP",
        -9.816765049432552
      ],
      [
        "Ġmulheres",
        -9.81783976689178
      ],
      [
        "Ġafirma",
        -9.819237888139185
      ],
      [
        "Ġ32",
        -9.819311845367478
      ],
      [
        "Ġobras",
        -9.819719892676098
      ],
      [
        "Ġparece",
        -9.82147673002818
      ],
      [
        "Ġfrequ",
        -9.82433894851374
      ],
      [
        "Ġpessoal",
        -9.825616413586625
      ],
      [
        "ĠBem",
        -9.825818965036456
      ],
      [
        "Ġ54",
        -9.82680330773707
      ],
      [
        "Ġmaneira",
        -9.826847863726112
      ],
      [
        "2012",
        -9.827058943663811
      ],
      [
        "Ģ",
        -9.827450155656418
      ],
      [
        "Ġdecidi",
        -9.827781718857551
      ],
      [
        "Ġeconomia",
        -9.828783949515165
      ],
      [
        "Ġassunto",
        -9.829020230371372
      ],
      [
        "gico",
        -9.82987847451616
      ],
      [
        "Ġvir",
        -9.831065069586549
      ],
      [
        "org",
        -9.834135418513773
      ],
      [
        "ngua",
        -9.834874969836775
      ],
      [
        "Ġterrito",
        -9.83516154583772
      ],
      [
        "Í",
        -9.83559370280904
      ],
      [
        "ĠPSB",
        -9.83559496015861
      ],
      [
        "ĠMinas",
        -9.83569195120356
      ],
      [
        "Ġfrente",
        -9.83583608800074
      ],
      [
        "ĠSua",
        -9.836369779019616
      ],
      [
        "2016",
        -9.836543746234309
      ],
      [
        "Ġcanc",
        -9.836989558455867
      ],
      [
        "Ġprincipalmente",
        -9.838253028807976
      ],
      [
        "Ġide",
        -9.838293074067272
      ],
      [
        "Ġchamado",
        -9.839815891568096
      ],
      [
        "legislativa",
        -9.840995099750224
      ],
      [
        "ĠEstou",
        -9.84165464468713
      ],
      [
        "Ġmuitos",
        -9.842145246540596
      ],
      [
        "Ġconjunto",
        -9.842599209291892
      ],
      [
        "Ġconstitui",
        -9.843018549421128
      ],
      [
        "ĠMesa",
        -9.843253097420437
      ],
      [
        "ĠAnto",
        -9.84336066939288
      ],
      [
        "Ġ2017",
        -9.843719125699144
      ],
      [
        "stico",
        -9.844232376179974
      ],
      [
        "Ġajuda",
        -9.844393358743504
      ],
      [
        "ĠDesenvolvimento",
        -9.8453075445288
      ],
      [
        "Ġpapel",
        -9.84604307291429
      ],
      [
        "Ġforte",
        -9.848211806627196
      ],
      [
        "ĠFrancisco",
        -9.849628671236466
      ],
      [
        "ĠNorte",
        -9.849940587859424
      ],
      [
        "Ġnego",
        -9.85053365066409
      ],
      [
        "ĠPri",
        -9.850853904613734
      ],
      [
        "Ġteria",
        -9.851458205794325
      ],
      [
        "Ġatividade",
        -9.851542434463722
      ],
      [
        "reais",
        -9.852676343353073
      ],
      [
        "ndia",
        -9.855214413204576
      ],
      [
        "ĠPartido",
        -9.857571917865876
      ],
      [
        "Ġhouve",
        -9.85837708687336
      ],
      [
        "Ġestrutura",
        -9.858814581779054
      ],
      [
        "ĠSou",
        -9.85935825174744
      ],
      [
        "Ġbusca",
        -9.8595298440565
      ],
      [
        "Ġcapital",
        -9.859607418511017
      ],
      [
        "Ġmostra",
        -9.859793863272571
      ],
      [
        "rum",
        -9.862123278245292
      ],
      [
        "Ġproblemas",
        -9.863190172088371
      ],
      [
        "):",
        -9.863522709302243
      ],
      [
        "Ġesti",
        -9.865037295888431
      ],
      [
        "concessa",
        -9.867895639133929
      ],
      [
        "Ġaplicac",
        -9.868286117178656
      ],
      [
        "Ġbanda",
        -9.86870876066962
      ],
      [
        "Ġapresenta",
        -9.869814050540208
      ],
      [
        "Ġaprovado",
        -9.86996812763601
      ],
      [
        "#",
        -9.870365306560892
      ],
      [
        "tese",
        -9.87147481969105
      ],
      [
        "Ġmovimento",
        -9.87290782648976
      ],
      [
        "Ġconhecimento",
        -9.873026883415449
      ],
      [
        "Ġobra",
        -9.873157647951455
      ],
      [
        "Ġposso",
        -9.876273934588513
      ],
      [
        "Ġaltera",
        -9.876631143643522
      ],
      [
        "Ġalgum",
        -9.878230900148557
      ],
      [
        "Ġinclui",
        -9.87847065591804
      ],
      [
        "ble",
        -9.879005538994678
      ],
      [
        "Ġprofessor",
        -9.87939744448572
      ],
      [
        "Ġ:)",
        -9.879994732588084
      ],
      [
        "Ġembora",
        -9.880012488899167
      ],
      [
        "2014",
        -9.880250544131169
      ],
      [
        "Ġcoisas",
        -9.88157525514855
      ],
      [
        "ĠSecreta",
        -9.884670075798196
      ],
      [
        "Ġouvi",
        -9.88643502931028
      ],
      [
        "requer",
        -9.886600183562935
      ],
      [
        "Ġoportunidade",
        -9.887110816759604
      ],
      [
        "Ġlivro",
        -9.88759177533591
      ],
      [
        "Ġdeveria",
        -9.887943558881496
      ],
      [
        "Ġpassado",
        -9.888611444134304
      ],
      [
        "Ġcusto",
        -9.888638621689145
      ],
      [
        "ĠCO",
        -9.88864077197118
      ],
      [
        "ĠAte",
        -9.889020415805485
      ],
      [
        "Ġorganizac",
        -9.889037137189325
      ],
      [
        "ã",
        -9.889980126806185
      ],
      [
        "Ġdirec",
        -9.890323334540795
      ],
      [
        "ĠAntonio",
        -9.891233559796886
      ],
      [
        "Ġalguma",
        -9.89414468870852
      ],
      [
        "portanto",
        -9.8948212507324
      ],
      [
        "DEM",
        -9.894925827366686
      ],
      [
        "responsabilidade",
        -9.896611587147648
      ],
      [
        "Ġ2019",
        -9.899142336897512
      ],
      [
        "Ġinforma",
        -9.899513241723822
      ],
      [
        "COMISSA",
        -9.899557951128385
      ],
      [
        "PP",
        -9.899694678710077
      ],
      [
        "Ġsec",
        -9.89998006394686
      ],
      [
        "Distrito",
        -9.90138564341533
      ],
      [
        "Ġeletro",
        -9.902303592084968
      ],
      [
        "Ġporta",
        -9.903724111277766
      ],
      [
        "Ġescola",
        -9.904365570812018
      ],
      [
        "Ġ2000",
        -9.905704928924465
      ],
      [
        "previsto",
        -9.906093647260624
      ],
      [
        "ĠOfi",
        -9.906107451459937
      ],
      [
        "RECURSO",
        -9.906409103427972
      ],
      [
        "Defesa",
        -9.907718654806562
      ],
      [
        "ĠServic",
        -9.907966809655198
      ],
      [
        "disposto",
        -9.909172819228154
      ],
      [
        "ĠCivil",
        -9.909228380850514
      ],
      [
        "Ġespeci",
        -9.9100533968746
      ],
      [
        "Ġ2020",
        -9.910137041155178
      ],
      [
        "Ġ1990",
        -9.910958378970848
      ],
      [
        "&",
        -9.912002101101608
      ],
      [
        "ĠVale",
        -9.912209885655502
      ],
      [
        "Ġlista",
        -9.912395040396126
      ],
      [
        "CIA",
        -9.912986634920616
      ],
      [
        "Ġexecuc",
        -9.913592972524627
      ],
      [
        "Ġ35",
        -9.914086924169291
      ],
      [
        "*",
        -9.915522749081454
      ],
      [
        "Ġmulher",
        -9.915533309510616
      ],
      [
        "Ġ2002",
        -9.91838076563824
      ],
      [
        "ĠRosa",
        -9.919143187899197
      ],
      [
        "Ġ60",
        -9.920024643163568
      ],
      [
        "sociais",
        -9.92137091929272
      ],
      [
        "Ġviole",
        -9.92217559585188
      ],
      [
        "ĠEMENDA",
        -9.92241378480657
      ],
      [
        "REG",
        -9.923728854102858
      ],
      [
        "Ġgente",
        -9.924071195472166
      ],
      [
        "Ġmodelo",
        -9.926516604952878
      ],
      [
        "Ġcomunidade",
        -9.926557460461366
      ],
      [
        "Ġchegar",
        -9.926906611050086
      ],
      [
        "ĠTecnologia",
        -9.928863700312872
      ],
      [
        "Ġindica",
        -9.929180439396252
      ],
      [
        "Ġnenhum",
        -9.92931231952159
      ],
      [
        "Ġcomunicac",
        -9.929431968598347
      ],
      [
        "ĠVice",
        -9.92975364482023
      ],
      [
        "Ġmudanc",
        -9.933929548781526
      ],
      [
        "Ìģ?",
        -9.935118065246764
      ],
      [
        "blicas",
        -9.935799549022986
      ],
      [
        "IDADE",
        -9.93675572828109
      ],
      [
        "risco",
        -9.937505163542363
      ],
      [
        "Ġefeito",
        -9.937639549049226
      ],
      [
        "Ġavanc",
        -9.938150117454477
      ],
      [
        "dispo",
        -9.938776171527692
      ],
      [
        "Ġtitular",
        -9.938881340551928
      ],
      [
        "Ġalta",
        -9.939678553466738
      ],
      [
        "missa",
        -9.939731056905057
      ],
      [
        "Ġjoga",
        -9.939796368314202
      ],
      [
        "nessa",
        -9.939996575588506
      ],
      [
        "Ġdepende",
        -9.940699561922685
      ],
      [
        "ĠPrimeira",
        -9.9410488673458
      ],
      [
        "Ġalcanc",
        -9.941392975911883
      ],
      [
        "Ġautoriza",
        -9.942375853463467
      ],
      [
        "ĠSeu",
        -9.943840697247165
      ],
      [
        "Ġiniciativa",
        -9.943977788114722
      ],
      [
        "Ġconstante",
        -9.946330102088664
      ],
      [
        "ĠPDT",
        -9.94747699155604
      ],
      [
        "ĠBrasileiro",
        -9.948943775386
      ],
      [
        "ĠExcele",
        -9.949068012403815
      ],
      [
        "ĠCorte",
        -9.949200850216226
      ],
      [
        "Campeonato",
        -9.949900209458562
      ],
      [
        "ley",
        -9.951565974592857
      ],
      [
        "Ġfinanceira",
        -9.95322411954515
      ],
      [
        "Ġaquele",
        -9.95352274778234
      ],
      [
        "prevista",
        -9.953988496405678
      ],
      [
        "Ġsucesso",
        -9.95422985168216
      ],
      [
        "onde",
        -9.954238633629542
      ],
      [
        "ĠREQUERIMENTO",
        -9.954744367416934
      ],
      [
        "Ġficou",
        -9.954775137777462
      ],
      [
        "podemos",
        -9.957176609492585
      ],
      [
        "ĠZe",
        -9.9591684350564
      ],
      [
        "Ġcarreira",
        -9.959347975988502
      ],
      [
        "ĠObrigado",
        -9.959399728076605
      ],
      [
        "pico",
        -9.959800567068095
      ],
      [
        "ĠTV",
        -9.96036138437319
      ],
      [
        "possibilidade",
        -9.961677542237837
      ],
      [
        "Ġdifi",
        -9.962758993834532
      ],
      [
        "Ġcaminho",
        -9.96381861433672
      ],
      [
        "mbito",
        -9.963932878127949
      ],
      [
        "Ġprofissional",
        -9.96461917599878
      ],
      [
        "Ġexpressa",
        -9.964619333431356
      ],
      [
        "Ġtemporada",
        -9.96753143436581
      ],
      [
        "Ġalgue",
        -9.96788205844282
      ],
      [
        "ĠInstituto",
        -9.967950256678629
      ],
      [
        "gente",
        -9.969254366231278
      ],
      [
        "Ġcaracteri",
        -9.969278355197687
      ],
      [
        "sito",
        -9.970004073485132
      ],
      [
        "discurso",
        -9.970731905402497
      ],
      [
        "Ġsolicita",
        -9.970856749270856
      ],
      [
        "Ġbilho",
        -9.971689764429811
      ],
      [
        "Ġarma",
        -9.971733695643527
      ],
      [
        "sejam",
        -9.972045822109916
      ],
      [
        "Ġhi",
        -9.973076030869318
      ],
      [
        "Ġanterior",
        -9.973149118808884
      ],
      [
        "NTE",
        -9.975849082169209
      ],
      [
        "Ġ2001",
        -9.976396821190006
      ],
      [
        "Ġnobre",
        -9.976502972265877
      ],
      [
        "ĠCosta",
        -9.976552928457217
      ],
      [
        "Ġvigor",
        -9.976786849721456
      ],
      [
        "Ġtornou",
        -9.977096689494624
      ],
      [
        "ĠBR",
        -9.977629053792414
      ],
      [
        "Presidente",
        -9.978110837368472
      ],
      [
        "Ġproposic",
        -9.979196124998612
      ],
      [
        "ĠRel",
        -9.979377312937055
      ],
      [
        "Ġmandato",
        -9.979708555354213
      ],
      [
        "Ġclube",
        -9.980050818392652
      ],
      [
        "Î",
        -9.980153564831737
      ],
      [
        "ĠCunha",
        -9.980488286728528
      ],
      [
        "ĠMIN",
        -9.98099216645123
      ],
      [
        "Ġcampanha",
        -9.981488904818589
      ],
      [
        "Ġpauta",
        -9.981876463569122
      ],
      [
        "ĠRequerimento",
        -9.983423519910003
      ],
      [
        "Geral",
        -9.98399545927133
      ],
      [
        "ĠTambe",
        -9.985613419224736
      ],
      [
        "Ġfederal",
        -9.986064377438238
      ],
      [
        "Ġcerteza",
        -9.986429884912562
      ],
      [
        "Ġtransporte",
        -9.988698761013993
      ],
      [
        "ĠCE",
        -9.989148511787349
      ],
      [
        "Ġhaver",
        -9.989188757112805
      ],
      [
        "Ġprojetos",
        -9.99021084177741
      ],
      [
        "Ġvalores",
        -9.990399143121708
      ],
      [
        "Depois",
        -9.991243603072856
      ],
      [
        "Ġexame",
        -9.9917940918979
      ],
      [
        "Ġcentro",
        -9.995418397895127
      ],
      [
        "Ġrealizado",
        -9.996174888157048
      ],
      [
        "Ġresultado",
        -9.99618444655847
      ],
      [
        "ĠGuerra",
        -9.996666885580812
      ],
      [
        "Ġalterac",
        -9.996966644661812
      ],
      [
        "Ġcombate",
        -9.998514474831824
      ],
      [
        "zes",
        -9.999727611441472
      ],
      [
        "2005",
        -10.000390142537803
      ],
      [
        "nima",
        -10.002030562273074
      ],
      [
        "Ġatenc",
        -10.003009277706836
      ],
      [
        "Ġprincipais",
        -10.003602871351935
      ],
      [
        "iana",
        -10.004040362582613
      ],
      [
        "á",
        -10.004185486810426
      ],
      [
        "ĠCopa",
        -10.004553991270024
      ],
      [
        "Ġemprego",
        -10.00457183668941
      ],
      [
        "Ġsede",
        -10.004655424111284
      ],
      [
        "sticas",
        -10.004770288693784
      ],
      [
        "Ġcienti",
        -10.00491763344768
      ],
      [
        "apreciac",
        -10.005179346857746
      ],
      [
        "vidas",
        -10.005486269820922
      ],
      [
        "LTIMA",
        -10.005743424696686
      ],
      [
        "Ġplena",
        -10.007629833171164
      ],
      [
        "ĠPortant",
        -10.007641851927248
      ],
      [
        "ĠSecretaria",
        -10.007703079246458
      ],
      [
        "Ġdisponi",
        -10.00842459806997
      ],
      [
        "Ġ1998",
        -10.008964251615955
      ],
      [
        "pensado",
        -10.009090978640897
      ],
      [
        "serem",
        -10.009525881337016
      ],
      [
        "bon",
        -10.009775704321047
      ],
      [
        "Ġrenda",
        -10.012510529612566
      ],
      [
        "Ġclaro",
        -10.013438335808951
      ],
      [
        "ĠEspecial",
        -10.01352240964937
      ],
      [
        "Ġtorna",
        -10.014419146188716
      ],
      [
        "Ġvia",
        -10.014752121532528
      ],
      [
        "shi",
        -10.015125943877612
      ],
      [
        "Ġfiscal",
        -10.015214954980785
      ],
      [
        "ĠDireito",
        -10.018912645537542
      ],
      [
        "Ġideia",
        -10.018950602218135
      ],
      [
        "Ġextra",
        -10.019296195563278
      ],
      [
        "Ġ2018",
        -10.019602161487766
      ],
      [
        "INA",
        -10.02149587702405
      ],
      [
        "ssem",
        -10.022103503305337
      ],
      [
        "Ġconsiderado",
        -10.022230588618733
      ],
      [
        "Ġversa",
        -10.023483849465226
      ],
      [
        "Ġnatureza",
        -10.023615330805644
      ],
      [
        "Ġcrise",
        -10.024011390965002
      ],
      [
        "Ġregio",
        -10.024919931099989
      ],
      [
        "Ġpontos",
        -10.025166312003146
      ],
      [
        "trica",
        -10.027111209291512
      ],
      [
        "Ĥ",
        -10.02719139312686
      ],
      [
        "Ġnoti",
        -10.027425704798045
      ],
      [
        "Ġturno",
        -10.02879251930111
      ],
      [
        "Ġprocura",
        -10.030225221874456
      ],
      [
        "Ġhipo",
        -10.032866568959886
      ],
      [
        "han",
        -10.0332471448142
      ],
      [
        "ĠAndre",
        -10.03360162185953
      ],
      [
        "2019",
        -10.033649940556248
      ],
      [
        "Ġdenu",
        -10.033662011778796
      ],
      [
        "Ġautos",
        -10.03419444685574
      ],
      [
        "Ġgene",
        -10.03471466037828
      ],
      [
        "Ġlivre",
        -10.035067573279008
      ],
      [
        "Ġinstitui",
        -10.036113054125824
      ],
      [
        "Ġfase",
        -10.036572824021226
      ],
      [
        "Ġcriar",
        -10.0373625201966
      ],
      [
        "Ġsul",
        -10.037959480780572
      ],
      [
        "provimento",
        -10.0399738174572
      ],
      [
        "ĠSistema",
        -10.040123579576507
      ],
      [
        "Ġcai",
        -10.04074611629707
      ],
      [
        "Ordem",
        -10.042353097494162
      ],
      [
        "ĠRicardo",
        -10.04257461916947
      ],
      [
        "ĠHenrique",
        -10.044134793714148
      ],
      [
        "Ġcontribuic",
        -10.044158508484308
      ],
      [
        "chegou",
        -10.04454996371092
      ],
      [
        "Ġisto",
        -10.045588527016772
      ],
      [
        "Ġpenal",
        -10.046731251715128
      ],
      [
        "ĠInforma",
        -10.048209849904916
      ],
      [
        "ĠAGRAV",
        -10.04828792783146
      ],
      [
        "ĠEles",
        -10.048892119685844
      ],
      [
        "Ġlogo",
        -10.049128284308075
      ],
      [
        "ĠQuero",
        -10.049604686902672
      ],
      [
        "Ġvaria",
        -10.049774884125004
      ],
      [
        "ĠAlves",
        -10.05042735137144
      ],
      [
        "Ġsignifica",
        -10.050804184080183
      ],
      [
        "ĠQuem",
        -10.05106206681519
      ],
      [
        "ĠSanto",
        -10.052659364769845
      ],
      [
        "Ġautoria",
        -10.052740744793097
      ],
      [
        "Ġcaput",
        -10.05408076058192
      ],
      [
        "ĠJU",
        -10.054423625253936
      ],
      [
        "Ġdiferentes",
        -10.054764835322374
      ],
      [
        "Ġpartida",
        -10.055304947229391
      ],
      [
        "Ġdela",
        -10.055584273796338
      ],
      [
        "ĠMINISTR",
        -10.05722478974763
      ],
      [
        "Ġguerra",
        -10.057515428135789
      ],
      [
        "ĠOh",
        -10.05803082216377
      ],
      [
        "Ġtaxa",
        -10.058527557762991
      ],
      [
        "Ġpequeno",
        -10.058802929985504
      ],
      [
        "Ġcontinua",
        -10.059213421441642
      ],
      [
        "ĠPereira",
        -10.060883083982487
      ],
      [
        "Ġformac",
        -10.061541221576483
      ],
      [
        "Ġcategoria",
        -10.06211606206652
      ],
      [
        "ĠEra",
        -10.062459087810163
      ],
      [
        "Ġigual",
        -10.065310421875807
      ],
      [
        "Ġcivil",
        -10.065855792961766
      ],
      [
        "Ġvisita",
        -10.066785238454711
      ],
      [
        "Ġgesta",
        -10.067074799371056
      ],
      [
        "ĠSantos",
        -10.06757683867906
      ],
      [
        "Ġcidada",
        -10.067772105526268
      ],
      [
        "Ġmenor",
        -10.068340389184852
      ],
      [
        "2017",
        -10.070445657875608
      ],
      [
        "Ġdiferenc",
        -10.072769608648668
      ],
      [
        "Ġseis",
        -10.072882466881694
      ],
      [
        "Cidadania",
        -10.07358644474484
      ],
      [
        "acima",
        -10.074039353178618
      ],
      [
        "Ġrazo",
        -10.075651935970622
      ],
      [
        "CURSO",
        -10.07577951773727
      ],
      [
        "ĠSTF",
        -10.076338605050587
      ],
      [
        "RS",
        -10.076704619627275
      ],
      [
        "cujo",
        -10.079718661986622
      ],
      [
        "lares",
        -10.079906586573316
      ],
      [
        "ĠHu",
        -10.080503837596195
      ],
      [
        "ĠMais",
        -10.0806602241769
      ],
      [
        "Ġinternacional",
        -10.080855500905727
      ],
      [
        "Ġindu",
        -10.082872745336864
      ],
      [
        "Ġusua",
        -10.083362327154804
      ],
      [
        "logo",
        -10.083903527019013
      ],
      [
        "ĠLui",
        -10.083945192171752
      ],
      [
        "Ġofi",
        -10.084400217756968
      ],
      [
        "Ġconclui",
        -10.08532041400528
      ],
      [
        "ĠPorto",
        -10.089964138590547
      ],
      [
        "Ġfundo",
        -10.09009058549888
      ],
      [
        "Ġqueria",
        -10.090111090670218
      ],
      [
        "Ġesca",
        -10.090276355879263
      ],
      [
        "trabalhadores",
        -10.090498666285212
      ],
      [
        "Medida",
        -10.091008215815863
      ],
      [
        "Â",
        -10.091223379238352
      ],
      [
        "Ġimpo",
        -10.093109942372928
      ],
      [
        "Ġdestaque",
        -10.093771650153624
      ],
      [
        "Ġcrite",
        -10.094279666853572
      ],
      [
        "grafia",
        -10.094469536003476
      ],
      [
        "ĠDias",
        -10.09476496973192
      ],
      [
        "mediante",
        -10.09707523129402
      ],
      [
        "ĠPSD",
        -10.097259767477365
      ],
      [
        "ĠDilma",
        -10.097552327604436
      ],
      [
        "Ġprotec",
        -10.099439338792912
      ],
      [
        "cuja",
        -10.101134346440944
      ],
      [
        "the",
        -10.10145814172821
      ],
      [
        "dando",
        -10.101535724723457
      ],
      [
        "ĠVou",
        -10.102446934694685
      ],
      [
        "ĠRei",
        -10.10253845986316
      ],
      [
        "ĠBanco",
        -10.106151039116815
      ],
      [
        "DF",
        -10.106485390308412
      ],
      [
        "realmente",
        -10.106712760014553
      ],
      [
        "Ġvisa",
        -10.107033267018512
      ],
      [
        "Ġjornal",
        -10.107508619913418
      ],
      [
        "Ġatendimento",
        -10.107815955606664
      ],
      [
        "Ġexige",
        -10.109382999061935
      ],
      [
        "ĠGre",
        -10.11113098760228
      ],
      [
        "Ġaquela",
        -10.111249517803
      ],
      [
        "Ġescrito",
        -10.111961458607398
      ],
      [
        "Ġpassar",
        -10.115797020073016
      ],
      [
        "ĠKi",
        -10.116539278848617
      ],
      [
        "ĠNesse",
        -10.117024616869344
      ],
      [
        "ÌĤ-",
        -10.118683731882523
      ],
      [
        "Ġdesses",
        -10.119995422205884
      ],
      [
        "category",
        -10.120074710855668
      ],
      [
        "Ġacaba",
        -10.120122411637867
      ],
      [
        "Ġautoridade",
        -10.120377316599328
      ],
      [
        "ĠBrasileira",
        -10.121714022023632
      ],
      [
        "Ġchega",
        -10.122996054418776
      ],
      [
        "Ġportugue",
        -10.123002209205373
      ],
      [
        "ĠTri",
        -10.123353178488214
      ],
      [
        "Ġrecebe",
        -10.124507542555428
      ],
      [
        "Ġresposta",
        -10.125406782104058
      ],
      [
        "ĠProviso",
        -10.125697089180086
      ],
      [
        "Ġcriado",
        -10.12740668642908
      ],
      [
        "ĠMarcelo",
        -10.130235110364543
      ],
      [
        "ĠMato",
        -10.131073660941889
      ],
      [
        "Ġvotar",
        -10.131578465802216
      ],
      [
        "ĠFundo",
        -10.132449806659023
      ],
      [
        "Ġreceber",
        -10.133113002479227
      ],
      [
        "Ġ70",
        -10.133290089306664
      ],
      [
        "Gerais",
        -10.133432677216804
      ],
      [
        "ĠComiss",
        -10.133757733943996
      ],
      [
        "Durante",
        -10.134251618180306
      ],
      [
        "Ġcapacidade",
        -10.135462873938856
      ],
      [
        "ĠEntre",
        -10.135537618702106
      ],
      [
        "reunia",
        -10.13690070987032
      ],
      [
        "Ġnovos",
        -10.137162561813826
      ],
      [
        "PAULO",
        -10.137781768301329
      ],
      [
        "Ġliberdade",
        -10.138015393888342
      ],
      [
        "Ġdeclarac",
        -10.13811254103702
      ],
      [
        "Ġtribuna",
        -10.138299482058445
      ],
      [
        "recebeu",
        -10.139185368018284
      ],
      [
        "PL",
        -10.139324233423718
      ],
      [
        "ĠBA",
        -10.139685801785152
      ],
      [
        "2006",
        -10.140112687243882
      ],
      [
        "Ġespecifica",
        -10.140115678369073
      ],
      [
        "Ġ1997",
        -10.140206543832418
      ],
      [
        "nero",
        -10.142246195646374
      ],
      [
        "nsito",
        -10.142366351081924
      ],
      [
        "Ġcomunita",
        -10.142744252296596
      ],
      [
        "cias",
        -10.143941728997245
      ],
      [
        "CIO",
        -10.144312796426648
      ],
      [
        "Ġoriginal",
        -10.14465874933
      ],
      [
        "ĠBahia",
        -10.144723201802114
      ],
      [
        "Ġdiretor",
        -10.145165679283588
      ],
      [
        "Ġconstrui",
        -10.146338469447166
      ],
      [
        "CH",
        -10.147332072285376
      ],
      [
        "Ġdiversos",
        -10.148644477591752
      ],
      [
        "Ġexecutar",
        -10.149248741724604
      ],
      [
        "Ġreduc",
        -10.149320845197945
      ],
      [
        "ĠJorge",
        -10.150289441530266
      ],
      [
        "ĠLima",
        -10.15077746539398
      ],
      [
        "ĠAdministrac",
        -10.1519480335861
      ],
      [
        "Ġapresentado",
        -10.151966535284345
      ],
      [
        "Ġterceiro",
        -10.152554404800767
      ],
      [
        "Ġsoluc",
        -10.152964030419524
      ],
      [
        "Ġmaterial",
        -10.154923264543203
      ],
      [
        "pido",
        -10.155108333642334
      ],
      [
        "Ġmanter",
        -10.155323786392652
      ],
      [
        "Ġhomens",
        -10.155549429783166
      ],
      [
        "ĠSENHOR",
        -10.15615134762351
      ],
      [
        "servidores",
        -10.156277059358288
      ],
      [
        "Ġambiente",
        -10.157530070274744
      ],
      [
        "Ġtera",
        -10.15753182537029
      ],
      [
        "Ġincluindo",
        -10.157567527796708
      ],
      [
        "Ġamor",
        -10.157725947312462
      ],
      [
        "Ġchamada",
        -10.158228899353208
      ],
      [
        "ĠMundial",
        -10.15856250452108
      ],
      [
        "Ġhomenage",
        -10.161382896629526
      ],
      [
        "Ġestudo",
        -10.161750189570832
      ],
      [
        "ĠDiretor",
        -10.162869512074884
      ],
      [
        "ĠAP",
        -10.163012837528376
      ],
      [
        "doenc",
        -10.163659845924508
      ],
      [
        "Ġsofre",
        -10.164862966117903
      ],
      [
        "Ġtrabalhos",
        -10.16501802433679
      ],
      [
        "Ġcompra",
        -10.166234294679075
      ],
      [
        "Ġusar",
        -10.166833852906176
      ],
      [
        "hin",
        -10.166987285974534
      ],
      [
        "Ġproviso",
        -10.167410510181142
      ],
      [
        "Ġdiversas",
        -10.16747765187685
      ],
      [
        "ĠMeu",
        -10.167849178699004
      ],
      [
        "Of",
        -10.167970099643126
      ],
      [
        "ĠAta",
        -10.168108933243444
      ],
      [
        "acrescenta",
        -10.170695215947513
      ],
      [
        "Ainda",
        -10.170720304731269
      ],
      [
        "\",\"",
        -10.17121150762323
      ],
      [
        "Ġprofissionais",
        -10.17136250058557
      ],
      [
        "ĠInternacional",
        -10.171518776856278
      ],
      [
        "Ġcena",
        -10.171915468967777
      ],
      [
        "ĠRIC",
        -10.172461258801183
      ],
      [
        "Ġinstrumento",
        -10.172677535223643
      ],
      [
        "Ġapresentar",
        -10.17273931802112
      ],
      [
        "ĠâĢĺ",
        -10.17373770498181
      ],
      [
        "ĠMendes",
        -10.174818011901143
      ],
      [
        "ĠPU",
        -10.175428594466892
      ],
      [
        "ĠJohn",
        -10.175678665612612
      ],
      [
        "Ġamigo",
        -10.17585312765556
      ],
      [
        "Ġartigos",
        -10.177437143772302
      ],
      [
        "Ġgarantia",
        -10.177575641277365
      ],
      [
        "tratamento",
        -10.178764622412114
      ],
      [
        "rcito",
        -10.17891413699855
      ],
      [
        "ĠTudo",
        -10.179040224882373
      ],
      [
        "Ġquer",
        -10.180539936049287
      ],
      [
        "vendo",
        -10.181609341646062
      ],
      [
        "maiores",
        -10.183054151035616
      ],
      [
        "ĠGovernador",
        -10.183130057258198
      ],
      [
        "Ġconversa",
        -10.187265782033718
      ],
      [
        "ĠAqui",
        -10.187826822247166
      ],
      [
        "gostaria",
        -10.188011801489576
      ],
      [
        "ltimos",
        -10.188923862377854
      ],
      [
        "ĠTrata",
        -10.189198114507445
      ],
      [
        "Ġfins",
        -10.190430689880367
      ],
      [
        "PCdoB",
        -10.192255999164246
      ],
      [
        "ssimo",
        -10.19262742042226
      ],
      [
        "Ġcarro",
        -10.193014392129836
      ],
      [
        "Ġcumprimento",
        -10.19322831798793
      ],
      [
        "Ġfundamental",
        -10.193351745644463
      ],
      [
        "efeitos",
        -10.194390061387542
      ],
      [
        "ĠADV",
        -10.195414869313776
      ],
      [
        "ĠVoss",
        -10.195675910972822
      ],
      [
        "ĠParana",
        -10.19707594211788
      ],
      [
        "Ġfuturo",
        -10.197107136326895
      ],
      [
        "metros",
        -10.198769107067342
      ],
      [
        "Ġdisputa",
        -10.19885123855454
      ],
      [
        "Ġpergunta",
        -10.199806115814464
      ],
      [
        "Ġevento",
        -10.200030631162976
      ],
      [
        "ĠSesso",
        -10.202351126755676
      ],
      [
        "Ġmuita",
        -10.203176034775906
      ],
      [
        "nior",
        -10.20342112639378
      ],
      [
        "ĠBri",
        -10.204723807632565
      ],
      [
        "tiveram",
        -10.205677036768146
      ],
      [
        "pronunciamento",
        -10.205926451379735
      ],
      [
        "Ġconve",
        -10.20771532269335
      ],
      [
        "Ġlicenc",
        -10.208468161676688
      ],
      [
        "Ġgrave",
        -10.208870746317896
      ],
      [
        "Ġaudie",
        -10.2091325531034
      ],
      [
        "Ġmilitar",
        -10.210613904223992
      ],
      [
        "frica",
        -10.211186811701277
      ],
      [
        "Ġalto",
        -10.21235290740442
      ],
      [
        "Ġcabe",
        -10.212618615192651
      ],
      [
        "Ġadministrac",
        -10.214062175675847
      ],
      [
        "Ġnatural",
        -10.214662933541414
      ],
      [
        "ĠAcho",
        -10.21471288596654
      ],
      [
        "ocalidades",
        -10.214899888143156
      ],
      [
        "ung",
        -10.216224996241571
      ],
      [
        "Ġsubstitui",
        -10.216522988220715
      ],
      [
        "lizado",
        -10.216656042546427
      ],
      [
        "Ġinicia",
        -10.217692695216195
      ],
      [
        "ĠSuperior",
        -10.21892948048734
      ],
      [
        "ĠRJ",
        -10.220107796036144
      ],
      [
        "Ġcrescimento",
        -10.221005151336788
      ],
      [
        "Ġcurso",
        -10.221373125027853
      ],
      [
        "ĠPEC",
        -10.222135841162842
      ],
      [
        "Ġcerta",
        -10.222497882659423
      ],
      [
        "Ġtributa",
        -10.223190931128029
      ],
      [
        "ĠEcono",
        -10.223556522597333
      ],
      [
        "Ġinflue",
        -10.22445177446311
      ],
      [
        "ĠCentro",
        -10.22498435428047
      ],
      [
        "Ġnovas",
        -10.225111607419448
      ],
      [
        "ĠLocal",
        -10.226017983053032
      ],
      [
        "Ġajudar",
        -10.227891133270148
      ],
      [
        "Ġningue",
        -10.22930415911442
      ],
      [
        "Ġsonora",
        -10.229415091050514
      ],
      [
        "ĠWikipe",
        -10.229533180884635
      ],
      [
        "EXTRAORDINA",
        -10.230723372623174
      ],
      [
        "ĠCampos",
        -10.230981321429528
      ],
      [
        "Ġnenhuma",
        -10.23185104103369
      ],
      [
        "entidades",
        -10.231950441469104
      ],
      [
        "Ġsimples",
        -10.232292876409264
      ],
      [
        "Ġentrega",
        -10.232579963683213
      ],
      [
        "Ġutilizado",
        -10.232718793429674
      ],
      [
        "Ġvito",
        -10.233141715337144
      ],
      [
        "ĠNu",
        -10.233227569063464
      ],
      [
        "NAL",
        -10.23330118367242
      ],
      [
        "ĠVoto",
        -10.233604946679542
      ],
      [
        "Ġtais",
        -10.23488057809463
      ],
      [
        "Ġapresentac",
        -10.234942493810102
      ],
      [
        "ĠPmdbP",
        -10.235234777036757
      ],
      [
        "Ġmotivo",
        -10.235562711802803
      ],
      [
        "tecnologia",
        -10.236819912631288
      ],
      [
        "Ġimposto",
        -10.23695530934487
      ],
      [
        "Ġ1999",
        -10.239750520772644
      ],
      [
        "riamente",
        -10.239771973428216
      ],
      [
        "Ġdeles",
        -10.241111953126593
      ],
      [
        "Ltd",
        -10.242295478164609
      ],
      [
        "ĠPARA",
        -10.24240872898586
      ],
      [
        "Ġalega",
        -10.242744013326057
      ],
      [
        "Ġautorizac",
        -10.242794497302391
      ],
      [
        "Ġconquista",
        -10.243536035550743
      ],
      [
        "RJ",
        -10.243766290157328
      ],
      [
        "Ġatingi",
        -10.245201459190994
      ],
      [
        "Ġchama",
        -10.24552155636381
      ],
      [
        "2003",
        -10.24650994862611
      ],
      [
        "Ġprestac",
        -10.247478668839648
      ],
      [
        "Lei",
        -10.248050348535836
      ],
      [
        "Ġ80",
        -10.24930714163046
      ],
      [
        "Ġvisto",
        -10.251117218836724
      ],
      [
        "Hoje",
        -10.251177977598712
      ],
      [
        "Ġdespes",
        -10.25150529478992
      ],
      [
        "atuac",
        -10.252848395507105
      ],
      [
        "ĠTodos",
        -10.253450464639728
      ],
      [
        "Anexo",
        -10.2542927196312
      ],
      [
        "Ġdispositivo",
        -10.254298149511468
      ],
      [
        "Ġfavora",
        -10.254715026424318
      ],
      [
        "ĠIgreja",
        -10.254806495589436
      ],
      [
        "Ñ",
        -10.254945482166187
      ],
      [
        "Ġregular",
        -10.255388838563707
      ],
      [
        "Ġause",
        -10.256169753117543
      ],
      [
        "ney",
        -10.2565750820851
      ],
      [
        "Ġreceita",
        -10.257017306702414
      ],
      [
        "Ġfilhos",
        -10.25833276519523
      ],
      [
        "Ġdiante",
        -10.26152350413
      ],
      [
        "designado",
        -10.262215966123032
      ],
      [
        "prisa",
        -10.26253021854174
      ],
      [
        "Ġcontar",
        -10.262582484201866
      ],
      [
        "Ġespecialmente",
        -10.26344063805644
      ],
      [
        "ĠParlamentar",
        -10.263899425632395
      ],
      [
        "Ġtermo",
        -10.264547113908526
      ],
      [
        "Ġmac",
        -10.26511896704513
      ],
      [
        "ĠCultura",
        -10.265889414536511
      ],
      [
        "PFL",
        -10.265978543419893
      ],
      [
        "Ġconhecida",
        -10.26888405405338
      ],
      [
        "juridicidade",
        -10.26939718943466
      ],
      [
        "hy",
        -10.270356783367363
      ],
      [
        "Ġreserva",
        -10.270449840006284
      ],
      [
        "substituic",
        -10.270654949029035
      ],
      [
        "Ġgarantir",
        -10.27074576657802
      ],
      [
        "Ġfutebol",
        -10.271464655129808
      ],
      [
        "ĠTerra",
        -10.2721663599779
      ],
      [
        "Ġestavam",
        -10.27232456968054
      ],
      [
        "ĠFEDERAL",
        -10.27249662560796
      ],
      [
        "Ġconsegui",
        -10.273053119162812
      ],
      [
        "Ġlevar",
        -10.273855242759623
      ],
      [
        "Ġpermanece",
        -10.275113185227694
      ],
      [
        "Ġtornar",
        -10.275756291249428
      ],
      [
        "ĠTemer",
        -10.276015587072353
      ],
      [
        "Tenho",
        -10.276532344276555
      ],
      [
        "Ġfazem",
        -10.27664784074667
      ],
      [
        "Ġcomum",
        -10.27729411062409
      ],
      [
        "URMA",
        -10.277895986908357
      ],
      [
        "Ġcabec",
        -10.279236358058617
      ],
      [
        "Michel",
        -10.279597996907109
      ],
      [
        "Ġexperie",
        -10.279985966392845
      ],
      [
        "Ġrevista",
        -10.281713058820138
      ],
      [
        "Ġbastante",
        -10.282332219849629
      ],
      [
        "GERAL",
        -10.282638721635202
      ],
      [
        "Ġentrar",
        -10.28338161399205
      ],
      [
        "ĠRibeiro",
        -10.283585562427948
      ],
      [
        "Ġfilha",
        -10.283659170396293
      ],
      [
        "ĠContra",
        -10.28450494424312
      ],
      [
        "Ġpublicado",
        -10.285286461142286
      ],
      [
        "produtos",
        -10.286560735096511
      ],
      [
        "Ġocupa",
        -10.286715997742574
      ],
      [
        "Ġcarta",
        -10.286978639193086
      ],
      [
        "Ġaprovada",
        -10.2870326315016
      ],
      [
        "Ġdista",
        -10.28779187190744
      ],
      [
        "Ġdestaca",
        -10.28822406934846
      ],
      [
        "Ġrealidade",
        -10.289384089954806
      ],
      [
        "indicac",
        -10.289424433823134
      ],
      [
        "ĠFla",
        -10.289438273397352
      ],
      [
        "ĠDep",
        -10.292016150581032
      ],
      [
        "Ġtrabalhar",
        -10.293665444427878
      ],
      [
        "instalac",
        -10.294094682643328
      ],
      [
        "afirmou",
        -10.29479983616156
      ],
      [
        "Ġtradic",
        -10.294850221744086
      ],
      [
        "âĢĲ",
        -10.29515713181388
      ],
      [
        "Ġvenda",
        -10.295293047382858
      ],
      [
        "Ġvoltar",
        -10.29592677674067
      ],
      [
        "ĠDOS",
        -10.296935197674294
      ],
      [
        "Ġnovamente",
        -10.29722422156964
      ],
      [
        "ĠComplementar",
        -10.298902271773464
      ],
      [
        "Ġconteu",
        -10.302013812528791
      ],
      [
        "jovens",
        -10.302272814473778
      ],
      [
        "ĠEsper",
        -10.303310533700593
      ],
      [
        "Ġclasse",
        -10.303781174997704
      ],
      [
        "bancada",
        -10.305489912082804
      ],
      [
        "ĠSegunda",
        -10.30568724871587
      ],
      [
        "Ġsair",
        -10.306102229870676
      ],
      [
        "devem",
        -10.306143349563875
      ],
      [
        "2004",
        -10.30693914524111
      ],
      [
        "Ġ1996",
        -10.308510825030924
      ],
      [
        "Ġvaga",
        -10.309691012417051
      ],
      [
        "ĠAprova",
        -10.310331576327444
      ],
      [
        "ĠReal",
        -10.310711143512023
      ],
      [
        "ĠOrc",
        -10.31076026461892
      ],
      [
        "pida",
        -10.310905183484053
      ],
      [
        "Ġassiste",
        -10.311558492757127
      ],
      [
        "Ġseguida",
        -10.311774428631708
      ],
      [
        "ĠZa",
        -10.312238566595012
      ],
      [
        "Ġprogramas",
        -10.312664601171306
      ],
      [
        "ĠKo",
        -10.312694301855934
      ],
      [
        "ĠBom",
        -10.313268323801092
      ],
      [
        "Ġepiso",
        -10.314443397645032
      ],
      [
        "Ġencontrar",
        -10.314581939696724
      ],
      [
        "velmente",
        -10.315120512579416
      ],
      [
        "Ġpopular",
        -10.315177841409412
      ],
      [
        "Ġmante",
        -10.315321911711964
      ],
      [
        "Ġalema",
        -10.31570066908768
      ],
      [
        "Ġmeus",
        -10.31663325892442
      ],
      [
        "liminar",
        -10.316702396269658
      ],
      [
        "ĠFac",
        -10.316702923640744
      ],
      [
        "Ġquesto",
        -10.31764298600359
      ],
      [
        "Ġsete",
        -10.31817058470079
      ],
      [
        "Ġparti",
        -10.31836063130544
      ],
      [
        "Ġimportantes",
        -10.3204613546833
      ],
      [
        "Ġrepresentante",
        -10.32091237573878
      ],
      [
        "]",
        -10.323424135084776
      ],
      [
        "Ġpropriedade",
        -10.323606081176385
      ],
      [
        "ker",
        -10.325431717326902
      ],
      [
        "ĠFU",
        -10.325877732129827
      ],
      [
        "Ġdisco",
        -10.327580469205085
      ],
      [
        "Ġbeneficia",
        -10.328000008936495
      ],
      [
        "[",
        -10.328714034036
      ],
      [
        "tenham",
        -10.329536688465865
      ],
      [
        "ĠFami",
        -10.33091600880708
      ],
      [
        "Ġprejui",
        -10.33221303211525
      ],
      [
        "Ġenca",
        -10.332758631932537
      ],
      [
        "Ġministro",
        -10.333112035623024
      ],
      [
        "Ġsuficiente",
        -10.333476207904956
      ],
      [
        "Dispo",
        -10.33448611837296
      ],
      [
        "ĠEuropa",
        -10.334694529002205
      ],
      [
        "Ġbaixa",
        -10.33473347021586
      ],
      [
        "Ġcontribui",
        -10.335798846781898
      ],
      [
        "AgR",
        -10.336009128151703
      ],
      [
        "ĠAmazo",
        -10.336566283363611
      ],
      [
        "Ġquadro",
        -10.336785960961436
      ],
      [
        "deixou",
        -10.337918035869734
      ],
      [
        "Ġobrigac",
        -10.338345601753874
      ],
      [
        "Ġantigo",
        -10.33874202856445
      ],
      [
        "micos",
        -10.339826493648136
      ],
      [
        "ĠEscola",
        -10.3399902511112
      ],
      [
        "entendimento",
        -10.341390843468636
      ],
      [
        "entidade",
        -10.342080327616069
      ],
      [
        "rgio",
        -10.344024821061794
      ],
      [
        "å",
        -10.34405281164371
      ],
      [
        "Ġfaixa",
        -10.344165220917803
      ],
      [
        "meros",
        -10.34425194850529
      ],
      [
        "ndice",
        -10.345025678801294
      ],
      [
        "Ĩ",
        -10.346419326576608
      ],
      [
        "DEPUTADO",
        -10.346427788475111
      ],
      [
        "Ġauxi",
        -10.347572883897447
      ],
      [
        "Prefeito",
        -10.349380843186005
      ],
      [
        "Ġagradec",
        -10.349825708221816
      ],
      [
        "Substitutivo",
        -10.350412820209684
      ],
      [
        "Ġdiminui",
        -10.350582790679656
      ],
      [
        "ĠRelato",
        -10.350612857923158
      ],
      [
        "Ġdomi",
        -10.351530405034724
      ],
      [
        "Ġperda",
        -10.352783607791055
      ],
      [
        "Certo",
        -10.35299646798623
      ],
      [
        "ĠImpe",
        -10.353665558222264
      ],
      [
        "Ġcoloca",
        -10.353722646033043
      ],
      [
        "Ġcolocar",
        -10.354332072756238
      ],
      [
        "ĠPenal",
        -10.35448183002472
      ],
      [
        "Portaria",
        -10.354530647314196
      ],
      [
        "aqueles",
        -10.355083671764916
      ],
      [
        "lizar",
        -10.355933159603891
      ],
      [
        "entrada",
        -10.356959949854616
      ],
      [
        "+",
        -10.358105461054482
      ],
      [
        "Ġoutorga",
        -10.358551201121664
      ],
      [
        "medidas",
        -10.358891802353506
      ],
      [
        "Ġpequena",
        -10.359873110870764
      ],
      [
        "Ġconsidera",
        -10.361777060131596
      ],
      [
        "conformidade",
        -10.36267922289526
      ],
      [
        "Ġseguir",
        -10.36270951204098
      ],
      [
        "Ġpaciente",
        -10.364701257997076
      ],
      [
        "Ġcontinuar",
        -10.364865373901967
      ],
      [
        "Ġdemanda",
        -10.364914990733917
      ],
      [
        "ĠPubli",
        -10.365172449715086
      ],
      [
        "Ġrealizar",
        -10.365741710954326
      ],
      [
        "PtbP",
        -10.36602031306486
      ],
      [
        "locais",
        -10.36662827000358
      ],
      [
        "ĠLU",
        -10.366692582141663
      ],
      [
        "Ġsite",
        -10.366740825793611
      ],
      [
        "Ġaconteceu",
        -10.366825060301396
      ],
      [
        "Ġpermite",
        -10.36723721831392
      ],
      [
        "Ġbaixo",
        -10.368718732452676
      ],
      [
        "Ġelas",
        -10.369600623288164
      ],
      [
        "Ġcento",
        -10.371560899698776
      ],
      [
        "todo",
        -10.37247242134116
      ],
      [
        "Ġaprova",
        -10.373673495598007
      ],
      [
        "Ġacerca",
        -10.374267110258875
      ],
      [
        "gerac",
        -10.37691680075752
      ],
      [
        "PSOL",
        -10.377094188208286
      ],
      [
        "ĠComunita",
        -10.378054717166602
      ],
      [
        "Ġtelevisa",
        -10.378150179004107
      ],
      [
        "talvez",
        -10.378467385076648
      ],
      [
        "Ġregra",
        -10.38010107227329
      ],
      [
        "ontem",
        -10.38052955342694
      ],
      [
        "Ġluz",
        -10.38119014323962
      ],
      [
        "Ġcac",
        -10.381191227182471
      ],
      [
        "Ġmissa",
        -10.38518928161792
      ],
      [
        "Ġtraz",
        -10.38625587606133
      ],
      [
        "destinada",
        -10.387832184164685
      ],
      [
        "ĠProcesso",
        -10.389040355249085
      ],
      [
        "Ġtomar",
        -10.390325127680928
      ],
      [
        "ligac",
        -10.390360824554328
      ],
      [
        "Ġabertura",
        -10.390604459529737
      ],
      [
        "Ġdiferente",
        -10.390690042279052
      ],
      [
        "tulos",
        -10.39092193410905
      ],
      [
        "Ġdessas",
        -10.390932045186387
      ],
      [
        "ĠPrimeiro",
        -10.39109643533804
      ],
      [
        "Ġordina",
        -10.391164586368566
      ],
      [
        "Ġesforc",
        -10.39160954563364
      ],
      [
        "manutenc",
        -10.392286820563095
      ],
      [
        "cito",
        -10.392474334896152
      ],
      [
        "Ġdada",
        -10.39658607611188
      ],
      [
        "ĠDepu",
        -10.396642959189442
      ],
      [
        "ĠAcre",
        -10.397952471974184
      ],
      [
        "licitac",
        -10.398850569865465
      ],
      [
        "Ġtratar",
        -10.399847401668232
      ],
      [
        "Ġmulta",
        -10.400775767233297
      ],
      [
        "Ġparticipar",
        -10.401064426616353
      ],
      [
        "ĠPOR",
        -10.401810553937144
      ],
      [
        "Ġbens",
        -10.402300329464191
      ],
      [
        "pica",
        -10.402455626472642
      ],
      [
        "Ġdireta",
        -10.40316366246868
      ],
      [
        "ĠTrans",
        -10.403624434896754
      ],
      [
        "Ġdaquel",
        -10.4047707141819
      ],
      [
        "PRB",
        -10.405166326621698
      ],
      [
        "referido",
        -10.406292696934942
      ],
      [
        "Ġinvestigac",
        -10.407443057314962
      ],
      [
        "inclusa",
        -10.407992187205002
      ],
      [
        "metro",
        -10.408427374832836
      ],
      [
        "Ġpasso",
        -10.40946618284652
      ],
      [
        "LIO",
        -10.411767619787383
      ],
      [
        "ĠCentral",
        -10.411896205473305
      ],
      [
        "Ġpensa",
        -10.41222951574164
      ],
      [
        "Į",
        -10.413813281180964
      ],
      [
        "legais",
        -10.415987303574166
      ],
      [
        "|",
        -10.4171589788743
      ],
      [
        "Ġdisposic",
        -10.417832921271176
      ],
      [
        "burg",
        -10.4181570624831
      ],
      [
        "Ġpermitir",
        -10.41930176090264
      ],
      [
        "ĠOutro",
        -10.41944367732112
      ],
      [
        "ĠOli",
        -10.419659390842812
      ],
      [
        "PSC",
        -10.419761177874584
      ],
      [
        "Ġcomercial",
        -10.420228619525243
      ],
      [
        "Ġdistribui",
        -10.42057221244089
      ],
      [
        "apesar",
        -10.4214832090999
      ],
      [
        "Ġjogos",
        -10.42211802096664
      ],
      [
        "Ġcolega",
        -10.422123050083444
      ],
      [
        "Ġamigos",
        -10.423231041753024
      ],
      [
        "2018",
        -10.423775679435348
      ],
      [
        "Ġgosta",
        -10.42382448513946
      ],
      [
        "diretamente",
        -10.425282647976358
      ],
      [
        "distribuic",
        -10.42586434224566
      ],
      [
        "ĠJOSE",
        -10.42715497236468
      ],
      [
        "ĠPROPOSI",
        -10.42795207676158
      ],
      [
        "Ġencaminh",
        -10.428147110592786
      ],
      [
        "Ġdecreta",
        -10.429300083688563
      ],
      [
        "decorrente",
        -10.42992195439895
      ],
      [
        "Ġdado",
        -10.43007412757137
      ],
      [
        "Ġdiscutir",
        -10.43071011751615
      ],
      [
        "Ġlegi",
        -10.43176156440775
      ],
      [
        "Ġoito",
        -10.43203247798286
      ],
      [
        "ĠPorque",
        -10.432359990287695
      ],
      [
        "ĠPlano",
        -10.432509258339072
      ],
      [
        "Ġsustenta",
        -10.434561964863514
      ],
      [
        "ĠSouza",
        -10.434659492549777
      ],
      [
        "ĠCelso",
        -10.435484990918438
      ],
      [
        "Apoio",
        -10.436157687784087
      ],
      [
        "Ġdocumentos",
        -10.436463080975823
      ],
      [
        "ĠOla",
        -10.436977265423698
      ],
      [
        "Ġperto",
        -10.438452689700876
      ],
      [
        "Ġ1991",
        -10.438549965742553
      ],
      [
        "Ġmanifestac",
        -10.43860380198562
      ],
      [
        "Ġderrota",
        -10.438835542511924
      ],
      [
        "Ġdizendo",
        -10.43925135624188
      ],
      [
        "americana",
        -10.44006112563446
      ],
      [
        "Ġmelhores",
        -10.440240925459564
      ],
      [
        "Ġcapaz",
        -10.440503631579071
      ],
      [
        "sicas",
        -10.440681720967287
      ],
      [
        "ĠGomes",
        -10.440747420782705
      ],
      [
        "ĠConced",
        -10.44087735185819
      ],
      [
        "utilizac",
        -10.44164622132217
      ],
      [
        "Ġpermiti",
        -10.441714253668913
      ],
      [
        "ĠMunicipal",
        -10.44197529439565
      ],
      [
        "ĠGrosso",
        -10.442964592029176
      ],
      [
        "Ġinterior",
        -10.44338908081858
      ],
      [
        "Ġfeliz",
        -10.443471686396196
      ],
      [
        "militares",
        -10.44404262461799
      ],
      [
        "ĠMinistra",
        -10.444690988804243
      ],
      [
        "Ġinfra",
        -10.44503764846828
      ],
      [
        "ĠLopes",
        -10.445625088102329
      ],
      [
        "ĠAge",
        -10.446747204807002
      ],
      [
        "estabelecido",
        -10.446970626485555
      ],
      [
        "Ġapresentada",
        -10.447361215304657
      ],
      [
        "ĠSerra",
        -10.447752682991169
      ],
      [
        "CARLOS",
        -10.447906662671771
      ],
      [
        "ĠMilitar",
        -10.44800617895354
      ],
      [
        "Ġprovi",
        -10.44809709966089
      ],
      [
        "normas",
        -10.448416471640044
      ],
      [
        "ĠRocha",
        -10.448652672663988
      ],
      [
        "Ġameac",
        -10.450751034195235
      ],
      [
        "Ġtentar",
        -10.451344566660916
      ],
      [
        "Ġconsiderada",
        -10.4513837422221
      ],
      [
        "campea",
        -10.451839918633304
      ],
      [
        "Ġadministrativa",
        -10.453259409078688
      ],
      [
        "Ġpaga",
        -10.454483465210318
      ],
      [
        "Ġpreve",
        -10.455316409650507
      ],
      [
        "Ġhumano",
        -10.456119160942963
      ],
      [
        "ficas",
        -10.456574473231644
      ],
      [
        "Pausa",
        -10.45723524158804
      ],
      [
        "Ġmundial",
        -10.458187120919897
      ],
      [
        "Ġ1995",
        -10.458710432794966
      ],
      [
        "Ġvive",
        -10.460073300158523
      ],
      [
        "ĠLista",
        -10.461658466058038
      ],
      [
        "Ġcompromisso",
        -10.46200733720436
      ],
      [
        "Estamos",
        -10.462165726585576
      ],
      [
        "Ġtroca",
        -10.462519061003498
      ],
      [
        "ĠQuer",
        -10.46496947834198
      ],
      [
        "exposto",
        -10.465596277824142
      ],
      [
        "bado",
        -10.466848372843415
      ],
      [
        "Ġinterna",
        -10.466968613311684
      ],
      [
        "ĠCatarina",
        -10.467821609293615
      ],
      [
        "Ġacabou",
        -10.46788543310386
      ],
      [
        "Ġlocalizado",
        -10.46805895428749
      ],
      [
        "Ġavaliac",
        -10.46818514502712
      ],
      [
        "Ġretira",
        -10.468718303652716
      ],
      [
        "MG",
        -10.47014284825274
      ],
      [
        "Ġjovem",
        -10.47019071398709
      ],
      [
        "Ġcompetic",
        -10.470556093663916
      ],
      [
        "seguintes",
        -10.47093564774976
      ],
      [
        "Ġrelativa",
        -10.471330893290537
      ],
      [
        "exclusividade",
        -10.471513084787183
      ],
      [
        "ĠVeja",
        -10.473377081729556
      ],
      [
        "Ġpedir",
        -10.473384122044552
      ],
      [
        "dicos",
        -10.474556138606737
      ],
      [
        "Ġquarto",
        -10.475199547519772
      ],
      [
        "atos",
        -10.476808886198064
      ],
      [
        "ĠUS",
        -10.4774208743317
      ],
      [
        "Ġexigi",
        -10.478286765172871
      ],
      [
        "Apesar",
        -10.478374585139402
      ],
      [
        "Ġperde",
        -10.478486279634838
      ],
      [
        "Ġconseguiu",
        -10.478917488076696
      ],
      [
        "Ġcompleta",
        -10.48051961141168
      ],
      [
        "Ġescolas",
        -10.48110462299368
      ],
      [
        "Ġdaqui",
        -10.48191997363564
      ],
      [
        "CONSTITUIC",
        -10.482133922859262
      ],
      [
        "ĠLUIZ",
        -10.48299072131638
      ],
      [
        "ĠJudicia",
        -10.48313625744874
      ],
      [
        "estabelecimento",
        -10.48361117896778
      ],
      [
        "uplente",
        -10.484107522201624
      ],
      [
        "Ġhonra",
        -10.484143855621822
      ],
      [
        "Ġfinanciamento",
        -10.484834843689374
      ],
      [
        "Ġimprensa",
        -10.485009780423065
      ],
      [
        "Ġquantidade",
        -10.485175118623468
      ],
      [
        "Ġdefende",
        -10.485727962684006
      ],
      [
        "Ġreside",
        -10.486368023362871
      ],
      [
        "ĠCidade",
        -10.487090769744006
      ],
      [
        "Maranha",
        -10.488792430418258
      ],
      [
        "constitucionai",
        -10.489666983095525
      ],
      [
        "Ġquarta",
        -10.490396716718289
      ],
      [
        "Ł",
        -10.490888019145824
      ],
      [
        "Ġpatrimo",
        -10.491017010794302
      ],
      [
        "Ġselec",
        -10.491946222843666
      ],
      [
        "Ġdeficie",
        -10.492064604574072
      ],
      [
        "ĠGeral",
        -10.49298546205529
      ],
      [
        "falando",
        -10.49337187816342
      ],
      [
        "Ġpagar",
        -10.494202084580229
      ],
      [
        "Ġestudos",
        -10.495139527621342
      ],
      [
        "ĠSabe",
        -10.4963011784325
      ],
      [
        "ssia",
        -10.496373652331092
      ],
      [
        "ĠAh",
        -10.497718944890552
      ],
      [
        "ĠAlmeida",
        -10.498050872497377
      ],
      [
        "Ġestrate",
        -10.49822939925948
      ],
      [
        "Ġlocalizada",
        -10.49917839160008
      ],
      [
        "ĠFica",
        -10.500771153550696
      ],
      [
        "ĠRS",
        -10.501423726809469
      ],
      [
        "Ġcomigo",
        -10.502826330984863
      ],
      [
        "ĠUSP",
        -10.504020090408828
      ],
      [
        "Ġexatamente",
        -10.504562257479382
      ],
      [
        "usada",
        -10.507275515051186
      ],
      [
        "ĠRodrigues",
        -10.507698368912708
      ],
      [
        "Ġcomissa",
        -10.507871777721588
      ],
      [
        "Lideran",
        -10.50820330605234
      ],
      [
        "Ġunidades",
        -10.509275165712795
      ],
      [
        "Ġ119",
        -10.509423427052004
      ],
      [
        "vemos",
        -10.510141781908027
      ],
      [
        "Ġinicial",
        -10.510218825730714
      ],
      [
        "nacionais",
        -10.510467465106542
      ],
      [
        "Ġrodovia",
        -10.511304737301222
      ],
      [
        "ĠGrupo",
        -10.511583694386497
      ],
      [
        "ĠParlamentare",
        -10.511670178832109
      ],
      [
        "Ġencontro",
        -10.513126554602614
      ],
      [
        "cies",
        -10.513696407184774
      ],
      [
        "artista",
        -10.514198935582128
      ],
      [
        "ħ",
        -10.514822832109
      ],
      [
        "ferido",
        -10.51561831487246
      ],
      [
        "Ġassumi",
        -10.51577308808584
      ],
      [
        "ĠCarvalho",
        -10.515804838212397
      ],
      [
        "corrupc",
        -10.517430060784548
      ],
      [
        "Ġjulgado",
        -10.517645952707554
      ],
      [
        "Ġhaja",
        -10.519060658001754
      ],
      [
        "ambos",
        -10.520119819762872
      ],
      [
        "MARA",
        -10.520663764386269
      ],
      [
        "nicos",
        -10.52134440747731
      ],
      [
        "ĠOnde",
        -10.521517538243335
      ],
      [
        "Ġconseguir",
        -10.521645076272344
      ],
      [
        "bairro",
        -10.522599760923343
      ],
      [
        "Ġfale",
        -10.52277939537279
      ],
      [
        "permissa",
        -10.522932506908395
      ],
      [
        "ĠPrevide",
        -10.523913042884848
      ],
      [
        "ĠToda",
        -10.525039035554414
      ],
      [
        "criada",
        -10.526364283015612
      ],
      [
        "chefe",
        -10.527246313856423
      ],
      [
        "ĠMinha",
        -10.528397742686437
      ],
      [
        "Ġresultados",
        -10.52865482048106
      ],
      [
        "Ġorientac",
        -10.528810442066227
      ],
      [
        "deres",
        -10.530019418786566
      ],
      [
        "ĠMG",
        -10.530495228983998
      ],
      [
        "ĠDaniel",
        -10.53101643650285
      ],
      [
        "rejeic",
        -10.532604434989864
      ],
      [
        "Con",
        -10.532950162663806
      ],
      [
        "ĠLEGISLATIV",
        -10.533444502344423
      ],
      [
        "Ġaberto",
        -10.53448458480325
      ],
      [
        "Ġestadual",
        -10.535041430151717
      ],
      [
        "ĠRegia",
        -10.536316787545658
      ],
      [
        "Ġestabelecer",
        -10.536378515891531
      ],
      [
        "erson",
        -10.5382163203431
      ],
      [
        "Ġvivo",
        -10.538936198487557
      ],
      [
        "ĠReino",
        -10.539405853354072
      ],
      [
        "ginas",
        -10.539540017286674
      ],
      [
        "Ġevitar",
        -10.539599097204976
      ],
      [
        "ĠAugusto",
        -10.540114580096024
      ],
      [
        "atualmente",
        -10.540200323289865
      ],
      [
        "ĠPan",
        -10.540915745322089
      ],
      [
        "NR",
        -10.541369305604434
      ],
      [
        "Ġparcela",
        -10.542262536913634
      ],
      [
        "Ġinvestimento",
        -10.5429824863013
      ],
      [
        "Ġfigura",
        -10.544481227877425
      ],
      [
        "ĠNordeste",
        -10.54552130520725
      ],
      [
        "Seguranc",
        -10.546047881752637
      ],
      [
        "atribuic",
        -10.546297774147677
      ],
      [
        "Ġvige",
        -10.547552059923287
      ],
      [
        "Talvez",
        -10.548210203597357
      ],
      [
        "somos",
        -10.548547728663523
      ],
      [
        "Ġdocumento",
        -10.549089748260272
      ],
      [
        "impacto",
        -10.549494210211938
      ],
      [
        "relator",
        -10.549613700102087
      ],
      [
        "ĠEstadual",
        -10.549909575179582
      ],
      [
        "Ġfundamento",
        -10.550696560499816
      ],
      [
        "Ġmerece",
        -10.5507592420661
      ],
      [
        "Ġprocedimento",
        -10.551052440639468
      ],
      [
        "Figueiredo",
        -10.551247779547063
      ],
      [
        "ĠSenhora",
        -10.551636704998955
      ],
      [
        "ĠIndu",
        -10.55166674222608
      ],
      [
        "Ġ(...)",
        -10.552173500509005
      ],
      [
        "Ġacontece",
        -10.553047066341044
      ],
      [
        "ĠDECRET",
        -10.553192195114592
      ],
      [
        "Ħ",
        -10.553511373941657
      ],
      [
        "ĠNelson",
        -10.554409957957178
      ],
      [
        "Teixeira",
        -10.556579271709326
      ],
      [
        "ĠSenhore",
        -10.557876769077666
      ],
      [
        "Ġpublicada",
        -10.558871881311898
      ],
      [
        "ĠFazenda",
        -10.559936785751432
      ],
      [
        "Ġsalva",
        -10.560240956450796
      ],
      [
        "Ġmudar",
        -10.560558881467678
      ],
      [
        "Ġjudicial",
        -10.561000276432832
      ],
      [
        "Ġmulti",
        -10.562496684216567
      ],
      [
        "Discussa",
        -10.562800470907616
      ],
      [
        "Ġshow",
        -10.56318180820365
      ],
      [
        "Ġcentral",
        -10.563454441404929
      ],
      [
        "Ġservi",
        -10.565140271414904
      ],
      [
        "Ġmemo",
        -10.565811319203265
      ],
      [
        "Ġdestrui",
        -10.566449907725538
      ],
      [
        "Ġmesa",
        -10.567714921558208
      ],
      [
        "ĠRelac",
        -10.568737273546416
      ],
      [
        "respectivo",
        -10.569515308058802
      ],
      [
        "levou",
        -10.569831692100257
      ],
      [
        "Ġpior",
        -10.57040102055862
      ],
      [
        "alunos",
        -10.571296437210824
      ],
      [
        "Ġanimais",
        -10.572156912140647
      ],
      [
        "elementos",
        -10.57289383137553
      ],
      [
        "Ġcomenta",
        -10.573384244782092
      ],
      [
        "ĠDesde",
        -10.573777424977642
      ],
      [
        "ĠAlberto",
        -10.5741489659564
      ],
      [
        "OLI",
        -10.574816101730717
      ],
      [
        ">",
        -10.575083578576889
      ],
      [
        "Ġabaixo",
        -10.57659321988178
      ],
      [
        "ĠEspi",
        -10.576626060529822
      ],
      [
        "federai",
        -10.57719650605506
      ],
      [
        "Ġjurisprude",
        -10.577223675968908
      ],
      [
        "Ġestilo",
        -10.577401609100164
      ],
      [
        "berg",
        -10.57819062993302
      ],
      [
        "requisitos",
        -10.578660555849876
      ],
      [
        "ĠTemo",
        -10.578784139728358
      ],
      [
        "licitante",
        -10.5789933541015
      ],
      [
        "Ġmanha",
        -10.584251624056044
      ],
      [
        "ĠAto",
        -10.585255470743324
      ],
      [
        "ĠAure",
        -10.585434585047834
      ],
      [
        "Ġentrevista",
        -10.585916025666998
      ],
      [
        "Ġadvogado",
        -10.586733688823427
      ],
      [
        "xico",
        -10.587324301114894
      ],
      [
        "Ġgrau",
        -10.587594425888458
      ],
      [
        "ĠSera",
        -10.589223181372269
      ],
      [
        "Ġpretende",
        -10.59125594152165
      ],
      [
        "ĠMundo",
        -10.59217306337829
      ],
      [
        "ĠRede",
        -10.593805634859864
      ],
      [
        "ĭ",
        -10.593882577641743
      ],
      [
        "Ġacidente",
        -10.594502637237206
      ],
      [
        "Ġexplorar",
        -10.595390155110952
      ],
      [
        "Ġestrela",
        -10.59632779972936
      ],
      [
        "EMENTA",
        -10.596378395514312
      ],
      [
        "Ġatender",
        -10.59642555308946
      ],
      [
        "ficando",
        -10.596932764416415
      ],
      [
        "Ġoferece",
        -10.59733949532172
      ],
      [
        "Sessa",
        -10.597921357355537
      ],
      [
        "Ġsegura",
        -10.598678241971768
      ],
      [
        "Ġtenta",
        -10.598972585868273
      ],
      [
        "«",
        -10.600035606974576
      ],
      [
        "Ġrural",
        -10.600806217736238
      ],
      [
        "Ġfesta",
        -10.60118368699049
      ],
      [
        "Ġpromover",
        -10.60133026294403
      ],
      [
        "EUA",
        -10.601525091549806
      ],
      [
        "Ġambiental",
        -10.602000366700626
      ],
      [
        "PSL",
        -10.602016751962257
      ],
      [
        "referida",
        -10.60257400172967
      ],
      [
        "Ġguarda",
        -10.603356051856988
      ],
      [
        "tomada",
        -10.603956364661302
      ],
      [
        "Ġefetiva",
        -10.604170372281349
      ],
      [
        "Ġatribui",
        -10.60438307595048
      ],
      [
        "virtude",
        -10.604990154300957
      ],
      [
        "possam",
        -10.605618635436718
      ],
      [
        "Ġsinto",
        -10.605854503033529
      ],
      [
        "Resoluc",
        -10.606632991753251
      ],
      [
        "Ġjornalista",
        -10.607617406936994
      ],
      [
        "preocupac",
        -10.607994837023586
      ],
      [
        "Ġdeciso",
        -10.608536796406304
      ],
      [
        "fronteira",
        -10.608618921336486
      ],
      [
        "Ġcinema",
        -10.609339016921448
      ],
      [
        "lias",
        -10.609543204121424
      ],
      [
        "Ġpalavras",
        -10.609836187009158
      ],
      [
        "Ġfui",
        -10.611367965541774
      ],
      [
        "Geraldo",
        -10.611433835821847
      ],
      [
        "Ìģ!",
        -10.613161384436207
      ],
      [
        "decreto",
        -10.613445562613109
      ],
      [
        "PSB",
        -10.61427519394285
      ],
      [
        "Ġestes",
        -10.615002760509643
      ],
      [
        "apresentou",
        -10.615608081578902
      ],
      [
        "Ġconcurso",
        -10.615663495149631
      ],
      [
        "Ġdemocra",
        -10.61570393104179
      ],
      [
        "imagens",
        -10.616746497894136
      ],
      [
        "nunciou",
        -10.617628083490343
      ],
      [
        "privado",
        -10.618761493444769
      ],
      [
        "Ġdano",
        -10.619485280356091
      ],
      [
        "Departamento",
        -10.620104503373534
      ],
      [
        "Ġrua",
        -10.621150892758427
      ],
      [
        "ĠCeara",
        -10.62161501308493
      ],
      [
        "regras",
        -10.622228826758072
      ],
      [
        "Ġcomemora",
        -10.622614560065848
      ],
      [
        "trecho",
        -10.624537773917446
      ],
      [
        "Ġurge",
        -10.624616578254988
      ],
      [
        "Ġopinia",
        -10.625960724645871
      ],
      [
        "ĠLegislativa",
        -10.626096181515797
      ],
      [
        "Ġentender",
        -10.627833092488268
      ],
      [
        "relativo",
        -10.629177382421398
      ],
      [
        "Ġretorno",
        -10.629617357477636
      ],
      [
        "PDT",
        -10.630010258008484
      ],
      [
        "Ġigreja",
        -10.630099927628612
      ],
      [
        "Proposic",
        -10.630223583237028
      ],
      [
        "Ġconceito",
        -10.631123267469784
      ],
      [
        "ĠDESPACH",
        -10.631764431869966
      ],
      [
        "Ġindependente",
        -10.632053498336225
      ],
      [
        "Ġjustic",
        -10.633688224887106
      ],
      [
        "ĠMarcos",
        -10.633804238323952
      ],
      [
        "Ġtrabalha",
        -10.634700917113474
      ],
      [
        "RITO",
        -10.635056187042428
      ],
      [
        "Ġseguro",
        -10.636233613380483
      ],
      [
        "Ġparticipa",
        -10.637035210551364
      ],
      [
        "Ġabsoluta",
        -10.638415469936216
      ],
      [
        "existente",
        -10.639357408914451
      ],
      [
        "Ġconsegue",
        -10.639558623325463
      ],
      [
        "·",
        -10.63978838756489
      ],
      [
        "Ġetc",
        -10.639958151347216
      ],
      [
        "gov",
        -10.64001229198401
      ],
      [
        "Ï",
        -10.64050349219351
      ],
      [
        "Ġtivesse",
        -10.642424885682557
      ],
      [
        "fiscalizac",
        -10.642887283797844
      ],
      [
        "Ġdecorre",
        -10.644353912646846
      ],
      [
        "Ġamanha",
        -10.644836050032538
      ],
      [
        "Jogos",
        -10.644876915053144
      ],
      [
        "ĠVista",
        -10.645089912252136
      ],
      [
        "Ġdireto",
        -10.646436371151028
      ],
      [
        "Ī",
        -10.64772020040623
      ],
      [
        "www",
        -10.648276129409137
      ],
      [
        "juros",
        -10.648694644993116
      ],
      [
        "ĠOUTR",
        -10.6505580216325
      ],
      [
        "Ġterc",
        -10.651454560234876
      ],
      [
        "substitutivo",
        -10.651739629678731
      ],
      [
        "Ġconsiderac",
        -10.652589363013
      ],
      [
        "limites",
        -10.653606630424196
      ],
      [
        "elli",
        -10.654786678412233
      ],
      [
        "Moreira",
        -10.65500424664472
      ],
      [
        "Ġcarga",
        -10.65880476532044
      ],
      [
        "ĠRoge",
        -10.658918284459345
      ],
      [
        "parceria",
        -10.662026239379278
      ],
      [
        "Ġtorno",
        -10.663177070220936
      ],
      [
        "à",
        -10.664788971617703
      ],
      [
        "agentes",
        -10.664885886108037
      ],
      [
        "Ġtrabalhador",
        -10.665743554283884
      ],
      [
        "Ġedifi",
        -10.665745228071083
      ],
      [
        "Ġagri",
        -10.66664425160695
      ],
      [
        "Ġbrita",
        -10.666817355449629
      ],
      [
        "Ġface",
        -10.666847619661484
      ],
      [
        "Ġleitura",
        -10.66700172994056
      ],
      [
        "ĠVai",
        -10.66700206256586
      ],
      [
        "Ġvontade",
        -10.667480090361067
      ],
      [
        "Proposta",
        -10.667883262465107
      ],
      [
        "Ġcuidado",
        -10.668542252987184
      ],
      [
        "Ġeventual",
        -10.668633571175102
      ],
      [
        "Ġquinta",
        -10.672896013351089
      ],
      [
        "Ġdivisa",
        -10.673520355839386
      ],
      [
        "Ġouvir",
        -10.673682066498246
      ],
      [
        "Ġhumana",
        -10.674105476014384
      ],
      [
        "Ġculpa",
        -10.675684287815844
      ],
      [
        "ganhou",
        -10.677774971316389
      ],
      [
        "Ġcorpus",
        -10.67791436676626
      ],
      [
        "polis",
        -10.67795753988914
      ],
      [
        "Ġdiploma",
        -10.678211285496449
      ],
      [
        "Ġregistrado",
        -10.678989811847456
      ],
      [
        "ĠExe",
        -10.679272771651632
      ],
      [
        "Ġopc",
        -10.68018833879588
      ],
      [
        "ĠEX",
        -10.68074891288481
      ],
      [
        "gravada",
        -10.68084640360421
      ],
      [
        "Ġsinal",
        -10.681475478014397
      ],
      [
        "Ġcompanhia",
        -10.682536229068846
      ],
      [
        "2020",
        -10.683229993723243
      ],
      [
        "Ġmedo",
        -10.68454206309928
      ],
      [
        "etapa",
        -10.686591030029108
      ],
      [
        "Ġafeta",
        -10.687009555136648
      ],
      [
        "genas",
        -10.687386118242408
      ],
      [
        "ĠParlamento",
        -10.687392878337324
      ],
      [
        "consumo",
        -10.6877819511738
      ],
      [
        "precisamos",
        -10.688013739334217
      ],
      [
        "redor",
        -10.689030567989606
      ],
      [
        "ĠNeto",
        -10.689204830280971
      ],
      [
        "ĠNac",
        -10.689479472386418
      ],
      [
        "Ġesteja",
        -10.689850257590628
      ],
      [
        "daquele",
        -10.68993805868016
      ],
      [
        "Ġobrigato",
        -10.690562236450258
      ],
      [
        "Ġganhar",
        -10.691038461316436
      ],
      [
        "Ġgosto",
        -10.691348617377352
      ],
      [
        "Ġeventos",
        -10.691446914098092
      ],
      [
        "Barbosa",
        -10.691907598719922
      ],
      [
        "extensa",
        -10.692429202754694
      ],
      [
        "ĠAprecia",
        -10.692968930514978
      ],
      [
        "Ġrespectiva",
        -10.693206293818566
      ],
      [
        "PpP",
        -10.693213920312653
      ],
      [
        "Ġoferta",
        -10.693310648587955
      ],
      [
        "nicas",
        -10.69365023258878
      ],
      [
        "ĠCur",
        -10.694108794374218
      ],
      [
        "oradores",
        -10.694200857000435
      ],
      [
        "contexto",
        -10.696295168329105
      ],
      [
        "Ġescolha",
        -10.69725339055259
      ],
      [
        "ĠRegional",
        -10.697482375461608
      ],
      [
        "Ġdispor",
        -10.697764444043042
      ],
      [
        "ĠAmazonas",
        -10.698018012095526
      ],
      [
        "Ġarmas",
        -10.698422754139049
      ],
      [
        "Magalha",
        -10.69866690551634
      ],
      [
        "Ġinternacionais",
        -10.699206855864096
      ],
      [
        "contratac",
        -10.699615804796586
      ],
      [
        "Ġvelho",
        -10.70092294257444
      ],
      [
        "Ġcontas",
        -10.701372430580806
      ],
      [
        "ĠMeio",
        -10.701534308063524
      ],
      [
        "retirada",
        -10.701589784518232
      ],
      [
        "Ġfrance",
        -10.702140862181194
      ],
      [
        "desempenho",
        -10.70290727428717
      ],
      [
        "Ġofens",
        -10.70323149386548
      ],
      [
        "ĠNada",
        -10.70350029655863
      ],
      [
        "Ġesposa",
        -10.703965019210344
      ],
      [
        "http",
        -10.704011242962745
      ],
      [
        "ĠJapa",
        -10.704150560703114
      ],
      [
        "Ġsexta",
        -10.70482341268392
      ],
      [
        "Ġprodutor",
        -10.71034950441187
      ],
      [
        "Ġcorac",
        -10.71036552078468
      ],
      [
        "Ġcorte",
        -10.710482243426062
      ],
      [
        "Ġtinham",
        -10.71051340791215
      ],
      [
        "Ġperder",
        -10.710987710975592
      ],
      [
        "¤",
        -10.711418408822922
      ],
      [
        "estrutura",
        -10.712195942481832
      ],
      [
        "Ġtentativa",
        -10.712273537892091
      ],
      [
        "Ġampla",
        -10.712458536833925
      ],
      [
        "Ġmassa",
        -10.71250680128682
      ],
      [
        "Ġposse",
        -10.71336594247495
      ],
      [
        "reconhecimento",
        -10.713602695053892
      ],
      [
        "ĠIsto",
        -10.714280783750567
      ],
      [
        "sobretudo",
        -10.714349844331586
      ],
      [
        "metade",
        -10.71439038605244
      ],
      [
        "habea",
        -10.715934326908208
      ],
      [
        "ĠPRIMEIR",
        -10.718675962478722
      ],
      [
        "convidado",
        -10.71882791678202
      ],
      [
        "apelo",
        -10.718919706081364
      ],
      [
        "formou",
        -10.719088504157144
      ],
      [
        "Ġlembra",
        -10.719713699422616
      ],
      [
        "ĠBarros",
        -10.71999681411424
      ],
      [
        "Ġtransfere",
        -10.721140598077849
      ],
      [
        "ĠCarreira",
        -10.72141689792656
      ],
      [
        "Ġcomando",
        -10.722394474624556
      ],
      [
        "ĠJOA",
        -10.724093085556271
      ],
      [
        "Ĵ",
        -10.72423815355656
      ],
      [
        "ĠClaro",
        -10.724531572212696
      ],
      [
        "ĠExterior",
        -10.725561152507373
      ],
      [
        "mestre",
        -10.728085381635076
      ],
      [
        "Ġassinatura",
        -10.728494476491695
      ],
      [
        "havend",
        -10.728900596850613
      ],
      [
        "Ġincide",
        -10.729050963324672
      ],
      [
        "ĠFerreira",
        -10.732930872016857
      ],
      [
        "Ġmilha",
        -10.733491717709372
      ],
      [
        "Ġexposic",
        -10.734102267799445
      ],
      [
        "Ġexplorac",
        -10.734202014797598
      ],
      [
        "ĠClube",
        -10.734401621715303
      ],
      [
        "equipamentos",
        -10.734438548420371
      ],
      [
        "Ġexterior",
        -10.73465158308048
      ],
      [
        "Enquanto",
        -10.734691436663852
      ],
      [
        "Ġcursos",
        -10.734956070438448
      ],
      [
        "Ġentende",
        -10.735064150642875
      ],
      [
        "ĠConstitucional",
        -10.73516267889732
      ],
      [
        "Ġpotencial",
        -10.735434856074567
      ],
      [
        "conclusa",
        -10.738676837621943
      ],
      [
        "Ġcontato",
        -10.740818113239316
      ],
      [
        "Ġchance",
        -10.741091932940629
      ],
      [
        "Ġreferente",
        -10.74121543968959
      ],
      [
        "Ġvencedor",
        -10.742919931955498
      ],
      [
        "Ġquiser",
        -10.742927814294625
      ],
      [
        "humanos",
        -10.743773256783928
      ],
      [
        "finalidade",
        -10.743809472949424
      ],
      [
        "ĠVirgi",
        -10.744531377616932
      ],
      [
        "Ġterceira",
        -10.74480202403244
      ],
      [
        "Ġregistrar",
        -10.744908759195749
      ],
      [
        "ESTADO",
        -10.747232421624824
      ],
      [
        "mann",
        -10.747559563051023
      ],
      [
        "Outra",
        -10.747901823774091
      ],
      [
        "ĠMello",
        -10.748073272800257
      ],
      [
        "Ġaumentar",
        -10.74889176590825
      ],
      [
        "Embora",
        -10.749021249694874
      ],
      [
        "Ġdanc",
        -10.749640417009456
      ],
      [
        "Ġdivulg",
        -10.749668587902768
      ],
      [
        "Ġfornece",
        -10.749673892955713
      ],
      [
        "Ġdeterminado",
        -10.749697443369344
      ],
      [
        "Ġbebe",
        -10.750522477060402
      ],
      [
        "Ġinteiro",
        -10.750687959394863
      ],
      [
        "Ġpersonagem",
        -10.751091458105323
      ],
      [
        "Ġproduzir",
        -10.75114220590248
      ],
      [
        "Ġsabia",
        -10.751288685425893
      ],
      [
        "investimentos",
        -10.75165177776833
      ],
      [
        "lanejamento",
        -10.751815214800986
      ],
      [
        "ĠParai",
        -10.75188679458352
      ],
      [
        "ĠEdita",
        -10.752056982840395
      ],
      [
        "ĠDeve",
        -10.752225185324573
      ],
      [
        "usando",
        -10.752769031441904
      ],
      [
        "Ġmorreu",
        -10.754040350288642
      ],
      [
        "ĠAntes",
        -10.754356467979385
      ],
      [
        "policiais",
        -10.755553097653149
      ],
      [
        "funcionamento",
        -10.755799228279333
      ],
      [
        "Ġnega",
        -10.756427979768556
      ],
      [
        "Ġsentenc",
        -10.75752071837107
      ],
      [
        "trinta",
        -10.759465364972504
      ],
      [
        "Ġpermanente",
        -10.759729750173934
      ],
      [
        "recebido",
        -10.76004057773433
      ],
      [
        "Ġindividual",
        -10.761328293271406
      ],
      [
        "Ġadministrativo",
        -10.7628281508269
      ],
      [
        "ĠTRIBU",
        -10.762994987079235
      ],
      [
        "ĠPapa",
        -10.763327012707869
      ],
      [
        "Ġobservado",
        -10.763996585969103
      ],
      [
        "suspensa",
        -10.764113129839108
      ],
      [
        "Ġadolescente",
        -10.764369230720073
      ],
      [
        "geralmente",
        -10.76443523176427
      ],
      [
        "Ġfloresta",
        -10.76462702636209
      ],
      [
        "Ġintenc",
        -10.764707853857292
      ],
      [
        "ĠYork",
        -10.765000387627987
      ],
      [
        "ĠMartins",
        -10.765301384175464
      ],
      [
        "ĠNota",
        -10.765316510812086
      ],
      [
        "Ġconscie",
        -10.765431310867266
      ],
      [
        "Ġimplica",
        -10.765874385220124
      ],
      [
        "2002",
        -10.765915178105368
      ],
      [
        "ĠCorre",
        -10.766128432856153
      ],
      [
        "Assunto",
        -10.766945196754946
      ],
      [
        "ocorreu",
        -10.768649403005153
      ],
      [
        "Sarney",
        -10.769124468410064
      ],
      [
        "fizeram",
        -10.769956778667714
      ],
      [
        "Ġmuda",
        -10.77077600333956
      ],
      [
        "ĠConstitui",
        -10.770868626492964
      ],
      [
        "Couto",
        -10.771009977747024
      ],
      [
        "Bibliografia",
        -10.771721968683105
      ],
      [
        "Ġcircunsta",
        -10.77235657591433
      ],
      [
        "Ġatende",
        -10.772832601939038
      ],
      [
        "Ġsobrevive",
        -10.77392883139892
      ],
      [
        "Pernambuco",
        -10.774107072315092
      ],
      [
        "Ġprofessores",
        -10.77469825604974
      ],
      [
        "Ġintegral",
        -10.774793477142245
      ],
      [
        "presidente",
        -10.774793540083907
      ],
      [
        "Ġconsumidor",
        -10.77527733760933
      ],
      [
        "ĠXII",
        -10.775348118565594
      ],
      [
        "STF",
        -10.776548476667864
      ],
      [
        "Ġtriste",
        -10.777416337124686
      ],
      [
        "ĠParece",
        -10.777419347329015
      ],
      [
        "Vieira",
        -10.777552675928993
      ],
      [
        "Ġpensar",
        -10.7776967596018
      ],
      [
        "Ġclara",
        -10.778447544817674
      ],
      [
        "estudantes",
        -10.778526267111143
      ],
      [
        "Ġenorme",
        -10.778634209868256
      ],
      [
        "ĠAgricultura",
        -10.779155255411045
      ],
      [
        "Ġlonga",
        -10.779266488378124
      ],
      [
        "Ġfamiliar",
        -10.779523212485811
      ],
      [
        "firmado",
        -10.779562788753712
      ],
      [
        "Ġestiver",
        -10.779965814158947
      ],
      [
        "terminou",
        -10.78065140563282
      ],
      [
        "ĠReuni",
        -10.78110390332385
      ],
      [
        "SRA",
        -10.781551227690311
      ],
      [
        "mantid",
        -10.781649569786069
      ],
      [
        "ĠPiaui",
        -10.78172334980624
      ],
      [
        "Ġinterpretac",
        -10.782343419256884
      ],
      [
        "ĠMc",
        -10.78519396101502
      ],
      [
        "aposentadoria",
        -10.786158088165596
      ],
      [
        "nanimidade",
        -10.786539097857029
      ],
      [
        "Estatuto",
        -10.78797553241696
      ],
      [
        "Ġjeito",
        -10.78810453568794
      ],
      [
        "companheiro",
        -10.79038344470319
      ],
      [
        "Ġvolume",
        -10.790764032562429
      ],
      [
        "Ġolhos",
        -10.791419338319557
      ],
      [
        "Ġcompetente",
        -10.791486311069136
      ],
      [
        "Ġpressa",
        -10.793537882027415
      ],
      [
        "Ġviolac",
        -10.793735363992417
      ],
      [
        "Ġinferior",
        -10.79405799107176
      ],
      [
        "Ġlocaliza",
        -10.794449596487462
      ],
      [
        "Ġmensagem",
        -10.794494626268564
      ],
      [
        "Ġmostrar",
        -10.795187278792085
      ],
      [
        "Ġmunicipal",
        -10.795345362861545
      ],
      [
        "Ġbatalha",
        -10.79554453949267
      ],
      [
        "Ġanteriores",
        -10.795665010468529
      ],
      [
        "ĠMachado",
        -10.796354801780424
      ],
      [
        "nasceu",
        -10.79650677475815
      ],
      [
        "Ġindivi",
        -10.796760221804862
      ],
      [
        "Ġconvenc",
        -10.798396107539975
      ],
      [
        "µ",
        -10.798608764365694
      ],
      [
        "zio",
        -10.79943910726539
      ],
      [
        "ncipe",
        -10.800568854231376
      ],
      [
        "Ġaberta",
        -10.802427276693717
      ],
      [
        "âĢĵâĢĵâĢĵâĢĵâĢĵ",
        -10.80263342414726
      ],
      [
        "Ġpromoc",
        -10.805139312920218
      ],
      [
        "Ġconcorre",
        -10.807761521950024
      ],
      [
        "ĠCultural",
        -10.80779487537294
      ],
      [
        "Ġcaixa",
        -10.808384098764504
      ],
      [
        "Ġocorrer",
        -10.808599362006428
      ],
      [
        "Ġaltura",
        -10.809397445341077
      ],
      [
        "º",
        -10.809534254159646
      ],
      [
        "Candido",
        -10.809543413544342
      ],
      [
        "desafio",
        -10.810001156791149
      ],
      [
        "PLS",
        -10.810028006713212
      ],
      [
        "Ġpassando",
        -10.810036316888112
      ],
      [
        "produzido",
        -10.810045338975524
      ],
      [
        "Ġmorto",
        -10.810305665517916
      ],
      [
        "Ġacontecer",
        -10.81087722834849
      ],
      [
        "Ġparticular",
        -10.81112795977236
      ],
      [
        "Renan",
        -10.811496910050884
      ],
      [
        "Ġclima",
        -10.811817638706623
      ],
      [
        "ĠPp",
        -10.811826233916324
      ],
      [
        "true",
        -10.814182055099131
      ],
      [
        "Ġrepresentac",
        -10.81708109575842
      ],
      [
        "produtores",
        -10.817816797350703
      ],
      [
        "Ġsorte",
        -10.817960924565623
      ],
      [
        "tornando",
        -10.818036130699753
      ],
      [
        "Ġconfigura",
        -10.818814883011438
      ],
      [
        "iretrizes",
        -10.819154077510122
      ],
      [
        "Ġtirar",
        -10.820266984362176
      ],
      [
        "Ġparticipou",
        -10.820390115836176
      ],
      [
        "conduta",
        -10.823691907553314
      ],
      [
        "Ġrepercuss",
        -10.82391685334962
      ],
      [
        "Mesmo",
        -10.824024751800213
      ],
      [
        "Ġbreve",
        -10.827748498703947
      ],
      [
        "naquele",
        -10.827771775326823
      ],
      [
        "recebimento",
        -10.827950154811882
      ],
      [
        "casamento",
        -10.827990955412474
      ],
      [
        "Ġplaneta",
        -10.82833329739281
      ],
      [
        "Ġviu",
        -10.828668544179642
      ],
      [
        "ĠJoaquim",
        -10.829045821654756
      ],
      [
        "Ġfixa",
        -10.829958401800996
      ],
      [
        "Ġenfrenta",
        -10.830162296184316
      ],
      [
        "ĠPROC",
        -10.83031646999685
      ],
      [
        "Acordo",
        -10.832470187150207
      ],
      [
        "ĠAmbiente",
        -10.832478961188864
      ],
      [
        "Excelenti",
        -10.832962344861562
      ],
      [
        "Ġescala",
        -10.833151724723482
      ],
      [
        "inconstitucional",
        -10.834228097993485
      ],
      [
        "aquisic",
        -10.834517164090002
      ],
      [
        "Chefe",
        -10.835234604168342
      ],
      [
        "negociac",
        -10.835594303943228
      ],
      [
        "queremos",
        -10.835862963860388
      ],
      [
        "tributo",
        -10.83609177800579
      ],
      [
        "Ġjurisdic",
        -10.83953625756546
      ],
      [
        "½",
        -10.839852842768405
      ],
      [
        "Ġlonge",
        -10.840569779958264
      ],
      [
        "Ġcomposic",
        -10.840913570322314
      ],
      [
        "implantac",
        -10.843365565034096
      ],
      [
        "Ġadequada",
        -10.845384456037625
      ],
      [
        "mecanismo",
        -10.84692549934446
      ],
      [
        "Ġemerge",
        -10.847283528722516
      ],
      [
        "emendas",
        -10.84823802016153
      ],
      [
        "Ġvigorar",
        -10.848670574347585
      ],
      [
        "Ġabrir",
        -10.85017259537546
      ],
      [
        "2001",
        -10.850766777413297
      ],
      [
        "ĠPresident",
        -10.85083724165174
      ],
      [
        "Ġquerem",
        -10.850926344330617
      ],
      [
        "Ġrecente",
        -10.85164750721001
      ],
      [
        "Ġtrazer",
        -10.854078305365626
      ],
      [
        "ocasia",
        -10.854260262498736
      ],
      [
        "Ġportuguesa",
        -10.855202126383542
      ],
      [
        "INHO",
        -10.855292295706738
      ],
      [
        "Nunca",
        -10.85563673937355
      ],
      [
        "BLICA",
        -10.855862433740178
      ],
      [
        "Ġtempora",
        -10.85672850030453
      ],
      [
        "Ġsonho",
        -10.85782025904019
      ],
      [
        "Ġescrita",
        -10.85837445177468
      ],
      [
        "juntamente",
        -10.858460317706497
      ],
      [
        "Registro",
        -10.858784343922808
      ],
      [
        "Rodrigo",
        -10.860018164954376
      ],
      [
        "Ġprestar",
        -10.862060544388168
      ],
      [
        "Ġanual",
        -10.862369839868878
      ],
      [
        "entrou",
        -10.863595930649808
      ],
      [
        "Afonso",
        -10.864392943106417
      ],
      [
        "voltou",
        -10.864419899889862
      ],
      [
        "vejo",
        -10.864430214984408
      ],
      [
        "Ġdefinic",
        -10.86469834335983
      ],
      [
        "teoria",
        -10.865172760672682
      ],
      [
        "Ġletra",
        -10.865574763913417
      ],
      [
        "Ġmusical",
        -10.866215830535012
      ],
      [
        "mail",
        -10.86925588498232
      ],
      [
        "Ġsugeri",
        -10.869768561179706
      ],
      [
        "atitude",
        -10.869977631066142
      ],
      [
        "Ġgaroto",
        -10.870516340574037
      ],
      [
        "Ġaponta",
        -10.870646529253804
      ],
      [
        "REGIMENTA",
        -10.871906282290285
      ],
      [
        "vamos",
        -10.872268782812904
      ],
      [
        "Ġbanca",
        -10.87437293778257
      ],
      [
        "ĠFaria",
        -10.876050228878634
      ],
      [
        "ĠTal",
        -10.877966869122792
      ],
      [
        "ĠPessoa",
        -10.878326577040616
      ],
      [
        "æ",
        -10.878813854909938
      ],
      [
        "Ġsanc",
        -10.87912747380716
      ],
      [
        "DIAS",
        -10.879321235773116
      ],
      [
        "Ġdirigi",
        -10.881230233280004
      ],
      [
        "Ġescreveu",
        -10.882734699792614
      ],
      [
        "ĠPessoal",
        -10.88338767593038
      ],
      [
        "Ġequipa",
        -10.883633863435769
      ],
      [
        "lideranc",
        -10.88374011577626
      ],
      [
        "Ġdocumentac",
        -10.884235706245756
      ],
      [
        "Ġutilizada",
        -10.884907408703702
      ],
      [
        "Ġservidor",
        -10.88494113610282
      ],
      [
        "inicialmente",
        -10.885096914362949
      ],
      [
        "Eduardo",
        -10.886063938640405
      ],
      [
        "Ġargumento",
        -10.886116526153916
      ],
      [
        "duos",
        -10.886564620279543
      ],
      [
        "Ġacabar",
        -10.886819759093816
      ],
      [
        "Ġeliminac",
        -10.887846803063567
      ],
      [
        "Ġseparado",
        -10.888328332941208
      ],
      [
        "Inoce",
        -10.88936696820482
      ],
      [
        "encaminhamento",
        -10.88947210495514
      ],
      [
        "inscric",
        -10.889842556311065
      ],
      [
        "ĠJUSTIC",
        -10.889899194816651
      ],
      [
        "nime",
        -10.890121338946908
      ],
      [
        "integrantes",
        -10.89019068651878
      ],
      [
        "adequac",
        -10.891117694634811
      ],
      [
        "rvore",
        -10.891138034638717
      ],
      [
        "Desculpe",
        -10.89217552810878
      ],
      [
        "ĠArau",
        -10.892220412534147
      ],
      [
        "Ġsoma",
        -10.892277742150371
      ],
      [
        "Ġtiver",
        -10.893340584682107
      ],
      [
        "Ġteor",
        -10.893462842324112
      ],
      [
        "ĠCastro",
        -10.893474799790216
      ],
      [
        "Ġviagem",
        -10.89358095296704
      ],
      [
        "Recurso",
        -10.893651446944103
      ],
      [
        "Ġcumprir",
        -10.89368025280646
      ],
      [
        "Ġnomeado",
        -10.893839689907178
      ],
      [
        "¿",
        -10.894938901831347
      ],
      [
        "Ġparlamentar",
        -10.895112983672222
      ],
      [
        "Ġcorresponde",
        -10.895299071373053
      ],
      [
        "Ġaniversa",
        -10.896140530470223
      ],
      [
        "Ġtrouxe",
        -10.896449079634472
      ],
      [
        "Ġescritor",
        -10.896510114058003
      ],
      [
        "embargo",
        -10.896561794786605
      ],
      [
        "gravante",
        -10.898310816055668
      ],
      [
        "Ġpegar",
        -10.898464847585826
      ],
      [
        "tramitac",
        -10.89911706751036
      ],
      [
        "Ġinterme",
        -10.899259853649788
      ],
      [
        "¸",
        -10.899957458357234
      ],
      [
        "ĺ",
        -10.900033612313356
      ],
      [
        "Ġporte",
        -10.900492347247305
      ],
      [
        "Ġtotalmente",
        -10.901293113505346
      ],
      [
        "ĠVerde",
        -10.901878424441833
      ],
      [
        "velocidade",
        -10.902091855914572
      ],
      [
        "Ġcriou",
        -10.902940238227693
      ],
      [
        "tentando",
        -10.90316224059493
      ],
      [
        "Ġsimplesmente",
        -10.904876200467193
      ],
      [
        "Ġesteve",
        -10.90621969897012
      ],
      [
        "Ġdispensa",
        -10.90627346307735
      ],
      [
        "Ġexercer",
        -10.906623239049322
      ],
      [
        "ĠSEC",
        -10.906926814321643
      ],
      [
        "ĠUnido",
        -10.906993138796809
      ],
      [
        "Ġincluir",
        -10.907939253136789
      ],
      [
        "Ġestac",
        -10.908613316428209
      ],
      [
        "ĠInformac",
        -10.908991042385004
      ],
      [
        "constitucional",
        -10.909525164189636
      ],
      [
        "posteriormente",
        -10.910826921293046
      ],
      [
        "Ġmorrer",
        -10.912450837753324
      ],
      [
        "Ġglobal",
        -10.912656516265235
      ],
      [
        "Ġinterno",
        -10.912773995067552
      ],
      [
        "Ġsubsta",
        -10.913096818637635
      ],
      [
        "situad",
        -10.913271287896386
      ],
      [
        "Ġmelhorar",
        -10.914670577092286
      ],
      [
        "ĠJunior",
        -10.91506260972414
      ],
      [
        "Geografia",
        -10.915697469369212
      ],
      [
        "teis",
        -10.915923820943362
      ],
      [
        "Ġcapita",
        -10.916215392098229
      ],
      [
        "Ġclassificac",
        -10.916477422041943
      ],
      [
        "existem",
        -10.91808127572497
      ],
      [
        "Ġacade",
        -10.918736241880174
      ],
      [
        "Ġconhecer",
        -10.919422327415912
      ],
      [
        "ĠChris",
        -10.920393983523518
      ],
      [
        "Ġoposic",
        -10.92066136656725
      ],
      [
        "Ġgrac",
        -10.92157983403395
      ],
      [
        "Ġagricultura",
        -10.92284822315813
      ],
      [
        "Atualmente",
        -10.925043608365206
      ],
      [
        "»",
        -10.926466835221342
      ],
      [
        "ORDINA",
        -10.926538799210611
      ],
      [
        "Ġdigital",
        -10.92676728441053
      ],
      [
        "Ķ",
        -10.927249218252715
      ],
      [
        "TIVA",
        -10.92798098320373
      ],
      [
        "Ġdomingo",
        -10.930633404451264
      ],
      [
        "Ġverdadeira",
        -10.931259689459614
      ],
      [
        "Ġprefere",
        -10.931548073017153
      ],
      [
        "seguido",
        -10.932427172437592
      ],
      [
        "ĠBorges",
        -10.932512640123548
      ],
      [
        "Ġirregular",
        -10.933211373658729
      ],
      [
        "ĠEMB",
        -10.933213256041483
      ],
      [
        "Ġciclo",
        -10.933642510271971
      ],
      [
        "Ġpolicial",
        -10.934795883736598
      ],
      [
        "Ġintegrar",
        -10.936780582265229
      ],
      [
        "Faculdade",
        -10.937589707606278
      ],
      [
        "Cavalcanti",
        -10.93784782557055
      ],
      [
        "Ġcoberto",
        -10.938431106216951
      ],
      [
        "passada",
        -10.938455657784656
      ],
      [
        "Ġdiga",
        -10.93851626003946
      ],
      [
        "Ġdeixe",
        -10.93867494101738
      ],
      [
        "Ġindustrial",
        -10.939166049186955
      ],
      [
        "ĠGilmar",
        -10.939445405493723
      ],
      [
        "Ġconsiste",
        -10.939516288084542
      ],
      [
        "Ġuniversidade",
        -10.940174041481098
      ],
      [
        "Ġresolver",
        -10.940386962565924
      ],
      [
        "mudou",
        -10.940498979808776
      ],
      [
        "Ġimpossi",
        -10.941001006546395
      ],
      [
        "Alguns",
        -10.941249470936954
      ],
      [
        "ĠPesquisa",
        -10.941759801435374
      ],
      [
        "Calheiros",
        -10.94328951057238
      ],
      [
        "recuperac",
        -10.94445827871692
      ],
      [
        "adequado",
        -10.94486085759956
      ],
      [
        "materiais",
        -10.944978759506526
      ],
      [
        "Ġmensal",
        -10.945148517047953
      ],
      [
        "perante",
        -10.945171222915125
      ],
      [
        "Ĳ",
        -10.946229495071549
      ],
      [
        "Ġchamar",
        -10.946465415925305
      ],
      [
        "verdadeiro",
        -10.946988852696611
      ],
      [
        "Ġreforc",
        -10.94760571386225
      ],
      [
        "incentivo",
        -10.947679910207668
      ],
      [
        "pediu",
        -10.948075144583262
      ],
      [
        "Ġinfa",
        -10.94814539020802
      ],
      [
        "Ġexclusivament",
        -10.948573537105808
      ],
      [
        "Ġcompleto",
        -10.948733338237751
      ],
      [
        "Ġdivulgac",
        -10.948947517809115
      ],
      [
        "Ġacorda",
        -10.950185433377824
      ],
      [
        "ĠIX",
        -10.951052634963894
      ],
      [
        "ĠRondo",
        -10.951096556909205
      ],
      [
        "positivo",
        -10.952003848990328
      ],
      [
        "Ġcorrespondente",
        -10.95247278785183
      ],
      [
        "Ġsemelhante",
        -10.953032330545804
      ],
      [
        "Ġviver",
        -10.954039769425505
      ],
      [
        "Ġerrado",
        -10.954057629945227
      ],
      [
        "feminino",
        -10.954138059688995
      ],
      [
        "ilustre",
        -10.954962181944271
      ],
      [
        "estrangeiro",
        -10.955444090042157
      ],
      [
        "Sujeita",
        -10.95605240960898
      ],
      [
        "Ġimagina",
        -10.9560867536122
      ],
      [
        "Energia",
        -10.95697378274142
      ],
      [
        "devidamente",
        -10.957046649474282
      ],
      [
        "composto",
        -10.95747866003368
      ],
      [
        "Ġcomportamento",
        -10.958006615836426
      ],
      [
        "Ġconstruir",
        -10.958765519853186
      ],
      [
        "ĠInglaterra",
        -10.959044518126468
      ],
      [
        "Ġdeterminar",
        -10.95906356593433
      ],
      [
        "Ġaparte",
        -10.96175966054085
      ],
      [
        "RELATOR",
        -10.962288696526905
      ],
      [
        "TVR",
        -10.962707675679257
      ],
      [
        "naquela",
        -10.963085407513557
      ],
      [
        "Ġconsulta",
        -10.963759426769352
      ],
      [
        "Ġcapi",
        -10.96634971220494
      ],
      [
        "ĠPreceden",
        -10.967668854691494
      ],
      [
        "ocorrido",
        -10.968315603529597
      ],
      [
        "Ġmatar",
        -10.96974597452437
      ],
      [
        "Ġreduzir",
        -10.969750637671462
      ],
      [
        "Arnaldo",
        -10.96989096552123
      ],
      [
        "senhores",
        -10.969908602114636
      ],
      [
        "setores",
        -10.970128343844667
      ],
      [
        "ĠEmpresa",
        -10.970232353827043
      ],
      [
        "Ġcolocado",
        -10.97028335344185
      ],
      [
        "proferid",
        -10.970930545949088
      ],
      [
        "tarefa",
        -10.971024976818011
      ],
      [
        "ð",
        -10.972421434867128
      ],
      [
        "Ĭ",
        -10.972674661528846
      ],
      [
        "envolvido",
        -10.972710945378273
      ],
      [
        "Ġaplicada",
        -10.973282065847076
      ],
      [
        "ĠPaulista",
        -10.97334014333143
      ],
      [
        "Ġintelige",
        -10.973518290651985
      ],
      [
        "Ġadoc",
        -10.973827609766344
      ],
      [
        "sujeito",
        -10.973910143293422
      ],
      [
        "Ġcadeira",
        -10.97511740872142
      ],
      [
        "ocupada",
        -10.975960335381094
      ],
      [
        "submetid",
        -10.976071398725871
      ],
      [
        "¼",
        -10.97625835482088
      ],
      [
        "empregados",
        -10.97643949916528
      ],
      [
        "ĠPaes",
        -10.976442913832924
      ],
      [
        "Ġpudesse",
        -10.976445730308187
      ],
      [
        "Ġlembrar",
        -10.977269365448285
      ],
      [
        "Deputado",
        -10.978939289772686
      ],
      [
        "Ġresiste",
        -10.97913506284972
      ],
      [
        "efetivo",
        -10.97956547376574
      ],
      [
        "ï¿½",
        -10.979838994709189
      ],
      [
        "Ġdefender",
        -10.979997042884094
      ],
      [
        "Ġobter",
        -10.98010940173162
      ],
      [
        "imediatamente",
        -10.98065239182394
      ],
      [
        "Ġgarota",
        -10.98066768442255
      ],
      [
        "gastos",
        -10.98091341815807
      ],
      [
        "Ġlac",
        -10.98094773788176
      ],
      [
        "Ġanteriormente",
        -10.981222031951932
      ],
      [
        "extremamente",
        -10.981441709893558
      ],
      [
        "Ġacontecendo",
        -10.981835905884417
      ],
      [
        "Ġdesenvolvido",
        -10.983315857191869
      ],
      [
        "ĠOra",
        -10.983316597762917
      ],
      [
        "Ġajud",
        -10.98552562633211
      ],
      [
        "Assembleia",
        -10.986433009090314
      ],
      [
        "EDUARD",
        -10.986717866106511
      ],
      [
        "acusado",
        -10.98730769803626
      ],
      [
        "finais",
        -10.987606322527572
      ],
      [
        "Ronaldo",
        -10.987714314011049
      ],
      [
        "segmento",
        -10.990071099635395
      ],
      [
        "eclarou",
        -10.991139404480602
      ],
      [
        "cobranc",
        -10.993035820715448
      ],
      [
        "Ġleve",
        -10.99313962299246
      ],
      [
        "Ġfique",
        -10.993171876009663
      ],
      [
        "mios",
        -10.9934297281618
      ],
      [
        "ĠFreitas",
        -10.993967794007784
      ],
      [
        "XIX",
        -10.994870120945585
      ],
      [
        "Ġenvolve",
        -10.995383114761951
      ],
      [
        "Biografia",
        -10.995408791455407
      ],
      [
        "Ġsujeita",
        -10.995829104018403
      ],
      [
        "especiais",
        -10.9970043841863
      ],
      [
        "²",
        -10.997012181378809
      ],
      [
        "recorrente",
        -10.997255500107569
      ],
      [
        "Ġequili",
        -10.997740777126166
      ],
      [
        "querido",
        -10.997763718482092
      ],
      [
        "fontes",
        -10.998515140796853
      ],
      [
        "ĠAPRECIA",
        -10.99870036077887
      ],
      [
        "Ġsexual",
        -10.999238559407868
      ],
      [
        "ĠJustifica",
        -10.999610990153966
      ],
      [
        "ĠPois",
        -10.99989175272195
      ],
      [
        "Ġreleva",
        -11.002554840682128
      ],
      [
        "remunerac",
        -11.00396165319403
      ],
      [
        "ĠCristo",
        -11.004068058754646
      ],
      [
        "Ġbasta",
        -11.005459477488484
      ],
      [
        "MDB",
        -11.007605103696608
      ],
      [
        "ĠTributa",
        -11.007742401044467
      ],
      [
        "Ġdescreve",
        -11.008072862722672
      ],
      [
        "Ġcenso",
        -11.00862005606506
      ],
      [
        "Ø",
        -11.00900449348031
      ],
      [
        "Ġobrigada",
        -11.009168714338507
      ],
      [
        "sidente",
        -11.009235742664105
      ],
      [
        "Ġlitera",
        -11.00934004596103
      ],
      [
        "Ġdefinido",
        -11.00989287105434
      ],
      [
        "Rousseff",
        -11.010219889912085
      ],
      [
        "Ġfundac",
        -11.012262781349218
      ],
      [
        "Ġintervenc",
        -11.01259054391339
      ],
      [
        "Bolsonaro",
        -11.012688072500524
      ],
      [
        "ĠParabe",
        -11.01299024388764
      ],
      [
        "________________",
        -11.013083547138908
      ],
      [
        "Edson",
        -11.014168492653797
      ],
      [
        "passagem",
        -11.014216314019604
      ],
      [
        "Ġurbana",
        -11.014260973611217
      ],
      [
        "masculino",
        -11.015509669384352
      ],
      [
        "PROPOST",
        -11.015971960211584
      ],
      [
        "SEGUND",
        -11.018073356565283
      ],
      [
        "rurais",
        -11.018703119416946
      ],
      [
        "eficiente",
        -11.019746775569308
      ],
      [
        "Bezerra",
        -11.0202290245833
      ],
      [
        "Ġnele",
        -11.0207814131913
      ],
      [
        "Ġrelevante",
        -11.021581292109625
      ],
      [
        "Humanos",
        -11.022726560540756
      ],
      [
        "SENADO",
        -11.022838600543963
      ],
      [
        "Palma",
        -11.02342486535739
      ],
      [
        "ĠFerro",
        -11.024147533194633
      ],
      [
        "demais",
        -11.02470241559266
      ],
      [
        "¡",
        -11.02488769126372
      ],
      [
        "drogas",
        -11.024927207530478
      ],
      [
        "NALDO",
        -11.025342162611604
      ],
      [
        "ĠSILVA",
        -11.025421500739036
      ],
      [
        "Ġmedalha",
        -11.025455557567051
      ],
      [
        "ĠCLA",
        -11.025725372514604
      ],
      [
        "Ġorganizado",
        -11.025872126803932
      ],
      [
        "Ġdestinado",
        -11.026096761146876
      ],
      [
        "passageiro",
        -11.02707921521074
      ],
      [
        "Pinheiro",
        -11.027877611830563
      ],
      [
        "Ġtelefone",
        -11.02807416367308
      ],
      [
        "Viana",
        -11.02847905139927
      ],
      [
        "Ġrapidamen",
        -11.02883646303786
      ],
      [
        "Ġdrama",
        -11.029963744055404
      ],
      [
        "provavelmente",
        -11.030306249277196
      ],
      [
        "ĠMinori",
        -11.031285252009235
      ],
      [
        "Entretanto",
        -11.031977496912546
      ],
      [
        "ĠSantana",
        -11.03263046139705
      ],
      [
        "possue",
        -11.032906593934491
      ],
      [
        "Ġpleit",
        -11.033486295095647
      ],
      [
        "ĠToff",
        -11.033750800225032
      ],
      [
        "Ļ",
        -11.03393410859615
      ],
      [
        "discutido",
        -11.034120006508596
      ],
      [
        "Ġrepu",
        -11.03435621590078
      ],
      [
        "ī",
        -11.03502857602028
      ],
      [
        "Ġassinado",
        -11.035822124280834
      ],
      [
        "Ġconjunta",
        -11.036578158733017
      ],
      [
        "Ġdesenvolver",
        -11.036680954299175
      ],
      [
        "Ġenderec",
        -11.03798827746806
      ],
      [
        "Ġcomprar",
        -11.038080565157625
      ],
      [
        "Ġescolar",
        -11.039992328191092
      ],
      [
        "pertencente",
        -11.040044802379285
      ],
      [
        "Ġassegurar",
        -11.040586680507266
      ],
      [
        "Ġtabela",
        -11.04060286181597
      ],
      [
        "aeroporto",
        -11.04102779289378
      ],
      [
        "ĠPetro",
        -11.042605815682524
      ],
      [
        "Ġolhar",
        -11.042785680717357
      ],
      [
        "ĠRECEBI",
        -11.042893311820484
      ],
      [
        "Ġsugest",
        -11.04419248184134
      ],
      [
        "alimentos",
        -11.044633524457158
      ],
      [
        "ISBN",
        -11.04477875180276
      ],
      [
        "navio",
        -11.045225227117948
      ],
      [
        "Ġhospital",
        -11.046756816938348
      ],
      [
        "Ġtecnolo",
        -11.047243345463231
      ],
      [
        "Ġdeliberac",
        -11.047522835440445
      ],
      [
        "bastecimento",
        -11.04892490940688
      ],
      [
        "ĠFILH",
        -11.04924703022778
      ],
      [
        "Ġadquiri",
        -11.049451739179617
      ],
      [
        "Ġmeia",
        -11.05054463222468
      ],
      [
        "seguimento",
        -11.050660770633096
      ],
      [
        "Trabalhadores",
[...]
