{
  "version": "1.0",
  "truncation": {
    "direction": "Right",
    "max_length": 1024,
    "strategy": "LongestFirst",
    "stride": 0
  },
  "padding": null,
  "added_tokens": [
    {
      "id": 0,
      "content": "[PAD]",
      "single_word": false,
      "lstrip": false,
      "rstrip": false,
      "normalized": false,
      "special": true
    },
    {
      "id": 1,
      "content": "[SEP]",
      "single_word": false,
      "lstrip": false,
      "rstrip": false,
      "normalized": false,
      "special": true
    },
    {
      "id": 2,
      "content": "[EOS]",
      "single_word": false,
      "lstrip": false,
      "rstrip": false,
      "normalized": false,
      "special": true
    },
    {
      "id": 3,
      "content": "[UNK]",
      "single_word": false,
      "lstrip": false,
      "rstrip": false,
      "normalized": false,
      "special": true
    }
  ],
  "normalizer": {
    "type": "Sequence",
    "normalizers": [
      {
        "type": "Strip",
        "strip_left": true,
        "strip_right": true
      },
      {
        "type": "NFC"
      }
    ]
  },
  "pre_tokenizer": {
    "type": "ByteLevel",
    "add_prefix_space": true,
    "trim_offsets": true,
    "use_regex": true
  },
  "post_processor": {
    "type": "Sequence",
    "processors": [
      {
        "type": "ByteLevel",
        "add_prefix_space": true,
        "trim_offsets": true,
        "use_regex": true
      },
      {
        "type": "TemplateProcessing",
        "single": [
          {
            "Sequence": {
              "id": "A",
              "type_id": 0
            }
          },
          {
            "SpecialToken": {
              "id": "[EOS]",
              "type_id": 0
            }
          }
        ],
        "pair": [
          {
            "Sequence": {
              "id": "A",
              "type_id": 0
            }
          },
          {
            "SpecialToken": {
              "id": "[SEP]",
              "type_id": 0
            }
          },
          {
            "Sequence": {
              "id": "B",
              "type_id": 0
            }
          },
          {
            "SpecialToken": {
              "id": "[EOS]",
              "type_id": 0
            }
          }
        ],
        "special_tokens": {
          "[EOS]": {
            "id": "[EOS]",
            "ids": [
              2
            ],
            "tokens": [
              "[EOS]"
            ]
          },
          "[SEP]": {
            "id": "[SEP]",
            "ids": [
              1
            ],
            "tokens": [
              "[SEP]"
            ]
          }
        }
      }
    ]
  },
  "decoder": {
    "type": "ByteLevel",
    "add_prefix_space": true,
    "trim_offsets": true,
    "use_regex": true
  },
  "model": {
    "type": "Unigram",
    "unk_id": 3,
    "vocab": [
      [
        "[PAD]",
        0.0
      ],
      [
        "[SEP]",
        0.0
      ],
      [
        "[EOS]",
        0.0
      ],
      [
        "[UNK]",
        0.0
      ],
      [
        "Ġ",
        -2.0761852677643624
      ],
      [
        ",",
        -3.2571806074252194
      ],
      [
        ".",
        -3.468178803525319
      ],
      [
        "s",
        -3.4977837757414783
      ],
      [
        "Ġde",
        -3.570862957989835
      ],
      [
        "a",
        -3.627506990168996
      ],
      [
        "e",
        -3.7712087117530935
      ],
      [
        "o",
        -3.81348743473983
      ],
      [
        "-",
        -4.524079560912288
      ],
      [
        "Ġque",
        -4.569713266625346
      ],
      [
        "Ġdo",
        -4.58636541117388
      ],
      [
        "r",
        -4.762569459086411
      ],
      [
        "Ġda",
        -4.763918886897631
      ],
      [
        "u",
        -4.868556851731459
      ],
      [
        "Ġem",
        -5.145799866994821
      ],
      [
        "m",
        -5.265323578399556
      ],
      [
        "\"",
        -5.274445251655358
      ],
      [
        "Ġ(",
        -5.351907083693128
      ],
      [
        "Ġpara",
        -5.368020683354931
      ],
      [
        "i",
        -5.497868940527347
      ],
      [
        "Ġcom",
        -5.500246905306419
      ],
      [
        ")",
        -5.500565586911058
      ],
      [
        "n",
        -5.535077337540002
      ],
      [
        "Ġno",
        -5.557365637274735
      ],
      [
        "ĠA",
        -5.57206852897809
      ],
      [
        "p",
        -5.656846375631254
      ],
      [
        "c",
        -5.661957621512052
      ],
      [
        "t",
        -5.69153483391816
      ],
      [
        ":",
        -5.694199204568431
      ],
      [
        "Ġum",
        -5.730171048261299
      ],
      [
        "ĠO",
        -5.730714709770114
      ],
      [
        "ĠÃ©",
        -5.731210277785571
      ],
      [
        "ĠâĢĵ",
        -5.732534203400036
      ],
      [
        "/",
        -5.73633203861408
      ],
      [
        "Ġna",
        -5.772629627962585
      ],
      [
        "l",
        -5.8119257497124455
      ],
      [
        "ĠnÃ£o",
        -5.824502258520811
      ],
      [
        "do",
        -5.84261935402596
      ],
      [
        "Ġuma",
        -5.923708896811487
      ],
      [
        "Ġpor",
        -5.945994077409324
      ],
      [
        "Ġos",
        -5.984641194328859
      ],
      [
        "da",
        -6.004423036409497
      ],
      [
        "Ġao",
        -6.116142507212647
      ],
      [
        "Ã§Ã£o",
        -6.123438326134149
      ],
      [
        "Ġse",
        -6.128406457618189
      ],
      [
        "d",
        -6.14103402625299
      ],
      [
        "b",
        -6.170998307586377
      ],
      [
        "g",
        -6.20525791551686
      ],
      [
        "A",
        -6.223502311979791
      ],
      [
        "Ġdos",
        -6.255454304220843
      ],
      [
        "Ġas",
        -6.31025291725628
      ],
      [
        "Ġcomo",
        -6.326715202300946
      ],
      [
        "?",
        -6.338049535190322
      ],
      [
        "ĠÃł",
        -6.338644622353312
      ],
      [
        "h",
        -6.3779048192613885
      ],
      [
        "ndo",
        -6.417425856437422
      ],
      [
        "ta",
        -6.438348471908089
      ],
      [
        "S",
        -6.449688372984774
      ],
      [
        "co",
        -6.460916088490329
      ],
      [
        "Ġfoi",
        -6.483688035158062
      ],
      [
        "ra",
        -6.498031663810837
      ],
      [
        "O",
        -6.5417682536763575
      ],
      [
        "!",
        -6.544191899180785
      ],
      [
        "Ġmais",
        -6.552170787097456
      ],
      [
        "ĠS",
        -6.560345074828577
      ],
      [
        "ĠE",
        -6.599856896349792
      ],
      [
        "to",
        -6.6252647218451255
      ],
      [
        "f",
        -6.653987001596757
      ],
      [
        "se",
        -6.673061718241835
      ],
      [
        "Ġou",
        -6.67412787127701
      ],
      [
        ";",
        -6.681182309532087
      ],
      [
        "ti",
        -6.694380602554553
      ],
      [
        "Ġpela",
        -6.704962218825109
      ],
      [
        "ĠDE",
        -6.7158158481518075
      ],
      [
        "ĠnÂº",
        -6.719846143271349
      ],
      [
        "y",
        -6.7550451090006085
      ],
      [
        "Ġ1",
        -6.758008702135358
      ],
      [
        "Ġpelo",
        -6.7745511636315765
      ],
      [
        "Ġsua",
        -6.791017666812401
      ],
      [
        "la",
        -6.7963980327112825
      ],
      [
        "................",
        -6.800857425065251
      ],
      [
        "ri",
        -6.805564252373719
      ],
      [
        "7",
        -6.819219989515359
      ],
      [
        "en",
        -6.835083834682187
      ],
      [
        "C",
        -6.836932002148133
      ],
      [
        "Ġdas",
        -6.83806224239264
      ],
      [
        "li",
        -6.845096121323275
      ],
      [
        "ar",
        -6.869350091819884
      ],
      [
        "Âº",
        -6.869383256928197
      ],
      [
        "ĠSr",
        -6.870365046394621
      ],
      [
        "Ġser",
        -6.874451667579811
      ],
      [
        "6",
        -6.89240291284767
      ],
      [
        "na",
        -6.892435371761149
      ],
      [
        "de",
        -6.89613800196053
      ],
      [
        "dos",
        -6.896704524008756
      ],
      [
        "ou",
        -6.8986339798181415
      ],
      [
        "z",
        -6.90412377108321
      ],
      [
        "Ġre",
        -6.904193910235545
      ],
      [
        "v",
        -6.906713417057222
      ],
      [
        "lo",
        -6.914677654510459
      ],
      [
        "is",
        -6.919995860129305
      ],
      [
        "Ġsobre",
        -6.939208670056884
      ],
      [
        "mente",
        -6.9397757230369095
      ],
      [
        "ĠP",
        -6.941249093826661
      ],
      [
        "Ã£o",
        -6.947653944272638
      ],
      [
        "...",
        -6.958220161220371
      ],
      [
        "va",
        -6.9713558137273655
      ],
      [
        "Ã¡",
        -6.974274179658346
      ],
      [
        "ĠC",
        -6.992142805416874
      ],
      [
        "di",
        -6.993371926839178
      ],
      [
        "8",
        -7.00713624881214
      ],
      [
        "ca",
        -7.007448536574332
      ],
      [
        "mos",
        -7.021755440220398
      ],
      [
        "1",
        -7.02317571555133
      ],
      [
        "ĠâĢľ",
        -7.034430539314311
      ],
      [
        "os",
        -7.036979807834779
      ],
      [
        "I",
        -7.040007420360826
      ],
      [
        "Ġseu",
        -7.04448545734925
      ],
      [
        "Ġ2",
        -7.0503594106999525
      ],
      [
        "te",
        -7.052654387825672
      ],
      [
        "ÃŃ",
        -7.061912284835392
      ],
      [
        "T",
        -7.088366359487228
      ],
      [
        "ĠPresidente",
        -7.09054995343034
      ],
      [
        "ĠestÃ¡",
        -7.104170663520781
      ],
      [
        "ĠNÃ£o",
        -7.11919863768232
      ],
      [
        "2",
        -7.124266003508902
      ],
      [
        "ĠtambÃ©m",
        -7.130741524558273
      ],
      [
        "ĠEm",
        -7.137790578387198
      ],
      [
        "ĠLei",
        -7.147281023146634
      ],
      [
        "al",
        -7.151628494185765
      ],
      [
        "5",
        -7.153786811085052
      ],
      [
        "Ã§Ãµes",
        -7.165731922064682
      ],
      [
        "em",
        -7.18738161206743
      ],
      [
        "ci",
        -7.195363388527216
      ],
      [
        "Ġnos",
        -7.203050194422367
      ],
      [
        "Ġ19",
        -7.209592892358088
      ],
      [
        "in",
        -7.218746108417877
      ],
      [
        "Ã©",
        -7.226676394254255
      ],
      [
        "ram",
        -7.22786553392738
      ],
      [
        "das",
        -7.22851576243899
      ],
      [
        "ĠF",
        -7.231511613589644
      ],
      [
        "ĠV",
        -7.234215059782514
      ],
      [
        "Ġtem",
        -7.235373442900238
      ],
      [
        "Ġeu",
        -7.23602247241223
      ],
      [
        "ĠI",
        -7.237564376616001
      ],
      [
        "ĠDeputado",
        -7.23877285297379
      ],
      [
        "P",
        -7.241964802040545
      ],
      [
        "Ġmas",
        -7.245038493393077
      ],
      [
        "R",
        -7.256497495893651
      ],
      [
        "Ġin",
        -7.258161884459781
      ],
      [
        "E",
        -7.260291328213949
      ],
      [
        "am",
        -7.27202323222749
      ],
      [
        "D",
        -7.277474403868361
      ],
      [
        "ni",
        -7.278468685362995
      ],
      [
        "x",
        -7.278811712409292
      ],
      [
        "L",
        -7.28017329875491
      ],
      [
        "3",
        -7.293271437821046
      ],
      [
        "ve",
        -7.298282587346135
      ],
      [
        "ĠR",
        -7.29933327573654
      ],
      [
        "U",
        -7.301998549910854
      ],
      [
        "Ġele",
        -7.306712823646755
      ],
      [
        "le",
        -7.312820643528212
      ],
      [
        "4",
        -7.344088765816563
      ],
      [
        "ga",
        -7.353611858415601
      ],
      [
        "Ġ3",
        -7.354243162736216
      ],
      [
        "ĠsÃ£o",
        -7.367265685962474
      ],
      [
        "Ġart",
        -7.371198434845088
      ],
      [
        "ĠSR",
        -7.380191853505794
      ],
      [
        "Ã³",
        -7.382338286855701
      ],
      [
        "ĠFederal",
        -7.393756206150446
      ],
      [
        "B",
        -7.399147722028243
      ],
      [
        "ĠÃī",
        -7.39921442580664
      ],
      [
        "Ġisso",
        -7.408539413580755
      ],
      [
        "as",
        -7.415009236014242
      ],
      [
        "ĠNÂº",
        -7.423830584950526
      ],
      [
        "),",
        -7.431122676941188
      ],
      [
        "Ġanos",
        -7.433996190725454
      ],
      [
        "ĠBrasil",
        -7.444498676412
      ],
      [
        "M",
        -7.453415483137896
      ],
      [
        "ĠEstado",
        -7.454547612537791
      ],
      [
        "k",
        -7.457743379256712
      ],
      [
        "9",
        -7.459712318203339
      ],
      [
        "Ġme",
        -7.460509517690941
      ],
      [
        "ia",
        -7.465266504244584
      ],
      [
        "ĠSenador",
        -7.477748438786065
      ],
      [
        "Ġentre",
        -7.499593590185619
      ],
      [
        "no",
        -7.510362730389316
      ],
      [
        ").",
        -7.512263351460078
      ],
      [
        "go",
        -7.514103767183579
      ],
      [
        "F",
        -7.518255667811832
      ],
      [
        "ĠvocÃª",
        -7.518558551905228
      ],
      [
        "ĠEu",
        -7.519435392465079
      ],
      [
        "que",
        -7.521398625378682
      ],
      [
        "ĠDe",
        -7.521497778820727
      ],
      [
        "Ġmuito",
        -7.535585655168536
      ],
      [
        "vi",
        -7.566191877718079
      ],
      [
        "er",
        -7.584654250699609
      ],
      [
        "ir",
        -7.588955731101315
      ],
      [
        "ĠatÃ©",
        -7.589502876041193
      ],
      [
        "ter",
        -7.591009050848349
      ],
      [
        "ĠjÃ¡",
        -7.591942613748046
      ],
      [
        "%",
        -7.593094379521176
      ],
      [
        "Ġ4",
        -7.599507034806036
      ],
      [
        "idade",
        -7.609496123944668
      ],
      [
        "ĠNo",
        -7.609700314933383
      ],
      [
        "N",
        -7.617218559341053
      ],
      [
        "Ġforma",
        -7.62345842281079
      ],
      [
        "res",
        -7.639834263962355
      ],
      [
        "ĠComissÃ£o",
        -7.6460213364118275
      ],
      [
        "Ġaos",
        -7.657566803258776
      ],
      [
        "(",
        -7.66471285032825
      ],
      [
        "Ġbem",
        -7.670003119109088
      ],
      [
        "ria",
        -7.6708985976843795
      ],
      [
        "Ġ5",
        -7.679958604700394
      ],
      [
        "Ġpode",
        -7.682354230218859
      ],
      [
        "min",
        -7.695043674291496
      ],
      [
        "0",
        -7.711326457203967
      ],
      [
        "ĠT",
        -7.713351190695395
      ],
      [
        "ĠB",
        -7.7290091105876755
      ],
      [
        "Ġquando",
        -7.729167890350896
      ],
      [
        "Ġ6",
        -7.729743533508195
      ],
      [
        "bi",
        -7.735196671136318
      ],
      [
        "ĠNa",
        -7.745275995507265
      ],
      [
        "nte",
        -7.750988647976852
      ],
      [
        "Ġaqui",
        -7.7510922470703
      ],
      [
        "Ġcon",
        -7.753019716134459
      ],
      [
        "\",",
        -7.759784864438233
      ],
      [
        "Ġmesmo",
        -7.759915081317422
      ],
      [
        "w",
        -7.761302794772625
      ],
      [
        "gi",
        -7.770287741959549
      ],
      [
        "ĠNacional",
        -7.770466163085317
      ],
      [
        "ĠSe",
        -7.773020056094307
      ],
      [
        "Ġ7",
        -7.778045600559418
      ],
      [
        "ĠPor",
        -7.778290332436459
      ],
      [
        "ĠRe",
        -7.790884646037705
      ],
      [
        "V",
        -7.794471513757289
      ],
      [
        "Ġsem",
        -7.797679715663094
      ],
      [
        "fi",
        -7.802311705232912
      ],
      [
        "Ġ10",
        -7.805188819942948
      ],
      [
        "ĠÂ§",
        -7.8109331950709215
      ],
      [
        "Ġtodos",
        -7.81327630740541
      ],
      [
        "ver",
        -7.820433639399443
      ],
      [
        "Ġdia",
        -7.820473773622265
      ],
      [
        "G",
        -7.825329974062992
      ],
      [
        "Ġ8",
        -7.828547528407208
      ],
      [
        "Ġainda",
        -7.832410836102019
      ],
      [
        "ĠSÃ£o",
        -7.841201810106952
      ],
      [
        "ĠG",
        -7.841503014348813
      ],
      [
        "Ġcontra",
        -7.844203508030757
      ],
      [
        "Ġpro",
        -7.858555886497497
      ],
      [
        "Ġ18",
        -7.860362723060675
      ],
      [
        "Ġter",
        -7.8614047415659805
      ],
      [
        "Ġseus",
        -7.863049501491267
      ],
      [
        "im",
        -7.870988500320379
      ],
      [
        "za",
        -7.874192265931354
      ],
      [
        "âĢĿ.",
        -7.891569458284172
      ],
      [
        "Ġera",
        -7.896002998708957
      ],
      [
        "Ġesta",
        -7.896609748419701
      ],
      [
        "Ġparte",
        -7.901744413455948
      ],
      [
        "Ġcidade",
        -7.908726355464792
      ],
      [
        "um",
        -7.911441615492617
      ],
      [
        "Ġforam",
        -7.916896955481597
      ],
      [
        "Ġex",
        -7.917832229407035
      ],
      [
        "Ã",
        -7.920160809567101
      ],
      [
        "Ġfazer",
        -7.92593448181842
      ],
      [
        "ĠPaulo",
        -7.9305071545728385
      ],
      [
        "Ġcaso",
        -7.9365438704893965
      ],
      [
        "ĠhÃ¡",
        -7.937403145813505
      ],
      [
        "Ġano",
        -7.942529825974637
      ],
      [
        "ĠCom",
        -7.957064900856791
      ],
      [
        "ntes",
        -7.959049881660738
      ],
      [
        "ĠPL",
        -7.970653117757688
      ],
      [
        "Ġessa",
        -7.970768304493133
      ],
      [
        "Ġtempo",
        -7.988395570364192
      ],
      [
        "ĠD",
        -7.990606244909895
      ],
      [
        "mento",
        -7.993091212037612
      ],
      [
        "Ġesse",
        -7.999034860762368
      ],
      [
        "br",
        -8.001312897457444
      ],
      [
        "PRESIDENTE",
        -8.021158992139279
      ],
      [
        "ĠÃłs",
        -8.023457335630578
      ],
      [
        "Ãª",
        -8.024097231492458
      ],
      [
        "PROJETO",
        -8.027710962844768
      ],
      [
        "Ġseja",
        -8.032509744582963
      ],
      [
        "ĠM",
        -8.03362241335687
      ],
      [
        "Ġpre",
        -8.035556226579903
      ],
      [
        "Ġvai",
        -8.036655324085151
      ],
      [
        "ĠLEI",
        -8.049310074170856
      ],
      [
        "Ġporque",
        -8.056886806656042
      ],
      [
        "Ġmeu",
        -8.058087430658622
      ],
      [
        "ĠsÃ³",
        -8.061259609975092
      ],
      [
        "ĠMas",
        -8.062697649815124
      ],
      [
        "qui",
        -8.065304740296337
      ],
      [
        "nd",
        -8.068414174232341
      ],
      [
        "ch",
        -8.069732036760017
      ],
      [
        "ĠDeputados",
        -8.070611685360479
      ],
      [
        "Ġnas",
        -8.077230567213121
      ],
      [
        "Ġprimeiro",
        -8.078567761182793
      ],
      [
        "ĠEle",
        -8.086249447845328
      ],
      [
        "ina",
        -8.089372246809301
      ],
      [
        "tar",
        -8.089812869715258
      ],
      [
        "Ġela",
        -8.090232936713647
      ],
      [
        "ĠOs",
        -8.098885226483235
      ],
      [
        "il",
        -8.098977247689026
      ],
      [
        "RELATOR",
        -8.108489468548292
      ],
      [
        "ĠGoverno",
        -8.111743453942305
      ],
      [
        "H",
        -8.112634216759577
      ],
      [
        "aÃ§Ã£o",
        -8.114669775964844
      ],
      [
        "Ġonde",
        -8.114860403630512
      ],
      [
        "ĠMinistro",
        -8.115480333529785
      ],
      [
        "âĢĿ",
        -8.115846668673006
      ],
      [
        "Ãº",
        -8.117760656423364
      ],
      [
        "ente",
        -8.11852567275096
      ],
      [
        "j",
        -8.12120016794694
      ],
      [
        "00",
        -8.12245246449164
      ],
      [
        "ĠConstituiÃ§Ã£o",
        -8.127031373753404
      ],
      [
        "ĠVocÃª",
        -8.12918288610709
      ],
      [
        "Ġgrande",
        -8.134182738411507
      ],
      [
        "Ġpessoas",
        -8.137275732651121
      ],
      [
        "'",
        -8.13951626389915
      ],
      [
        "Ġvez",
        -8.147457901894109
      ],
      [
        "Ġoutros",
        -8.15469794925946
      ],
      [
        "tor",
        -8.154850268585447
      ],
      [
        "Ġartigo",
        -8.161596921009716
      ],
      [
        "ĠSenhor",
        -8.16219904196804
      ],
      [
        "ĠDo",
        -8.170167804368926
      ],
      [
        "Ġ11",
        -8.170845310623667
      ],
      [
        "ES",
        -8.173382110138377
      ],
      [
        "ĠestÃ£o",
        -8.174465213063952
      ],
      [
        "per",
        -8.17466204533842
      ],
      [
        "Ġapenas",
        -8.176339798499804
      ],
      [
        "Ġtrabalho",
        -8.178267852767856
      ],
      [
        "ĠJ",
        -8.179094191983847
      ],
      [
        "19",
        -8.181057959320226
      ],
      [
        "Ġoutras",
        -8.18286376641155
      ],
      [
        "Ġ9",
        -8.18397776424391
      ],
      [
        "ĠCÃ¢mara",
        -8.189236050467171
      ],
      [
        "cio",
        -8.190429174783725
      ],
      [
        "ĠnÃ³s",
        -8.191859381635183
      ],
      [
        "ja",
        -8.199335370138801
      ],
      [
        "ĠArt",
        -8.201491403343713
      ],
      [
        "Âª",
        -8.201908470534425
      ],
      [
        "Ġ12",
        -8.205912946046997
      ],
      [
        "Ġsendo",
        -8.214665190849768
      ],
      [
        "Ġ15",
        -8.217639473549688
      ],
      [
        "ĠK",
        -8.218090945100876
      ],
      [
        "tos",
        -8.224064924953518
      ],
      [
        "ĠRio",
        -8.22503104533937
      ],
      [
        "Ġlei",
        -8.225126137715906
      ],
      [
        "rÃ¡",
        -8.228552541385513
      ],
      [
        "Ġdois",
        -8.230617593033752
      ],
      [
        "Ġordem",
        -8.231576897704786
      ],
      [
        "Ġnosso",
        -8.23198656287859
      ],
      [
        "Ġsuas",
        -8.237998289069504
      ],
      [
        "Ġeste",
        -8.24058568311392
      ],
      [
        "ĠProjeto",
        -8.241480113493665
      ],
      [
        "ĠII",
        -8.248113836535868
      ],
      [
        "ĠW",
        -8.248994001897398
      ],
      [
        "ĠIn",
        -8.256899843668512
      ],
      [
        "Ġnome",
        -8.26076088000891
      ],
      [
        "est",
        -8.262988664566338
      ],
      [
        "ĠCasa",
        -8.26358518212361
      ],
      [
        "10",
        -8.263945860589649
      ],
      [
        "Ġminha",
        -8.272856471564374
      ],
      [
        "Ġmaior",
        -8.276103180214157
      ],
      [
        "Ġhoje",
        -8.276115078346747
      ],
      [
        "ing",
        -8.276255917436544
      ],
      [
        "ĠpÃºblica",
        -8.276669303532636
      ],
      [
        "ĠPara",
        -8.277160543596636
      ],
      [
        "Ãµes",
        -8.278163818824329
      ],
      [
        "Ġdesta",
        -8.280462586435812
      ],
      [
        "Ġma",
        -8.281854722863907
      ],
      [
        "Ġtermos",
        -8.28402648179978
      ],
      [
        "ĠserÃ¡",
        -8.286688734534298
      ],
      [
        "ista",
        -8.28984840088005
      ],
      [
        "ĠserviÃ§o",
        -8.290585818143358
      ],
      [
        "Ġprocesso",
        -8.293061183443967
      ],
      [
        "ĠReferÃªncias",
        -8.293991274081323
      ],
      [
        "ĠSenado",
        -8.297238546871464
      ],
      [
        "Ġmeio",
        -8.297479536628087
      ],
      [
        "Ġassim",
        -8.301392665299035
      ],
      [
        "ĠDO",
        -8.304346094149913
      ],
      [
        "Ãªncia",
        -8.31008275583446
      ],
      [
        "Ġprojeto",
        -8.31226093316088
      ],
      [
        "Ġ17",
        -8.317670155670003
      ],
      [
        "rem",
        -8.318432378459555
      ],
      [
        "lha",
        -8.318816415039414
      ],
      [
        "Ġvi",
        -8.320550132549505
      ],
      [
        "PSDB",
        -8.321680011675452
      ],
      [
        "ĠL",
        -8.32169564455071
      ],
      [
        "ck",
        -8.322723629521613
      ],
      [
        "Ġ16",
        -8.32668337013859
      ],
      [
        "Ġqual",
        -8.327216392838416
      ],
      [
        "cia",
        -8.336584446826599
      ],
      [
        "ica",
        -8.337841016794245
      ],
      [
        "11",
        -8.341891064571625
      ],
      [
        "nha",
        -8.348820821595353
      ],
      [
        "ita",
        -8.35134193172988
      ],
      [
        "Ġvida",
        -8.354565044782044
      ],
      [
        "ĠComo",
        -8.359760034953593
      ],
      [
        "Ġdireito",
        -8.360047306401546
      ],
      [
        "ĠpolÃŃtica",
        -8.363934171995496
      ],
      [
        "ĠLa",
        -8.364915042159442
      ],
      [
        "Ġprimeira",
        -8.368840972145454
      ],
      [
        "it",
        -8.369328997488017
      ],
      [
        "Ġdisse",
        -8.375531495682878
      ],
      [
        "$",
        -8.375856761713312
      ],
      [
        "rei",
        -8.377823463431637
      ],
      [
        "Ġqualquer",
        -8.379635126529116
      ],
      [
        "ĠDa",
        -8.384673852085708
      ],
      [
        "ĠTribunal",
        -8.384824337480925
      ],
      [
        "ĠSem",
        -8.389424186771345
      ],
      [
        "Ġdeste",
        -8.389797125866568
      ],
      [
        "Ġseguinte",
        -8.389829328941856
      ],
      [
        "ĠâĢ¢",
        -8.392837878898876
      ],
      [
        "Ġ20",
        -8.393859929602666
      ],
      [
        "ĠAl",
        -8.395379058552765
      ],
      [
        "ĠJosÃ©",
        -8.396517487731794
      ],
      [
        "Ġmelhor",
        -8.402248032526211
      ],
      [
        "ĠVi",
        -8.402248529198834
      ],
      [
        "Ġvoto",
        -8.406971113572551
      ],
      [
        "ĠÃ¡rea",
        -8.407969058146112
      ],
      [
        "car",
        -8.408652555076602
      ],
      [
        "ĠPaÃŃs",
        -8.412296083616594
      ],
      [
        "Ġpalavra",
        -8.413958440494246
      ],
      [
        "ĠLi",
        -8.415473792837343
      ],
      [
        "Ġacordo",
        -8.416114246075296
      ],
      [
        "Ġsistema",
        -8.423296201588041
      ],
      [
        "ĠDA",
        -8.423488818659829
      ],
      [
        "Ġ13",
        -8.424144323427825
      ],
      [
        "Ġtodo",
        -8.424484786522441
      ],
      [
        "Ġdepois",
        -8.424946482972208
      ],
      [
        "ĠRo",
        -8.427652038701487
      ],
      [
        "09",
        -8.429332751324639
      ],
      [
        "ĠAs",
        -8.429904593198064
      ],
      [
        "ismo",
        -8.440635291330445
      ],
      [
        "Ġ14",
        -8.442515613520337
      ],
      [
        "ĠMinistÃ©rio",
        -8.443742936473733
      ],
      [
        "ĠN",
        -8.444838776108007
      ],
      [
        "tal",
        -8.44552362195022
      ],
      [
        "Ġprazo",
        -8.44844756445832
      ],
      [
        "ĠpÃºblico",
        -8.449500480404453
      ],
      [
        "ĠCon",
        -8.450122313473257
      ],
      [
        "man",
        -8.452427415443644
      ],
      [
        "dor",
        -8.453122866117289
      ],
      [
        "Ġcada",
        -8.45633604637379
      ],
      [
        "ĠCarlos",
        -8.456744338056508
      ],
      [
        "aÃ§Ãµes",
        -8.456992710959316
      ],
      [
        "ĠSim",
        -8.461241716859703
      ],
      [
        "ĠapÃ³s",
        -8.465207928898963
      ],
      [
        "dores",
        -8.468710242508148
      ],
      [
        "ĠRelator",
        -8.469171799504975
      ],
      [
        "Ġper",
        -8.46971999936221
      ],
      [
        "Ġagora",
        -8.474718811748929
      ],
      [
        "J",
        -8.4755476426435
      ],
      [
        "Ã§a",
        -8.476777536835446
      ],
      [
        "ĠPT",
        -8.47787783778136
      ],
      [
        "Ġpresente",
        -8.478595520716267
      ],
      [
        "Ġdi",
        -8.482965395395048
      ],
      [
        "ĠH",
        -8.483592818740028
      ],
      [
        "Ġsob",
        -8.493631640523152
      ],
      [
        "q",
        -8.495360008326928
      ],
      [
        "ge",
        -8.49641865312638
      ],
      [
        "Ġimportante",
        -8.498615448062363
      ],
      [
        "cha",
        -8.49986214125576
      ],
      [
        "ando",
        -8.500820620278091
      ],
      [
        "Ġato",
        -8.503422228723531
      ],
      [
        "Bloco",
        -8.509248072247013
      ],
      [
        "ĠRepÃºblica",
        -8.509406608801978
      ],
      [
        "ĠMar",
        -8.513374816385229
      ],
      [
        "Ġsegundo",
        -8.51374959509601
      ],
      [
        "tri",
        -8.516099377744036
      ],
      [
        "Ġmundo",
        -8.516851586876664
      ],
      [
        "durante",
        -8.521285003596304
      ],
      [
        "Ġdizer",
        -8.52179801629748
      ],
      [
        "MA",
        -8.522256527832832
      ],
      [
        "ĠMo",
        -8.523306517887745
      ],
      [
        "Ġmil",
        -8.52370171154517
      ],
      [
        "Ġdeve",
        -8.524223089202787
      ],
      [
        "ĠCa",
        -8.52564720297092
      ],
      [
        "ĠMa",
        -8.52595899080958
      ],
      [
        "th",
        -8.527227156529316
      ],
      [
        "ncia",
        -8.53008226995822
      ],
      [
        "AL",
        -8.532237210679632
      ],
      [
        "der",
        -8.53327434141919
      ],
      [
        "AS",
        -8.533636027154337
      ],
      [
        "Ġnossa",
        -8.535449379399177
      ],
      [
        "Ã§o",
        -8.541718662222792
      ],
      [
        "ĠmatÃ©ria",
        -8.543426997842696
      ],
      [
        "_",
        -8.546002676070836
      ],
      [
        "ĠJustiÃ§a",
        -8.548820582871695
      ],
      [
        "Ġestava",
        -8.556515081757011
      ],
      [
        "ros",
        -8.556678100693704
      ],
      [
        "fer",
        -8.557473822960924
      ],
      [
        "tiva",
        -8.558641815512631
      ],
      [
        "com",
        -8.559208730547656
      ],
      [
        "Ġsido",
        -8.5608417568758
      ],
      [
        "12",
        -8.562611949016425
      ],
      [
        "Z",
        -8.563091151029191
      ],
      [
        "Ġrecursos",
        -8.566707345049686
      ],
      [
        "ĠEstados",
        -8.569689238600354
      ],
      [
        "dezembro",
        -8.570898078950812
      ],
      [
        "sse",
        -8.571310610492624
      ],
      [
        "ĠLe",
        -8.577924017239443
      ],
      [
        "decisÃ£o",
        -8.583353494587316
      ],
      [
        "ĠtrÃªs",
        -8.589995352845602
      ],
      [
        "DO",
        -8.590427553060609
      ],
      [
        "20",
        -8.591779827246356
      ],
      [
        "Ġpartir",
        -8.5926146418527
      ],
      [
        "Ġoutro",
        -8.595397784335859
      ],
      [
        "Ġcasa",
        -8.595400536303455
      ],
      [
        "ten",
        -8.596680652393086
      ],
      [
        "Ġantes",
        -8.597073985051772
      ],
      [
        "Ġver",
        -8.597175705022497
      ],
      [
        "lar",
        -8.598581733115124
      ],
      [
        "Ġtudo",
        -8.601491191241273
      ],
      [
        "OS",
        -8.603327142114173
      ],
      [
        "=",
        -8.603770118661226
      ],
      [
        "orador",
        -8.606513380879273
      ],
      [
        "ĠentÃ£o",
        -8.606704127878936
      ],
      [
        "Ġfato",
        -8.607645193734378
      ],
      [
        "con",
        -8.612639421997393
      ],
      [
        "ĠnÃºmero",
        -8.618992516784733
      ],
      [
        "Ġprograma",
        -8.62229116196847
      ],
      [
        "Ġvalor",
        -8.624764332202226
      ],
      [
        "Ġmomento",
        -8.624880381471872
      ],
      [
        "ĠPMDB",
        -8.625747850710496
      ],
      [
        "2009",
        -8.625925774575496
      ],
      [
        "Ì",
        -8.627300923516911
      ],
      [
        "Ġdias",
        -8.629185928895224
      ],
      [
        "ĠVer",
        -8.629552736195484
      ],
      [
        "15",
        -8.630711612131499
      ],
      [
        "Ġgrupo",
        -8.634465603959464
      ],
      [
        "Ġdesde",
        -8.635450918696714
      ],
      [
        "revisÃ£o",
        -8.63566377212777
      ],
      [
        "Ġgoverno",
        -8.635976203290092
      ],
      [
        "Ġpo",
        -8.638282885977423
      ],
      [
        "ĠJoÃ£o",
        -8.638589975396325
      ],
      [
        "men",
        -8.639630403950179
      ],
      [
        "PT",
        -8.64466479190958
      ],
      [
        "mar",
        -8.645543959032237
      ],
      [
        "Ġte",
        -8.64595005112757
      ],
      [
        "Ġeles",
        -8.645963777863013
      ],
      [
        "ĠfamÃŃlia",
        -8.64638733667483
      ],
      [
        "Ġ24",
        -8.651960141665866
      ],
      [
        "ment",
        -8.652180920074828
      ],
      [
        "Ġconta",
        -8.654022960432883
      ],
      [
        "05",
        -8.655625508092374
      ],
      [
        "son",
        -8.656078495835281
      ],
      [
        "Ġnovo",
        -8.662384474637925
      ],
      [
        "ĠpaÃŃs",
        -8.664962122065967
      ],
      [
        "ĠIsso",
        -8.665368557965662
      ],
      [
        "Ġfinal",
        -8.665728181275721
      ],
      [
        "ĠlÃ¡",
        -8.666589822944932
      ],
      [
        "ll",
        -8.668540129033392
      ],
      [
        "ĠUniÃ£o",
        -8.669071610122689
      ],
      [
        "ÃĥO",
        -8.673232556178792
      ],
      [
        "Ġproposta",
        -8.677064979584255
      ],
      [
        "Ã´",
        -8.677649592078543
      ],
      [
        "18",
        -8.67835668176538
      ],
      [
        "ĠpopulaÃ§Ã£o",
        -8.680378710225538
      ],
      [
        "ĠUm",
        -8.681529429982614
      ],
      [
        "ĠBa",
        -8.68326913182869
      ],
      [
        "ÃĩÃĥO",
        -8.685328276483588
      ],
      [
        "Ġsempre",
        -8.685474115312397
      ],
      [
        "mon",
        -8.687225212393487
      ],
      [
        "03",
        -8.68979073156896
      ],
      [
        "ĠPR",
        -8.691213162604882
      ],
      [
        "lhe",
        -8.691262302591934
      ],
      [
        "les",
        -8.693491369043404
      ],
      [
        "Ġinciso",
        -8.694667040679622
      ],
      [
        "ER",
        -8.697640521711994
      ],
      [
        "ion",
        -8.697943071976532
      ],
      [
        "Ġpoder",
        -8.698866529981288
      ],
      [
        "ĠdÃ¡",
        -8.702581961580188
      ],
      [
        "ĠCo",
        -8.70259771308652
      ],
      [
        "Ġbrasileiro",
        -8.705471087967773
      ],
      [
        "Ġduas",
        -8.706525771911915
      ],
      [
        "ĠrelaÃ§Ã£o",
        -8.706894607527522
      ],
      [
        "Ġpelos",
        -8.709497870652784
      ],
      [
        "eira",
        -8.71137170735018
      ],
      [
        "08",
        -8.712352672831035
      ],
      [
        "ĠâĢĶ",
        -8.713167254039927
      ],
      [
        "ĠMe",
        -8.715266015489506
      ],
      [
        "Ġmenos",
        -8.715793099638597
      ],
      [
        "ĠmilhÃµes",
        -8.717422419594335
      ],
      [
        "Ġpouco",
        -8.71759874647976
      ],
      [
        "ĠPa",
        -8.718604279410146
      ],
      [
        "ĠFoi",
        -8.718628795302896
      ],
      [
        "nce",
        -8.71942831488209
      ],
      [
        "ĠEntÃ£o",
        -8.720611209822644
      ],
      [
        "Ġtinha",
        -8.722108122371496
      ],
      [
        "Congresso",
        -8.72301600482977
      ],
      [
        "Ã£",
        -8.723353422085312
      ],
      [
        "nesta",
        -8.725472860050376
      ],
      [
        "dia",
        -8.729572222266624
      ],
      [
        "ĠTe",
        -8.732038889843572
      ],
      [
        "07",
        -8.734659209694541
      ],
      [
        "ĠvotaÃ§Ã£o",
        -8.734932851149484
      ],
      [
        "17",
        -8.736564904240913
      ],
      [
        "Ġim",
        -8.738520298732388
      ],
      [
        "Ġquanto",
        -8.739537250937099
      ],
      [
        "ĠSul",
        -8.741270033861328
      ],
      [
        "16",
        -8.742915311288286
      ],
      [
        "Ġbrasileira",
        -8.742990643941383
      ],
      [
        "ito",
        -8.74403599703676
      ],
      [
        "aprovaÃ§Ã£o",
        -8.744712541701148
      ],
      [
        "ĠPela",
        -8.744770090377632
      ],
      [
        "Ġ30",
        -8.745618972266312
      ],
      [
        "jo",
        -8.745884473585868
      ],
      [
        "ĠPro",
        -8.747414620044907
      ],
      [
        "ĠEsta",
        -8.747774421330952
      ],
      [
        "AR",
        -8.748300383859354
      ],
      [
        "Ġfim",
        -8.75084248108541
      ],
      [
        "neste",
        -8.751414084503295
      ],
      [
        "cl",
        -8.758780590345703
      ],
      [
        "ida",
        -8.761182514723405
      ],
      [
        "ĠperÃŃodo",
        -8.762354996602363
      ],
      [
        "ĠU",
        -8.762640944772093
      ],
      [
        "Ġof",
        -8.765064481512134
      ],
      [
        "ĠHa",
        -8.767208550133546
      ],
      [
        "Ġfa",
        -8.773553380077322
      ],
      [
        "Ġtra",
        -8.774232127922726
      ],
      [
        "tion",
        -8.77759217955307
      ],
      [
        "tas",
        -8.778000819386365
      ],
      [
        "âĢĵ",
        -8.778177441339363
      ],
      [
        "ĠÃºnico",
        -8.779329563261362
      ],
      [
        "ĠhistÃ³ria",
        -8.78035444669151
      ],
      [
        "che",
        -8.782586678858406
      ],
      [
        "Ġ@",
        -8.783456272180818
      ],
      [
        "mor",
        -8.78366565241158
      ],
      [
        "ng",
        -8.784639679412647
      ],
      [
        "Ġtodas",
        -8.784935950039504
      ],
      [
        "Ġfaz",
        -8.785983555040326
      ],
      [
        "ĠinformaÃ§Ãµes",
        -8.78652060496354
      ],
      [
        "gen",
        -8.786708580212995
      ],
      [
        "Ġcor",
        -8.788423737619075
      ],
      [
        "end",
        -8.788519190799395
      ],
      [
        "Ġbase",
        -8.789464614108327
      ],
      [
        "ĠPoder",
        -8.789515586747088
      ],
      [
        "ira",
        -8.78995870269334
      ],
      [
        "Ġpa",
        -8.790124566888956
      ],
      [
        "ĠsaÃºde",
        -8.791186894510085
      ],
      [
        "Ġvezes",
        -8.793939541146505
      ],
      [
        "Ġsocial",
        -8.800654367679392
      ],
      [
        "Ġcausa",
        -8.801963467601295
      ],
      [
        "ĠregiÃ£o",
        -8.803191841042947
      ],
      [
        "ĠtÃ£o",
        -8.804516987828992
      ],
      [
        "K",
        -8.804675046680082
      ],
      [
        "Ġexemplo",
        -8.80905858163755
      ],
      [
        "rio",
        -8.809566099842167
      ],
      [
        "ĠQue",
        -8.811885191060094
      ],
      [
        "Ġfez",
        -8.812684630483622
      ],
      [
        "Ġdiz",
        -8.816347330378038
      ],
      [
        "Ġquero",
        -8.8170176262525
      ],
      [
        "Ġnacional",
        -8.818768451969607
      ],
      [
        "Ġmaio",
        -8.818994135374671
      ],
      [
        "alÃ©m",
        -8.82002237828747
      ],
      [
        "Ġ2007",
        -8.820176334773803
      ],
      [
        "for",
        -8.82025156559108
      ],
      [
        "Ġexternas",
        -8.821229661947466
      ],
      [
        "par",
        -8.821851981657566
      ],
      [
        "06",
        -8.822501412557607
      ],
      [
        "ĠtÃªm",
        -8.82374127201502
      ],
      [
        "50",
        -8.824020862372764
      ],
      [
        "ĠquestÃ£o",
        -8.82534195765808
      ],
      [
        "ĠAn",
        -8.826079055709787
      ],
      [
        "ren",
        -8.827839650465318
      ],
      [
        "ĠLuiz",
        -8.828261787630533
      ],
      [
        "ĠCar",
        -8.828814273643218
      ],
      [
        "Ġempresa",
        -8.829963844583496
      ],
      [
        "Ġpra",
        -8.831073785420736
      ],
      [
        "LigaÃ§Ãµes",
        -8.831167308631933
      ],
      [
        "âĢĿ,",
        -8.831393360196573
      ],
      [
        "Ġ21",
        -8.832835191858416
      ],
      [
        "Ġ23",
        -8.834134788077385
      ],
      [
        "Ġca",
        -8.834211740551059
      ],
      [
        "Ġlugar",
        -8.834271256655803
      ],
      [
        "ĠHo",
        -8.834769419437686
      ],
      [
        "Ġtendo",
        -8.835277438712707
      ],
      [
        "inho",
        -8.836939973628825
      ],
      [
        "Ġpois",
        -8.83816494225807
      ],
      [
        "Ġsu",
        -8.839094667797912
      ],
      [
        "TO",
        -8.840693551389277
      ],
      [
        "ĠTo",
        -8.842130381165083
      ],
      [
        "julho",
        -8.843461311408438
      ],
      [
        "Ġseria",
        -8.843718568990566
      ],
      [
        "Ġpovo",
        -8.847965914832468
      ],
      [
        "ĠExÂª",
        -8.848300143549825
      ],
      [
        "Ġrecurso",
        -8.848471055754752
      ],
      [
        "Ġ25",
        -8.84897159000759
      ],
      [
        "vam",
        -8.849240563584322
      ],
      [
        "mer",
        -8.84931427687003
      ],
      [
        "ton",
        -8.852208094532967
      ],
      [
        "ĠBo",
        -8.85229005810646
      ],
      [
        "inha",
        -8.853005537725283
      ],
      [
        "bar",
        -8.853941937527987
      ],
      [
        "Ġtoda",
        -8.854105935356348
      ],
      [
        "Ð",
        -8.854911417943466
      ],
      [
        "nos",
        -8.855725146211025
      ],
      [
        "Ã¡vel",
        -8.856110171782182
      ],
      [
        "ĠTa",
        -8.858361934966307
      ],
      [
        "30",
        -8.858985929091803
      ],
      [
        "ESSÃĥO",
        -8.859005658780246
      ],
      [
        "Ġestado",
        -8.859222226541892
      ],
      [
        "Ġfor",
        -8.859692154591137
      ],
      [
        "las",
        -8.860180934238787
      ],
      [
        "Ġfavor",
        -8.860392631418389
      ],
      [
        "sentido",
        -8.861969022951211
      ],
      [
        "ĠmunicÃŃpio",
        -8.861999104998445
      ],
      [
        "Ġalguns",
        -8.863408966176241
      ],
      [
        "13",
        -8.864970681513897
      ],
      [
        "setembro",
        -8.865213218103634
      ],
      [
        "Ġ2009",
        -8.86592693568737
      ],
      [
        "and",
        -8.868578105033118
      ],
      [
        "Ġtrata",
        -8.870323962338258
      ],
      [
        "los",
        -8.875369865835342
      ],
      [
        "Ġ:(",
        -8.877106727269643
      ],
      [
        "Ġ22",
        -8.877250042847514
      ],
      [
        "Ġvou",
        -8.877894534490103
      ],
      [
        "Ġsabe",
        -8.87965691608606
      ],
      [
        "Ġnem",
        -8.882909070139387
      ],
      [
        "Ġba",
        -8.883230403523843
      ],
      [
        "ĠJu",
        -8.889776684372402
      ],
      [
        "Ġpodem",
        -8.889826317437503
      ],
      [
        "EL",
        -8.890806705244607
      ],
      [
        "art",
        -8.891155117865566
      ],
      [
        "Â°",
        -8.89194517242699
      ],
      [
        "dispÃµe",
        -8.89316462922643
      ],
      [
        "Ġuso",
        -8.894939347079822
      ],
      [
        "Ġquem",
        -8.895899041795106
      ],
      [
        "ĠDi",
        -8.897036756007285
      ],
      [
        "Ġ2008",
        -8.897850604820368
      ],
      [
        "Ġpe",
        -8.898878680868464
      ],
      [
        "Ġnada",
        -8.899018821615408
      ],
      [
        "Ġsociedade",
        -8.899464329833297
      ],
      [
        "Ġcoisa",
        -8.899978297484724
      ],
      [
        "Ġbom",
        -8.900151225104436
      ],
      [
        "amento",
        -8.900285253843684
      ],
      [
        "Ġnova",
        -8.900634735059338
      ],
      [
        "Ġ28",
        -8.900922813709402
      ],
      [
        "Ġtipo",
        -8.90250270805315
      ],
      [
        "Ġmedida",
        -8.902851307094195
      ],
      [
        "Ġmesma",
        -8.906154776887874
      ],
      [
        "lho",
        -8.90620090462541
      ],
      [
        "Ġdata",
        -8.906693321519562
      ],
      [
        "Muito",
        -8.907443482907766
      ],
      [
        "junho",
        -8.908240350569212
      ],
      [
        "04",
        -8.909585802288486
      ],
      [
        "Art",
        -8.910478114255913
      ],
      [
        "ĠGo",
        -8.91117458652557
      ],
      [
        "temos",
        -8.912133661305054
      ],
      [
        "Ġdisso",
        -8.913557959980354
      ],
      [
        "UTC",
        -8.9156409548399
      ],
      [
        "Ġtenho",
        -8.915687358335687
      ],
      [
        "gar",
        -8.915901824191693
      ],
      [
        "Ġ2006",
        -8.916699808500317
      ],
      [
        "DE",
        -8.916901430061804
      ],
      [
        "Ġteve",
        -8.917984994109572
      ],
      [
        "ry",
        -8.91865899052017
      ],
      [
        "ĠEla",
        -8.91897206615587
      ],
      [
        "ĠGrande",
        -8.919235132595427
      ],
      [
        "ante",
        -8.921030887563221
      ],
      [
        "ĠVamos",
        -8.92174594433883
      ],
      [
        "ĠÃºltimo",
        -8.924019465886214
      ],
      [
        "tes",
        -8.924386892617688
      ],
      [
        "ĠLu",
        -8.925082116537196
      ],
      [
        "Ġestou",
        -8.92725600488217
      ],
      [
        "ĠSanta",
        -8.928494651502373
      ],
      [
        "ĠJa",
        -8.929176016429308
      ],
      [
        "Decreto",
        -8.930085345569582
      ],
      [
        "ĠAr",
        -8.93047684689432
      ],
      [
        "DI",
        -8.930536626497538
      ],
      [
        "Exa",
        -8.934144751916154
      ],
      [
        "ino",
        -8.936618691268723
      ],
      [
        "Ġdesenvolvimento",
        -8.938417378428445
      ],
      [
        "Ġconstitucional",
        -8.939520674926381
      ],
      [
        "lin",
        -8.943301189020717
      ],
      [
        "Ġquais",
        -8.947996550671347
      ],
      [
        "via",
        -8.948080160751752
      ],
      [
        "tica",
        -8.949541339443913
      ],
      [
        "W",
        -8.953495035628643
      ],
      [
        "000",
        -8.953945459817024
      ],
      [
        "Ġvamos",
        -8.956572348837023
      ],
      [
        "Ġestar",
        -8.956905006428114
      ],
      [
        "Ġ2011",
        -8.958435701319983
      ],
      [
        "ĠLo",
        -8.95950561879113
      ],
      [
        "Ġoutra",
        -8.96209742832412
      ],
      [
        "Ġ26",
        -8.97143386563202
      ],
      [
        "ĠGa",
        -8.972007376587833
      ],
      [
        "ine",
        -8.972108053314027
      ],
      [
        "ang",
        -8.973641791977608
      ],
      [
        "ber",
        -8.977593580991007
      ],
      [
        "Ġsub",
        -8.978732411684057
      ],
      [
        "chi",
        -8.979067781539626
      ],
      [
        "ĠmarÃ§o",
        -8.98097183954759
      ],
      [
        "missÃ£o",
        -8.981437902987205
      ],
      [
        "ĠMu",
        -8.982331852766473
      ],
      [
        "Ġ2010",
        -8.98268775029679
      ],
      [
        "2015",
        -8.98315208373749
      ],
      [
        "Ġpessoa",
        -8.983413173426452
      ],
      [
        "02",
        -8.983539785825194
      ],
      [
        "ĠJaneiro",
        -8.984986935643779
      ],
      [
        "Ġagosto",
        -8.986984251751585
      ],
      [
        "Ġoutubro",
        -8.98725467558458
      ],
      [
        "14",
        -8.987804734007103
      ],
      [
        "Ġvolta",
        -8.988154121587455
      ],
      [
        "ide",
        -8.988450874213424
      ],
      [
        "DA",
        -8.990104824243552
      ],
      [
        "ĠBe",
        -8.992438431250696
      ],
      [
        "TE",
        -8.992676273433101
      ],
      [
        "Ġtexto",
        -8.99291889097941
      ],
      [
        "tÃ¡",
        -8.993613609422503
      ],
      [
        "ĠEx",
        -8.994415160274414
      ],
      [
        "Ġinter",
        -8.99455057971111
      ],
      [
        "US",
        -8.995575859735188
      ],
      [
        "por",
        -8.995658854195042
      ],
      [
        "Ġdis",
        -8.996842508849678
      ],
      [
        "Ġlado",
        -8.99713110792744
      ],
      [
        "ral",
        -8.997598965455607
      ],
      [
        "PMDB",
        -8.9992370905322
      ],
      [
        "lia",
        -9.002239040112885
      ],
      [
        "Ġfi",
        -9.003414514111867
      ],
      [
        "ĠIII",
        -9.003821975407128
      ],
      [
        "Ġfeito",
        -9.005604246011321
      ],
      [
        "ĠprÃ³prio",
        -9.005816638270025
      ],
      [
        "IS",
        -9.006539587737823
      ],
      [
        "ĠEduardo",
        -9.008021426769195
      ],
      [
        "ka",
        -9.008690568529026
      ],
      [
        "Y",
        -9.010121330407213
      ],
      [
        "Ġhavia",
        -9.011895453007996
      ],
      [
        "Ġsi",
        -9.012511376730204
      ],
      [
        "Ġdessa",
        -9.015179954708731
      ],
      [
        "RE",
        -9.016240876733
      ],
      [
        "ĠEstÃ¡",
        -9.01634855435806
      ],
      [
        "cho",
        -9.017839591314823
      ],
      [
        "Ġ2005",
        -9.01873599202515
      ],
      [
        "ĠEste",
        -9.020726150456804
      ],
      [
        "Ġabril",
        -9.020829877237674
      ],
      [
        "dio",
        -9.021959572329113
      ],
      [
        "ĠtÃ©cnica",
        -9.022653978120498
      ],
      [
        "Ġempresas",
        -9.023223216837536
      ],
      [
        "ĠJo",
        -9.027627304830414
      ],
      [
        "Ġcons",
        -9.027854091572502
      ],
      [
        "Ġprincipal",
        -9.028318634034038
      ],
      [
        "pen",
        -9.028541252969449
      ],
      [
        "Ãģ",
        -9.028929642191391
      ],
      [
        "Ġjaneiro",
        -9.02966144716763
      ],
      [
        "Ġpresidente",
        -9.031748445079522
      ],
      [
        "Ġsim",
        -9.032036064408391
      ],
      [
        "habitantes",
        -9.032403919266388
      ],
      [
        "tivo",
        -9.032451747731974
      ],
      [
        "ĠBu",
        -9.033088625728183
      ],
      [
        "RI",
        -9.034364272144714
      ],
      [
        "Ġal",
        -9.034522410879454
      ],
      [
        "ĠMi",
        -9.035255683862822
      ],
      [
        "://",
        -9.035491353242664
      ],
      [
        "Ġnum",
        -9.036824252638148
      ],
      [
        "TA",
        -9.0403281610025
      ],
      [
        "Ġnovembro",
        -9.041123177029643
      ],
      [
        "Q",
        -9.04237563650209
      ],
      [
        "Ġsei",
        -9.042575054525662
      ],
      [
        "ĠtÃŃtulo",
        -9.043822477141314
      ],
      [
        "ĠPARECER",
        -9.044259605469138
      ],
      [
        "ste",
        -9.045505138237935
      ],
      [
        "Ġpu",
        -9.045565062204687
      ],
      [
        "den",
        -9.046043549917847
      ],
      [
        "ĠcondiÃ§Ãµes",
        -9.0491281130754
      ],
      [
        "Ġsemana",
        -9.049694331030596
      ],
      [
        "ĠproduÃ§Ã£o",
        -9.04970218343472
      ],
      [
        "Ã¡rio",
        -9.050816928638149
      ],
      [
        "Ġ27",
        -9.051534579476192
      ],
      [
        "ĠRE",
        -9.053936893581277
      ],
      [
        "Ġtanto",
        -9.054449130550044
      ],
      [
        "Ġprecisa",
        -9.055409040543228
      ],
      [
        "ĠSala",
        -9.055684265580387
      ],
      [
        "ĠsituaÃ§Ã£o",
        -9.055929916772108
      ],
      [
        "98",
        -9.056571718498846
      ],
      [
        "ense",
        -9.057669157698433
      ],
      [
        "ĠseguranÃ§a",
        -9.060061306662544
      ],
      [
        "ĠÃ¡gua",
        -9.06018435589637
      ],
      [
        "Ġan",
        -9.061255227287052
      ],
      [
        "NÃ³s",
        -9.061292830001046
      ],
      [
        "tura",
        -9.063509421873388
      ],
      [
        "ĠSu",
        -9.0635817154849
      ],
      [
        "Ã©m",
        -9.063900961197795
      ],
      [
        "MunicÃŃpio",
        -9.063965112170358
      ],
      [
        "OR",
        -9.06541422496535
      ],
      [
        "cional",
        -9.06578871933938
      ],
      [
        "40",
        -9.069170125509338
      ],
      [
        "Ġfalar",
        -9.069557053121034
      ],
      [
        "ĠPre",
        -9.07189577326965
      ],
      [
        "EN",
        -9.071966212371988
      ],
      [
        "ĠMin",
        -9.072895961809769
      ],
      [
        "Ġvista",
        -9.076686684591545
      ],
      [
        "Ġtenha",
        -9.077847278336495
      ],
      [
        "ner",
        -9.07876818044964
      ],
      [
        "2013",
        -9.08179856141538
      ],
      [
        "ĠDr",
        -9.08280901734684
      ],
      [
        "ĠEssa",
        -9.084433954245098
      ],
      [
        "ler",
        -9.0849395800307
      ],
      [
        "estamos",
        -9.085450211089077
      ],
      [
        "PSB",
        -9.085797790202102
      ],
      [
        "Ġdesse",
        -9.087758538208126
      ],
      [
        "Ġpena",
        -9.087837687102184
      ],
      [
        "ĠNe",
        -9.088482357580803
      ],
      [
        "pro",
        -9.089281065262377
      ],
      [
        "ke",
        -9.091494738213427
      ],
      [
        "ĠEmenda",
        -9.092067911360228
      ],
      [
        "Ġpai",
        -9.092694132393012
      ],
      [
        "CE",
        -9.095411689611176
      ],
      [
        "Regimento",
        -9.096268864878985
      ],
      [
        "ard",
        -9.096723384843845
      ],
      [
        "Ġat",
        -9.096796865619105
      ],
      [
        "ĠUma",
        -9.09685131393973
      ],
      [
        "ĠeducaÃ§Ã£o",
        -9.101482550014714
      ],
      [
        "ĠEsse",
        -9.102862580151644
      ],
      [
        "46",
        -9.103623347199123
      ],
      [
        "Ġce",
        -9.105707929895516
      ],
      [
        "X",
        -9.105806033813185
      ],
      [
        "Ġ2013",
        -9.106613440490236
      ],
      [
        "Ġverdade",
        -9.10759986132129
      ],
      [
        "ĠinÃŃcio",
        -9.107800512573192
      ],
      [
        "NE",
        -9.108936626141038
      ],
      [
        "Ġquatro",
        -9.109001927942176
      ],
      [
        "Ġenquanto",
        -9.109580051926676
      ],
      [
        "SP",
        -9.109691929193849
      ],
      [
        "providÃªncias",
        -9.113309389524746
      ],
      [
        "Ġar",
        -9.113723512943048
      ],
      [
        "Ġrespeito",
        -9.11402187681953
      ],
      [
        "Ġcargo",
        -9.11435783949628
      ],
      [
        "sessÃ£o",
        -9.115229236934235
      ],
      [
        "Ġlocal",
        -9.11809154884104
      ],
      [
        "Ġobjetivo",
        -9.119483672827556
      ],
      [
        "Ġtu",
        -9.12098180358445
      ],
      [
        "Ġponto",
        -9.121571074632286
      ],
      [
        "Ġfevereiro",
        -9.12169481220397
      ],
      [
        "tico",
        -9.122617095559182
      ],
      [
        "feira",
        -9.124048749247535
      ],
      [
        "istas",
        -9.126396953663466
      ],
      [
        "Ġdentro",
        -9.12741297687784
      ],
      [
        "Ġvota",
        -9.127515376462128
      ],
      [
        "Supremo",
        -9.12891194592528
      ],
      [
        "¢",
        -9.129132215045855
      ],
      [
        "Ġdemais",
        -9.129360381868608
      ],
      [
        "ĠMaria",
        -9.129917104610184
      ],
      [
        "2011",
        -9.129936529161691
      ],
      [
        "Deputada",
        -9.132721186321769
      ],
      [
        "Ġhoras",
        -9.13398224471524
      ],
      [
        "ador",
        -9.134681379786416
      ],
      [
        "ĠBi",
        -9.135668147350977
      ],
      [
        "bre",
        -9.138976717714412
      ],
      [
        "ĠsÃ©rie",
        -9.139119100986754
      ],
      [
        "Ġbo",
        -9.140893691082844
      ],
      [
        "ĠFi",
        -9.14192265586571
      ],
      [
        "Ġmim",
        -9.142177774825193
      ],
      [
        "Ġapoio",
        -9.142647641364649
      ],
      [
        "ĠPresidÃªncia",
        -9.143443403605032
      ],
      [
        "ĠInterno",
        -9.14356012247171
      ],
      [
        "Ġ2012",
        -9.143701893114352
      ],
      [
        "ido",
        -9.145735521788572
      ],
      [
        "ĠÃĢ",
        -9.14582026556453
      ],
      [
        "ju",
        -9.148199013625051
      ],
      [
        "port",
        -9.148831866886912
      ],
      [
        "Ġtotal",
        -9.15424661687162
      ],
      [
        "Ġpesquisa",
        -9.155473011727574
      ],
      [
        "Ġtrans",
        -9.15553478736975
      ],
      [
        "ĠPÃºblico",
        -9.158741309094154
      ],
      [
        "ki",
        -9.1591575151977
      ],
      [
        "Ġ29",
        -9.15948623416876
      ],
      [
        "ĠpossÃŃvel",
        -9.160626488630658
      ],
      [
        "iro",
        -9.160940989918169
      ],
      [
        "criaÃ§Ã£o",
        -9.161978574576572
      ],
      [
        "Ġ2004",
        -9.163212074344916
      ],
      [
        "ĠBrasÃŃlia",
        -9.163356092822973
      ],
      [
        "Ġespecial",
        -9.163965728727304
      ],
      [
        "nia",
        -9.165535407078687
      ],
      [
        "ĠUnidos",
        -9.165886188148288
      ],
      [
        "PDT",
        -9.166418648777384
      ],
      [
        "ĠY",
        -9.16759333270229
      ],
      [
        "Ġfalta",
        -9.169554667091282
      ],
      [
        "Ġfilme",
        -9.169705157979374
      ],
      [
        "Ġconforme",
        -9.17028448372709
      ],
      [
        "ĠTurma",
        -9.172123922264795
      ],
      [
        "nes",
        -9.173078627118423
      ],
      [
        "Ġnunca",
        -9.174386369780464
      ],
      [
        "ĠConselho",
        -9.175907335726514
      ],
      [
        "Ġparecer",
        -9.177079594488069
      ],
      [
        "ĠpaÃŃses",
        -9.177456261809192
      ],
      [
        "sen",
        -9.18141536128571
      ],
      [
        "97",
        -9.181569849086678
      ],
      [
        "Ġproblema",
        -9.181739113345522
      ],
      [
        "Ġcerca",
        -9.182558764955148
      ],
      [
        "ger",
        -9.182832494943709
      ],
      [
        "ras",
        -9.18334427395065
      ],
      [
        "Ã¡ria",
        -9.184016549889504
      ],
      [
        "ĠQuando",
        -9.184079480375884
      ],
      [
        "ĠMan",
        -9.184400448546484
      ],
      [
        "Ġalgo",
        -9.185549634630531
      ],
      [
        "Ġjogo",
        -9.186246584601776
      ],
      [
        "ĠUniversidade",
        -9.186462588200564
      ],
      [
        "Ġmembro",
        -9.187202322738704
      ],
      [
        "ava",
        -9.190198724488624
      ],
      [
        "ĠmÃºsica",
        -9.19037803657242
      ],
      [
        "Ġfora",
        -9.19042544546358
      ],
      [
        "ON",
        -9.19316661778921
      ],
      [
        "Ġobrigado",
        -9.194612766770328
      ],
      [
        "ĠsÃ©culo",
        -9.194675554629017
      ],
      [
        "ĠNO",
        -9.194949287329386
      ],
      [
        "ex",
        -9.195951090123248
      ],
      [
        "defesa",
        -9.195981441438896
      ],
      [
        "ĠSilva",
        -9.199757914201932
      ],
      [
        "ĠforÃ§a",
        -9.2011340270973
      ],
      [
        "devido",
        -9.201322292603884
      ],
      [
        "Ġequipe",
        -9.20135948384491
      ],
      [
        "Ġcinco",
        -9.201629326329709
      ],
      [
        "ura",
        -9.201741144668937
      ],
      [
        "ĠEducaÃ§Ã£o",
        -9.202152303876067
      ],
      [
        "Ġsou",
        -9.202731057719571
      ],
      [
        "ĠPi",
        -9.20310485211988
      ],
      [
        "ĠPedro",
        -9.205621896828424
      ],
      [
        "CÃ³digo",
        -9.205731563068706
      ],
      [
        "registro",
        -9.208371502007829
      ],
      [
        "Ġ2015",
        -9.208910307166605
      ],
      [
        "ĠatravÃ©s",
        -9.209703423091158
      ],
      [
        "Ġregimental",
        -9.21028190228367
      ],
      [
        "Ġdireitos",
        -9.211459369633737
      ],
      [
        "25",
        -9.21306173015686
      ],
      [
        "izaÃ§Ã£o",
        -9.214407009407251
      ],
      [
        "Ġsegunda",
        -9.215711123803525
      ],
      [
        "âĢĻ",
        -9.215826041962988
      ],
      [
        "ĠZ",
        -9.216864098667331
      ],
      [
        "Ġpelas",
        -9.21802229869414
      ],
      [
        "Ġficar",
        -9.21812234665447
      ],
      [
        "tanto",
        -9.218129239274136
      ],
      [
        "ĠOliveira",
        -9.218540516255722
      ],
      [
        "PlenÃ¡rio",
        -9.218902926232095
      ],
      [
        "Ġfica",
        -9.21908968817405
      ],
      [
        "Ġluta",
        -9.21921196794427
      ],
      [
        "ĠTem",
        -9.219369590279458
      ],
      [
        "cas",
        -9.220131137344032
      ],
      [
        "Ġpedido",
        -9.220181450908733
      ],
      [
        "¼",
        -9.22053341773378
      ],
      [
        "Ġmi",
        -9.22154701323096
      ],
      [
        "one",
        -9.222452805959716
      ],
      [
        "IN",
        -9.225954370455336
      ],
      [
        "ĠDia",
        -9.22661277936064
      ],
      [
        "Ġrealizada",
        -9.228269210557215
      ],
      [
        "ĠTotal",
        -9.228924994625796
      ],
      [
        "taÃ§Ã£o",
        -9.229798015977508
      ],
      [
        "val",
        -9.230593012395056
      ],
      [
        "ĠKa",
        -9.231164031449206
      ],
      [
        "Ġkm",
        -9.231263268990736
      ],
      [
        "Ġmorte",
        -9.23138606880312
      ],
      [
        "ĠMA",
        -9.232586917396118
      ],
      [
        "nÃ§a",
        -9.23313320366382
      ],
      [
        "Ġvem",
        -9.233549308668197
      ],
      [
        "Ġthe",
        -9.23371025607563
      ],
      [
        "ĠSt",
        -9.237881944179934
      ],
      [
        "ĠJÃ¡",
        -9.238150275400285
      ],
      [
        "up",
        -9.238292680296736
      ],
      [
        "Ġfazendo",
        -9.238826551094968
      ],
      [
        "tÃ£o",
        -9.238896271238964
      ],
      [
        "Ġ2003",
        -9.238928662649856
      ],
      [
        "agem",
        -9.241681930069642
      ],
      [
        "LA",
        -9.242401163578004
      ],
      [
        "ĠprÃ³pria",
        -9.242473823412247
      ],
      [
        "Ġobjeto",
        -9.24396896343072
      ],
      [
        "ais",
        -9.24421307895692
      ],
      [
        "96",
        -9.244923566949584
      ],
      [
        "ĠrazÃ£o",
        -9.246934144129412
      ],
      [
        "ly",
        -9.24746582569043
      ],
      [
        "bel",
        -9.248392384101738
      ],
      [
        "vÃ¡rios",
        -9.25151259098248
      ],
      [
        "iano",
        -9.25193054944326
      ],
      [
        "serviÃ§os",
        -9.252108186332793
      ],
      [
        "ĠexercÃŃcio",
        -9.253270465705798
      ],
      [
        "CO",
        -9.253501551999651
      ],
      [
        "Ġali",
        -9.25354927833983
      ],
      [
        "Ġacesso",
        -9.253623733630212
      ],
      [
        "ĠSaÃºde",
        -9.255130045484655
      ],
      [
        "Ġmeses",
        -9.255581672984716
      ],
      [
        "ĠSocial",
        -9.255745553894744
      ],
      [
        "origem",
        -9.255776550862
      ],
      [
        "RO",
        -9.256409888833684
      ],
      [
        "28",
        -9.256750324807715
      ],
      [
        "ĠPer",
        -9.256815150263886
      ],
      [
        "Ġmercado",
        -9.257021237139991
      ],
      [
        "Executivo",
        -9.25723541435269
      ],
      [
        "IA",
        -9.261751178551698
      ],
      [
        "Ġobra",
        -9.264225210249496
      ],
      [
        "ĠÃ©poca",
        -9.26459629494603
      ],
      [
        "88",
        -9.265352444962314
      ],
      [
        "rÃ£o",
        -9.268592903420208
      ],
      [
        "Ġatividade",
        -9.26982126665624
      ],
      [
        "Ġcrime",
        -9.271551891583131
      ],
      [
        "ĠSegundo",
        -9.271789010600012
      ],
      [
        "Ġgeral",
        -9.272492365870786
      ],
      [
        "AlÃ©m",
        -9.275478924954104
      ],
      [
        "ĠFilho",
        -9.276235204695825
      ],
      [
        "ĠAgora",
        -9.277018486113134
      ],
      [
        "Ġpassa",
        -9.277578367820489
      ],
      [
        "tem",
        -9.277757483158233
      ],
      [
        "Ġfilho",
        -9.277772171849977
      ],
      [
        "PTB",
        -9.277962826117236
      ],
      [
        "Ġinclusive",
        -9.278306527205952
      ],
      [
        "nho",
        -9.278368700888077
      ],
      [
        "ĠPP",
        -9.27851955081722
      ],
      [
        "Ãī",
        -9.279688420190114
      ],
      [
        "her",
        -9.280131434901463
      ],
      [
        "Ġ2014",
        -9.280283704697275
      ],
      [
        "ĠVI",
        -9.2813749504192
      ],
      [
        "ĠSra",
        -9.2848720224911
      ],
      [
        "\")",
        -9.285322060678508
      ],
      [
        "bilidade",
        -9.285704138176442
      ],
      [
        "Ġfosse",
        -9.287645967378548
      ],
      [
        "Ġmal",
        -9.289274532123398
      ],
      [
        "Ġab",
        -9.289292982236612
      ],
      [
        "radiodifusÃ£o",
        -9.290264169602109
      ],
      [
        "Ġdados",
        -9.290647799812174
      ],
      [
        "CI",
        -9.291089560898744
      ],
      [
        "Ġinteresse",
        -9.291499987656389
      ],
      [
        "ĠpolÃŃtico",
        -9.291817947113628
      ],
      [
        "2000",
        -9.29349502142528
      ],
      [
        "Ġpagamento",
        -9.293647790770882
      ],
      [
        "Ġquase",
        -9.294730145031016
      ],
      [
        "Ġpartido",
        -9.295211820064663
      ],
      [
        "uma",
        -9.295701788064886
      ],
      [
        "ĠHe",
        -9.295875863040273
      ],
      [
        "Ġqualidade",
        -9.296069239375113
      ],
      [
        "Ġlegal",
        -9.29658174632106
      ],
      [
        "29",
        -9.297509876892734
      ],
      [
        "Ġesses",
        -9.298969833809734
      ],
      [
        "Ġalgumas",
        -9.29996888380188
      ],
      [
        "STF",
        -9.30118597554019
      ],
      [
        "ĠDeus",
        -9.3034276697549
      ],
      [
        "The",
        -9.303595452368205
      ],
      [
        "Ġnecessidade",
        -9.303752753045025
      ],
      [
        "2008",
        -9.304704543246544
      ],
      [
        "Ġ2016",
        -9.30553647821245
      ],
      [
        "para",
        -9.313161205215
      ],
      [
        "Ġminutos",
        -9.313431812972514
      ],
      [
        "ĠThe",
        -9.313642394567376
      ],
      [
        "22",
        -9.314554219213877
      ],
      [
        "serÃ£o",
        -9.318015067312407
      ],
      [
        "Ġmaioria",
        -9.319270689967375
      ],
      [
        "27",
        -9.320289590974667
      ],
      [
        "ĥ",
        -9.322174686108138
      ],
      [
        "Ġemenda",
        -9.322757854853858
      ],
      [
        "Ġpoderia",
        -9.323014389481308
      ],
      [
        "Ġatual",
        -9.323214448388532
      ],
      [
        "Ġtema",
        -9.324406757541608
      ],
      [
        "ĠnecessÃ¡rio",
        -9.325162070631642
      ],
      [
        "raÃ§Ã£o",
        -9.325801971714474
      ],
      [
        "SE",
        -9.326000012259314
      ],
      [
        "Ġboa",
        -9.326455959197736
      ],
      [
        "bal",
        -9.326489364818256
      ],
      [
        "2007",
        -9.32757974407955
      ],
      [
        "ĠCiÃªncia",
        -9.328824517782255
      ],
      [
        "ĠEn",
        -9.32989689093115
      ],
      [
        "Ġdinheiro",
        -9.33107968136419
      ],
      [
        "IO",
        -9.331276598872297
      ],
      [
        "Ġvo",
        -9.33220682165642
      ],
      [
        "Ġmodo",
        -9.33284178294617
      ],
      [
        "Ġformula",
        -9.333296742525
      ],
      [
        "Ġcerto",
        -9.33329759870854
      ],
      [
        "Ġconhecido",
        -9.33426758412374
      ],
      [
        "Ġfala",
        -9.334733958813285
      ],
      [
        "ologia",
        -9.336950008417691
      ],
      [
        "Ġpossa",
        -9.337041816730329
      ],
      [
        "Ġnuma",
        -9.337776342385428
      ],
      [
        "Ġ31",
        -9.33838933089583
      ],
      [
        ".âĢĿ",
        -9.340436421668112
      ],
      [
        "Ġrequerimento",
        -9.34158000893442
      ],
      [
        "ĠTi",
        -9.342852220433798
      ],
      [
        "26",
        -9.343519534947738
      ],
      [
        "aumento",
        -9.343534376467632
      ],
      [
        "ĠHÃ¡",
        -9.346252334077262
      ],
      [
        "Ġnesse",
        -9.346781267085612
      ],
      [
        "ff",
        -9.34758738153663
      ],
      [
        "nÃŃvel",
        -9.348520446340936
      ],
      [
        ");",
        -9.349108682750623
      ],
      [
        "01",
        -9.349428889216368
      ],
      [
        "Ġproduto",
        -9.35007287357369
      ],
      [
        "Ġensino",
        -9.35160223259834
      ],
      [
        "https",
        -9.352034004953692
      ],
      [
        "Ġho",
        -9.35370505853817
      ],
      [
        "agravo",
        -9.35427879295891
      ],
      [
        "Ġsolicita",
        -9.354435083846338
      ],
      [
        "Ġnorte",
        -9.35654384965087
      ],
      [
        "Ġdeixar",
        -9.35747821888626
      ],
      [
        "nas",
        -9.358063180973698
      ],
      [
        "ĠNova",
        -9.358068046569183
      ],
      [
        "Ġfr",
        -9.358134605192848
      ],
      [
        "2010",
        -9.358483051025216
      ],
      [
        "ĠEM",
        -9.359378404501667
      ],
      [
        "Ġprova",
        -9.35957587479892
      ],
      [
        "ĠPrograma",
        -9.359730530997744
      ],
      [
        "Ġmar",
        -9.360334600764617
      ],
      [
        "land",
        -9.360481763010004
      ],
      [
        "Ġjunto",
        -9.360490600278062
      ],
      [
        "Ġreforma",
        -9.361457400741486
      ],
      [
        "ĠRi",
        -9.361938745484498
      ],
      [
        "ĠprÃ¡tica",
        -9.362741695118872
      ],
      [
        "anÃ¡lise",
        -9.36403676819799
      ],
      [
        "ĠreuniÃ£o",
        -9.36438522274726
      ],
      [
        "Ġcampo",
        -9.364821921941878
      ],
      [
        "Ġeram",
        -9.365483995791598
      ],
      [
        "ĠÃºltima",
        -9.36550410301962
      ],
      [
        "Ġmuitas",
        -9.366351855245206
      ],
      [
        "ĠAssim",
        -9.367314879466358
      ],
      [
        "Ġnoite",
        -9.367549897491385
      ],
      [
        "ĠmÃ£e",
        -9.36863518811466
      ],
      [
        "ĠLÃŃder",
        -9.36997720268521
      ],
      [
        "somente",
        -9.370828589625154
      ],
      [
        "ĠLula",
        -9.371767439520449
      ],
      [
        "ĠCha",
        -9.373087918087815
      ],
      [
        "Ġ(\"",
        -9.374457729504291
      ],
      [
        "press",
        -9.375140408331193
      ],
      [
        "Ġgrandes",
        -9.377383183312832
      ],
      [
        "ow",
        -9.377412825299446
      ],
      [
        "redaÃ§Ã£o",
        -9.37757481071284
      ],
      [
        "ĠParecer",
        -9.378620212336704
      ],
      [
        "entanto",
        -9.37883755700256
      ],
      [
        "Ġsuperior",
        -9.37973033948909
      ],
      [
        "ĠSua",
        -9.381105490789697
      ],
      [
        "ĠLegislativo",
        -9.38147626853248
      ],
      [
        "altera",
        -9.382201458561736
      ],
      [
        "AÃĩÃĥO",
        -9.383440649315936
      ],
      [
        "Ġfeita",
        -9.38348490579071
      ],
      [
        "Ġhomem",
        -9.383506727158132
      ],
      [
        "Ġcontrato",
        -9.384200516164755
      ],
      [
        "ĠparticipaÃ§Ã£o",
        -9.38428071962883
      ],
      [
        "ĠPÃºblica",
        -9.38458031344445
      ],
      [
        "90",
        -9.38886186772614
      ],
      [
        "Ġoficial",
        -9.391618671671518
      ],
      [
        "PE",
        -9.3935048759205
      ],
      [
        "Ġcontrole",
        -9.393884836028338
      ],
      [
        "Ġtarde",
        -9.394588281208009
      ],
      [
        "ĠcrÃ©dito",
        -9.3954582679078
      ],
      [
        "Ġessas",
        -9.396040822024506
      ],
      [
        "Ġlongo",
        -9.396403701823347
      ],
      [
        "Ġliga",
        -9.39782934251323
      ],
      [
        "Ġir",
        -9.39864054978345
      ],
      [
        "Ġregime",
        -9.398742400843147
      ],
      [
        "cada",
        -9.399463623670629
      ],
      [
        "ĠFernando",
        -9.402844493792506
      ],
      [
        "ĠRoberto",
        -9.40538545418321
      ],
      [
        "if",
        -9.40558285414791
      ],
      [
        "ĠAssociaÃ§Ã£o",
        -9.406006883709257
      ],
      [
        "99",
        -9.409266516509703
      ],
      [
        "ĠlegislaÃ§Ã£o",
        -9.40941833589938
      ],
      [
        "Ġ100",
        -9.409982450219765
      ],
      [
        "ĠTrabalho",
        -9.410708856280626
      ],
      [
        "NO",
        -9.41113056162868
      ],
      [
        "Ġacho",
        -9.41169436552204
      ],
      [
        "Ġbrasileiros",
        -9.41172422460994
      ],
      [
        "ĠSÃ³",
        -9.41270599908553
      ],
      [
        "ban",
        -9.414444280633202
      ],
      [
        "Ġjulgamento",
        -9.415040396421498
      ],
      [
        "tt",
        -9.4158842657149
      ],
      [
        "ĠdiscussÃ£o",
        -9.415951060565371
      ],
      [
        "36",
        -9.416806457301066
      ],
      [
        "ĠpublicaÃ§Ã£o",
        -9.42004917731164
      ],
      [
        "ĠaÃŃ",
        -9.422223565768274
      ],
      [
        "Ġsaber",
        -9.42226542022415
      ],
      [
        "ĠBar",
        -9.422386304940757
      ],
      [
        "45",
        -9.423111202404057
      ],
      [
        "Ġpreciso",
        -9.42359900753718
      ],
      [
        "PR",
        -9.42395409542182
      ],
      [
        "ĠMaia",
        -9.425453480281485
      ],
      [
        "Ġmuitos",
        -9.426674241671469
      ],
      [
        "38",
        -9.426690908750894
      ],
      [
        "passou",
        -9.427248093530334
      ],
      [
        "â",
        -9.427595417521871
      ],
      [
        "Ġ50",
        -9.42870482504573
      ],
      [
        "ĠCor",
        -9.429571363806804
      ],
      [
        "economia",
        -9.429659411108371
      ],
      [
        "relatÃ³rio",
        -9.431117427255204
      ],
      [
        "mas",
        -9.43140250467154
      ],
      [
        "ĠBem",
        -9.431925064314198
      ],
      [
        "Ġsetor",
        -9.432787337428858
      ],
      [
        "ĠextraordinÃ¡rio",
        -9.433129250053543
      ],
      [
        "ĠDEM",
        -9.43313251855431
      ],
      [
        "ĠCol",
        -9.434467404490649
      ],
      [
        "Ġaltera",
        -9.434925324607438
      ],
      [
        "let",
        -9.436694725688032
      ],
      [
        "vis",
        -9.437909864260677
      ],
      [
        "ĠVice",
        -9.438023455076925
      ],
      [
        "ME",
        -9.439889225372385
      ],
      [
        "Ġterra",
        -9.440609181221284
      ],
      [
        "ez",
        -9.440773998538472
      ],
      [
        "Ġencontra",
        -9.440839195282754
      ],
      [
        "Ġpar",
        -9.440998617757042
      ],
      [
        "Ġlhe",
        -9.44101561058222
      ],
      [
        "35",
        -9.442076618355944
      ],
      [
        "Ġconstante",
        -9.442297990019872
      ],
      [
        "Ġfo",
        -9.442555916219067
      ],
      [
        "mulheres",
        -9.44313949338737
      ],
      [
        "Ġenergia",
        -9.4434326848228
      ],
      [
        "conjunto",
        -9.44383286647917
      ],
      [
        "23",
        -9.444225810823475
      ],
      [
        "ĠconstruÃ§Ã£o",
        -9.445887764732566
      ],
      [
        "mÃŃnimo",
        -9.446547824020936
      ],
      [
        "ĠPortugal",
        -9.446726771313507
      ],
      [
        "realizaÃ§Ã£o",
        -9.447002016441852
      ],
      [
        "NA",
        -9.451123269575683
      ],
      [
        "2012",
        -9.451218450862608
      ],
      [
        "ĠcrianÃ§as",
        -9.451515333840527
      ],
      [
        "ĠGu",
        -9.451714758591793
      ],
      [
        "ĠMarco",
        -9.45176141145391
      ],
      [
        "ĠDu",
        -9.452163695619612
      ],
      [
        "Ġlinha",
        -9.452165222314104
      ],
      [
        "ĠSP",
        -9.45291338132862
      ],
      [
        "Ġmaneira",
        -9.454971060173673
      ],
      [
        "ĠX",
        -9.455620771075123
      ],
      [
        "ĠÃ¡lbum",
        -9.45573923280934
      ],
      [
        "Ġpossui",
        -9.456232409503023
      ],
      [
        "ĠespÃ©cie",
        -9.456246110960514
      ],
      [
        "tando",
        -9.457281715883964
      ],
      [
        "Ġautor",
        -9.458273862524551
      ],
      [
        "ĠPode",
        -9.45827429531812
      ],
      [
        "ĠCam",
        -9.458726426802713
      ],
      [
        "gan",
        -9.458849613122666
      ],
      [
        "vÃ¡rias",
        -9.459559649057931
      ],
      [
        "ĠediÃ§Ã£o",
        -9.460364022614966
      ],
      [
        "bol",
        -9.460607424348613
      ],
      [
        "Ġhora",
        -9.461307916513436
      ],
      [
        "2016",
        -9.461343874796276
      ],
      [
        "ĠMesa",
        -9.46136210581408
      ],
      [
        "Ġparece",
        -9.461684937165508
      ],
      [
        "95",
        -9.462150271943187
      ],
      [
        "ĠMinas",
        -9.462170269707022
      ],
      [
        "Ġdebate",
        -9.463119158215656
      ],
      [
        "Ġassunto",
        -9.464523129115586
      ],
      [
        "Ġfrente",
        -9.464543380477416
      ],
      [
        "ice",
        -9.46590375426065
      ],
      [
        "Ġprincipalmente",
        -9.466611046733242
      ],
      [
        "Partido",
        -9.467453470451714
      ],
      [
        "legislativa",
        -9.469359126154844
      ],
      [
        "poderÃ¡",
        -9.469525112349094
      ],
      [
        "Ġchamado",
        -9.469858955427974
      ],
      [
        "ĠEstou",
        -9.470645997205496
      ],
      [
        "LO",
        -9.47165081787984
      ],
      [
        "Í",
        -9.472539217727496
      ],
      [
        "ĠDesenvolvimento",
        -9.473250076824396
      ],
      [
        "ĠespaÃ§o",
        -9.473943938245188
      ],
      [
        "Ġpapel",
        -9.47398172173522
      ],
      [
        "Ġ2017",
        -9.474461032592284
      ],
      [
        "ÃŃn",
        -9.476777594396989
      ],
      [
        "ĠvÃ£o",
        -9.476896377355532
      ],
      [
        "Ġforte",
        -9.477181487156283
      ],
      [
        "Ġvir",
        -9.477337972008332
      ],
      [
        "Ġcorpo",
        -9.477446528055786
      ],
      [
        "sejam",
        -9.47779317320498
      ],
      [
        "gem",
        -9.477829354957608
      ],
      [
        "ĠNorte",
        -9.47791961114373
      ],
      [
        "ĠFrancisco",
        -9.478107587552453
      ],
      [
        "ĠSE",
        -9.47814924128066
      ],
      [
        "Ġestrutura",
        -9.478293084573474
      ],
      [
        "Ġauto",
        -9.47829675357414
      ],
      [
        "Ġproblemas",
        -9.478934080741714
      ],
      [
        "tan",
        -9.480470521059456
      ],
      [
        "48",
        -9.481939665576231
      ],
      [
        "remos",
        -9.4835079331345
      ],
      [
        "presenÃ§a",
        -9.483679388848795
      ],
      [
        "ĠCons",
        -9.483793527823366
      ],
      [
        "Ġcapital",
        -9.483857652148505
      ],
      [
        "Ġvia",
        -9.48465275325509
      ],
      [
        "Ġcara",
        -9.48769576075447
      ],
      [
        "MunicÃŃpios",
        -9.488551418707058
      ],
      [
        "Ġhouve",
        -9.488660227503114
      ],
      [
        "ĠDJ",
        -9.492750388862158
      ],
      [
        "ĠCi",
        -9.493277238133386
      ],
      [
        "reais",
        -9.493656094256169
      ],
      [
        "21",
        -9.494803629335449
      ],
      [
        "vida",
        -9.495549264444318
      ],
      [
        "Ġcoisas",
        -9.496157133380084
      ],
      [
        "Ġbanda",
        -9.49669875857016
      ],
      [
        "concessÃ£o",
        -9.497565312682983
      ],
      [
        "dÃ©cada",
        -9.4976912829614
      ],
      [
        "61",
        -9.497810054692351
      ],
      [
        "Ġalguma",
        -9.500300799994452
      ],
      [
        "Ġmovimento",
        -9.50085182253462
      ],
      [
        "Ġconhecimento",
        -9.501054749991084
      ],
      [
        "Ġrepresenta",
        -9.501400435486548
      ],
      [
        "ĠHi",
        -9.501553944138529
      ],
      [
        "prÃ³ximo",
        -9.50273500881756
      ],
      [
        "Ġprofessor",
        -9.503158056593184
      ],
      [
        "tornou",
        -9.503905869163162
      ],
      [
        "Ġposso",
        -9.504140067310772
      ],
      [
        "2014",
        -9.504641594530538
      ],
      [
        "ĠNi",
        -9.504890271645795
      ],
      [
        "esta",
        -9.50498419559043
      ],
      [
        "execuÃ§Ã£o",
        -9.506827061722868
      ],
      [
        "Ĥ",
        -9.506930819478727
      ],
      [
        "):",
        -9.507633381368054
      ],
      [
        "Ġembora",
        -9.507961100353794
      ],
      [
        "Ġgra",
        -9.510168422353903
      ],
      [
        "Ġbusca",
        -9.510942758356387
      ],
      [
        "Ġ:)",
        -9.512226099566842
      ],
      [
        "tÃ³rio",
        -9.512483358701587
      ],
      [
        "ny",
        -9.512489027864511
      ],
      [
        "responsabilidade",
        -9.51304729015991
      ],
      [
        "Ġtal",
        -9.51332393471264
      ],
      [
        "Ġautoriza",
        -9.513954276831443
      ],
      [
        "Ġdele",
        -9.514430224332225
      ],
      [
        "Ġoportunidade",
        -9.515053124389809
      ],
      [
        "ĠGra",
        -9.515278032657744
      ],
      [
        "ĠSeu",
        -9.516494302203204
      ],
      [
        "COMISSÃĥO",
        -9.516633285390652
      ],
      [
        "cal",
        -9.518749034750758
      ],
      [
        "Ġdeveria",
        -9.518901253534738
      ],
      [
        "Ġpassado",
        -9.519496600130704
      ],
      [
        "33",
        -9.520653099478046
      ],
      [
        "Ġlivro",
        -9.522780296310378
      ],
      [
        "ĠcompetÃªncia",
        -9.52344526186977
      ],
      [
        "Ġmu",
        -9.5244231184305
      ],
      [
        "ĠfunÃ§Ã£o",
        -9.52456703230603
      ],
      [
        "Ġinc",
        -9.525722814044329
      ],
      [
        "55",
        -9.526399026378051
      ],
      [
        "NI",
        -9.526849772155382
      ],
      [
        "ĠimportÃ¢ncia",
        -9.52685259321474
      ],
      [
        "Ġescola",
        -9.527657068263943
      ],
      [
        "aprovado",
        -9.527756144125982
      ],
      [
        "ĠSan",
        -9.52796783973091
      ],
      [
        "ĠmÃ©dia",
        -9.528282737710024
      ],
      [
        "ĠApÃ³s",
        -9.529274965466412
      ],
      [
        "Distrito",
        -9.529324214687044
      ],
      [
        "Ġ2019",
        -9.529482580628054
      ],
      [
        "Ġdeixa",
        -9.529981630943736
      ],
      [
        "ĠAntonio",
        -9.530041786364396
      ],
      [
        "exame",
        -9.531819742110832
      ],
      [
        "Ġfe",
        -9.532752652952505
      ],
      [
        "ĠRIC",
        -9.533368022021476
      ],
      [
        "ĠIm",
        -9.53378659660755
      ],
      [
        "previsto",
        -9.534042309115105
      ],
      [
        "RECURSO",
        -9.534324756308704
      ],
      [
        "ĠEd",
        -9.535552440919568
      ],
      [
        "34",
        -9.535593123851628
      ],
      [
        "Defesa",
        -9.53564968211548
      ],
      [
        "93",
        -9.53565355186596
      ],
      [
        "Ġalgum",
        -9.535716241827116
      ],
      [
        "BA",
        -9.53588892132058
      ],
      [
        "sur",
        -9.535994800815407
      ],
      [
        "Ġlista",
        -9.536318260165242
      ],
      [
        "Ġhaver",
        -9.536391334615056
      ],
      [
        "atividades",
        -9.536763561765826
      ],
      [
        "ĠCivil",
        -9.537167331374423
      ],
      [
        "disposto",
        -9.537978341108367
      ],
      [
        "Ġentra",
        -9.53817986845456
      ],
      [
        "Ġ2000",
        -9.538695057184055
      ],
      [
        "Ġmulher",
        -9.539285803474211
      ],
      [
        "ĠGe",
        -9.53933981613655
      ],
      [
        "Ġ2020",
        -9.54041433893534
      ],
      [
        "Ġmarca",
        -9.540862036183308
      ],
      [
        "Ġand",
        -9.54121456450131
      ],
      [
        "DEM",
        -9.543089314491857
      ],
      [
        "cÃ³rdÃ£o",
        -9.54790254839405
      ],
      [
        "Ġ2002",
        -9.548788322637256
      ],
      [
        "sociais",
        -9.549729833909472
      ],
      [
        "net",
        -9.549741479853695
      ],
      [
        "ĠEMENDA",
        -9.550354076925482
      ],
      [
        "portanto",
        -9.551487947187256
      ],
      [
        "Ġgente",
        -9.552620139971392
      ],
      [
        "ĠpÃ¡gina",
        -9.554033388351185
      ],
      [
        "ell",
        -9.55425508118386
      ],
      [
        "Ġmodelo",
        -9.554464933028232
      ],
      [
        "isto",
        -9.554469954458188
      ],
      [
        "Ãį",
        -9.554690780194017
      ],
      [
        "Ġ1990",
        -9.5548597383276
      ],
      [
        "Ġpessoal",
        -9.55505117392032
      ],
      [
        "posiÃ§Ã£o",
        -9.5556181740176
      ],
      [
        "ĠIV",
        -9.555701274312328
      ],
      [
        "ĠprincÃŃpio",
        -9.556176795620322
      ],
      [
        "ĠAb",
        -9.556787628603406
      ],
      [
        "ĠTecnologia",
        -9.55680260451079
      ],
      [
        "44",
        -9.558656055607656
      ],
      [
        "Ġchegar",
        -9.558923597074967
      ],
      [
        "ĠCA",
        -9.55920717689474
      ],
      [
        "ĠCOM",
        -9.560000305820136
      ],
      [
        "Ġagr",
        -9.560034381244009
      ],
      [
        "ĠPE",
        -9.560685889073827
      ],
      [
        "ĠmudanÃ§a",
        -9.562998095547565
      ],
      [
        "Ġlogo",
        -9.563644505054167
      ],
      [
        "mÃªs",
        -9.563837715521553
      ],
      [
        "risco",
        -9.564269894888607
      ],
      [
        "sic",
        -9.565550422693509
      ],
      [
        "vel",
        -9.56566492737356
      ],
      [
        "ĠPA",
        -9.565812507634092
      ],
      [
        "Ġsenhor",
        -9.566516587585744
      ],
      [
        "Ġdu",
        -9.566988252704816
      ],
      [
        "mentos",
        -9.567262559414806
      ],
      [
        "Ġexiste",
        -9.567488401004344
      ],
      [
        "Ġreal",
        -9.568160745193785
      ],
      [
        "ĠPrimeira",
        -9.569027631602404
      ],
      [
        "nessa",
        -9.56993877197247
      ],
      [
        "Â²",
        -9.570310929790226
      ],
      [
        "ĠComunicaÃ§Ã£o",
        -9.571396871091608
      ],
      [
        "eiro",
        -9.571467465964728
      ],
      [
        "Ġefeito",
        -9.571491699037932
      ],
      [
        "iniciativa",
        -9.571555414453876
      ],
      [
        "ĠinglÃªs",
        -9.572729471242326
      ],
      [
        "possibilidade",
        -9.573319333259496
      ],
      [
        "ServiÃ§o",
        -9.574033366959643
      ],
      [
        "Ġajuda",
        -9.574540212088715
      ],
      [
        "AI",
        -9.574877087667808
      ],
      [
        "ela",
        -9.575210881671548
      ],
      [
        "ĠBrasileiro",
        -9.575703588564307
      ],
      [
        "Campeonato",
        -9.577839112880994
      ],
      [
        "zada",
        -9.578416546153482
      ],
      [
        "Ġalta",
        -9.57948068182666
      ],
      [
        "Do",
        -9.579903789539268
      ],
      [
        "Ġficou",
        -9.580625486947756
      ],
      [
        "Ġfinanceira",
        -9.581168733657316
      ],
      [
        "prevista",
        -9.581677426731943
      ],
      [
        "Ġaquele",
        -9.582107512874492
      ],
      [
        "ato",
        -9.582370868760892
      ],
      [
        "ĠREQUERIMENTO",
        -9.582683270528852
      ],
      [
        "carreira",
        -9.583712277672507
      ],
      [
        "ĠRel",
        -9.584890517594731
      ],
      [
        "mÃ©rito",
        -9.586284083150865
      ],
      [
        "ĠCorte",
        -9.58676572234496
      ],
      [
        "Ġnenhum",
        -9.586952734757832
      ],
      [
        "ĠObrigado",
        -9.587344121397166
      ],
      [
        "Ġqueria",
        -9.587606301481804
      ],
      [
        "ĠCan",
        -9.588103291731624
      ],
      [
        "FI",
        -9.589384152638775
      ],
      [
        "ian",
        -9.591112211780215
      ],
      [
        "Ġapresenta",
        -9.591588045090331
      ],
      [
        "ĠInstituto",
        -9.59197223446638
      ],
      [
        "Ġprofissional",
        -9.59259851247462
      ],
      [
        "Ġprojetos",
        -9.592852178970784
      ],
      [
        "ĠCh",
        -9.593360546250274
      ],
      [
        "ĠFe",
        -9.593421192415777
      ],
      [
        "ley",
        -9.593491362519448
      ],
      [
        "39",
        -9.593525953186026
      ],
      [
        "Ġtemporada",
        -9.59396185624298
      ],
      [
        "Ġnota",
        -9.594561278603674
      ],
      [
        "Ġdar",
        -9.595500813830906
      ],
      [
        "discussÃ£o",
        -9.596570967123505
      ],
      [
        "podemos",
        -9.59693732020921
      ],
      [
        "leg",
        -9.597807005002958
      ],
      [
        "Presidente",
        -9.598303333748072
      ],
      [
        "jurÃŃdica",
        -9.598333718985057
      ],
      [
        "bilhÃµes",
        -9.598702862623227
      ],
      [
        "discurso",
        -9.59933101550796
      ],
      [
        "ĠAmÃ©rica",
        -9.599484718786297
      ],
      [
        "24",
        -9.599841594466389
      ],
      [
        "laÃ§Ã£o",
        -9.60038851514809
      ],
      [
        "Ġanterior",
        -9.60144180661249
      ],
      [
        "Ġsucesso",
        -9.601866541038408
      ],
      [
        "ĠExcelÃªncia",
        -9.601907302664008
      ],
      [
        "ĠCosta",
        -9.602529081401444
      ],
      [
        "Ġsuper",
        -9.603773566072602
      ],
      [
        "Ã¢mbito",
        -9.603780672664495
      ],
      [
        "TambÃ©m",
        -9.604137103323463
      ],
      [
        "Ġcar",
        -9.604534237452958
      ],
      [
        "Ġvigor",
        -9.604589748559343
      ],
      [
        "Ġafirma",
        -9.60585351893092
      ],
      [
        "ĠTra",
        -9.605966600022036
      ],
      [
        "Ġ2001",
        -9.606872863468013
      ],
      [
        "ĠquÃª",
        -9.6070586311448
      ],
      [
        "Ġoutorga",
        -9.607305915396555
      ],
      [
        "Ġclube",
        -9.607995548956032
      ],
      [
        "Ġdez",
        -9.60901017143061
      ],
      [
        "ĠCunha",
        -9.609086409162328
      ],
      [
        "Ġcampanha",
        -9.609468953163036
      ],
      [
        "Geral",
        -9.609782525558488
      ],
      [
        "Ġpauta",
        -9.609807356579156
      ],
      [
        "Ġnobre",
        -9.610126162382684
      ],
      [
        "ĠRequerimento",
        -9.611363864214782
      ],
      [
        "pan",
        -9.611840875235666
      ],
      [
        "Ġcerteza",
        -9.614380872161291
      ],
      [
        "ĠSal",
        -9.614878965782724
      ],
      [
        "ĠBen",
        -9.614950257306376
      ],
      [
        "comeÃ§ou",
        -9.61529068643739
      ],
      [
        "ĠEst",
        -9.615772679981797
      ],
      [
        "mandato",
        -9.616505453041286
      ],
      [
        "Ġtransporte",
        -9.61664261721454
      ],
      [
        "fl",
        -9.617723528466252
      ],
      [
        "Ġtitular",
        -9.618072788251332
      ],
      [
        "Depois",
        -9.619192893177813
      ],
      [
        "membros",
        -9.619998848894644
      ],
      [
        "tados",
        -9.620158247302085
      ],
      [
        "valores",
        -9.620757414172209
      ],
      [
        "Ġfederal",
        -9.620988243945847
      ],
      [
        "Ġocorre",
        -9.622290392727011
      ],
      [
        "ÃļLTI",
        -9.622465917122147
      ],
      [
        "Ġteria",
        -9.622859712810069
      ],
      [
        "Ġoriginal",
        -9.623567593071275
      ],
      [
        "nica",
        -9.624171507914864
      ],
      [
        "ĠposiÃ§Ã£o",
        -9.624301498637516
      ],
      [
        "Ġcentro",
        -9.624386757813618
      ],
      [
        "ĠGuerra",
        -9.624624447162931
      ],
      [
        "2005",
        -9.625394046795126
      ],
      [
        "econÃ´mica",
        -9.625948055365864
      ],
      [
        "ĠalguÃ©m",
        -9.626149759443011
      ],
      [
        "Ġ40",
        -9.626166775525148
      ],
      [
        "ĠaplicaÃ§Ã£o",
        -9.627341451348192
      ],
      [
        "Ġarma",
        -9.628243816538662
      ],
      [
        "ĠterritÃ³rio",
        -9.629982816276074
      ],
      [
        "obras",
        -9.630540025616815
      ],
      [
        "Ġprincipais",
        -9.63154164282528
      ],
      [
        "ĠCopa",
        -9.63216362434271
      ],
      [
        "Ġrealizado",
        -9.632174779602542
      ],
      [
        "Ġresultado",
        -9.633154118921574
      ],
      [
        "ĠSecretaria",
        -9.633477596714172
      ],
      [
        "bert",
        -9.6335331103795
      ],
      [
        "BE",
        -9.63471127268934
      ],
      [
        "ÃĩÃķES",
        -9.636768446221131
      ],
      [
        "ĠEles",
        -9.636933343681903
      ],
      [
        "Ġcan",
        -9.637416528444
      ],
      [
        "ĠTV",
        -9.637737572849211
      ],
      [
        "lado",
        -9.638269438933246
      ],
      [
        "tel",
        -9.638312588091692
      ],
      [
        "tido",
        -9.639631565758748
      ],
      [
        "Î",
        -9.639755278875084
      ],
      [
        "CURSO",
        -9.64009880590504
      ],
      [
        "Ġpontos",
        -9.640712269522467
      ],
      [
        "Ġclaro",
        -9.640861626698005
      ],
      [
        "Ġautos",
        -9.64119304043096
      ],
      [
        "NT",
        -9.641207097842802
      ],
      [
        "ĠEspecial",
        -9.64136141581196
      ],
      [
        "Ġrenda",
        -9.641980900608088
      ],
      [
        "cionais",
        -9.642086499170803
      ],
      [
        "ã",
        -9.64261766902731
      ],
      [
        "Ġrefere",
        -9.643706353742967
      ],
      [
        "ĠinformaÃ§Ã£o",
        -9.645247121860342
      ],
      [
        "Ġideia",
        -9.64617599074452
      ],
      [
        "ite",
        -9.64654125887554
      ],
      [
        "EIRA",
        -9.647513572496564
      ],
      [
        "Ã³rgÃ£o",
        -9.647705253267269
      ],
      [
        "Ġcrise",
        -9.649113341734385
      ],
      [
        "apreciaÃ§Ã£o",
        -9.649572214351512
      ],
      [
        "Ġ2018",
        -9.650314900995223
      ],
      [
        "Ġconsiderado",
        -9.651530508085289
      ],
      [
        "Ġnatureza",
        -9.651554200301677
      ],
      [
        "ini",
        -9.651589699478937
      ],
      [
        "ĠTu",
        -9.652229839453122
      ],
      [
        "Ã¡rios",
        -9.654388521962067
      ],
      [
        "cido",
        -9.654965007445162
      ],
      [
        "ĠQuero",
        -9.65565649351804
      ],
      [
        "Ġturno",
        -9.656524237578328
      ],
      [
        "comunicaÃ§Ã£o",
        -9.65690091612583
      ],
      [
        "ĠMIN",
        -9.657056125067983
      ],
      [
        "deverÃ¡",
        -9.657734461429198
      ],
      [
        "2019",
        -9.659223720044494
      ],
      [
        "ĠatenÃ§Ã£o",
        -9.661686125846666
      ],
      [
        "Ġfase",
        -9.661708852931245
      ],
      [
        "Ġperde",
        -9.662314543497116
      ],
      [
        "Ġlivre",
        -9.66301903232405
      ],
      [
        "nÃ£o",
        -9.663767756937345
      ],
      [
        "ĠQuem",
        -9.66489666173283
      ],
      [
        "Ġ1998",
        -9.665625151199691
      ],
      [
        "Ġrede",
        -9.667121786869824
      ],
      [
        "Ġsede",
        -9.667278307742954
      ],
      [
        "provimento",
        -9.667733708714769
      ],
      [
        "dura",
        -9.669438191938552
      ],
      [
        "Ģ",
        -9.669644000487851
      ],
      [
        "Ordem",
        -9.670346830119165
      ],
      [
        "ĠRicardo",
        -9.670564159174653
      ],
      [
        "Ġcriar",
        -9.67244079883373
      ],
      [
        "chegou",
        -9.67250047362872
      ],
      [
        "ĠHenrique",
        -9.673292231730828
      ],
      [
        "ĠDireito",
        -9.673391505766862
      ],
      [
        "rÃ©",
        -9.674507429022004
      ],
      [
        "Ġcomunidade",
        -9.675563613309432
      ],
      [
        "Ġdiferentes",
        -9.675911209723372
      ],
      [
        "ĠmÃ£o",
        -9.677209103740893
      ],
      [
        "ĠAGRAV",
        -9.67734441011934
      ],
      [
        "ĠSistema",
        -9.67749419222324
      ],
      [
        "ĠBra",
        -9.678283055664584
      ],
      [
        "ĠAlves",
        -9.678429687451136
      ],
      [
        "Ġautoria",
        -9.67878742908949
      ],
      [
        "Apensa",
        -9.680466282683565
      ],
      [
        "Ġob",
        -9.68094953590691
      ],
      [
        "Ġcaput",
        -9.68201964468104
      ],
      [
        "existÃªncia",
        -9.683258165694834
      ],
      [
        "idades",
        -9.683730684554282
      ],
      [
        "Ġsignifica",
        -9.68388113574459
      ],
      [
        "ĠMINISTR",
        -9.685163695163284
      ],
      [
        "Ġpenal",
        -9.6854379549296
      ],
      [
        "Ġguerra",
        -9.685467946681609
      ],
      [
        "ĠRu",
        -9.687652294799037
      ],
      [
        "ĠSantos",
        -9.687910154891332
      ],
      [
        "ĠDias",
        -9.6881499282425
      ],
      [
        "Ġtaxa",
        -9.688215943971333
      ],
      [
        "dÃ£o",
        -9.688689994474975
      ],
      [
        "ĠPereira",
        -9.689305113062568
      ],
      [
        "MO",
        -9.689403766885704
      ],
      [
        "ĠSanto",
        -9.689608590034608
      ],
      [
        "Ġcategoria",
        -9.690061335634995
      ],
      [
        "ĠCO",
        -9.691037609752966
      ],
      [
        "ko",
        -9.692194818449796
      ],
      [
        "REG",
        -9.693042838953136
      ],
      [
        "tÃ³ria",
        -9.694419649761118
      ],
      [
        "essÃµes",
        -9.694744528839378
      ],
      [
        "2017",
        -9.695152628184802
      ],
      [
        "Ã¡veis",
        -9.695231439924028
      ],
      [
        "zado",
        -9.695785657212124
      ],
      [
        "dora",
        -9.695801217227109
      ],
      [
        "ĠNos",
        -9.696034019660512
      ],
      [
        "Ġres",
        -9.69740185044956
      ],
      [
        "ĠÃºnica",
        -9.69942432786955
      ],
      [
        "GO",
        -9.699509121531609
      ],
      [
        "acima",
        -9.701315189912238
      ],
      [
        "Ġmenor",
        -9.70147654928904
      ],
      [
        "Cidadania",
        -9.701525358692413
      ],
      [
        "Ã³rgÃ£os",
        -9.701572975280898
      ],
      [
        "Ġqu",
        -9.702910045165993
      ],
      [
        "ĠSi",
        -9.703205390989105
      ],
      [
        "ĠformaÃ§Ã£o",
        -9.704937334445994
      ],
      [
        "Ġpequeno",
        -9.704959554747516
      ],
      [
        "quer",
        -9.70496101817074
      ],
      [
        "PolÃŃcia",
        -9.705876685635989
      ],
      [
        "cujo",
        -9.70765280699818
      ],
      [
        "ĠMais",
        -9.708467278458524
      ],
      [
        "Ġinternacional",
        -9.70886616982552
      ],
      [
        "gestÃ£o",
        -9.711390246943647
      ],
      [
        "nada",
        -9.712355718467618
      ],
      [
        "Ġplano",
        -9.712513663430771
      ],
      [
        "vos",
        -9.71253737024565
      ],
      [
        "Ġ54",
        -9.712689724660803
      ],
      [
        "soluÃ§Ã£o",
        -9.713643747936164
      ],
      [
        "trabalhadores",
        -9.71540446570464
      ],
      [
        "Medida",
        -9.719061903613213
      ],
      [
        "Ġ#",
        -9.71922367586661
      ],
      [
        "Ġsul",
        -9.719580275044686
      ],
      [
        "Ġeleito",
        -9.71966304982364
      ],
      [
        "gente",
        -9.7199286239966
      ],
      [
        "Ġvisita",
        -9.7204319058822
      ],
      [
        "ĠreferÃªncia",
        -9.72314347722397
      ],
      [
        "Ġseis",
        -9.723878207344258
      ],
      [
        "ÃŃvel",
        -9.724806141073987
      ],
      [
        "lei",
        -9.725109724675857
      ],
      [
        "ĠParlamentar",
        -9.725398602565406
      ],
      [
        "Ġleva",
        -9.725424331258631
      ],
      [
        "ĠDilma",
        -9.725562441729878
      ],
      [
        "mediante",
        -9.725729309301956
      ],
      [
        "PP",
        -9.725758880072252
      ],
      [
        "ĠInter",
        -9.72592956659498
      ],
      [
        "destaque",
        -9.728357033408995
      ],
      [
        "ĠPorto",
        -9.72839679335861
      ],
      [
        "ĠPSD",
        -9.728904609872448
      ],
      [
        "Ġcaminho",
        -9.729351751104025
      ],
      [
        "amente",
        -9.729358983588057
      ],
      [
        "Ġfundo",
        -9.729388595950637
      ],
      [
        "ĠEntre",
        -9.730501279983445
      ],
      [
        "ĠirmÃ£o",
        -9.731027713398367
      ],
      [
        "ĠinstituiÃ§Ãµes",
        -9.731508250231794
      ],
      [
        "ĠAG",
        -9.73156684637845
      ],
      [
        "Ġdesses",
        -9.732687413071842
      ],
      [
        "lt",
        -9.732875940613042
      ],
      [
        "ĠRosa",
        -9.733043626797716
      ],
      [
        "recebeu",
        -9.733956411894816
      ],
      [
        "ĠBanco",
        -9.735214167164257
      ],
      [
        "Ġatendimento",
        -9.73575401882591
      ],
      [
        "Ã¢ncia",
        -9.736185221122986
      ],
      [
        "ĠMeu",
        -9.736380836467928
      ],
      [
        "contrÃ¡rio",
        -9.7367088770594
      ],
      [
        "parÃ¡grafo",
        -9.738237949746807
      ],
      [
        "emos",
        -9.738610073542898
      ],
      [
        "cuja",
        -9.73937488609798
      ],
      [
        "sim",
        -9.739945969350243
      ],
      [
        "realmente",
        -9.740193636121498
      ],
      [
        "Ġcultura",
        -9.74190976107544
      ],
      [
        "MS",
        -9.744165741202028
      ],
      [
        "ĠHistÃ³ria",
        -9.744216415011222
      ],
      [
        "ĠVou",
        -9.744569458092098
      ],
      [
        "ĠOr",
        -9.745461709420708
      ],
      [
        "ĠNesse",
        -9.745473576694408
      ],
      [
        "47",
        -9.745883960860157
      ],
      [
        "Ġnovos",
        -9.747956119264218
      ],
      [
        "category",
        -9.748013619274
      ],
      [
        "lidade",
        -9.748399466945356
      ],
      [
        "Ġexce",
        -9.750664657690406
      ],
      [
        "Ġman",
        -9.75134995390907
      ],
      [
        "Ġpri",
        -9.751620475365062
      ],
      [
        "Ġporta",
        -9.753336687484069
      ],
      [
        "Ġresposta",
        -9.753375737323688
      ],
      [
        "Ġmanter",
        -9.754565060483609
      ],
      [
        "Ġdisputa",
        -9.755069574815742
      ],
      [
        "vidade",
        -9.755990830075676
      ],
      [
        "Ġreceber",
        -9.756309174248948
      ],
      [
        "critÃ©rio",
        -9.756919824729613
      ],
      [
        "ĠlanÃ§ado",
        -9.75734620974188
      ],
      [
        "org",
        -9.758696802907949
      ],
      [
        "violÃªncia",
        -9.758849295820925
      ],
      [
        "Ġtrabalhos",
        -9.759881391308197
      ],
      [
        "Gerais",
        -9.760454174113493
      ],
      [
        "32",
        -9.760644115942307
      ],
      [
        "ĠMarcelo",
        -9.761804811202069
      ],
      [
        "ĠFundo",
        -9.76222111480581
      ],
      [
        "Durante",
        -9.76239419816842
      ],
      [
        "Ġ32",
        -9.762512024579555
      ],
      [
        "Ġcontinua",
        -9.762925860839074
      ],
      [
        "ĠSub",
        -9.763271646314864
      ],
      [
        "Ġcapacidade",
        -9.763420035462728
      ],
      [
        "2006",
        -9.76365594393149
      ],
      [
        "shi",
        -9.765220658597588
      ],
      [
        "ĠSol",
        -9.76581981498494
      ],
      [
        "Ġliberdade",
        -9.766015486463589
      ],
      [
        "ĠOh",
        -9.766251880129204
      ],
      [
        "oli",
        -9.76654131815849
      ],
      [
        "PAULO",
        -9.76670231094285
      ],
      [
        "Ġvotar",
        -9.766874399729488
      ],
      [
        "Ġreuni",
        -9.767318223116874
      ],
      [
        "ĠMato",
        -9.768345011584405
      ],
      [
        "ĠADV",
        -9.76900020665856
      ],
      [
        "ĠRÃ¡dio",
        -9.769389944232778
      ],
      [
        "Ġcriado",
        -9.769571234884198
      ],
      [
        "Ġartigos",
        -9.771383222111774
      ],
      [
        "homens",
        -9.771811561836682
      ],
      [
        "ĠBahia",
        -9.772680599928508
      ],
      [
        "Ġtorna",
        -9.773917168421727
      ],
      [
        "Ġcivil",
        -9.77439493236345
      ],
      [
        "ĠBrasileira",
        -9.775327570759863
      ],
      [
        "Ġexecutar",
        -9.777293909985223
      ],
      [
        "ĠJorge",
        -9.77826363129203
      ],
      [
        "proteÃ§Ã£o",
        -9.778407162672558
      ],
      [
        "gens",
        -9.778961215958631
      ],
      [
        "preÃ§o",
        -9.77908069972547
      ],
      [
        "Ġdiversos",
        -9.77998522464359
      ],
      [
        "ĠresponsÃ¡vel",
        -9.780229681063696
      ],
      [
        "Ġterceiro",
        -9.780269084052875
      ],
      [
        "Ġmaterial",
        -9.780454663596911
      ],
      [
        "ARDO",
        -9.780858059096149
      ],
      [
        "pressÃ£o",
        -9.781087039010265
      ],
      [
        "ĠLima",
        -9.781226006997043
      ],
      [
        "Ġmostra",
        -9.781527025560512
      ],
      [
        "servidores",
        -9.781727568326277
      ],
      [
        "Ġautoridade",
        -9.782732600493471
      ],
      [
        "devem",
        -9.78292522716956
      ],
      [
        "ĠSENHOR",
        -9.78408952279016
      ],
      [
        "Ġrejei",
        -9.78419376382611
      ],
      [
        "maiores",
        -9.78485466056597
      ],
      [
        "Ġincluindo",
        -9.7849004640221
      ],
      [
        "ĠBR",
        -9.785199217639114
      ],
      [
        "Ġambiente",
        -9.785468909383836
      ],
      [
        "ĠMundial",
        -9.786498963761268
      ],
      [
        "ProvisÃ³ria",
        -9.78778307725305
      ],
      [
        "Ġchamada",
        -9.788490821653197
      ],
      [
        "ĠAdministraÃ§Ã£o",
        -9.789554089314914
      ],
      [
        "Ġhomenage",
        -9.789590388421493
      ],
      [
        "PA",
        -9.79147572378497
      ],
      [
        "serem",
        -9.7922250496255
      ],
      [
        "SOL",
        -9.79249225172071
      ],
      [
        "Ġapresentado",
        -9.792798911273366
      ],
      [
        "ĠWe",
        -9.7932753635562
      ],
      [
        "pp",
        -9.793475577120155
      ],
      [
        "ĠEra",
        -9.794350333498196
      ],
      [
        "Ġacha",
        -9.794479053025814
      ],
      [
        "Ġdiversas",
        -9.795423130465656
      ],
      [
        "Ġestudo",
        -9.795794737083025
      ],
      [
        "ĠDis",
        -9.797135416233331
      ],
      [
        "Ġisto",
        -9.798619254354366
      ],
      [
        "Ġ1997",
        -9.799138336206948
      ],
      [
        "Ġprofissionais",
        -9.799329814985889
      ],
      [
        "ĠInternacional",
        -9.799601892636494
      ],
      [
        "Ainda",
        -9.799747641426215
      ],
      [
        "ĠPar",
        -9.801027552107156
      ],
      [
        "Ġnorma",
        -9.801287587737855
      ],
      [
        "ĠâĢĺ",
        -9.80167660822681
      ],
      [
        "ĠvocÃªs",
        -9.801899044725948
      ],
      [
        "Ġpassar",
        -9.802226733067515
      ],
      [
        "ĠMendes",
        -9.802762721080413
      ],
      [
        "han",
        -9.80295387088588
      ],
      [
        "Ġcabe",
        -9.803404889718909
      ],
      [
        "ĠJohn",
        -9.803603012007873
      ],
      [
        "Ġamor",
        -9.80626427297688
      ],
      [
        "tratamento",
        -9.806835467562337
      ],
      [
        "gostaria",
        -9.80893587904256
      ],
      [
        "tÃ¡rio",
        -9.80942321767731
      ],
      [
        "ano",
        -9.809480382174748
      ],
      [
        "ĠTudo",
        -9.809882583104136
      ],
      [
        "Ġamigo",
        -9.811485077475572
      ],
      [
        "ģ",
        -9.811489318890551
      ],
      [
        "Ġinstrumento",
        -9.811747779109522
      ],
      [
        "ĠeconÃ´mico",
        -9.81307680218313
      ],
      [
        "zer",
        -9.813466659084872
      ],
      [
        "43",
        -9.81386112284432
      ],
      [
        "Ġha",
        -9.814023341307191
      ],
      [
        "ĠAna",
        -9.814178197841304
      ],
      [
        "Ġacaba",
        -9.81521995093424
      ],
      [
        "ĠHu",
        -9.81535425143101
      ],
      [
        "Ġfins",
        -9.815943679295303
      ],
      [
        "Ġtri",
        -9.815998119479138
      ],
      [
        "ĠcomeÃ§a",
        -9.816873359893076
      ],
      [
        "reduÃ§Ã£o",
        -9.816925740073447
      ],
      [
        "cus",
        -9.817327608531734
      ],
      [
        "Ġextra",
        -9.817583057421407
      ],
      [
        "PCdoB",
        -9.81827399424737
      ],
      [
        "Ġgarantia",
        -9.818700464794146
      ],
      [
        "Ġnenhuma",
        -9.820964875242597
      ],
      [
        "31",
        -9.821194650790178
      ],
      [
        "Of",
        -9.821278234627885
      ],
      [
        "Ġcumprimento",
        -9.82156263459404
      ],
      [
        "ĠCE",
        -9.821664337197666
      ],
      [
        "Ġchega",
        -9.822062690796622
      ],
      [
        "Ġfundamental",
        -9.822939834061009
      ],
      [
        "Ġapresentar",
        -9.82308648748007
      ],
      [
        "Ġ33",
        -9.823677747578715
      ],
      [
        "Ġfunda",
        -9.823933939135197
      ],
      [
        "ĠVoss",
        -9.8240901416185
      ],
      [
        "Ġusar",
        -9.824592072198698
      ],
      [
        "ĠGovernador",
        -9.824626767339044
      ],
      [
        "Ġcarro",
        -9.824795462631563
      ],
      [
        "Ġfuturo",
        -9.825313994029322
      ],
      [
        "ty",
        -9.82554121458949
      ],
      [
        "Ġpergunta",
        -9.82936091457357
      ],
      [
        "Ġdeclar",
        -9.830646096429456
      ],
      [
        "Ġcusto",
        -9.832591917074788
      ],
      [
        "ĠMal",
        -9.832610318991922
      ],
      [
        "pronunciamento",
        -9.833865340814633
      ],
      [
        "Ġnovas",
        -9.83434488490082
      ],
      [
        "normas",
        -9.834409449538663
      ],
      [
        "Ġindica",
        -9.834578934646537
      ],
      [
        "GU",
        -9.834613982034783
      ],
      [
        "Ġevento",
        -9.835313158484803
      ],
      [
        "Ġtro",
        -9.83572615585345
      ],
      [
        "Ġsol",
        -9.83587580644555
      ],
      [
        "stÃµes",
        -9.836549134715629
      ],
      [
        "fÃŃsica",
        -9.83659745456785
      ],
      [
        "94",
        -9.836998773038136
      ],
      [
        "Ġgrave",
        -9.837545327770862
      ],
      [
        "Ġdiretor",
        -9.837710093344214
      ],
      [
        "Ġmuita",
        -9.839399165247348
      ],
      [
        "eiros",
        -9.840542549362954
      ],
      [
        "ĠHer",
        -9.8414018959512
      ],
      [
        "Ġnatural",
        -9.841721653040526
      ],
      [
        "Ġfl",
        -9.842137790718656
      ],
      [
        "Ġapresentada",
        -9.843063535848556
      ],
      [
        "dÃºvida",
        -9.84367875308834
      ],
      [
        "Ġmilitar",
        -9.844059151223016
      ],
      [
        "CN",
        -9.844312414553526
      ],
      [
        "lÃ³gica",
        -9.84442719782374
      ],
      [
        "Ġjornal",
        -9.845630495327727
      ],
      [
        "ias",
        -9.845936421956404
      ],
      [
        "Ġcerta",
        -9.846218898178854
      ],
      [
        "ĠSuperior",
        -9.846871680915775
      ],
      [
        "\",\"",
        -9.848036243539688
      ],
      [
        "Ġajudar",
        -9.84847016808452
      ],
      [
        "Ġcrescimento",
        -9.848934000664569
      ],
      [
        "Ġju",
        -9.849619169150737
      ],
      [
        "substituiÃ§Ã£o",
        -9.84999286671902
      ],
      [
        "ĠAcho",
        -9.850620065951905
      ],
      [
        "ĠPI",
        -9.850793959367191
      ],
      [
        "Ġdeles",
        -9.851735203148635
      ],
      [
        "ĠRJ",
        -9.851976960913811
      ],
      [
        "Ġalto",
        -9.851979048047898
      ],
      [
        "produtos",
        -9.851983130451146
      ],
      [
        "ĠLocal",
        -9.853024092506592
      ],
      [
        "ĠCentro",
        -9.85303842615306
      ],
      [
        "entidades",
        -9.853477983645403
      ],
      [
        "acrescenta",
        -9.855667282781504
      ],
      [
        "hipÃ³tese",
        -9.856095342288604
      ],
      [
        "ĠCON",
        -9.856204451169267
      ],
      [
        "Ġcombate",
        -9.856276033967582
      ],
      [
        "ĠPEC",
        -9.856949120935324
      ],
      [
        "Ġsonora",
        -9.857385597042985
      ],
      [
        "Ġdemonstra",
        -9.85842312116345
      ],
      [
        "Ġparticular",
        -9.859921887389138
      ],
      [
        "Ġsimples",
        -9.85996846384736
      ],
      [
        "ĠEXTRAORDINÃģRI",
        -9.86140964423566
      ],
      [
        "Ġconsegui",
        -9.861918059470186
      ],
      [
        "ĠVoto",
        -9.86211358902511
      ],
      [
        "ĠPmdbP",
        -9.86310485425343
      ],
      [
        "ĠÃģ",
        -9.863500419858529
      ],
      [
        "Ġpermiti",
        -9.863730016788766
      ],
      [
        "RIA",
        -9.863752549695649
      ],
      [
        "tecnologia",
        -9.864392031476733
      ],
      [
        "..............",
        -9.864431376558867
      ],
      [
        "audiÃªncia",
        -9.864469776578687
      ],
      [
        "Lei",
        -9.864840997091372
      ],
      [
        "Ġ60",
        -9.86623641350528
      ],
      [
        "riz",
        -9.866283702087085
      ],
      [
        "Ġnaquel",
        -9.866353292812754
      ],
      [
        "Ġimposto",
        -9.8670948691099
      ],
      [
        "posiÃ§Ãµes",
        -9.867347823619228
      ],
      [
        "Ġcompra",
        -9.867355969199537
      ],
      [
        "ĠGen",
        -9.868714801342149
      ],
      [
        "Ġ1999",
        -9.869015048792903
      ],
      [
        "ĠBA",
        -9.869341080895165
      ],
      [
        "2003",
        -9.869934939928871
      ],
      [
        "ĠCampos",
        -9.870753784123032
      ],
      [
        "san",
        -9.871706638668076
      ],
      [
        "Ġfilhos",
        -9.87320501962333
      ],
      [
        "RJ",
        -9.874038895111385
      ],
      [
        "icas",
        -9.87412279703181
      ],
      [
        "ixou",
        -9.874229556618822
      ],
      [
        "Ġtribuna",
        -9.875695447835476
      ],
      [
        "ssem",
        -9.876425121374083
      ],
      [
        "Ñ",
        -9.876480102092058
      ],
      [
        "ĠninguÃ©m",
        -9.876679618871409
      ],
      [
        "Ġlevar",
        -9.876957462499911
      ],
      [
        "Ġconquista",
        -9.877487110343788
      ],
      [
        "Â",
        -9.877580155624848
      ],
      [
        "MENTO",
        -9.877906119274764
      ],
      [
        "Ġefetiva",
        -9.87797019576986
      ],
      [
        "Ġ70",
        -9.878339519075194
      ],
      [
        "Hoje",
        -9.878724032388249
      ],
      [
        "Ġcorre",
        -9.879226377423953
      ],
      [
        "Ġdespes",
        -9.879378903354288
      ],
      [
        "ĠVal",
        -9.879407058867848
      ],
      [
        "Ġvisto",
        -9.879641270535693
      ],
      [
        "ĠTodos",
        -9.880533939434043
      ],
      [
        "omissÃµes",
        -9.88062204421606
      ],
      [
        "Ġimporta",
        -9.880699148979591
      ],
      [
        "ĠIgreja",
        -9.882745397941012
      ],
      [
        "ĠCal",
        -9.883162118417374
      ],
      [
        "ĠBer",
        -9.88350563686014
      ],
      [
        "ĠAqui",
        -9.883785201152868
      ],
      [
        "AM",
        -9.883909121289552
      ],
      [
        "ĠFu",
        -9.884390550596288
      ],
      [
        "ĠSecretÃ¡rio",
        -9.8848761237215
      ],
      [
        "verÃ£o",
        -9.885037388183688
      ],
      [
        "Ã§",
        -9.885037631686204
      ],
      [
        "Ġcontar",
        -9.88597412021767
      ],
      [
        "ĠPRO",
        -9.886075923563096
      ],
      [
        "ĠLt",
        -9.88649008447851
      ],
      [
        "ĠterÃ¡",
        -9.8874376322553
      ],
      [
        "Ġdiante",
        -9.887720496848312
      ],
      [
        "ĠadministraÃ§Ã£o",
        -9.888805113853715
      ],
      [
        "GL",
        -9.8900816074219
      ],
      [
        "ĠEl",
        -9.890174035367576
      ],
      [
        "by",
        -9.890283398707018
      ],
      [
        "Ġestabelece",
        -9.89106610930505
      ],
      [
        "tores",
        -9.891221677364012
      ],
      [
        "ĠorganizaÃ§Ã£o",
        -9.891387538207953
      ],
      [
        "pur",
        -9.8916145213055
      ],
      [
        "Ġespecialmente",
        -9.891849977418746
      ],
      [
        "ĠFranÃ§a",
        -9.892070049701369
      ],
      [
        "Ġparticipar",
        -9.892596243686574
      ],
      [
        "ÃŃstica",
        -9.892740162430409
      ],
      [
        "ĠAnex",
        -9.893218474918598
      ],
      [
        "age",
        -9.89348653457484
      ],
      [
        "PFL",
        -9.893929553175372
      ],
      [
        "ĠinstituiÃ§Ã£o",
        -9.894708240116842
      ],
      [
        "lÃ³gico",
        -9.895093728622127
      ],
      [
        "ĠGi",
        -9.89547978208386
      ],
      [
        "ĠlÃŃngua",
        -9.8963807171486
      ],
      [
        "juridicidade",
        -9.897602084603726
      ],
      [
        "ĠSou",
        -9.897746227471318
      ],
      [
        "Ġconhecida",
        -9.898064498900387
      ],
      [
        "ĠCultura",
        -9.898206382643414
      ],
      [
        "Ġfutebol",
        -9.899187133706032
      ],
      [
        "Tenho",
        -9.900079326634156
      ],
      [
        "tenham",
        -9.900419558485057
      ],
      [
        "ĠFEDERAL",
        -9.90043552878943
      ],
      [
        "ĠSrÂª",
        -9.90073410023612
      ],
      [
        "iana",
        -9.901759933823715
      ],
      [
        "ĠversÃ£o",
        -9.90281911425451
      ],
      [
        "Ġmeus",
        -9.903154710881784
      ],
      [
        "Ġcomum",
        -9.903499435593044
      ],
      [
        "ĠTemer",
        -9.903781264456793
      ],
      [
        "ĠTerra",
        -9.904323602064888
      ],
      [
        "Ġinvestiga",
        -9.904491424617207
      ],
      [
        "Ġ37",
        -9.90487221221729
      ],
      [
        "Ġsair",
        -9.905203853426212
      ],
      [
        "cimento",
        -9.905211534015123
      ],
      [
        "ĠJÃºnior",
        -9.905572695212586
      ],
      [
        "URMA",
        -9.905866924316646
      ],
      [
        "ting",
        -9.90635736804502
      ],
      [
        "ĠBom",
        -9.907091862967905
      ],
      [
        "medidas",
        -9.9081271189134
      ],
      [
        "Ġvale",
        -9.909799433984707
      ],
      [
        "ĠEi",
        -9.90983826815449
      ],
      [
        "designado",
        -9.91012926630884
      ],
      [
        "Ġrevista",
        -9.910148732934411
      ],
      [
        "Ġbastante",
        -9.910230413705674
      ],
      [
        "Ġfilha",
        -9.911028953105754
      ],
      [
        "Ġora",
        -9.91272652629334
      ],
      [
        "ĠRibeiro",
        -9.912803261411772
      ],
      [
        "ĠVale",
        -9.913205708500106
      ],
      [
        "Ġcria",
        -9.913344957477731
      ],
      [
        "proposiÃ§Ã£o",
        -9.91431122777568
      ],
      [
        "comunitÃ¡ria",
        -9.914690643492335
      ],
      [
        "Ġgarantir",
        -9.914711711657494
      ],
      [
        "requer",
        -9.914845526850184
      ],
      [
        "Ptb",
        -9.915630205298774
      ],
      [
        "Ġtermo",
        -9.916662876538249
      ],
      [
        "Ġrealidade",
        -9.916971302713325
      ],
      [
        "afirmou",
        -9.91707597109929
      ],
      [
        "conteÃºdo",
        -9.917300846412218
      ],
      [
        "ĠtÃ©cnico",
        -9.91746666159
      ],
      [
        "prisÃ£o",
        -9.917793025081018
      ],
      [
        "Ġaprovada",
        -9.917955593442832
      ],
      [
        "Ġnego",
        -9.918279641114673
      ],
      [
        "ĠprÃ³xima",
        -9.918396241429148
      ],
      [
        "Ġpublicado",
        -9.918479208162449
      ],
      [
        "Ġdispositivo",
        -9.919163055641368
      ],
      [
        "ĠTom",
        -9.919452958361424
      ],
      [
        "bancada",
        -9.920250060485404
      ],
      [
        "Ġtrabalhar",
        -9.920550638843176
      ],
      [
        "ĠTrata",
        -9.921639904219928
      ],
      [
        "ĠDOS",
        -9.921917702293548
      ],
      [
        "Ġregulamenta",
        -9.92236565391932
      ],
      [
        "ADO",
        -9.923276952868406
      ],
      [
        "CH",
        -9.92387898245904
      ],
      [
        "cidade",
        -9.925543126337866
      ],
      [
        "Ġnovamente",
        -9.925922997971613
      ],
      [
        "ĠIta",
        -9.929561817787215
      ],
      [
        "jovens",
        -9.930212086326057
      ],
      [
        "2004",
        -9.930354187362346
      ],
      [
        "Ġmeta",
        -9.93132180350588
      ],
      [
        "Ġclasse",
        -9.931751464881671
      ],
      [
        "ĠLÃºci",
        -9.932332146320729
      ],
      [
        "pÃµe",
        -9.932357714988356
      ],
      [
        "Ġelas",
        -9.933180782739472
      ],
      [
        "ĠSegunda",
        -9.933650479340908
      ],
      [
        "vendo",
        -9.933711953258577
      ],
      [
        "autorizaÃ§Ã£o",
        -9.93604006790468
      ],
      [
        "âĢĳ",
        -9.936326952851296
      ],
      [
        "Ġfiscal",
        -9.937241104420917
      ],
      [
        "ngel",
        -9.937599047622411
      ],
      [
        "Ġcurso",
        -9.938028146877423
      ],
      [
        "ĠAprova",
        -9.938530310875088
      ],
      [
        "ĠInformÃ¡tica",
        -9.939876842507518
      ],
      [
        "ĠAtÃ©",
        -9.940076931488646
      ],
      [
        "ani",
        -9.94039422391036
      ],
      [
        "Ġpla",
        -9.941367597950409
      ],
      [
        "atuaÃ§Ã£o",
        -9.9418810165154
      ],
      [
        "ser",
        -9.943515293657988
      ],
      [
        "Ġaparece",
        -9.943811003514066
      ],
      [
        "seguida",
        -9.944289122992329
      ],
      [
        "ori",
        -9.944376886676304
      ],
      [
        "Ġreserva",
        -9.944886222966504
      ],
      [
        "Ġvoltar",
        -9.944965157555126
      ],
      [
        "ĠMon",
        -9.94533335926928
      ],
      [
        "ĠeletrÃ´nico",
        -9.94536090129775
      ],
      [
        "ĠAta",
        -9.94616521349988
      ],
      [
        "ĠmÃ©dico",
        -9.946733861163294
      ],
      [
        "ĠcondiÃ§Ã£o",
        -9.94731374118216
      ],
      [
        "Ġprocura",
        -9.94855199512213
      ],
      [
        "Ġfiz",
        -9.948758119365657
      ],
      [
        "Ġfedera",
        -9.949006811558055
      ],
      [
        "Ġcer",
        -9.949038818223066
      ],
      [
        "Ġpopular",
        -9.94936432252002
      ],
      [
        "ĠdireÃ§Ã£o",
        -9.949969512002273
      ],
      [
        "HC",
        -9.951497286203397
      ],
      [
        "]",
        -9.951536712483344
      ],
      [
        "RS",
        -9.95202728999359
      ],
      [
        "Ġtais",
        -9.952551492580213
      ],
      [
        "ĠDep",
        -9.953691069784304
      ],
      [
        "Ġ&",
        -9.953811016724766
      ],
      [
        "ÃĬNCIA",
        -9.95640348673998
      ],
      [
        "ĠComplementar",
        -9.957462482153842
      ],
      [
        "Ġganho",
        -9.958648292618674
      ],
      [
        "Ġsuficiente",
        -9.959537428741312
      ],
      [
        "ÃŃcio",
        -9.960692070802564
      ],
      [
        "ĠcabeÃ§a",
        -9.961491883035466
      ],
      [
        "Ġministro",
        -9.961592833450409
      ],
      [
        "anti",
        -9.961803516628288
      ],
      [
        "Ġpratica",
        -9.962195998664193
      ],
      [
        "emprego",
        -9.962206168773456
      ],
      [
        "AgR",
        -9.9635168725443
      ],
      [
        "dÃŃvida",
        -9.964116001821433
      ],
      [
        "ĠEuropa",
        -9.964146202572191
      ],
      [
        "Ġquadro",
        -9.964768786800176
      ],
      [
        "SC",
        -9.96540955520754
      ],
      [
        "Ġbaixa",
        -9.965941165151468
      ],
      [
        "indÃºstria",
        -9.96660347585866
      ],
      [
        "Ġ1996",
        -9.970118782222537
      ],
      [
        "entendimento",
        -9.97035478954019
      ],
      [
        "declaraÃ§Ã£o",
        -9.970905699527076
      ],
      [
        "onde",
        -9.97132088125647
      ],
      [
        "ĠEscola",
        -9.971711114059888
      ],
      [
        "ĠRoma",
        -9.971972064300536
      ],
      [
        "å",
        -9.971991714755616
      ],
      [
        "Ġfaixa",
        -9.972110233319167
      ],
      [
        "Ġencontrar",
        -9.972234917133672
      ],
      [
        "Ġtr",
        -9.972653487408044
      ],
      [
        "razÃµes",
        -9.973091162131832
      ],
      [
        "AntÃ´nio",
        -9.97480059531792
      ],
      [
        "Ġsite",
        -9.975914528361836
      ],
      [
        "entidade",
        -9.977260246627372
      ],
      [
        "comissÃ£o",
        -9.9774419275431
      ],
      [
        "Ġentrar",
        -9.977574562213317
      ],
      [
        "Ġcolocar",
        -9.977838350712446
      ],
      [
        "Substitutivo",
        -9.978351723322774
      ],
      [
        "Ġrecebe",
        -9.978356281804327
      ],
      [
        "DEPUTADO",
        -9.978573224249862
      ],
      [
        "ĠportuguÃªs",
        -9.978608156391276
      ],
      [
        "the",
        -9.979385235102828
      ],
      [
        "vÃŃtima",
        -9.980375786883586
      ],
      [
        "Ġref",
        -9.980588389151666
      ],
      [
        "Ġrepresentante",
        -9.98087073591972
      ],
      [
        "ĠParanÃ¡",
        -9.981533118579977
      ],
      [
        "Ġrei",
        -9.982275926207606
      ],
      [
        "Portaria",
        -9.98250178154376
      ],
      [
        "prestaÃ§Ã£o",
        -9.982652383035644
      ],
      [
        "visÃ£o",
        -9.982688112727132
      ],
      [
        "SO",
        -9.984728183297127
      ],
      [
        "Ġapro",
        -9.985167883959862
      ],
      [
        "ĠPenal",
        -9.985462811365332
      ],
      [
        "almente",
        -9.985650058768444
      ],
      [
        "ĠJO",
        -9.985756247475194
      ],
      [
        "Ġtornar",
        -9.98579958799394
      ],
      [
        "Ġrestri",
        -9.986240652403634
      ],
      [
        "+",
        -9.986583872455334
      ],
      [
        "ĠSer",
        -9.98663979182731
      ],
      [
        "Primeiro",
        -9.987052904617398
      ],
      [
        "Ġ35",
        -9.987355712840802
      ],
      [
        "RG",
        -9.99013493826787
      ],
      [
        "SÃ©rgi",
        -9.99034354349431
      ],
      [
        "conformidade",
        -9.990618017007582
      ],
      [
        "RelatÃ³rio",
        -9.991619011062204
      ],
      [
        "Ġaconteceu",
        -9.99233835813442
      ],
      [
        "Certo",
        -9.992578859219249
      ],
      [
        "fico",
        -9.993268170386454
      ],
      [
        "IR",
        -9.99333865590474
      ],
      [
        "tivos",
        -9.993339586538994
      ],
      [
        "ĠvitÃ³ria",
        -9.993384488985107
      ],
      [
        "Ġnega",
        -9.993935007996916
      ],
      [
        "AC",
        -9.9941357027036
      ],
      [
        "ĠPr",
        -9.99453430946269
      ],
      [
        "locais",
        -9.994598223095013
      ],
      [
        "Ġindependente",
        -9.995111943718657
      ],
      [
        "Ġpermite",
        -9.995163453087525
      ],
      [
        "ĠPaul",
        -9.995912016571513
      ],
      [
        "provisÃ³ria",
        -9.996336562678655
      ],
      [
        "ĠSp",
        -9.997108763757138
      ],
      [
        "Ġusado",
        -9.99738203630686
      ],
      [
        "ĠAL",
        -9.99780658479422
      ],
      [
        "Ġdisco",
        -9.998210133125204
      ],
      [
        "¸",
        -9.999038889991214
      ],
      [
        "Ġdessas",
        -9.999171741810256
      ],
      [
        "ĠTri",
        -10.0001511831991
      ],
      [
        "Ġacerca",
        -10.00220114608338
      ],
      [
        "Ġtratar",
        -10.00223610391194
      ],
      [
        "Ġdemanda",
        -10.00401258822091
      ],
      [
        "Ł",
        -10.004875668594105
      ],
      [
        "aquela",
        -10.00528459365823
      ],
      [
        "Ġfonte",
        -10.005334071937805
      ],
      [
        "talvez",
        -10.00641739251081
      ],
      [
        "caÃ§Ã£o",
        -10.00658984687688
      ],
      [
        "veio",
        -10.00809100592974
      ],
      [
        "ĠtelevisÃ£o",
        -10.00881390303817
      ],
      [
        "ĠapresentaÃ§Ã£o",
        -10.010531881333954
      ],
      [
        "Ġcontinuar",
        -10.010549173276898
      ],
      [
        "riam",
        -10.01177010054004
      ],
      [
        "Ġpequena",
        -10.013457400592904
      ],
      [
        "tivas",
        -10.01439815760715
      ],
      [
        "Ġluz",
        -10.014582944948208
      ],
      [
        "seguintes",
        -10.014942223583327
      ],
      [
        "estavam",
        -10.015523894085488
      ],
      [
        "SRA",
        -10.015672492266264
      ],
      [
        "salÃ¡rio",
        -10.015850749344922
      ],
      [
        "OfÃŃci",
        -10.015996836492354
      ],
      [
        "ĠvÃª",
        -10.016173410149396
      ],
      [
        "PRB",
        -10.017388009043035
      ],
      [
        "Ġbaixo",
        -10.017414226168658
      ],
      [
        "Ġtomar",
        -10.017775180626332
      ],
      [
        "Ġabertura",
        -10.01853628763438
      ],
      [
        "leiÃ§Ã£o",
        -10.019377298690584
      ],
      [
        "ĠexperiÃªncia",
        -10.02041114218598
      ],
      [
        "ĠDepu",
        -10.0204603633803
      ],
      [
        "ĠComunitÃ¡ri",
        -10.02092525549598
      ],
      [
        "ĠPrefeit",
        -10.021115826528648
      ],
      [
        "Ġinstitui",
        -10.021196660173867
      ],
      [
        "prejuÃŃz",
        -10.021318095317833
      ],
      [
        "ĠcarÃ¡ter",
        -10.021326104378716
      ],
      [
        "arÃ¡grafo",
        -10.022840337314756
      ],
      [
        "ĠdifÃŃcil",
        -10.02318837691626
      ],
      [
        "GA",
        -10.02489299133396
      ],
      [
        "Ġantiga",
        -10.024961253207678
      ],
      [
        "Ġfunciona",
        -10.025773008006883
      ],
      [
        "ĠdistribuiÃ§Ã£o",
        -10.026579798908188
      ],
      [
        "atrÃ¡s",
        -10.026783110446887
      ],
      [
        "Ġdireta",
        -10.02955694318988
      ],
      [
        "Ġmulta",
        -10.029925018863109
      ],
      [
        "ĠTrans",
        -10.029975505118838
      ],
      [
        "Ġaprova",
        -10.030274167810605
      ],
      [
        "SÃĥO",
        -10.030827230783864
      ],
      [
        "Ġtime",
        -10.03164471836085
      ],
      [
        "IDADE",
        -10.032177561672537
      ],
      [
        "manutenÃ§Ã£o",
        -10.032449350630944
      ],
      [
        "ĠPOR",
        -10.033090482258554
      ],
      [
        "Ġjogos",
        -10.033160143312411
      ],
      [
        "ham",
        -10.033358825523134
      ],
      [
        "ĠPARA",
        -10.03364499305324
      ],
      [
        "Ġreceita",
        -10.033851891906387
      ],
      [
        "ĠTer",
        -10.0366765831764
      ],
      [
        "ciais",
        -10.037796315134488
      ],
      [
        "Ãĵ",
        -10.03867074790161
      ],
      [
        "ĠMac",
        -10.038988411043956
      ],
      [
        "ĠCentral",
        -10.039835084484702
      ],
      [
        "regiÃµes",
        -10.041717593628986
      ],
      [
        "Ġamigos",
        -10.041758996962669
      ],
      [
        "RES",
        -10.041917521946274
      ],
      [
        "efeitos",
        -10.042341546420104
      ],
      [
        "ĠProcesso",
        -10.04255532657197
      ],
      [
        "favorÃ¡vel",
        -10.043177530498786
      ],
      [
        "pt",
        -10.043311889748542
      ],
      [
        "mÃ¡tica",
        -10.043443811442602
      ],
      [
        "legais",
        -10.044147910404329
      ],
      [
        "tante",
        -10.044820030764113
      ],
      [
        "Ġbens",
        -10.045180637541902
      ],
      [
        "post",
        -10.04565920354429
      ],
      [
        "2018",
        -10.047928519880994
      ],
      [
        "utilizaÃ§Ã£o",
        -10.04805386882702
      ],
      [
        "Ġchama",
        -10.048717204304472
      ],
      [
        "dez",
        -10.049139502433768
      ],
      [
        "apesar",
        -10.049423495227098
      ],
      [
        "Ġlu",
        -10.049717926580644
      ],
      [
        "Ġcolega",
        -10.050160905127836
      ],
      [
        "Å",
        -10.050193559262611
      ],
      [
        "destinada",
        -10.05121690134278
      ],
      [
        "PSC",
        -10.052126820395598
      ],
      [
        "Ġtraz",
        -10.052698419167331
      ],
      [
        "Ī",
        -10.05362592097636
      ],
      [
        "ontem",
        -10.053811209707822
      ],
      [
        "Celso",
        -10.05416886275307
      ],
      [
        "Apoio",
        -10.05438653587447
      ],
      [
        "Ġdecreta",
        -10.05523374985121
      ],
      [
        "Ġfixa",
        -10.055354383627671
      ],
      [
        "eleiÃ§Ãµes",
        -10.055476926455556
      ],
      [
        "Ġrealizar",
        -10.056064660729875
      ],
      [
        "Ġcoloca",
        -10.05633260480869
      ],
      [
        "ĠOu",
        -10.056530671951576
      ],
      [
        "rb",
        -10.056767702962718
      ],
      [
        "Ġsofre",
        -10.057313160474246
      ],
      [
        "Ġatingi",
        -10.0574869690219
      ],
      [
        "Ġdocumentos",
        -10.057757138234074
      ],
      [
        "Ä",
        -10.059505507785277
      ],
      [
        "Ġinterna",
        -10.059514083100302
      ],
      [
        "ĠPlano",
        -10.060598751670785
      ],
      [
        "ĩ",
        -10.060754652619703
      ],
      [
        "Ġcento",
        -10.061440466446715
      ],
      [
        "dizendo",
        -10.061497387235676
      ],
      [
        "Ġtramita",
        -10.061868844613596
      ],
      [
        "Ġpasso",
        -10.061882996973347
      ],
      [
        "Ġopera",
        -10.061992889737096
      ],
      [
        "ĠPROPOSI",
        -10.06229744300803
      ],
      [
        "Ġimediata",
        -10.062346178461448
      ],
      [
        "ĠSouza",
        -10.063123529173009
      ],
      [
        "Ġuni",
        -10.063311761366377
      ],
      [
        "Ġatua",
        -10.063667068056064
      ],
      [
        "Ġvenda",
        -10.064256978579818
      ],
      [
        "Ġviola",
        -10.064335950783764
      ],
      [
        "ausÃªncia",
        -10.06443647190363
      ],
      [
        "militares",
        -10.065022019521006
      ],
      [
        "Ġpermitir",
        -10.0655260729082
      ],
      [
        "Ġinfra",
        -10.065595892716326
      ],
      [
        "Ġmelhores",
        -10.06560185574234
      ],
      [
        "±",
        -10.066115083075449
      ],
      [
        "Ġrevela",
        -10.06669559418378
      ],
      [
        "Ġigual",
        -10.067007992538914
      ],
      [
        "diretamente",
        -10.06729403056839
      ],
      [
        "entrada",
        -10.067575069371122
      ],
      [
        "Ġcen",
        -10.06789940121868
      ],
      [
        "ĠGomes",
        -10.068644250472522
      ],
      [
        "Ġregra",
        -10.068659836753293
      ],
      [
        "ĠConced",
        -10.06889511749775
      ],
      [
        "Ã©tica",
        -10.068996763420914
      ],
      [
        "Ġfazem",
        -10.070244654745604
      ],
      [
        "sul",
        -10.070281878747023
      ],
      [
        "Ġoito",
        -10.0703300162554
      ],
      [
        "essÃ£o",
        -10.070623788218558
      ],
      [
        "ĠGrosso",
        -10.070914093881132
      ],
      [
        "ĠMunicipal",
        -10.071213890548895
      ],
      [
        "Ġinterior",
        -10.071351915495692
      ],
      [
        "motivo",
        -10.071634702717793
      ],
      [
        "Ġperto",
        -10.07193615959761
      ],
      [
        "Ġouvi",
        -10.072029147921496
      ],
      [
        "ĠMinistra",
        -10.07262896007393
      ],
      [
        "ĠoperaÃ§Ã£o",
        -10.072853744683892
      ],
      [
        "ĠLopes",
        -10.07358007447906
      ],
      [
        "ĠEli",
        -10.074273036270524
      ],
      [
        "ĠcanÃ§Ã£o",
        -10.075106721844053
      ],
      [
        "Ġ38",
        -10.075505551977592
      ],
      [
        "CARLOS",
        -10.075846778920504
      ],
      [
        "Ġtentar",
        -10.075869872218211
      ],
      [
        "ĠMilitar",
        -10.075966549103086
      ],
      [
        "ĠKi",
        -10.07610218419415
      ],
      [
        "Ġsete",
        -10.076372044154
      ],
      [
        "MG",
        -10.076544748850203
      ],
      [
        "Ġcapaz",
        -10.077251567029974
      ],
      [
        "Ġdiscutir",
        -10.077717693063065
      ],
      [
        "ĠRocha",
        -10.077990732826034
      ],
      [
        "Ġgera",
        -10.07844949540217
      ],
      [
        "uns",
        -10.079365700417467
      ],
      [
        "GERAL",
        -10.079615945495386
      ],
      [
        "ĠCer",
        -10.080403101354484
      ],
      [
        "ĠvÃŃdeo",
        -10.080831236761014
      ],
      [
        "Ġpropriedade",
        -10.08101789377582
      ],
      [
        "ĠcomeÃ§ar",
        -10.081040757307518
      ],
      [
        "Estamos",
        -10.08124763897397
      ],
      [
        "Ġconsiderada",
        -10.081299486496071
      ],
      [
        "Ġadministrativa",
        -10.081473292472689
      ],
      [
        "tida",
        -10.082263699465368
      ],
      [
        "inclusÃ£o",
        -10.082721071486404
      ],
      [
        "ku",
        -10.084303358330946
      ],
      [
        "ĠlanÃ§amento",
        -10.08432849435577
      ],
      [
        "ĠSabe",
        -10.084406241145368
      ],
      [
        "Ġperda",
        -10.085030596081449
      ],
      [
        "grafia",
        -10.08599667424401
      ],
      [
        "operaÃ§Ãµes",
        -10.086332361236744
      ],
      [
        "ĠLista",
        -10.08670510215753
      ],
      [
        "Ġinforma",
        -10.086724112564823
      ],
      [
        "Ġ[",
        -10.087041632412667
      ],
      [
        "Ġmora",
        -10.087103846050356
      ],
      [
        "ED",
        -10.087350950347746
      ],
      [
        "alunos",
        -10.087645899287262
      ],
      [
        "ĠpeÃ§o",
        -10.088304498032842
      ],
      [
        "Ġcompromisso",
        -10.09134355062912
      ],
      [
        "ĠChi",
        -10.092347826009275
      ],
      [
        "Ġseguir",
        -10.09260233099137
      ],
      [
        "Pausa",
        -10.092655016404551
      ],
      [
        "ĠorÃ§amentÃ¡ria",
        -10.09368622038353
      ],
      [
        "ĠPorque",
        -10.094300423654984
      ],
      [
        "Ġcri",
        -10.094384222410373
      ],
      [
        "Ġaplica",
        -10.094450842299809
      ],
      [
        "pÃºblicos",
        -10.095020892195643
      ],
      [
        "Ġlimite",
        -10.095093701838062
      ],
      [
        "ĠCatarina",
        -10.095815433330712
      ],
      [
        "Ġacabou",
        -10.095833936773593
      ],
      [
        "Ġtroca",
        -10.09623962708372
      ],
      [
        "Ġlocalizado",
        -10.096309136347266
      ],
      [
        "Ġrelativa",
        -10.09749306093301
      ],
      [
        "ĠmÃ©dio",
        -10.097863047342042
      ],
      [
        "Ġjovem",
        -10.098158666220282
      ],
      [
        "dÃ¡",
        -10.098289278068648
      ],
      [
        "Ġescolas",
        -10.09830317076775
      ],
      [
        "xclusividade",
        -10.098753417585884
      ],
      [
        "Ġmetros",
        -10.099469836184666
      ],
      [
        "Ġrio",
        -10.100003079786225
      ],
      [
        "referido",
        -10.100307339742596
      ],
      [
        "ĠVeja",
        -10.10052798953348
      ],
      [
        "Ġdiferente",
        -10.101555623492278
      ],
      [
        "exposto",
        -10.102509395638794
      ],
      [
        "Ġquarto",
        -10.103164541106104
      ],
      [
        "Ġconseguiu",
        -10.103256926706246
      ],
      [
        "Ġ1991",
        -10.103330450147883
      ],
      [
        "Ġutilizado",
        -10.103880503772949
      ],
      [
        "ĠGeral",
        -10.10392535297616
      ],
      [
        "Ãºmula",
        -10.10405649956012
      ],
      [
        "Ġservi",
        -10.104445986136504
      ],
      [
        "Ġquer",
        -10.104841594908825
      ],
      [
        "Apesar",
        -10.106320876250692
      ],
      [
        "esforÃ§o",
        -10.106414333989504
      ],
      [
        "Ġcondena",
        -10.107135503903852
      ],
      [
        "ĠdiferenÃ§a",
        -10.107665412290164
      ],
      [
        "americana",
        -10.108750252621869
      ],
      [
        "ĠProfessor",
        -10.10957193465314
      ],
      [
        "Ġorienta",
        -10.10994245883221
      ],
      [
        "ĠDiretor",
        -10.11006870535397
      ],
      [
        "ĠLUIZ",
        -10.11092901873757
      ],
      [
        "Ġestudos",
        -10.110968863510076
      ],
      [
        "uplente",
        -10.111252026463172
      ],
      [
        "estabelecimento",
        -10.11155973831132
      ],
      [
        "Ġcompleta",
        -10.111804528568362
      ],
      [
        "Ġfinanciamento",
        -10.112783460587986
      ],
      [
        "Ġimprensa",
        -10.113036164790596
      ],
      [
        "Ġquantidade",
        -10.113128360703609
      ],
      [
        "Ġpagar",
        -10.113854742350012
      ],
      [
        "PPS",
        -10.114458869394989
      ],
      [
        "Ġpais",
        -10.114665415308098
      ],
      [
        "Ġapa",
        -10.115678018489891
      ],
      [
        "EM",
        -10.115763600531162
      ],
      [
        "ĠCONSTITUIÃĩÃĥO",
        -10.11598906899832
      ],
      [
        "line",
        -10.116594356294865
      ],
      [
        "ung",
        -10.116667039394027
      ],
      [
        "Ġhonra",
        -10.117256614267648
      ],
      [
        "zinho",
        -10.118312538892685
      ],
      [
        "Ġquarta",
        -10.118451060313292
      ],
      [
        "ĠBan",
        -10.119583147873806
      ],
      [
        "plenÃ¡rio",
        -10.119597515319208
      ],
      [
        "ĠGal",
        -10.119743011944076
      ],
      [
        "Ġ36",
        -10.121343661275386
      ],
      [
        "Ġbe",
        -10.12140739324903
      ],
      [
        "Ġ1995",
        -10.122365117448652
      ],
      [
        "ĠChe",
        -10.12284056491148
      ],
      [
        "nÃ¡ria",
        -10.123235847559084
      ],
      [
        "Ġescrito",
        -10.123770521937232
      ],
      [
        "ĠPra",
        -10.124618471688086
      ],
      [
        "ĠMaranhÃ£o",
        -10.125251474249342
      ],
      [
        "ego",
        -10.125456843308267
      ],
      [
        "ĠRS",
        -10.125587200773657
      ],
      [
        "ĠAlmeida",
        -10.126551322644028
      ],
      [
        "falando",
        -10.126630564169506
      ],
      [
        "Ġvaria",
        -10.12670060614516
      ],
      [
        "INA",
        -10.127042024323234
      ],
      [
        "Ġentrega",
        -10.127490696867444
      ],
      [
        "Ġlocalizada",
        -10.127595311025452
      ],
      [
        "ĠFica",
        -10.1276659274127
      ],
      [
        "Ġantigo",
        -10.127845754958312
      ],
      [
        "ĠameaÃ§a",
        -10.127972829741164
      ],
      [
        "sol",
        -10.12823858210921
      ],
      [
        "ĠMari",
        -10.128642561123128
      ],
      [
        "ĠParÃ¡",
        -10.128998336971913
      ],
      [
        "ĠprÃ©",
        -10.129044057616834
      ],
      [
        "ĠPelo",
        -10.129863546866757
      ],
      [
        "burg",
        -10.1298969590679
      ],
      [
        "OSÃī",
        -10.13001877767432
      ],
      [
        "Ġunidades",
        -10.130557303376856
      ],
      [
        "Ġcomigo",
        -10.130857515402052
      ],
      [
        "ĠQuer",
        -10.130961652299618
      ],
      [
        "ĠUSP",
        -10.131478388858673
      ],
      [
        "Ġconfi",
        -10.131743596756504
      ],
      [
        "Ġinicial",
        -10.131932267045558
      ],
      [
        "desc",
        -10.13222039396154
      ],
      [
        "Ġexatamente",
        -10.132520569188276
      ],
      [
        "Ġalega",
        -10.133942818712486
      ],
      [
        "CIA",
        -10.134560406563638
      ],
      [
        "Ġdeputado",
        -10.134560996533128
      ],
      [
        "Ġpobre",
        -10.134739129831068
      ],
      [
        "aqueles",
        -10.135139718725243
      ],
      [
        "privada",
        -10.135168772067432
      ],
      [
        "ĠRodrigues",
        -10.135686987105004
      ],
      [
        "ĠBal",
        -10.13616774855088
      ],
      [
        "benefÃŃcio",
        -10.13629681981833
      ],
      [
        "Ġpior",
        -10.136398396235604
      ],
      [
        "Ġarte",
        -10.13667210859558
      ],
      [
        "ĠCidade",
        -10.13845498098775
      ],
      [
        "ĠBel",
        -10.13857098078778
      ],
      [
        "mÃ¡ximo",
        -10.138883959546805
      ],
      [
        "Ġhumano",
        -10.13956398639706
      ],
      [
        "ĠGrupo",
        -10.13957269133946
      ],
      [
        "¤",
        -10.139711029614276
      ],
      [
        "ĠcrianÃ§a",
        -10.139801403031791
      ],
      [
        "nÂº",
        -10.140101088499469
      ],
      [
        "ĠMaio",
        -10.141879829993378
      ],
      [
        "Ġassumi",
        -10.142429629110318
      ],
      [
        "QUE",
        -10.142578501444268
      ],
      [
        "ĠQUE",
        -10.142729371792312
      ],
      [
        "lizado",
        -10.14323436396502
      ],
      [
        "Ġhaja",
        -10.14391746332565
      ],
      [
        "BR",
        -10.143919099187734
      ],
      [
        "ĠCarvalho",
        -10.144155150930835
      ],
      [
        "Ġresultados",
        -10.145237204843989
      ],
      [
        "Ġama",
        -10.146205815548376
      ],
      [
        "ney",
        -10.14648873999938
      ],
      [
        "julgado",
        -10.146988671748616
      ],
      [
        "NR",
        -10.147399364394175
      ],
      [
        "ambos",
        -10.148023807316957
      ],
      [
        "Ġtado",
        -10.14956970201722
      ],
      [
        "LideranÃ§a",
        -10.14986675459002
      ],
      [
        "ĠOnde",
        -10.150242215261182
      ],
      [
        "bairro",
        -10.150563194734495
      ],
      [
        "RegiÃ£o",
        -10.150564183333811
      ],
      [
        "ĠMen",
        -10.15096942539712
      ],
      [
        "corrupÃ§Ã£o",
        -10.151259529952796
      ],
      [
        "ĠcontribuiÃ§Ã£o",
        -10.152390654710564
      ],
      [
        "ĠQual",
        -10.152633611803344
      ],
      [
        "Ġrel",
        -10.152797151959994
      ],
      [
        "Pen",
        -10.15459023233225
      ],
      [
        "chefe",
        -10.154903583083382
      ],
      [
        "ĠMinha",
        -10.155062198889857
      ],
      [
        "atriz",
        -10.155907231006996
      ],
      [
        "ĠSuper",
        -10.156514626182082
      ],
      [
        "Ġmundial",
        -10.156592596957884
      ],
      [
        "tÃ¡ria",
        -10.156908831735558
      ],
      [
        "Ġ119",
        -10.157367810128942
      ],
      [
        "Ġparticipa",
        -10.157969636335851
      ],
      [
        "ĠepisÃ³dio",
        -10.158492538318413
      ],
      [
        "ĠDaniel",
        -10.158989858313507
      ],
      [
        "Ġenfrenta",
        -10.158992056506593
      ],
      [
        "ĠcidadÃ£o",
        -10.15919117364966
      ],
      [
        "tiveram",
        -10.159332644656782
      ],
      [
        "doras",
        -10.159499937628626
      ],
      [
        "DF",
        -10.160188465090672
      ],
      [
        "ĠgÃªnero",
        -10.160716616515591
      ],
      [
        "Ġencontro",
        -10.161691093039948
      ],
      [
        "ĠhistÃ³rico",
        -10.161991833266072
      ],
      [
        "ĠToda",
        -10.162113782776954
      ],
      [
        "Ġaberto",
        -10.162513334264125
      ],
      [
        "Ġestadual",
        -10.16296259861487
      ],
      [
        "Ġganha",
        -10.163732217275722
      ],
      [
        "Ġpedir",
        -10.16394521554763
      ],
      [
        "ĠLEGISLATIV",
        -10.16397871153468
      ],
      [
        "somos",
        -10.16433442113547
      ],
      [
        "ĠMG",
        -10.164373170316855
      ],
      [
        "ĠRIO",
        -10.16536148771718
      ],
      [
        "lizaÃ§Ã£o",
        -10.16634806403531
      ],
      [
        "Ġinicia",
        -10.166570704766226
      ],
      [
        "Ġestabelecer",
        -10.166663445166517
      ],
      [
        "distrito",
        -10.16666475903885
      ],
      [
        "Ġconseguir",
        -10.16673248955977
      ],
      [
        "Ġevitar",
        -10.167514074803307
      ],
      [
        "Ġclara",
        -10.1680592225759
      ],
      [
        "Ġvivo",
        -10.168464445539318
      ],
      [
        "ĠAugusto",
        -10.168577408434915
      ],
      [
        "ĠReino",
        -10.168669295415176
      ],
      [
        "ĠQu",
        -10.169063842142457
      ],
      [
        "Ġvive",
        -10.16916755184824
      ],
      [
        "Ġmedi",
        -10.169668303172111
      ],
      [
        "ĠpolÃŃcia",
        -10.170285339890253
      ],
      [
        "ĠAndrÃ©",
        -10.171028954592476
      ],
      [
        "Ġestes",
        -10.172394218231746
      ],
      [
        "Ġsala",
        -10.172451737767096
      ],
      [
        "deira",
        -10.172475770060409
      ],
      [
        "Ġacontece",
        -10.17248258744656
      ],
      [
        "ĠjurÃŃdico",
        -10.173016092332809
      ],
      [
        "ĠZe",
        -10.173134509488904
      ],
      [
        "ĠNordeste",
        -10.173480684978593
      ],
      [
        "Ġgosta",
        -10.1740506215417
      ],
      [
        "raÃ§a",
        -10.174674844311784
      ],
      [
        "AmazÃ´nia",
        -10.174772491239231
      ],
      [
        "Ġfigura",
        -10.174857136285986
      ],
      [
        "Ġdaquel",
        -10.17530232364923
      ],
      [
        "Ġmudar",
        -10.1754586161832
      ],
      [
        "Estadual",
        -10.175734808465482
      ],
      [
        "Talvez",
        -10.176153193647586
      ],
      [
        "Ġdetermina",
        -10.177341777818423
      ],
      [
        "impacto",
        -10.178017305107224
      ],
      [
        "ĠZa",
        -10.179181883603984
      ],
      [
        "Figueiredo",
        -10.179186682618838
      ],
      [
        "Fazenda",
        -10.179559804100473
      ],
      [
        "ĠFamÃŃlia",
        -10.18012180335607
      ],
      [
        "Ġmerece",
        -10.180314446426442
      ],
      [
        "Ġgrau",
        -10.1803862714518
      ],
      [
        "ĠWikipÃ©dia",
        -10.180943349093488
      ],
      [
        "atualmente",
        -10.181093369958328
      ],
      [
        "ĠDECRET",
        -10.181131054279629
      ],
      [
        "JudiciÃ¡ri",
        -10.181838571969994
      ],
      [
        "requisitos",
        -10.1820353718971
      ],
      [
        "ĠNA",
        -10.182215320162472
      ],
      [
        "Ġjudicial",
        -10.18229689898115
      ],
      [
        "ĠNelson",
        -10.182350487682829
      ],
      [
        "ET",
        -10.18295392834569
      ],
      [
        "Ġ01",
        -10.18338249456707
      ],
      [
        "Ġdocumento",
        -10.1845204141837
      ],
      [
        "ĠSeguranÃ§a",
        -10.184759330920516
      ],
      [
        "Teixeira",
        -10.18502991882532
      ],
      [
        "Ġresulta",
        -10.18586204224257
      ],
      [
        "Ġfui",
        -10.186263420470365
      ],
      [
        "preÃ§os",
        -10.186593530212672
      ],
      [
        "ĠPan",
        -10.186622039342412
      ],
      [
        "ĠJan",
        -10.18687384349784
      ],
      [
        "bit",
        -10.187966634938295
      ],
      [
        "ĠReal",
        -10.188062938778025
      ],
      [
        "Ġface",
        -10.189016199868112
      ],
      [
        "ĠFer",
        -10.189102683224826
      ],
      [
        "Ġespecifica",
        -10.189648156532137
      ],
      [
        "°",
        -10.190257381806868
      ],
      [
        "regras",
        -10.190413844661895
      ],
      [
        "Ġposto",
        -10.19068621779178
      ],
      [
        "DiscussÃ£o",
        -10.190970532821805
      ],
      [
        "Ġshow",
        -10.191123700172083
      ],
      [
        "Ġcentral",
        -10.19142678566736
      ],
      [
        "ker",
        -10.19164010575497
      ],
      [
        "__",
        -10.192138112770865
      ],
      [
        "Ġespera",
        -10.193483820673505
      ],
      [
        "criada",
        -10.194776743334533
      ],
      [
        "versa",
        -10.196288689213905
      ],
      [
        "ling",
        -10.197095164808236
      ],
      [
        "Ġpalavras",
        -10.1977289999394
      ],
      [
        "levou",
        -10.197992682319637
      ],
      [
        "ĠBoa",
        -10.1981720196752
      ],
      [
        "ĠDesde",
        -10.198363127439675
      ],
      [
        "Ġanimais",
        -10.20009160259129
      ],
      [
        "ĠFutebol",
        -10.20039900030719
      ],
      [
        "ĠNew",
        -10.200797021289524
      ],
      [
        "Ġ1988",
        -10.201209960565878
      ],
      [
        "Ġ48",
        -10.201626824359357
      ],
      [
        "ĠART",
        -10.201987883912874
      ],
      [
        "candidato",
        -10.202443839280518
      ],
      [
        "existente",
        -10.203703559525984
      ],
      [
        "ĠOlÃ¡",
        -10.204559754824604
      ],
      [
        "abaixo",
        -10.204792861542758
      ],
      [
        "Ġestilo",
        -10.205722486264072
      ],
      [
        "publicada",
        -10.205759613200746
      ],
      [
        "Ġacusa",
        -10.206122179134384
      ],
      [
        "ĠAlberto",
        -10.207151988473088
      ],
      [
        "vemos",
        -10.207488250047907
      ],
      [
        "Con",
        -10.207508301252638
      ],
      [
        "avaliaÃ§Ã£o",
        -10.208218072968927
      ],
      [
        "ĠChina",
        -10.20843171780857
      ],
      [
        "paciente",
        -10.20865777222287
      ],
      [
        "Ġcur",
        -10.208900918071231
      ],
      [
        "Ġanti",
        -10.209675157315877
      ],
      [
        "ĠNossa",
        -10.210114237156953
      ],
      [
        "Ġ80",
        -10.21111351539422
      ],
      [
        "Ġamericano",
        -10.2111878295473
      ],
      [
        "á",
        -10.211664128339816
      ],
      [
        "Ġdepende",
        -10.212101614911202
      ],
      [
        "bus",
        -10.21260645783554
      ],
      [
        "Ġmesa",
        -10.21294344882715
      ],
      [
        "ĠciÃªncia",
        -10.21373538225366
      ],
      [
        "ĠUS",
        -10.214289462050909
      ],
      [
        "ĠPolÃŃtica",
        -10.21438217456433
      ],
      [
        "possam",
        -10.21440287384673
      ],
      [
        "ĠRequer",
        -10.214716410930418
      ],
      [
        "Ġentrevista",
        -10.21605441346151
      ],
      [
        "*",
        -10.216538714161365
      ],
      [
        "Ġfeliz",
        -10.216740078967035
      ],
      [
        "ĠLuÃŃs",
        -10.21765650579222
      ],
      [
        "PL",
        -10.218099227485084
      ],
      [
        "Ġprocedimento",
        -10.218618688555011
      ],
      [
        "ĠMundo",
        -10.219106238478384
      ],
      [
        "ĠAlemanha",
        -10.219299520146524
      ],
      [
        "Ġinvestimento",
        -10.220415489494984
      ],
      [
        "ĠPri",
        -10.220632411803816
      ],
      [
        "iam",
        -10.221023847130716
      ],
      [
        "licitante",
        -10.22163423184998
      ],
      [
        "nacionais",
        -10.22197766835632
      ],
      [
        "Ġacidente",
        -10.222461729953256
      ],
      [
        "ĠRede",
        -10.22320015649555
      ],
      [
        "Ġvice",
        -10.223234736758464
      ],
      [
        "ĠPROC",
        -10.223825018566972
      ],
      [
        "ĠTemo",
        -10.223825937688664
      ],
      [
        "¶",
        -10.22382846791081
      ],
      [
        "Ġpretende",
        -10.224444772012218
      ],
      [
        "Ġanual",
        -10.224509271900342
      ],
      [
        "Ġatender",
        -10.224958190108245
      ],
      [
        "Ġdemocracia",
        -10.225110707580807
      ],
      [
        "ĠPp",
        -10.226783816640982
      ],
      [
        "ĠWal",
        -10.22683064372464
      ],
      [
        "rum",
        -10.227402434348852
      ],
      [
        "relaÃ§Ãµes",
        -10.227406826721436
      ],
      [
        "Ġexplorar",
        -10.227951480567322
      ],
      [
        "ĠDom",
        -10.228165832923317
      ],
      [
        "Ġrural",
        -10.228809637618053
      ],
      [
        "ĠLisboa",
        -10.228912983925785
      ],
      [
        "EUA",
        -10.229224834903915
      ],
      [
        "LT",
        -10.229746826365291
      ],
      [
        "ji",
        -10.229913587290852
      ],
      [
        "Ġambiental",
        -10.229939265566903
      ],
      [
        "PSL",
        -10.230058268885037
      ],
      [
        "ĠmanhÃ£",
        -10.230158470432263
      ],
      [
        "ĠVai",
        -10.23033113363509
      ],
      [
        "ĠfunÃ§Ãµes",
        -10.23034177800822
      ],
      [
        "Ġregula",
        -10.230454594370816
      ],
      [
        "Ã³n",
        -10.23108768136143
      ],
      [
        "ĠJesus",
        -10.231186985790153
      ],
      [
        "ĠAlexandre",
        -10.231962655181135
      ],
      [
        "Ġoferece",
        -10.232014902895576
      ],
      [
        "Ġfinanceiro",
        -10.232061136913703
      ],
      [
        "Ġfesta",
        -10.232151835102083
      ],
      [
        "virtud",
        -10.232717415180376
      ],
      [
        "deficiÃªncia",
        -10.233047044760502
      ],
      [
        "ĠCapi",
        -10.233087227137132
      ],
      [
        "ĠAma",
        -10.233813352602413
      ],
      [
        "PrevidÃªncia",
        -10.233869432277736
      ],
      [
        "Ġjornalista",
        -10.2359448676192
      ],
      [
        "ĠSerra",
        -10.236145370015809
      ],
      [
        "Ġdispo",
        -10.236196645426144
      ],
      [
        "Ï",
        -10.2364724778136
      ],
      [
        "fronteira",
        -10.236549498689874
      ],
      [
        "ĠMichel",
        -10.23817975889934
      ],
      [
        "In",
        -10.238201213014184
      ],
      [
        "Ã¢nia",
        -10.23947866931812
      ],
      [
        "Ġbio",
        -10.239534898363738
      ],
      [
        "Ġimagem",
        -10.239912601378522
      ],
      [
        "Ġjustifica",
        -10.239960791910937
      ],
      [
        "decreto",
        -10.240161909840058
      ],
      [
        "ĠpeÃ§a",
        -10.240296483836367
      ],
      [
        "Ġguarda",
        -10.24045126576512
      ],
      [
        "ĠMil",
        -10.240502309365636
      ],
      [
        "CearÃ¡",
        -10.240550163755383
      ],
      [
        "ĠRodrigo",
        -10.240700765509413
      ],
      [
        "ÃŃndice",
        -10.24097074547068
      ],
      [
        "ĠArthur",
        -10.24169997366621
      ],
      [
        "FundaÃ§Ã£o",
        -10.242039166880382
      ],
      [
        "ĠAnt",
        -10.242153769638737
      ],
      [
        "Ġdisciplina",
        -10.242345967210207
      ],
      [
        "ublique",
        -10.242352073223032
      ],
      [
        "icamente",
        -10.243543647454215
      ],
      [
        "Ġpaga",
        -10.243545811950186
      ],
      [
        "Ġbanco",
        -10.243825961392556
      ],
      [
        "Ġconcurso",
        -10.244014946385764
      ],
      [
        "apresentou",
        -10.244354712019804
      ],
      [
        "ĠrÃ¡pido",
        -10.244433827219687
      ],
      [
        "ĠdenÃºncia",
        -10.244457880537244
      ],
      [
        "imagens",
        -10.244758829007289
      ],
      [
        "nunciou",
        -10.244766096086137
      ],
      [
        "Ġlido",
        -10.24527707283216
      ],
      [
        "trecho",
        -10.24542072714165
      ],
      [
        "ĠMarcos",
        -10.245952022304383
      ],
      [
        "Ġtorno",
        -10.246042323631857
      ],
      [
        "Ġzona",
        -10.246057581354004
      ],
      [
        "Ġataque",
        -10.246117729020009
      ],
      [
        "tivesse",
        -10.247018641988122
      ],
      [
        "Departamento",
        -10.248043893266804
      ],
      [
        "NÃ£o",
        -10.248285761295724
      ],
      [
        "Ġsom",
        -10.24871273586999
      ],
      [
        "Ġunidade",
        -10.248905941968347
      ],
      [
        "como",
        -10.249880574218324
      ],
      [
        "Ġpromover",
        -10.250749802234573
      ],
      [
        "rais",
        -10.250965814103353
      ],
      [
        "Ġentender",
        -10.251534740465695
      ],
      [
        "ĠAcre",
        -10.251857225838254
      ],
      [
        "Ġpreso",
        -10.251875893961495
      ],
      [
        "Ġcal",
        -10.25217834229054
      ],
      [
        "tenÃ§Ã£o",
        -10.25247212784654
      ],
      [
        "berg",
        -10.25403144409504
      ],
      [
        "ĠLegislativa",
        -10.25414612883444
      ],
      [
        "usada",
        -10.254279754189811
      ],
      [
        "Ġexpressa",
        -10.255018663189093
      ],
      [
        "exigÃªncia",
        -10.255510214951933
      ],
      [
        "Ġcomercial",
        -10.256308294135994
      ],
      [
        "Ġtrabalha",
        -10.25716993932124
      ],
      [
        "Ġ*",
        -10.25719203322859
      ],
      [
        "ĠSÃ¡",
        -10.257205863178436
      ],
      [
        "AP",
        -10.257638875818358
      ],
      [
        "Ġigreja",
        -10.258072527749782
      ],
      [
        "Ġetc",
        -10.258984989473442
      ],
      [
        "Ġerro",
        -10.25905799972016
      ],
      [
        "Ġconceito",
        -10.2590735525722
      ],
      [
        "ĠopiniÃ£o",
        -10.259234947047256
      ],
      [
        "Ġusa",
        -10.25939125553167
      ],
      [
        "ĠDESPACH",
        -10.25970333474536
      ],
      [
        "Ġrua",
        -10.261643912311529
      ],
      [
        "conflito",
        -10.261679859407629
      ],
      [
        "Ġapre",
        -10.262234113038954
      ],
      [
        "Geraldo",
        -10.2623693114365
      ],
      [
        "Ġrenova",
        -10.262837623047538
      ],
      [
        "Ġderrota",
        -10.263166916188306
      ],
      [
        "apensado",
        -10.263614224417484
      ],
      [
        "Ġcumpri",
        -10.263703612542349
      ],
      [
        "relativo",
        -10.263786953664232
      ],
      [
        "escu",
        -10.263883670546306
      ],
      [
        "Ġseguro",
        -10.264183933612571
      ],
      [
        "ĠRO",
        -10.2652729272553
      ],
      [
        "ĠCur",
        -10.265356878909405
      ],
      [
        "Ġprovi",
        -10.266904092930382
      ],
      [
        "Ġatende",
        -10.266907725343843
      ],
      [
        "Ġhabita",
        -10.267424418079903
      ],
      [
        "leitura",
        -10.269255242758495
      ],
      [
        "urgÃªncia",
        -10.269287713486762
      ],
      [
        "Ġilha",
        -10.270000416092486
      ],
      [
        "Ġbra",
        -10.271092343512905
      ],
      [
        "Ġconsegue",
        -10.271469359648227
      ],
      [
        "Ġcontas",
        -10.27149414823897
      ],
      [
        "benefÃŃcios",
        -10.271680244571163
      ],
      [
        "½",
        -10.27203700467941
      ],
      [
        "ĠorientaÃ§Ã£o",
        -10.272038167059543
      ],
      [
        "PÃ¡gina",
        -10.27223092882035
      ],
      [
        "mann",
        -10.272394377146265
      ],
      [
        "Ġplanta",
        -10.272863691183993
      ],
      [
        "ENTE",
        -10.273255316141736
      ],
      [
        "ĠVista",
        -10.273448452269545
      ],
      [
        "Ġenca",
        -10.273628064562072
      ],
      [
        "alteraÃ§Ã£o",
        -10.274436713566685
      ],
      [
        "geraÃ§Ã£o",
        -10.274510152021543
      ],
      [
        "ĠParis",
        -10.274590692193025
      ],
      [
        "ĠmÃ¡",
        -10.275573060405318
      ],
      [
        "sidente",
        -10.27581839162915
      ],
      [
        "www",
        -10.27621845943633
      ],
      [
        "Ġresta",
        -10.27673994626946
      ],
      [
        "NAL",
        -10.277418138916069
      ],
      [
        "ĠjustiÃ§a",
        -10.277499110606602
      ],
      [
        "ĠAp",
        -10.277521206574464
      ],
      [
        "Ġouvir",
        -10.278042181846848
      ],
      [
        "ResoluÃ§Ã£o",
        -10.278425451088388
      ],
      [
        "juros",
        -10.278486981935762
      ],
      [
        "ĠOUTR",
        -10.27849961257758
      ],
      [
        "Ġreclama",
        -10.278566647278334
      ],
      [
        "Jogos",
        -10.27860153474436
      ],
      [
        "IV",
        -10.27861069668744
      ],
      [
        "substitutivo",
        -10.279770673867215
      ],
      [
        "ĠQuanto",
        -10.280207184555971
      ],
      [
        "¾",
        -10.281195469264125
      ],
      [
        "ĠAh",
        -10.281627373433093
      ],
      [
        "Ġexigi",
        -10.28264706063418
      ],
      [
        "doenÃ§a",
        -10.28323796678423
      ],
      [
        "ĠSobre",
        -10.283582196887316
      ],
      [
        "constitucionai",
        -10.28365214864743
      ],
      [
        "Ġfar",
        -10.284850489992898
      ],
      [
        "vontade",
        -10.285638026368945
      ],
      [
        "Moreira",
        -10.286214967523614
      ],
      [
        "IDA",
        -10.286230411418993
      ],
      [
        "ĠRei",
        -10.286612821733106
      ],
      [
        "Ġadequa",
        -10.28732797322033
      ],
      [
        "Ġsitua",
        -10.287387901571355
      ],
      [
        "Ġremunera",
        -10.287563123102013
      ],
      [
        "rÃŃamos",
        -10.287606453193446
      ],
      [
        "Ġcarga",
        -10.288070998030062
      ],
      [
        "parceria",
        -10.289906114716436
      ],
      [
        "amanhÃ£",
        -10.290670877224604
      ],
      [
        "Ġcarta",
        -10.290909847617412
      ],
      [
        "ocorreu",
        -10.290928116743652
      ],
      [
        "rÃ¡pida",
        -10.291314475157106
      ],
      [
        "ĠGua",
        -10.291544021275568
      ],
      [
        "advogado",
        -10.29159982121116
      ],
      [
        "privado",
        -10.2916759314582
      ],
      [
        "PrÃªmio",
        -10.291925448980471
      ],
      [
        "gli",
        -10.29320086961731
      ],
      [
        "elli",
        -10.293731908376488
      ],
      [
        "Ġitem",
        -10.29456374303663
      ],
      [
        "instalaÃ§Ã£o",
        -10.29466210021346
      ],
      [
        "assistÃªncia",
        -10.294985966700349
      ],
      [
        "Proposta",
        -10.295875210746392
      ],
      [
        "mil",
        -10.296790058820283
      ],
      [
        "Ġinstru",
        -10.296898577664836
      ],
      [
        "fiscalizaÃ§Ã£o",
        -10.29733548408636
      ],
      [
        "irÃ¡",
        -10.297445749577513
      ],
      [
        "Ġjuiz",
        -10.298961142025655
      ],
      [
        "ĠForÃ§a",
        -10.299171724862338
      ],
      [
        "Ġ49",
        -10.299477307544883
      ],
      [
        "ĠJU",
        -10.299796659925937
      ],
      [
        "ITO",
        -10.30022670402161
      ],
      [
        "tais",
        -10.300251617052698
      ],
      [
        "havend",
        -10.301195269468218
      ],
      [
        "Ġquinta",
        -10.301376825912577
      ],
      [
        "Ġhumana",
        -10.302056635847716
      ],
      [
        "ĠAltera",
        -10.302561416147489
      ],
      [
        "existem",
        -10.303036460161708
      ],
      [
        "ĠNeste",
        -10.30333444108243
      ],
      [
        "Ġtrabalhador",
        -10.303510095527594
      ],
      [
        "Ġcuidado",
        -10.304702879873558
      ],
      [
        "Ġentende",
        -10.304960852538096
      ],
      [
        "Ġ45",
        -10.305653771843536
      ],
      [
        "Ġcorpus",
        -10.305847395883442
      ],
      [
        "2020",
        -10.307078292276296
      ],
      [
        "Ġcomunica",
        -10.307719272356314
      ],
      [
        "Ġ1993",
        -10.308062017792338
      ],
      [
        "preciaÃ§Ã£o",
        -10.308287420411
      ],
      [
        "ĠCruz",
        -10.308293090368135
      ],
      [
        "single",
        -10.308317551387605
      ],
      [
        "gravada",
        -10.308568563181264
      ],
      [
        "Ġeventos",
        -10.308801864553269
      ],
      [
        "humanos",
        -10.309173091020192
      ],
      [
        "Ġconstitui",
        -10.309471121507032
      ],
      [
        "prÃªmio",
        -10.309575516094167
      ],
      [
        "FederaÃ§Ã£o",
        -10.310322581880722
      ],
      [
        "Ġcompanhia",
        -10.310475148219616
      ],
      [
        "referida",
        -10.31106545860312
      ],
      [
        "avanÃ§o",
        -10.311248216119743
      ],
      [
        "campeÃ£o",
        -10.31162537873497
      ],
      [
        "clusÃ£o",
        -10.31290669668628
      ],
      [
        "Ġdispor",
        -10.313070760088763
      ],
      [
        "Amazonas",
        -10.313309742446462
      ],
      [
        "Ġpermanece",
        -10.313319558460917
      ],
      [
        "Ġ|",
        -10.313664050240629
      ],
      [
        "agentes",
        -10.313839452598163
      ],
      [
        "expressÃ£o",
        -10.314076453614318
      ],
      [
        "ĠAgrav",
        -10.314170889486688
      ],
      [
        "ĠMag",
        -10.3143684601592
      ],
      [
        "etapa",
        -10.315038763393636
      ],
      [
        "ĠParlamento",
        -10.31532007681288
      ],
      [
        "Ġdefende",
        -10.315688321286828
      ],
      [
        "consumo",
        -10.315825383999371
      ],
      [
        "Ġtinham",
        -10.316456697531262
      ],
      [
        "Ġfun",
        -10.316547490700255
      ],
      [
        "ĠfaÃ§o",
        -10.31666572430096
      ],
      [
        "Ġregistrado",
        -10.316765656149384
      ],
      [
        "Ġvinte",
        -10.317403757065216
      ],
      [
        "Ġ1994",
        -10.317514467702685
      ],
      [
        "ĠusuÃ¡rio",
        -10.319066586191218
      ],
      [
        "ĠfaÃ§a",
        -10.319464100812157
      ],
      [
        "Ġgosto",
        -10.31949156512107
      ],
      [
        "Ġoferta",
        -10.319514778446798
      ],
      [
        "sal",
        -10.319826716446975
      ],
      [
        "precisamos",
        -10.320207729478312
      ],
      [
        "ĠlÃŃder",
        -10.320303547348308
      ],
      [
        "ocalidades",
        -10.320398870985755
      ],
      [
        "Barbosa",
        -10.320414544641231
      ],
      [
        "TER",
        -10.320642063269146
      ],
      [
        "Ġrespectiva",
        -10.320898667267423
      ],
      [
        "ĠNeto",
        -10.322155369377844
      ],
      [
        "obretudo",
        -10.32246629042596
      ],
      [
        "investimentos",
        -10.322469148385236
      ],
      [
        "ĠMeio",
        -10.32297932004388
      ],
      [
        "Ġrealiza",
        -10.323321431464606
      ],
      [
        "Ġjogador",
        -10.323873094629189
      ],
      [
        "retirada",
        -10.324077466211843
      ],
      [
        "ĠDeve",
        -10.324159009626282
      ],
      [
        "contexto",
        -10.324266016956646
      ],
      [
        "Ġescolha",
        -10.324404644258754
      ],
      [
        "ick",
        -10.324990400744731
      ],
      [
        "·",
        -10.3251123326558
      ],
      [
        "ĠRegional",
        -10.326510546171884
      ],
      [
        "Ġamplia",
        -10.326617613959629
      ],
      [
        "ĠPet",
        -10.326698376969826
      ],
      [
        "empresÃ¡rio",
        -10.327155577222449
      ],
      [
        "Ġinten",
        -10.327159245879962
      ],
      [
        "Ġinternacionais",
        -10.32718802067356
      ],
      [
        "Ġvelho",
        -10.327220022189668
      ],
      [
        "equipamentos",
        -10.32759089750387
      ],
      [
        "Ġconven",
        -10.327623702625823
      ],
      [
        "curso",
        -10.328059978416444
      ],
      [
        "estaÃ§Ã£o",
        -10.329332459935053
      ],
      [
        "Ġpartida",
        -10.329608611893285
      ],
      [
        "desempenho",
        -10.329804368153278
      ],
      [
        "ĠNada",
        -10.330728139155486
      ],
      [
        "incidÃªncia",
        -10.33085959639324
      ],
      [
        "Mar",
        -10.331480906783128
      ],
      [
        "ĠVila",
        -10.331646101367893
      ],
      [
        "Ġcima",
        -10.331678994676489
      ],
      [
        "Ġcomando",
        -10.331788521559885
      ],
      [
        "Ġesposa",
        -10.331937593022191
      ],
      [
        "Ã¡reas",
        -10.332114234187816
      ],
      [
        "ADA",
        -10.332280064433869
      ],
      [
        "grÃ¡fico",
        -10.332322584903274
      ],
      [
        "Ġeleitoral",
        -10.332833024741964
      ],
      [
        "Ġsexta",
        -10.33290383522985
      ],
      [
        "PI",
        -10.33325263369205
      ],
      [
        "Ġdaqui",
        -10.334526022152358
      ],
      [
        "Ġrelator",
        -10.334603228249197
      ],
      [
        "elementos",
        -10.335251721544788
      ],
      [
        "Ġconhece",
        -10.336132610419996
      ],
      [
        "ĠjurisprudÃªncia",
        -10.336448280939669
      ],
      [
        "tentativa",
        -10.336546556924905
      ],
      [
        "ĠalÃŃnea",
        -10.336740425695696
      ],
      [
        "ativo",
        -10.336885182568905
      ],
      [
        "Ġpresta",
        -10.337359500300035
      ],
      [
        "zen",
        -10.337510599606189
      ],
      [
        "RelaÃ§Ãµes",
        -10.33770969045908
      ],
      [
        "Ġinclui",
        -10.338468579301464
      ],
      [
        "Ġampla",
        -10.3385788787456
      ],
      [
        "ĠAO",
        -10.33870234271461
      ],
      [
        "Ġ64",
        -10.339148442135178
      ],
      [
        "Ġvoz",
        -10.339238730804764
      ],
      [
        "errado",
        -10.339526837775017
      ],
      [
        "Ġ90",
        -10.339526950715468
      ],
      [
        "http",
        -10.339803303377511
      ],
      [
        "Ġfogo",
        -10.340083460450485
      ],
      [
        "ĠUni",
        -10.340731049608022
      ],
      [
        "ĠMagalhÃ£es",
        -10.340943190630982
      ],
      [
        "reconhecimento",
        -10.34154159824532
      ],
      [
        "esteja",
        -10.342351599655537
      ],
      [
        "Ġrece",
        -10.343219903163927
      ],
      [
        "ĠIsto",
        -10.343338414149247
      ],
      [
        "Ĵ",
        -10.344171504747424
      ],
      [
        "PRIMEIR",
        -10.345214491451951
      ],
      [
        "ĠsaÃŃd",
        -10.34613496362824
      ],
      [
        "Ġtive",
        -10.347465458003978
      ],
      [
        "apelo",
        -10.347553260764476
      ],
      [
        "ð",
        -10.34857831234418
      ],
      [
        "cy",
        -10.348857419618144
      ],
      [
        "arney",
        -10.349438434890162
      ],
      [
        "Ġesti",
        -10.349469047631692
      ],
      [
        "ĠCarreira",
        -10.349498139155855
      ],
      [
        "convidado",
        -10.349541958282432
      ],
      [
        "francÃªs",
        -10.349861913226876
      ],
      [
        "ĠMARCO",
        -10.35005349952229
      ],
      [
        "ĠClaro",
        -10.350987300822624
      ],
      [
        "Ġcursos",
        -10.351051173237252
      ],
      [
        "Ġcorte",
        -10.351300110358592
      ],
      [
        "ficado",
        -10.35176810657318
      ],
      [
        "ĠlicenÃ§a",
        -10.352004344649371
      ],
      [
        "Ġquiser",
        -10.35339149349843
      ],
      [
        "ĠExterior",
        -10.353499483440917
      ],
      [
        "Ġlivros",
        -10.35406210561966
      ],
      [
        "AgÃªncia",
        -10.354318585547356
      ],
      [
        "metade",
        -10.355308559029345
      ],
      [
        "AV",
        -10.355627748084824
      ],
      [
        "decisÃµes",
        -10.35579919076584
      ],
      [
        "Ġassinatura",
        -10.356508259205192
      ],
      [
        "veÃŃculos",
        -10.35651149078618
      ],
      [
        "rel",
        -10.358351418267482
      ],
      [
        "fundamento",
        -10.3589433603719
      ],
      [
        "administrativo",
        -10.35942127356503
      ],
      [
        "ĠFolha",
        -10.360058235056892
      ],
      [
        "formou",
        -10.360112215904008
      ],
      [
        "provÃŃncia",
        -10.360135219514566
      ],
      [
        "ĠCPI",
        -10.360385214449195
      ],
      [
        "Ġjunta",
        -10.360945403004932
      ],
      [
        "ĠFerreira",
        -10.361158485966772
      ],
      [
        "Ġconsidera",
        -10.362120368550569
      ],
      [
        "Ġexterior",
        -10.36259014987229
      ],
      [
        "Enquanto",
        -10.362607066503092
      ],
      [
        "ĠConstitucional",
        -10.36311406438926
      ],
      [
        "necessÃ¡ria",
        -10.363485499378086
      ],
      [
        "postos",
        -10.36425887119746
      ],
      [
        "No",
        -10.364809894392645
      ],
      [
        "Ġ53",
        -10.36509718075354
      ],
      [
        "Ġcultural",
        -10.36534951967751
      ],
      [
        "ĠrÃ¡dio",
        -10.365860719232655
      ],
      [
        "Ġdela",
        -10.366296806087968
      ],
      [
        "ĠespÃ©cies",
        -10.366432502766864
      ],
      [
        "ĠelÃ©trica",
        -10.366953536877748
      ],
      [
        "Ġjoga",
        -10.36728614892004
      ],
      [
        "ĠCap",
        -10.368123737250173
      ],
      [
        "ĠcompetiÃ§Ã£o",
        -10.368209413488255
      ],
      [
        "Ġcinema",
        -10.368610427866304
      ],
      [
        "ĠTim",
        -10.369145036563188
      ],
      [
        "Ġchance",
        -10.369228083706355
      ],
      [
        "Ġposse",
        -10.370229602580114
      ],
      [
        "ĠOrÃ§ament",
        -10.37024762195525
      ],
      [
        "Ġ1992",
        -10.371640636863187
      ],
      [
        "emendas",
        -10.372537896977018
      ],
      [
        "Ġprodutor",
        -10.372619775753126
      ],
      [
        "Pro",
        -10.37299047715057
      ],
      [
        "Ġterceira",
        -10.37307043653275
      ],
      [
        "Ġaceita",
        -10.37315944124378
      ],
      [
        "Ġtenta",
        -10.373474196635115
      ],
      [
        "ĠClube",
        -10.373627086681989
      ],
      [
        "Ġpensa",
        -10.374004534118416
      ],
      [
        "ĠSai",
        -10.374509552668844
      ],
      [
        "ier",
        -10.374672362906496
      ],
      [
        "ESTADO",
        -10.3750438209412
      ],
      [
        "americano",
        -10.375072131505432
      ],
      [
        "Outra",
        -10.375087269424624
      ],
      [
        "Ġcontato",
        -10.37517498523447
      ],
      [
        "Ġacompanha",
        -10.376294680832547
      ],
      [
        "funcionamento",
        -10.376601457782686
      ],
      [
        "finalidade",
        -10.376639186124974
      ],
      [
        "Ġsustenta",
        -10.376674359492204
      ],
      [
        "ĠMello",
        -10.376755410315784
      ],
      [
        "Embora",
        -10.376955881114167
      ],
      [
        "Ġmedo",
        -10.37719214092335
      ],
      [
        "ÃŃveis",
        -10.37784750869139
      ],
      [
        "ĠEspanha",
        -10.378358431436297
      ],
      [
        "Ġpersonagem",
        -10.379081224884988
      ],
      [
        "Ġaumenta",
        -10.379138342818257
      ],
      [
        "Ġinteiro",
        -10.379193926085554
      ],
      [
        "daquele",
        -10.37969026666566
      ],
      [
        "licitaÃ§Ã£o",
        -10.379736986649364
      ],
      [
        "exploraÃ§Ã£o",
        -10.37987763850071
      ],
      [
        "Ġtermina",
        -10.380014047750192
      ],
      [
        "Ġquebra",
        -10.380265554078846
      ],
      [
        "Ġveja",
        -10.380670330849226
      ],
      [
        "ĠcrÃŃtica",
        -10.381776861556324
      ],
      [
        "tributÃ¡ria",
        -10.382133604686585
      ],
      [
        "ĠdistÃ¢ncia",
        -10.383581967465425
      ],
      [
        "policiais",
        -10.383772291022344
      ],
      [
        "Ġsabia",
        -10.384171424597143
      ],
      [
        "ĠEdita",
        -10.384505434872532
      ],
      [
        "tomada",
        -10.384651905992792
      ],
      [
        "Ġproduzir",
        -10.384721855293774
      ],
      [
        "Ġ62",
        -10.38583217889553
      ],
      [
        "comÃ©rcio",
        -10.386108825718374
      ],
      [
        "indicaÃ§Ã£o",
        -10.386272818344915
      ],
      [
        "Ġpermanente",
        -10.386337457320002
      ],
      [
        "ÃŃa",
        -10.38649262411777
      ],
      [
        "Ġveda",
        -10.3867578979645
      ],
      [
        "Ġpensar",
        -10.38773931508648
      ],
      [
        "trinta",
        -10.387828136038726
      ],
      [
        "Ġindividual",
        -10.389279598700316
      ],
      [
        "2002",
        -10.38944102552137
      ],
      [
        "Ġ02",
        -10.390445138324967
      ],
      [
        "Ġadolescente",
        -10.392308133740514
      ],
      [
        "ĠParece",
        -10.392635496904454
      ],
      [
        "ĠYork",
        -10.392990574887934
      ],
      [
        "ĠMartins",
        -10.393235561713285
      ],
      [
        "pÃ©",
        -10.39451935213286
      ],
      [
        "Ġ58",
        -10.39496526976986
      ],
      [
        "ĠMuseu",
        -10.395037035952893
      ],
      [
        "Ġdiminui",
        -10.395964737911266
      ],
      [
        "ĠGO",
        -10.396037681340273
      ],
      [
        "Ġreferente",
        -10.396159926305335
      ],
      [
        "ĠMelhor",
        -10.39647524163796
      ],
      [
        "presidente",
        -10.396902814678937
      ],
      [
        "geralmente",
        -10.398088826115046
      ],
      [
        "Ġregistrar",
        -10.398544325545537
      ],
      [
        "ĠfÃ¡cil",
        -10.399039620754165
      ],
      [
        "Couto",
        -10.399350603182764
      ],
      [
        "Ġperder",
        -10.399431673414476
      ],
      [
        "Bibliografia",
        -10.399686765372389
      ],
      [
        "Ġpaz",
        -10.39977848030577
      ],
      [
        "Ġdeterminado",
        -10.399892688820426
      ],
      [
        "fizeram",
        -10.400039201104375
      ],
      [
        "ĠParte",
        -10.400699445516391
      ],
      [
        "domÃŃnio",
        -10.401463323703604
      ],
      [
        "Parlamentare",
        -10.401566581677695
      ],
      [
        "Pernambuco",
        -10.402175763810204
      ],
      [
        "ordinÃ¡ria",
        -10.402534566110337
      ],
      [
        "cidiu",
        -10.404437929073303
      ],
      [
        "duto",
        -10.404937437816574
      ],
      [
        "estudantes",
        -10.405042304467964
      ],
      [
        "professores",
        -10.405424432907443
      ],
      [
        "Ġespe",
        -10.405478943781103
      ],
      [
        "Ġprefeito",
        -10.405565227060174
      ],
      [
        "Ġ1913",
        -10.40618374067427
      ],
      [
        "ĠprÃ©vi",
        -10.406451627979736
      ],
      [
        "Ġenorme",
        -10.406572906506488
      ],
      [
        "Ġimplica",
        -10.406759616909808
      ],
      [
        "Ġconversa",
        -10.40688906066336
      ],
      [
        "ĠAC",
        -10.407066611556116
      ],
      [
        "ĠAgricultura",
        -10.407094165442931
      ],
      [
        "Ġajud",
        -10.407415538353805
      ],
      [
        "Ġsai",
        -10.40816960856598
      ],
      [
        "Ġ55",
        -10.408408716541814
      ],
      [
        "consumidor",
        -10.408422937430544
      ],
      [
        "terminou",
        -10.408603425371217
      ],
      [
        "ĠNÃĥO",
        -10.408835637412755
      ],
      [
        "ĠVida",
        -10.408983809430127
      ],
      [
        "ĠAM",
        -10.409512810419452
      ],
      [
        "Ġlonga",
        -10.410153860392567
      ],
      [
        "ĠMc",
        -10.410347687981725
      ],
      [
        "tamento",
        -10.410412298193275
      ],
      [
        "bÃ¡sica",
        -10.41049279577401
      ],
      [
        "Ġaquilo",
        -10.410846349847846
      ],
      [
        "morreu",
        -10.410887724417217
      ],
      [
        "Ġmostrar",
        -10.411088783541626
      ],
      [
        "Ġofereci",
        -10.411631215660952
      ],
      [
        ".............",
        -10.4128326538009
      ],
      [
        "Ġfamiliar",
        -10.412985046156887
      ],
      [
        "petrÃ³leo",
        -10.413913127567085
      ],
      [
        "Vieira",
        -10.413939936630848
      ],
      [
        "iauÃŃ",
        -10.414306464839928
      ],
      [
        "nanimidade",
        -10.414478100065228
      ],
      [
        "ĠVan",
        -10.414581165416054
      ],
      [
        "trÃ¢nsito",
        -10.41476711502124
      ],
      [
        "ella",
        -10.415262564101644
      ],
[...]
