{
  "version": "1.0",
  "truncation": {
    "direction": "Right",
    "max_length": 1024,
    "strategy": "LongestFirst",
    "stride": 0
  },
  "padding": null,
  "added_tokens": [
    {
      "id": 0,
      "content": "[PAD]",
      "single_word": false,
      "lstrip": false,
      "rstrip": false,
      "normalized": false,
      "special": true
    },
    {
      "id": 1,
      "content": "[SEP]",
      "single_word": false,
      "lstrip": false,
      "rstrip": false,
      "normalized": false,
      "special": true
    },
    {
      "id": 2,
      "content": "[EOS]",
      "single_word": false,
      "lstrip": false,
      "rstrip": false,
      "normalized": false,
      "special": true
    },
    {
      "id": 3,
      "content": "[UNK]",
      "single_word": false,
      "lstrip": false,
      "rstrip": false,
      "normalized": false,
      "special": true
    }
  ],
  "normalizer": {
    "type": "Sequence",
    "normalizers": [
      {
        "type": "Strip",
        "strip_left": true,
        "strip_right": true
      },
      {
        "type": "NFC"
      }
    ]
  },
  "pre_tokenizer": {
    "type": "ByteLevel",
    "add_prefix_space": true,
    "trim_offsets": true,
    "use_regex": true
  },
  "post_processor": {
    "type": "Sequence",
    "processors": [
      {
        "type": "ByteLevel",
        "add_prefix_space": true,
        "trim_offsets": true,
        "use_regex": true
      },
      {
        "type": "TemplateProcessing",
        "single": [
          {
            "Sequence": {
              "id": "A",
              "type_id": 0
            }
          },
          {
            "SpecialToken": {
              "id": "[EOS]",
              "type_id": 0
            }
          }
        ],
        "pair": [
          {
            "Sequence": {
              "id": "A",
              "type_id": 0
            }
          },
          {
            "SpecialToken": {
              "id": "[SEP]",
              "type_id": 0
            }
          },
          {
            "Sequence": {
              "id": "B",
              "type_id": 0
            }
          },
          {
            "SpecialToken": {
              "id": "[EOS]",
              "type_id": 0
            }
          }
        ],
        "special_tokens": {
          "[EOS]": {
            "id": "[EOS]",
            "ids": [
              2
            ],
            "tokens": [
              "[EOS]"
            ]
          },
          "[SEP]": {
            "id": "[SEP]",
            "ids": [
              1
            ],
            "tokens": [
              "[SEP]"
            ]
          }
        }
      }
    ]
  },
  "decoder": {
    "type": "ByteLevel",
    "add_prefix_space": true,
    "trim_offsets": true,
    "use_regex": true
  },
  "model": {
    "type": "BPE",
    "dropout": null,
    "unk_token": null,
    "continuing_subword_prefix": null,
    "end_of_word_suffix": null,
    "fuse_unk": false,
    "byte_fallback": false,
    "ignore_merges": false,
    "vocab": {
      "[PAD]": 0,
      "[SEP]": 1,
      "[EOS]": 2,
      "[UNK]": 3,
      "!": 4,
      "\"": 5,
      "#": 6,
      "$": 7,
      "%": 8,
      "&": 9,
      "'": 10,
      "(": 11,
      ")": 12,
      "*": 13,
      "+": 14,
      ",": 15,
      "-": 16,
      ".": 17,
      "/": 18,
      "0": 19,
      "1": 20,
      "2": 21,
      "3": 22,
      "4": 23,
      "5": 24,
      "6": 25,
      "7": 26,
      "8": 27,
      "9": 28,
      ":": 29,
      ";": 30,
      "<": 31,
      "=": 32,
      ">": 33,
      "?": 34,
      "@": 35,
      "A": 36,
      "B": 37,
      "C": 38,
      "D": 39,
      "E": 40,
      "F": 41,
      "G": 42,
      "H": 43,
      "I": 44,
      "J": 45,
      "K": 46,
      "L": 47,
      "M": 48,
      "N": 49,
      "O": 50,
      "P": 51,
      "Q": 52,
      "R": 53,
      "S": 54,
      "T": 55,
      "U": 56,
      "V": 57,
      "W": 58,
      "X": 59,
      "Y": 60,
      "Z": 61,
      "[": 62,
      "\\": 63,
      "]": 64,
      "^": 65,
      "_": 66,
      "`": 67,
      "a": 68,
      "b": 69,
      "c": 70,
      "d": 71,
      "e": 72,
      "f": 73,
      "g": 74,
      "h": 75,
      "i": 76,
      "j": 77,
      "k": 78,
      "l": 79,
      "m": 80,
      "n": 81,
      "o": 82,
      "p": 83,
      "q": 84,
      "r": 85,
      "s": 86,
      "t": 87,
      "u": 88,
      "v": 89,
      "w": 90,
      "x": 91,
      "y": 92,
      "z": 93,
      "{": 94,
      "|": 95,
      "}": 96,
      "~": 97,
      "¡": 98,
      "¢": 99,
      "£": 100,
      "¤": 101,
      "¥": 102,
      "¦": 103,
      "§": 104,
      "¨": 105,
      "©": 106,
      "ª": 107,
      "«": 108,
      "¬": 109,
      "®": 110,
      "¯": 111,
      "°": 112,
      "±": 113,
      "²": 114,
      "³": 115,
      "´": 116,
      "µ": 117,
      "¶": 118,
      "·": 119,
      "¸": 120,
      "¹": 121,
      "º": 122,
      "»": 123,
      "¼": 124,
      "½": 125,
      "¾": 126,
      "¿": 127,
      "À": 128,
      "Á": 129,
      "Â": 130,
      "Ã": 131,
      "Ä": 132,
      "Å": 133,
      "Æ": 134,
      "Ç": 135,
      "È": 136,
      "É": 137,
      "Ê": 138,
      "Ë": 139,
      "Ì": 140,
      "Í": 141,
      "Î": 142,
      "Ï": 143,
      "Ð": 144,
      "Ñ": 145,
      "Ò": 146,
      "Ó": 147,
      "Ô": 148,
      "Õ": 149,
      "Ö": 150,
      "×": 151,
      "Ø": 152,
      "Ù": 153,
      "Ú": 154,
      "Û": 155,
      "Ü": 156,
      "Ý": 157,
      "Þ": 158,
      "ß": 159,
      "à": 160,
      "á": 161,
      "â": 162,
      "ã": 163,
      "ä": 164,
      "å": 165,
      "æ": 166,
      "ç": 167,
      "è": 168,
      "é": 169,
      "ê": 170,
      "ë": 171,
      "ì": 172,
      "í": 173,
      "î": 174,
      "ï": 175,
      "ð": 176,
      "ñ": 177,
      "ò": 178,
      "ó": 179,
      "ô": 180,
      "õ": 181,
      "ö": 182,
      "÷": 183,
      "ø": 184,
      "ù": 185,
      "ú": 186,
      "û": 187,
      "ü": 188,
      "ý": 189,
      "þ": 190,
      "ÿ": 191,
      "Ā": 192,
      "ā": 193,
      "Ă": 194,
      "ă": 195,
      "Ą": 196,
      "ą": 197,
      "Ć": 198,
      "ć": 199,
      "Ĉ": 200,
      "ĉ": 201,
      "Ċ": 202,
      "ċ": 203,
      "Č": 204,
      "č": 205,
      "Ď": 206,
      "ď": 207,
      "Đ": 208,
      "đ": 209,
      "Ē": 210,
      "ē": 211,
      "Ĕ": 212,
      "ĕ": 213,
      "Ė": 214,
      "ė": 215,
      "Ę": 216,
      "ę": 217,
      "Ě": 218,
      "ě": 219,
      "Ĝ": 220,
      "ĝ": 221,
      "Ğ": 222,
      "ğ": 223,
      "Ġ": 224,
      "ġ": 225,
      "Ģ": 226,
      "ģ": 227,
      "Ĥ": 228,
      "ĥ": 229,
      "Ħ": 230,
      "ħ": 231,
      "Ĩ": 232,
      "ĩ": 233,
      "Ī": 234,
      "ī": 235,
      "Ĭ": 236,
      "ĭ": 237,
      "Į": 238,
      "į": 239,
      "İ": 240,
      "ı": 241,
      "Ĳ": 242,
      "ĳ": 243,
      "Ĵ": 244,
      "ĵ": 245,
      "Ķ": 246,
      "ķ": 247,
      "ĸ": 248,
      "Ĺ": 249,
      "ĺ": 250,
      "Ļ": 251,
      "ļ": 252,
      "Ľ": 253,
      "ľ": 254,
      "Ŀ": 255,
      "ŀ": 256,
      "Ł": 257,
      "ł": 258,
      "Ń": 259,
      "Ġd": 260,
      "Ġa": 261,
      "Ġe": 262,
      "Ġde": 263,
      "ra": 264,
      "Ġp": 265,
      "os": 266,
      "nt": 267,
      "re": 268,
      "Ġc": 269,
      "..": 270,
      "Ã£": 271,
      "Ã£o": 272,
      "er": 273,
      "Ġs": 274,
      "ad": 275,
      "or": 276,
      "as": 277,
      "qu": 278,
      "is": 279,
      "Ġn": 280,
      "es": 281,
      "Ã§": 282,
      "Ġo": 283,
      "in": 284,
      "ia": 285,
      "Ġco": 286,
      "ar": 287,
      "Ġm": 288,
      "ent": 289,
      "Ġqu": 290,
      "Ġt": 291,
      "al": 292,
      "ic": 293,
      "id": 294,
      "ro": 295,
      "ĠP": 296,
      "en": 297,
      "Ġf": 298,
      "st": 299,
      "Ġdo": 300,
      "it": 301,
      "Ġque": 302,
      "ĠS": 303,
      "....": 304,
      "Ã§Ã£o": 305,
      "Ã¡": 306,
      "Ã©": 307,
      "ĠC": 308,
      "an": 309,
      "io": 310,
      "ĠA": 311,
      "em": 312,
      "el": 313,
      "am": 314,
      "Ġda": 315,
      "im": 316,
      "um": 317,
      "do": 318,
      "Ġre": 319,
      "ĠE": 320,
      "Ġcom": 321,
      "ĠD": 322,
      "Ġv": 323,
      "ÃŃ": 324,
      "ara": 325,
      "Ġem": 326,
      "ĠM": 327,
      "res": 328,
      "ado": 329,
      "il": 330,
      "ut": 331,
      "âĢ": 332,
      "Ġum": 333,
      "Ġ1": 334,
      "Ġse": 335,
      "at": 336,
      "ĠR": 337,
      "on": 338,
      "ei": 339,
      "iv": 340,
      "nc": 341,
      "aÃ§Ã£o": 342,
      "Ġno": 343,
      "ul": 344,
      "ĠO": 345,
      "Ġ2": 346,
      "Ġl": 347,
      "Ġ(": 348,
      "ente": 349,
      "........": 350,
      "Ãª": 351,
      "Ġpara": 352,
      "ĠN": 353,
      "un": 354,
      "ĠâĢ": 355,
      "ol": 356,
      "ist": 357,
      "Ã³": 358,
      "de": 359,
      "ĠL": 360,
      "Ġin": 361,
      "om": 362,
      "ĠF": 363,
      "so": 364,
      "ec": 365,
      "ri": 366,
      "Ġest": 367,
      "Ġb": 368,
      "to": 369,
      "ĠB": 370,
      "Ġpro": 371,
      "ĠÃ": 372,
      "ĠT": 373,
      "ento": 374,
      "idad": 375,
      "ta": 376,
      "ĠÃ©": 377,
      "oc": 378,
      "se": 379,
      "Ãµ": 380,
      "ho": 381,
      "Ġcon": 382,
      "Ġg": 383,
      "Ġna": 384,
      "us": 385,
      "ĠâĢĵ": 386,
      "Ġpor": 387,
      "ais": 388,
      "ĠI": 389,
      "Ãµes": 390,
      "ig": 391,
      "iz": 392,
      "ou": 393,
      "ica": 394,
      "ada": 395,
      "ĠnÃ£o": 396,
      "ĠV": 397,
      "Âº": 398,
      "Ġas": 399,
      "ant": 400,
      "eg": 401,
      "Ġes": 402,
      "00": 403,
      "Ġsu": 404,
      "ras": 405,
      "ir": 406,
      "ha": 407,
      "idade": 408,
      "Ġuma": 409,
      "ĠG": 410,
      "da": 411,
      "Ġ\"": 412,
      "ito": 413,
      "Ġos": 414,
      "Ġex": 415,
      "et": 416,
      "Ġpel": 417,
      "ion": 418,
      "Ġj": 419,
      "Ġap": 420,
      "era": 421,
      "ĠJ": 422,
      "Ãº": 423,
      "Ãªnc": 424,
      "Ġdos": 425,
      "ac": 426,
      "ados": 427,
      "le": 428,
      "Ġfo": 429,
      "Ġao": 430,
      "Ã§Ãµes": 431,
      "ando": 432,
      "gu": 433,
      "ria": 434,
      "rio": 435,
      "................": 436,
      "ido": 437,
      "ed": 438,
      "ĠÃł": 439,
      "Ġpo": 440,
      "ur": 441,
      "Ġser": 442,
      "te": 443,
      "01": 444,
      "Ġdes": 445,
      "orm": 446,
      "int": 447,
      "Ġat": 448,
      "ura": 449,
      "ĠDe": 450,
      "ob": 451,
      "Ġcomo": 452,
      "Ġal": 453,
      "Ġpr": 454,
      "sa": 455,
      "ran": 456,
      "Ġcont": 457,
      "Ġac": 458,
      "ico": 459,
      "Ãªncia": 460,
      "ern": 461,
      "Ġh": 462,
      "if": 463,
      "Ġ19": 464,
      "ab": 465,
      "Ġar": 466,
      "Ġan": 467,
      "ip": 468,
      "ram": 469,
      "bl": 470,
      "Ġpre": 471,
      "av": 472,
      "sÃ£o": 473,
      "ve": 474,
      "ida": 475,
      "Ġ-": 476,
      "ĠEst": 477,
      "ĠDE": 478,
      "Ġfoi": 479,
      "Ã§a": 480,
      "Ġou": 481,
      "ias": 482,
      "ĠH": 483,
      "ĠCom": 484,
      "Ã©m": 485,
      "imento": 486,
      "Ġent": 487,
      "ov": 488,
      "eiro": 489,
      "ial": 490,
      "ai": 491,
      "Ġ3": 492,
      "ros": 493,
      "put": 494,
      "Ġtem": 495,
      "go": 496,
      "Ġdas": 497,
      "Ġmais": 498,
      "itu": 499,
      "Ġpar": 500,
      "od": 501,
      "iÃ§Ã£o": 502,
      "pos": 503,
      "ional": 504,
      "Ġnos": 505,
      "po": 506,
      "Ġter": 507,
      "Ġim": 508,
      "Ġdis": 509,
      "nte": 510,
      "Ġper": 511,
      "est": 512,
      "Ġrec": 513,
      "eira": 514,
      "TO": 515,
      "ĠU": 516,
      "ag": 517,
      "resid": 518,
      "Ġsob": 519,
      "EN": 520,
      "pl": 521,
      "Ġtra": 522,
      "ot": 523,
      "Ġ200": 524,
      "ĠnÂº": 525,
      "du": 526,
      "ĠCon": 527,
      "az": 528,
      "mo": 529,
      "Ġint": 530,
      "Ġme": 531,
      "Ġpela": 532,
      "Ã¢": 533,
      "co": 534,
      "ES": 535,
      "ĠPR": 536,
      "Ã¡rio": 537,
      "ĠSen": 538,
      "ĠDeput": 539,
      "rasil": 540,
      "endo": 541,
      "RA": 542,
      "por": 543,
      "amento": 544,
      "esso": 545,
      "ru": 546,
      "Ġres": 547,
      "Ġart": 548,
      "Ġpelo": 549,
      "Ġsua": 550,
      "Ġout": 551,
      "Ġ201": 552,
      "rec": 553,
      "ador": 554,
      "ral": 555,
      "ĠRe": 556,
      "stitu": 557,
      "ĠSr": 558,
      "la": 559,
      "mente": 560,
      "que": 561,
      "end": 562,
      "amb": 563,
      "residente": 564,
      "je": 565,
      "ens": 566,
      "Ġsobre": 567,
      "ivo": 568,
      "ĠEm": 569,
      "amente": 570,
      "...": 571,
      "Ġ4": 572,
      "Ġor": 573,
      "adas": 574,
      "Ġ5": 575,
      "ud": 576,
      "ap": 577,
      "ÃŃc": 578,
      "ede": 579,
      "Ã§o": 580,
      "Ġob": 581,
      "Ġen": 582,
      "ont": 583,
      "og": 584,
      "ire": 585,
      "vel": 586,
      "Ġreg": 587,
      "amos": 588,
      "inist": 589,
      "Ã´": 590,
      "Ãºbl": 591,
      "ĠPa": 592,
      "ess": 593,
      "ocÃª": 594,
      "ib": 595,
      "Ġpos": 596,
      "emb": 597,
      "âĢĿ": 598,
      "ista": 599,
      "Ġesp": 600,
      "ĠâĢľ": 601,
      "he": 602,
      "iva": 603,
      "ĠPro": 604,
      "ambÃ©m": 605,
      "Ãĥ": 606,
      "ĠAl": 607,
      "ĠestÃ¡": 608,
      "pres": 609,
      "Ġseu": 610,
      "................................": 611,
      "ÃĥO": 612,
      "pre": 613,
      "ora": 614,
      "Ġmu": 615,
      "Ġinc": 616,
      "ust": 617,
      "ĠPresidente": 618,
      "form": 619,
      "ez": 620,
      "ere": 621,
      "ĠNÃ£o": 622,
      "Ġdest": 623,
      "entos": 624,
      "Ġsem": 625,
      "fer": 626,
      "rib": 627,
      "ĠtambÃ©m": 628,
      "ade": 629,
      "Ã³s": 630,
      "ÃŃt": 631,
      "Ġmas": 632,
      "ĠQ": 633,
      "Ġcomp": 634,
      "Ġam": 635,
      "aÃ§Ãµes": 636,
      "),": 637,
      "and": 638,
      "Ġele": 639,
      "inha": 640,
      "bal": 641,
      "ulo": 642,
      "Ġass": 643,
      "Ġeu": 644,
      "ios": 645,
      "Ġel": 646,
      "ĠLei": 647,
      "ÃŃs": 648,
      "ual": 649,
      "ver": 650,
      "Ġpart": 651,
      "Ġform": 652,
      "issÃ£o": 653,
      "ina": 654,
      "eb": 655,
      "201": 656,
      "ific": 657,
      "erc": 658,
      "va": 659,
      "AR": 660,
      "ita": 661,
      "ĠW": 662,
      "Ġ6": 663,
      "Ġfaz": 664,
      "ma": 665,
      "aria": 666,
      "ĠBrasil": 667,
      "Ġmes": 668,
      "ĠRE": 669,
      "ĠPor": 670,
      "Ġpa": 671,
      "icas": 672,
      "ja": 673,
      "Ġab": 674,
      "isso": 675,
      "idos": 676,
      "Ġcons": 677,
      "ĠDeputado": 678,
      "Ã¡ri": 679,
      ").": 680,
      "ĠFede": 681,
      "enc": 682,
      "me": 683,
      "orn": 684,
      "ER": 685,
      "Ġdec": 686,
      "Ġch": 687,
      "mos": 688,
      "Ġcas": 689,
      "itos": 690,
      "ero": 691,
      "aliz": 692,
      "Ġesc": 693,
      "Ġaqu": 694,
      "ĠEs": 695,
      "\",": 696,
      "Ġentre": 697,
      "Ġag": 698,
      "ĠAr": 699,
      "vi": 700,
      "undo": 701,
      "der": 702,
      "entes": 703,
      "ub": 704,
      "rat": 705,
      "Ġsegu": 706,
      "rad": 707,
      "ult": 708,
      "200": 709,
      "icos": 710,
      "igo": 711,
      "ĠEx": 712,
      "erno": 713,
      "eu": 714,
      "iÃ£o": 715,
      "lat": 716,
      "ĠIn": 717,
      "idades": 718,
      "ĠAs": 719,
      "anto": 720,
      "ĠQu": 721,
      "anc": 722,
      "isÃ£o": 723,
      "ĠsÃ£o": 724,
      "EI": 725,
      "unic": 726,
      "Ã©c": 727,
      "ntes": 728,
      "ter": 729,
      "ato": 730,
      "pe": 731,
      "ĠÃī": 732,
      "dem": 733,
      "Ã¡ria": 734,
      "Ġver": 735,
      "und": 736,
      "Ġaut": 737,
      "embro": 738,
      "ĠEu": 739,
      "ĠFederal": 740,
      "ĠSR": 741,
      "orre": 742,
      "Ġcar": 743,
      "Ãªncias": 744,
      "Ġad": 745,
      "vo": 746,
      "Ġdire": 747,
      "Ġisso": 748,
      "Ġ7": 749,
      "Ġconc": 750,
      "Ġprim": 751,
      "Ġanos": 752,
      "Ġqual": 753,
      "TE": 754,
      "ĠvocÃª": 755,
      "ĠNÂº": 756,
      "acional": 757,
      "inc": 758,
      "DO": 759,
      "ante": 760,
      "nto": 761,
      "iver": 762,
      "quer": 763,
      "DB": 764,
      "ass": 765,
      "ing": 766,
      "ira": 767,
      "rig": 768,
      "ĠMar": 769,
      "Ġho": 770,
      "Ġtrabal": 771,
      "Ġ8": 772,
      "Ġenc": 773,
      "lo": 774,
      "ian": 775,
      "ĠÃ¡": 776,
      "Ġtod": 777,
      "vol": 778,
      "IA": 779,
      "IN": 780,
      "ĠEstado": 781,
      "ĠMinist": 782,
      "jeto": 783,
      "ĠPRO": 784,
      "LA": 785,
      "ĠUn": 786,
      "IS": 787,
      "TA": 788,
      "Ãªs": 789,
      "Ġha": 790,
      "ĠCar": 791,
      "rim": 792,
      "fe": 793,
      "Ãĩ": 794,
      "Ġaos": 795,
      "hor": 796,
      "ela": 797,
      "__": 798,
      "Ġte": 799,
      "Ġ9": 800,
      "Ġmil": 801,
      "ID": 802,
      "Ġ:": 803,
      "IO": 804,
      "inh": 805,
      "Ġpol": 806,
      "ino": 807,
      "Ġpres": 808,
      "unc": 809,
      "Ġfin": 810,
      "Ġmuito": 811,
      "enta": 812,
      "idas": 813,
      "ĠpÃºbl": 814,
      "odo": 815,
      "Ġpesso": 816,
      "ĠCO": 817,
      "Ġapro": 818,
      "Ġfal": 819,
      "up": 820,
      "ĠK": 821,
      "ĠatÃ©": 822,
      "Ġproc": 823,
      "Ġext": 824,
      "aram": 825,
      "rÃ¡": 826,
      "ĠjÃ¡": 827,
      "iu": 828,
      "rans": 829,
      "Ġnas": 830,
      "Ġdia": 831,
      "OS": 832,
      "ord": 833,
      "hec": 834,
      "ima": 835,
      "ÃŃp": 836,
      "inda": 837,
      "ĠPar": 838,
      "Ġ199": 839,
      "Ġsub": 840,
      "Ã©d": 841,
      "ĠAn": 842,
      "ĠComissÃ£o": 843,
      "con": 844,
      "Ã©r": 845,
      "ĠÂ": 846,
      "ĠÃº": 847,
      "ÃŃn": 848,
      "ix": 849,
      "\".": 850,
      "Ã³ria": 851,
      "min": 852,
      "indo": 853,
      "Ġbem": 854,
      "Âª": 855,
      "Ġ10": 856,
      "Ã´n": 857,
      "ano": 858,
      "ug": 859,
      "Ã¡rios": 860,
      "Ġcl": 861,
      "cional": 862,
      "Ġcol": 863,
      "19": 864,
      "lu": 865,
      "pon": 866,
      "ĠSenador": 867,
      "overno": 868,
      "port": 869,
      "ÃŃl": 870,
      "fic": 871,
      "ĠNo": 872,
      "orte": 873,
      "Ġprov": 874,
      "sos": 875,
      "iam": 876,
      "raz": 877,
      "ula": 878,
      "oria": 879,
      "Ġvez": 880,
      "ior": 881,
      "Ġquando": 882,
      "Ġnes": 883,
      "ema": 884,
      "ĠOs": 885,
      "Ġind": 886,
      "Ġcontra": 887,
      "imo": 888,
      "anh": 889,
      "adores": 890,
      "ert": 891,
      "ava": 892,
      "Ġpode": 893,
      "izaÃ§Ã£o": 894,
      "Ã³r": 895,
      "enas": 896,
      "Ġle": 897,
      "Ġdiz": 898,
      "rar": 899,
      "antes": 900,
      "rande": 901,
      "rem": 902,
      "entar": 903,
      "esa": 904,
      "stituiÃ§Ã£o": 905,
      "Ġaqui": 906,
      "Ġfil": 907,
      "ĠNacional": 908,
      "Ġmar": 909,
      "TI": 910,
      "ĠÂ§": 911,
      "Ġ18": 912,
      "ost": 913,
      "udo": 914,
      "ana": 915,
      "iÃ§Ãµes": 916,
      "Ġleg": 917,
      "Ġbrasil": 918,
      "eiros": 919,
      "Ġmat": 920,
      "uto": 921,
      "Ġseus": 922,
      "Ġtodos": 923,
      "Ġposs": 924,
      "MEN": 925,
      "ÃŃcio": 926,
      "Ġoc": 927,
      "Ġca": 928,
      "Ġsoc": 929,
      "Ġmesmo": 930,
      "Ġcor": 931,
      "Ġtrans": 932,
      "ase": 933,
      "rit": 934,
      "Ã¢m": 935,
      "ular": 936,
      "Ġon": 937,
      "Ġainda": 938,
      "ĠPS": 939,
      "Ġalg": 940,
      "ĠSÃ£o": 941,
      "isa": 942,
      "ite": 943,
      "ĠAm": 944,
      "raÃ§Ã£o": 945,
      "Ã¡t": 946,
      "elo": 947,
      "iss": 948,
      "eral": 949,
      "Ã§as": 950,
      "ele": 951,
      "ETO": 952,
      "ilidade": 953,
      "pera": 954,
      "Ġcam": 955,
      "ĠII": 956,
      "isc": 957,
      "gra": 958,
      "ÃĩÃĥO": 959,
      "Ġpoder": 960,
      "Ġespec": 961,
      "âĢĿ.": 962,
      "Ġdem": 963,
      "ĠÃłs": 964,
      "Ġ11": 965,
      "ÃŃvel": 966,
      "erto": 967,
      "Ġtempo": 968,
      "Ġdef": 969,
      "IC": 970,
      "Ġprinc": 971,
      "Ġera": 972,
      "Ġpl": 973,
      "Ġprec": 974,
      "son": 975,
      "ncia": 976,
      "Ġ0": 977,
      "ĠCas": 978,
      "Ġapres": 979,
      "ivos": 980,
      "per": 981,
      "ENTE": 982,
      "Ġdisc": 983,
      "Ġro": 984,
      "ĠPara": 985,
      "rav": 986,
      "ĠSe": 987,
      "Ã©rio": 988,
      "AL": 989,
      "iaÃ§Ã£o": 990,
      "ĠhÃ¡": 991,
      "Ġservi": 992,
      "Ġforma": 993,
      "Ġforam": 994,
      "Ġsa": 995,
      "Ġ20": 996,
      "ĠPL": 997,
      "ubl": 998,
      "Ã³p": 999,
      "Ã¢n": 1000,
      "ĠPaulo": 1001,
      "ign": 1002,
      "Ġconst": 1003,
      "ĠRel": 1004,
      "inho": 1005,
      "Ġfe": 1006,
      "volv": 1007,
      "AN": 1008,
      "Ġmed": 1009,
      "uc": 1010,
      "ĠCh": 1011,
      "Ã³rio": 1012,
      "Ġfazer": 1013,
      "lus": 1014,
      "Ã¡vel": 1015,
      "aix": 1016,
      "ĠArt": 1017,
      "Ġcria": 1018,
      "Ġmen": 1019,
      "tos": 1020,
      "Ġrecur": 1021,
      "Ãģ": 1022,
      "idera": 1023,
      "iais": 1024,
      "pa": 1025,
      "OR": 1026,
      "Ġrel": 1027,
      "ESID": 1028,
      "Ġmai": 1029,
      "Ġval": 1030,
      "ĠpolÃŃt": 1031,
      "Ġaprov": 1032,
      "ivers": 1033,
      "Ġseg": 1034,
      "Ã§os": 1035,
      "ĠSu": 1036,
      "ĠDes": 1037,
      "Ġano": 1038,
      "Ġvot": 1039,
      "ĠsÃ³": 1040,
      "Ġr": 1041,
      "Ġrealiz": 1042,
      "pec": 1043,
      "enho": 1044,
      "ribu": 1045,
      "erv": 1046,
      "Ġpal": 1047,
      "ga": 1048,
      "DE": 1049,
      "Ġessa": 1050,
      "istas": 1051,
      "Ġsol": 1052,
      "ie": 1053,
      "ĠDeputados": 1054,
      "unicÃŃp": 1055,
      "ĠPRESID": 1056,
      "20": 1057,
      "enda": 1058,
      "Ġir": 1059,
      "ĠJo": 1060,
      "Ġman": 1061,
      "JETO": 1062,
      "RO": 1063,
      "Ġun": 1064,
      "Ġaf": 1065,
      "rado": 1066,
      "itar": 1067,
      "ĠPROJETO": 1068,
      "Ġesse": 1069,
      "elho": 1070,
      "almente": 1071,
      "Ġvo": 1072,
      "Ġ15": 1073,
      "los": 1074,
      "Ġant": 1075,
      "ca": 1076,
      "Ġparte": 1077,
      "emos": 1078,
      "ĠMas": 1079,
      "za": 1080,
      "jet": 1081,
      "ÃŃd": 1082,
      "Ġdez": 1083,
      "ĠLEI": 1084,
      "Ġvai": 1085,
      "Ġloc": 1086,
      "Ġporque": 1087,
      "enh": 1088,
      "gram": 1089,
      "Ġinv": 1090,
      "Ġinform": 1091,
      "AS": 1092,
      "Ġnov": 1093,
      "elec": 1094,
      "ĠPRESIDENTE": 1095,
      "uma": 1096,
      "Ġjul": 1097,
      "Ġcond": 1098,
      "Ġcap": 1099,
      "Ġ12": 1100,
      "Ġcidade": 1101,
      "Ġeste": 1102,
      "ranc": 1103,
      "ĠReg": 1104,
      "Ġmeu": 1105,
      "Ġprof": 1106,
      "Ġseja": 1107,
      "ribun": 1108,
      "Ġempres": 1109,
      "Ġma": 1110,
      "Ġ.": 1111,
      "ental": 1112,
      "Ġpas": 1113,
      "Ġperm": 1114,
      "MDB": 1115,
      "EC": 1116,
      "Ġvol": 1117,
      "gora": 1118,
      "Ġtr": 1119,
      "Ġprev": 1120,
      "veis": 1121,
      "ĠInt": 1122,
      "Ġus": 1123,
      "ĠAc": 1124,
      "Ġonde": 1125,
      "Ġfor": 1126,
      "hos": 1127,
      "iÃªncia": 1128,
      "ĠEle": 1129,
      "ionais": 1130,
      "Ãªm": 1131,
      "iso": 1132,
      "LATO": 1133,
      "Ġconhec": 1134,
      "ecre": 1135,
      "dade": 1136,
      "Ġto": 1137,
      "erra": 1138,
      "ĠAp": 1139,
      "Ġsuas": 1140,
      "Ġpartic": 1141,
      "ÃŃlia": 1142,
      "Ġinf": 1143,
      "Ġpessoas": 1144,
      "ĠEnt": 1145,
      ".)": 1146,
      "ĠVocÃª": 1147,
      "ĠConstituiÃ§Ã£o": 1148,
      "ĠLe": 1149,
      "Ġela": 1150,
      "art": 1151,
      "Ġrev": 1152,
      "ĠPT": 1153,
      "ĠSenado": 1154,
      "ena": 1155,
      "MA": 1156,
      "Ġoutros": 1157,
      "ecess": 1158,
      "ĠCo": 1159,
      "ĠGoverno": 1160,
      "Ġsab": 1161,
      "Ġju": 1162,
      "rei": 1163,
      "duz": 1164,
      "Ġdev": 1165,
      "pois": 1166,
      "anÃ§": 1167,
      "Ġdesta": 1168,
      "Ã¢mara": 1169,
      "ordo": 1170,
      "ismo": 1171,
      "Ġpop": 1172,
      "Ġfic": 1173,
      "Ġpe": 1174,
      "ĠMa": 1175,
      "Ġautor": 1176,
      "segu": 1177,
      "SO": 1178,
      "Ġgrande": 1179,
      "les": 1180,
      "ferÃªncias": 1181,
      "Ãºblica": 1182,
      "Ġoutras": 1183,
      "ĠX": 1184,
      "Ġesta": 1185,
      "erg": 1186,
      "iar": 1187,
      "Ġinst": 1188,
      "ital": 1189,
      "ublic": 1190,
      "ĠestÃ£o": 1191,
      "Ġrelat": 1192,
      "duc": 1193,
      "Ġapenas": 1194,
      "porta": 1195,
      "ĠDO": 1196,
      "entaÃ§Ã£o": 1197,
      "âĢĵ": 1198,
      "agem": 1199,
      "ĠRELATO": 1200,
      "Ġdois": 1201,
      "Ġnome": 1202,
      "ĠCÃ¢mara": 1203,
      "tera": 1204,
      "enÃ§Ã£o": 1205,
      "Ã¢ncia": 1206,
      "Ġartigo": 1207,
      "ĠnÃ³s": 1208,
      "envolv": 1209,
      "ĠpaÃŃs": 1210,
      "Ġdesc": 1211,
      "Ġsendo": 1212,
      "ju": 1213,
      "ardo": 1214,
      "UR": 1215,
      "Ġcr": 1216,
      "Ã´m": 1217,
      "edade": 1218,
      "Ġinter": 1219,
      "Ġpass": 1220,
      "Ġequ": 1221,
      "Ġtrabalho": 1222,
      "Ġseguint": 1223,
      "Ġsent": 1224,
      "Ġtorn": 1225,
      "Ġ16": 1226,
      "ĠZ": 1227,
      "Ġnecess": 1228,
      "imentos": 1229,
      "Ġdu": 1230,
      "ator": 1231,
      "ex": 1232,
      "Ġid": 1233,
      "Ġconf": 1234,
      "Ã©s": 1235,
      "Ġdeix": 1236,
      "ard": 1237,
      "ĠRio": 1238,
      "Ġprincip": 1239,
      "urante": 1240,
      "Ġev": 1241,
      "minist": 1242,
      "ultura": 1243,
      "ulaÃ§Ã£o": 1244,
      "Ġordem": 1245,
      "Ġ17": 1246,
      "Ġjur": 1247,
      "Ġ13": 1248,
      "lt": 1249,
      "Ġreceb": 1250,
      "ĠNa": 1251,
      "Ġencont": 1252,
      "posta": 1253,
      "Ãºm": 1254,
      "ĠJos": 1255,
      "ivas": 1256,
      "Ġexc": 1257,
      "Ã¡s": 1258,
      "Ġprimeiro": 1259,
      "tar": 1260,
      "rada": 1261,
      "ĠOl": 1262,
      "tu": 1263,
      "ĠLu": 1264,
      "cio": 1265,
      "Ġpalav": 1266,
      "rito": 1267,
      "Ġimp": 1268,
      "Ġsim": 1269,
      "Ġ14": 1270,
      "Ġref": 1271,
      "ren": 1272,
      "Ġcaso": 1273,
      "tor": 1274,
      "Ġfund": 1275,
      "loc": 1276,
      "Ġav": 1277,
      "aro": 1278,
      "ĠÃ¡re": 1279,
      "dic": 1280,
      "sas": 1281,
      "Ġdif": 1282,
      "Ġmaior": 1283,
      "iliz": 1284,
      "Ġhoje": 1285,
      "Ġneg": 1286,
      "Ġtermos": 1287,
      "Ġhom": 1288,
      "ĠMinistro": 1289,
      "ĠFo": 1290,
      "Ġra": 1291,
      "ĠserÃ¡": 1292,
      "ĠSant": 1293,
      "ĠCam": 1294,
      "Ġhab": 1295,
      "Ã©ri": 1296,
      "ĠSim": 1297,
      "duÃ§Ã£o": 1298,
      "via": 1299,
      "recer": 1300,
      "iente": 1301,
      "ĠPre": 1302,
      "ĠReferÃªncias": 1303,
      "hÃµes": 1304,
      "Ġassim": 1305,
      "gres": 1306,
      "Ãºde": 1307,
      "Ġquer": 1308,
      "estÃ£o": 1309,
      "Ġobrig": 1310,
      "Ġret": 1311,
      "aneiro": 1312,
      "____": 1313,
      "ĠSem": 1314,
      "Ġdist": 1315,
      "ch": 1316,
      "ende": 1317,
      "gan": 1318,
      "essÃ£o": 1319,
      "Ġrepres": 1320,
      "Ġconstitu": 1321,
      "ĠRep": 1322,
      "lam": 1323,
      "Ġminha": 1324,
      "olog": 1325,
      "Ġsal": 1326,
      "Ġcheg": 1327,
      "ribunal": 1328,
      "iÃ§a": 1329,
      "resc": 1330,
      "graf": 1331,
      "itas": 1332,
      "islat": 1333,
      "nico": 1334,
      "ĠAss": 1335,
      "uÃ§Ã£o": 1336,
      "Ġhist": 1337,
      "uta": 1338,
      "tas": 1339,
      "11": 1340,
      "istema": 1341,
      "Ġestab": 1342,
      "ses": 1343,
      "inas": 1344,
      "ĠRELATOR": 1345,
      "Ġconv": 1346,
      "posiÃ§Ã£o": 1347,
      "inu": 1348,
      "ate": 1349,
      "ĠComo": 1350,
      "Ġ................................": 1351,
      "Ġparticip": 1352,
      "ĠGu": 1353,
      "Ġed": 1354,
      "elhor": 1355,
      "Ġfam": 1356,
      "ĠCasa": 1357,
      "Ã¡l": 1358,
      "Ġprojeto": 1359,
      "Ġmod": 1360,
      "Ġcham": 1361,
      "Ġins": 1362,
      "este": 1363,
      "ĠOr": 1364,
      "SÃĥO": 1365,
      "ĠSeg": 1366,
      "Ġimporta": 1367,
      "Ġped": 1368,
      "Ġinic": 1369,
      "DA": 1370,
      "Ġlei": 1371,
      "ĠPl": 1372,
      "ustiÃ§a": 1373,
      "arÃ¡": 1374,
      "Ã³d": 1375,
      "EL": 1376,
      "Ġpraz": 1377,
      "Ã¡rias": 1378,
      "alidade": 1379,
      "ola": 1380,
      "Ġof": 1381,
      "ik": 1382,
      "Ġprod": 1383,
      "rou": 1384,
      "ĠProjeto": 1385,
      "Ġqualquer": 1386,
      "ge": 1387,
      "Ġrep": 1388,
      "ĠIs": 1389,
      "gem": 1390,
      "ĠDA": 1391,
      "Ġvida": 1392,
      "ĠTribunal": 1393,
      "ric": 1394,
      "ecut": 1395,
      "Ġrespon": 1396,
      "nÃ§a": 1397,
      "ĠJosÃ©": 1398,
      "Ġpes": 1399,
      "des": 1400,
      "ĠSal": 1401,
      "anos": 1402,
      "of": 1403,
      "Ġdireito": 1404,
      "Ġ198": 1405,
      "ĠâĢ¢": 1406,
      "xa": 1407,
      "Ġmin": 1408,
      "ĠCons": 1409,
      "Ġecon": 1410,
      "ive": 1411,
      "iedade": 1412,
      "eres": 1413,
      "Ġlev": 1414,
      "jo": 1415,
      "ussÃ£o": 1416,
      "Ã©t": 1417,
      "utos": 1418,
      "posto": 1419,
      "ĠPaÃŃs": 1420,
      "Ġpublic": 1421,
      "Ġcada": 1422,
      "Ġexist": 1423,
      "10": 1424,
      "ĠprÃ³p": 1425,
      "ĠÃºlt": 1426,
      "Ġconsidera": 1427,
      "Ġdepois": 1428,
      "uns": 1429,
      "Ãµe": 1430,
      "irm": 1431,
      "ĠAt": 1432,
      "Ġfav": 1433,
      "Ġestabelec": 1434,
      "ril": 1435,
      "her": 1436,
      "Ġpalavra": 1437,
      "ĠCarlos": 1438,
      "Ġve": 1439,
      "Ġmeio": 1440,
      "envolvimento": 1441,
      "loco": 1442,
      "ĠVer": 1443,
      "ducaÃ§Ã£o": 1444,
      "Ġtodo": 1445,
      "eram": 1446,
      "Ġdisse": 1447,
      "Ãªn": 1448,
      "Ġdeste": 1449,
      "grama": 1450,
      "ĠTra": 1451,
      "ene": 1452,
      "Ġpodem": 1453,
      "Ġtrabalh": 1454,
      "unicÃŃpio": 1455,
      "ĠAnt": 1456,
      "MENTO": 1457,
      "lic": 1458,
      "Ġorig": 1459,
      "no": 1460,
      "PS": 1461,
      "Ġpou": 1462,
      "Ġagora": 1463,
      "ĠapÃ³s": 1464,
      "oa": 1465,
      "Ġacordo": 1466,
      "ĠEstados": 1467,
      "gua": 1468,
      "ranÃ§a": 1469,
      "Ġren": 1470,
      "Ġprocesso": 1471,
      "Ġcu": 1472,
      "Ġcome": 1473,
      "Ġmelhor": 1474,
      "ĠIN": 1475,
      "Ġespecial": 1476,
      "ĠMinistÃ©rio": 1477,
      "are": 1478,
      "Ġdever": 1479,
      "Ġmaio": 1480,
      "uso": 1481,
      "umento": 1482,
      "Ã©ria": 1483,
      "empl": 1484,
      "EG": 1485,
      "imos": 1486,
      "ne": 1487,
      "ĠMu": 1488,
      "IL": 1489,
      "Ġnosso": 1490,
      "ĠDo": 1491,
      "Ã¡tica": 1492,
      "Ġregist": 1493,
      "ĠRepÃºblica": 1494,
      "SP": 1495,
      "ĠCl": 1496,
      "ast": 1497,
      "ĠCON": 1498,
      "amentos": 1499,
      "Ġut": 1500,
      "Ġprimeira": 1501,
      "Ġpelos": 1502,
      "ĠAd": 1503,
      "Ãī": 1504,
      "ativa": 1505,
      "ise": 1506,
      "Ġdurante": 1507,
      "ĠCont": 1508,
      "dos": 1509,
      "Ġmundo": 1510,
      "urso": 1511,
      "Ġ24": 1512,
      "atro": 1513,
      "Ġdizer": 1514,
      "Ġpag": 1515,
      "Ġeles": 1516,
      "Ġprazo": 1517,
      "eiras": 1518,
      "ice": 1519,
      "gresso": 1520,
      "otal": 1521,
      "cia": 1522,
      "ĠPMDB": 1523,
      "ĠmÃ©d": 1524,
      "Ġrecursos": 1525,
      "ĠPA": 1526,
      "ĠtÃ©c": 1527,
      "ificaÃ§Ã£o": 1528,
      "isto": 1529,
      "ĠJustiÃ§a": 1530,
      "unda": 1531,
      "Ġinvest": 1532,
      "ogo": 1533,
      "anha": 1534,
      "Ġdeve": 1535,
      "12": 1536,
      "II": 1537,
      "Ġsido": 1538,
      "ĠserviÃ§o": 1539,
      "Ġdias": 1540,
      "Ġdi": 1541,
      "UT": 1542,
      "red": 1543,
      "pÃµe": 1544,
      "Ġfre": 1545,
      "ĠSenhor": 1546,
      "Ġexpl": 1547,
      "Ġregim": 1548,
      "osto": 1549,
      "ete": 1550,
      "Ġquem": 1551,
      "Ġsom": 1552,
      "ologia": 1553,
      "UN": 1554,
      "rador": 1555,
      "ĠEl": 1556,
      "Ġdezembro": 1557,
      "Ġativ": 1558,
      "tes": 1559,
      "ÃŃst": 1560,
      "ĠEn": 1561,
      "Ġempre": 1562,
      "ĠtrÃªs": 1563,
      "nica": 1564,
      "ĠAG": 1565,
      "Ġfavor": 1566,
      "rut": 1567,
      "igos": 1568,
      "inal": 1569,
      "iado": 1570,
      "esse": 1571,
      "eric": 1572,
      "ĠdecisÃ£o": 1573,
      "Ġantes": 1574,
      "Ġmul": 1575,
      "orr": 1576,
      "Ġvalor": 1577,
      "iol": 1578,
      "ĠCOM": 1579,
      "Ġsegundo": 1580,
      "Ġ22": 1581,
      "09": 1582,
      "Ġprobl": 1583,
      "Ġestava": 1584,
      "overn": 1585,
      "ulos": 1586,
      "PT": 1587,
      "Ã³g": 1588,
      "ce": 1589,
      "Ġpartir": 1590,
      "Ġtudo": 1591,
      "Ġmom": 1592,
      "US": 1593,
      "itaÃ§Ã£o": 1594,
      "Ġsitu": 1595,
      "ĠRelator": 1596,
      "ĠentÃ£o": 1597,
      "ÃģR": 1598,
      "Ġgu": 1599,
      "stit": 1600,
      "ĠLig": 1601,
      "enÃ§a": 1602,
      "Ġgru": 1603,
      "Ãºs": 1604,
      "uro": 1605,
      "Ġamb": 1606,
      "Ġdiv": 1607,
      "Ġfinanc": 1608,
      "13": 1609,
      "Ġ30": 1610,
      "Ġinclu": 1611,
      "ĠnÃºm": 1612,
      "dio": 1613,
      "ĠSa": 1614,
      "Ġdel": 1615,
      "Ġsistema": 1616,
      "emente": 1617,
      "Ġcrim": 1618,
      "15": 1619,
      "Ġoutro": 1620,
      "Ã£os": 1621,
      "Ġliv": 1622,
      "Ġpra": 1623,
      "ĠPod": 1624,
      "Ġequip": 1625,
      "rece": 1626,
      "Ġbase": 1627,
      "ĠJoÃ£o": 1628,
      "Ġcompet": 1629,
      "Ġdesde": 1630,
      "ane": 1631,
      "ernas": 1632,
      "Ġcomun": 1633,
      "bP": 1634,
      "ump": 1635,
      "tanto": 1636,
      "RI": 1637,
      "ĠAg": 1638,
      "Ġdifere": 1639,
      ".(": 1640,
      "cel": 1641,
      "ĠrevisÃ£o": 1642,
      "ĠpÃºblica": 1643,
      "ĠLeg": 1644,
      "Ġato": 1645,
      "Ġ197": 1646,
      "enha": 1647,
      "Ġapresent": 1648,
      "usa": 1649,
      "Ġfinal": 1650,
      "ĠEd": 1651,
      "ndo": 1652,
      "ĠlÃ¡": 1653,
      "eraÃ§Ã£o": 1654,
      "Ġemb": 1655,
      "Ġ25": 1656,
      "Ġseguinte": 1657,
      "Ġlim": 1658,
      "ĠBar": 1659,
      "ĠVal": 1660,
      "na": 1661,
      "Ġnat": 1662,
      "anda": 1663,
      "reira": 1664,
      "op": 1665,
      "ĠAb": 1666,
      "ĠÃ¡rea": 1667,
      "enÃ¡rio": 1668,
      "Ġjog": 1669,
      "Ġcin": 1670,
      "Ġnorm": 1671,
      "ĠIsso": 1672,
      "Ġconstru": 1673,
      "oca": 1674,
      "Ġ23": 1675,
      "VO": 1676,
      "ĠUniÃ£o": 1677,
      "ĠOb": 1678,
      "nta": 1679,
      "Ã³ri": 1680,
      "ĠdÃ¡": 1681,
      "ĠpopulaÃ§Ã£o": 1682,
      "Ġsempre": 1683,
      "Ġaplic": 1684,
      "Ġinteres": 1685,
      "udic": 1686,
      "ĠpolÃŃtica": 1687,
      "Ġlug": 1688,
      "Ġnovo": 1689,
      "Ġconsegu": 1690,
      "Ġcab": 1691,
      "Ġ:(": 1692,
      "Ġinteg": 1693,
      "ĠUm": 1694,
      "Ġsuper": 1695,
      "alh": 1696,
      "ĠmatÃ©ria": 1697,
      "Ġprop": 1698,
      "ibilidade": 1699,
      "ĠDire": 1700,
      "ĠY": 1701,
      "ine": 1702,
      "ĠâĢĶ": 1703,
      "Ġden": 1704,
      "omp": 1705,
      "usÃ£o": 1706,
      "ntos": 1707,
      "plem": 1708,
      "unho": 1709,
      "Ġadminist": 1710,
      "Ġduas": 1711,
      "PR": 1712,
      "ĠrelaÃ§Ã£o": 1713,
      "Ġintern": 1714,
      "Ġvig": 1715,
      "Ġil": 1716,
      "ĠpÃºblico": 1717,
      "ecn": 1718,
      "ton": 1719,
      "ender": 1720,
      "Ġmenos": 1721,
      "Ġalgum": 1722,
      "ĠTem": 1723,
      "ĠmilhÃµes": 1724,
      "Ġ2009": 1725,
      "ĠlanÃ§": 1726,
      "iano": 1727,
      "Ġexempl": 1728,
      "ifica": 1729,
      "ĠEntÃ£o": 1730,
      "ĠFoi": 1731,
      "ĠSoc": 1732,
      "ĠtÃ£o": 1733,
      "ilo": 1734,
      "isco": 1735,
      "Ġexerc": 1736,
      "ĠCongresso": 1737,
      "lex": 1738,
      "Ġrest": 1739,
      "Ġtinha": 1740,
      "ĠperÃŃ": 1741,
      "Ġset": 1742,
      "ill": 1743,
      "Ġk": 1744,
      "ĠvotaÃ§Ã£o": 1745,
      "Ġjulg": 1746,
      "Ġbrasileiro": 1747,
      "Ġprest": 1748,
      "Ġorador": 1749,
      "ay": 1750,
      "Ġmomento": 1751,
      "TU": 1752,
      "ĠRec": 1753,
      "ĠPort": 1754,
      "ON": 1755,
      "Ġado": 1756,
      "Ġcontinu": 1757,
      "Ġcorre": 1758,
      "Ġtal": 1759,
      "ĠaprovaÃ§Ã£o": 1760,
      "ontec": 1761,
      "Ġfim": 1762,
      "ĠSil": 1763,
      "atos": 1764,
      "Ġ2007": 1765,
      "ĠSer": 1766,
      "Ġacontec": 1767,
      "Ġcent": 1768,
      "Ġgoverno": 1769,
      "ĠPol": 1770,
      "rt": 1771,
      "ĠSul": 1772,
      "âĢĿ,": 1773,
      "Ġraz": 1774,
      "Ġtodas": 1775,
      "ĠFil": 1776,
      "ĠSES": 1777,
      "ĠPSDB": 1778,
      "Ġvoto": 1779,
      "2009": 1780,
      "Ġdeter": 1781,
      "Ġhum": 1782,
      "guÃ©m": 1783,
      "Ġ28": 1784,
      "Ġ@": 1785,
      "pect": 1786,
      "ĠPresid": 1787,
      "Ġgara": 1788,
      "ĠIm": 1789,
      "Ġbom": 1790,
      "Ġnossa": 1791,
      "ÃŃf": 1792,
      "Ġpresente": 1793,
      "Ġconform": 1794,
      "Ġnesta": 1795,
      "Ġquanto": 1796,
      "Ġ196": 1797,
      "ui": 1798,
      "Ġapo": 1799,
      "Ġ21": 1800,
      "Ġorgan": 1801,
      "ĠPr": 1802,
      "Ġescol": 1803,
      "Ġopera": 1804,
      "ĠMo": 1805,
      "ĠserviÃ§os": 1806,
      "Ġatual": 1807,
      "uais": 1808,
      "TRA": 1809,
      "Ġlon": 1810,
      "ĠPela": 1811,
      "ateg": 1812,
      "Ġcara": 1813,
      "Ã©l": 1814,
      "CIA": 1815,
      "Ã¡g": 1816,
      "ĠinformaÃ§Ãµes": 1817,
      "ivil": 1818,
      "quanto": 1819,
      "Ġvis": 1820,
      "QU": 1821,
      "ecret": 1822,
      "Ġaltera": 1823,
      "ĠsaÃºde": 1824,
      "Ġvezes": 1825,
      "ĠTur": 1826,
      "03": 1827,
      "Ġ27": 1828,
      "Ġmet": 1829,
      "soc": 1830,
      "Ġobjet": 1831,
      "ĠnÃºmero": 1832,
      "eno": 1833,
      "feito": 1834,
      "ĠPAR": 1835,
      "gos": 1836,
      "Ġquero": 1837,
      "erca": 1838,
      "Ġtom": 1839,
      "Ġsocial": 1840,
      "Ġimportante": 1841,
      "para": 1842,
      "ĠregiÃ£o": 1843,
      "ivamente": 1844,
      "Ġrespe": 1845,
      "Ġgra": 1846,
      "duardo": 1847,
      "Ġtip": 1848,
      "ĠCol": 1849,
      "Ġfato": 1850,
      "Ġneste": 1851,
      "ÃŃcia": 1852,
      "18": 1853,
      "Ġrecon": 1854,
      "Ġfez": 1855,
      "Ġpen": 1856,
      "ĠÃºnico": 1857,
      "ĠSub": 1858,
      "Ġnacional": 1859,
      "Ġcontro": 1860,
      "Ġmant": 1861,
      "Ġ2008": 1862,
      "Ġexternas": 1863,
      "iod": 1864,
      "ament": 1865,
      "Ġdoc": 1866,
      "Ġinstitu": 1867,
      "tt": 1868,
      "ĠLuiz": 1869,
      "emas": 1870,
      "ĠtÃªm": 1871,
      "ĠquestÃ£o": 1872,
      "Ġhabit": 1873,
      "Ġfunc": 1874,
      "ba": 1875,
      "iamento": 1876,
      "ell": 1877,
      "ĠalÃ©m": 1878,
      "ural": 1879,
      "ea": 1880,
      "Ġtendo": 1881,
      "reiro": 1882,
      "ĠLigaÃ§Ãµes": 1883,
      "ĠcomeÃ§": 1884,
      "Ġnada": 1885,
      "Ġpassa": 1886,
      "Ġpois": 1887,
      "ubro": 1888,
      "Ġcoloc": 1889,
      "rom": 1890,
      "osa": 1891,
      "Ġlic": 1892,
      "Ġlugar": 1893,
      "Ã³x": 1894,
      "ĠperÃŃodo": 1895,
      "ĠPoder": 1896,
      "Ġutiliz": 1897,
      "Ġnot": 1898,
      "Ġjulho": 1899,
      "Ġtur": 1900,
      "ĠSrs": 1901,
      "Ġinciso": 1902,
      "ĠMIN": 1903,
      "ĠExÂª": 1904,
      "05": 1905,
      "Ġreun": 1906,
      "RE": 1907,
      "Ġdecl": 1908,
      "Ġdefin": 1909,
      "jam": 1910,
      "Ġ26": 1911,
      "iga": 1912,
      "Ġrefer": 1913,
      "Ġuso": 1914,
      "ĠMA": 1915,
      "âĢĵâĢĵ": 1916,
      "Ġ2011": 1917,
      "pend": 1918,
      "tou": 1919,
      "iversidade": 1920,
      "Ġinclus": 1921,
      "ĠNe": 1922,
      "Ġdar": 1923,
      "Ġalguns": 1924,
      "Ġ2006": 1925,
      "ach": 1926,
      "ĠFranc": 1927,
      "ÃŃm": 1928,
      "UL": 1929,
      "Ġrad": 1930,
      "ide": 1931,
      "Ġsetembro": 1932,
      "Ġmost": 1933,
      "Ġlib": 1934,
      "Ġcer": 1935,
      "ata": 1936,
      "Ġtemos": 1937,
      "Ġcan": 1938,
      "rop": 1939,
      "ame": 1940,
      "Ġmo": 1941,
      "unicaÃ§Ã£o": 1942,
      "Ġvia": 1943,
      "Ġcasa": 1944,
      "Ġvou": 1945,
      "ĠÃģ": 1946,
      "com": 1947,
      "07": 1948,
      "ĠNov": 1949,
      "dor": 1950,
      "Ġrecurso": 1951,
      "ĠEsp": 1952,
      "Ġnem": 1953,
      "Ġtoda": 1954,
      "IM": 1955,
      "Ġrepresent": 1956,
      "ĠPo": 1957,
      "quis": 1958,
      "Ġdent": 1959,
      "ient": 1960,
      "Ġz": 1961,
      "vio": 1962,
      "06": 1963,
      "querimento": 1964,
      "Ġagra": 1965,
      "ĠÃ³r": 1966,
      "Ġcomb": 1967,
      "Ġsentido": 1968,
      "omia": 1969,
      "man": 1970,
      "Ġacab": 1971,
      "Ġgarant": 1972,
      "ĠhistÃ³ria": 1973,
      "HO": 1974,
      "Ġta": 1975,
      "esta": 1976,
      "Ġobs": 1977,
      "Ãį": 1978,
      "Ġempresa": 1979,
      "ure": 1980,
      "Ġ2010": 1981,
      "CUR": 1982,
      "Ġpelas": 1983,
      "Ġserv": 1984,
      "ĠSESSÃĥO": 1985,
      "17": 1986,
      "ores": 1987,
      "Ġpequ": 1988,
      "Ġexemplo": 1989,
      "has": 1990,
      "ins": 1991,
      "Ã¡veis": 1992,
      "Ġextra": 1993,
      "Ġef": 1994,
      "ĠSecret": 1995,
      "Ġpouco": 1996,
      "Ġjunho": 1997,
      "IMENTO": 1998,
      "Ġdata": 1999,
      "Ġofic": 2000,
      "Ġprom": 2001,
      "Ġtenho": 2002,
      "Ġteve": 2003,
      "Ġol": 2004,
      "08": 2005,
      "ĠVamos": 2006,
      "Ġseria": 2007,
      "ĠDecre": 2008,
      "ĠLegislat": 2009,
      "Ġcontribu": 2010,
      "unca": 2011,
      "Ġpovo": 2012,
      "ĠMin": 2013,
      "ĠPer": 2014,
      "Ġestou": 2015,
      "Ġconstitucional": 2016,
      "Ġcoisa": 2017,
      "Ġfut": 2018,
      "Ġproposta": 2019,
      "eles": 2020,
      "ornal": 2021,
      "Ġbene": 2022,
      "Ġfede": 2023,
      "Ġgrupo": 2024,
      "inar": 2025,
      "Ġfac": 2026,
      "rÃ¡f": 2027,
      "UTC": 2028,
      "ep": 2029,
      "Ġjust": 2030,
      "Ġtex": 2031,
      "Ġcump": 2032,
      "Ġnova": 2033,
      "ĠfamÃŃlia": 2034,
      "etr": 2035,
      "gl": 2036,
      "Ġsen": 2037,
      "Ġson": 2038,
      "Ġdisso": 2039,
      "ÃŃveis": 2040,
      "Â°": 2041,
      "Ġdesenvolvimento": 2042,
      "16": 2043,
      "Ġquais": 2044,
      "Ġmud": 2045,
      "Ġ...": 2046,
      "Ġprofiss": 2047,
      "Ġder": 2048,
      "Ġ2005": 2049,
      "Ġaj": 2050,
      "mas": 2051,
      "ron": 2052,
      "Ġ29": 2053,
      "Ġvamos": 2054,
      "Ġfun": 2055,
      "idÃªncias": 2056,
      "porte": 2057,
      "tura": 2058,
      "ĠRob": 2059,
      "ĠRes": 2060,
      "ĠGrande": 2061,
      "ves": 2062,
      "Ġop": 2063,
      "Ġbrasileira": 2064,
      "ĠDecreto": 2065,
      "Ġocorre": 2066,
      "Ġatu": 2067,
      "Ġestud": 2068,
      "ĠPed": 2069,
      "CURSO": 2070,
      "Ġcob": 2071,
      "Ġcontrat": 2072,
      "Ġestar": 2073,
      "ÃŃdo": 2074,
      "anÃ§a": 2075,
      "ĠPrim": 2076,
      "Ġsign": 2077,
      "Ġig": 2078,
      "Ġur": 2079,
      "cos": 2080,
      "qui": 2081,
      "ĠEduardo": 2082,
      "04": 2083,
      "ĠmarÃ§o": 2084,
      "sou": 2085,
      "ze": 2086,
      "ensÃ£o": 2087,
      "EIRA": 2088,
      "asse": 2089,
      "ĠJaneiro": 2090,
      "Ġ2013": 2091,
      "ĠÃ³rg": 2092,
      "Ġfuncion": 2093,
      "Ġgeral": 2094,
      "VA": 2095,
      "rando": 2096,
      "Ġempresas": 2097,
      "Ġagosto": 2098,
      "Ġoutubro": 2099,
      "Ġtrat": 2100,
      "inÃ¡rio": 2101,
      "erior": 2102,
      "ĠPart": 2103,
      "itÃ¡ria": 2104,
      "avam": 2105,
      "ĠprÃ³x": 2106,
      "Ġoutra": 2107,
      "Ġresult": 2108,
      "rov": 2109,
      "reg": 2110,
      "Ġnum": 2111,
      "rica": 2112,
      "Ġmot": 2113,
      "//": 2114,
      "Ġnenh": 2115,
      "ĠmÃºs": 2116,
      "idÃªncia": 2117,
      "ĠEM": 2118,
      "ĠMed": 2119,
      "................................................................": 2120,
      "ĠIII": 2121,
      "ĠSanta": 2122,
      "Ġlocal": 2123,
      "unicÃŃpios": 2124,
      "ICA": 2125,
      "Ġsociedade": 2126,
      "vereiro": 2127,
      "igu": 2128,
      "ĠEla": 2129,
      "Ġdeb": 2130,
      "ps": 2131,
      "das": 2132,
      "Ġlado": 2133,
      "Ġmerc": 2134,
      "Ġtar": 2135,
      "ĠSt": 2136,
      "IDA": 2137,
      "ĠSupre": 2138,
      "ECER": 2139,
      "ĠAL": 2140,
      "ich": 2141,
      "Ġconta": 2142,
      "Ġdetermin": 2143,
      "Ġrefere": 2144,
      "Ġmand": 2145,
      "Ã©rie": 2146,
      "ĠEstÃ¡": 2147,
      "ÃŃtulo": 2148,
      "Ġfisc": 2149,
      "Ġindic": 2150,
      "Ġabril": 2151,
      "ĠeconÃ´m": 2152,
      ".\"": 2153,
      "ĠEsta": 2154,
      "ĠTrabal": 2155,
      "Ġgrav": 2156,
      "Ġcresc": 2157,
      "Ġpessoa": 2158,
      "ĠMan": 2159,
      "Ġsuc": 2160,
      "Ãļ": 2161,
      "inado": 2162,
      "Ġprincipal": 2163,
      "af": 2164,
      "sab": 2165,
      "Ġjaneiro": 2166,
      "Ġviol": 2167,
      "Ġhabitantes": 2168,
      "Ġestado": 2169,
      "Ã³digo": 2170,
      "02": 2171,
      "://": 2172,
      "ÃģRIO": 2173,
      "inaÃ§Ã£o": 2174,
      "iana": 2175,
      "osta": 2176,
      "ĠMuito": 2177,
      "nÃ§as": 2178,
      "isl": 2179,
      "Ġsei": 2180,
      "car": 2181,
      "ifusÃ£o": 2182,
      "iat": 2183,
      "Ġnovembro": 2184,
      "Ġsou": 2185,
      "alizaÃ§Ã£o": 2186,
      "ĠMaria": 2187,
      "14": 2188,
      "ĠPARECER": 2189,
      "Ġdessa": 2190,
      "Ġpresidente": 2191,
      "ĠEX": 2192,
      "Ġmesma": 2193,
      "ĠDep": 2194,
      "ĠcondiÃ§Ãµes": 2195,
      "ĠMe": 2196,
      "ĠproduÃ§Ã£o": 2197,
      "dad": 2198,
      "endimento": 2199,
      "Ġreconhec": 2200,
      "Ġ2012": 2201,
      "ĠsituaÃ§Ã£o": 2202,
      "riz": 2203,
      "ĠFern": 2204,
      "tugu": 2205,
      "Ġmov": 2206,
      "ense": 2207,
      "Ġvi": 2208,
      "ĠQue": 2209,
      "Art": 2210,
      "Ġ2015": 2211,
      "inheiro": 2212,
      "ĠPÃºbl": 2213,
      "Ġprograma": 2214,
      "rutura": 2215,
      "Ġ194": 2216,
      "ique": 2217,
      "Ġvenc": 2218,
      "Ġcal": 2219,
      "Ġata": 2220,
      "Ġdesse": 2221,
      "ĠUma": 2222,
      "iodifusÃ£o": 2223,
      "eiÃ§Ã£o": 2224,
      "Ġatrav": 2225,
      "aixa": 2226,
      "agens": 2227,
      "icamente": 2228,
      "ebol": 2229,
      "mar": 2230,
      "Ġpap": 2231,
      "Ġestamos": 2232,
      "abora": 2233,
      "ĠseguranÃ§a": 2234,
      "ĠCr": 2235,
      "ulg": 2236,
      "Exa": 2237,
      "RAL": 2238,
      "ĠÃ§Ã£o": 2239,
      "posit": 2240,
      "Ġhtt": 2241,
      "Ġsolic": 2242,
      "Ġefet": 2243,
      "Ġampl": 2244,
      "eix": 2245,
      "ĠCent": 2246,
      "Ã£e": 2247,
      "199": 2248,
      "Ġred": 2249,
      "Ġcri": 2250,
      "ĠNos": 2251,
      "Ġtanto": 2252,
      "OL": 2253,
      "jetos": 2254,
      "ila": 2255,
      "ĠespÃ©c": 2256,
      "Ġgran": 2257,
      "Ġens": 2258,
      "Ġencam": 2259,
      "Ġand": 2260,
      "ĠmÃ¡": 2261,
      "grafo": 2262,
      "dia": 2263,
      "rados": 2264,
      "ĠMunicÃŃpio": 2265,
      "aÃ§o": 2266,
      "bo": 2267,
      "ividade": 2268,
      "ĠBras": 2269,
      "ĠRegimento": 2270,
      "Ġer": 2271,
      "Ġenf": 2272,
      "ecutivo": 2273,
      "ĠeducaÃ§Ã£o": 2274,
      "ĠNÃ³s": 2275,
      "Ġdemais": 2276,
      "Ġpens": 2277,
      "Ġquatro": 2278,
      "ĠGo": 2279,
      "Ġocup": 2280,
      "ort": 2281,
      "Ġru": 2282,
      "Ġ2004": 2283,
      "Ġimport": 2284,
      "ĠAnd": 2285,
      "Ġenquanto": 2286,
      "000": 2287,
      "Ġdiver": 2288,
      "pens": 2289,
      "ĠSala": 2290,
      "iou": 2291,
      "Ġhoras": 2292,
      "ĠinÃŃcio": 2293,
      "ĠprovidÃªncias": 2294,
      "Ãķ": 2295,
      "izar": 2296,
      "Ġproduz": 2297,
      "ĠSol": 2298,
      "Ġobserv": 2299,
      "atÃ³rio": 2300,
      "2015": 2301,
      "Ã³l": 2302,
      "iada": 2303,
      "Ġparc": 2304,
      "Ġ(\"": 2305,
      "Ġpriv": 2306,
      "ecnologia": 2307,
      "ania": 2308,
      "stria": 2309,
      "Ġfevereiro": 2310,
      "ĠsessÃ£o": 2311,
      "ĠBa": 2312,
      "Ã¼": 2313,
      "Ġhou": 2314,
      "Ġinde": 2315,
      "iante": 2316,
      "Ġtexto": 2317,
      "Ġtrata": 2318,
      "Ġverdade": 2319,
      "ÃķES": 2320,
      "ÃŃda": 2321,
      "Ġprecis": 2322,
      "Ġdentro": 2323,
      "gio": 2324,
      "Ġtipo": 2325,
      "ĠSup": 2326,
      "ĠAN": 2327,
      "encial": 2328,
      "iram": 2329,
      "ĠAD": 2330,
      "DT": 2331,
      "ĠÃĢ": 2332,
      "Ġpermit": 2333,
      "PMDB": 2334,
      "Ġfalar": 2335,
      "AC": 2336,
      "ÃŃder": 2337,
      "ĠPresidÃªncia": 2338,
      "org": 2339,
      "Ġrespeito": 2340,
      "Ã´nia": 2341,
      "Bloco": 2342,
      "zo": 2343,
      "Ġconju": 2344,
      "Ġexig": 2345,
      "Ġespera": 2346,
      "Ġtele": 2347,
      "Ġmim": 2348,
      "ĠrÃ¡": 2349,
      "ĠDef": 2350,
      "Ġmon": 2351,
      "Ġbus": 2352,
      "Ġdireitos": 2353,
      "Ġalgo": 2354,
      "ona": 2355,
      "AM": 2356,
      "ĠInterno": 2357,
      "ĠEsc": 2358,
      "Ġrem": 2359,
      "atal": 2360,
      "cionais": 2361,
      "Ġexclus": 2362,
      "odri": 2363,
      "ry": 2364,
      "IST": 2365,
      "Ġponto": 2366,
      "ĠSupremo": 2367,
      "Ġlegislat": 2368,
      "ĠCap": 2369,
      "Ġbas": 2370,
      "ĠjurÃŃd": 2371,
      "ĠOliv": 2372,
      "iÃ¡rio": 2373,
      "eria": 2374,
      "essor": 2375,
      "ĠUnidos": 2376,
      "Ġaprec": 2377,
      "Ġfora": 2378,
      "endas": 2379,
      "Ġhavia": 2380,
      "ies": 2381,
      "rog": 2382,
      "ĠpossÃŃvel": 2383,
      "ux": 2384,
      "ĠBrasÃŃlia": 2385,
      "Ġsof": 2386,
      "forma": 2387,
      "Ġdesp": 2388,
      "Ġmanif": 2389,
      "ergia": 2390,
      "idores": 2391,
      "ĠExcel": 2392,
      "utor": 2393,
      "olÃ³g": 2394,
      "POS": 2395,
      "unicip": 2396,
      "Ġmedida": 2397,
      "irc": 2398,
      "ime": 2399,
      "Ġcultura": 2400,
      "Ġpai": 2401,
      "ĠaÃ§Ã£o": 2402,
      "Ġconforme": 2403,
      "acion": 2404,
      "Ġ2003": 2405,
      "ĠcriaÃ§Ã£o": 2406,
      "ang": 2407,
      "Ġnunca": 2408,
      "erais": 2409,
      "ĠEste": 2410,
      "ĠpaÃŃses": 2411,
      "har": 2412,
      "ĠQuando": 2413,
      "Ġcust": 2414,
      "________": 2415,
      "Ã´nio": 2416,
      "Ġdeclara": 2417,
      "Ġcinco": 2418,
      "ĠsÃ©c": 2419,
      "ĠComun": 2420,
      "dores": 2421,
      "ĠCor": 2422,
      "tores": 2423,
      "Ġfeito": 2424,
      "ĠPP": 2425,
      "Ã©rito": 2426,
      "Ġ2014": 2427,
      "ĠLa": 2428,
      "icaÃ§Ãµes": 2429,
      "Ġdados": 2430,
      "30": 2431,
      "rÃ£o": 2432,
      "Ġexp": 2433,
      "Ġpac": 2434,
      "ĠÃ¡l": 2435,
      "adora": 2436,
      "Ġmal": 2437,
      "vida": 2438,
      "ĠaÃ§Ãµes": 2439,
      "Ġcur": 2440,
      "25": 2441,
      "gue": 2442,
      "vis": 2443,
      "Ġfer": 2444,
      "Ġapoio": 2445,
      "Ġacomp": 2446,
      "Ã¡b": 2447,
      "Ġesses": 2448,
      "CE": 2449,
      "Ġvir": 2450,
      "ĠIntern": 2451,
      "esar": 2452,
      "sociaÃ§Ã£o": 2453,
      "Ġthe": 2454,
      "aval": 2455,
      "Ġdet": 2456,
      "ĠProc": 2457,
      "Ġ/": 2458,
      "Ġtenha": 2459,
      "utivo": 2460,
      "Ġ195": 2461,
      "ĠTurma": 2462,
      "Ġbil": 2463,
      "inos": 2464,
      "Ġfilme": 2465,
      "ĠEducaÃ§Ã£o": 2466,
      "Ġprocess": 2467,
      "Ġ2016": 2468,
      "idor": 2469,
      "Ã¡c": 2470,
      "umentos": 2471,
      "iores": 2472,
      "Ġkm": 2473,
      "entemente": 2474,
      "Ġafirm": 2475,
      "ĠOut": 2476,
      "val": 2477,
      "ĠSocial": 2478,
      "CO": 2479,
      "ĠRO": 2480,
      "ĠAo": 2481,
      "ĠatravÃ©s": 2482,
      "ĠmÃŃn": 2483,
      "Ġfos": 2484,
      "iÃµes": 2485,
      "Ġso": 2486,
      "ĠNO": 2487,
      "ond": 2488,
      "Ġsur": 2489,
      "rais": 2490,
      "ĠserÃ£o": 2491,
      "bre": 2492,
      "ĠUniversidade": 2493,
      "ĠÃ¡gua": 2494,
      "Ġsex": 2495,
      "2013": 2496,
      "Ġproblema": 2497,
      "ĠSilva": 2498,
      "reve": 2499,
      "Ġlocaliz": 2500,
      "aixo": 2501,
      "ugu": 2502,
      "Ġgovern": 2503,
      "ĠsÃ©rie": 2504,
      "PL": 2505,
      "iel": 2506,
      "entou": 2507,
      "iados": 2508,
      "Ã¡lise": 2509,
      "ĠOliveira": 2510,
      "Ġdesign": 2511,
      "ÃŃde": 2512,
      "Ġ,": 2513,
      "Ġregimental": 2514,
      "ĠDr": 2515,
      "Ġlig": 2516,
      "Ġoficial": 2517,
      "âĢĻ": 2518,
      "fon": 2519,
      "Ġsus": 2520,
      "Ġextraord": 2521,
      "ĠFl": 2522,
      "rique": 2523,
      "RAN": 2524,
      "iqu": 2525,
      "embros": 2526,
      "Ġw": 2527,
      "undial": 2528,
      "ĠmunicÃŃpio": 2529,
      "ipe": 2530,
      "iza": 2531,
      "ĠLoc": 2532,
      "Ġterc": 2533,
      "inhas": 2534,
      "Ġparecer": 2535,
      "Ġdiscut": 2536,
      "iro": 2537,
      "peon": 2538,
      "Ġsegunda": 2539,
      "grafia": 2540,
      ".,": 2541,
      "ĠJÃ¡": 2542,
      "Ġpat": 2543,
      "Ġseguintes": 2544,
      "ÃĬ": 2545,
      "Ġvista": 2546,
      "Ġfazendo": 2547,
      "Ġtotal": 2548,
      "ĠPedro": 2549,
      "Ġexpres": 2550,
      "ĠTotal": 2551,
      "ĠÃ©p": 2552,
      "Ġlegisl": 2553,
      "Ġperc": 2554,
      "ĠPlenÃ¡rio": 2555,
      "portun": 2556,
      "iscussÃ£o": 2557,
      "Ġdefesa": 2558,
      "ĠprÃ³prio": 2559,
      "Ġvem": 2560,
      "Ġmuitos": 2561,
      "Ġtiv": 2562,
      "Ġbanc": 2563,
      "Ġsabe": 2564,
      "Ġjornal": 2565,
      "ĠrazÃ£o": 2566,
      "ipl": 2567,
      "izado": 2568,
      "ĠPÃºblico": 2569,
      "Ġexecut": 2570,
      "\")": 2571,
      "ĠMAR": 2572,
      "into": 2573,
      "ons": 2574,
      "Ġobrigado": 2575,
      "Ġproduto": 2576,
      "ĠThe": 2577,
      "Ġmeses": 2578,
      "feira": 2579,
      "ĠSaÃºde": 2580,
      "ĠConselho": 2581,
      "ĠÃļ": 2582,
      "ĠFre": 2583,
      "Ġmor": 2584,
      "STI": 2585,
      "ĠvÃ¡rios": 2586,
      "ativo": 2587,
      "Ġfiz": 2588,
      "Ġorigem": 2589,
      "ĠtÃ©cnica": 2590,
      "Ġade": 2591,
      "anho": 2592,
      "rest": 2593,
      "ientes": 2594,
      "ĠDeputada": 2595,
      "ĠParlam": 2596,
      "2011": 2597,
      "Ġatividades": 2598,
      "rimento": 2599,
      "Ġregul": 2600,
      "ĠSenho": 2601,
      "Ġficar": 2602,
      "Ġconsum": 2603,
      "Ġeleito": 2604,
      "EM": 2605,
      "Ġperman": 2606,
      "orar": 2607,
      "ube": 2608,
      "ance": 2609,
      "Ġestre": 2610,
      "ĠprincÃŃp": 2611,
      "Ġalgumas": 2612,
      "ĠSegundo": 2613,
      "ĠSP": 2614,
      "erem": 2615,
      "ensa": 2616,
      "cul": 2617,
      "ĠAgora": 2618,
      "Ġcerca": 2619,
      "Ġgrandes": 2620,
      "Ġessas": 2621,
      "issÃµes": 2622,
      "Ġinclusive": 2623,
      "ĠBloco": 2624,
      "ĠObrig": 2625,
      "ĠRom": 2626,
      "Ġrespect": 2627,
      "ADO": 2628,
      "Ã¡grafo": 2629,
      "entares": 2630,
      "ĠJu": 2631,
      "21": 2632,
      "ĠEmenda": 2633,
      "Ġacesso": 2634,
      "ualmente": 2635,
      "Ġoportun": 2636,
      "ĠEMEN": 2637,
      "Ġbar": 2638,
      "ategor": 2639,
      "66": 2640,
      "ĠEssa": 2641,
      "heres": 2642,
      "ĠMag": 2643,
      "ĠAlÃ©m": 2644,
      "itor": 2645,
      "ĠradiodifusÃ£o": 2646,
      "Ġtrib": 2647,
      "dÃ£o": 2648,
      "vez": 2649,
      "rir": 2650,
      "Ġpreoc": 2651,
      "ĠExecutivo": 2652,
      "ĠInform": 2653,
      "Ġquase": 2654,
      "ĠCÃ³digo": 2655,
      "ĠÃ©poca": 2656,
      "ĠFilho": 2657,
      "ĠWik": 2658,
      "Ġsimpl": 2659,
      "ĠdÃ©c": 2660,
      "hÃ£o": 2661,
      "Ã£es": 2662,
      "mit": 2663,
      "ĠTe": 2664,
      "Ġimpl": 2665,
      "stitucional": 2666,
      "Ġquad": 2667,
      "istÃªncia": 2668,
      ".âĢĿ": 2669,
      "Ġnuma": 2670,
      "eliz": 2671,
      "Ġminutos": 2672,
      "29": 2673,
      "inte": 2674,
      "Ġfilho": 2675,
      "ĠpÃºblicos": 2676,
      "TADO": 2677,
      "peonato": 2678,
      "Ġinstal": 2679,
      "ĠDeus": 2680,
      "Ġjov": 2681,
      "STITU": 2682,
      "Ġ100": 2683,
      "ĠDEM": 2684,
      ");": 2685,
      "anco": 2686,
      "ĠDa": 2687,
      "ival": 2688,
      "ĠdiscussÃ£o": 2689,
      "Ġofe": 2690,
      "Ġeram": 2691,
      "ĠtÃŃtulo": 2692,
      "ques": 2693,
      "ĠCat": 2694,
      "ĠexercÃŃcio": 2695,
      "isas": 2696,
      "all": 2697,
      "Ġdevido": 2698,
      "Ġmaioria": 2699,
      "remos": 2700,
      "TF": 2701,
      "ĠDist": 2702,
      "Ġmelho": 2703,
      "fÃŃcio": 2704,
      "Ġfalta": 2705,
      "ĠRa": 2706,
      "ret": 2707,
      "Ġdaqu": 2708,
      "bum": 2709,
      "ĠsÃ©culo": 2710,
      "Ġjogo": 2711,
      "ĠCOMIS": 2712,
      "Ġvolta": 2713,
      "ok": 2714,
      "Ġfica": 2715,
      "34": 2716,
      "feitos": 2717,
      "Ġide": 2718,
      "etro": 2719,
      "ÃŃcios": 2720,
      "andid": 2721,
      "nunc": 2722,
      "ĠHen": 2723,
      "Ġdinheiro": 2724,
      "radas": 2725,
      "Ã³rios": 2726,
      "28": 2727,
      "Ġtent": 2728,
      "ĠGe": 2729,
      "Ġord": 2730,
      "Ġqualidade": 2731,
      "Ġ50": 2732,
      "ĠJÃº": 2733,
      "Ġlhe": 2734,
      "Ġprogram": 2735,
      "elas": 2736,
      "Ġcomerc": 2737,
      "Ġirm": 2738,
      "Ġpena": 2739,
      "Ġencaminh": 2740,
      "DIN": 2741,
      "Ġmarc": 2742,
      "adamente": 2743,
      "ĠMil": 2744,
      "raf": 2745,
      "DI": 2746,
      "Ġmuitas": 2747,
      "Ġdistribu": 2748,
      "onst": 2749,
      "eros": 2750,
      "ĠEsse": 2751,
      "ĠHÃ¡": 2752,
      "ĠÃ³": 2753,
      "Ġbrasileiros": 2754,
      "ĠSEN": 2755,
      "mb": 2756,
      "ĠMarc": 2757,
      "idente": 2758,
      "Ġcargo": 2759,
      "plementar": 2760,
      "idar": 2761,
      "PSDB": 2762,
      "Ġhttps": 2763,
      "Ġcasos": 2764,
      "Ġpert": 2765,
      "unha": 2766,
      "Ġportugu": 2767,
      "):": 2768,
      "Ġnorte": 2769,
      "Ġident": 2770,
      "ĠAR": 2771,
      "ĠRos": 2772,
      "36": 2773,
      "Ġpoderia": 2774,
      "ugal": 2775,
      "ĠHist": 2776,
      "mes": 2777,
      "ĠreuniÃ£o": 2778,
      "Ġgost": 2779,
      "ispÃµe": 2780,
      "doB": 2781,
      "............": 2782,
      "redo": 2783,
      "Ġtro": 2784,
      "quisa": 2785,
      "ĠTh": 2786,
      "ĠAssim": 2787,
      "Ġacred": 2788,
      "ers": 2789,
      "ĠDia": 2790,
      "cter": 2791,
      "ĠLula": 2792,
      "ĠPE": 2793,
      "Ġtraz": 2794,
      "Ġresol": 2795,
      "ĠpÃ¡g": 2796,
      "ecuÃ§Ã£o": 2797,
      "Ġcel": 2798,
      "Ġajud": 2799,
      "ki": 2800,
      "Ġsemana": 2801,
      "Ġcausa": 2802,
      "Ġclass": 2803,
      "uras": 2804,
      "Ġsejam": 2805,
      "Ġestad": 2806,
      "Ġdele": 2807,
      "orge": 2808,
      "enso": 2809,
      "Ġadequ": 2810,
      "Ġ2017": 2811,
      "Ġentanto": 2812,
      "Ġconver": 2813,
      "35": 2814,
      "Ġpedido": 2815,
      "Ġaumento": 2816,
      "ulares": 2817,
      "Ġaud": 2818,
      "pP": 2819,
      "imas": 2820,
      "Ġboa": 2821,
      "ĠTV": 2822,
      "Ġprecisa": 2823,
      "Ġmodo": 2824,
      "ĠparticipaÃ§Ã£o": 2825,
      "Ġproced": 2826,
      "Ġquest": 2827,
      "Ġhomem": 2828,
      "ĠPal": 2829,
      "BER": 2830,
      "ferÃªncia": 2831,
      "ĠcrÃ©d": 2832,
      "Ġet": 2833,
      "24": 2834,
      "Ġmercado": 2835,
      "ĠÃ¢": 2836,
      "Ġobjetivo": 2837,
      "ĠaÃŃ": 2838,
      "Ġori": 2839,
      "erta": 2840,
      "ĠDJ": 2841,
      "Ġ2000": 2842,
      "Ġprat": 2843,
      "ĠredaÃ§Ã£o": 2844,
      "asc": 2845,
      "Ġresponsab": 2846,
      "arc": 2847,
      "Ġmembros": 2848,
      "sol": 2849,
      "ini": 2850,
      "27": 2851,
      "Ġagravo": 2852,
      "Ġcrit": 2853,
      "Ġtermin": 2854,
      "ĠSU": 2855,
      "Ġsomente": 2856,
      "Ġrespons": 2857,
      "ĠFernando": 2858,
      "37": 2859,
      "ĠRoberto": 2860,
      "lob": 2861,
      "ificado": 2862,
      "ĠLegislativo": 2863,
      "ack": 2864,
      "Ġtarde": 2865,
      "NCIA": 2866,
      "ĠÃ¡reas": 2867,
      "elh": 2868,
      "Ġcamp": 2869,
      "Ġcandid": 2870,
      "ĠAssociaÃ§Ã£o": 2871,
      "rang": 2872,
      "rup": 2873,
      "inÃ¡ria": 2874,
      "26": 2875,
      "ical": 2876,
      "Ã³rias": 2877,
      "ĠSou": 2878,
      "Ġacompanh": 2879,
      "onio": 2880,
      "ĠlegislaÃ§Ã£o": 2881,
      "Ġacho": 2882,
      "Ġmater": 2883,
      "ĠPSB": 2884,
      "39": 2885,
      "itado": 2886,
      "Ġpassou": 2887,
      "ama": 2888,
      "Ġensino": 2889,
      "Ġobras": 2890,
      "edia": 2891,
      "ĠGeral": 2892,
      "ĠRo": 2893,
      "Ġtema": 2894,
      "Ġmorte": 2895,
      "stituto": 2896,
      "Ġfra": 2897,
      "ĠTrans": 2898,
      "ĠmÃºsica": 2899,
      "PE": 2900,
      "Ġtit": 2901,
      "ĠRodri": 2902,
      "inada": 2903,
      "Ġmedidas": 2904,
      "sc": 2905,
      "ĠDem": 2906,
      "essÃµes": 2907,
      "rÃ©": 2908,
      "Ġlegal": 2909,
      "ĠpublicaÃ§Ã£o": 2910,
      "ĠBem": 2911,
      "ĠIV": 2912,
      "Ġdecid": 2913,
      "Ġaval": 2914,
      "ecimento": 2915,
      "Ġsaber": 2916,
      "IZ": 2917,
      "stitutivo": 2918,
      "icidade": 2919,
      "sal": 2920,
      "Ġ2019": 2921,
      "ĠRic": 2922,
      "ĠBo": 2923,
      "Ã¡r": 2924,
      "ĠParecer": 2925,
      "ĠAmaz": 2926,
      "ĠDel": 2927,
      "Ġgen": 2928,
      "ĠMaia": 2929,
      "Ġsetor": 2930,
      "ĠSÃ³": 2931,
      "2000": 2932,
      "Ġnoite": 2933,
      "Ġobjeto": 2934,
      "hn": 2935,
      "Ġmembro": 2936,
      "Ġnasc": 2937,
      "ÃŃg": 2938,
      "Ġcontrole": 2939,
      "ĠcrianÃ§as": 2940,
      "ĠTrabalho": 2941,
      "Ġcant": 2942,
      "Ġis": 2943,
      "Ġquar": 2944,
      "2008": 2945,
      "ĠprÃ³pria": 2946,
      "Ġproblemas": 2947,
      "Ġsec": 2948,
      "Ġaleg": 2949,
      "Ġpagamento": 2950,
      "ĠSE": 2951,
      "Ġ54": 2952,
      "ĠPortugal": 2953,
      "ificar": 2954,
      "anhÃ£": 2955,
      "sto": 2956,
      "ĠCultura": 2957,
      "Ġcoisas": 2958,
      "rÃ¡s": 2959,
      "ĠrealizaÃ§Ã£o": 2960,
      "Ġingl": 2961,
      "Ġmulheres": 2962,
      "ke": 2963,
      "ĠpoderÃ¡": 2964,
      "ĠconstruÃ§Ã£o": 2965,
      "ĠMunicÃŃpios": 2966,
      "ĠLuc": 2967,
      "tado": 2968,
      "Ġemp": 2969,
      "Ġassu": 2970,
      "Ġdeixar": 2971,
      "Ġsimples": 2972,
      "The": 2973,
      "ĠorÃ§": 2974,
      "ĠFin": 2975,
      "ĠmÃ£e": 2976,
      "ĠCAR": 2977,
      "Ġcert": 2978,
      "ruz": 2979,
      "Ġhip": 2980,
      "38": 2981,
      "Ġrelacion": 2982,
      "DEM": 2983,
      "ff": 2984,
      "alidades": 2985,
      "Ġcerto": 2986,
      "riÃ§Ã£o": 2987,
      "ĠVo": 2988,
      "ĠÃ¡lbum": 2989,
      "BL": 2990,
      "Ġforn": 2991,
      "Ġvota": 2992,
      "ĠAdminist": 2993,
      "ĠPrograma": 2994,
      "Ġdeu": 2995,
      "izada": 2996,
      "Ã³n": 2997,
      "ĠCP": 2998,
      "Ġlongo": 2999,
      "ĠMinas": 3000,
      "ĠediÃ§Ã£o": 3001,
      "Ġcirc": 3002,
      "2007": 3003,
      "Ġpreocup": 3004,
      "Ġperson": 3005,
      "ĠvÃ¡rias": 3006,
      "ĠCal": 3007,
      "CIO": 3008,
      "ĠpÃºblicas": 3009,
      "Ġanim": 3010,
      "ua": 3011,
      "Ġterrit": 3012,
      "arg": 3013,
      "Ġcidad": 3014,
      "Ġassum": 3015,
      "Ġ31": 3016,
      "Ġprincipalmente": 3017,
      "atura": 3018,
      "Ġsan": 3019,
      "Ġdirig": 3020,
      "ialmente": 3021,
      "Ġarqu": 3022,
      "ulas": 3023,
      "Ġequipe": 3024,
      "gues": 3025,
      "ĠÃºltimo": 3026,
      "IB": 3027,
      "Ġgol": 3028,
      "aran": 3029,
      "ĠNova": 3030,
      "ĠEstou": 3031,
      "ĠextraordinÃ¡rio": 3032,
      "Ã©rica": 3033,
      "Ġgente": 3034,
      "Ġmorre": 3035,
      "reja": 3036,
      "Ġinvestig": 3037,
      "ĠEntre": 3038,
      "Ġpreciso": 3039,
      "Ġcabe": 3040,
      "Ġdemoc": 3041,
      "ĠDesenvolvimento": 3042,
      "Ġpapel": 3043,
      "IV": 3044,
      "Ġjunto": 3045,
      "Ã©dia": 3046,
      "ĠEspec": 3047,
      "Ġace": 3048,
      "uz": 3049,
      "Ġenergia": 3050,
      "ĠFrancisco": 3051,
      "ĠNorte": 3052,
      "ĠMat": 3053,
      "ĠvÃ£o": 3054,
      "ĠPÃºblica": 3055,
      "Ġ2020": 3056,
      "ĠanÃ¡lise": 3057,
      "Ġarg": 3058,
      "Ġrequerimento": 3059,
      "anas": 3060,
      "ĠespÃ©cie": 3061,
      "Ġep": 3062,
      "ity": 3063,
      "ĠHo": 3064,
      "ĠTod": 3065,
      "Ġindiv": 3066,
      "Ġatribu": 3067,
      "rent": 3068,
      "ĠdispÃµe": 3069,
      "Ġprojetos": 3070,
      "tica": 3071,
      "Ġhora": 3072,
      "Ġjulgamento": 3073,
      "45": 3074,
      "ĠMesa": 3075,
      "Ġali": 3076,
      "Ġalc": 3077,
      "Ġcapac": 3078,
      "Ãĵ": 3079,
      "2010": 3080,
      "ly": 3081,
      "etrÃ´n": 3082,
      "Ġviv": 3083,
      "Ġ2002": 3084,
      "orden": 3085,
      "Ġ:)": 3086,
      "Ġfrente": 3087,
      "Ġtre": 3088,
      "itura": 3089,
      "Ġminist": 3090,
      "arte": 3091,
      "Ġ................................................": 3092,
      "essa": 3093,
      "Ġprot": 3094,
      "ĠposiÃ§Ã£o": 3095,
      "ÃĬNCIA": 3096,
      "ĠPen": 3097,
      "ĠEles": 3098,
      "ÃŃlio": 3099,
      "osp": 3100,
      "ĠconcessÃ£o": 3101,
      "Ġ35": 3102,
      "ĠFer": 3103,
      "Ġgera": 3104,
      "ĠSua": 3105,
      "ericano": 3106,
      "Ġouv": 3107,
      "Ġdisposit": 3108,
      "Ġhouve": 3109,
      "Ġposso": 3110,
      "ativas": 3111,
      "Ġalguma": 3112,
      "apa": 3113,
      "iste": 3114,
      "Ġdim": 3115,
      "GO": 3116,
      "berto": 3117,
      "Ġembora": 3118,
      "ĠpresenÃ§a": 3119,
      "Ġeconomia": 3120,
      "Ġdescob": 3121,
      "ĠRIC": 3122,
      "ÃŃss": 3123,
      "Ġfa": 3124,
      "Ġne": 3125,
      "postas": 3126,
      "Ġreais": 3127,
      "Ġobra": 3128,
      "Ġdispon": 3129,
      "tante": 3130,
      "inhos": 3131,
      "altera": 3132,
      "ĠREQU": 3133,
      "Ġdiret": 3134,
      "Ġprocura": 3135,
      "Ġfosse": 3136,
      "22": 3137,
      "ilizaÃ§Ã£o": 3138,
      "Ġconhecido": 3139,
      "Ġinstr": 3140,
      "Ġregime": 3141,
      "Ġatividade": 3142,
      "rios": 3143,
      "ome": 3144,
      "aldo": 3145,
      "teza": 3146,
      "98": 3147,
      "ureza": 3148,
      "ĠRib": 3149,
      "BA": 3150,
      "ĠPDT": 3151,
      "Ġdom": 3152,
      "Ġcapital": 3153,
      "Ġexper": 3154,
      "Ġcaracter": 3155,
      "ĠAntonio": 3156,
      "ĠAlex": 3157,
      "Ġadministrat": 3158,
      "ĠfunÃ§Ã£o": 3159,
      "ĠConc": 3160,
      "Ġpronunc": 3161,
      "Ġregistro": 3162,
      "Ġba": 3163,
      "xim": 3164,
      "Ġportanto": 3165,
      "Ġpodemos": 3166,
      "ncias": 3167,
      "ĠTr": 3168,
      "ĠPartido": 3169,
      "Ġfix": 3170,
      "Ġdivulg": 3171,
      "Ġnesse": 3172,
      "inguÃ©m": 3173,
      "Ġcaus": 3174,
      "Ġdestac": 3175,
      "ht": 3176,
      "Ġpret": 3177,
      "Ġating": 3178,
      "RAVO": 3179,
      "Ġdemonst": 3180,
      "Ġcrime": 3181,
      "Ġ'": 3182,
      "Ġcorpo": 3183,
      "ĠrelatÃ³rio": 3184,
      "Ġbat": 3185,
      "ĠSab": 3186,
      "ĠimportÃ¢ncia": 3187,
      "Ã¡cio": 3188,
      "Ġmaneira": 3189,
      "Ġprote": 3190,
      "Ġ1990": 3191,
      "Ġencontra": 3192,
      "Ġinfra": 3193,
      "ĠCa": 3194,
      "ĠfÃŃs": 3195,
      "Ġpeg": 3196,
      "ĠDefesa": 3197,
      "Ġprodutos": 3198,
      "Ġrealizada": 3199,
      "ĠEuro": 3200,
      "ĠCivil": 3201,
      "ĠvocÃªs": 3202,
      "Ġdisput": 3203,
      "Ġalt": 3204,
      "ĠQU": 3205,
      "Ġenvolv": 3206,
      "Ġescola": 3207,
      "br": 3208,
      "icion": 3209,
      "Ġsuperior": 3210,
      "our": 3211,
      "eza": 3212,
      "Ġquant": 3213,
      "Ġmulher": 3214,
      "Ġconjunto": 3215,
      "ĠpolÃŃtico": 3216,
      "ĠIt": 3217,
      "Ġlegislativa": 3218,
      "Ġpartido": 3219,
      "unicipal": 3220,
      "Ġqueria": 3221,
      "ĠApÃ³s": 3222,
      "ck": 3223,
      "ĠPres": 3224,
      "posiÃ§Ãµes": 3225,
      "GE": 3226,
      "Ġrom": 3227,
      "enham": 3228,
      "Ġestim": 3229,
      "Ġhaver": 3230,
      "Ġ2001": 3231,
      "ERIMENTO": 3232,
      "ĠDistrito": 3233,
      "ĠCA": 3234,
      "Ġnecessidade": 3235,
      "Ġinteresse": 3236,
      "ĠPrec": 3237,
      "ĠServi": 3238,
      "ĠBol": 3239,
      "ĠPat": 3240,
      "Ġsociais": 3241,
      "Ġpessoal": 3242,
      "ĠEnc": 3243,
      "ĠÃºltima": 3244,
      "Ġlivro": 3245,
      "Ġiniciat": 3246,
      "Ġapa": 3247,
      "TIMA": 3248,
      "Ġpassado": 3249,
      "ĠEcon": 3250,
      "Ġpropri": 3251,
      "leo": 3252,
      "ind": 3253,
      "Ġcontr": 3254,
      "postos": 3255,
      "ormente": 3256,
      "Ġ2018": 3257,
      "ĠVice": 3258,
      "Ġdesem": 3259,
      "Pa": 3260,
      "ĠquÃª": 3261,
      "Ġcomprom": 3262,
      "ĠComunicaÃ§Ã£o": 3263,
      "Ġdecre": 3264,
      "ĠprÃ©": 3265,
      "ĠES": 3266,
      "itando": 3267,
      "Ġreal": 3268,
      "ĠinglÃªs": 3269,
      "ĠDEP": 3270,
      "ĠGovern": 3271,
      "amental": 3272,
      "edo": 3273,
      "Ġlemb": 3274,
      "Â²": 3275,
      "Ġsug": 3276,
      "eito": 3277,
      "ĠmÃªs": 3278,
      "Ġdep": 3279,
      "78": 3280,
      "ĠTecnologia": 3281,
      "ecer": 3282,
      "ws": 3283,
      "Ġcompanh": 3284,
      "ĠexecuÃ§Ã£o": 3285,
      "Ã³rdÃ£o": 3286,
      "Ġficou": 3287,
      "qÃ¼": 3288,
      "anÃ§as": 3289,
      "48": 3290,
      "ĠSenadores": 3291,
      "IDADE": 3292,
      "CA": 3293,
      "ĠREQUERIMENTO": 3294,
      "ategory": 3295,
      "Ġanunc": 3296,
      "ĠCidad": 3297,
      "ĠrÃ¡p": 3298,
      "ĠCiÃªncia": 3299,
      "2012": 3300,
      "Ġlogo": 3301,
      "Ġconqu": 3302,
      "ĠSras": 3303,
      "ĠObrigado": 3304,
      "ĠCOMISSÃĥO": 3305,
      "Ġpergu": 3306,
      "NAL": 3307,
      "dbP": 3308,
      "Ġpontos": 3309,
      "let": 3310,
      "ala": 3311,
      "hia": 3312,
      "Ġprofissional": 3313,
      "99": 3314,
      "Ġfranc": 3315,
      "Ġche": 3316,
      "ertura": 3317,
      "ald": 3318,
      "ĠÃ¢mb": 3319,
      "Ġapos": 3320,
      "2016": 3321,
      "ka": 3322,
      "ÃŃtica": 3323,
      "ramento": 3324,
      "Ġpromov": 3325,
      "Ġluta": 3326,
      "âĢĵâĢĵâĢĵâĢĵ": 3327,
      "Ġtornou": 3328,
      "ĠTal": 3329,
      "met": 3330,
      "ĠbilhÃµes": 3331,
      "ĠCan": 3332,
      "ier": 3333,
      "ĠcomeÃ§ou": 3334,
      "ĠTa": 3335,
      "Ġsin": 3336,
      "respon": 3337,
      "Ġdisposto": 3338,
      "ĠLU": 3339,
      "Ġanterior": 3340,
      "ĠGil": 3341,
      "ĠEXTRA": 3342,
      "Ġautos": 3343,
      "Ġpad": 3344,
      "Ġsenhor": 3345,
      "Ġpresid": 3346,
      "ĠPe": 3347,
      "ĠOu": 3348,
      "ĠSra": 3349,
      "adeira": 3350,
      "ĠPere": 3351,
      "ĠMac": 3352,
      "Ġpesquisa": 3353,
      "ĠInstituto": 3354,
      "Ġemenda": 3355,
      "ney": 3356,
      "Ġla": 3357,
      "Ġnenhum": 3358,
      "Ġinsc": 3359,
      "CdoB": 3360,
      "Ġparece": 3361,
      "ĠCosta": 3362,
      "Ġfederal": 3363,
      "Ã©n": 3364,
      "ĠPrimeira": 3365,
      "IR": 3366,
      "Ġvalores": 3367,
      "Ġvotos": 3368,
      "ĠCunha": 3369,
      "Ġcampo": 3370,
      "ĠPROPOS": 3371,
      "Ġjuris": 3372,
      "Ġinterpre": 3373,
      "Ġanal": 3374,
      "ĠTambÃ©m": 3375,
      "Ġnormas": 3376,
      "ĠÃ¢mbito": 3377,
      "Ġx": 3378,
      "ites": 3379,
      "ĠOn": 3380,
      "Ġcerteza": 3381,
      "Ġfec": 3382,
      "Ġconhecimento": 3383,
      "Ġserem": 3384,
      "ĠMarco": 3385,
      "ĠmÃŃnimo": 3386,
      "ĠprÃ¡tica": 3387,
      "Ġtrabalhos": 3388,
      "ĠnÃŃvel": 3389,
      "ĠÃļL": 3390,
      "ÃŃsticas": 3391,
      "ĠalguÃ©m": 3392,
      "iografia": 3393,
      "Ġbanda": 3394,
      "visÃ£o": 3395,
      "ĠaplicaÃ§Ã£o": 3396,
      "ĠBrasileiro": 3397,
      "iormente": 3398,
      "eas": 3399,
      "Ġentra": 3400,
      "NA": 3401,
      "Ġfeita": 3402,
      "Ġtransform": 3403,
      "ĠmÃ©dia": 3404,
      "ĠProf": 3405,
      "itada": 3406,
      "Ġconclu": 3407,
      "ĠDil": 3408,
      "Ġcient": 3409,
      "ĠRÃ¡": 3410,
      "Ġartigos": 3411,
      "ong": 3412,
      "ront": 3413,
      "ĠDan": 3414,
      "Ġprincipais": 3415,
      "oso": 3416,
      "ibl": 3417,
      "ĠAP": 3418,
      "Ġvigor": 3419,
      "Ġ40": 3420,
      "Ġlinha": 3421,
      "Ġ1998": 3422,
      "igura": 3423,
      "ĠÃļLTIMA": 3424,
      "ĠPortanto": 3425,
      "Ġhon": 3426,
      "sia": 3427,
      "ĠMart": 3428,
      "lev": 3429,
      "ĠDias": 3430,
      "Ġit": 3431,
      "2014": 3432,
      "ĠAgra": 3433,
      "ĠDepois": 3434,
      "ĠLÃŃder": 3435,
      "ÃĩÃķES": 3436,
      "Ġdevem": 3437,
      "for": 3438,
      "Ġ................................................................": 3439,
      "50": 3440,
      "ĠAv": 3441,
      "Ġmont": 3442,
      "Ġdific": 3443,
      "ades": 3444,
      "ĠCorte": 3445,
      "eca": 3446,
      "ĠQuero": 3447,
      "ĠinformaÃ§Ã£o": 3448,
      "Ġtor": 3449,
      "Ġreforma": 3450,
      "ĠRoc": 3451,
      "Ġjudic": 3452,
      "ĠInc": 3453,
      "ĠpolÃŃticas": 3454,
      "Ġgas": 3455,
      "erdade": 3456,
      "23": 3457,
      "ris": 3458,
      "ÃŃzo": 3459,
      "Ã©rios": 3460,
      "ĠSTF": 3461,
      "Ġaju": 3462,
      "Ġisto": 3463,
      "inta": 3464,
      "ect": 3465,
      "una": 3466,
      "Ġesqu": 3467,
      "ĠcrÃ©dito": 3468,
      "ĠapreciaÃ§Ã£o": 3469,
      "ĠdeverÃ¡": 3470,
      "Ġdivers": 3471,
      "Ġidade": 3472,
      "ĠQuem": 3473,
      "ĠMont": 3474,
      "amp": 3475,
      "ĠHer": 3476,
      "ĠPTB": 3477,
      "ĠTer": 3478,
      "ĠGuerra": 3479,
      "Ġaum": 3480,
      "Apens": 3481,
      "Ġnossos": 3482,
      "Ġdiferentes": 3483,
      "Ġdese": 3484,
      "ĠAra": 3485,
      "ĠExcelÃªncia": 3486,
      "ĠPos": 3487,
      "ĠSantos": 3488,
      "acionais": 3489,
      "Ġnovos": 3490,
      "ĠFaz": 3491,
      "Ġaprovado": 3492,
      "Ġseis": 3493,
      "ĠCab": 3494,
      "ĠatenÃ§Ã£o": 3495,
      "Ġsust": 3496,
      "ĠcomunicaÃ§Ã£o": 3497,
      "roc": 3498,
      "irar": 3499,
      "Ġresultado": 3500,
      "ĠRECURSO": 3501,
      "Ġindepend": 3502,
      "ĠespecÃŃf": 3503,
      "Ġnatureza": 3504,
      "ĠComp": 3505,
      "HA": 3506,
      "ÃŃstica": 3507,
      "DAS": 3508,
      "vog": 3509,
      "plic": 3510,
      "Ã©re": 3511,
      "ĠnecessÃ¡rio": 3512,
      "ilha": 3513,
      "Ġteria": 3514,
      "ĠmÃ©rito": 3515,
      "ĠOh": 3516,
      "ograf": 3517,
      "ĠRicardo": 3518,
      "gens": 3519,
      "ĠÃ³rgÃ£os": 3520,
      "ĠIg": 3521,
      "88": 3522,
      "Ġdesses": 3523,
      "ĠEspecial": 3524,
      "ĠcompetÃªncia": 3525,
      "ĠCast": 3526,
      "Ġsede": 3527,
      "ĠRen": 3528,
      "be": 3529,
      "ĠAmÃ©rica": 3530,
      "ĠBen": 3531,
      "Ġchegou": 3532,
      "ĠFE": 3533,
      "ĠAlves": 3534,
      "Ġplane": 3535,
      "Ġautoria": 3536,
      "pt": 3537,
      "Ġformula": 3538,
      "Ġrenda": 3539,
      "ĠHenrique": 3540,
      "Ġfl": 3541,
      "ĠLEG": 3542,
      "ĠAGRAVO": 3543,
      "Ġcaput": 3544,
      "ULO": 3545,
      "ude": 3546,
      "Ġpossa": 3547,
      "ĠÃ³rgÃ£o": 3548,
      "Ġempreg": 3549,
      "ĠformaÃ§Ã£o": 3550,
      "Ġrevel": 3551,
      "Ġpolic": 3552,
      "ph": 3553,
      "one": 3554,
      "judic": 3555,
      "Ġ#": 3556,
      "Ġexiste": 3557,
      "Ġreduz": 3558,
      "Ġocorr": 3559,
      "ĠFor": 3560,
      "Ġlut": 3561,
      "Ġrecebeu": 3562,
      "Ġsul": 3563,
      "Ġestrutura": 3564,
      "ĠOrdem": 3565,
      "Ġclaro": 3566,
      "ĠPereira": 3567,
      "ĠforÃ§a": 3568,
      "ĠSecretaria": 3569,
      "IÃĩÃĥO": 3570,
      "exo": 3571,
      "Ġchamado": 3572,
      "ĠCel": 3573,
      "idamente": 3574,
      "Ġpossui": 3575,
      "ĠPSD": 3576,
      "antas": 3577,
      "FL": 3578,
      "Ġterra": 3579,
      "Ġenfrent": 3580,
      "Ġcontrato": 3581,
      "Ġprovimento": 3582,
      "Ġrenov": 3583,
      "Ġigual": 3584,
      "ĠÃŃn": 3585,
      "ÃŃnio": 3586,
      "ĠveÃŃc": 3587,
      "65": 3588,
      "ĠCONSTITU": 3589,
      "ĠSO": 3590,
      "Ġcarreira": 3591,
      "III": 3592,
      "Ġelim": 3593,
      "Geral": 3594,
      "Ġdecorre": 3595,
      "ficiÃªncia": 3596,
      "ĠMais": 3597,
      "ĠespaÃ§o": 3598,
      "Ġretorn": 3599,
      "ĠCopa": 3600,
      "ĠCidadania": 3601,
      "Ġturno": 3602,
      "Ġmenor": 3603,
      "ĠCampeonato": 3604,
      "quÃªncia": 3605,
      "Ġinternacional": 3606,
      "ĠVe": 3607,
      "Ġhomen": 3608,
      "ham": 3609,
      "Ġcidades": 3610,
      "ulada": 3611,
      "Ġhav": 3612,
      "ĠeletrÃ´n": 3613,
      "Ġdiscurso": 3614,
      "olha": 3615,
      "Ġganh": 3616,
      "Ġacima": 3617,
      "ĠDES": 3618,
      "rita": 3619,
      "Ġusu": 3620,
      "Ġtemporada": 3621,
      "Ġresponsabilidade": 3622,
      "Ġtrabalhadores": 3623,
      "erna": 3624,
      "ĠporÃ©m": 3625,
      "Ġvel": 3626,
      "Ġconced": 3627,
      "Ġrece": 3628,
      "ĠhistÃ³r": 3629,
      "estre": 3630,
      "Ġdeles": 3631,
      "Ġmento": 3632,
      "Ġrede": 3633,
      "95": 3634,
      "par": 3635,
      "su": 3636,
      "Ġfutebol": 3637,
      "ĠDEC": 3638,
      "Ã¡tico": 3639,
      "ega": 3640,
      "ĠDec": 3641,
      "oro": 3642,
      "Ġjunt": 3643,
      "las": 3644,
      "ografia": 3645,
      "Ġtri": 3646,
      "Ġmeus": 3647,
      "ĠDilma": 3648,
      "ĠPesso": 3649,
      "anta": 3650,
      "Ġsepara": 3651,
      "Ġelev": 3652,
      "emin": 3653,
      "33": 3654,
      "Ġrealmente": 3655,
      "Ġcrise": 3656,
      "ĠinstituiÃ§Ãµes": 3657,
      "ĠBe": 3658,
      "ĠVou": 3659,
      "Ġvit": 3660,
      "Ġpot": 3661,
      "uldade": 3662,
      "oraÃ§Ã£o": 3663,
      "Ġpauta": 3664,
      "ĠRJ": 3665,
      "ĠMINIST": 3666,
      "Ġ37": 3667,
      "ames": 3668,
      "ĠSanto": 3669,
      "cion": 3670,
      "Ġoportunidade": 3671,
      "Ġmanifest": 3672,
      "AB": 3673,
      "Ġassunto": 3674,
      "ĠDu": 3675,
      "97": 3676,
      "Do": 3677,
      "Ġcul": 3678,
      "Ġacresc": 3679,
      "Ġplano": 3680,
      "Ġtransporte": 3681,
      "ĠBom": 3682,
      "ROS": 3683,
      "bra": 3684,
      "ficiente": 3685,
      "ossa": 3686,
      "Ġdebate": 3687,
      "Ã©rcio": 3688,
      "Ġpossu": 3689,
      "Ġlit": 3690,
      "ĠDom": 3691,
      "ĠdÃº": 3692,
      "Ġnessa": 3693,
      "discussÃ£o": 3694,
      "ĠRequerimento": 3695,
      "ÃĩA": 3696,
      "edor": 3697,
      "Ġcriar": 3698,
      "Ġatra": 3699,
      "Ġnaqu": 3700,
      "putado": 3701,
      "Ġarm": 3702,
      "ĠProvis": 3703,
      "47": 3704,
      "Ġmaiores": 3705,
      "ti": 3706,
      "ĠDECURSO": 3707,
      "ĠXX": 3708,
      "Ã©g": 3709,
      "ĠSenadora": 3710,
      "Ġcompre": 3711,
      "ĠSob": 3712,
      "Ġrequis": 3713,
      "ĠVi": 3714,
      "2005": 3715,
      "aga": 3716,
      "Ġnovas": 3717,
      "ww": 3718,
      "ĠMarcelo": 3719,
      "Ġiniciativa": 3720,
      "ategoria": 3721,
      "ĠÃºnica": 3722,
      "Ġdesenvolv": 3723,
      "ĠSeu": 3724,
      "Ġpesquis": 3725,
      "ĠHistÃ³ria": 3726,
      "ĠPode": 3727,
      "Ġelas": 3728,
      "ĠPolÃŃcia": 3729,
      "ĠBanco": 3730,
      "Ġassin": 3731,
      "ĠÃĵ": 3732,
      "Ġconden": 3733,
      "Ġrio": 3734,
      "46": 3735,
      "Ġmandato": 3736,
      "iÃªncias": 3737,
      "Ġtest": 3738,
      "Ġ1997": 3739,
      "elmente": 3740,
      "ĠSh": 3741,
      "encion": 3742,
      "Ġpropor": 3743,
      "Ġprofessor": 3744,
      "Ġdesen": 3745,
      "ĠMend": 3746,
      "Ġdeveria": 3747,
      "ĠGerais": 3748,
      "ricultura": 3749,
      "Ã©rc": 3750,
      "Ġtribut": 3751,
      "Ġencer": 3752,
      "stru": 3753,
      "Ġmediante": 3754,
      "esas": 3755,
      "Ġpossibilidade": 3756,
      "ĠVI": 3757,
      "Ġassegu": 3758,
      "ĠPas": 3759,
      "eses": 3760,
      "90": 3761,
      "ĠPorto": 3762,
      "olo": 3763,
      "Ã³tes": 3764,
      "VI": 3765,
      "Ġdiversos": 3766,
      "ĠCE": 3767,
      "Ãºstria": 3768,
      "TIVO": 3769,
      "pren": 3770,
      "Ġcomercial": 3771,
      "ĠGra": 3772,
      "itou": 3773,
      "urg": 3774,
      "ĠInf": 3775,
      "ĠBahia": 3776,
      "dispÃµe": 3777,
      "ĠDurante": 3778,
      "Ġimped": 3779,
      "ĠresponsÃ¡vel": 3780,
      "SE": 3781,
      "Ġrelev": 3782,
      "ĠĠ": 3783,
      "ĠRÃ¡dio": 3784,
      "ello": 3785,
      "Ġcivil": 3786,
      "ĠBA": 3787,
      "Ġmag": 3788,
      "Ġsucesso": 3789,
      "ĠJorge": 3790,
      "Ġguerra": 3791,
      "ĠmÃ¡x": 3792,
      "emia": 3793,
      "Ġhomens": 3794,
      "ĠviolÃªncia": 3795,
      "ĠVic": 3796,
      "Ġexame": 3797,
      "Ġatendimento": 3798,
      "Ġprovis": 3799,
      "Ġ................": 3800,
      "Ġincluindo": 3801,
      "Ġcorrespon": 3802,
      "ĠSistema": 3803,
      "Ġchegar": 3804,
      "ĠOR": 3805,
      "ĠbÃ¡s": 3806,
      "Ġservidores": 3807,
      "ĠLima": 3808,
      "ĠInd": 3809,
      "ĠMundial": 3810,
      "Ġefeitos": 3811,
      "Ġagrav": 3812,
      "Ġregular": 3813,
      "men": 3814,
      "ĠAdministraÃ§Ã£o": 3815,
      "Ġnenhuma": 3816,
      "ĠproteÃ§Ã£o": 3817,
      "Ġbo": 3818,
      "ile": 3819,
      "ĠMedida": 3820,
      "Ġmanter": 3821,
      "Ġrelig": 3822,
      "Ġtram": 3823,
      "ĠÃºltimos": 3824,
      "ĠJe": 3825,
      "Ġconse": 3826,
      "Ġexecutar": 3827,
      "Ġmodelo": 3828,
      "ingu": 3829,
      "Ġacus": 3830,
      "Ġlista": 3831,
      "\",\"": 3832,
      "Ġdiversas": 3833,
      "ĠPAULO": 3834,
      "2019": 3835,
      "eios": 3836,
      "Ġfase": 3837,
      "leta": 3838,
      "tal": 3839,
      "Ġmaterial": 3840,
      "ICO": 3841,
      "ĠpÃ¡gina": 3842,
      "ÃŃamos": 3843,
      "Ġprofissionais": 3844,
      "ĠInternacional": 3845,
      "ĠEra": 3846,
      "ĠAmb": 3847,
      "ĠâĢĺ": 3848,
      "Ġbr": 3849,
      "ĠMendes": 3850,
      "PA": 3851,
      "EIRO": 3852,
      "In": 3853,
      "ĠJohn": 3854,
      "Ġaposent": 3855,
      "Ġanter": 3856,
      "Ãªmio": 3857,
      "Ġcomum": 3858,
      "Ġinflu": 3859,
      "ĠSo": 3860,
      "Ġpertenc": 3861,
      "Ġgostaria": 3862,
      "Ġelem": 3863,
      "Ã©lio": 3864,
      "rel": 3865,
      "ĠProvisÃ³ria": 3866,
      "Ġopin": 3867,
      "deu": 3868,
      "ner": 3869,
      "onas": 3870,
      "ĠMINISTRO": 3871,
      "ĠVol": 3872,
      "DES": 3873,
      "Ġquis": 3874,
      "Ġconstitucionalidade": 3875,
      "Ġcapacidade": 3876,
      "ÃŃcias": 3877,
      "ĠHar": 3878,
      "Ġmora": 3879,
      "eter": 3880,
      "Ġfins": 3881,
      "ĠPra": 3882,
      "Ġaqueles": 3883,
      "ĠTudo": 3884,
      "ĠFEDE": 3885,
      "ĠterritÃ³rio": 3886,
      "Ġaus": 3887,
      "Ġrap": 3888,
      "lorest": 3889,
      "SS": 3890,
      "sÃµes": 3891,
      "artamento": 3892,
      "Ġalun": 3893,
      "ĠNesse": 3894,
      "Ġ1999": 3895,
      "Ġfilhos": 3896,
      "Ġpopular": 3897,
      "ĠreduÃ§Ã£o": 3898,
      "Ġefeito": 3899,
      "ĠFund": 3900,
      "ĠprincÃŃpio": 3901,
      "istos": 3902,
      "ĠGar": 3903,
      "ĠAinda": 3904,
      "ulado": 3905,
      "Ġ60": 3906,
      "Ã©u": 3907,
      "rupÃ§Ã£o": 3908,
      "Ġbenefic": 3909,
      "ĠSRA": 3910,
      "Ġvotar": 3911,
      "Ġ45": 3912,
      "ĠPs": 3913,
      "96": 3914,
      "idado": 3915,
      "Ġestudo": 3916,
      "itude": 3917,
      "40": 3918,
      "ley": 3919,
      "ISLA": 3920,
      "ĠQual": 3921,
      "ĠBrasileira": 3922,
      "2017": 3923,
      "irÃ¡": 3924,
      "ĠSessÃµes": 3925,
      "Ġprogramas": 3926,
      "Ġnatural": 3927,
      "pac": 3928,
      "85": 3929,
      "Ġentidades": 3930,
      "ĠPaul": 3931,
      "ya": 3932,
      "Ġimportantes": 3933,
      "ĠAng": 3934,
      "ĠgestÃ£o": 3935,
      "fo": 3936,
      "enos": 3937,
      "ĠtÃ©cn": 3938,
      "CU": 3939,
      "Ġautom": 3940,
      "ĠADV": 3941,
      "Ġliberdade": 3942,
      "Ġmus": 3943,
      "ĠPm": 3944,
      "Ġcolet": 3945,
      "Ġtitular": 3946,
      "isÃµes": 3947,
      "ares": 3948,
      "Ġsist": 3949,
      "ĠHum": 3950,
      "Ġposter": 3951,
      "ĠComissÃµes": 3952,
      "opera": 3953,
      "ĠLEGISLA": 3954,
      "VIS": 3955,
      "idicidade": 3956,
      "Ġaquele": 3957,
      "ĠAcho": 3958,
      "Ġamigo": 3959,
      "Ġverdad": 3960,
      "isÃ³d": 3961,
      "ĠSAN": 3962,
      "Ġlivre": 3963,
      "ese": 3964,
      "ĠDis": 3965,
      "ĠFundo": 3966,
      "Ġconte": 3967,
      "ĠHe": 3968,
      "ĠAlg": 3969,
      "ĠdÃ©cada": 3970,
      "ĠversÃ£o": 3971,
      "ĠsubstituiÃ§Ã£o": 3972,
      "Ġmovimento": 3973,
      "ĠBra": 3974,
      "Ġurb": 3975,
      "SA": 3976,
      "iliar": 3977,
      "ĠDEPU": 3978,
      "Ġmilitar": 3979,
      "Ġcrescimento": 3980,
      "ĠWikip": 3981,
      "ĠJul": 3982,
      "Ġtribun": 3983,
      "lusÃ£o": 3984,
      "Ġatos": 3985,
      "ORDIN": 3986,
      "ĠPEC": 3987,
      "Ġeng": 3988,
      "urais": 3989,
      "ks": 3990,
      "ater": 3991,
      "vam": 3992,
      "ĠprÃ³ximo": 3993,
      "ĠLo": 3994,
      "ĠTUR": 3995,
      "eiÃ§Ãµes": 3996,
      "!!": 3997,
      "ĠCampos": 3998,
      "ĠhipÃ³tes": 3999,
      "ARDO": 4000,
      "Ġsubstitu": 4001,
      "ĠEXTRAORDIN": 4002,
      "Ġ33": 4003,
      "cont": 4004,
      "Ã©dio": 4005,
      "Ġtais": 4006,
      "Ġ01": 4007,
      "ĠPmdbP": 4008,
      "Ġestavam": 4009,
      "Ġforte": 4010,
      "Ġunivers": 4011,
      "ĠLt": 4012,
      "ĠSc": 4013,
      "ĠcontrÃ¡rio": 4014,
      "Ġfundamental": 4015,
      "Ġevento": 4016,
      "rÃ¡fico": 4017,
      "Ġcampanha": 4018,
      "Ġpresentes": 4019,
      "Com": 4020,
      "Ġmuita": 4021,
      "ari": 4022,
      "ĠEN": 4023,
      "Ã©tica": 4024,
      "idenc": 4025,
      "ICAÃĩÃĥO": 4026,
      "Ã©rcito": 4027,
      "ĠAC": 4028,
      "ĠeconÃ´mica": 4029,
      "Ġadm": 4030,
      "nior": 4031,
      "Ġrecup": 4032,
      "Ġ36": 4033,
      "Ġdela": 4034,
      "ĠorÃ§ament": 4035,
      "Ġassist": 4036,
      "nÃ£o": 4037,
      "ĠdifÃŃc": 4038,
      "ideranÃ§a": 4039,
      "rias": 4040,
      "ĠSÃ©r": 4041,
      "ys": 4042,
      "ĠninguÃ©m": 4043,
      "Ġapont": 4044,
      "Ã©rias": 4045,
      "ĠTodos": 4046,
      "dustria": 4047,
      "ung": 4048,
      "Ġrisco": 4049,
      "Ġapren": 4050,
      "Ġtratamento": 4051,
      "ĠGab": 4052,
      "ĠterÃ¡": 4053,
      "RADO": 4054,
      "ĠMal": 4055,
      "irma": 4056,
      "Ġcaminho": 4057,
      "Ġaproxim": 4058,
      "Ġabsol": 4059,
      "Ġapresentar": 4060,
      "Ġfala": 4061,
      "Ġ38": 4062,
      "ĠadministraÃ§Ã£o": 4063,
      "ĠnÂºs": 4064,
      "HOR": 4065,
      "Ġmencion": 4066,
      "izados": 4067,
      "voluÃ§Ã£o": 4068,
      "Ġespecialmente": 4069,
      "arm": 4070,
      "Ġintegra": 4071,
      "Ġcentro": 4072,
      "Ġmult": 4073,
      "Ġsonora": 4074,
      "IX": 4075,
      "ĠorganizaÃ§Ã£o": 4076,
      "Ġ&": 4077,
      "ĠlÃŃn": 4078,
      "ĠMeu": 4079,
      "ĠlanÃ§ado": 4080,
      "ĠinstituiÃ§Ã£o": 4081,
      "Ġcurso": 4082,
      "Ġpassar": 4083,
      "ĠSam": 4084,
      "racia": 4085,
      "Ġpri": 4086,
      "ĠIl": 4087,
      "ĠSrÂª": 4088,
      "ogos": 4089,
      "Ġcontar": 4090,
      "wn": 4091,
      "Ġprova": 4092,
      "Ġemendas": 4093,
      "2006": 4094,
      "pus": 4095,
      "ĠCrist": 4096,
      "endeu": 4097,
      "ĠVossa": 4098,
      "Ġbol": 4099,
      "Ġreceber": 4100,
      "Ġajuda": 4101,
      "age": 4102,
      "Ġsignifica": 4103,
      "ĠBr": 4104,
      "Ġsenho": 4105,
      "ĠFEDERAL": 4106,
      "Ġinteress": 4107,
      "ĠTemer": 4108,
      "ĠLtda": 4109,
      "ĠFranÃ§a": 4110,
      "ĠEmb": 4111,
      "ĠLÃº": 4112,
      "fl": 4113,
      "uraÃ§Ã£o": 4114,
      "ĠJÃºnior": 4115,
      "ĠAta": 4116,
      "Ġbeb": 4117,
      "dades": 4118,
      "gon": 4119,
      "Ġamor": 4120,
      "Ġobt": 4121,
      "Ġlat": 4122,
      "Ġevent": 4123,
      "ĠproposiÃ§Ã£o": 4124,
      "abilidade": 4125,
      "itares": 4126,
      "quia": 4127,
      "ĠTURMA": 4128,
      "utenÃ§Ã£o": 4129,
      "Ġpronunciamento": 4130,
      "Ġtoc": 4131,
      "ĠparÃ¡grafo": 4132,
      "Ġsusp": 4133,
      "ichel": 4134,
      "Ġoferec": 4135,
      "ĠDOS": 4136,
      "ĠautorizaÃ§Ã£o": 4137,
      "Ġmic": 4138,
      "nos": 4139,
      "ĠacÃ³rdÃ£o": 4140,
      "Ġderro": 4141,
      "ĠRibeiro": 4142,
      "hes": 4143,
      "Ġurg": 4144,
      "Ã©ia": 4145,
      "rato": 4146,
      "ĠSuperior": 4147,
      "ĠVoto": 4148,
      "Ġlicit": 4149,
      "Ġcomprov": 4150,
      "75": 4151,
      "ĠHoje": 4152,
      "cas": 4153,
      "Ġajudar": 4154,
      "Ġdig": 4155,
      "ĠAlexand": 4156,
      "Ġusar": 4157,
      "Ġambiente": 4158,
      "Ġbal": 4159,
      "ĠCentro": 4160,
      "ĠFac": 4161,
      "unt": 4162,
      "ÃŃdos": 4163,
      "Ġdocum": 4164,
      "ĠSte": 4165,
      "ĠconteÃº": 4166,
      "Ã¢nia": 4167,
      "Ġdessas": 4168,
      "Ġhosp": 4169,
      "Ġsuje": 4170,
      "Ġdomin": 4171,
      "ĠSENHOR": 4172,
      "rer": 4173,
      "ĠParan": 4174,
      "ume": 4175,
      "ĠprisÃ£o": 4176,
      "ĠmÃ£o": 4177,
      "ĠdÃŃ": 4178,
      "Ġbastante": 4179,
      "Ġnovamente": 4180,
      "itivo": 4181,
      "ĠTenho": 4182,
      "ritos": 4183,
      "Ġexplic": 4184,
      "Ġalem": 4185,
      "ĠEstad": 4186,
      "Ġpais": 4187,
      "Ġ55": 4188,
      "'s": 4189,
      "Ġlo": 4190,
      "ĠTo": 4191,
      "Ġdestaque": 4192,
      "ĠParlamentar": 4193,
      "ĠSecretÃ¡rio": 4194,
      "Ġdiante": 4195,
      "plet": 4196,
      "Ġ32": 4197,
      "Ġaspec": 4198,
      "ĠatuaÃ§Ã£o": 4199,
      "Ġcomunidade": 4200,
      "Ġnegoc": 4201,
      "Ġsair": 4202,
      "Ġsat": 4203,
      "ÃĵR": 4204,
      "Ġcost": 4205,
      "omes": 4206,
      "Ġdestin": 4207,
      "Ġdesemp": 4208,
      "ĠalcanÃ§": 4209,
      "fa": 4210,
      "ĠFam": 4211,
      "Ã¡ss": 4212,
      "ĠelÃ©t": 4213,
      "Ġescla": 4214,
      "ation": 4215,
      "Ġapresenta": 4216,
      "Ġsi": 4217,
      "Ġideia": 4218,
      "ĠjurÃŃdica": 4219,
      "ĠIgreja": 4220,
      "Ġbusca": 4221,
      "taÃ§Ã£o": 4222,
      "Ġoriginal": 4223,
      "otas": 4224,
      "Ġjovens": 4225,
      "arina": 4226,
      "Ġparlam": 4227,
      "just": 4228,
      "ĠSegunda": 4229,
      "ertos": 4230,
      "ĠDireito": 4231,
      "Ġ1996": 4232,
      "au": 4233,
      "iando": 4234,
      "Ġsup": 4235,
      "ĠâĢĵ,": 4236,
      "ĠDav": 4237,
      "Ġdiminu": 4238,
      "ÃŃlias": 4239,
      "land": 4240,
      "Ġdenom": 4241,
      "Ġ................................................................................................": 4242,
      "Ġcart": 4243,
      "ĠInformÃ¡tica": 4244,
      "ĠAtÃ©": 4245,
      "TR": 4246,
      "rud": 4247,
      "ĠexistÃªncia": 4248,
      "Ġcat": 4249,
      "ĠEXTRAORDINÃģRIO": 4250,
      "ece": 4251,
      "Ġprofesso": 4252,
      "ĠPOR": 4253,
      "Ġfundo": 4254,
      "Ġmostra": 4255,
      "Ġrequer": 4256,
      "prensa": 4257,
      "Ġgarantir": 4258,
      "Ġresposta": 4259,
      "itÃ£o": 4260,
      "Ġfuturo": 4261,
      "Ġora": 4262,
      "Ġcumprimento": 4263,
      "Ġconvoc": 4264,
      "Presidente": 4265,
      "Ġpreju": 4266,
      "ĠcondiÃ§Ã£o": 4267,
      "ĠquestÃµes": 4268,
      "âĢĳ": 4269,
      "Ġafirmou": 4270,
      "TOS": 4271,
      "Ġconstante": 4272,
      "vil": 4273,
      "ĠdireÃ§Ã£o": 4274,
      "ĠFal": 4275,
      "iental": 4276,
      "Ġcuja": 4277,
      "Ã¡ticas": 4278,
      "ĠBel": 4279,
      "Ġfatos": 4280,
      "dec": 4281,
      "Ġfinanceira": 4282,
      "hs": 4283,
      "ĠBu": 4284,
      "ĠWill": 4285,
      "Ġclube": 4286,
      "ĠExt": 4287,
      "68": 4288,
      "eta": 4289,
      "Ġrealidade": 4290,
      "Ġjuridicidade": 4291,
      "itiva": 4292,
      "ates": 4293,
      "umb": 4294,
      "ĠREG": 4295,
      "ĠPER": 4296,
      "ĠApo": 4297,
      "Ġmente": 4298,
      "ĠepisÃ³d": 4299,
      "ntem": 4300,
      "tbP": 4301,
      "--": 4302,
      "Ġregras": 4303,
      "etros": 4304,
      "Ġfiscal": 4305,
      "ĠpreÃ§o": 4306,
      "ĠTom": 4307,
      "Ã¢ns": 4308,
      "erva": 4309,
      "Ġdestru": 4310,
      "sem": 4311,
      "Ġpenal": 4312,
      "lesc": 4313,
      "LOS": 4314,
      "erar": 4315,
      "ĠPrev": 4316,
      "ĠTÃ©c": 4317,
      "Ġalta": 4318,
      "ĠGon": 4319,
      "Ġaux": 4320,
      "Ġprimeiros": 4321,
      "ĠGros": 4322,
      "guas": 4323,
      "ĠTO": 4324,
      "ĠmissÃ£o": 4325,
      "iot": 4326,
      "Ġsubs": 4327,
      "Ġgrupos": 4328,
      "Ġpequeno": 4329,
      "rb": 4330,
      "ÃŃqu": 4331,
      "Ġjogos": 4332,
      "ÃļBL": 4333,
      "Ġindivid": 4334,
      "ĠEuropa": 4335,
      "Ġdelib": 4336,
      "ilh": 4337,
      "Ġnobre": 4338,
      "MS": 4339,
      "32": 4340,
      "Ġdeixou": 4341,
      "ordeste": 4342,
      "ĠCONTRA": 4343,
      "ĠcomunitÃ¡ria": 4344,
      "Ġtam": 4345,
      "ĠportuguÃªs": 4346,
      "ĠAntÃ´nio": 4347,
      "ĠBarb": 4348,
      "TAL": 4349,
      "ĠUS": 4350,
      "Ġsai": 4351,
      "Ġarts": 4352,
      "DU": 4353,
      "ĠMes": 4354,
      "Ã¢nsito": 4355,
      "Ġdesenvol": 4356,
      "Ġge": 4357,
      "Ġvoltar": 4358,
      "Ġdesignado": 4359,
      "Ġimpres": 4360,
      "Ps": 4361,
      "ĠJUS": 4362,
      "ĠvÃŃt": 4363,
      "ĠAM": 4364,
      "portes": 4365,
      "ĠDEPUTADO": 4366,
      "Ġelabora": 4367,
      "ÃīR": 4368,
      "Ã¢ncias": 4369,
      "ĠdeclaraÃ§Ã£o": 4370,
      "Ġrela": 4371,
      "ĠFut": 4372,
      "ĠEstat": 4373,
      "ÃŃtulos": 4374,
      "ĠTerra": 4375,
      "ĠParanÃ¡": 4376,
      "uel": 4377,
      "Ġestes": 4378,
      "olh": 4379,
      "Al": 4380,
      "ĠEconÃ´m": 4381,
      "Ġcargos": 4382,
      "Ġressal": 4383,
      "ĠRS": 4384,
      "Ġtermo": 4385,
      "Ġaconteceu": 4386,
      "ĠAugu": 4387,
      "Ġtenham": 4388,
      "ĠTemos": 4389,
      "Ġnota": 4390,
      "ÃŃrito": 4391,
      "Ã¡st": 4392,
      "eias": 4393,
      "Ġlevar": 4394,
      "imidade": 4395,
      "Ġsignific": 4396,
      "Ġatend": 4397,
      "estrutura": 4398,
      "ĠComplementar": 4399,
      "Ġtrabalhar": 4400,
      "ĠMinistros": 4401,
      "Ġchamada": 4402,
      "SON": 4403,
      "ĠGovernador": 4404,
      "lia": 4405,
      "rova": 4406,
      "Ġgal": 4407,
      "TES": 4408,
      "ĠprestaÃ§Ã£o": 4409,
      "Ġtratar": 4410,
      "atamente": 4411,
      "Ġfront": 4412,
      "ĠCN": 4413,
      "Ġdepend": 4414,
      "Ġparec": 4415,
      "arda": 4416,
      "ĠFel": 4417,
      "Ġconsiderado": 4418,
      "Ġretira": 4419,
      "ĠJOS": 4420,
      "aco": 4421,
      "Ã¡ter": 4422,
      "Ġlocais": 4423,
      "ativos": 4424,
      "Ãºncia": 4425,
      "77": 4426,
      "Ġperd": 4427,
      "Ġcujo": 4428,
      "ĠPenal": 4429,
      "ilson": 4430,
      "TIN": 4431,
      "Ġ48": 4432,
      "ĠcientÃŃf": 4433,
      "ÃĤ": 4434,
      "44": 4435,
      "2003": 4436,
      "Ġamigos": 4437,
      "ÃŃr": 4438,
      "Ġacerca": 4439,
      "TAR": 4440,
      "ĠAnexo": 4441,
      "Ġescrit": 4442,
      "Ġcento": 4443,
      "Ġsho": 4444,
      "van": 4445,
      "ven": 4446,
      "ĠapresentaÃ§Ã£o": 4447,
      "Ġluz": 4448,
      "ĠtelevisÃ£o": 4449,
      "ĠPortaria": 4450,
      "ĠCerto": 4451,
      "ĠfamÃŃlias": 4452,
      "Ġprepara": 4453,
      "GL": 4454,
      "Ġesfor": 4455,
      "ĠSÃ©rgio": 4456,
      "ĠAPR": 4457,
      "edentes": 4458,
      "ÃģRIA": 4459,
      "ĠLib": 4460,
      "Ġproteg": 4461,
      "ĠrazÃµes": 4462,
      "iÃ¡s": 4463,
      "31": 4464,
      "ĠSenhores": 4465,
      "Ġconformidade": 4466,
      "opes": 4467,
      "Ġimplant": 4468,
      "Ġpartes": 4469,
      "ificada": 4470,
      "ĠJUSTI": 4471,
      "ratÃ©g": 4472,
      "PP": 4473,
      "Ġseguida": 4474,
      "ci": 4475,
      "ĠgÃªn": 4476,
      "ĠatrÃ¡s": 4477,
      "ĠÃį": 4478,
      "De": 4479,
      "ĠcarÃ¡ter": 4480,
      "ÃŃmp": 4481,
      "ĠaudiÃªncia": 4482,
      "ĠdifÃŃcil": 4483,
      "argos": 4484,
      "ori": 4485,
      "ĠBat": 4486,
      "ELO": 4487,
      "Ġeduc": 4488,
      "ĠServiÃ§o": 4489,
      "ĠdistribuiÃ§Ã£o": 4490,
      "ĠFigu": 4491,
      "Ġcrimes": 4492,
      "aqu": 4493,
      "Ġvolt": 4494,
      "ash": 4495,
      "stant": 4496,
      "Ġsupl": 4497,
      "ĠAlem": 4498,
      "Ġprocessos": 4499,
      "Ġacord": 4500,
      "jas": 4501,
      "ĠEr": 4502,
      "Ġbens": 4503,
      "Ġocas": 4504,
      "ĠCaval": 4505,
      "Ġcoorden": 4506,
      "atÃ³ria": 4507,
      "ericana": 4508,
      "Ġterceiro": 4509,
      "Ġmensa": 4510,
      "ÃŃssimo": 4511,
      "Ġdeixa": 4512,
      "Ġdocumentos": 4513,
      "dicional": 4514,
      "pas": 4515,
      "Ġtalvez": 4516,
      "ĠAf": 4517,
      "Ġpalavras": 4518,
      "ĠMG": 4519,
      "Ġencontrar": 4520,
      "ĠSEG": 4521,
      "Ġprevisto": 4522,
      "itÃ¡rio": 4523,
      "ĠMato": 4524,
      "fÃŃcios": 4525,
      "Ġrei": 4526,
      "sim": 4527,
      "ĠSuper": 4528,
      "ĠPROC": 4529,
      "Ġalim": 4530,
      "ego": 4531,
      "isb": 4532,
      "dios": 4533,
      "ĠGen": 4534,
      "Ġprofer": 4535,
      "Ġimpac": 4536,
      "ĠBibl": 4537,
      "ĠmanutenÃ§Ã£o": 4538,
      "Ġperceb": 4539,
      "EX": 4540,
      "ilia": 4541,
      "ue": 4542,
      "ĠGO": 4543,
      "ĠreferÃªncia": 4544,
      "Ġcategoria": 4545,
      "ĠSan": 4546,
      "esc": 4547,
      "lhe": 4548,
      "Ġentendimento": 4549,
      "ĠArg": 4550,
      "Ġincon": 4551,
      "Ġcombate": 4552,
      "ĠCentral": 4553,
      "ĠmunicÃŃpios": 4554,
      "ĠVir": 4555,
      "iÃ¡ria": 4556,
      "ĠTrata": 4557,
      "ĠConce": 4558,
      "ĠParÃ¡grafo": 4559,
      "Of": 4560,
      "Ag": 4561,
      "idÃ£o": 4562,
      "ĠcÃ³p": 4563,
      "55": 4564,
      "Ġescolas": 4565,
      "Ġrealizado": 4566,
      "Ġabertura": 4567,
      "sar": 4568,
      "Lei": 4569,
      "Ġ*": 4570,
      "vent": 4571,
      "94": 4572,
      "tico": 4573,
      "ibil": 4574,
      "ervaÃ§Ã£o": 4575,
      "omos": 4576,
      "ĠFa": 4577,
      "ĠsalÃ¡rio": 4578,
      "Ġhor": 4579,
      "Ġveio": 4580,
      "Ġautoridade": 4581,
      "Ġentidade": 4582,
      "bres": 4583,
      "eleÃ§Ã£o": 4584,
      "Ġpratic": 4585,
      "ĠRon": 4586,
      "ĠConstitu": 4587,
      "67": 4588,
      "rupo": 4589,
      "Ġmec": 4590,
      "ĠSenhora": 4591,
      "Ġdescon": 4592,
      "han": 4593,
      "seu": 4594,
      "Ġorigin": 4595,
      "ko": 4596,
      "ĠUN": 4597,
      "ĠRequer": 4598,
      "ĠEi": 4599,
      "Ġviz": 4600,
      "ĠDIA": 4601,
      "âĢ¦": 4602,
      "RJ": 4603,
      "ĠeleiÃ§Ãµes": 4604,
      "UA": 4605,
      "alo": 4606,
      "missÃ£o": 4607,
      "valho": 4608,
      "Ġfilha": 4609,
      "ĠWal": 4610,
      "Ġmelhores": 4611,
      "Ġcha": 4612,
      "ĠProcesso": 4613,
      "ĠSouza": 4614,
      "uÃŃ": 4615,
      "Ġcolocar": 4616,
      "Ġfech": 4617,
      "Ġceleb": 4618,
      "2004": 4619,
      "ĠDJe": 4620,
      "ĠLocalidades": 4621,
      "ĠCelso": 4622,
      "ĠApoio": 4623,
      "ulta": 4624,
      "Ġaprovada": 4625,
      "Ġperto": 4626,
      "Ġemprego": 4627,
      "ĠMaran": 4628,
      "REG": 4629,
      "iadas": 4630,
      "eto": 4631,
      "ĠCha": 4632,
      "entado": 4633,
      "pro": 4634,
      "Ġ1991": 4635,
      "Ġdizendo": 4636,
      "gar": 4637,
      "ĠGlob": 4638,
      "Ġconquist": 4639,
      "ĠOrÃ§": 4640,
      "ington": 4641,
      "Ġcapaz": 4642,
      "ranco": 4643,
      "lio": 4644,
      "ĠGomes": 4645,
      "ĠRICD": 4646,
      "old": 4647,
      "uco": 4648,
      "Ġvoc": 4649,
      "Ġ[": 4650,
      "Ġtribuna": 4651,
      "Ġestudos": 4652,
      "ĠoperaÃ§Ã£o": 4653,
      "Ġgarantia": 4654,
      "Ġdiretor": 4655,
      "Ġinstrumento": 4656,
      "Ġentrar": 4657,
      "ĠcanÃ§Ã£o": 4658,
      "Ġfeliz": 4659,
      "Ġrecom": 4660,
      "Ġorganiz": 4661,
      "ĠGrosso": 4662,
      "dice": 4663,
      "Ġcomplet": 4664,
      "ĠLopes": 4665,
      "Ġincent": 4666,
      "Ġpud": 4667,
      "Ġsubmet": 4668,
      "peÃ£o": 4669,
      "ĠconteÃºdo": 4670,
      "BERTO": 4671,
      "ĠMora": 4672,
      "Ġaltern": 4673,
      "ĠcrÃŃt": 4674,
      "Ġquil": 4675,
      "ĠCruz": 4676,
      "ĠAqui": 4677,
      "elson": 4678,
      "Ġalto": 4679,
      "cios": 4680,
      "Ġrepresenta": 4681,
      "ogia": 4682,
      "Ġhumanos": 4683,
      "ĠeleiÃ§Ã£o": 4684,
      "ĠPrimeiro": 4685,
      "Ġpromo": 4686,
      "Ġfazem": 4687,
      "Ġinterv": 4688,
      "Ġapesar": 4689,
      "ĠMinistra": 4690,
      "Ġmilitares": 4691,
      "hur": 4692,
      "ĠConf": 4693,
      "vista": 4694,
      "Ġsens": 4695,
      "ĠvÃŃde": 4696,
      "Ġamea": 4697,
      "Ġparticular": 4698,
      "ork": 4699,
      "ĠMunicipal": 4700,
      "onel": 4701,
      "ÃŃdu": 4702,
      "ÃŃnc": 4703,
      "ĠIr": 4704,
      "Ġescrito": 4705,
      "Ã¡lia": 4706,
      "Ġtot": 4707,
      "LO": 4708,
      "ĠutilizaÃ§Ã£o": 4709,
      "ĠregiÃµes": 4710,
      "Ġapens": 4711,
      "rÃŃc": 4712,
      "inham": 4713,
      "porto": 4714,
      "ĠRocha": 4715,
      "ĠcabeÃ§a": 4716,
      "ĠSubstitutivo": 4717,
      "Ġmundial": 4718,
      "ĠMic": 4719,
      "logo": 4720,
      "RAS": 4721,
      "Ġ1995": 4722,
      "ĠPubl": 4723,
      "Ġregulam": 4724,
      "Ġunan": 4725,
      "ĠoperaÃ§Ãµes": 4726,
      "nia": 4727,
      "ĠCe": 4728,
      "Ġapare": 4729,
      "Ã¢nt": 4730,
      "ĠfavorÃ¡vel": 4731,
      "ĠinclusÃ£o": 4732,
      "ĠPorque": 4733,
      "Ġvinc": 4734,
      "dustrial": 4735,
      "by": 4736,
      "Ġestat": 4737,
      "IÃĩÃķES": 4738,
      "ĠCorre": 4739,
      "jos": 4740,
      "ÃŃdio": 4741,
      "elos": 4742,
      "ÃŃa": 4743,
      "ĠOc": 4744,
      "Ġmem": 4745,
      "Ġconfirm": 4746,
      "ĠMerc": 4747,
      "jeiÃ§Ã£o": 4748,
      "Ãºc": 4749,
      "Ġadvog": 4750,
      "anhou": 4751,
      "Ġconseguiu": 4752,
      "ĠpeÃ§o": 4753,
      "ĠRelatÃ³rio": 4754,
      "Ġmetros": 4755,
      "Ġresultados": 4756,
      "ĠOfÃŃcio": 4757,
      "ĠausÃªncia": 4758,
      "ĠpoderÃ£o": 4759,
      "Ġ70": 4760,
      "Ġacabou": 4761,
      "Ġdedic": 4762,
      "ĠCatarina": 4763,
      "Ãªncio": 4764,
      "Ġrodo": 4765,
      "ĠParlamentares": 4766,
      "mina": 4767,
      "Ġnossas": 4768,
      "ĠJa": 4769,
      "Ġband": 4770,
      "Ġdado": 4771,
      "Ġparticipar": 4772,
      "Ġjovem": 4773,
      "ky": 4774,
      "NO": 4775,
      "Pausa": 4776,
      "Ġpare": 4777,
      "Ġconhecida": 4778,
      "Ġalunos": 4779,
      "tc": 4780,
      "ĠHa": 4781,
      "Ġfalando": 4782,
      "Ġexclusividade": 4783,
      "ides": 4784,
      "ĠIM": 4785,
      "ĠeconÃ´mico": 4786,
      "Ġâ": 4787,
      "oli": 4788,
      "Ġaquela": 4789,
      "ĠJudic": 4790,
      "ritÃ¢n": 4791,
      "Ġunidades": 4792,
      "Ġinvestimentos": 4793,
      "Ġconfl": 4794,
      "ĠJust": 4795,
      "iplom": 4796,
      "meida": 4797,
      "sion": 4798,
      "xe": 4799,
      "avelmente": 4800,
      "Ġcoleg": 4801,
      "ÃŃb": 4802,
      "ĠLista": 4803,
      "ĠFiguei": 4804,
      "Ġsete": 4805,
      "bol": 4806,
      "Ġentend": 4807,
      "ĠLUIZ": 4808,
      "rimÃ´nio": 4809,
      "Ġoito": 4810,
      "ĠSegura": 4811,
      "ĠNat": 4812,
      "IÃĥO": 4813,
      "Ġdiscutir": 4814,
      "Ġtab": 4815,
      "ĠConv": 4816,
      "ĠDi": 4817,
      "ĠArn": 4818,
      "Ġimprensa": 4819,
      "ĠEstamos": 4820,
      "ĠCONSTITUIÃĩÃĥO": 4821,
      "ĠJun": 4822,
      "ĠnegÃ³": 4823,
      "ĠpolÃŃticos": 4824,
      "ĠCARLOS": 4825,
      "fil": 4826,
      "Ġhabil": 4827,
      "Ġtornar": 4828,
      "ĠTor": 4829,
      "Ġjustific": 4830,
      "Ġaprove": 4831,
      "ĠirmÃ£o": 4832,
      "TER": 4833,
      "culo": 4834,
      "ror": 4835,
      "RETO": 4836,
      "Ġ119": 4837,
      "ioso": 4838,
      "Ġrequisitos": 4839,
      "Ġbon": 4840,
      "Ġanalis": 4841,
      "Ġoutor": 4842,
      "ĠBR": 4843,
      "ĠDESP": 4844,
      "ĠplenÃ¡rio": 4845,
      "ĠMaranhÃ£o": 4846,
      "ĠMP": 4847,
      "ĠApesar": 4848,
      "Ġsite": 4849,
      "87": 4850,
      "Ġbancada": 4851,
      "Ġpergunt": 4852,
      "ĠAlmeida": 4853,
      "Ġtecn": 4854,
      "off": 4855,
      "Ġ34": 4856,
      "ĠUnivers": 4857,
      "Ġinicial": 4858,
      "idaÃ§Ã£o": 4859,
      "ĠUSP": 4860,
      "ĠFe": 4861,
      "Ġcomigo": 4862,
      "ĠParÃ¡": 4863,
      "ĠMEN": 4864,
      "Ġrevista": 4865,
      "Ġestrang": 4866,
      "Ġexatamente": 4867,
      "Ã³st": 4868,
      "nd": 4869,
      "Ġvisto": 4870,
      "inente": 4871,
      "ĠLou": 4872,
      "ĠART": 4873,
      "Ġcomem": 4874,
      "elar": 4875,
      "ĠprincÃŃpios": 4876,
      "Ġcontas": 4877,
      "ĠRodrigues": 4878,
      "ĠPes": 4879,
      "91": 4880,
      "Ġdivid": 4881,
      "iria": 4882,
      "Ġher": 4883,
      "Ġpint": 4884,
      "ÃŃz": 4885,
      "%.": 4886,
      "Ġinterior": 4887,
      "ĠComunitÃ¡ria": 4888,
      "Ġtaxa": 4889,
      "Ġess": 4890,
      "ĠArm": 4891,
      "Ġdiferente": 4892,
      "isboa": 4893,
      "rama": 4894,
      "adoria": 4895,
      "Ġdesaf": 4896,
      "Ġacha": 4897,
      "Ġexib": 4898,
      "Ġmedic": 4899,
      "ĠJOSÃī": 4900,
      "CI": 4901,
      "Ġgaro": 4902,
      "%,": 4903,
      "ÃŃdas": 4904,
      "Ġilust": 4905,
      "Ġfab": 4906,
      "ĠpreÃ§os": 4907,
      "ĠAh": 4908,
      "Ġantec": 4909,
      "Ġemerg": 4910,
      "ĠsoluÃ§Ã£o": 4911,
      "Ġfirm": 4912,
      "Ġprior": 4913,
      "ĠJO": 4914,
      "Ġdireta": 4915,
      "Ġvaria": 4916,
      "Ġbaixo": 4917,
      "Ġps": 4918,
      "reu": 4919,
      "prud": 4920,
      "ĠRodrigo": 4921,
      "Ġcolabora": 4922,
      "ĠMon": 4923,
      "ĠFisc": 4924,
      "ĠpermissÃ£o": 4925,
      "ĠOnde": 4926,
      "ĠcontribuiÃ§Ã£o": 4927,
      "ificaÃ§Ãµes": 4928,
      "Apensado": 4929,
      "Ġ80": 4930,
      "ĠNew": 4931,
      "reveu": 4932,
      "ĠPad": 4933,
      "ĠmudanÃ§a": 4934,
      "ĠindÃŃg": 4935,
      "lamento": 4936,
      "ÃŃderes": 4937,
      "AG": 4938,
      "ĠJes": 4939,
      "Ġoutorga": 4940,
      "ĠCarvalho": 4941,
      "ĠQuer": 4942,
      "itais": 4943,
      "ianÃ§a": 4944,
      "eceu": 4945,
      "ĠHel": 4946,
      "Ġlav": 4947,
      "Ġhaja": 4948,
      "ED": 4949,
      "Ġseguir": 4950,
      "vidas": 4951,
      "ĠMi": 4952,
      "poss": 4953,
      "ĠSch": 4954,
      "ĠVale": 4955,
      "ied": 4956,
      "ĠRIO": 4957,
      "Ġautoriza": 4958,
      "ĠveÃŃculos": 4959,
      "reto": 4960,
      "Ġestadual": 4961,
      "Ġremun": 4962,
      "ng": 4963,
      "ĠMO": 4964,
      "ĠrejeiÃ§Ã£o": 4965,
      "Ġbair": 4966,
      "ĠdÃºvida": 4967,
      "ment": 4968,
      "Ġpun": 4969,
      "Ġclara": 4970,
      "NIO": 4971,
      "andro": 4972,
      "ĠTeix": 4973,
      "ĠConcedo": 4974,
      "((": 4975,
      "Ã§am": 4976,
      "Ġpropostas": 4977,
      "ĠHom": 4978,
      "Ġpublicado": 4979,
      "gas": 4980,
      "ĠAugusto": 4981,
      "Ġdiscipl": 4982,
      "ĠRECE": 4983,
      "Ġcontinuar": 4984,
      "fin": 4985,
      "Ġontem": 4986,
      "ĠeletrÃ´nico": 4987,
      "ĠvÃª": 4988,
      "ĠRegiÃ£o": 4989,
      "ĠEscola": 4990,
      "ĠprÃ³xima": 4991,
      "Ġlegais": 4992,
      "ramente": 4993,
      "Ġporta": 4994,
      "ĠNordeste": 4995,
      "hi": 4996,
      "diÃ§Ã£o": 4997,
      "ĠResol": 4998,
      "ĠcrianÃ§a": 4999
    },
    "merges": [
      "Ġ d",
      "Ġ a",
      "Ġ e",
      "Ġd e",
      "r a",
      "Ġ p",
      "o s",
      "n t",
      "r e",
      "Ġ c",
      ". .",
      "Ã £",
      "Ã£ o",
      "e r",
      "Ġ s",
      "a d",
      "o r",
      "a s",
      "q u",
      "i s",
      "Ġ n",
      "e s",
      "Ã §",
      "Ġ o",
      "i n",
      "i a",
      "Ġc o",
      "a r",
      "Ġ m",
      "e nt",
      "Ġ qu",
      "Ġ t",
      "a l",
      "i c",
      "i d",
      "r o",
      "Ġ P",
      "e n",
      "Ġ f",
      "s t",
      "Ġd o",
      "i t",
      "Ġqu e",
      "Ġ S",
      ".. ..",
      "Ã§ Ã£o",
      "Ã ¡",
      "Ã ©",
      "Ġ C",
      "a n",
      "i o",
      "Ġ A",
      "e m",
      "e l",
      "a m",
      "Ġd a",
      "i m",
      "u m",
      "d o",
      "Ġ re",
      "Ġ E",
      "Ġco m",
      "Ġ D",
      "Ġ v",
      "Ã Ń",
      "a ra",
      "Ġe m",
      "Ġ M",
      "re s",
      "ad o",
      "i l",
      "u t",
      "â Ģ",
      "Ġ um",
      "Ġ 1",
      "Ġs e",
      "a t",
      "Ġ R",
      "o n",
      "e i",
      "i v",
      "n c",
      "a Ã§Ã£o",
      "Ġn o",
      "u l",
      "Ġ O",
      "Ġ 2",
      "Ġ l",
      "Ġ (",
      "ent e",
      ".... ....",
      "Ã ª",
      "Ġp ara",
      "Ġ N",
      "u n",
      "Ġ âĢ",
      "o l",
      "is t",
      "Ã ³",
      "d e",
      "Ġ L",
      "Ġ in",
      "o m",
      "Ġ F",
      "s o",
      "e c",
      "r i",
      "Ġe st",
      "Ġ b",
      "t o",
      "Ġ B",
      "Ġp ro",
      "Ġ Ã",
      "Ġ T",
      "ent o",
      "id ad",
      "t a",
      "Ġ Ã©",
      "o c",
      "s e",
      "Ã µ",
      "h o",
      "Ġco n",
      "Ġ g",
      "Ġn a",
      "u s",
      "ĠâĢ ĵ",
      "Ġp or",
      "a is",
      "Ġ I",
      "Ãµ es",
      "i g",
      "i z",
      "o u",
      "ic a",
      "ad a",
      "Ġn Ã£o",
      "Ġ V",
      "Â º",
      "Ġa s",
      "a nt",
      "e g",
      "Ġe s",
      "0 0",
      "Ġs u",
      "ra s",
      "i r",
      "h a",
      "idad e",
      "Ġum a",
      "Ġ G",
      "d a",
      "Ġ \"",
      "it o",
      "Ġ os",
      "Ġe x",
      "e t",
      "Ġp el",
      "io n",
      "Ġ j",
      "Ġa p",
      "e ra",
      "Ġ J",
      "Ã º",
      "Ãª nc",
      "Ġd os",
      "a c",
      "ad os",
      "l e",
      "Ġf o",
      "Ġa o",
      "Ã§ Ãµes",
      "an do",
      "g u",
      "r ia",
      "r io",
      "........ ........",
      "id o",
      "e d",
      "ĠÃ ł",
      "Ġp o",
      "u r",
      "Ġs er",
      "t e",
      "0 1",
      "Ġde s",
      "or m",
      "i nt",
      "Ġa t",
      "u ra",
      "ĠD e",
      "o b",
      "Ġcom o",
      "Ġa l",
      "Ġp r",
      "s a",
      "ra n",
      "Ġco nt",
      "Ġa c",
      "ic o",
      "Ãªnc ia",
      "er n",
      "Ġ h",
      "i f",
      "Ġ1 9",
      "a b",
      "Ġa r",
      "Ġa n",
      "i p",
      "ra m",
      "b l",
      "Ġp re",
      "a v",
      "s Ã£o",
      "v e",
      "id a",
      "Ġ -",
      "ĠE st",
      "ĠD E",
      "Ġfo i",
      "Ã§ a",
      "Ġo u",
      "i as",
      "Ġ H",
      "ĠC om",
      "Ã© m",
      "im ento",
      "Ġe nt",
      "o v",
      "ei ro",
      "ia l",
      "a i",
      "Ġ 3",
      "r os",
      "p ut",
      "Ġt em",
      "g o",
      "Ġd as",
      "Ġm ais",
      "it u",
      "Ġp ar",
      "o d",
      "i Ã§Ã£o",
      "p os",
      "ion al",
      "Ġn os",
      "p o",
      "Ġt er",
      "Ġ im",
      "Ġd is",
      "nt e",
      "Ġp er",
      "es t",
      "Ġre c",
      "ei ra",
      "T O",
      "Ġ U",
      "a g",
      "res id",
      "Ġs ob",
      "E N",
      "p l",
      "Ġt ra",
      "o t",
      "Ġ2 00",
      "Ġn Âº",
      "d u",
      "ĠC on",
      "a z",
      "m o",
      "Ġ int",
      "Ġm e",
      "Ġpel a",
      "Ã ¢",
      "c o",
      "E S",
      "ĠP R",
      "Ã¡ rio",
      "ĠS en",
      "ĠDe put",
      "ras il",
      "en do",
      "R A",
      "p or",
      "am ento",
      "es so",
      "r u",
      "Ġre s",
      "Ġar t",
      "Ġpel o",
      "Ġsu a",
      "Ġo ut",
      "Ġ2 01",
      "re c",
      "ad or",
      "ra l",
      "ĠR e",
      "st itu",
      "ĠS r",
      "l a",
      "m ente",
      "qu e",
      "en d",
      "am b",
      "resid ente",
      "j e",
      "en s",
      "Ġsob re",
      "iv o",
      "ĠE m",
      "am ente",
      ".. .",
      "Ġ 4",
      "Ġ or",
      "ad as",
      "Ġ 5",
      "u d",
      "a p",
      "ÃŃ c",
      "e de",
      "Ã§ o",
      "Ġo b",
      "Ġe n",
      "o nt",
      "o g",
      "i re",
      "v el",
      "Ġre g",
      "am os",
      "in ist",
      "Ã ´",
      "Ãº bl",
      "ĠP a",
      "es s",
      "oc Ãª",
      "i b",
      "Ġp os",
      "em b",
      "âĢ Ŀ",
      "ist a",
      "Ġes p",
      "ĠâĢ ľ",
      "h e",
      "iv a",
      "ĠP ro",
      "amb Ã©m",
      "Ã ĥ",
      "ĠA l",
      "Ġest Ã¡",
      "p res",
      "Ġse u",
      "................ ................",
      "Ãĥ O",
      "p re",
      "o ra",
      "Ġm u",
      "Ġin c",
      "u st",
      "ĠP residente",
      "f orm",
      "e z",
      "e re",
      "ĠN Ã£o",
      "Ġde st",
      "ent os",
      "Ġs em",
      "f er",
      "ri b",
      "Ġt ambÃ©m",
      "ad e",
      "Ã³ s",
      "ÃŃ t",
      "Ġm as",
      "Ġ Q",
      "Ġcom p",
      "Ġa m",
      "a Ã§Ãµes",
      ") ,",
      "an d",
      "Ġe le",
      "in ha",
      "b al",
      "ul o",
      "Ġas s",
      "Ġe u",
      "i os",
      "Ġe l",
      "ĠL ei",
      "ÃŃ s",
      "u al",
      "v er",
      "Ġpar t",
      "Ġf orm",
      "is sÃ£o",
      "in a",
      "e b",
      "2 01",
      "if ic",
      "er c",
      "v a",
      "A R",
      "it a",
      "Ġ W",
      "Ġ 6",
      "Ġf az",
      "m a",
      "ar ia",
      "ĠB rasil",
      "Ġm es",
      "ĠR E",
      "ĠP or",
      "Ġp a",
      "ic as",
      "j a",
      "Ġa b",
      "is so",
      "id os",
      "Ġcon s",
      "ĠDeput ado",
      "Ã¡ ri",
      ") .",
      "ĠF ede",
      "en c",
      "m e",
      "or n",
      "E R",
      "Ġde c",
      "Ġc h",
      "m os",
      "Ġc as",
      "it os",
      "er o",
      "al iz",
      "Ġes c",
      "Ġa qu",
      "ĠE s",
      "\" ,",
      "Ġent re",
      "Ġa g",
      "ĠA r",
      "v i",
      "un do",
      "d er",
      "ent es",
      "u b",
      "ra t",
      "Ġse gu",
      "ra d",
      "ul t",
      "2 00",
      "ic os",
      "ig o",
      "ĠE x",
      "ern o",
      "e u",
      "i Ã£o",
      "l at",
      "ĠI n",
      "idad es",
      "ĠA s",
      "ant o",
      "ĠQ u",
      "an c",
      "is Ã£o",
      "Ġs Ã£o",
      "E I",
      "un ic",
      "Ã© c",
      "nt es",
      "t er",
      "at o",
      "p e",
      "ĠÃ ī",
      "d em",
      "Ã¡ ria",
      "Ġv er",
      "un d",
      "Ġa ut",
      "emb ro",
      "ĠE u",
      "ĠFede ral",
      "ĠS R",
      "or re",
      "Ġc ar",
      "Ãªnc ias",
      "Ġa d",
      "v o",
      "Ġd ire",
      "Ġ isso",
      "Ġ 7",
      "Ġco nc",
      "Ġpr im",
      "Ġan os",
      "Ġqu al",
      "T E",
      "Ġv ocÃª",
      "ĠN Âº",
      "ac ional",
      "in c",
      "D O",
      "ant e",
      "nt o",
      "iv er",
      "qu er",
      "D B",
      "as s",
      "in g",
      "i ra",
      "ri g",
      "ĠM ar",
      "Ġ ho",
      "Ġtra bal",
      "Ġ 8",
      "Ġe nc",
      "l o",
      "ia n",
      "Ġ Ã¡",
      "Ġt od",
      "v ol",
      "I A",
      "I N",
      "ĠEst ado",
      "ĠM inist",
      "je to",
      "ĠPR O",
      "L A",
      "ĠU n",
      "I S",
      "T A",
      "Ãª s",
      "Ġ ha",
      "ĠC ar",
      "r im",
      "f e",
      "Ã ĩ",
      "Ġa os",
      "h or",
      "el a",
      "_ _",
      "Ġt e",
      "Ġ 9",
      "Ġm il",
      "I D",
      "Ġ :",
      "I O",
      "in h",
      "Ġp ol",
      "in o",
      "Ġp res",
      "u nc",
      "Ġf in",
      "Ġmu ito",
      "ent a",
      "id as",
      "Ġp Ãºbl",
      "o do",
      "Ġp esso",
      "ĠC O",
      "Ġap ro",
      "Ġf al",
      "u p",
      "Ġ K",
      "Ġat Ã©",
      "Ġpro c",
      "Ġex t",
      "ara m",
      "r Ã¡",
      "Ġj Ã¡",
      "i u",
      "ran s",
      "Ġn as",
      "Ġd ia",
      "O S",
      "or d",
      "h ec",
      "im a",
      "ÃŃ p",
      "in da",
      "ĠP ar",
      "Ġ19 9",
      "Ġsu b",
      "Ã© d",
      "ĠA n",
      "ĠCom issÃ£o",
      "c on",
      "Ã© r",
      "Ġ Â",
      "ĠÃ º",
      "ÃŃ n",
      "i x",
      "\" .",
      "Ã³ ria",
      "m in",
      "in do",
      "Ġb em",
      "Â ª",
      "Ġ1 0",
      "Ã´ n",
      "an o",
      "u g",
      "Ã¡ri os",
      "Ġc l",
      "c ional",
      "Ġco l",
      "1 9",
      "l u",
      "p on",
      "ĠSen ador",
      "ov erno",
      "por t",
      "ÃŃ l",
      "f ic",
      "ĠN o",
      "or te",
      "Ġpro v",
      "s os",
      "ia m",
      "ra z",
      "ul a",
      "or ia",
      "Ġv ez",
      "i or",
      "Ġqu ando",
      "Ġn es",
      "em a",
      "ĠO s",
      "Ġin d",
      "Ġcont ra",
      "im o",
      "an h",
      "ado res",
      "er t",
      "av a",
      "Ġpo de",
      "iz aÃ§Ã£o",
      "Ã³ r",
      "en as",
      "Ġl e",
      "Ġd iz",
      "ra r",
      "ant es",
      "ran de",
      "re m",
      "ent ar",
      "es a",
      "stitu iÃ§Ã£o",
      "Ġaqu i",
      "Ġf il",
      "ĠN acional",
      "Ġm ar",
      "T I",
      "ĠÂ §",
      "Ġ1 8",
      "os t",
      "u do",
      "an a",
      "i Ã§Ãµes",
      "Ġl eg",
      "Ġb rasil",
      "ei ros",
      "Ġm at",
      "ut o",
      "Ġse us",
      "Ġtod os",
      "Ġpos s",
      "M EN",
      "ÃŃc io",
      "Ġo c",
      "Ġc a",
      "Ġs oc",
      "Ġmes mo",
      "Ġc or",
      "Ġt rans",
      "as e",
      "r it",
      "Ã¢ m",
      "ul ar",
      "Ġo n",
      "Ġa inda",
      "ĠP S",
      "Ġal g",
      "ĠS Ã£o",
      "is a",
      "it e",
      "ĠA m",
      "ra Ã§Ã£o",
      "Ã¡ t",
      "el o",
      "is s",
      "era l",
      "Ã§ as",
      "el e",
      "E TO",
      "il idade",
      "p era",
      "Ġc am",
      "ĠI I",
      "is c",
      "g ra",
      "Ãĩ ÃĥO",
      "Ġpo der",
      "Ġesp ec",
      "âĢĿ .",
      "Ġde m",
      "ĠÃł s",
      "Ġ1 1",
      "ÃŃ vel",
      "er to",
      "Ġtem po",
      "Ġde f",
      "I C",
      "Ġpr inc",
      "Ġe ra",
      "Ġp l",
      "Ġpre c",
      "s on",
      "nc ia",
      "Ġ 0",
      "ĠC as",
      "Ġap res",
      "iv os",
      "p er",
      "EN TE",
      "Ġdis c",
      "Ġ ro",
      "ĠP ara",
      "ra v",
      "ĠS e",
      "Ã© rio",
      "A L",
      "ia Ã§Ã£o",
      "Ġh Ã¡",
      "Ġser vi",
      "Ġform a",
      "Ġfo ram",
      "Ġs a",
      "Ġ2 0",
      "ĠP L",
      "u bl",
      "Ã³ p",
      "Ã¢ n",
      "ĠPa ulo",
      "ig n",
      "Ġcon st",
      "ĠR el",
      "in ho",
      "Ġf e",
      "vol v",
      "A N",
      "Ġm ed",
      "u c",
      "ĠC h",
      "Ã³ rio",
      "Ġfaz er",
      "l us",
      "Ã¡ vel",
      "ai x",
      "ĠAr t",
      "Ġc ria",
      "Ġm en",
      "t os",
      "Ġrec ur",
      "Ã ģ",
      "id era",
      "ia is",
      "p a",
      "O R",
      "Ġre l",
      "ES ID",
      "Ġm ai",
      "Ġv al",
      "Ġpol ÃŃt",
      "Ġapro v",
      "iver s",
      "Ġse g",
      "Ã§ os",
      "ĠS u",
      "ĠD es",
      "Ġan o",
      "Ġv ot",
      "Ġs Ã³",
      "Ġ r",
      "Ġre aliz",
      "p ec",
      "en ho",
      "rib u",
      "er v",
      "Ġp al",
      "g a",
      "D E",
      "Ġes sa",
      "ist as",
      "Ġs ol",
      "i e",
      "ĠDeput ados",
      "unic ÃŃp",
      "ĠPR ESID",
      "2 0",
      "en da",
      "Ġ ir",
      "ĠJ o",
      "Ġm an",
      "J ETO",
      "R O",
      "Ġ un",
      "Ġa f",
      "ra do",
      "it ar",
      "ĠPRO JETO",
      "Ġes se",
      "el ho",
      "al mente",
      "Ġv o",
      "Ġ1 5",
      "l os",
      "Ġa nt",
      "c a",
      "Ġpar te",
      "em os",
      "ĠM as",
      "z a",
      "j et",
      "ÃŃ d",
      "Ġde z",
      "ĠL EI",
      "Ġv ai",
      "Ġl oc",
      "Ġpor que",
      "en h",
      "g ram",
      "Ġin v",
      "Ġin form",
      "A S",
      "Ġno v",
      "el ec",
      "ĠPRESID ENTE",
      "um a",
      "Ġj ul",
      "Ġcon d",
      "Ġc ap",
      "Ġ1 2",
      "Ġc idade",
      "Ġest e",
      "ra nc",
      "ĠR eg",
      "Ġme u",
      "Ġpro f",
      "Ġse ja",
      "rib un",
      "Ġem pres",
      "Ġm a",
      "Ġ .",
      "ent al",
      "Ġp as",
      "Ġper m",
      "M DB",
      "E C",
      "Ġv ol",
      "go ra",
      "Ġt r",
      "Ġpre v",
      "ve is",
      "ĠI nt",
      "Ġ us",
      "ĠA c",
      "Ġon de",
      "Ġf or",
      "h os",
      "i Ãªncia",
      "ĠE le",
      "ion ais",
      "Ãª m",
      "is o",
      "LA TO",
      "Ġcon hec",
      "ec re",
      "d ade",
      "Ġt o",
      "er ra",
      "ĠA p",
      "Ġsu as",
      "Ġpart ic",
      "ÃŃl ia",
      "Ġin f",
      "Ġpesso as",
      "ĠE nt",
      ". )",
      "ĠV ocÃª",
      "ĠCon stituiÃ§Ã£o",
      "ĠL e",
      "Ġe la",
      "ar t",
      "Ġre v",
      "ĠP T",
      "ĠSen ado",
      "en a",
      "M A",
      "Ġout ros",
      "ec ess",
      "ĠC o",
      "ĠG overno",
      "Ġs ab",
      "Ġj u",
      "re i",
      "du z",
      "Ġde v",
      "po is",
      "an Ã§",
      "Ġdest a",
      "Ã¢m ara",
      "or do",
      "is mo",
      "Ġpo p",
      "Ġf ic",
      "Ġp e",
      "ĠM a",
      "Ġaut or",
      "se gu",
      "S O",
      "Ġg rande",
      "l es",
      "fer Ãªncias",
      "Ãºbl ica",
      "Ġout ras",
      "Ġ X",
      "Ġest a",
      "er g",
      "ia r",
      "Ġin st",
      "it al",
      "ubl ic",
      "Ġest Ã£o",
      "Ġre lat",
      "du c",
      "Ġap enas",
      "por ta",
      "ĠD O",
      "ent aÃ§Ã£o",
      "âĢ ĵ",
      "ag em",
      "ĠRE LATO",
      "Ġdo is",
      "Ġno me",
      "ĠC Ã¢mara",
      "t era",
      "en Ã§Ã£o",
      "Ã¢ ncia",
      "Ġart igo",
      "Ġn Ã³s",
      "en volv",
      "Ġpa ÃŃs",
      "Ġdes c",
      "Ġs endo",
      "j u",
      "ar do",
      "U R",
      "Ġc r",
      "Ã´ m",
      "ed ade",
      "Ġint er",
      "Ġp ass",
      "Ġe qu",
      "Ġtrabal ho",
      "Ġsegu int",
      "Ġs ent",
      "Ġt orn",
      "Ġ1 6",
      "Ġ Z",
      "Ġn ecess",
      "im entos",
      "Ġd u",
      "at or",
      "e x",
      "Ġ id",
      "Ġcon f",
      "Ã© s",
      "Ġde ix",
      "ar d",
      "ĠR io",
      "Ġprinc ip",
      "ura nte",
      "Ġe v",
      "m inist",
      "ult ura",
      "ul aÃ§Ã£o",
      "Ġor dem",
      "Ġ1 7",
      "Ġj ur",
      "Ġ1 3",
      "l t",
      "Ġrec eb",
      "ĠN a",
      "Ġenc ont",
      "pos ta",
      "Ãº m",
      "ĠJ os",
      "iv as",
      "Ġex c",
      "Ã¡ s",
      "Ġprim eiro",
      "t ar",
      "ra da",
      "ĠO l",
      "t u",
      "ĠL u",
      "c io",
      "Ġpal av",
      "r ito",
      "Ġim p",
      "Ġs im",
      "Ġ1 4",
      "Ġre f",
      "re n",
      "Ġcas o",
      "t or",
      "Ġf und",
      "l oc",
      "Ġa v",
      "ar o",
      "ĠÃ¡ re",
      "d ic",
      "s as",
      "Ġd if",
      "Ġmai or",
      "il iz",
      "Ġho je",
      "Ġn eg",
      "Ġter mos",
      "Ġh om",
      "ĠMinist ro",
      "ĠF o",
      "Ġ ra",
      "Ġser Ã¡",
      "ĠS ant",
      "ĠC am",
      "Ġha b",
      "Ã© ri",
      "ĠS im",
      "du Ã§Ã£o",
      "v ia",
      "rec er",
      "i ente",
      "ĠP re",
      "ĠRe ferÃªncias",
      "h Ãµes",
      "Ġass im",
      "g res",
      "Ãº de",
      "Ġqu er",
      "est Ã£o",
      "Ġob rig",
      "Ġre t",
      "an eiro",
      "__ __",
      "ĠS em",
      "Ġd ist",
      "c h",
      "en de",
      "g an",
      "es sÃ£o",
      "Ġre pres",
      "Ġcon stitu",
      "ĠRe p",
      "l am",
      "Ġm inha",
      "ol og",
      "Ġs al",
      "Ġch eg",
      "ribun al",
      "i Ã§a",
      "res c",
      "gra f",
      "it as",
      "is lat",
      "n ico",
      "ĠAs s",
      "u Ã§Ã£o",
      "Ġh ist",
      "ut a",
      "t as",
      "1 1",
      "ist ema",
      "Ġest ab",
      "s es",
      "in as",
      "ĠRELATO R",
      "Ġcon v",
      "pos iÃ§Ã£o",
      "in u",
      "at e",
      "ĠCom o",
      "Ġ ................................",
      "Ġpartic ip",
      "ĠG u",
      "Ġe d",
      "el hor",
      "Ġf am",
      "ĠCas a",
      "Ã¡ l",
      "Ġpro jeto",
      "Ġm od",
      "Ġch am",
      "Ġin s",
      "es te",
      "ĠO r",
      "S ÃĥO",
      "ĠS eg",
      "Ġim porta",
      "Ġp ed",
      "Ġin ic",
      "D A",
      "Ġl ei",
      "ĠP l",
      "ust iÃ§a",
      "ar Ã¡",
      "Ã³ d",
      "E L",
      "Ġp raz",
      "Ã¡ri as",
      "al idade",
      "ol a",
      "Ġo f",
      "i k",
      "Ġpro d",
      "ro u",
      "ĠPro jeto",
      "Ġqual quer",
      "g e",
      "Ġre p",
      "ĠI s",
      "g em",
      "ĠD A",
      "Ġv ida",
      "ĠT ribunal",
      "r ic",
      "ec ut",
      "Ġres pon",
      "n Ã§a",
      "ĠJos Ã©",
      "Ġp es",
      "d es",
      "ĠS al",
      "an os",
      "o f",
      "Ġdire ito",
      "Ġ19 8",
      "ĠâĢ ¢",
      "x a",
      "Ġm in",
      "ĠCon s",
      "Ġe con",
      "iv e",
      "i edade",
      "e res",
      "Ġle v",
      "j o",
      "us sÃ£o",
      "Ã© t",
      "ut os",
      "pos to",
      "ĠPa ÃŃs",
      "Ġp ublic",
      "Ġc ada",
      "Ġex ist",
      "1 0",
      "Ġpr Ã³p",
      "ĠÃº lt",
      "Ġcons idera",
      "Ġde pois",
      "un s",
      "Ãµ e",
      "ir m",
      "ĠA t",
      "Ġf av",
      "Ġestab elec",
      "r il",
      "h er",
      "Ġpalav ra",
      "ĠCar los",
      "Ġv e",
      "Ġme io",
      "envolv imento",
      "loc o",
      "ĠV er",
      "duc aÃ§Ã£o",
      "Ġt odo",
      "era m",
      "Ġdis se",
      "Ãª n",
      "Ġdest e",
      "gram a",
      "ĠT ra",
      "en e",
      "Ġpo dem",
      "Ġtrabal h",
      "unicÃŃp io",
      "ĠA nt",
      "MEN TO",
      "l ic",
      "Ġor ig",
      "n o",
      "P S",
      "Ġp ou",
      "Ġa gora",
      "Ġap Ã³s",
      "o a",
      "Ġac ordo",
      "ĠEst ados",
      "gu a",
      "ran Ã§a",
      "Ġre n",
      "Ġproc esso",
      "Ġc u",
      "Ġcom e",
      "Ġm elhor",
      "ĠI N",
      "Ġespec ial",
      "ĠMinist Ã©rio",
      "a re",
      "Ġde ver",
      "Ġma io",
      "u so",
      "um ento",
      "Ã© ria",
      "em pl",
      "E G",
      "im os",
      "n e",
      "ĠM u",
      "I L",
      "Ġnos so",
      "ĠD o",
      "Ã¡t ica",
      "Ġreg ist",
      "ĠRep Ãºblica",
      "S P",
      "ĠC l",
      "as t",
      "ĠCO N",
      "am entos",
      "Ġ ut",
      "Ġprim eira",
      "Ġpel os",
      "ĠA d",
      "Ã ī",
      "at iva",
      "is e",
      "Ġd urante",
      "ĠC ont",
      "d os",
      "Ġm undo",
      "ur so",
      "Ġ2 4",
      "at ro",
      "Ġdiz er",
      "Ġp ag",
      "Ġel es",
      "Ġpraz o",
      "ei ras",
      "ic e",
      "gres so",
      "ot al",
      "c ia",
      "ĠP MDB",
      "Ġm Ã©d",
      "Ġrecur sos",
      "ĠP A",
      "Ġt Ã©c",
      "ific aÃ§Ã£o",
      "ist o",
      "ĠJ ustiÃ§a",
      "un da",
      "Ġinv est",
      "o go",
      "an ha",
      "Ġde ve",
      "1 2",
      "I I",
      "Ġs ido",
      "Ġservi Ã§o",
      "Ġd ias",
      "Ġd i",
      "U T",
      "re d",
      "p Ãµe",
      "Ġf re",
      "ĠSen hor",
      "Ġex pl",
      "Ġreg im",
      "os to",
      "et e",
      "Ġque m",
      "Ġs om",
      "olog ia",
      "U N",
      "rad or",
      "ĠE l",
      "Ġdez embro",
      "Ġat iv",
      "t es",
      "ÃŃ st",
      "ĠE n",
      "Ġem pre",
      "Ġtr Ãªs",
      "n ica",
      "ĠA G",
      "Ġfav or",
      "r ut",
      "ig os",
      "in al",
      "i ado",
      "es se",
      "er ic",
      "Ġdec isÃ£o",
      "Ġa ntes",
      "Ġm ul",
      "or r",
      "Ġval or",
      "io l",
      "ĠCO M",
      "Ġseg undo",
      "Ġ2 2",
      "0 9",
      "Ġpro bl",
      "Ġest ava",
      "ov ern",
      "ul os",
      "P T",
      "Ã³ g",
      "c e",
      "Ġpart ir",
      "Ġt udo",
      "Ġm om",
      "U S",
      "it aÃ§Ã£o",
      "Ġs itu",
      "ĠRel ator",
      "Ġent Ã£o",
      "Ãģ R",
      "Ġg u",
      "st it",
      "ĠL ig",
      "en Ã§a",
      "Ġg ru",
      "Ãº s",
      "u ro",
      "Ġam b",
      "Ġd iv",
      "Ġfin anc",
      "1 3",
      "Ġ3 0",
      "Ġinc lu",
      "Ġn Ãºm",
      "d io",
      "ĠS a",
      "Ġde l",
      "Ġs istema",
      "em ente",
      "Ġc rim",
      "1 5",
      "Ġout ro",
      "Ã£ os",
      "Ġl iv",
      "Ġp ra",
      "ĠP od",
      "Ġequ ip",
      "rec e",
      "Ġb ase",
      "ĠJo Ã£o",
      "Ġcomp et",
      "Ġdes de",
      "an e",
      "ern as",
      "Ġcom un",
      "b P",
      "um p",
      "ta nto",
      "R I",
      "ĠA g",
      "Ġdif ere",
      ". (",
      "c el",
      "Ġrev isÃ£o",
      "ĠpÃºbl ica",
      "ĠL eg",
      "Ġa to",
      "Ġ19 7",
      "en ha",
      "Ġapres ent",
      "us a",
      "Ġfin al",
      "ĠE d",
      "n do",
      "Ġl Ã¡",
      "era Ã§Ã£o",
      "Ġem b",
      "Ġ2 5",
      "Ġseguint e",
      "Ġl im",
      "ĠB ar",
      "ĠV al",
      "n a",
      "Ġn at",
      "an da",
      "re ira",
      "o p",
      "ĠA b",
      "ĠÃ¡re a",
      "en Ã¡rio",
      "Ġj og",
      "Ġc in",
      "Ġn orm",
      "ĠIs so",
      "Ġconst ru",
      "oc a",
      "Ġ2 3",
      "V O",
      "ĠUn iÃ£o",
      "ĠO b",
      "nt a",
      "Ã³ ri",
      "Ġd Ã¡",
      "Ġpop ulaÃ§Ã£o",
      "Ġsem pre",
      "Ġap lic",
      "Ġint eres",
      "ud ic",
      "ĠpolÃŃt ica",
      "Ġl ug",
      "Ġno vo",
      "Ġcon segu",
      "Ġc ab",
      "Ġ: (",
      "Ġint eg",
      "ĠU m",
      "Ġsu per",
      "al h",
      "Ġmat Ã©ria",
      "Ġpro p",
      "ib ilidade",
      "ĠD ire",
      "Ġ Y",
      "in e",
      "ĠâĢ Ķ",
      "Ġde n",
      "om p",
      "us Ã£o",
      "nt os",
      "pl em",
      "un ho",
      "Ġad minist",
      "Ġdu as",
      "P R",
      "Ġrel aÃ§Ã£o",
      "Ġint ern",
      "Ġv ig",
      "Ġ il",
      "ĠpÃºbl ico",
      "ec n",
      "t on",
      "end er",
      "Ġmen os",
      "Ġalg um",
      "ĠT em",
      "Ġmil hÃµes",
      "Ġ200 9",
      "Ġl anÃ§",
      "ian o",
      "Ġex empl",
      "if ica",
      "ĠEnt Ã£o",
      "ĠFo i",
      "ĠS oc",
      "Ġt Ã£o",
      "il o",
      "is co",
      "Ġex erc",
      "ĠCon gresso",
      "le x",
      "Ġre st",
      "Ġt inha",
      "Ġper ÃŃ",
      "Ġse t",
      "il l",
      "Ġ k",
      "Ġvot aÃ§Ã£o",
      "Ġjul g",
      "Ġbrasil eiro",
      "Ġpre st",
      "Ġo rador",
      "a y",
      "Ġmom ento",
      "T U",
      "ĠR ec",
      "ĠPor t",
      "O N",
      "Ġa do",
      "Ġcont inu",
      "Ġc orre",
      "Ġt al",
      "Ġaprov aÃ§Ã£o",
      "ont ec",
      "Ġf im",
      "ĠS il",
      "at os",
      "Ġ200 7",
      "ĠS er",
      "Ġac ontec",
      "Ġc ent",
      "Ġg overno",
      "ĠP ol",
      "r t",
      "ĠS ul",
      "âĢĿ ,",
      "Ġ raz",
      "Ġtod as",
      "ĠF il",
      "ĠS ES",
      "ĠPS DB",
      "Ġvo to",
      "200 9",
      "Ġde ter",
      "Ġh um",
      "gu Ã©m",
      "Ġ2 8",
      "Ġ @",
      "pec t",
      "ĠP resid",
      "Ġg ara",
      "ĠI m",
      "Ġb om",
      "Ġnos sa",
      "ÃŃ f",
      "Ġpres ente",
      "Ġcon form",
      "Ġnes ta",
      "Ġqu anto",
      "Ġ19 6",
      "u i",
      "Ġap o",
      "Ġ2 1",
      "Ġor gan",
      "ĠP r",
      "Ġesc ol",
      "Ġo pera",
      "ĠM o",
      "Ġservi Ã§os",
      "Ġat ual",
      "u ais",
      "T RA",
      "Ġl on",
      "ĠP ela",
      "at eg",
      "Ġc ara",
      "Ã© l",
      "C IA",
      "Ã¡ g",
      "Ġinform aÃ§Ãµes",
      "iv il",
      "qu anto",
      "Ġv is",
      "Q U",
      "ecre t",
      "Ġal tera",
      "Ġsa Ãºde",
      "Ġvez es",
      "ĠT ur",
      "0 3",
      "Ġ2 7",
      "Ġm et",
      "so c",
      "Ġob jet",
      "ĠnÃºm ero",
      "en o",
      "fe ito",
      "ĠP AR",
      "g os",
      "Ġqu ero",
      "erc a",
      "Ġt om",
      "Ġsoc ial",
      "Ġimporta nte",
      "p ara",
      "Ġreg iÃ£o",
      "iv amente",
      "Ġres pe",
      "Ġg ra",
      "du ardo",
      "Ġt ip",
      "ĠC ol",
      "Ġf ato",
      "Ġnes te",
      "ÃŃc ia",
      "1 8",
      "Ġrec on",
      "Ġf ez",
      "Ġp en",
      "ĠÃº nico",
      "ĠS ub",
      "Ġna cional",
      "Ġcont ro",
      "Ġm ant",
      "Ġ200 8",
      "Ġext ernas",
      "io d",
      "am ent",
      "Ġdo c",
      "Ġin stitu",
      "t t",
      "ĠLu iz",
      "em as",
      "Ġt Ãªm",
      "Ġqu estÃ£o",
      "Ġhab it",
      "Ġf unc",
      "b a",
      "iam ento",
      "el l",
      "Ġal Ã©m",
      "ura l",
      "e a",
      "Ġt endo",
      "rei ro",
      "ĠLig aÃ§Ãµes",
      "Ġcome Ã§",
      "Ġn ada",
      "Ġpas sa",
      "Ġpo is",
      "ub ro",
      "Ġcol oc",
      "ro m",
      "os a",
      "Ġl ic",
      "Ġlug ar",
      "Ã³ x",
      "ĠperÃŃ odo",
      "ĠPod er",
      "Ġut iliz",
      "Ġno t",
      "Ġjul ho",
      "Ġt ur",
      "ĠSr s",
      "Ġinc iso",
      "ĠM IN",
      "ĠEx Âª",
      "0 5",
      "Ġre un",
      "R E",
      "Ġdec l",
      "Ġdef in",
      "j am",
      "Ġ2 6",
      "ig a",
      "Ġre fer",
      "Ġ uso",
      "ĠM A",
      "âĢĵ âĢĵ",
      "Ġ201 1",
      "p end",
      "to u",
      "ivers idade",
      "Ġinc lus",
      "ĠN e",
      "Ġd ar",
      "Ġalg uns",
      "Ġ200 6",
      "ac h",
      "ĠF ranc",
      "ÃŃ m",
      "U L",
      "Ġ rad",
      "id e",
      "Ġset embro",
      "Ġm ost",
      "Ġl ib",
      "Ġc er",
      "at a",
      "Ġtem os",
      "Ġc an",
      "ro p",
      "am e",
      "Ġm o",
      "unic aÃ§Ã£o",
      "Ġv ia",
      "Ġcas a",
      "Ġv ou",
      "ĠÃ ģ",
      "c om",
      "0 7",
      "ĠN ov",
      "d or",
      "Ġrecur so",
      "ĠEs p",
      "Ġn em",
      "Ġto da",
      "I M",
      "Ġrepres ent",
      "ĠP o",
      "qu is",
      "Ġde nt",
      "i ent",
      "Ġ z",
      "v io",
      "0 6",
      "quer imento",
      "Ġag ra",
      "Ġ Ã³r",
      "Ġcom b",
      "Ġsent ido",
      "om ia",
      "m an",
      "Ġac ab",
      "Ġgara nt",
      "Ġhist Ã³ria",
      "H O",
      "Ġt a",
      "es ta",
      "Ġob s",
      "Ã į",
      "Ġempres a",
      "u re",
      "Ġ201 0",
      "C UR",
      "Ġpel as",
      "Ġser v",
      "ĠSES SÃĥO",
      "1 7",
      "o res",
      "Ġpe qu",
      "Ġexempl o",
      "h as",
      "in s",
      "Ã¡ veis",
      "Ġext ra",
      "Ġe f",
      "ĠS ecret",
      "Ġpou co",
      "Ġj unho",
      "I MENTO",
      "Ġda ta",
      "Ġo fic",
      "Ġpro m",
      "Ġt enho",
      "Ġte ve",
      "Ġo l",
      "0 8",
      "ĠV amos",
      "Ġser ia",
      "ĠD ecre",
      "ĠLeg islat",
      "Ġcont ribu",
      "unc a",
      "Ġpo vo",
      "ĠM in",
      "ĠP er",
      "Ġest ou",
      "Ġconstitu cional",
      "Ġco isa",
      "Ġf ut",
      "Ġpro posta",
      "el es",
      "orn al",
      "Ġb ene",
      "Ġf ede",
      "Ġgru po",
      "in ar",
      "Ġf ac",
      "rÃ¡ f",
      "UT C",
      "e p",
      "Ġj ust",
      "Ġte x",
      "Ġc ump",
      "Ġno va",
      "Ġfam ÃŃlia",
      "et r",
      "g l",
      "Ġs en",
      "Ġs on",
      "Ġdis so",
      "ÃŃ veis",
      "Â °",
      "Ġdes envolvimento",
      "1 6",
      "Ġqu ais",
      "Ġm ud",
      "Ġ ...",
      "Ġprof iss",
      "Ġde r",
      "Ġ200 5",
      "Ġa j",
      "m as",
      "ro n",
      "Ġ2 9",
      "Ġv amos",
      "Ġf un",
      "id Ãªncias",
      "por te",
      "t ura",
      "ĠR ob",
      "ĠR es",
      "ĠG rande",
      "v es",
      "Ġo p",
      "Ġbrasil eira",
      "ĠDecre to",
      "Ġoc orre",
      "Ġat u",
      "Ġest ud",
      "ĠP ed",
      "CUR SO",
      "Ġco b",
      "Ġcont rat",
      "Ġest ar",
      "ÃŃ do",
      "an Ã§a",
      "ĠP rim",
      "Ġs ign",
      "Ġ ig",
      "Ġ ur",
      "c os",
      "qu i",
      "ĠE duardo",
      "0 4",
      "Ġmar Ã§o",
      "so u",
      "z e",
      "en sÃ£o",
      "EI RA",
      "as se",
      "ĠJ aneiro",
      "Ġ201 3",
      "ĠÃ³r g",
      "Ġfunc ion",
      "Ġg eral",
      "V A",
      "ran do",
      "Ġempres as",
      "Ġag osto",
      "Ġout ubro",
      "Ġtra t",
      "in Ã¡rio",
      "er ior",
      "ĠPar t",
      "it Ã¡ria",
      "av am",
      "Ġpr Ã³x",
      "Ġout ra",
      "Ġres ult",
      "ro v",
      "re g",
      "Ġn um",
      "r ica",
      "Ġm ot",
      "/ /",
      "Ġn enh",
      "Ġm Ãºs",
      "id Ãªncia",
      "ĠE M",
      "ĠM ed",
      "................................ ................................",
      "ĠII I",
      "ĠSant a",
      "Ġloc al",
      "unicÃŃp ios",
      "IC A",
      "Ġsoc iedade",
      "ve reiro",
      "ig u",
      "ĠE la",
      "Ġde b",
      "p s",
      "d as",
      "Ġl ado",
      "Ġm erc",
      "Ġt ar",
      "ĠS t",
      "ID A",
      "ĠSu pre",
      "EC ER",
      "ĠA L",
      "ic h",
      "Ġcont a",
      "Ġdeter min",
      "Ġref ere",
      "Ġm and",
      "Ã©ri e",
      "ĠEst Ã¡",
      "ÃŃt ulo",
      "Ġf isc",
      "Ġind ic",
      "Ġab ril",
      "Ġecon Ã´m",
      ". \"",
      "ĠEst a",
      "ĠTra bal",
      "Ġg rav",
      "Ġc resc",
      "Ġpesso a",
      "ĠM an",
      "Ġsu c",
      "Ã ļ",
      "in ado",
      "Ġprincip al",
      "a f",
      "sa b",
      "Ġj aneiro",
      "Ġv iol",
      "Ġhabit antes",
      "Ġest ado",
      "Ã³d igo",
      "0 2",
      ": //",
      "ÃģR IO",
      "in aÃ§Ã£o",
      "ian a",
      "os ta",
      "ĠMu ito",
      "n Ã§as",
      "is l",
      "Ġse i",
      "c ar",
      "if usÃ£o",
      "ia t",
      "Ġnov embro",
      "Ġs ou",
      "aliz aÃ§Ã£o",
      "ĠM aria",
      "1 4",
      "ĠPAR ECER",
      "Ġdes sa",
      "Ġp residente",
      "ĠE X",
      "Ġmes ma",
      "ĠDe p",
      "Ġcond iÃ§Ãµes",
      "ĠM e",
      "Ġpro duÃ§Ã£o",
      "d ad",
      "end imento",
      "Ġrecon hec",
      "Ġ201 2",
      "Ġsitu aÃ§Ã£o",
      "ri z",
      "ĠF ern",
      "tu gu",
      "Ġm ov",
      "en se",
      "Ġv i",
      "ĠQu e",
      "A rt",
      "Ġ201 5",
      "inh eiro",
      "ĠP Ãºbl",
      "Ġpro grama",
      "rut ura",
      "Ġ19 4",
      "i que",
      "Ġv enc",
      "Ġc al",
      "Ġa ta",
      "Ġdes se",
      "ĠU ma",
      "iod ifusÃ£o",
      "ei Ã§Ã£o",
      "Ġat rav",
      "aix a",
      "ag ens",
      "ic amente",
      "eb ol",
      "m ar",
      "Ġp ap",
      "Ġest amos",
      "ab ora",
      "Ġsegu ranÃ§a",
      "ĠC r",
      "ul g",
      "E xa",
      "RA L",
      "Ġ Ã§Ã£o",
      "pos it",
      "Ġh tt",
      "Ġsol ic",
      "Ġef et",
      "Ġam pl",
      "ei x",
      "ĠC ent",
      "Ã£ e",
      "19 9",
      "Ġre d",
      "Ġc ri",
      "ĠN os",
      "Ġt anto",
      "O L",
      "jet os",
      "il a",
      "Ġesp Ã©c",
      "Ġg ran",
      "Ġen s",
      "Ġenc am",
      "Ġan d",
      "Ġm Ã¡",
      "graf o",
      "d ia",
      "rad os",
      "ĠM unicÃŃpio",
      "a Ã§o",
      "b o",
      "iv idade",
      "ĠB ras",
      "ĠReg imento",
      "Ġe r",
      "Ġen f",
      "ecut ivo",
      "Ġe ducaÃ§Ã£o",
      "ĠN Ã³s",
      "Ġdem ais",
      "Ġp ens",
      "Ġqu atro",
      "ĠG o",
      "Ġoc up",
      "or t",
      "Ġ ru",
      "Ġ200 4",
      "Ġim port",
      "ĠAn d",
      "Ġen quanto",
      "00 0",
      "Ġd iver",
      "p ens",
      "ĠSal a",
      "io u",
      "Ġho ras",
      "Ġin ÃŃcio",
      "Ġprov idÃªncias",
      "Ã ķ",
      "iz ar",
      "Ġpro duz",
      "ĠS ol",
      "Ġobs erv",
      "at Ã³rio",
      "201 5",
      "Ã³ l",
      "i ada",
      "Ġpar c",
      "Ġ( \"",
      "Ġpr iv",
      "ecn ologia",
      "an ia",
      "st ria",
      "Ġfe vereiro",
      "Ġs essÃ£o",
      "ĠB a",
      "Ã ¼",
      "Ġho u",
      "Ġin de",
      "ia nte",
      "Ġtex to",
      "Ġtra ta",
      "Ġver dade",
      "Ãķ ES",
      "ÃŃ da",
      "Ġprec is",
      "Ġdent ro",
      "g io",
      "Ġtip o",
      "ĠS up",
      "ĠA N",
      "enc ial",
      "i ram",
      "ĠA D",
      "D T",
      "ĠÃ Ģ",
      "Ġperm it",
      "P MDB",
      "Ġfal ar",
      "A C",
      "ÃŃ der",
      "ĠPresid Ãªncia",
      "or g",
      "Ġrespe ito",
      "Ã´n ia",
      "B loco",
      "z o",
      "Ġcon ju",
      "Ġex ig",
      "Ġesp era",
      "Ġt ele",
      "Ġm im",
      "Ġ rÃ¡",
      "ĠDe f",
      "Ġm on",
      "Ġb us",
      "Ġdire itos",
      "Ġal go",
      "on a",
      "A M",
      "ĠInt erno",
      "ĠEs c",
      "Ġre m",
      "at al",
      "c ionais",
      "Ġexc lus",
      "od ri",
      "r y",
      "IS T",
      "Ġpo nto",
      "ĠSupre mo",
      "Ġleg islat",
      "ĠC ap",
      "Ġb as",
      "Ġjur ÃŃd",
      "ĠOl iv",
      "i Ã¡rio",
      "er ia",
      "ess or",
      "ĠUn idos",
      "Ġap rec",
      "Ġfo ra",
      "end as",
      "Ġha via",
      "i es",
      "ro g",
      "Ġposs ÃŃvel",
      "u x",
      "ĠBras ÃŃlia",
      "Ġs of",
      "form a",
      "Ġdes p",
      "Ġman if",
      "erg ia",
      "ido res",
      "ĠEx cel",
      "ut or",
      "ol Ã³g",
      "P OS",
      "unic ip",
      "Ġmed ida",
      "ir c",
      "im e",
      "Ġc ultura",
      "Ġp ai",
      "Ġa Ã§Ã£o",
      "Ġconform e",
      "ac ion",
      "Ġ200 3",
      "Ġcria Ã§Ã£o",
      "an g",
      "Ġn unca",
      "era is",
      "ĠEst e",
      "ĠpaÃŃs es",
      "h ar",
      "ĠQu ando",
      "Ġc ust",
      "____ ____",
      "Ã´n io",
      "Ġdecl ara",
      "Ġcin co",
      "Ġs Ã©c",
      "ĠCom un",
      "do res",
      "ĠC or",
      "to res",
      "Ġfe ito",
      "ĠP P",
      "Ã©r ito",
      "Ġ201 4",
      "ĠL a",
      "ica Ã§Ãµes",
      "Ġd ados",
      "3 0",
      "r Ã£o",
      "Ġex p",
      "Ġp ac",
      "ĠÃ¡ l",
      "ado ra",
      "Ġm al",
      "v ida",
      "Ġa Ã§Ãµes",
      "Ġc ur",
      "2 5",
      "gu e",
      "v is",
      "Ġf er",
      "Ġapo io",
      "Ġac omp",
      "Ã¡ b",
      "Ġes ses",
      "C E",
      "Ġv ir",
      "ĠInt ern",
      "es ar",
      "soc iaÃ§Ã£o",
      "Ġt he",
      "av al",
      "Ġde t",
      "ĠPro c",
      "Ġ /",
      "Ġt enha",
      "ut ivo",
      "Ġ19 5",
      "ĠTur ma",
      "Ġb il",
      "in os",
      "Ġfil me",
      "ĠE ducaÃ§Ã£o",
      "Ġproc ess",
      "Ġ201 6",
      "id or",
      "Ã¡ c",
      "um entos",
      "io res",
      "Ġk m",
      "ent emente",
      "Ġaf irm",
      "ĠO ut",
      "v al",
      "ĠSoc ial",
      "C O",
      "ĠR O",
      "ĠA o",
      "Ġatrav Ã©s",
      "Ġm ÃŃn",
      "Ġf os",
      "i Ãµes",
      "Ġs o",
      "ĠN O",
      "on d",
      "Ġsu r",
      "ra is",
      "Ġser Ã£o",
      "b re",
      "ĠUn iversidade",
      "ĠÃ¡ gua",
      "Ġse x",
      "201 3",
      "Ġprobl ema",
      "ĠSil va",
      "re ve",
      "Ġloc aliz",
      "aix o",
      "u gu",
      "Ġg overn",
      "Ġs Ã©rie",
      "P L",
      "i el",
      "ento u",
      "i ados",
      "Ã¡l ise",
      "ĠOliv eira",
      "Ġdes ign",
      "ÃŃ de",
      "Ġ ,",
      "Ġregim ental",
      "ĠD r",
      "Ġl ig",
      "Ġofic ial",
      "âĢ Ļ",
      "f on",
      "Ġs us",
      "Ġextra ord",
      "ĠF l",
      "ri que",
      "RA N",
      "i qu",
      "emb ros",
      "Ġ w",
      "und ial",
      "Ġm unicÃŃpio",
      "ip e",
      "iz a",
      "ĠL oc",
      "Ġter c",
      "inh as",
      "Ġpa recer",
      "Ġdisc ut",
      "i ro",
      "pe on",
      "Ġseg unda",
      "graf ia",
      ". ,",
      "ĠJ Ã¡",
      "Ġp at",
      "Ġseguint es",
      "Ã Ĭ",
      "Ġv ista",
      "Ġfaz endo",
      "Ġt otal",
      "ĠPed ro",
      "Ġex pres",
      "ĠT otal",
      "ĠÃ© p",
      "Ġleg isl",
      "Ġper c",
      "ĠPl enÃ¡rio",
      "port un",
      "isc ussÃ£o",
      "Ġdef esa",
      "ĠprÃ³p rio",
      "Ġv em",
      "Ġmu itos",
      "Ġt iv",
      "Ġb anc",
      "Ġsab e",
      "Ġj ornal",
      "Ġraz Ã£o",
      "ip l",
      "iz ado",
      "ĠPÃºbl ico",
      "Ġex ecut",
      "\" )",
      "ĠM AR",
      "int o",
      "on s",
      "Ġobrig ado",
      "Ġprod uto",
      "ĠT he",
      "Ġmes es",
      "f eira",
      "ĠSa Ãºde",
      "ĠCons elho",
      "ĠÃ ļ",
      "ĠF re",
      "Ġm or",
      "S TI",
      "Ġv Ã¡rios",
      "at ivo",
      "Ġf iz",
      "Ġorig em",
      "ĠtÃ©c nica",
      "Ġa de",
      "an ho",
      "re st",
      "i entes",
      "ĠDeput ada",
      "ĠPar lam",
      "201 1",
      "Ġativ idades",
      "r imento",
      "Ġreg ul",
      "ĠSen ho",
      "Ġfic ar",
      "Ġcons um",
      "Ġele ito",
      "E M",
      "Ġperm an",
      "ora r",
      "ub e",
      "anc e",
      "Ġest re",
      "Ġprinc ÃŃp",
      "Ġalgum as",
      "ĠSeg undo",
      "ĠS P",
      "ere m",
      "en sa",
      "c ul",
      "ĠA gora",
      "Ġc erca",
      "Ġgran des",
      "Ġes sas",
      "iss Ãµes",
      "Ġinclus ive",
      "ĠB loco",
      "ĠOb rig",
      "ĠR om",
      "Ġres pect",
      "A DO",
      "Ã¡ grafo",
      "enta res",
      "ĠJ u",
      "2 1",
      "ĠEm enda",
      "Ġac esso",
      "ual mente",
      "Ġo portun",
      "ĠE MEN",
      "Ġb ar",
      "ateg or",
      "6 6",
      "ĠEs sa",
      "he res",
      "ĠM ag",
      "ĠAl Ã©m",
      "it or",
      "Ġrad iodifusÃ£o",
      "Ġt rib",
      "d Ã£o",
      "ve z",
      "ri r",
      "Ġpre oc",
      "ĠEx ecutivo",
      "ĠIn form",
      "Ġqu ase",
      "ĠC Ã³digo",
      "ĠÃ©p oca",
      "ĠFil ho",
      "ĠW ik",
      "Ġsim pl",
      "Ġd Ã©c",
      "h Ã£o",
      "Ã£ es",
      "m it",
      "ĠT e",
      "Ġim pl",
      "stitu cional",
      "Ġqu ad",
      "ist Ãªncia",
      ". âĢĿ",
      "Ġn uma",
      "el iz",
      "Ġmin utos",
      "2 9",
      "int e",
      "Ġfil ho",
      "ĠpÃºbl icos",
      "TA DO",
      "peon ato",
      "Ġinst al",
      "ĠDe us",
      "Ġj ov",
      "STI TU",
      "Ġ1 00",
      "ĠDE M",
      ") ;",
      "an co",
      "ĠD a",
      "iv al",
      "Ġdisc ussÃ£o",
      "Ġo fe",
      "Ġe ram",
      "Ġt ÃŃtulo",
      "qu es",
      "ĠC at",
      "Ġexerc ÃŃcio",
      "is as",
      "al l",
      "Ġdev ido",
      "Ġmai oria",
      "re mos",
      "T F",
      "ĠD ist",
      "Ġm elho",
      "f ÃŃcio",
      "Ġfal ta",
      "ĠR a",
      "re t",
      "Ġda qu",
      "b um",
      "ĠsÃ©c ulo",
      "Ġj ogo",
      "ĠCOM IS",
      "Ġvol ta",
      "o k",
      "Ġf ica",
      "3 4",
      "fe itos",
      "Ġid e",
      "et ro",
      "ÃŃc ios",
      "and id",
      "n unc",
      "ĠH en",
      "Ġd inheiro",
      "rad as",
      "Ã³ri os",
      "2 8",
      "Ġt ent",
      "ĠG e",
      "Ġor d",
      "Ġqual idade",
      "Ġ5 0",
      "ĠJ Ãº",
      "Ġl he",
      "Ġpro gram",
      "el as",
      "Ġcom erc",
      "Ġir m",
      "Ġp ena",
      "Ġencam inh",
      "D IN",
      "Ġmar c",
      "ad amente",
      "ĠM il",
      "ra f",
      "D I",
      "Ġmu itas",
      "Ġdist ribu",
      "on st",
      "er os",
      "ĠEs se",
      "ĠH Ã¡",
      "Ġ Ã³",
      "Ġbrasil eiros",
      "ĠS EN",
      "m b",
      "ĠMar c",
      "id ente",
      "Ġcar go",
      "plem entar",
      "id ar",
      "PS DB",
      "Ġhtt ps",
      "Ġcas os",
      "Ġper t",
      "un ha",
      "Ġpor tugu",
      ") :",
      "Ġn orte",
      "Ġid ent",
      "ĠA R",
      "ĠR os",
      "3 6",
      "Ġpoder ia",
      "ug al",
      "ĠH ist",
      "m es",
      "Ġreun iÃ£o",
      "Ġg ost",
      "is pÃµe",
      "do B",
      "........ ....",
      "re do",
      "Ġt ro",
      "qu isa",
      "ĠT h",
      "ĠAss im",
      "Ġac red",
      "er s",
      "ĠD ia",
      "c ter",
      "ĠL ula",
      "ĠP E",
      "Ġtra z",
      "Ġres ol",
      "Ġp Ã¡g",
      "ec uÃ§Ã£o",
      "Ġc el",
      "Ġaj ud",
      "k i",
      "Ġsem ana",
      "Ġca usa",
      "Ġcl ass",
      "u ras",
      "Ġse jam",
      "Ġest ad",
      "Ġde le",
      "or ge",
      "en so",
      "Ġade qu",
      "Ġ201 7",
      "Ġent anto",
      "Ġcon ver",
      "3 5",
      "Ġped ido",
      "Ġa umento",
      "ula res",
      "Ġa ud",
      "p P",
      "im as",
      "Ġb oa",
      "ĠT V",
      "Ġprec isa",
      "Ġm odo",
      "Ġparticip aÃ§Ã£o",
      "Ġproc ed",
      "Ġqu est",
      "Ġhom em",
      "ĠP al",
      "B ER",
      "fer Ãªncia",
      "Ġcr Ã©d",
      "Ġe t",
      "2 4",
      "Ġmerc ado",
      "ĠÃ ¢",
      "Ġobjet ivo",
      "Ġa ÃŃ",
      "Ġor i",
      "er ta",
      "ĠD J",
      "Ġ200 0",
      "Ġp rat",
      "Ġred aÃ§Ã£o",
      "as c",
      "Ġrespon sab",
      "ar c",
      "Ġm embros",
      "s ol",
      "in i",
      "2 7",
      "Ġagra vo",
      "Ġc rit",
      "Ġter min",
      "ĠS U",
      "Ġsom ente",
      "Ġrespon s",
      "ĠFern ando",
      "3 7",
      "ĠRob erto",
      "l ob",
      "ific ado",
      "ĠLegislat ivo",
      "ac k",
      "Ġtar de",
      "N CIA",
      "ĠÃ¡re as",
      "el h",
      "Ġcam p",
      "Ġc andid",
      "ĠAs sociaÃ§Ã£o",
      "ran g",
      "ru p",
      "in Ã¡ria",
      "2 6",
      "ic al",
      "Ã³ri as",
      "ĠS ou",
      "Ġacomp anh",
      "on io",
      "Ġlegisl aÃ§Ã£o",
      "Ġac ho",
      "Ġmat er",
      "ĠPS B",
      "3 9",
      "it ado",
      "Ġpas sou",
      "am a",
      "Ġens ino",
      "Ġob ras",
      "ed ia",
      "ĠG eral",
      "ĠR o",
      "Ġtem a",
      "Ġm orte",
      "stit uto",
      "Ġf ra",
      "ĠT rans",
      "ĠmÃºs ica",
      "P E",
      "Ġt it",
      "ĠR odri",
      "in ada",
      "Ġmed idas",
      "s c",
      "ĠD em",
      "ess Ãµes",
      "r Ã©",
      "Ġleg al",
      "Ġpublic aÃ§Ã£o",
      "ĠB em",
      "ĠI V",
      "Ġdec id",
      "Ġav al",
      "ec imento",
      "Ġsab er",
      "I Z",
      "stit utivo",
      "ic idade",
      "s al",
      "Ġ201 9",
      "ĠR ic",
      "ĠB o",
      "Ã¡ r",
      "ĠPa recer",
      "ĠAm az",
      "ĠD el",
      "Ġg en",
      "ĠMa ia",
      "Ġse tor",
      "ĠS Ã³",
      "200 0",
      "Ġno ite",
      "Ġob jeto",
      "h n",
      "Ġm embro",
      "Ġnas c",
      "ÃŃ g",
      "Ġcontro le",
      "Ġcria nÃ§as",
      "ĠTrabal ho",
      "Ġc ant",
      "Ġ is",
      "Ġqu ar",
      "200 8",
      "ĠprÃ³p ria",
      "Ġprobl emas",
      "Ġse c",
      "Ġal eg",
      "Ġpag amento",
      "ĠS E",
      "Ġ5 4",
      "ĠPort ugal",
      "ific ar",
      "anh Ã£",
      "st o",
      "ĠC ultura",
      "Ġco isas",
      "rÃ¡ s",
      "Ġrealiz aÃ§Ã£o",
      "Ġin gl",
      "Ġmul heres",
      "k e",
      "Ġpoder Ã¡",
      "Ġconstru Ã§Ã£o",
      "ĠM unicÃŃpios",
      "ĠL uc",
      "t ado",
      "Ġem p",
      "Ġass u",
      "Ġdeix ar",
      "Ġsimpl es",
      "T he",
      "Ġor Ã§",
      "ĠF in",
      "Ġm Ã£e",
      "ĠC AR",
      "Ġc ert",
      "ru z",
      "Ġh ip",
      "3 8",
      "Ġrel acion",
      "DE M",
      "f f",
      "al idades",
      "Ġc erto",
      "ri Ã§Ã£o",
      "ĠV o",
      "ĠÃ¡l bum",
      "B L",
      "Ġf orn",
      "Ġvo ta",
      "ĠAd minist",
      "ĠPro grama",
      "Ġde u",
      "iz ada",
      "Ã³ n",
      "ĠC P",
      "Ġlon go",
      "ĠM inas",
      "Ġed iÃ§Ã£o",
      "Ġc irc",
      "200 7",
      "Ġpreoc up",
      "Ġper son",
      "Ġv Ã¡rias",
      "ĠC al",
      "C IO",
      "ĠpÃºbl icas",
      "Ġan im",
      "u a",
      "Ġter rit",
      "ar g",
      "Ġc idad",
      "Ġass um",
      "Ġ3 1",
      "Ġprincip almente",
      "at ura",
      "Ġs an",
      "Ġdi rig",
      "ial mente",
      "Ġar qu",
      "ul as",
      "Ġequip e",
      "gu es",
      "ĠÃºlt imo",
      "I B",
      "Ġg ol",
      "ara n",
      "ĠNov a",
      "ĠEst ou",
      "Ġextraord inÃ¡rio",
      "Ã©r ica",
      "Ġg ente",
      "Ġm orre",
      "re ja",
      "Ġinvest ig",
      "ĠEnt re",
      "Ġprec iso",
      "Ġcab e",
      "Ġdem oc",
      "ĠDes envolvimento",
      "Ġpap el",
      "I V",
      "Ġju nto",
      "Ã©d ia",
      "ĠEs pec",
      "Ġac e",
      "u z",
      "Ġen ergia",
      "ĠFranc isco",
      "ĠN orte",
      "ĠM at",
      "Ġv Ã£o",
      "ĠP Ãºblica",
      "Ġ20 20",
      "Ġan Ã¡lise",
      "Ġar g",
      "Ġre querimento",
      "an as",
      "ĠespÃ©c ie",
      "Ġe p",
      "it y",
      "ĠH o",
      "ĠT od",
      "Ġind iv",
      "Ġat ribu",
      "re nt",
      "Ġdis pÃµe",
      "Ġpro jetos",
      "t ica",
      "Ġho ra",
      "Ġjulg amento",
      "4 5",
      "ĠM esa",
      "Ġal i",
      "Ġal c",
      "Ġcap ac",
      "Ã ĵ",
      "201 0",
      "l y",
      "etr Ã´n",
      "Ġv iv",
      "Ġ200 2",
      "ord en",
      "Ġ: )",
      "Ġfre nte",
      "Ġt re",
      "it ura",
      "Ġm inist",
      "ar te",
      "Ġ................................ ................",
      "es sa",
      "Ġpro t",
      "Ġpos iÃ§Ã£o",
      "ÃĬ NCIA",
      "ĠP en",
      "ĠE les",
      "ÃŃl io",
      "os p",
      "Ġconc essÃ£o",
      "Ġ3 5",
      "ĠF er",
      "Ġg era",
      "ĠSu a",
      "eric ano",
      "Ġou v",
      "Ġdis posit",
      "Ġhou ve",
      "Ġpos so",
      "at ivas",
      "Ġalg uma",
      "ap a",
      "ist e",
      "Ġd im",
      "G O",
      "b erto",
      "Ġemb ora",
      "Ġpres enÃ§a",
      "Ġecon omia",
      "Ġdesc ob",
      "ĠR IC",
      "ÃŃs s",
      "Ġf a",
      "Ġn e",
      "pos tas",
      "Ġre ais",
      "Ġob ra",
      "Ġdis pon",
      "ta nte",
      "inh os",
      "al tera",
      "ĠRE QU",
      "Ġdire t",
      "Ġproc ura",
      "Ġfos se",
      "2 2",
      "il izaÃ§Ã£o",
      "Ġconhec ido",
      "Ġinst r",
      "Ġregim e",
      "Ġativ idade",
      "ri os",
      "om e",
      "al do",
      "te za",
      "9 8",
      "ure za",
      "ĠR ib",
      "B A",
      "ĠP DT",
      "Ġdo m",
      "Ġcap ital",
      "Ġex per",
      "Ġcara cter",
      "ĠAnt onio",
      "ĠA lex",
      "Ġadminist rat",
      "Ġfun Ã§Ã£o",
      "ĠCon c",
      "Ġpro nunc",
      "Ġregist ro",
      "Ġb a",
      "x im",
      "Ġpor tanto",
      "Ġpodem os",
      "nc ias",
      "ĠT r",
      "ĠPart ido",
      "Ġf ix",
      "Ġdiv ulg",
      "Ġnes se",
      "in guÃ©m",
      "Ġca us",
      "Ġdest ac",
      "h t",
      "Ġpre t",
      "Ġat ing",
      "RA VO",
      "Ġdem onst",
      "Ġcrim e",
      "Ġ '",
      "Ġcor po",
      "Ġrelat Ã³rio",
      "Ġb at",
      "ĠS ab",
      "Ġimport Ã¢ncia",
      "Ã¡ cio",
      "Ġman eira",
      "Ġpro te",
      "Ġ199 0",
      "Ġencont ra",
      "Ġinf ra",
      "ĠC a",
      "Ġf ÃŃs",
      "Ġp eg",
      "ĠDef esa",
      "Ġprod utos",
      "Ġrealiz ada",
      "ĠEu ro",
      "ĠC ivil",
      "ĠvocÃª s",
      "Ġdis put",
      "Ġal t",
      "ĠQ U",
      "Ġen volv",
      "Ġesc ola",
      "b r",
      "ic ion",
      "Ġsuper ior",
      "ou r",
      "ez a",
      "Ġqu ant",
      "Ġmul her",
      "Ġconju nto",
      "ĠpolÃŃt ico",
      "ĠI t",
      "Ġlegislat iva",
      "Ġpart ido",
      "unicip al",
      "Ġquer ia",
      "ĠAp Ã³s",
      "c k",
      "ĠP res",
      "pos iÃ§Ãµes",
      "G E",
      "Ġro m",
      "enh am",
      "Ġest im",
      "Ġha ver",
      "Ġ200 1",
      "ER IMENTO",
      "ĠDist rito",
      "ĠC A",
      "Ġnecess idade",
      "Ġinteres se",
      "ĠP rec",
      "ĠSer vi",
      "ĠB ol",
      "ĠP at",
      "Ġsoc iais",
      "Ġpesso al",
      "ĠE nc",
      "ĠÃºlt ima",
      "Ġliv ro",
      "Ġinic iat",
      "Ġap a",
      "TI MA",
      "Ġpass ado",
      "ĠE con",
      "Ġprop ri",
      "le o",
      "in d",
      "Ġcont r",
      "pos tos",
      "orm ente",
      "Ġ201 8",
      "ĠV ice",
      "Ġdes em",
      "P a",
      "Ġqu Ãª",
      "Ġcomp rom",
      "ĠCom unicaÃ§Ã£o",
      "Ġdec re",
      "Ġpr Ã©",
      "ĠE S",
      "it ando",
      "Ġre al",
      "Ġingl Ãªs",
      "ĠDE P",
      "ĠG overn",
      "am ental",
      "e do",
      "Ġl emb",
      "Â ²",
      "Ġsu g",
      "e ito",
      "Ġm Ãªs",
      "Ġde p",
      "7 8",
      "ĠT ecnologia",
      "ec er",
      "w s",
      "Ġcomp anh",
      "Ġex ecuÃ§Ã£o",
      "Ã³r dÃ£o",
      "Ġfic ou",
      "q Ã¼",
      "an Ã§as",
      "4 8",
      "ĠSen adores",
      "IDA DE",
      "C A",
      "ĠREQU ERIMENTO",
      "ategor y",
      "Ġan unc",
      "ĠC idad",
      "ĠrÃ¡ p",
      "ĠC iÃªncia",
      "201 2",
      "Ġl ogo",
      "Ġcon qu",
      "ĠS ras",
      "ĠObrig ado",
      "ĠCOMIS SÃĥO",
      "Ġper gu",
      "N AL",
      "d bP",
      "Ġpo ntos",
      "l et",
      "al a",
      "h ia",
      "Ġprofiss ional",
      "9 9",
      "Ġf ranc",
      "Ġc he",
      "ert ura",
      "al d",
      "ĠÃ¢ mb",
      "Ġap os",
      "201 6",
      "k a",
      "ÃŃt ica",
      "ram ento",
      "Ġprom ov",
      "Ġl uta",
      "âĢĵâĢĵ âĢĵâĢĵ",
      "Ġtorn ou",
      "ĠT al",
      "m et",
      "Ġbil hÃµes",
      "ĠC an",
      "i er",
      "ĠcomeÃ§ ou",
      "ĠT a",
      "Ġs in",
      "res pon",
      "Ġdis posto",
      "ĠL U",
      "Ġant erior",
      "ĠG il",
      "ĠEX TRA",
      "Ġaut os",
      "Ġp ad",
      "Ġsen hor",
      "Ġp resid",
      "ĠP e",
      "ĠO u",
      "ĠS ra",
      "ad eira",
      "ĠP ere",
      "ĠM ac",
      "Ġpes quisa",
      "ĠIn stituto",
      "Ġem enda",
      "ne y",
      "Ġl a",
      "Ġnenh um",
      "Ġins c",
      "C doB",
      "Ġpa rece",
      "ĠC osta",
      "Ġfede ral",
      "Ã© n",
      "ĠPrim eira",
      "I R",
      "Ġval ores",
      "Ġvot os",
      "ĠC unha",
      "Ġcam po",
      "ĠPRO POS",
      "Ġjur is",
      "Ġinter pre",
      "Ġan al",
      "ĠT ambÃ©m",
      "Ġnorm as",
      "ĠÃ¢mb ito",
      "Ġ x",
      "it es",
      "ĠO n",
      "Ġcer teza",
      "Ġf ec",
      "Ġconhec imento",
      "Ġse rem",
      "ĠMar co",
      "ĠmÃŃn imo",
      "Ġpr Ã¡tica",
      "Ġtrabal hos",
      "Ġn ÃŃvel",
      "ĠÃļ L",
      "ÃŃst icas",
      "Ġal guÃ©m",
      "io grafia",
      "Ġb anda",
      "v isÃ£o",
      "Ġaplic aÃ§Ã£o",
      "ĠBrasil eiro",
      "i ormente",
      "e as",
      "Ġent ra",
      "N A",
      "Ġfe ita",
      "Ġtrans form",
      "ĠmÃ©d ia",
      "ĠPro f",
      "it ada",
      "Ġconc lu",
      "ĠD il",
      "Ġc ient",
      "ĠR Ã¡",
      "Ġart igos",
      "on g",
      "ro nt",
      "ĠD an",
      "Ġprincip ais",
      "os o",
      "i bl",
      "ĠA P",
      "Ġvig or",
      "Ġ4 0",
      "Ġl inha",
      "Ġ199 8",
      "ig ura",
      "ĠÃļL TIMA",
      "ĠPor tanto",
      "Ġh on",
      "s ia",
      "ĠMar t",
      "le v",
      "ĠD ias",
      "Ġ it",
      "201 4",
      "ĠA gra",
      "ĠDe pois",
      "ĠL ÃŃder",
      "Ãĩ ÃķES",
      "Ġdev em",
      "f or",
      "Ġ................................ ................................",
      "5 0",
      "ĠA v",
      "Ġm ont",
      "Ġd ific",
      "ad es",
      "ĠC orte",
      "ec a",
      "ĠQu ero",
      "Ġinform aÃ§Ã£o",
      "Ġt or",
      "Ġre forma",
      "ĠR oc",
      "Ġj udic",
      "ĠI nc",
      "ĠpolÃŃt icas",
      "Ġg as",
      "er dade",
      "2 3",
      "r is",
      "ÃŃ zo",
      "Ã©ri os",
      "ĠS TF",
      "Ġa ju",
      "Ġ isto",
      "int a",
      "ec t",
      "un a",
      "Ġes qu",
      "ĠcrÃ©d ito",
      "Ġaprec iaÃ§Ã£o",
      "Ġdever Ã¡",
      "Ġd ivers",
      "Ġ idade",
      "ĠQu em",
      "ĠM ont",
      "am p",
      "ĠH er",
      "ĠPT B",
      "ĠT er",
      "ĠGu erra",
      "Ġa um",
      "A pens",
      "Ġnos sos",
      "Ġdifere ntes",
      "Ġde se",
      "ĠA ra",
      "ĠExcel Ãªncia",
      "ĠP os",
      "ĠSant os",
      "ac ionais",
      "Ġnov os",
      "ĠF az",
      "Ġaprov ado",
      "Ġse is",
      "ĠC ab",
      "Ġat enÃ§Ã£o",
      "Ġsu st",
      "Ġcom unicaÃ§Ã£o",
      "ro c",
      "ira r",
      "Ġresult ado",
      "ĠRE CURSO",
      "Ġinde pend",
      "Ġespec ÃŃf",
      "Ġnat ureza",
      "ĠCom p",
      "H A",
      "ÃŃst ica",
      "D AS",
      "v og",
      "pl ic",
      "Ã© re",
      "Ġnecess Ã¡rio",
      "il ha",
      "Ġter ia",
      "Ġm Ã©rito",
      "ĠO h",
      "og raf",
      "ĠRic ardo",
      "g ens",
      "ĠÃ³rg Ã£os",
      "ĠI g",
      "8 8",
      "Ġdes ses",
      "ĠEspec ial",
      "Ġcompet Ãªncia",
      "ĠCas t",
      "Ġse de",
      "ĠR en",
      "b e",
      "ĠAm Ã©rica",
      "ĠB en",
      "Ġcheg ou",
      "ĠF E",
      "ĠAl ves",
      "Ġpl ane",
      "Ġaut oria",
      "p t",
      "Ġform ula",
      "Ġren da",
      "ĠHen rique",
      "Ġf l",
      "ĠL EG",
      "ĠAG RAVO",
      "Ġca put",
      "UL O",
      "u de",
      "Ġpos sa",
      "ĠÃ³rg Ã£o",
      "Ġempre g",
      "Ġform aÃ§Ã£o",
      "Ġre vel",
      "Ġpol ic",
      "p h",
      "on e",
      "j udic",
      "Ġ #",
      "Ġexist e",
      "Ġre duz",
      "Ġoc orr",
      "ĠF or",
      "Ġl ut",
      "Ġreceb eu",
      "Ġs ul",
      "Ġest rutura",
      "ĠOr dem",
      "Ġcl aro",
      "ĠPere ira",
      "Ġfor Ã§a",
      "ĠSecret aria",
      "I ÃĩÃĥO",
      "ex o",
      "Ġcham ado",
      "ĠC el",
      "id amente",
      "Ġposs ui",
      "ĠPS D",
      "ant as",
      "F L",
      "Ġter ra",
      "Ġenf rent",
      "Ġcontra to",
      "Ġprov imento",
      "Ġren ov",
      "Ġig ual",
      "Ġ ÃŃn",
      "ÃŃn io",
      "Ġve ÃŃc",
      "6 5",
      "ĠCON STITU",
      "ĠS O",
      "Ġcar reira",
      "II I",
      "Ġel im",
      "G eral",
      "Ġdec orre",
      "fic iÃªncia",
      "ĠM ais",
      "Ġesp aÃ§o",
      "Ġret orn",
      "ĠCo pa",
      "ĠCidad ania",
      "Ġtur no",
      "Ġmen or",
      "ĠCam peonato",
      "qu Ãªncia",
      "Ġintern acional",
      "ĠV e",
      "Ġhom en",
      "h am",
      "Ġc idades",
      "ul ada",
      "Ġha v",
      "Ġel etrÃ´n",
      "Ġdisc urso",
      "ol ha",
      "Ġg anh",
      "Ġac ima",
      "ĠDE S",
      "r ita",
      "Ġus u",
      "Ġtempo rada",
      "Ġresponsab ilidade",
      "Ġtrabalh adores",
      "ern a",
      "Ġpor Ã©m",
      "Ġv el",
      "Ġconc ed",
      "Ġrec e",
      "Ġhist Ã³r",
      "est re",
      "Ġde les",
      "Ġm ento",
      "Ġre de",
      "9 5",
      "p ar",
      "s u",
      "Ġfut ebol",
      "ĠDE C",
      "Ã¡t ico",
      "eg a",
      "ĠD ec",
      "or o",
      "Ġju nt",
      "l as",
      "ograf ia",
      "Ġt ri",
      "Ġme us",
      "ĠDil ma",
      "ĠP esso",
      "ant a",
      "Ġse para",
      "Ġele v",
      "em in",
      "3 3",
      "Ġre almente",
      "Ġcr ise",
      "Ġinstitu iÃ§Ãµes",
      "ĠB e",
      "ĠV ou",
      "Ġv it",
      "Ġpo t",
      "ul dade",
      "ora Ã§Ã£o",
      "Ġpa uta",
      "ĠR J",
      "ĠMIN IST",
      "Ġ3 7",
      "am es",
      "ĠS anto",
      "c ion",
      "Ġoportun idade",
      "Ġmanif est",
      "A B",
      "Ġassu nto",
      "ĠD u",
      "9 7",
      "D o",
      "Ġc ul",
      "Ġac resc",
      "Ġpl ano",
      "Ġtrans porte",
      "ĠB om",
      "R OS",
      "b ra",
      "fic iente",
      "os sa",
      "Ġdeb ate",
      "Ã©r cio",
      "Ġposs u",
      "Ġl it",
      "ĠD om",
      "Ġd Ãº",
      "Ġnes sa",
      "d iscussÃ£o",
      "ĠRe querimento",
      "Ãĩ A",
      "ed or",
      "Ġcria r",
      "Ġat ra",
      "Ġna qu",
      "put ado",
      "Ġar m",
      "ĠPro vis",
      "4 7",
      "Ġmaio res",
      "t i",
      "ĠDE CURSO",
      "ĠX X",
      "Ã© g",
      "ĠSenado ra",
      "Ġcom pre",
      "ĠS ob",
      "Ġre quis",
      "ĠV i",
      "200 5",
      "ag a",
      "Ġnov as",
      "w w",
      "ĠMarc elo",
      "Ġiniciat iva",
      "ateg oria",
      "ĠÃº nica",
      "Ġdes envolv",
      "ĠS eu",
      "Ġpes quis",
      "ĠHist Ã³ria",
      "ĠPo de",
      "Ġel as",
      "ĠPol ÃŃcia",
      "ĠB anco",
      "Ġass in",
      "ĠÃ ĵ",
      "Ġcond en",
      "Ġ rio",
      "4 6",
      "Ġmand ato",
      "i Ãªncias",
      "Ġt est",
      "Ġ199 7",
      "el mente",
      "ĠS h",
      "enc ion",
      "Ġpro por",
      "Ġprof essor",
      "Ġdes en",
      "ĠM end",
      "Ġdever ia",
      "ĠG erais",
      "ric ultura",
      "Ã©r c",
      "Ġtrib ut",
      "Ġenc er",
      "st ru",
      "Ġmed iante",
      "es as",
      "Ġposs ibilidade",
      "ĠV I",
      "Ġas segu",
      "ĠP as",
      "es es",
      "9 0",
      "ĠPor to",
      "ol o",
      "Ã³ tes",
      "V I",
      "Ġdiver sos",
      "ĠC E",
      "Ãº stria",
      "TI VO",
      "pre n",
      "Ġcomerc ial",
      "ĠG ra",
      "it ou",
      "ur g",
      "ĠIn f",
      "ĠBa hia",
      "d ispÃµe",
      "ĠD urante",
      "Ġimp ed",
      "Ġrespons Ã¡vel",
      "S E",
      "Ġre lev",
      "Ġ Ġ",
      "ĠRÃ¡ dio",
      "el lo",
      "Ġc ivil",
      "ĠB A",
      "Ġm ag",
      "Ġsuc esso",
      "ĠJ orge",
      "Ġgu erra",
      "ĠmÃ¡ x",
      "em ia",
      "Ġhom ens",
      "Ġviol Ãªncia",
      "ĠV ic",
      "Ġex ame",
      "Ġat endimento",
      "Ġprov is",
      "Ġ ................",
      "Ġinclu indo",
      "Ġcor respon",
      "ĠS istema",
      "Ġcheg ar",
      "ĠO R",
      "Ġb Ã¡s",
      "Ġserv idores",
      "ĠL ima",
      "ĠIn d",
      "ĠM undial",
      "Ġe feitos",
      "Ġag rav",
      "Ġreg ular",
      "m en",
      "ĠAdminist raÃ§Ã£o",
      "Ġnenh uma",
      "Ġprote Ã§Ã£o",
      "Ġb o",
      "il e",
      "ĠMed ida",
      "Ġmant er",
      "Ġrel ig",
      "Ġt ram",
      "ĠÃºlt imos",
      "ĠJ e",
      "Ġcon se",
      "Ġexecut ar",
      "Ġmod elo",
      "in gu",
      "Ġac us",
      "Ġl ista",
      "\", \"",
      "Ġdivers as",
      "ĠPA ULO",
      "201 9",
      "ei os",
      "Ġf ase",
      "le ta",
      "t al",
      "Ġmater ial",
      "IC O",
      "ĠpÃ¡g ina",
      "ÃŃ amos",
      "Ġprofiss ionais",
      "ĠIntern acional",
      "ĠE ra",
      "ĠAm b",
      "ĠâĢ ĺ",
      "Ġb r",
      "ĠMend es",
      "P A",
      "EI RO",
      "I n",
      "ĠJo hn",
      "Ġapos ent",
      "Ġant er",
      "Ãªm io",
      "Ġcom um",
      "Ġinf lu",
      "ĠS o",
      "Ġpert enc",
      "Ġgost aria",
      "Ġel em",
      "Ã©l io",
      "re l",
      "ĠProvis Ã³ria",
      "Ġop in",
      "de u",
      "n er",
      "on as",
      "ĠMINIST RO",
      "ĠV ol",
      "D ES",
      "Ġqu is",
      "Ġconstitucional idade",
      "Ġcapac idade",
      "ÃŃc ias",
      "ĠH ar",
      "Ġm ora",
      "et er",
      "Ġfin s",
      "ĠP ra",
      "Ġaqu eles",
      "ĠT udo",
      "ĠFE DE",
      "Ġterrit Ã³rio",
      "Ġa us",
      "Ġra p",
      "lo rest",
      "S S",
      "s Ãµes",
      "art amento",
      "Ġal un",
      "ĠN esse",
      "Ġ199 9",
      "Ġfil hos",
      "Ġpop ular",
      "Ġre duÃ§Ã£o",
      "Ġe feito",
      "ĠF und",
      "ĠprincÃŃp io",
      "ist os",
      "ĠG ar",
      "ĠA inda",
      "ul ado",
      "Ġ6 0",
      "Ã© u",
      "rup Ã§Ã£o",
      "Ġbene fic",
      "ĠS RA",
      "Ġvot ar",
      "Ġ4 5",
      "ĠP s",
      "9 6",
      "id ado",
      "Ġest udo",
      "itu de",
      "4 0",
      "le y",
      "IS LA",
      "ĠQ ual",
      "ĠBrasil eira",
      "201 7",
      "ir Ã¡",
      "ĠS essÃµes",
      "Ġprogram as",
      "Ġnat ural",
      "p ac",
      "8 5",
      "Ġent idades",
      "ĠPa ul",
      "y a",
      "Ġimporta ntes",
      "ĠAn g",
      "Ġg estÃ£o",
      "f o",
      "en os",
      "ĠtÃ©c n",
      "C U",
      "Ġaut om",
      "ĠAD V",
      "Ġlib erdade",
      "Ġm us",
      "ĠP m",
      "Ġcol et",
      "Ġtit ular",
      "is Ãµes",
      "a res",
      "Ġs ist",
      "ĠH um",
      "Ġpos ter",
      "ĠCom issÃµes",
      "o pera",
      "ĠLEG ISLA",
      "V IS",
      "id icidade",
      "Ġaqu ele",
      "ĠAc ho",
      "Ġam igo",
      "Ġver dad",
      "is Ã³d",
      "ĠS AN",
      "Ġliv re",
      "es e",
      "ĠD is",
      "ĠF undo",
      "Ġcont e",
      "ĠH e",
      "ĠAl g",
      "ĠdÃ©c ada",
      "Ġver sÃ£o",
      "Ġsub stituiÃ§Ã£o",
      "Ġmov imento",
      "ĠB ra",
      "Ġur b",
      "S A",
      "il iar",
      "ĠDEP U",
      "Ġmil itar",
      "Ġcresc imento",
      "ĠWik ip",
      "ĠJ ul",
      "Ġt ribun",
      "lus Ã£o",
      "Ġat os",
      "OR DIN",
      "ĠP EC",
      "Ġen g",
      "ura is",
      "k s",
      "at er",
      "v am",
      "ĠprÃ³x imo",
      "ĠL o",
      "ĠT UR",
      "ei Ã§Ãµes",
      "! !",
      "ĠCam pos",
      "Ġhip Ã³tes",
      "AR DO",
      "Ġsub stitu",
      "ĠEXTRA ORDIN",
      "Ġ3 3",
      "co nt",
      "Ã©d io",
      "Ġt ais",
      "Ġ 01",
      "ĠPm dbP",
      "Ġest avam",
      "Ġf orte",
      "Ġun ivers",
      "ĠL t",
      "ĠS c",
      "Ġcontr Ã¡rio",
      "Ġfund amental",
      "Ġev ento",
      "rÃ¡f ico",
      "Ġcamp anha",
      "Ġpres entes",
      "C om",
      "Ġmu ita",
      "ar i",
      "ĠE N",
      "Ã©t ica",
      "id enc",
      "ICA ÃĩÃĥO",
      "Ã©rc ito",
      "ĠA C",
      "ĠeconÃ´m ica",
      "Ġad m",
      "n ior",
      "Ġrec up",
      "Ġ3 6",
      "Ġde la",
      "ĠorÃ§ ament",
      "Ġass ist",
      "n Ã£o",
      "Ġdif ÃŃc",
      "idera nÃ§a",
      "ri as",
      "ĠS Ã©r",
      "y s",
      "Ġn inguÃ©m",
      "Ġap ont",
      "Ã©ri as",
      "ĠTod os",
      "du stria",
      "un g",
      "Ġr isco",
      "Ġap ren",
      "Ġtrat amento",
      "ĠG ab",
      "Ġter Ã¡",
      "RA DO",
      "ĠM al",
      "ir ma",
      "Ġcam inho",
      "Ġapro xim",
      "Ġab sol",
      "Ġapres entar",
      "Ġfal a",
      "Ġ3 8",
      "Ġadminist raÃ§Ã£o",
      "ĠnÂº s",
      "H OR",
      "Ġm encion",
      "iz ados",
      "vol uÃ§Ã£o",
      "Ġespecial mente",
      "ar m",
      "Ġinteg ra",
      "Ġcent ro",
      "Ġm ult",
      "Ġson ora",
      "I X",
      "Ġorgan izaÃ§Ã£o",
      "Ġ &",
      "Ġl ÃŃn",
      "ĠM eu",
      "ĠlanÃ§ ado",
      "Ġin stituiÃ§Ã£o",
      "Ġc urso",
      "Ġpass ar",
      "ĠS am",
      "ra cia",
      "Ġp ri",
      "ĠI l",
      "ĠSr Âª",
      "og os",
      "Ġcont ar",
      "w n",
      "Ġpro va",
      "Ġem endas",
      "200 6",
      "p us",
      "ĠCr ist",
      "ende u",
      "ĠV ossa",
      "Ġb ol",
      "Ġreceb er",
      "Ġaju da",
      "ag e",
      "Ġsign ifica",
      "ĠB r",
      "Ġs enho",
      "ĠFEDE RAL",
      "Ġinteres s",
      "ĠTem er",
      "ĠLt da",
      "ĠF ranÃ§a",
      "ĠEm b",
      "ĠL Ãº",
      "f l",
      "ura Ã§Ã£o",
      "ĠJÃº nior",
      "ĠA ta",
      "Ġb eb",
      "dad es",
      "g on",
      "Ġam or",
      "Ġob t",
      "Ġl at",
      "Ġev ent",
      "Ġpro posiÃ§Ã£o",
      "ab ilidade",
      "ita res",
      "qu ia",
      "ĠTUR MA",
      "ut enÃ§Ã£o",
      "Ġpronunc iamento",
      "Ġt oc",
      "Ġpar Ã¡grafo",
      "Ġsus p",
      "ich el",
      "Ġofe rec",
      "ĠD OS",
      "Ġautor izaÃ§Ã£o",
      "Ġm ic",
      "n os",
      "Ġac Ã³rdÃ£o",
      "Ġder ro",
      "ĠRib eiro",
      "h es",
      "Ġur g",
      "Ã© ia",
      "ra to",
      "ĠSup erior",
      "ĠVo to",
      "Ġlic it",
      "Ġcomp rov",
      "7 5",
      "ĠHo je",
      "c as",
      "Ġajud ar",
      "Ġd ig",
      "ĠAlex and",
      "Ġus ar",
      "Ġamb iente",
      "Ġb al",
      "ĠCent ro",
      "ĠF ac",
      "u nt",
      "ÃŃd os",
      "Ġdoc um",
      "ĠS te",
      "Ġconte Ãº",
      "Ã¢n ia",
      "Ġdes sas",
      "Ġh osp",
      "Ġsu je",
      "Ġdo min",
      "ĠSEN HOR",
      "re r",
      "ĠPara n",
      "um e",
      "Ġpr isÃ£o",
      "Ġm Ã£o",
      "Ġd ÃŃ",
      "Ġbas tante",
      "Ġnov amente",
      "it ivo",
      "ĠT enho",
      "r itos",
      "Ġexpl ic",
      "Ġal em",
      "ĠEst ad",
      "Ġp ais",
      "Ġ5 5",
      "' s",
      "Ġl o",
      "ĠT o",
      "Ġdesta que",
      "ĠParlam entar",
      "ĠSecret Ã¡rio",
      "Ġdia nte",
      "pl et",
      "Ġ3 2",
      "Ġas pec",
      "Ġatu aÃ§Ã£o",
      "Ġcomun idade",
      "Ġneg oc",
      "Ġsa ir",
      "Ġs at",
      "Ãĵ R",
      "Ġc ost",
      "om es",
      "Ġdest in",
      "Ġdesem p",
      "Ġalc anÃ§",
      "f a",
      "ĠF am",
      "Ã¡s s",
      "Ġel Ã©t",
      "Ġesc la",
      "at ion",
      "Ġapres enta",
      "Ġs i",
      "Ġide ia",
      "ĠjurÃŃd ica",
      "ĠIg reja",
      "Ġbus ca",
      "t aÃ§Ã£o",
      "Ġorig inal",
      "ot as",
      "Ġjov ens",
      "ar ina",
      "Ġpar lam",
      "j ust",
      "ĠSeg unda",
      "ert os",
      "ĠDire ito",
      "Ġ199 6",
      "a u",
      "ian do",
      "Ġsu p",
      "ĠâĢĵ ,",
      "ĠD av",
      "Ġdim inu",
      "ÃŃl ias",
      "l and",
      "Ġden om",
      "Ġ................................ ................................................................",
      "Ġcar t",
      "ĠInform Ã¡tica",
      "ĠAt Ã©",
      "T R",
      "ru d",
      "Ġexist Ãªncia",
      "Ġc at",
      "ĠEXTRAORDIN ÃģRIO",
      "ec e",
      "Ġprof esso",
      "ĠP OR",
      "Ġf undo",
      "Ġmost ra",
      "Ġre quer",
      "pren sa",
      "Ġgarant ir",
      "Ġres posta",
      "it Ã£o",
      "Ġfut uro",
      "Ġo ra",
      "Ġcump rimento",
      "Ġconv oc",
      "P residente",
      "Ġpre ju",
      "Ġcond iÃ§Ã£o",
      "Ġquest Ãµes",
      "âĢ ĳ",
      "Ġafirm ou",
      "TO S",
      "Ġconst ante",
      "v il",
      "Ġdire Ã§Ã£o",
      "ĠF al",
      "i ental",
      "Ġcu ja",
      "Ã¡t icas",
      "ĠB el",
      "Ġf atos",
      "de c",
      "Ġfinanc eira",
      "h s",
      "ĠB u",
      "ĠW ill",
      "Ġcl ube",
      "ĠEx t",
      "6 8",
      "e ta",
      "Ġre alidade",
      "Ġjur idicidade",
      "it iva",
      "at es",
      "um b",
      "ĠRE G",
      "ĠP ER",
      "ĠA po",
      "Ġm ente",
      "Ġep isÃ³d",
      "nt em",
      "t bP",
      "- -",
      "Ġreg ras",
      "et ros",
      "Ġfisc al",
      "Ġpre Ã§o",
      "ĠT om",
      "Ã¢n s",
      "er va",
      "Ġdest ru",
      "s em",
      "Ġpen al",
      "les c",
      "L OS",
      "era r",
      "ĠPre v",
      "ĠT Ã©c",
      "Ġal ta",
      "ĠG on",
      "Ġa ux",
      "Ġprim eiros",
      "ĠG ros",
      "gu as",
      "ĠT O",
      "Ġm issÃ£o",
      "io t",
      "Ġsub s",
      "Ġgru pos",
      "Ġpequ eno",
      "r b",
      "ÃŃ qu",
      "Ġjog os",
      "Ãļ BL",
      "Ġindiv id",
      "ĠEuro pa",
      "Ġdel ib",
      "il h",
      "Ġno bre",
      "M S",
      "3 2",
      "Ġdeix ou",
      "ord este",
      "ĠCON TRA",
      "Ġcomun itÃ¡ria",
      "Ġt am",
      "Ġportugu Ãªs",
      "ĠAnt Ã´nio",
      "ĠBar b",
      "TA L",
      "ĠU S",
      "Ġs ai",
      "Ġart s",
      "D U",
      "ĠM es",
      "Ã¢ns ito",
      "Ġdesen vol",
      "Ġg e",
      "Ġvol tar",
      "Ġdesign ado",
      "Ġim pres",
      "P s",
      "ĠJ US",
      "Ġv ÃŃt",
      "ĠA M",
      "port es",
      "ĠDEPU TADO",
      "Ġel abora",
      "Ãī R",
      "Ã¢ ncias",
      "Ġdeclara Ã§Ã£o",
      "Ġre la",
      "ĠF ut",
      "ĠEst at",
      "ÃŃt ulos",
      "ĠT erra",
      "ĠParan Ã¡",
      "u el",
      "Ġest es",
      "ol h",
      "A l",
      "ĠEcon Ã´m",
      "Ġcar gos",
      "Ġres sal",
      "ĠR S",
      "Ġter mo",
      "Ġacontec eu",
      "ĠA ugu",
      "Ġt enham",
      "ĠT emos",
      "Ġno ta",
      "ÃŃ rito",
      "Ã¡ st",
      "ei as",
      "Ġlev ar",
      "im idade",
      "Ġsign ific",
      "Ġat end",
      "est rutura",
      "ĠCom plementar",
      "Ġtrabalh ar",
      "ĠMinist ros",
      "Ġcham ada",
      "SO N",
      "ĠGovern ador",
      "l ia",
      "ro va",
      "Ġg al",
      "T ES",
      "Ġprest aÃ§Ã£o",
      "Ġtra tar",
      "at amente",
      "Ġf ront",
      "ĠC N",
      "Ġde pend",
      "Ġpa rec",
      "ar da",
      "ĠF el",
      "Ġconsidera do",
      "Ġret ira",
      "ĠJ OS",
      "ac o",
      "Ã¡ ter",
      "Ġloc ais",
      "at ivos",
      "Ãº ncia",
      "7 7",
      "Ġper d",
      "Ġcu jo",
      "ĠPen al",
      "il son",
      "T IN",
      "Ġ4 8",
      "Ġcient ÃŃf",
      "Ã Ĥ",
      "4 4",
      "200 3",
      "Ġam igos",
      "ÃŃ r",
      "Ġac erca",
      "T AR",
      "ĠAn exo",
      "Ġesc rit",
      "Ġc ento",
      "Ġs ho",
      "v an",
      "v en",
      "Ġapres entaÃ§Ã£o",
      "Ġl uz",
      "Ġtele visÃ£o",
      "ĠPort aria",
      "ĠC erto",
      "Ġfam ÃŃlias",
      "Ġpre para",
      "G L",
      "Ġes for",
      "ĠSÃ©r gio",
      "ĠA PR",
      "ed entes",
      "ÃģR IA",
      "ĠL ib",
      "Ġprot eg",
      "Ġraz Ãµes",
      "i Ã¡s",
      "3 1",
      "ĠSenho res",
      "Ġconform idade",
      "op es",
      "Ġimpl ant",
      "Ġpart es",
      "ific ada",
      "ĠJUS TI",
      "rat Ã©g",
      "P P",
      "Ġsegu ida",
      "c i",
      "Ġg Ãªn",
      "Ġat rÃ¡s",
      "ĠÃ į",
      "D e",
      "Ġcar Ã¡ter",
      "ÃŃm p",
      "Ġaud iÃªncia",
      "ĠdifÃŃc il",
      "ar gos",
      "or i",
      "ĠB at",
      "EL O",
      "Ġe duc",
      "ĠServi Ã§o",
      "Ġdistribu iÃ§Ã£o",
      "ĠF igu",
      "Ġcrim es",
      "a qu",
      "Ġvol t",
      "as h",
      "st ant",
      "Ġsu pl",
      "ĠAl em",
      "Ġprocess os",
      "Ġac ord",
      "j as",
      "ĠE r",
      "Ġb ens",
      "Ġoc as",
      "ĠC aval",
      "Ġco orden",
      "at Ã³ria",
      "eric ana",
      "Ġterc eiro",
      "Ġmen sa",
      "ÃŃss imo",
      "Ġdeix a",
      "Ġdoc umentos",
      "dic ional",
      "p as",
      "Ġtal vez",
      "ĠA f",
      "Ġpalav ras",
      "ĠM G",
      "Ġencont rar",
      "ĠS EG",
      "Ġprev isto",
      "it Ã¡rio",
      "ĠM ato",
      "f ÃŃcios",
      "Ġre i",
      "s im",
      "ĠSup er",
      "ĠPRO C",
      "Ġal im",
      "eg o",
      "is b",
      "d ios",
      "ĠG en",
      "Ġpro fer",
      "Ġimp ac",
      "ĠB ibl",
      "Ġman utenÃ§Ã£o",
      "Ġperc eb",
      "E X",
      "il ia",
      "u e",
      "ĠG O",
      "Ġrefer Ãªncia",
      "Ġc ategoria",
      "ĠS an",
      "es c",
      "l he",
      "Ġent endimento",
      "ĠAr g",
      "Ġinc on",
      "Ġcomb ate",
      "ĠCent ral",
      "Ġm unicÃŃpios",
      "ĠV ir",
      "i Ã¡ria",
      "ĠTra ta",
      "ĠCon ce",
      "ĠPar Ã¡grafo",
      "O f",
      "A g",
      "id Ã£o",
      "Ġc Ã³p",
      "5 5",
      "Ġescol as",
      "Ġrealiz ado",
      "Ġab ertura",
      "s ar",
      "L ei",
      "Ġ *",
      "v ent",
      "9 4",
      "t ico",
      "ib il",
      "erv aÃ§Ã£o",
      "om os",
      "ĠF a",
      "Ġsal Ã¡rio",
      "Ġh or",
      "Ġve io",
      "Ġautor idade",
      "Ġent idade",
      "b res",
      "ele Ã§Ã£o",
      "Ġprat ic",
      "ĠR on",
      "ĠCon stitu",
      "6 7",
      "ru po",
      "Ġm ec",
      "ĠSenho ra",
      "Ġdes con",
      "h an",
      "se u",
      "Ġorig in",
      "k o",
      "ĠU N",
      "ĠRe quer",
      "ĠE i",
      "Ġv iz",
      "ĠD IA",
      "âĢ ¦",
      "R J",
      "Ġel eiÃ§Ãµes",
      "U A",
      "al o",
      "m issÃ£o",
      "val ho",
      "Ġfil ha",
      "ĠW al",
      "Ġmelho res",
      "Ġc ha",
      "ĠProc esso",
      "ĠSou za",
      "u ÃŃ",
      "Ġcoloc ar",
      "Ġfec h",
      "Ġcel eb",
      "200 4",
      "ĠDJ e",
      "ĠLoc alidades",
      "ĠCel so",
      "ĠApo io",
      "ul ta",
      "Ġaprov ada",
      "Ġper to",
      "Ġempre go",
      "ĠM aran",
      "R EG",
      "i adas",
      "e to",
      "ĠC ha",
      "ent ado",
      "p ro",
      "Ġ199 1",
      "Ġdiz endo",
      "g ar",
      "ĠG lob",
      "Ġconqu ist",
      "ĠOr Ã§",
      "ing ton",
      "Ġcap az",
      "ranc o",
      "l io",
      "ĠG omes",
      "ĠRIC D",
      "ol d",
      "u co",
      "Ġv oc",
      "Ġ [",
      "Ġtribun a",
      "Ġestud os",
      "Ġopera Ã§Ã£o",
      "Ġgarant ia",
      "Ġdire tor",
      "Ġinstr umento",
      "Ġent rar",
      "Ġcan Ã§Ã£o",
      "Ġf eliz",
      "Ġrec om",
      "Ġorgan iz",
      "ĠGros so",
      "dic e",
      "Ġcom plet",
      "ĠL opes",
      "Ġinc ent",
      "Ġp ud",
      "Ġsub met",
      "pe Ã£o",
      "ĠconteÃº do",
      "BER TO",
      "ĠM ora",
      "Ġalt ern",
      "Ġcr ÃŃt",
      "Ġqu il",
      "ĠC ruz",
      "ĠA qui",
      "el son",
      "Ġal to",
      "c ios",
      "Ġrepres enta",
      "og ia",
      "Ġhum anos",
      "Ġel eiÃ§Ã£o",
      "ĠPrim eiro",
      "Ġpro mo",
      "Ġfaz em",
      "Ġint erv",
      "Ġap esar",
      "ĠMinist ra",
      "Ġmil itares",
      "h ur",
      "ĠCon f",
      "v ista",
      "Ġs ens",
      "Ġv ÃŃde",
      "Ġam ea",
      "Ġpartic ular",
      "or k",
      "ĠM unicipal",
      "on el",
      "ÃŃ du",
      "ÃŃ nc",
      "ĠI r",
      "Ġesc rito",
      "Ã¡l ia",
      "Ġt ot",
      "L O",
      "Ġut ilizaÃ§Ã£o",
      "Ġreg iÃµes",
      "Ġap ens",
      "r ÃŃc",
      "inh am",
      "por to",
      "ĠRoc ha",
      "Ġcabe Ã§a",
      "ĠSub stitutivo",
      "Ġm undial",
      "ĠM ic",
      "lo go",
      "RA S",
      "Ġ199 5",
      "ĠP ubl",
      "Ġregul am",
      "Ġun an",
      "Ġopera Ã§Ãµes",
      "n ia",
      "ĠC e",
      "Ġap are",
      "Ã¢ nt",
      "Ġfavor Ã¡vel",
      "Ġinclus Ã£o",
      "ĠPor que",
      "Ġv inc",
      "dustria l",
      "b y",
      "Ġest at",
      "I ÃĩÃķES",
      "ĠC orre",
      "j os",
      "ÃŃd io",
      "el os",
      "ÃŃ a",
      "ĠO c",
      "Ġm em",
      "Ġconf irm",
      "ĠM erc",
      "j eiÃ§Ã£o",
      "Ãº c",
      "Ġad vog",
      "anho u",
      "Ġconsegu iu",
      "Ġpe Ã§o",
      "ĠRel atÃ³rio",
      "Ġmet ros",
      "Ġresult ados",
      "ĠO fÃŃcio",
      "Ġaus Ãªncia",
      "Ġpoder Ã£o",
      "Ġ7 0",
      "Ġacab ou",
      "Ġde dic",
      "ĠCat arina",
      "Ãªnc io",
      "Ġro do",
      "ĠParlam entares",
      "m ina",
      "Ġnos sas",
      "ĠJ a",
      "Ġb and",
      "Ġd ado",
      "Ġparticip ar",
      "Ġjov em",
      "k y",
      "N O",
      "Pa usa",
      "Ġpa re",
      "Ġconhec ida",
      "Ġalun os",
      "t c",
      "ĠH a",
      "Ġfal ando",
      "Ġexclus ividade",
      "id es",
      "ĠI M",
      "ĠeconÃ´m ico",
      "Ġ â",
      "ol i",
      "Ġaqu ela",
      "ĠJ udic",
      "rit Ã¢n",
      "Ġun idades",
      "Ġinvest imentos",
      "Ġconf l",
      "ĠJ ust",
      "ipl om",
      "me ida",
      "s ion",
      "x e",
      "av elmente",
      "Ġcol eg",
      "ÃŃ b",
      "ĠL ista",
      "ĠFigu ei",
      "Ġse te",
      "b ol",
      "Ġent end",
      "ĠLU IZ",
      "rim Ã´nio",
      "Ġo ito",
      "ĠSeg ura",
      "ĠN at",
      "I ÃĥO",
      "Ġdiscut ir",
      "Ġt ab",
      "ĠCon v",
      "ĠD i",
      "ĠAr n",
      "Ġim prensa",
      "ĠEst amos",
      "ĠCONSTITU IÃĩÃĥO",
      "ĠJ un",
      "Ġneg Ã³",
      "ĠpolÃŃt icos",
      "ĠCAR LOS",
      "f il",
      "Ġhab il",
      "Ġtorn ar",
      "ĠT or",
      "Ġjust ific",
      "Ġapro ve",
      "Ġirm Ã£o",
      "T ER",
      "c ulo",
      "r or",
      "R ETO",
      "Ġ1 19",
      "ios o",
      "Ġrequis itos",
      "Ġb on",
      "Ġanal is",
      "Ġout or",
      "ĠB R",
      "ĠDE SP",
      "Ġpl enÃ¡rio",
      "ĠMaran hÃ£o",
      "ĠM P",
      "ĠAp esar",
      "Ġs ite",
      "8 7",
      "Ġbanc ada",
      "Ġpergu nt",
      "ĠAl meida",
      "Ġt ecn",
      "of f",
      "Ġ3 4",
      "ĠUn ivers",
      "Ġinic ial",
      "id aÃ§Ã£o",
      "ĠU SP",
      "ĠF e",
      "Ġcom igo",
      "ĠPar Ã¡",
      "ĠM EN",
      "Ġrev ista",
      "Ġest rang",
      "Ġex atamente",
      "Ã³ st",
      "n d",
      "Ġv isto",
      "in ente",
      "ĠL ou",
      "ĠAR T",
      "Ġcom em",
      "el ar",
      "ĠprincÃŃp ios",
      "Ġcont as",
      "ĠRodri gues",
      "ĠP es",
      "9 1",
      "Ġdiv id",
      "ir ia",
      "Ġh er",
      "Ġp int",
      "ÃŃ z",
      "% .",
      "Ġinter ior",
      "ĠComun itÃ¡ria",
      "Ġta xa",
      "Ġes s",
      "ĠAr m",
      "Ġdifere nte",
      "isb oa",
      "ram a",
      "ador ia",
      "Ġdes af",
      "Ġac ha",
      "Ġex ib",
      "Ġmed ic",
      "ĠJOS Ãī",
      "C I",
      "Ġg aro",
      "% ,",
      "ÃŃd as",
      "Ġil ust",
      "Ġf ab",
      "Ġpre Ã§os",
      "ĠA h",
      "Ġant ec",
      "Ġem erg",
      "Ġsol uÃ§Ã£o",
      "Ġf irm",
      "Ġpri or",
      "ĠJ O",
      "Ġdire ta",
      "Ġv aria",
      "Ġb aixo",
      "Ġp s",
      "re u",
      "p rud",
      "ĠRodri go",
      "Ġcol abora",
      "ĠM on",
      "ĠF isc",
      "Ġperm issÃ£o",
      "ĠOn de",
      "Ġcontribu iÃ§Ã£o",
      "ifica Ã§Ãµes",
      "Apens ado",
      "Ġ8 0",
      "ĠNe w",
      "reve u",
      "ĠP ad",
      "Ġmud anÃ§a",
      "Ġind ÃŃg",
      "l amento",
      "ÃŃde res",
      "A G",
      "ĠJ es",
      "Ġoutor ga",
      "ĠCar valho",
      "ĠQu er",
      "it ais",
      "ian Ã§a",
      "ec eu",
      "ĠH el",
      "Ġl av",
      "Ġha ja",
      "E D",
      "Ġsegu ir",
      "v idas",
      "ĠM i",
      "pos s",
      "ĠS ch",
      "ĠVal e",
      "i ed",
      "ĠR IO",
      "Ġautor iza",
      "ĠveÃŃc ulos",
      "re to",
      "Ġestad ual",
      "Ġrem un",
      "n g",
      "ĠM O",
      "Ġre jeiÃ§Ã£o",
      "Ġba ir",
      "ĠdÃº vida",
      "m ent",
      "Ġp un",
      "Ġcl ara",
      "N IO",
      "and ro",
      "ĠT eix",
      "ĠConce do",
      "( (",
      "Ã§ am",
      "Ġpro postas",
      "ĠH om",
      "Ġpublic ado",
      "g as",
      "ĠAugu sto",
      "Ġdisc ipl",
      "ĠRE CE",
      "Ġcontinu ar",
      "f in",
      "Ġo ntem",
      "ĠeletrÃ´n ico",
      "Ġv Ãª",
      "ĠReg iÃ£o",
      "ĠEsc ola",
      "ĠprÃ³x ima",
      "Ġleg ais",
      "ram ente",
      "Ġpor ta",
      "ĠN ordeste",
      "h i",
      "d iÃ§Ã£o",
      "ĠRes ol",
      "Ġcria nÃ§a"
    ]
  }
}