{
  "version": "1.0",
  "truncation": {
    "direction": "Right",
    "max_length": 1024,
    "strategy": "LongestFirst",
    "stride": 0
  },
  "padding": null,
  "added_tokens": [
    {
      "id": 0,
      "content": "[PAD]",
      "single_word": false,
      "lstrip": false,
      "rstrip": false,
      "normalized": false,
      "special": true
    },
    {
      "id": 1,
      "content": "[SEP]",
      "single_word": false,
      "lstrip": false,
      "rstrip": false,
      "normalized": false,
      "special": true
    },
    {
      "id": 2,
      "content": "[EOS]",
      "single_word": false,
      "lstrip": false,
      "rstrip": false,
      "normalized": false,
      "special": true
    },
    {
      "id": 3,
      "content": "[UNK]",
      "single_word": false,
      "lstrip": false,
      "rstrip": false,
      "normalized": false,
      "special": true
    }
  ],
  "normalizer": {
    "type": "Sequence",
    "normalizers": [
      {
        "type": "Strip",
        "strip_left": true,
        "strip_right": true
      },
      {
        "type": "NFC"
      }
    ]
  },
  "pre_tokenizer": {
    "type": "ByteLevel",
    "add_prefix_space": true,
    "trim_offsets": true,
    "use_regex": true
  },
  "post_processor": {
    "type": "Sequence",
    "processors": [
      {
        "type": "ByteLevel",
        "add_prefix_space": true,
        "trim_offsets": true,
        "use_regex": true
      },
      {
        "type": "TemplateProcessing",
        "single": [
          {
            "Sequence": {
              "id": "A",
              "type_id": 0
            }
          },
          {
            "SpecialToken": {
              "id": "[EOS]",
              "type_id": 0
            }
          }
        ],
        "pair": [
          {
            "Sequence": {
              "id": "A",
              "type_id": 0
            }
          },
          {
            "SpecialToken": {
              "id": "[SEP]",
              "type_id": 0
            }
          },
          {
            "Sequence": {
              "id": "B",
              "type_id": 0
            }
          },
          {
            "SpecialToken": {
              "id": "[EOS]",
              "type_id": 0
            }
          }
        ],
        "special_tokens": {
          "[EOS]": {
            "id": "[EOS]",
            "ids": [
              2
            ],
            "tokens": [
              "[EOS]"
            ]
          },
          "[SEP]": {
            "id": "[SEP]",
            "ids": [
              1
            ],
            "tokens": [
              "[SEP]"
            ]
          }
        }
      }
    ]
  },
  "decoder": {
    "type": "ByteLevel",
    "add_prefix_space": true,
    "trim_offsets": true,
    "use_regex": true
  },
  "model": {
    "type": "Unigram",
    "unk_id": 3,
    "vocab": [
      [
        "[PAD]",
        0.0
      ],
      [
        "[SEP]",
        0.0
      ],
      [
        "[EOS]",
        0.0
      ],
      [
        "[UNK]",
        0.0
      ],
      [
        "Ġ",
        -1.7316561025686106
      ],
      [
        ",",
        -3.2130839740075743
      ],
      [
        "s",
        -3.387710956153917
      ],
      [
        "a",
        -3.4197971651308983
      ],
      [
        ".",
        -3.4349827036255647
      ],
      [
        "o",
        -3.473068481038876
      ],
      [
        "Ġde",
        -3.588833480913163
      ],
      [
        "e",
        -3.6302220253866544
      ],
      [
        "-",
        -4.509015817802684
      ],
      [
        "Ġdo",
        -4.56207373720277
      ],
      [
        "Ġque",
        -4.569759475344178
      ],
      [
        "Ġda",
        -4.762190072748666
      ],
      [
        "u",
        -4.877401643554052
      ],
      [
        "i",
        -5.1081865155031885
      ],
      [
        "m",
        -5.123165180698695
      ],
      [
        "Ġem",
        -5.1435936548606165
      ],
      [
        "\"",
        -5.189459115288798
      ],
      [
        ")",
        -5.245984179663605
      ],
      [
        "(",
        -5.250909528820163
      ],
      [
        "r",
        -5.252149573931675
      ],
      [
        "Ġpara",
        -5.357718196398718
      ],
      [
        "O",
        -5.36840455137699
      ],
      [
        "A",
        -5.394679507833899
      ],
      [
        "d",
        -5.479717848624183
      ],
      [
        "n",
        -5.502176229731603
      ],
      [
        "Ġcom",
        -5.508720917166059
      ],
      [
        "Ġno",
        -5.554631896786379
      ],
      [
        ":",
        -5.674513685309931
      ],
      [
        "/",
        -5.71787033083765
      ],
      [
        "ĠâĢĵ",
        -5.730109554871243
      ],
      [
        "l",
        -5.778371863875069
      ],
      [
        "ĠÃ©",
        -5.7804290584837705
      ],
      [
        "Ġna",
        -5.785938960261298
      ],
      [
        "Ġum",
        -5.791350492451102
      ],
      [
        "ĠnÃ£o",
        -5.8144706929922005
      ],
      [
        "t",
        -5.861548805095474
      ],
      [
        "c",
        -5.923395373656634
      ],
      [
        "Ġuma",
        -5.957642359421689
      ],
      [
        "Ġpor",
        -5.97440408724048
      ],
      [
        "S",
        -6.088685541732692
      ],
      [
        "p",
        -6.238040729234404
      ],
      [
        "E",
        -6.266982030208975
      ],
      [
        "ĠÃł",
        -6.3344764123844595
      ],
      [
        "Ġdos",
        -6.343926142550414
      ],
      [
        "?",
        -6.3443904146267815
      ],
      [
        "Ġcomo",
        -6.345842215845741
      ],
      [
        "Ġfoi",
        -6.4695914490449695
      ],
      [
        "1",
        -6.538280147694593
      ],
      [
        "!",
        -6.546452276473133
      ],
      [
        "Ã§Ã£o",
        -6.546631718912208
      ],
      [
        "Ġmais",
        -6.546843956430868
      ],
      [
        "b",
        -6.652136417737212
      ],
      [
        "g",
        -6.6618192901557585
      ],
      [
        ";",
        -6.672021574333904
      ],
      [
        "Ġpela",
        -6.694727082842668
      ],
      [
        "ĠnÂº",
        -6.71403229309036
      ],
      [
        "ĠDE",
        -6.725946740439417
      ],
      [
        "ndo",
        -6.752330609870702
      ],
      [
        "Ġpelo",
        -6.763269535891091
      ],
      [
        "P",
        -6.766789666313402
      ],
      [
        "2",
        -6.772917749653882
      ],
      [
        "C",
        -6.787639356725078
      ],
      [
        "Ġsua",
        -6.787786720554754
      ],
      [
        "I",
        -6.825135855068934
      ],
      [
        "h",
        -6.837192376039932
      ],
      [
        "ĠSr",
        -6.848518835929676
      ],
      [
        "Âº",
        -6.858836144498836
      ],
      [
        "Ġdas",
        -6.861323789578284
      ],
      [
        "R",
        -6.866203847251581
      ],
      [
        "Ġser",
        -6.880352044026143
      ],
      [
        "f",
        -6.917320412169211
      ],
      [
        "Ġsobre",
        -6.925800859598388
      ],
      [
        "...",
        -6.971877668171468
      ],
      [
        "................",
        -6.999578018443691
      ],
      [
        "dos",
        -7.00878523557652
      ],
      [
        "ĠâĢľ",
        -7.022553446031267
      ],
      [
        "D",
        -7.02493863306422
      ],
      [
        "3",
        -7.028031327851323
      ],
      [
        "Ġseu",
        -7.042086285877765
      ],
      [
        "ĠPresidente",
        -7.088291928455666
      ],
      [
        "ĠestÃ¡",
        -7.092108678345014
      ],
      [
        "ĠNÃ£o",
        -7.109497534680157
      ],
      [
        "ĠtambÃ©m",
        -7.115818177465965
      ],
      [
        "v",
        -7.134755236091058
      ],
      [
        "ĠLei",
        -7.1395494331314655
      ],
      [
        "ĠEm",
        -7.16209187467347
      ],
      [
        "T",
        -7.218900478127493
      ],
      [
        "ĠDeputado",
        -7.223856269606156
      ],
      [
        "Ã£o",
        -7.229219588331729
      ],
      [
        "Ġmas",
        -7.235225899707615
      ],
      [
        "de",
        -7.244180025198208
      ],
      [
        "Ġtem",
        -7.248129268402952
      ],
      [
        "V",
        -7.250785671645158
      ],
      [
        "y",
        -7.256520772308619
      ],
      [
        "5",
        -7.272590905725334
      ],
      [
        "4",
        -7.290566656966652
      ],
      [
        "Ġnos",
        -7.299923091194072
      ],
      [
        "mente",
        -7.312973355777716
      ],
      [
        "mos",
        -7.336967967836598
      ],
      [
        "ĠSR",
        -7.355593411354896
      ],
      [
        "das",
        -7.35636862337628
      ],
      [
        "ĠFederal",
        -7.374923674533365
      ],
      [
        "Ã©",
        -7.378943518963744
      ],
      [
        "Ġele",
        -7.381055585427381
      ],
      [
        "Ġart",
        -7.384060479882841
      ],
      [
        "ĠÃī",
        -7.390494689872717
      ],
      [
        "L",
        -7.394035830464443
      ],
      [
        "M",
        -7.423133042462572
      ],
      [
        "ĠNÂº",
        -7.430224683217507
      ],
      [
        "ĠSenador",
        -7.435752985012025
      ],
      [
        "ĠEstado",
        -7.436839777861573
      ],
      [
        "ĠBrasil",
        -7.437166462715824
      ],
      [
        "Ġisso",
        -7.447890653095314
      ],
      [
        "ĠsÃ£o",
        -7.462074944207311
      ],
      [
        "F",
        -7.488389098672743
      ],
      [
        "ĠvocÃª",
        -7.501695485411705
      ],
      [
        "Ġentre",
        -7.503844934551749
      ],
      [
        "ĠEu",
        -7.515077780588257
      ],
      [
        "Ġmuito",
        -7.519559424841274
      ],
      [
        "k",
        -7.522729266646708
      ],
      [
        "B",
        -7.54237597369694
      ],
      [
        "z",
        -7.544030346578364
      ],
      [
        "um",
        -7.545304691246304
      ],
      [
        "Ã§Ãµes",
        -7.566708152617833
      ],
      [
        "Ã¡",
        -7.569105203355312
      ],
      [
        "N",
        -7.576587908674574
      ],
      [
        "que",
        -7.5772059766290525
      ],
      [
        "%",
        -7.582079992395766
      ],
      [
        "ĠjÃ¡",
        -7.5945140495328545
      ],
      [
        "ĠatÃ©",
        -7.596969097711003
      ],
      [
        "6",
        -7.615237404335179
      ],
      [
        "Ġanos",
        -7.617071113662881
      ],
      [
        "ĠComissÃ£o",
        -7.636054311867603
      ],
      [
        "Ġbem",
        -7.667981401566774
      ],
      [
        "G",
        -7.684428620278435
      ],
      [
        "8",
        -7.71097819621354
      ],
      [
        "Ġquando",
        -7.7168529170259905
      ],
      [
        "Ġpode",
        -7.7184230252372945
      ],
      [
        "ĠNo",
        -7.737277597506592
      ],
      [
        "7",
        -7.744623071477259
      ],
      [
        "Ġforma",
        -7.745530247003927
      ],
      [
        "Ġmesmo",
        -7.745779246154175
      ],
      [
        "era",
        -7.750990285438581
      ],
      [
        "ĠNacional",
        -7.755261923244555
      ],
      [
        "Ġaqui",
        -7.764133176038538
      ],
      [
        "Ġsem",
        -7.772343539055848
      ],
      [
        "in",
        -7.797540232548924
      ],
      [
        "ĠÂ§",
        -7.799929160126339
      ],
      [
        "Ġtodos",
        -7.804901653537023
      ],
      [
        "9",
        -7.809918075802752
      ],
      [
        "Ġainda",
        -7.819275315125429
      ],
      [
        "ĠSÃ£o",
        -7.83223237336534
      ],
      [
        "Ġdia",
        -7.833014206230738
      ],
      [
        "Ġseus",
        -7.837585020905435
      ],
      [
        "ĠPor",
        -7.84427292362829
      ],
      [
        "Ġter",
        -7.861500504379816
      ],
      [
        "Ġparte",
        -7.89392174173426
      ],
      [
        "Ġforam",
        -7.898284796694705
      ],
      [
        "âĢĿ.",
        -7.907734154200897
      ],
      [
        "Ġfazer",
        -7.912971825230851
      ],
      [
        "ela",
        -7.918551877668683
      ],
      [
        "ĠPaulo",
        -7.921798995684325
      ],
      [
        "ĠOs",
        -7.92496871875389
      ],
      [
        "Ġcontra",
        -7.950414907576903
      ],
      [
        "ĠhÃ¡",
        -7.95215349985758
      ],
      [
        "ĠNa",
        -7.95608392796448
      ],
      [
        "ĠPL",
        -7.974188610576125
      ],
      [
        "Ġ10",
        -7.979203485766812
      ],
      [
        "ĠDe",
        -7.996603529399266
      ],
      [
        "ram",
        -8.001471624409229
      ],
      [
        "PRESIDENTE",
        -8.00240670913165
      ],
      [
        "Ġcidade",
        -8.006905016195796
      ],
      [
        "PROJETO",
        -8.008868608496167
      ],
      [
        "Ġtempo",
        -8.013048710209352
      ],
      [
        "J",
        -8.020708323967266
      ],
      [
        "U",
        -8.02098757978534
      ],
      [
        "Ġseja",
        -8.021801992189161
      ],
      [
        "ĠÃłs",
        -8.024194485231398
      ],
      [
        "Ġvai",
        -8.028087899708291
      ],
      [
        "idade",
        -8.029488802682172
      ],
      [
        "Ġnas",
        -8.037798396720707
      ],
      [
        "Ġmeu",
        -8.03788516405467
      ],
      [
        "Ġin",
        -8.041049722122953
      ],
      [
        "ĠSe",
        -8.045146688929414
      ],
      [
        "Ġporque",
        -8.048237253383064
      ],
      [
        "Ġesse",
        -8.048500492552307
      ],
      [
        "ĠLEI",
        -8.05361480310552
      ],
      [
        "ĠDeputados",
        -8.056499433418953
      ],
      [
        "Ġprimeiro",
        -8.065976959726079
      ],
      [
        "Ġano",
        -8.070362313090659
      ],
      [
        "ĠsÃ³",
        -8.074435839526377
      ],
      [
        "Ġesta",
        -8.078792168050033
      ],
      [
        "ĠMas",
        -8.081228981584601
      ],
      [
        "RELATOR",
        -8.089647519543588
      ],
      [
        "ĠGoverno",
        -8.092875127057644
      ],
      [
        "x",
        -8.093475049718183
      ],
      [
        "Ġessa",
        -8.10014788905121
      ],
      [
        "ĠMinistro",
        -8.103483463654644
      ],
      [
        "Ġcaso",
        -8.106166449726906
      ],
      [
        "ĠConstituiÃ§Ã£o",
        -8.113222281388898
      ],
      [
        "Ġpessoas",
        -8.119090220389625
      ],
      [
        "ĠVocÃª",
        -8.124100551749477
      ],
      [
        "ĠEle",
        -8.128659907055882
      ],
      [
        "'",
        -8.132121295997354
      ],
      [
        "Ġvez",
        -8.142544623505238
      ],
      [
        "Ġoutros",
        -8.14328379757512
      ],
      [
        "Ġgrande",
        -8.146560008616737
      ],
      [
        "Ġartigo",
        -8.146877615175399
      ],
      [
        "ĠSenhor",
        -8.148743065387187
      ],
      [
        "ĠestÃ£o",
        -8.155638162430115
      ],
      [
        "Ġapenas",
        -8.164917346221184
      ],
      [
        "Ġtrabalho",
        -8.166056337331215
      ],
      [
        "ĠCÃ¢mara",
        -8.170396406706619
      ],
      [
        "Ġoutras",
        -8.173401547311121
      ],
      [
        "Ġonde",
        -8.174994737627124
      ],
      [
        "Ġsendo",
        -8.192921781412746
      ],
      [
        "Ġdois",
        -8.19488643278126
      ],
      [
        "ĠAs",
        -8.19505105249988
      ],
      [
        "ĠnÃ³s",
        -8.195195528806748
      ],
      [
        "Âª",
        -8.19530496709704
      ],
      [
        "ĠCom",
        -8.1989108235577
      ],
      [
        "ĠRio",
        -8.209049244948623
      ],
      [
        "Ġsuas",
        -8.214408539297928
      ],
      [
        "ÃŃ",
        -8.215428174172168
      ],
      [
        "j",
        -8.219151114369097
      ],
      [
        "ĠProjeto",
        -8.23049282796644
      ],
      [
        "Ġordem",
        -8.231661746809245
      ],
      [
        "ĠII",
        -8.251648285270763
      ],
      [
        "ĠserÃ¡",
        -8.263397048612857
      ],
      [
        "ĠCasa",
        -8.26343877324424
      ],
      [
        "Ġtermos",
        -8.264804370206933
      ],
      [
        "Ġmaior",
        -8.265097714930203
      ],
      [
        "Ġminha",
        -8.268722208083405
      ],
      [
        "Ġhoje",
        -8.27032250767841
      ],
      [
        "aÃ§Ã£o",
        -8.28586408809432
      ],
      [
        "Ġmeio",
        -8.286453546182148
      ],
      [
        "Ġassim",
        -8.288536870866128
      ],
      [
        "Ġnome",
        -8.29425271659736
      ],
      [
        "Ġprojeto",
        -8.296207734440653
      ],
      [
        "ĠArt",
        -8.298451872224092
      ],
      [
        "PSDB",
        -8.30249996876805
      ],
      [
        "âĢĿ",
        -8.305324973284282
      ],
      [
        "ĠPara",
        -8.308588507783282
      ],
      [
        "Ġeste",
        -8.310033906118896
      ],
      [
        "Ġdesta",
        -8.312089513240853
      ],
      [
        "antes",
        -8.31834344844765
      ],
      [
        "li",
        -8.324764196823951
      ],
      [
        "Ġqual",
        -8.325678404619797
      ],
      [
        "Ġlei",
        -8.339453233369397
      ],
      [
        "ĠReferÃªncias",
        -8.342879374730371
      ],
      [
        "Ġprocesso",
        -8.343099516966411
      ],
      [
        "Ġdireito",
        -8.348616213173173
      ],
      [
        "Ġnosso",
        -8.349784908713934
      ],
      [
        "ĠDO",
        -8.34985983013046
      ],
      [
        "ĠSenado",
        -8.35044732494989
      ],
      [
        "Ġprimeira",
        -8.354915650953252
      ],
      [
        "ĠComo",
        -8.358333694314199
      ],
      [
        "Ġqualquer",
        -8.36522356063318
      ],
      [
        "Ġ11",
        -8.366295220189674
      ],
      [
        "Ġvida",
        -8.370983557990652
      ],
      [
        "$",
        -8.371800001693652
      ],
      [
        "ĠTribunal",
        -8.373360991908458
      ],
      [
        "ĠserviÃ§o",
        -8.386307913306696
      ],
      [
        "ĠJosÃ©",
        -8.387969847625689
      ],
      [
        "ĠâĢ¢",
        -8.392441719812874
      ],
      [
        "Ġpalavra",
        -8.393057139386228
      ],
      [
        "Ġacordo",
        -8.397313499722815
      ],
      [
        "ĠPaÃŃs",
        -8.39776523311117
      ],
      [
        "min",
        -8.397941511482939
      ],
      [
        "Ġdeste",
        -8.408796997793779
      ],
      [
        "Ġdepois",
        -8.41194725318636
      ],
      [
        "H",
        -8.413660201180912
      ],
      [
        "Ġtodo",
        -8.419410363868229
      ],
      [
        "Ġprazo",
        -8.429606353337627
      ],
      [
        "ĠMinistÃ©rio",
        -8.429888697924582
      ],
      [
        "Ġdisse",
        -8.436370127227509
      ],
      [
        "Ġcada",
        -8.437090150197832
      ],
      [
        "ĠCarlos",
        -8.454796479195796
      ],
      [
        "ĠSim",
        -8.458599548869673
      ],
      [
        "Ġex",
        -8.458741089106214
      ],
      [
        "ĠDA",
        -8.459263355120973
      ],
      [
        "ĠapÃ³s",
        -8.46196324159528
      ],
      [
        "ĠSem",
        -8.463009707803785
      ],
      [
        "ĠpÃºblica",
        -8.464671082634402
      ],
      [
        "âĢĵ",
        -8.464907818460894
      ],
      [
        "Ġagora",
        -8.465543154830042
      ],
      [
        "Ġ12",
        -8.466246873070645
      ],
      [
        "Ġsistema",
        -8.466547328975288
      ],
      [
        "Ġdeve",
        -8.474730818404396
      ],
      [
        "Ġseguinte",
        -8.47619296180257
      ],
      [
        "ter",
        -8.477803233443911
      ],
      [
        "Ġmelhor",
        -8.480473593738287
      ],
      [
        "2009",
        -8.487919238311166
      ],
      [
        "Bloco",
        -8.490410582072075
      ],
      [
        "ĠRelator",
        -8.492255605616169
      ],
      [
        "ĠÃ¡rea",
        -8.49451005926893
      ],
      [
        "ĠRepÃºblica",
        -8.494626948512998
      ],
      [
        "nos",
        -8.501627673892965
      ],
      [
        "durante",
        -8.502304675466858
      ],
      [
        "Ġdizer",
        -8.507382993673323
      ],
      [
        "Ġsegundo",
        -8.508258734830981
      ],
      [
        "...............",
        -8.514496996135646
      ],
      [
        "w",
        -8.514864000869558
      ],
      [
        "Ġ15",
        -8.515385178294554
      ],
      [
        "Ġmundo",
        -8.516928845758208
      ],
      [
        "ĠRe",
        -8.526496436759425
      ],
      [
        "ĠmatÃ©ria",
        -8.52929995806715
      ],
      [
        "ĠJustiÃ§a",
        -8.529979624709808
      ],
      [
        "ĠpÃºblico",
        -8.534421030645694
      ],
      [
        "0",
        -8.536302213584595
      ],
      [
        "Ġ20",
        -8.537041584368986
      ],
      [
        "Ġsido",
        -8.539610443489444
      ],
      [
        "Ġestava",
        -8.544699695980697
      ],
      [
        "Ġrecursos",
        -8.549612902405508
      ],
      [
        "dezembro",
        -8.55453709992853
      ],
      [
        "ĠpolÃŃtica",
        -8.555240728061143
      ],
      [
        "ÃĩÃĥO",
        -8.555971276818747
      ],
      [
        "ĠEstados",
        -8.566129768518422
      ],
      [
        "PT",
        -8.569421579872241
      ],
      [
        "decisÃ£o",
        -8.571053160540073
      ],
      [
        "uma",
        -8.571736816706288
      ],
      [
        "Ġpartir",
        -8.57290468175396
      ],
      [
        "Ġsob",
        -8.57616317306953
      ],
      [
        "11",
        -8.576349407704567
      ],
      [
        "Ġmil",
        -8.577077200328336
      ],
      [
        "ria",
        -8.577575628929043
      ],
      [
        "ĠPT",
        -8.58051997411987
      ],
      [
        "ĠtrÃªs",
        -8.582377246113198
      ],
      [
        "Ġoutro",
        -8.596392968703382
      ],
      [
        "10",
        -8.598036370239372
      ],
      [
        "_",
        -8.5983519693014
      ],
      [
        "Ġpresente",
        -8.599825626371691
      ],
      [
        "ĠentÃ£o",
        -8.601482471797356
      ],
      [
        "Ġvoto",
        -8.604322376677004
      ],
      [
        "=",
        -8.60534868410608
      ],
      [
        "Ġtudo",
        -8.60736829968041
      ],
      [
        "revisÃ£o",
        -8.615041232808135
      ],
      [
        "aÃ§Ãµes",
        -8.621717992575762
      ],
      [
        "Ġnossa",
        -8.622739272809106
      ],
      [
        "Ġgoverno",
        -8.624914467820357
      ],
      [
        "Ġdesde",
        -8.625375412213494
      ],
      [
        "Ã³",
        -8.625744903417935
      ],
      [
        "@",
        -8.626426835213408
      ],
      [
        "ĠJoÃ£o",
        -8.627062537303134
      ],
      [
        "00",
        -8.627896599878841
      ],
      [
        "Ġdias",
        -8.630109029277609
      ],
      [
        "Ġimportante",
        -8.631347243548653
      ],
      [
        "Ġpoder",
        -8.638652814268744
      ],
      [
        "ES",
        -8.640199168508161
      ],
      [
        "ĠpaÃŃs",
        -8.645872679692665
      ],
      [
        "ĠDo",
        -8.64614008871474
      ],
      [
        "Ġnovo",
        -8.65358578609929
      ],
      [
        "ĠIsso",
        -8.654020987027492
      ],
      [
        "ĠUniÃ£o",
        -8.655060807979483
      ],
      [
        "orador",
        -8.65996592555617
      ],
      [
        "ĠpopulaÃ§Ã£o",
        -8.66156699847792
      ],
      [
        "ĠUm",
        -8.662673126429322
      ],
      [
        "ch",
        -8.67021098184655
      ],
      [
        "Ġsempre",
        -8.67612379733994
      ],
      [
        "Ġ16",
        -8.676440878244032
      ],
      [
        "Ġinciso",
        -8.680536967674334
      ],
      [
        "Ġfinal",
        -8.681918667030176
      ],
      [
        "Ġ13",
        -8.683542078342734
      ],
      [
        "ĠPMDB",
        -8.684137543292865
      ],
      [
        "Ġvalor",
        -8.68622882008981
      ],
      [
        "Ġmomento",
        -8.688255374742466
      ],
      [
        "09",
        -8.689551116248957
      ],
      [
        "ĠrelaÃ§Ã£o",
        -8.694255892466717
      ],
      [
        "ĠnÃºmero",
        -8.694470293260924
      ],
      [
        "Ġbrasileiro",
        -8.696164282643325
      ],
      [
        "Ġduas",
        -8.698139925384632
      ],
      [
        "ĠmilhÃµes",
        -8.698594224076585
      ],
      [
        "Ġpouco",
        -8.698745299975194
      ],
      [
        "Ġ14",
        -8.698763189203712
      ],
      [
        "Ġmenos",
        -8.705845898949232
      ],
      [
        "ĠFoi",
        -8.707367569775155
      ],
      [
        "ĠEntÃ£o",
        -8.709030724014001
      ],
      [
        "Ġpelos",
        -8.709100246633827
      ],
      [
        "Congresso",
        -8.710745947141126
      ],
      [
        "Ġte",
        -8.711903362270109
      ],
      [
        "ĠdÃ¡",
        -8.712791220731068
      ],
      [
        "ĠvotaÃ§Ã£o",
        -8.715270871579577
      ],
      [
        "mento",
        -8.721192114105659
      ],
      [
        "ĠâĢĶ",
        -8.722322770437422
      ],
      [
        "aprovaÃ§Ã£o",
        -8.723708695681527
      ],
      [
        "nesta",
        -8.725354050832006
      ],
      [
        "ĠPela",
        -8.72723960633785
      ],
      [
        "Ġ17",
        -8.728249626233431
      ],
      [
        "Ãµes",
        -8.732389476465741
      ],
      [
        "com",
        -8.732732930561465
      ],
      [
        "ĠSul",
        -8.739388631871455
      ],
      [
        "ĠPoder",
        -8.74174439398915
      ],
      [
        "Ġquanto",
        -8.742680960702659
      ],
      [
        "ĠperÃŃodo",
        -8.743509889618428
      ],
      [
        "Ġcon",
        -8.746041661763977
      ],
      [
        "Ġfim",
        -8.746360775251803
      ],
      [
        "br",
        -8.751999320088448
      ],
      [
        "Ġeles",
        -8.75297906835441
      ],
      [
        "ĠlÃ¡",
        -8.75364321236071
      ],
      [
        "lado",
        -8.7554181335602
      ],
      [
        "neste",
        -8.757460145715983
      ],
      [
        "Ġ24",
        -8.75833079996234
      ],
      [
        "ĠIn",
        -8.758339590819979
      ],
      [
        "Ġpro",
        -8.760332750157206
      ],
      [
        "ĠÃºnico",
        -8.76048895743952
      ],
      [
        "ĠinformaÃ§Ãµes",
        -8.767565744395847
      ],
      [
        "ĠhistÃ³ria",
        -8.768442275076255
      ],
      [
        "ĠsaÃºde",
        -8.772799712316509
      ],
      [
        "Ġcasa",
        -8.774572278849856
      ],
      [
        "Ġtodas",
        -8.775007370939868
      ],
      [
        "Ġvezes",
        -8.77545017622317
      ],
      [
        "ĠVer",
        -8.775718239853395
      ],
      [
        "Ġproposta",
        -8.778239698377982
      ],
      [
        "Ġ18",
        -8.779102274479078
      ],
      [
        "ĠfamÃŃlia",
        -8.779999571501174
      ],
      [
        "Ġfato",
        -8.781626280520342
      ],
      [
        "Ġgrupo",
        -8.789629877601122
      ],
      [
        "Ġexemplo",
        -8.790215467448144
      ],
      [
        "Ġtinha",
        -8.790570445287226
      ],
      [
        "ĠregiÃ£o",
        -8.798158930866357
      ],
      [
        "alÃ©m",
        -8.799697065496545
      ],
      [
        "Ġconta",
        -8.800797683824582
      ],
      [
        "Ġexternas",
        -8.802664174285779
      ],
      [
        "Ġfaz",
        -8.802699531012966
      ],
      [
        "âĢĿ,",
        -8.802926791990055
      ],
      [
        "Ġfez",
        -8.803032555904702
      ],
      [
        "X",
        -8.804763755783217
      ],
      [
        "ĠquestÃ£o",
        -8.806537952047163
      ],
      [
        "Ġ30",
        -8.80819220489859
      ],
      [
        "Ġmaio",
        -8.808349643720671
      ],
      [
        "ĠEsta",
        -8.80931604805445
      ],
      [
        "LigaÃ§Ãµes",
        -8.811625668041138
      ],
      [
        "Ġquero",
        -8.816970446901847
      ],
      [
        "Ġco",
        -8.817998483518615
      ],
      [
        "ĠLuiz",
        -8.819710151746158
      ],
      [
        "Ġlugar",
        -8.823466631724298
      ],
      [
        "julho",
        -8.824157137109417
      ],
      [
        "ĠtÃªm",
        -8.826151214392388
      ],
      [
        "vi",
        -8.826433962100108
      ],
      [
        "Ġbrasileira",
        -8.826989898799042
      ],
      [
        "Ġrecurso",
        -8.827125875364032
      ],
      [
        "Ġpois",
        -8.828960580319295
      ],
      [
        "Ġato",
        -8.831964411444293
      ],
      [
        "Ġprograma",
        -8.834487635434401
      ],
      [
        "Ġdiz",
        -8.835081205846093
      ],
      [
        "Ġver",
        -8.83581460833033
      ],
      [
        "nte",
        -8.836072216977499
      ],
      [
        "Ġbase",
        -8.837508148899472
      ],
      [
        "Ġseria",
        -8.83849581912094
      ],
      [
        "ĠExÂª",
        -8.840039135015722
      ],
      [
        "Ġtoda",
        -8.840874348203343
      ],
      [
        "sentido",
        -8.842120920155114
      ],
      [
        "2015",
        -8.843904987749106
      ],
      [
        "Ġsocial",
        -8.845242624730774
      ],
      [
        "setembro",
        -8.84638208196007
      ],
      [
        "res",
        -8.846772334230888
      ],
      [
        "ESSÃĥO",
        -8.847029866572099
      ],
      [
        "Ġpovo",
        -8.849179951531221
      ],
      [
        "temos",
        -8.849833292764815
      ],
      [
        "Ġalguns",
        -8.849955640564863
      ],
      [
        "12",
        -8.852652821471034
      ],
      [
        "Ġempresa",
        -8.852833542425923
      ],
      [
        "ÃĥO",
        -8.859208921626267
      ],
      [
        "Ġtendo",
        -8.859355502708961
      ],
      [
        "Â°",
        -8.873088877894443
      ],
      [
        "Ġdata",
        -8.874771693967283
      ],
      [
        "Ġ:(",
        -8.876176190654586
      ],
      [
        "dispÃµe",
        -8.87649715064241
      ],
      [
        "PMDB",
        -8.87777270764638
      ],
      [
        "Ġcoisa",
        -8.878763285840709
      ],
      [
        "Ġsociedade",
        -8.880645763218835
      ],
      [
        "Ġ2007",
        -8.88223516966792
      ],
      [
        "Ġvou",
        -8.882627967768808
      ],
      [
        "Ġpodem",
        -8.884714554817561
      ],
      [
        "Ġmesma",
        -8.887301627842042
      ],
      [
        "Muito",
        -8.887427040283638
      ],
      [
        "fi",
        -8.88876654541611
      ],
      [
        "junho",
        -8.88905939449841
      ],
      [
        "Ġnada",
        -8.89303244082192
      ],
      [
        "Ġtenho",
        -8.896659120712718
      ],
      [
        "UTC",
        -8.896810128601894
      ],
      [
        "Ġdisso",
        -8.89722298060478
      ],
      [
        "sÃ£o",
        -8.902796227218072
      ],
      [
        "Ġnem",
        -8.904345673686867
      ],
      [
        "Ġfavor",
        -8.904945427782742
      ],
      [
        "ĠÃºltimo",
        -8.905176304936083
      ],
      [
        "art",
        -8.90685161862492
      ],
      [
        "Ġnacional",
        -8.908981876076469
      ],
      [
        "Ġnova",
        -8.909623810568418
      ],
      [
        "MA",
        -8.909752316017798
      ],
      [
        "ĠGrande",
        -8.912793786141991
      ],
      [
        "ĠVamos",
        -8.914244879621272
      ],
      [
        "Art",
        -8.917829312268525
      ],
      [
        "Ġ19",
        -8.918157782538092
      ],
      [
        "DO",
        -8.918665591318574
      ],
      [
        "Decreto",
        -8.920510294305839
      ],
      [
        "anos",
        -8.921396318022051
      ],
      [
        "Ġestou",
        -8.926508975564065
      ],
      [
        "Ġteve",
        -8.927705260237213
      ],
      [
        "Ġdesenvolvimento",
        -8.928797157294431
      ],
      [
        "Ġquais",
        -8.928869171049817
      ],
      [
        "Ġ21",
        -8.928880842357712
      ],
      [
        "ĠPR",
        -8.934963739887428
      ],
      [
        "Ġestado",
        -8.937662572741212
      ],
      [
        "Exa",
        -8.94112304988884
      ],
      [
        "2013",
        -8.942143503840898
      ],
      [
        "Ġcausa",
        -8.944635805326623
      ],
      [
        "Ġoutra",
        -8.948750529790928
      ],
      [
        "ĠtÃ£o",
        -8.949290524689163
      ],
      [
        "Ġbom",
        -8.957376309358201
      ],
      [
        "Ġ2008",
        -8.96033150227412
      ],
      [
        "Ġconstitucional",
        -8.9611149739526
      ],
      [
        "ĠmarÃ§o",
        -8.961976336648645
      ],
      [
        "Ġ2006",
        -8.963895320125223
      ],
      [
        "ĠSanta",
        -8.965778979502547
      ],
      [
        "ĠJaneiro",
        -8.966128266785303
      ],
      [
        "Ġsei",
        -8.96726006132432
      ],
      [
        "Ġagosto",
        -8.96814055225904
      ],
      [
        "Ġoutubro",
        -8.968411548349264
      ],
      [
        "Ġpra",
        -8.969471200295198
      ],
      [
        "and",
        -8.970832196199433
      ],
      [
        "ing",
        -8.971781091825555
      ],
      [
        "Ġfor",
        -8.973479522156069
      ],
      [
        "Ġ23",
        -8.976687823030025
      ],
      [
        "ver",
        -8.977266638295935
      ],
      [
        "ĠEla",
        -8.978851966823443
      ],
      [
        "Ġpessoa",
        -8.979373512453877
      ],
      [
        "2011",
        -8.982268270720308
      ],
      [
        "ĠQue",
        -8.986508107182186
      ],
      [
        "ĠK",
        -8.98655053132611
      ],
      [
        "Ġtexto",
        -8.990205001930155
      ],
      [
        "ĠCo",
        -8.9916135705844
      ],
      [
        "Ġhavia",
        -8.992979308079514
      ],
      [
        "Ġ25",
        -8.99329710016786
      ],
      [
        "serviÃ§os",
        -8.999101735456515
      ],
      [
        "Ġmedida",
        -8.999527145884109
      ],
      [
        "Ġ22",
        -8.999628666756697
      ],
      [
        "Ġdessa",
        -9.000936420712078
      ],
      [
        "K",
        -9.004246573910628
      ],
      [
        "Ġempresas",
        -9.00514362153896
      ],
      [
        "Ġestar",
        -9.006323770404215
      ],
      [
        "05",
        -9.009348789173291
      ],
      [
        "Ġabril",
        -9.010014701526876
      ],
      [
        "Ġjaneiro",
        -9.010819730144226
      ],
      [
        "Ġtipo",
        -9.01104442409472
      ],
      [
        "habitantes",
        -9.0132595103231
      ],
      [
        "Ġprincipal",
        -9.013535798276871
      ],
      [
        "ĠIII",
        -9.014498599335028
      ],
      [
        "15",
        -9.015053858412031
      ],
      [
        "://",
        -9.016637082538756
      ],
      [
        "Ġdesse",
        -9.017523598677048
      ],
      [
        "iz",
        -9.017788051741192
      ],
      [
        "ĠEduardo",
        -9.020191770138604
      ],
      [
        "Ġtrata",
        -9.021457761582594
      ],
      [
        "Ġ2009",
        -9.022156704164429
      ],
      [
        "Ġnovembro",
        -9.022327901470574
      ],
      [
        "000",
        -9.023806302219583
      ],
      [
        "ĠcondiÃ§Ãµes",
        -9.030311655359116
      ],
      [
        "Ġsemana",
        -9.033811541355243
      ],
      [
        "Ġfalar",
        -9.034272527894904
      ],
      [
        "ĠPARECER",
        -9.035095698299784
      ],
      [
        "ĠsituaÃ§Ã£o",
        -9.036615133308644
      ],
      [
        "ĠseguranÃ§a",
        -9.041204323371687
      ],
      [
        "NÃ³s",
        -9.042131506182807
      ],
      [
        "MunicÃŃpio",
        -9.042891735944876
      ],
      [
        "Z",
        -9.04721845143352
      ],
      [
        "Ġpresidente",
        -9.047434086220116
      ],
      [
        "ĠproduÃ§Ã£o",
        -9.048007927133824
      ],
      [
        "Ġsabe",
        -9.050332400250824
      ],
      [
        "estamos",
        -9.050873978263857
      ],
      [
        "ĠEste",
        -9.051253161903206
      ],
      [
        "ĠmunicÃŃpio",
        -9.053358326376255
      ],
      [
        "ĠSala",
        -9.059514229512036
      ],
      [
        "Ġtanto",
        -9.06172893372058
      ],
      [
        "Ġ2011",
        -9.062534553825756
      ],
      [
        "ĠEstÃ¡",
        -9.064288773083994
      ],
      [
        "ĠCon",
        -9.066991835953491
      ],
      [
        "PSB",
        -9.066996909184091
      ],
      [
        "Ġ2010",
        -9.07032221066044
      ],
      [
        "tra",
        -9.070717472787894
      ],
      [
        "Ġ2005",
        -9.071954541089486
      ],
      [
        "qui",
        -9.07319321434886
      ],
      [
        "ĠEmenda",
        -9.073308456251954
      ],
      [
        "ĠEssa",
        -9.075835259424991
      ],
      [
        "Regimento",
        -9.076829011173327
      ],
      [
        "03",
        -9.08014910043802
      ],
      [
        "Ġvolta",
        -9.082720084162462
      ],
      [
        "ando",
        -9.086114725941773
      ],
      [
        "cio",
        -9.088046739192764
      ],
      [
        "cia",
        -9.08846318903076
      ],
      [
        "Ġverdade",
        -9.089593661949172
      ],
      [
        "Ġenquanto",
        -9.090728092939507
      ],
      [
        "ĠEsse",
        -9.091279910690435
      ],
      [
        "ĠprÃ³prio",
        -9.095222250685246
      ],
      [
        "W",
        -9.09553526916894
      ],
      [
        "sessÃ£o",
        -9.097564166684718
      ],
      [
        "ĠinÃŃcio",
        -9.097955279837228
      ],
      [
        "08",
        -9.098478844898745
      ],
      [
        "ĠeducaÃ§Ã£o",
        -9.100255957289775
      ],
      [
        "ĠDr",
        -9.100861824962813
      ],
      [
        "ica",
        -9.101202217910425
      ],
      [
        "Ġpre",
        -9.102313545914924
      ],
      [
        "Ġfevereiro",
        -9.1028566541807
      ],
      [
        "feira",
        -9.103750089495907
      ],
      [
        "Ġvamos",
        -9.10514068469132
      ],
      [
        "Ġrespeito",
        -9.105350228643813
      ],
      [
        "providÃªncias",
        -9.105403967084577
      ],
      [
        "rÃ¡",
        -9.105812519307625
      ],
      [
        "Supremo",
        -9.110068519648724
      ],
      [
        "ĠUma",
        -9.11015619080417
      ],
      [
        "Ġpai",
        -9.110291043888838
      ],
      [
        "02",
        -9.111978151205683
      ],
      [
        "07",
        -9.112481015509788
      ],
      [
        "Ġhoras",
        -9.11408296213478
      ],
      [
        "OS",
        -9.114761005489523
      ],
      [
        "Deputada",
        -9.11486826090144
      ],
      [
        "Ġmim",
        -9.115632917101038
      ],
      [
        "Ġlocal",
        -9.116421159236411
      ],
      [
        "Ġdentro",
        -9.117602082083884
      ],
      [
        "Ġponto",
        -9.118182945953343
      ],
      [
        "Ġquatro",
        -9.119401195345011
      ],
      [
        "ista",
        -9.120459497056771
      ],
      [
        "Ġtenha",
        -9.121124144959737
      ],
      [
        "Ġfeito",
        -9.122627074417473
      ],
      [
        "Ġpena",
        -9.12385300230339
      ],
      [
        "ĠInterno",
        -9.124579239532826
      ],
      [
        "Ġapoio",
        -9.125224990780328
      ],
      [
        "Ġdar",
        -9.126594920926127
      ],
      [
        "amente",
        -9.131626712637567
      ],
      [
        "Ġparecer",
        -9.134079187134777
      ],
      [
        "ĠsÃ©rie",
        -9.134809219291606
      ],
      [
        "ĠÃ¡gua",
        -9.134848774482707
      ],
      [
        "ĠPresidÃªncia",
        -9.135744539589162
      ],
      [
        "ĠÃĢ",
        -9.135945007938776
      ],
      [
        "criaÃ§Ã£o",
        -9.136329282519988
      ],
      [
        "ĠPÃºblico",
        -9.139902019147057
      ],
      [
        "ĠpossÃŃvel",
        -9.141786024459892
      ],
      [
        "Ġnum",
        -9.1447342793931
      ],
      [
        "Ġtotal",
        -9.145050139748555
      ],
      [
        "ĠtÃ©cnica",
        -9.145440831242588
      ],
      [
        "per",
        -9.14684912961207
      ],
      [
        "ĠUnidos",
        -9.147581903340088
      ],
      [
        "PDT",
        -9.147599152455967
      ],
      [
        "Ġdemais",
        -9.14974591188342
      ],
      [
        "ĠBrasÃŃlia",
        -9.150947958361067
      ],
      [
        "Ġ(\"",
        -9.152493607091738
      ],
      [
        "ĠTurma",
        -9.153327017761324
      ],
      [
        "lhe",
        -9.157708754517865
      ],
      [
        "th",
        -9.158265625077323
      ],
      [
        "Ġconforme",
        -9.158772621502324
      ],
      [
        "ĠpaÃŃses",
        -9.159003036135122
      ],
      [
        "ano",
        -9.160341208253616
      ],
      [
        "Ġproblema",
        -9.160344656995346
      ],
      [
        "2000",
        -9.16061747317
      ],
      [
        "20",
        -9.161967967409486
      ],
      [
        "ĠPro",
        -9.16308630066266
      ],
      [
        "Ġnunca",
        -9.16322168533022
      ],
      [
        "ĠtÃŃtulo",
        -9.165180320658353
      ],
      [
        "Ġsou",
        -9.165225220555705
      ],
      [
        "Ġfilme",
        -9.165340076417062
      ],
      [
        "ĠMaria",
        -9.165448449499271
      ],
      [
        "ĠConselho",
        -9.165697629806964
      ],
      [
        "Ġespecial",
        -9.165818243348436
      ],
      [
        "Ð",
        -9.166340871044566
      ],
      [
        "los",
        -9.170552590881076
      ],
      [
        "06",
        -9.170584465013354
      ],
      [
        "04",
        -9.17236060349004
      ],
      [
        "aÃŃ",
        -9.172749154105636
      ],
      [
        "Ġalgo",
        -9.174185731078994
      ],
      [
        "2008",
        -9.174447526452502
      ],
      [
        "Ġjogo",
        -9.175805222407202
      ],
      [
        "Ġobrigado",
        -9.175941154535298
      ],
      [
        "Ġfalta",
        -9.176648323031504
      ],
      [
        "ĠSra",
        -9.176656806189484
      ],
      [
        "ĠQuando",
        -9.178923141929026
      ],
      [
        "Ġcerca",
        -9.17987229478642
      ],
      [
        "ĠmÃºsica",
        -9.180649354635957
      ],
      [
        "Ġ26",
        -9.181277223494558
      ],
      [
        "man",
        -9.181415030127704
      ],
      [
        "Ġprecisa",
        -9.182208302489364
      ],
      [
        "ĠUniversidade",
        -9.182549594891016
      ],
      [
        "ĠsÃ©culo",
        -9.183152506609945
      ],
      [
        "defesa",
        -9.185948841527932
      ],
      [
        "2007",
        -9.186799917102537
      ],
      [
        "CÃ³digo",
        -9.186889447523834
      ],
      [
        "Ġcargo",
        -9.187343027434052
      ],
      [
        "Ġvota",
        -9.190655850113531
      ],
      [
        "ĠEducaÃ§Ã£o",
        -9.190822783450477
      ],
      [
        "ĠatravÃ©s",
        -9.191080344338811
      ],
      [
        "The",
        -9.191223672712995
      ],
      [
        "rio",
        -9.19284002736585
      ],
      [
        "Ġdireitos",
        -9.196673419629091
      ],
      [
        "ĠSilva",
        -9.197236079809633
      ],
      [
        "Ġregimental",
        -9.199432872556814
      ],
      [
        "ĠOliveira",
        -9.199697567493946
      ],
      [
        "ĠW",
        -9.199769359008204
      ],
      [
        "Ġpedido",
        -9.200643952173824
      ],
      [
        "SP",
        -9.201761415145295
      ],
      [
        "2010",
        -9.202036470408611
      ],
      [
        "Ġfora",
        -9.202391344327603
      ],
      [
        "Ġsegunda",
        -9.20421706708446
      ],
      [
        "men",
        -9.205687169885367
      ],
      [
        "PlenÃ¡rio",
        -9.207174104505931
      ],
      [
        "Ġcinco",
        -9.207293756716126
      ],
      [
        "devido",
        -9.208192188053872
      ],
      [
        "Ġrealizada",
        -9.20852478229336
      ],
      [
        "ismo",
        -9.208615277569209
      ],
      [
        "Ġ2004",
        -9.20911348200115
      ],
      [
        "Ġvista",
        -9.20919604864974
      ],
      [
        "eram",
        -9.20945354729428
      ],
      [
        "AS",
        -9.210831826269644
      ],
      [
        "Ġpelas",
        -9.21114349023385
      ],
      [
        "ĠTotal",
        -9.214042524053268
      ],
      [
        "Ġ28",
        -9.2159159737489
      ],
      [
        "ĠPedro",
        -9.216203496069037
      ],
      [
        "ante",
        -9.216281636003549
      ],
      [
        "registro",
        -9.218380792766972
      ],
      [
        "Ġobjetivo",
        -9.220962655294672
      ],
      [
        "Ġvem",
        -9.223615755775096
      ],
      [
        "ĠprÃ³pria",
        -9.223630275105853
      ],
      [
        "ĠJÃ¡",
        -9.22463287135007
      ],
      [
        "Ġobjeto",
        -9.224833164991912
      ],
      [
        "Ġmorte",
        -9.22523493432311
      ],
      [
        "ĠrazÃ£o",
        -9.228163271177523
      ],
      [
        "Ġ2013",
        -9.22879928798776
      ],
      [
        "Ġfazendo",
        -9.231178054096045
      ],
      [
        "Ġ2012",
        -9.231399497672871
      ],
      [
        "serÃ£o",
        -9.231620646076768
      ],
      [
        "vÃ¡rios",
        -9.232238954383494
      ],
      [
        "..............",
        -9.23401654308691
      ],
      [
        "Ġacesso",
        -9.234511049245585
      ],
      [
        "ĠexercÃŃcio",
        -9.234547076285336
      ],
      [
        "Ġ27",
        -9.23530046270152
      ],
      [
        "Ġmeses",
        -9.236488357067069
      ],
      [
        "origem",
        -9.23687844811528
      ],
      [
        "Executivo",
        -9.238286827703243
      ],
      [
        "Ġluta",
        -9.238840287202851
      ],
      [
        "ĠSaÃºde",
        -9.24523026481182
      ],
      [
        "Ġmercado",
        -9.245312929937954
      ],
      [
        "ĠÃ©poca",
        -9.245929828147991
      ],
      [
        "Ġficar",
        -9.248460241482238
      ],
      [
        "ina",
        -9.251331247347634
      ],
      [
        "AlÃ©m",
        -9.254299908015804
      ],
      [
        "Ġ29",
        -9.254656457004913
      ],
      [
        "ĠTem",
        -9.254979843160116
      ],
      [
        "PTB",
        -9.255367816134452
      ],
      [
        "Ġsim",
        -9.256796601631674
      ],
      [
        "ĠFilho",
        -9.25724266201408
      ],
      [
        "ĠSocial",
        -9.263104002324916
      ],
      [
        "ĠSegundo",
        -9.263156092392489
      ],
      [
        "13",
        -9.263918137611183
      ],
      [
        "ĠAgora",
        -9.2673996449384
      ],
      [
        "Ġinclusive",
        -9.267797492496046
      ],
      [
        "Ġfosse",
        -9.26810282669564
      ],
      [
        "Ġthe",
        -9.268632972839296
      ],
      [
        "Ġdeixar",
        -9.269377446836984
      ],
      [
        "radiodifusÃ£o",
        -9.27267311453504
      ],
      [
        "ĠMin",
        -9.273707002430717
      ],
      [
        "Ġmembro",
        -9.273965110888762
      ],
      [
        "Ġgeral",
        -9.274825624024457
      ],
      [
        "Ġqualidade",
        -9.276474905668058
      ],
      [
        "Ġpagamento",
        -9.283168795511257
      ],
      [
        "Ġfilho",
        -9.283725792684946
      ],
      [
        "Ġquase",
        -9.285474634459586
      ],
      [
        "Ġ2003",
        -9.285854790481164
      ],
      [
        "ĠLe",
        -9.28834130283607
      ],
      [
        "Ġalgumas",
        -9.28902539395834
      ],
      [
        "tanto",
        -9.289592573397105
      ],
      [
        "altera",
        -9.29080982659459
      ],
      [
        "ĠH",
        -9.292827173391055
      ],
      [
        "dores",
        -9.2928667897367
      ],
      [
        "ĠPP",
        -9.292873757720484
      ],
      [
        "ĠDeus",
        -9.294591897501718
      ],
      [
        "Ġminutos",
        -9.295283383883332
      ],
      [
        "nÃ£o",
        -9.297041347488165
      ],
      [
        "Ġmaioria",
        -9.298554616504257
      ],
      [
        "Ġpoderia",
        -9.299241982238236
      ],
      [
        "Ġequipe",
        -9.299913698009924
      ],
      [
        "2012",
        -9.303500142399464
      ],
      [
        "2016",
        -9.306477733542826
      ],
      [
        "tos",
        -9.307173582882672
      ],
      [
        "STF",
        -9.31142552950569
      ],
      [
        "Ġdados",
        -9.311945530623984
      ],
      [
        "Ġdinheiro",
        -9.31217919710126
      ],
      [
        "Ġkm",
        -9.315143721199735
      ],
      [
        "Ġlegal",
        -9.321889501065426
      ],
      [
        "Ġrequerimento",
        -9.322672406560782
      ],
      [
        "AL",
        -9.326513619819329
      ],
      [
        "ja",
        -9.3269041322149
      ],
      [
        "ĠMa",
        -9.32698654714826
      ],
      [
        "Ġboa",
        -9.327304952823198
      ],
      [
        "Ġtal",
        -9.32739275449835
      ],
      [
        "Ġconhecido",
        -9.327829514925808
      ],
      [
        "tro",
        -9.329022121323872
      ],
      [
        "Ġensino",
        -9.332751537707086
      ],
      [
        "ĠAr",
        -9.332772230641735
      ],
      [
        "ler",
        -9.33287872394664
      ],
      [
        "Ġdele",
        -9.33296662989588
      ],
      [
        "https",
        -9.334072186117428
      ],
      [
        "dia",
        -9.335908665336731
      ],
      [
        "Ġesses",
        -9.335976567967842
      ],
      [
        "Ġ50",
        -9.335996795665483
      ],
      [
        "Ġnuma",
        -9.336957033507684
      ],
      [
        "ĠHÃ¡",
        -9.337137738553928
      ],
      [
        "por",
        -9.337154126582831
      ],
      [
        "agravo",
        -9.337241958781552
      ],
      [
        "Ġmodo",
        -9.337402999857604
      ],
      [
        "Ġjunto",
        -9.33940478905962
      ],
      [
        "tri",
        -9.340105696180046
      ],
      [
        "ĠprÃ¡tica",
        -9.343898439529644
      ],
      [
        "ĠreuniÃ£o",
        -9.345014585179868
      ],
      [
        "Ġessas",
        -9.346195184784852
      ],
      [
        "ĠÃºltima",
        -9.346660979158104
      ],
      [
        "ĠMo",
        -9.346726143975232
      ],
      [
        "q",
        -9.34727673820451
      ],
      [
        "Ġmuitas",
        -9.34889169868483
      ],
      [
        "somente",
        -9.35114902324465
      ],
      [
        "Ġnorte",
        -9.352542607358762
      ],
      [
        "ĠParecer",
        -9.35370665023929
      ],
      [
        "ĠAssim",
        -9.354720491543857
      ],
      [
        "2014",
        -9.355719664536103
      ],
      [
        "redaÃ§Ã£o",
        -9.357784785760556
      ],
      [
        "entanto",
        -9.358766833693505
      ],
      [
        "ĠLula",
        -9.35938541712802
      ],
      [
        "Ġgrandes",
        -9.360527658061232
      ],
      [
        "aumento",
        -9.360813853200968
      ],
      [
        "Ġsuperior",
        -9.360892642834166
      ],
      [
        "ĠNova",
        -9.361025925559076
      ],
      [
        ");",
        -9.361183273923723
      ],
      [
        "ĠLegislativo",
        -9.362621835877023
      ],
      [
        "Ġnoite",
        -9.363396636422436
      ],
      [
        "missÃ£o",
        -9.363528330462174
      ],
      [
        "Ġ2015",
        -9.364676741699766
      ],
      [
        "ĠparticipaÃ§Ã£o",
        -9.36477981020966
      ],
      [
        "ĠLÃŃder",
        -9.365095336657902
      ],
      [
        "atividades",
        -9.36541383584416
      ],
      [
        "ĠmÃ£e",
        -9.365559125829968
      ],
      [
        "ĠPÃºblica",
        -9.3657446054382
      ],
      [
        "ĠAl",
        -9.366995627582002
      ],
      [
        "Ġcerto",
        -9.369767523092245
      ],
      [
        "posiÃ§Ã£o",
        -9.369963897875046
      ],
      [
        "Ġinteresse",
        -9.37002296554164
      ],
      [
        "Ġcrime",
        -9.373743949381538
      ],
      [
        "Ġcontrole",
        -9.375048243216572
      ],
      [
        "Ġhomem",
        -9.37561962150902
      ],
      [
        "Ġtarde",
        -9.375663049691443
      ],
      [
        "ĠpolÃŃtico",
        -9.37623294087061
      ],
      [
        "Ġlongo",
        -9.377587195984436
      ],
      [
        "Ġpartido",
        -9.378456506069371
      ],
      [
        "Ġ2014",
        -9.378921842683942
      ],
      [
        "Ġpesquisa",
        -9.37930088751759
      ],
      [
        "Ġemenda",
        -9.380709496519543
      ],
      [
        "ita",
        -9.381939470548794
      ],
      [
        "ĠPrograma",
        -9.382383299899343
      ],
      [
        "Ġsaber",
        -9.38482320449746
      ],
      [
        "Ġpossa",
        -9.385240384125362
      ],
      [
        "ĠEM",
        -9.385371517054462
      ],
      [
        "passou",
        -9.386526095084651
      ],
      [
        "ĠDia",
        -9.387414492716164
      ],
      [
        "ĠlegislaÃ§Ã£o",
        -9.390323270756568
      ],
      [
        "ĠDa",
        -9.390835215210435
      ],
      [
        "Ġpassa",
        -9.39384970649795
      ],
      [
        "Ġreforma",
        -9.394006236992132
      ],
      [
        "ĠFernando",
        -9.394543374301849
      ],
      [
        "Ġbrasileiros",
        -9.3958399980404
      ],
      [
        "Ġjulgamento",
        -9.396183289434743
      ],
      [
        "vam",
        -9.398175019142291
      ],
      [
        "ĠRoberto",
        -9.398183897383635
      ],
      [
        "Presidente",
        -9.398504817888709
      ],
      [
        "ĠAssociaÃ§Ã£o",
        -9.39983551745789
      ],
      [
        "ĠpublicaÃ§Ã£o",
        -9.40080396614245
      ],
      [
        "ĠTrabalho",
        -9.401366564061822
      ],
      [
        "Ġnecessidade",
        -9.401708310844873
      ],
      [
        "Ġdeixa",
        -9.402469414748452
      ],
      [
        "DA",
        -9.405331673188492
      ],
      [
        "Ġpreciso",
        -9.406292987481624
      ],
      [
        "Ġsetor",
        -9.40650819819111
      ],
      [
        "Ġ100",
        -9.408314074254436
      ],
      [
        "ĠMaia",
        -9.409110229759454
      ],
      [
        "ĠBem",
        -9.409346854755476
      ],
      [
        "Ġoficial",
        -9.410008788665737
      ],
      [
        "ntes",
        -9.411986048524716
      ],
      [
        "relatÃ³rio",
        -9.41227882271982
      ],
      [
        ".âĢĿ",
        -9.41294110368999
      ],
      [
        "anÃ¡lise",
        -9.413117903093584
      ],
      [
        "ĠextraordinÃ¡rio",
        -9.414281484788834
      ],
      [
        "Ġquer",
        -9.414454041707051
      ],
      [
        "ĠLa",
        -9.417612767866386
      ],
      [
        "Ãº",
        -9.41892996047655
      ],
      [
        "Ġ2016",
        -9.419547299585297
      ],
      [
        "tar",
        -9.421415278199476
      ],
      [
        "Ġmuitos",
        -9.421680822047993
      ],
      [
        "Ġconstante",
        -9.422160558973102
      ],
      [
        "realizaÃ§Ã£o",
        -9.422623817944524
      ],
      [
        "ĠNO",
        -9.422681873340029
      ],
      [
        "ĠCiÃªncia",
        -9.42351597688662
      ],
      [
        "mulheres",
        -9.423555944222182
      ],
      [
        "ico",
        -9.425567596876284
      ],
      [
        "mÃŃnimo",
        -9.42770652107085
      ],
      [
        "Ġregime",
        -9.428827246175391
      ],
      [
        "poderÃ¡",
        -9.430326617464054
      ],
      [
        "Ġatividade",
        -9.430478145197004
      ],
      [
        "economia",
        -9.432028796855628
      ],
      [
        "Ġatual",
        -9.432946097577302
      ],
      [
        "ĠcrianÃ§as",
        -9.433849188341789
      ],
      [
        "ĠespÃ©cie",
        -9.434932116273837
      ],
      [
        "16",
        -9.435048359073404
      ],
      [
        "ĠPortugal",
        -9.43606580635699
      ],
      [
        "Ġenergia",
        -9.439576112000523
      ],
      [
        "vÃ¡rias",
        -9.440756634436465
      ],
      [
        "ĠconstruÃ§Ã£o",
        -9.442526452811794
      ],
      [
        "Partido",
        -9.444311158868985
      ],
      [
        "Ġobra",
        -9.444773960148986
      ],
      [
        "Ġfrente",
        -9.444995975038646
      ],
      [
        "ĠMesa",
        -9.44543792354231
      ],
      [
        "Ġmaneira",
        -9.446787603750073
      ],
      [
        "ĠÃ¡lbum",
        -9.447716139445925
      ],
      [
        "Ġassunto",
        -9.449842970385848
      ],
      [
        "legislativa",
        -9.450132806664284
      ],
      [
        "car",
        -9.450680046871126
      ],
      [
        "Ġ31",
        -9.451236473301924
      ],
      [
        "ĠMinas",
        -9.451421965710177
      ],
      [
        "ki",
        -9.452222655449091
      ],
      [
        "Ġdebate",
        -9.45403113977642
      ],
      [
        "19",
        -9.454352096998775
      ],
      [
        "ĠDesenvolvimento",
        -9.454441205376888
      ],
      [
        "Ġchamado",
        -9.45445379801637
      ],
      [
        "Ġpapel",
        -9.455155352376211
      ],
      [
        "Ġprincipalmente",
        -9.455172169827412
      ],
      [
        "lar",
        -9.4552720877974
      ],
      [
        "Ġsub",
        -9.457980382514666
      ],
      [
        "Ġper",
        -9.46035653197898
      ],
      [
        "Ġcontrato",
        -9.461474383087156
      ],
      [
        "ĠEstou",
        -9.461902150267296
      ],
      [
        "reais",
        -9.463444777265394
      ],
      [
        "Ġproblemas",
        -9.46356656222632
      ],
      [
        "Ġdez",
        -9.46387030159516
      ],
      [
        "presenÃ§a",
        -9.464978201178356
      ],
      [
        "Y",
        -9.46529198707898
      ],
      [
        "sejam",
        -9.465542605331054
      ],
      [
        "discussÃ£o",
        -9.465582050433794
      ],
      [
        "ĠNorte",
        -9.466058140656088
      ],
      [
        "Ġvi",
        -9.46692314971801
      ],
      [
        "Ġproduto",
        -9.466926745808353
      ],
      [
        "ĠSua",
        -9.467534347215576
      ],
      [
        "ĠFrancisco",
        -9.468108341577306
      ],
      [
        "ĠediÃ§Ã£o",
        -9.46994355645936
      ],
      [
        "qu",
        -9.470133310005853
      ],
      [
        "Ãª",
        -9.470799986443373
      ],
      [
        "MunicÃŃpios",
        -9.473136933819635
      ],
      [
        "membros",
        -9.47369906517418
      ],
      [
        "Ġfala",
        -9.475669603640648
      ],
      [
        "ĠforÃ§a",
        -9.47624735302252
      ],
      [
        "Ġhouve",
        -9.477461330375156
      ],
      [
        "concessÃ£o",
        -9.47813138342891
      ],
      [
        "dÃ©cada",
        -9.47885665374949
      ],
      [
        "#",
        -9.479482110448338
      ],
      [
        "con",
        -9.479955983146157
      ],
      [
        "Ġnesse",
        -9.480937160718444
      ],
      [
        "ĠMe",
        -9.481102775772111
      ],
      [
        "Ġcoisas",
        -9.481567348456576
      ],
      [
        "ĠSP",
        -9.48183655561396
      ],
      [
        "tÃ£o",
        -9.483434145872156
      ],
      [
        "prÃ³ximo",
        -9.483891821889898
      ],
      [
        "ĠDEM",
        -9.484894857325976
      ],
      [
        "Ġchegar",
        -9.485677195269783
      ],
      [
        "execuÃ§Ã£o",
        -9.486050372458616
      ],
      [
        "2005",
        -9.4867412178407
      ],
      [
        "Ġqueria",
        -9.487209041503618
      ],
      [
        "ang",
        -9.489373592156266
      ],
      [
        "Ġposso",
        -9.489967950886577
      ],
      [
        "Ġalguma",
        -9.489993977983469
      ],
      [
        "âĢĻ",
        -9.490840873978163
      ],
      [
        "ava",
        -9.491062801483096
      ],
      [
        "Ġparece",
        -9.491542475272327
      ],
      [
        "conjunto",
        -9.491613214263236
      ],
      [
        "Ġhora",
        -9.491993037184452
      ],
      [
        "ĠSÃ³",
        -9.49251563617625
      ],
      [
        "responsabilidade",
        -9.494264961057343
      ],
      [
        "Geral",
        -9.494489794744917
      ],
      [
        "chi",
        -9.494757404356802
      ],
      [
        "Ġdeveria",
        -9.494963154421548
      ],
      [
        "ĠnecessÃ¡rio",
        -9.496051996821654
      ],
      [
        "Ġbanda",
        -9.496670072151028
      ],
      [
        "las",
        -9.496816155681495
      ],
      [
        "2019",
        -9.49682195495512
      ],
      [
        "Ġpassado",
        -9.497563354806822
      ],
      [
        "ĠDJ",
        -9.497785710893304
      ],
      [
        "COMISSÃĥO",
        -9.497817715960196
      ],
      [
        "obras",
        -9.49923579389966
      ],
      [
        "Ġembora",
        -9.501031338050272
      ],
      [
        "ĠdiscussÃ£o",
        -9.50144050086652
      ],
      [
        "Ġalgum",
        -9.506168546049414
      ],
      [
        "ĠimportÃ¢ncia",
        -9.508100662022972
      ],
      [
        "Ġconhecimento",
        -9.508517284628704
      ],
      [
        "ĠcrÃ©dito",
        -9.508694725270637
      ],
      [
        "Ġfeita",
        -9.50895031237864
      ],
      [
        "ĠSeu",
        -9.51047028017652
      ],
      [
        "ato",
        -9.512158205945598
      ],
      [
        "PR",
        -9.513372264505206
      ],
      [
        "Ġlivro",
        -9.513881237067997
      ],
      [
        "RECURSO",
        -9.515346584421168
      ],
      [
        "Ġinter",
        -9.516518963372729
      ],
      [
        "ĠfunÃ§Ã£o",
        -9.516991867952871
      ],
      [
        "Defesa",
        -9.517216589742455
      ],
      [
        "ĠThe",
        -9.517520804571683
      ],
      [
        "disposto",
        -9.51813089185291
      ],
      [
        "Distrito",
        -9.521001355185184
      ],
      [
        "&",
        -9.521191046309092
      ],
      [
        "ĠvÃ£o",
        -9.521425038664448
      ],
      [
        "Ġbusca",
        -9.522097359927011
      ],
      [
        "previsto",
        -9.523028703145217
      ],
      [
        "ĠVi",
        -9.52363729039998
      ],
      [
        "ĠAntonio",
        -9.52474500884805
      ],
      [
        "ĠmÃ©dia",
        -9.52594845716493
      ],
      [
        "ĠCivil",
        -9.52611189177221
      ],
      [
        "Ġgente",
        -9.52659270713983
      ],
      [
        "ĠcompetÃªncia",
        -9.52752819418708
      ],
      [
        "portanto",
        -9.528499141579928
      ],
      [
        "cÃ³rdÃ£o",
        -9.52905941076107
      ],
      [
        "sociais",
        -9.530655429071274
      ],
      [
        "Ġmulher",
        -9.531851423525245
      ],
      [
        "podemos",
        -9.532140163143886
      ],
      [
        "Ã§a",
        -9.53527453233998
      ],
      [
        "ĠRIC",
        -9.535763872240022
      ],
      [
        "ĠEMENDA",
        -9.537081422673158
      ],
      [
        "ĠTecnologia",
        -9.537960057056756
      ],
      [
        "2017",
        -9.53833266821573
      ],
      [
        "ĠApÃ³s",
        -9.540118280416646
      ],
      [
        "rem",
        -9.541267656289689
      ],
      [
        "ĠIV",
        -9.542722927665306
      ],
      [
        "ĠmudanÃ§a",
        -9.545313209196522
      ],
      [
        "ente",
        -9.54568720135287
      ],
      [
        "mÃªs",
        -9.54596981195737
      ],
      [
        "Ġpessoal",
        -9.55000556581699
      ],
      [
        "Ġacho",
        -9.550850727373945
      ],
      [
        "17",
        -9.551134888370203
      ],
      [
        "iniciativa",
        -9.551144110828384
      ],
      [
        "Â²",
        -9.551450790599672
      ],
      [
        "ĠComunicaÃ§Ã£o",
        -9.552691392667334
      ],
      [
        "Ġterra",
        -9.55309727977808
      ],
      [
        "ĠinglÃªs",
        -9.55388649837919
      ],
      [
        "ServiÃ§o",
        -9.555295748862626
      ],
      [
        "ĠDi",
        -9.555337018541676
      ],
      [
        "Ġ1990",
        -9.555632945115356
      ],
      [
        "Ġnenhum",
        -9.556548432078538
      ],
      [
        "Ġca",
        -9.55657182255512
      ],
      [
        "ĠBrasileiro",
        -9.55701157150982
      ],
      [
        "ĠPrimeira",
        -9.55839766586664
      ],
      [
        "DEM",
        -9.55857732887797
      ],
      [
        "Campeonato",
        -9.558995992561794
      ],
      [
        "ĠCa",
        -9.560359445890256
      ],
      [
        "essa",
        -9.561110347505512
      ],
      [
        "Ãī",
        -9.561214152780236
      ],
      [
        "Ġficou",
        -9.56264845931398
      ],
      [
        "*",
        -9.563141702356887
      ],
      [
        "ĠREQUERIMENTO",
        -9.56384098436751
      ],
      [
        "carreira",
        -9.564879525740205
      ],
      [
        "Ġcapital",
        -9.565872596282384
      ],
      [
        "mÃ©rito",
        -9.566024605244037
      ],
      [
        "Ġescola",
        -9.56674251209508
      ],
      [
        "prevista",
        -9.567514857965458
      ],
      [
        "ĠCorte",
        -9.567671024812569
      ],
      [
        "ĠObrigado",
        -9.568523833274412
      ],
      [
        "):",
        -9.56877504697074
      ],
      [
        "nÃŃvel",
        -9.569294962519027
      ],
      [
        "tado",
        -9.569686268136772
      ],
      [
        "ber",
        -9.570091768190114
      ],
      [
        "Ġcampo",
        -9.570572082080666
      ],
      [
        "14",
        -9.572597490428777
      ],
      [
        "30",
        -9.574715394623738
      ],
      [
        "Ġforte",
        -9.576259607245872
      ],
      [
        "exame",
        -9.57712418913763
      ],
      [
        "tornou",
        -9.57792205132804
      ],
      [
        "jurÃŃdica",
        -9.57949059234463
      ],
      [
        "bilhÃµes",
        -9.57981364498458
      ],
      [
        "discurso",
        -9.58004043318214
      ],
      [
        "ĠVice",
        -9.580361014547602
      ],
      [
        "Ġ2017",
        -9.581510079231595
      ],
      [
        "ĠBo",
        -9.581578435878534
      ],
      [
        "Ġsenhor",
        -9.58176216079118
      ],
      [
        "Ġanterior",
        -9.582771872564177
      ],
      [
        "ĠExcelÃªncia",
        -9.583100889259793
      ],
      [
        "Ġ2020",
        -9.58417049528844
      ],
      [
        "ĠInstituto",
        -9.584255706900882
      ],
      [
        "Ġprojetos",
        -9.584666776593894
      ],
      [
        "Ã¢mbito",
        -9.584937550910029
      ],
      [
        "TambÃ©m",
        -9.585299895938723
      ],
      [
        "Q",
        -9.585362628350865
      ],
      [
        "Ġtemporada",
        -9.586840934002815
      ],
      [
        "ĠMarco",
        -9.587157451362735
      ],
      [
        "sim",
        -9.588290875637863
      ],
      [
        "Ġexiste",
        -9.588616850209728
      ],
      [
        "Ġ2002",
        -9.58938969565822
      ],
      [
        "mandato",
        -9.589614603476726
      ],
      [
        "ĠAmÃ©rica",
        -9.589623033939542
      ],
      [
        "comeÃ§ou",
        -9.589705202667442
      ],
      [
        "ĠCunha",
        -9.590229681781274
      ],
      [
        "Ġpossui",
        -9.590329756345428
      ],
      [
        "ĠCosta",
        -9.59059020022988
      ],
      [
        "Ġcampanha",
        -9.59062826077331
      ],
      [
        "tes",
        -9.591097417820784
      ],
      [
        "Ġoportunidade",
        -9.59154758712234
      ],
      [
        "serem",
        -9.591625792762695
      ],
      [
        "Ġcara",
        -9.593073126644716
      ],
      [
        "\")",
        -9.594273604717854
      ],
      [
        "ata",
        -9.595235461458802
      ],
      [
        "Ġcerteza",
        -9.595538619784312
      ],
      [
        "valores",
        -9.598853428492667
      ],
      [
        "ini",
        -9.598973377330816
      ],
      [
        "Depois",
        -9.600416212958196
      ],
      [
        "ton",
        -9.600435089033876
      ],
      [
        "Ġtitular",
        -9.60175049872293
      ],
      [
        "ÃļLTI",
        -9.603627190768158
      ],
      [
        "seguintes",
        -9.60450814034689
      ],
      [
        "2006",
        -9.605142476468409
      ],
      [
        "Ġoriginal",
        -9.60547157738523
      ],
      [
        "Ġlinha",
        -9.605927379698931
      ],
      [
        "Ġfederal",
        -9.606546421109355
      ],
      [
        "Ġvigor",
        -9.606915517629067
      ],
      [
        "Ġcorpo",
        -9.608049278059022
      ],
      [
        "aprovado",
        -9.608072455762928
      ],
      [
        "ĠaplicaÃ§Ã£o",
        -9.608153151387318
      ],
      [
        "ĠalguÃ©m",
        -9.608364261741416
      ],
      [
        "ĠPode",
        -9.60887322725584
      ],
      [
        "Ġresultado",
        -9.610366827871008
      ],
      [
        "lha",
        -9.610916626661796
      ],
      [
        "ĠterritÃ³rio",
        -9.611151492178676
      ],
      [
        "ĠRequerimento",
        -9.61205856113749
      ],
      [
        "Ġrealizado",
        -9.612442749454754
      ],
      [
        "Ġautos",
        -9.612523061578711
      ],
      [
        "Ġtransporte",
        -9.612568835397711
      ],
      [
        "Ġprincipais",
        -9.612698541217506
      ],
      [
        "Ġajuda",
        -9.61567736743868
      ],
      [
        "ĠGuerra",
        -9.61689000642294
      ],
      [
        "Ġfica",
        -9.617627535250158
      ],
      [
        "Ġsede",
        -9.617754131473848
      ],
      [
        "les",
        -9.618182414118737
      ],
      [
        "AÃĩÃĥO",
        -9.618506560070225
      ],
      [
        "Ġformula",
        -9.619669820797526
      ],
      [
        "comunicaÃ§Ã£o",
        -9.620291037835296
      ],
      [
        "ĠpÃ¡gina",
        -9.620665286423138
      ],
      [
        "Ġpauta",
        -9.621062224186588
      ],
      [
        "Ġrenda",
        -9.621910998874128
      ],
      [
        "Ġclaro",
        -9.621991341677074
      ],
      [
        "ĠSecretaria",
        -9.623742146804778
      ],
      [
        "Ġpontos",
        -9.62401399012768
      ],
      [
        "Ã³rgÃ£o",
        -9.626570521061687
      ],
      [
        "Ġcrise",
        -9.629305715631672
      ],
      [
        "Ġconsiderado",
        -9.630305998104676
      ],
      [
        "Ġhaver",
        -9.630466793484944
      ],
      [
        "Ġcriar",
        -9.631500801285116
      ],
      [
        "Ġmal",
        -9.631672870846415
      ],
      [
        "Ġnatureza",
        -9.632745184395446
      ],
      [
        "Ġnobre",
        -9.632911331895324
      ],
      [
        "ĠVI",
        -9.635023397619957
      ],
      [
        "Ġlogo",
        -9.635373286449786
      ],
      [
        "ĠquÃª",
        -9.63554883687263
      ],
      [
        "apreciaÃ§Ã£o",
        -9.636492489292428
      ],
      [
        "ĠEles",
        -9.63676318292176
      ],
      [
        "Ġlhe",
        -9.636898422685285
      ],
      [
        "ck",
        -9.63721587363032
      ],
      [
        "Ġturno",
        -9.637780729035264
      ],
      [
        "ĠinformaÃ§Ã£o",
        -9.638492723292051
      ],
      [
        "ĠprincÃŃpio",
        -9.639471723112113
      ],
      [
        "medidas",
        -9.64189199488114
      ],
      [
        "ĠatenÃ§Ã£o",
        -9.643144260629082
      ],
      [
        "deverÃ¡",
        -9.64331769742021
      ],
      [
        "Ġ2001",
        -9.64784065313092
      ],
      [
        "Ġprova",
        -9.648308503364504
      ],
      [
        "provimento",
        -9.64885800738274
      ],
      [
        "Ġfase",
        -9.650076416543444
      ],
      [
        "ĠQuero",
        -9.650126582516611
      ],
      [
        "Ordem",
        -9.651492948001549
      ],
      [
        "Ġinfra",
        -9.651667247726447
      ],
      [
        "Ġ40",
        -9.652632652411448
      ],
      [
        "mar",
        -9.654029650906637
      ],
      [
        "ito",
        -9.654561961740024
      ],
      [
        "chegou",
        -9.654607528326324
      ],
      [
        "Ġ2019",
        -9.656137055929957
      ],
      [
        "ĠTV",
        -9.657411358675438
      ],
      [
        "Ġdiferentes",
        -9.65847570755844
      ],
      [
        "Ġmodelo",
        -9.658481159947025
      ],
      [
        "Ġefeito",
        -9.658905741399115
      ],
      [
        "ĠAlves",
        -9.659507524446644
      ],
      [
        "Ġ:)",
        -9.661412743979945
      ],
      [
        "Ġprofissional",
        -9.662047597914174
      ],
      [
        "ĠRicardo",
        -9.662570618302142
      ],
      [
        "ĠCopa",
        -9.6633186897201
      ],
      [
        "pÃºblicos",
        -9.663344940308216
      ],
      [
        "inha",
        -9.663350625375676
      ],
      [
        "ĠDias",
        -9.663364663641284
      ],
      [
        "ĠespaÃ§o",
        -9.663397413882972
      ],
      [
        "ĠEspecial",
        -9.664562439996136
      ],
      [
        "ĠSu",
        -9.665418625149252
      ],
      [
        "ĠQuem",
        -9.665667762394706
      ],
      [
        "ĠMIN",
        -9.666587891198594
      ],
      [
        "che",
        -9.669474058256156
      ],
      [
        "Ġpenal",
        -9.670093058094592
      ],
      [
        "ĠPereira",
        -9.67022475564633
      ],
      [
        "ÃĩÃķES",
        -9.670641876623076
      ],
      [
        "tor",
        -9.67311203497448
      ],
      [
        "ati",
        -9.673310170520734
      ],
      [
        "Ġcaput",
        -9.673386174172668
      ],
      [
        "Ġautoria",
        -9.673775833238198
      ],
      [
        "ĠAGRAV",
        -9.674402011484656
      ],
      [
        "ĠRE",
        -9.676227630468484
      ],
      [
        "lin",
        -9.676641659605822
      ],
      [
        "Ġrede",
        -9.678592579917224
      ],
      [
        "Ġtema",
        -9.679150532183892
      ],
      [
        "Ġmovimento",
        -9.680280530012466
      ],
      [
        "Ġ1998",
        -9.680343846986418
      ],
      [
        "Ġrepresenta",
        -9.680713158497957
      ],
      [
        "ĠSanto",
        -9.681082023841608
      ],
      [
        "Ġsul",
        -9.68151559912095
      ],
      [
        "acima",
        -9.68239899521711
      ],
      [
        "nas",
        -9.682460026919872
      ],
      [
        "Cidadania",
        -9.68269757069598
      ],
      [
        "Ġmenor",
        -9.683256929189
      ],
      [
        "produtos",
        -9.683272690732217
      ],
      [
        "ĠHenrique",
        -9.683274395738094
      ],
      [
        "ĠSistema",
        -9.685087518533855
      ],
      [
        "Ġsucesso",
        -9.685146532665849
      ],
      [
        "Ã³rgÃ£os",
        -9.685155666617968
      ],
      [
        "Ġ2000",
        -9.686262569182324
      ],
      [
        "ĠSantos",
        -9.68672630829365
      ],
      [
        "PolÃŃcia",
        -9.68703629445879
      ],
      [
        "cujo",
        -9.688749277273988
      ],
      [
        "Ġinternacional",
        -9.690814969768764
      ],
      [
        "ĠParlamentar",
        -9.692138819833746
      ],
      [
        "Ġplano",
        -9.692419520182948
      ],
      [
        "trabalhadores",
        -9.695385471961869
      ],
      [
        "recebeu",
        -9.69558232761366
      ],
      [
        "ĠÃºnica",
        -9.697850737896866
      ],
      [
        "ĠPa",
        -9.698578429524169
      ],
      [
        "Ġguerra",
        -9.699663807844203
      ],
      [
        "Ġreceber",
        -9.70009785644936
      ],
      [
        "ĠPre",
        -9.700853036939804
      ],
      [
        "essÃµes",
        -9.700880673174806
      ],
      [
        "Medida",
        -9.701438042232878
      ],
      [
        "dor",
        -9.702016532704866
      ],
      [
        "ĠMais",
        -9.70216064753359
      ],
      [
        "ĠEra",
        -9.702601456091276
      ],
      [
        "Ġvotar",
        -9.703786861360015
      ],
      [
        "ĠDilma",
        -9.70674661559555
      ],
      [
        "nessa",
        -9.70810708023949
      ],
      [
        "realmente",
        -9.70860301954837
      ],
      [
        "Ġencontra",
        -9.708704369463806
      ],
      [
        "ĠCOM",
        -9.709619977060097
      ],
      [
        "Ġteria",
        -9.709670037834776
      ],
      [
        "possibilidade",
        -9.709994718381864
      ],
      [
        "mediante",
        -9.710070497779045
      ],
      [
        "ĠinstituiÃ§Ãµes",
        -9.712308550698909
      ],
      [
        "Ġprofessor",
        -9.713125647641276
      ],
      [
        "gestÃ£o",
        -9.713605006798444
      ],
      [
        "destaque",
        -9.71687496218903
      ],
      [
        "contrÃ¡rio",
        -9.717884331215473
      ],
      [
        "aqueles",
        -9.717991505807316
      ],
      [
        "parÃ¡grafo",
        -9.71826097877098
      ],
      [
        "ĠPorto",
        -9.71841240343408
      ],
      [
        "Ġcaminho",
        -9.71841853097532
      ],
      [
        "ĠAG",
        -9.718562229602988
      ],
      [
        "Ġdesses",
        -9.719142779490932
      ],
      [
        "ĠPi",
        -9.719149061982955
      ],
      [
        "EIRA",
        -9.719236278126893
      ],
      [
        "cuja",
        -9.720427729265673
      ],
      [
        "ĠVou",
        -9.720628144099026
      ],
      [
        "ĠEx",
        -9.72114255426557
      ],
      [
        "gar",
        -9.721721020479803
      ],
      [
        "ĠBanco",
        -9.724324057981264
      ],
      [
        "Ã¡vel",
        -9.72502224033598
      ],
      [
        "gen",
        -9.725393238633618
      ],
      [
        "ĠformaÃ§Ã£o",
        -9.726092288053216
      ],
      [
        "Ġatendimento",
        -9.727462501921528
      ],
      [
        "category",
        -9.729170487124682
      ],
      [
        "ĠTo",
        -9.730135654154056
      ],
      [
        "Ġnovos",
        -9.730179836160907
      ],
      [
        "ĠMi",
        -9.730252095396343
      ],
      [
        "Ġseis",
        -9.730451522195562
      ],
      [
        "Ġ2018",
        -9.730601086242016
      ],
      [
        "ĠirmÃ£o",
        -9.730735668484929
      ],
      [
        "fica",
        -9.731344510226265
      ],
      [
        "ĠNesse",
        -9.731462664889817
      ],
      [
        "Ġaquele",
        -9.734008085766208
      ],
      [
        "Ġlista",
        -9.734507461027052
      ],
      [
        "Ġresposta",
        -9.73455372877534
      ],
      [
        "Ġmanter",
        -9.735149069295147
      ],
      [
        "ĠRel",
        -9.73537527409722
      ],
      [
        "ĠlanÃ§ado",
        -9.737183578430844
      ],
      [
        "TE",
        -9.73743669104283
      ],
      [
        "2003",
        -9.737726184978875
      ],
      [
        "Lei",
        -9.73795476041954
      ],
      [
        "critÃ©rio",
        -9.738090262628866
      ],
      [
        "ĠOh",
        -9.738501191935912
      ],
      [
        "ĠHistÃ³ria",
        -9.739374781811025
      ],
      [
        "violÃªncia",
        -9.739534688252522
      ],
      [
        "Ġrefere",
        -9.740467125193442
      ],
      [
        "ĠKa",
        -9.740518808730044
      ],
      [
        "Gerais",
        -9.74126688538266
      ],
      [
        "Durante",
        -9.743375665237725
      ],
      [
        "Ġcapacidade",
        -9.744617658259186
      ],
      [
        ".............",
        -9.74584094507147
      ],
      [
        "Ġpa",
        -9.74615519320088
      ],
      [
        "tal",
        -9.746202951465587
      ],
      [
        "ula",
        -9.746309515275174
      ],
      [
        "ĠPSD",
        -9.746796894006971
      ],
      [
        "Ġliberdade",
        -9.74713914432412
      ],
      [
        "gue",
        -9.74880673812471
      ],
      [
        "PAULO",
        -9.748810449429104
      ],
      [
        "Ġtrabalhos",
        -9.74902403129672
      ],
      [
        "existÃªncia",
        -9.749763666319328
      ],
      [
        "Ġcultura",
        -9.75000238782753
      ],
      [
        "rei",
        -9.7512195634859
      ],
      [
        "ĠFundo",
        -9.75161877887357
      ],
      [
        "SE",
        -9.751643910802157
      ],
      [
        "Ġautor",
        -9.752544545583234
      ],
      [
        "maiores",
        -9.753739024605776
      ],
      [
        "izaÃ§Ã£o",
        -9.754697804341276
      ],
      [
        "US",
        -9.755262664423446
      ],
      [
        "Ġfinanceira",
        -9.75539516177313
      ],
      [
        "ele",
        -9.75620347563741
      ],
      [
        "ĠBrasileira",
        -9.756564300552508
      ],
      [
        "ĠRÃ¡dio",
        -9.75689110526764
      ],
      [
        "Ġperde",
        -9.757031525222498
      ],
      [
        "Ã´",
        -9.75775313678844
      ],
      [
        "Ġexecutar",
        -9.759398451924982
      ],
      [
        "ĠTe",
        -9.759455697105327
      ],
      [
        "proteÃ§Ã£o",
        -9.760428537441229
      ],
      [
        "Ġcomunidade",
        -9.760896033346828
      ],
      [
        "inho",
        -9.760919146939845
      ],
      [
        "Ġdiversos",
        -9.761404724792932
      ],
      [
        "servidores",
        -9.76159688151521
      ],
      [
        "ĠBahia",
        -9.761759303310344
      ],
      [
        "est",
        -9.762022382201105
      ],
      [
        "risco",
        -9.76227130107799
      ],
      [
        "nia",
        -9.762500931172932
      ],
      [
        "homens",
        -9.763287089911326
      ],
      [
        "ĠMarcelo",
        -9.763352034283578
      ],
      [
        "Ġartigos",
        -9.764158384912912
      ],
      [
        "emos",
        -9.764734399241018
      ],
      [
        "18",
        -9.76519827701892
      ],
      [
        "ĠSENHOR",
        -9.765246444169495
      ],
      [
        "ĠLima",
        -9.76537563462271
      ],
      [
        "RJ",
        -9.765596798441244
      ],
      [
        "devem",
        -9.7657162408174
      ],
      [
        "Ġambiente",
        -9.76662824398224
      ],
      [
        "Ġchamada",
        -9.766883969541066
      ],
      [
        "ĠMundial",
        -9.767655855672237
      ],
      [
        "Ġterceiro",
        -9.768469415724844
      ],
      [
        "ProvisÃ³ria",
        -9.76896235907716
      ],
      [
        "ĠADV",
        -9.770257724557556
      ],
      [
        "ĠAdministraÃ§Ã£o",
        -9.770759703353926
      ],
      [
        "nal",
        -9.771395218072827
      ],
      [
        "Ġapresenta",
        -9.771538542677844
      ],
      [
        "pensado",
        -9.7720672306838
      ],
      [
        "Ġdeles",
        -9.772953667970846
      ],
      [
        "Ġelas",
        -9.773211104203156
      ],
      [
        "Ġideia",
        -9.773417355610508
      ],
      [
        "Ġreal",
        -9.77369480648967
      ],
      [
        "ĠDireito",
        -9.773935715236046
      ],
      [
        "ĠposiÃ§Ã£o",
        -9.774202528198332
      ],
      [
        "normas",
        -9.775540108479117
      ],
      [
        "Ġestudo",
        -9.776871771774523
      ],
      [
        "MENTO",
        -9.777050308890008
      ],
      [
        "nÂº",
        -9.77795868435586
      ],
      [
        "ĠCO",
        -9.778070456579252
      ],
      [
        "ĠJorge",
        -9.77819181486307
      ],
      [
        "Ġnota",
        -9.779597367906977
      ],
      [
        "Ainda",
        -9.779932148912083
      ],
      [
        "Ġdiversas",
        -9.779988806197515
      ],
      [
        "Ġprofissionais",
        -9.780491292468469
      ],
      [
        "ĠInternacional",
        -9.780698410604572
      ],
      [
        "tion",
        -9.782479638112369
      ],
      [
        "ĠMINISTR",
        -9.783001369499855
      ],
      [
        "ĠresponsÃ¡vel",
        -9.783595770759945
      ],
      [
        "ĠMendes",
        -9.7839115938278
      ],
      [
        "Ġpequeno",
        -9.78425901837402
      ],
      [
        "ã",
        -9.784420861511162
      ],
      [
        "2004",
        -9.78457080987687
      ],
      [
        "Ġincluindo",
        -9.78550917687874
      ],
      [
        "gostaria",
        -9.78699046156001
      ],
      [
        "Ã¢",
        -9.787368284787906
      ],
      [
        "par",
        -9.789658261183837
      ],
      [
        "cer",
        -9.790111051447086
      ],
      [
        "Ġamigo",
        -9.790289847895126
      ],
      [
        "Ġsu",
        -9.791435589946984
      ],
      [
        "Ã¡reas",
        -9.791459032982589
      ],
      [
        "ĠMu",
        -9.791604284468008
      ],
      [
        "CE",
        -9.793185260942636
      ],
      [
        "Ġlivre",
        -9.79593081157203
      ],
      [
        "reduÃ§Ã£o",
        -9.796615869031717
      ],
      [
        "onde",
        -9.796897170314576
      ],
      [
        "Ġ60",
        -9.799881294494003
      ],
      [
        "ĠHa",
        -9.800649547601193
      ],
      [
        "ĠTudo",
        -9.801504454480154
      ],
      [
        "PCdoB",
        -9.801696877804666
      ],
      [
        "Ġdiretor",
        -9.80237999874524
      ],
      [
        "tica",
        -9.802594860650483
      ],
      [
        "Ġdela",
        -9.803054238054589
      ],
      [
        "econÃ´mica",
        -9.803170499129356
      ],
      [
        "ĠPE",
        -9.803466656127185
      ],
      [
        "SOL",
        -9.80353448042249
      ],
      [
        "Ġfins",
        -9.803570486918913
      ],
      [
        "Ġajudar",
        -9.803854506480242
      ],
      [
        "ĠVoss",
        -9.804858758357298
      ],
      [
        "Ġfundamental",
        -9.804961227157632
      ],
      [
        "Ġcumprimento",
        -9.80521248049207
      ],
      [
        "Ã§o",
        -9.80560186301759
      ],
      [
        "Ġfuturo",
        -9.806471501162854
      ],
      [
        "ĠvocÃªs",
        -9.806838926909002
      ],
      [
        "tur",
        -9.807587276065544
      ],
      [
        "RE",
        -9.8080179230756
      ],
      [
        "ĠâĢĺ",
        -9.81067457660038
      ],
      [
        "ora",
        -9.811422187386134
      ],
      [
        "ent",
        -9.811518248929048
      ],
      [
        "Ġ1997",
        -9.812332257774171
      ],
      [
        "Ġclube",
        -9.812567860334754
      ],
      [
        "ĠMar",
        -9.813998918641005
      ],
      [
        "Ġevento",
        -9.814170991720598
      ],
      [
        "pronunciamento",
        -9.815173543471031
      ],
      [
        "Ġnovas",
        -9.816019839137816
      ],
      [
        "ĠGo",
        -9.81647945206581
      ],
      [
        "Ġnenhuma",
        -9.816926670412046
      ],
      [
        "Ġmuita",
        -9.8180036012999
      ],
      [
        "ly",
        -9.818119496028542
      ],
      [
        "Ġapresentada",
        -9.81971336000263
      ],
      [
        "Ġentra",
        -9.819842109348016
      ],
      [
        "pre",
        -9.820610514314884
      ],
      [
        "Ġmaterial",
        -9.82075046743499
      ],
      [
        "ĠGovernador",
        -9.821899015408704
      ],
      [
        "PP",
        -9.822132694263134
      ],
      [
        "ĠSE",
        -9.823088521686032
      ],
      [
        "tratamento",
        -9.823651792844885
      ],
      [
        "Ġ54",
        -9.824543532903723
      ],
      [
        "DE",
        -9.82706037371719
      ],
      [
        "Ġestrutura",
        -9.827712507835182
      ],
      [
        "substituiÃ§Ã£o",
        -9.82792298649485
      ],
      [
        "ĠSuperior",
        -9.828030715681225
      ],
      [
        "Ġsignifica",
        -9.828647796993833
      ],
      [
        "Ġapresentar",
        -9.82876792328002
      ],
      [
        "TO",
        -9.828872021497553
      ],
      [
        "Ġcrescimento",
        -9.830145225630558
      ],
      [
        "ex",
        -9.830874582825768
      ],
      [
        "ĠAcho",
        -9.832092533584364
      ],
      [
        "ser",
        -9.835450444054866
      ],
      [
        "Ġalta",
        -9.83657239617154
      ],
      [
        "Ġpassar",
        -9.836764796940995
      ],
      [
        "hipÃ³tese",
        -9.837279629194995
      ],
      [
        "entidades",
        -9.83796169227754
      ],
      [
        "PE",
        -9.838092877912768
      ],
      [
        "Ġmilitar",
        -9.840169244260244
      ],
      [
        "Ġsonora",
        -9.840931828443445
      ],
      [
        "Ġsimples",
        -9.84152598722248
      ],
      [
        "ĠEXTRAORDINÃģRI",
        -9.84256651778392
      ],
      [
        "ĠPmdbP",
        -9.844261622924384
      ],
      [
        "Ġcivil",
        -9.845415294701766
      ],
      [
        "Ġimposto",
        -9.846389072480603
      ],
      [
        "Ġdeixo",
        -9.846894615785349
      ],
      [
        "ĠSt",
        -9.848315986863357
      ],
      [
        "Ġcontar",
        -9.84872277983454
      ],
      [
        "ĠVoto",
        -9.848808009068662
      ],
      [
        "Ġcentro",
        -9.850408200999365
      ],
      [
        "audiÃªncia",
        -9.850529933375803
      ],
      [
        "preÃ§o",
        -9.851321399196545
      ],
      [
        "ĠCampos",
        -9.8527947209597
      ],
      [
        "Ġvoltar",
        -9.854706082473797
      ],
      [
        "Ġfilhos",
        -9.855820379482298
      ],
      [
        "Ġnaquel",
        -9.856794771869664
      ],
      [
        "ĠLt",
        -9.856966495098334
      ],
      [
        "fer",
        -9.85723218071002
      ],
      [
        "Ġtribuna",
        -9.858203917137605
      ],
      [
        "ĥ",
        -9.858501976587885
      ],
      [
        "Hoje",
        -9.859756530926775
      ],
      [
        "ĠterÃ¡",
        -9.862952091954234
      ],
      [
        "Ġauto",
        -9.863160032375076
      ],
      [
        "Ġautoridade",
        -9.864717072768393
      ],
      [
        "ĠninguÃ©m",
        -9.86476339287711
      ],
      [
        "ĠAta",
        -9.864772505153832
      ],
      [
        "ĠmÃ£o",
        -9.865426946675347
      ],
      [
        "Ġdespes",
        -9.865814950960802
      ],
      [
        "ida",
        -9.866280250475471
      ],
      [
        "mas",
        -9.866478159299628
      ],
      [
        "ARDO",
        -9.86671692402841
      ],
      [
        "ĠNos",
        -9.867272431577849
      ],
      [
        "ĠadministraÃ§Ã£o",
        -9.869310243287831
      ],
      [
        "Ġmeus",
        -9.872866312441175
      ],
      [
        "designado",
        -9.87342559407924
      ],
      [
        "ĠIgreja",
        -9.873878879454798
      ],
      [
        "ĠinstituiÃ§Ã£o",
        -9.874643819777944
      ],
      [
        "PFL",
        -9.875558806871704
      ],
      [
        "ĠPEC",
        -9.876007386890429
      ],
      [
        "para",
        -9.878318857087478
      ],
      [
        "juridicidade",
        -9.878591136250972
      ],
      [
        "Tenho",
        -9.878912914349266
      ],
      [
        "Ġtrabalhar",
        -9.880575964092472
      ],
      [
        "Ġespecialmente",
        -9.880956810794803
      ],
      [
        "ĠSrÂª",
        -9.88150538589848
      ],
      [
        "ĠFEDERAL",
        -9.88159240226508
      ],
      [
        "ĠAnex",
        -9.882061045975751
      ],
      [
        "ĠCentro",
        -9.88242382481205
      ],
      [
        "Ġtaxa",
        -9.882673642133902
      ],
      [
        "Ġusar",
        -9.885460638024618
      ],
      [
        "Ġcategoria",
        -9.885650731073556
      ],
      [
        "Ġsair",
        -9.885728988219658
      ],
      [
        "ĠFranÃ§a",
        -9.885935643501442
      ],
      [
        "casos",
        -9.885952944655063
      ],
      [
        "ĠJÃºnior",
        -9.886731707297514
      ],
      [
        "ĠEntre",
        -9.887013101635322
      ],
      [
        "Ġcusto",
        -9.88723489695967
      ],
      [
        "tico",
        -9.88730077287483
      ],
      [
        "Ġoutorga",
        -9.8873135146101
      ],
      [
        "ĠBar",
        -9.88802159959431
      ],
      [
        "proposiÃ§Ã£o",
        -9.888439667804189
      ],
      [
        "Ġgarantir",
        -9.889299075238153
      ],
      [
        "ĠTemer",
        -9.889421548806082
      ],
      [
        "ĠCultura",
        -9.889564538389378
      ],
      [
        "ĠTodos",
        -9.88981005197176
      ],
      [
        "ĠLi",
        -9.890450559351864
      ],
      [
        "Ġcabe",
        -9.890750292567777
      ],
      [
        "Ġbastante",
        -9.891184698431182
      ],
      [
        "Ġcombate",
        -9.89143671689975
      ],
      [
        "ĠSecretÃ¡rio",
        -9.892367914079877
      ],
      [
        "ĠRibeiro",
        -9.893962441346345
      ],
      [
        "comunitÃ¡ria",
        -9.895914564250027
      ],
      [
        "autorizaÃ§Ã£o",
        -9.896035696475302
      ],
      [
        "posiÃ§Ãµes",
        -9.89607286719512
      ],
      [
        "2018",
        -9.896926747991744
      ],
      [
        "Ġaprovada",
        -9.897118920188063
      ],
      [
        "Ġpublicado",
        -9.897480822337688
      ],
      [
        "stÃµes",
        -9.897549096303122
      ],
      [
        "Ġrealidade",
        -9.897636539452131
      ],
      [
        "Ġinstrumento",
        -9.898320809206991
      ],
      [
        "ĠTerra",
        -9.898359296193178
      ],
      [
        "conteÃºdo",
        -9.898580596739675
      ],
      [
        "prisÃ£o",
        -9.899190179007608
      ],
      [
        "ĠprÃ³xima",
        -9.899553111344812
      ],
      [
        "ĠMan",
        -9.899553589343448
      ],
      [
        "via",
        -9.900537546587904
      ],
      [
        "afirmou",
        -9.90054848588047
      ],
      [
        "ĠversÃ£o",
        -9.90091629505407
      ],
      [
        "Ġisto",
        -9.901152636584037
      ],
      [
        "Ġfilha",
        -9.902069858503456
      ],
      [
        "Ġ1999",
        -9.902591367716512
      ],
      [
        "ĠorganizaÃ§Ã£o",
        -9.90317120802506
      ],
      [
        "Ġfutebol",
        -9.903645795822934
      ],
      [
        "Ġtrans",
        -9.90386701579878
      ],
      [
        "ĠCar",
        -9.904076134848935
      ],
      [
        "Î",
        -9.904126940361976
      ],
      [
        "Ġtermo",
        -9.904265272714312
      ],
      [
        "Ġcor",
        -9.904336173858717
      ],
      [
        "Ġautoriza",
        -9.904589281546471
      ],
      [
        "tenham",
        -9.90517316089501
      ],
      [
        "verÃ£o",
        -9.905245933430717
      ],
      [
        "Ġdiante",
        -9.90576555992254
      ],
      [
        "Ġdis",
        -9.905815120710836
      ],
      [
        "Ġnovamente",
        -9.90602344569106
      ],
      [
        "efeitos",
        -9.90626887262816
      ],
      [
        "cha",
        -9.907038074959315
      ],
      [
        "Ġcurso",
        -9.90710008747648
      ],
      [
        "seguida",
        -9.9106954488566
      ],
      [
        "jovens",
        -9.91136856670756
      ],
      [
        "ĠLÃºci",
        -9.913520078452382
      ],
      [
        "Ġmarca",
        -9.914009190129711
      ],
      [
        "atuaÃ§Ã£o",
        -9.914825913301144
      ],
      [
        "zar",
        -9.916170043944396
      ],
      [
        "âĢĳ",
        -9.91748483789516
      ],
      [
        "Ġapresentado",
        -9.917528367120322
      ],
      [
        "Ġfiscal",
        -9.918866537207844
      ],
      [
        "ĠInformÃ¡tica",
        -9.92104263426317
      ],
      [
        "Ġgarantia",
        -9.921333704444075
      ],
      [
        "Ġmostra",
        -9.921410794100264
      ],
      [
        "Ġvia",
        -9.92159346085277
      ],
      [
        "RS",
        -9.921828649423611
      ],
      [
        "Ġcolocar",
        -9.922258541736118
      ],
      [
        "Ġfundo",
        -9.922424622913288
      ],
      [
        "CURSO",
        -9.925090057392715
      ],
      [
        "ĠMeu",
        -9.925265665323511
      ],
      [
        "ĠSegunda",
        -9.92659784802729
      ],
      [
        "ĠcondiÃ§Ã£o",
        -9.928580397168377
      ],
      [
        "Ġlevar",
        -9.92915028482452
      ],
      [
        "ĠBe",
        -9.92937703680569
      ],
      [
        "Ġnatural",
        -9.93002218413974
      ],
      [
        "pÃºblicas",
        -9.930743916046817
      ],
      [
        "ĠRosa",
        -9.931453832811217
      ],
      [
        "ĠdireÃ§Ã£o",
        -9.931558599185676
      ],
      [
        "ĠAtÃ©",
        -9.933909459629396
      ],
      [
        "Ñ",
        -9.9343032710929
      ],
      [
        "Ġpopular",
        -9.934790110118826
      ],
      [
        "ĠTrata",
        -9.935055878404684
      ],
      [
        "Ġamor",
        -9.935167758897316
      ],
      [
        "Ġnorma",
        -9.935828501501977
      ],
      [
        "bancada",
        -9.93849152101905
      ],
      [
        "cor",
        -9.93889317176988
      ],
      [
        "tivo",
        -9.93897897246169
      ],
      [
        "Ġganho",
        -9.942490350622004
      ],
      [
        "Ġvisto",
        -9.943374157262904
      ],
      [
        "AgR",
        -9.945172727968886
      ],
      [
        "ĠEuropa",
        -9.94533455550399
      ],
      [
        "Ġsuficiente",
        -9.945383053044615
      ],
      [
        "dÃŃvida",
        -9.946391265197985
      ],
      [
        "ĠeconÃ´mico",
        -9.94809292035314
      ],
      [
        "porÃ©",
        -9.948732562185596
      ],
      [
        "ry",
        -9.949339896069914
      ],
      [
        "entendimento",
        -9.951114232770244
      ],
      [
        "declaraÃ§Ã£o",
        -9.95154812891816
      ],
      [
        "tan",
        -9.953055175315267
      ],
      [
        "aquela",
        -9.953287499382844
      ],
      [
        "prestaÃ§Ã£o",
        -9.953371075038408
      ],
      [
        "Ġconhecida",
        -9.95399605557135
      ],
      [
        "razÃµes",
        -9.954503926068522
      ],
      [
        "prejuÃŃz",
        -9.954805451936348
      ],
      [
        "Ġparticipar",
        -9.955495151533698
      ],
      [
        "Ġjornal",
        -9.95586811010645
      ],
      [
        "DEPUTADO",
        -9.95719243380995
      ],
      [
        "pro",
        -9.957379906287729
      ],
      [
        "emprego",
        -9.957691402325144
      ],
      [
        "tas",
        -9.95780236801095
      ],
      [
        "entidade",
        -9.958370304408206
      ],
      [
        "URMA",
        -9.958943758712223
      ],
      [
        "Ġmar",
        -9.95991599839672
      ],
      [
        "omissÃµes",
        -9.961177325675337
      ],
      [
        "IS",
        -9.961371839628203
      ],
      [
        "ĠBom",
        -9.961843410316591
      ],
      [
        "vÃŃtima",
        -9.961881008137343
      ],
      [
        "ĠDep",
        -9.962083891318224
      ],
      [
        "AntÃ´nio",
        -9.963342853615078
      ],
      [
        "REG",
        -9.963954384727666
      ],
      [
        "Portaria",
        -9.964171538620052
      ],
      [
        "ĠVale",
        -9.965048884173193
      ],
      [
        "ger",
        -9.965239732970891
      ],
      [
        "ĠComplementar",
        -9.965743481398064
      ],
      [
        "ĠPenal",
        -9.96656468228556
      ],
      [
        "ĠMato",
        -9.967097538855445
      ],
      [
        "Primeiro",
        -9.968228134415725
      ],
      [
        "Substitutivo",
        -9.968596872184053
      ],
      [
        "Ġfaixa",
        -9.970863459352955
      ],
      [
        "SÃ©rgi",
        -9.971501939901646
      ],
      [
        "ĠportuguÃªs",
        -9.97162570524057
      ],
      [
        "conformidade",
        -9.971926063173765
      ],
      [
        "Ĥ",
        -9.972411079319029
      ],
      [
        "RelatÃ³rio",
        -9.972803387216766
      ],
      [
        "Ġaconteceu",
        -9.973162721668942
      ],
      [
        "ĠvitÃ³ria",
        -9.974259151433309
      ],
      [
        "Ġalto",
        -9.974297883373538
      ],
      [
        "ĠParanÃ¡",
        -9.974880399728535
      ],
      [
        "locais",
        -9.975903488915469
      ],
      [
        "ali",
        -9.976357100852857
      ],
      [
        "Ġpermite",
        -9.976384897894633
      ],
      [
        "ĠcabeÃ§a",
        -9.97685331337785
      ],
      [
        "ira",
        -9.9772092970764
      ],
      [
        "Ġtratar",
        -9.977904940000174
      ],
      [
        "ĠRJ",
        -9.978272142173434
      ],
      [
        "Ġpar",
        -9.980738660309049
      ],
      [
        "Ġcontinuar",
        -9.980839627578414
      ],
      [
        "istas",
        -9.981602562161973
      ],
      [
        "Ġcriado",
        -9.9817711921443
      ],
      [
        "atos",
        -9.983159142508166
      ],
      [
        "Ġocorre",
        -9.984572531603725
      ],
      [
        "Ġacerca",
        -9.984690364493972
      ],
      [
        "ģ",
        -9.984855289418592
      ],
      [
        "ĠAn",
        -9.985207497156036
      ],
      [
        "Ġdessas",
        -9.98533054724132
      ],
      [
        "Ġ1996",
        -9.985423502387947
      ],
      [
        "Ġali",
        -9.986398691455628
      ],
      [
        "leiÃ§Ã£o",
        -9.98647306030213
      ],
      [
        "indÃºstria",
        -9.986651070474622
      ],
      [
        "pressÃ£o",
        -9.987344187408304
      ],
      [
        "talvez",
        -9.98777658290333
      ],
      [
        "bra",
        -9.988552312977909
      ],
      [
        "ĠtelevisÃ£o",
        -9.989967776191714
      ],
      [
        "PRB",
        -9.990706666345728
      ],
      [
        "ĠapresentaÃ§Ã£o",
        -9.99094820283612
      ],
      [
        "ĠAna",
        -9.991164636148358
      ],
      [
        "ĠEst",
        -9.991318345610704
      ],
      [
        "Ġafirma",
        -9.991483106161398
      ],
      [
        "ĠFe",
        -9.99228356134408
      ],
      [
        "estavam",
        -9.993233365548974
      ],
      [
        "salÃ¡rio",
        -9.993643065855164
      ],
      [
        "gem",
        -9.993663881537682
      ],
      [
        "OfÃŃci",
        -9.993816234580422
      ],
      [
        "Ġencontrar",
        -9.99385416566999
      ],
      [
        "ĠCE",
        -9.99451567115223
      ],
      [
        "ras",
        -9.994519788398572
      ],
      [
        "Ġtais",
        -9.996818510175476
      ],
      [
        "isso",
        -9.998408160561622
      ],
      [
        "ĠreferÃªncia",
        -9.998506094249368
      ],
      [
        "ĠSan",
        -9.999197621436137
      ],
      [
        "Ãģ",
        -10.001761290002264
      ],
      [
        "Ġcomum",
        -10.00215284274829
      ],
      [
        "ĠComunitÃ¡ri",
        -10.002320425892345
      ],
      [
        "ĠcarÃ¡ter",
        -10.00248430496825
      ],
      [
        "Ġdispositivo",
        -10.003366100718736
      ],
      [
        "MG",
        -10.004218434694844
      ],
      [
        "ĠdifÃŃcil",
        -10.00441134562602
      ],
      [
        "destinada",
        -10.005801221560864
      ],
      [
        "arÃ¡grafo",
        -10.006050758067683
      ],
      [
        "Ġpermitir",
        -10.006796096525944
      ],
      [
        "fl",
        -10.006876712380691
      ],
      [
        "Ġbaixo",
        -10.007226587212475
      ],
      [
        "tem",
        -10.010510747163568
      ],
      [
        "log",
        -10.010759309462356
      ],
      [
        "ura",
        -10.010875193971058
      ],
      [
        "ĠAqui",
        -10.011114271063429
      ],
      [
        "25",
        -10.011364719784112
      ],
      [
        "Ġchega",
        -10.0118556620741
      ],
      [
        "ĠPOR",
        -10.011928657406582
      ],
      [
        "provisÃ³ria",
        -10.01269088699316
      ],
      [
        "Ġfi",
        -10.012961915908962
      ],
      [
        "nha",
        -10.013135013309196
      ],
      [
        "Ġreuni",
        -10.013431113460516
      ],
      [
        "Ġrealizar",
        -10.013490728321408
      ],
      [
        "ĠlÃŃngua",
        -10.013726413841082
      ],
      [
        "atrÃ¡s",
        -10.014156065516763
      ],
      [
        "manutenÃ§Ã£o",
        -10.014436877285108
      ],
      [
        "visÃ£o",
        -10.015555182781622
      ],
      [
        "01",
        -10.015724876596916
      ],
      [
        "ĠcomeÃ§a",
        -10.015797063498002
      ],
      [
        "Ġabertura",
        -10.017344949360725
      ],
      [
        "Ġsuper",
        -10.017857495173416
      ],
      [
        "Ġjogos",
        -10.018685330117512
      ],
      [
        "Ġconsegui",
        -10.020413325855944
      ],
      [
        "favorÃ¡vel",
        -10.021215315342737
      ],
      [
        "soluÃ§Ã£o",
        -10.023104202254194
      ],
      [
        "ĠPrefeit",
        -10.023251032416876
      ],
      [
        "pen",
        -10.023352005536758
      ],
      [
        "veio",
        -10.024738670065664
      ],
      [
        "Ġdireta",
        -10.02494701120076
      ],
      [
        "legais",
        -10.02510972151166
      ],
      [
        "ĠmÃ©dico",
        -10.02526489454804
      ],
      [
        "tiva",
        -10.025747239293988
      ],
      [
        "Ġamigos",
        -10.025879623731145
      ],
      [
        "gua",
        -10.02694016616796
      ],
      [
        "\",\"",
        -10.02702529510731
      ],
      [
        "PSC",
        -10.027452493125832
      ],
      [
        "ĠeletrÃ´nico",
        -10.02853095279453
      ],
      [
        "utilizaÃ§Ã£o",
        -10.029455615144688
      ],
      [
        "apesar",
        -10.03057812962386
      ],
      [
        "Ġcolega",
        -10.03132266815408
      ],
      [
        "NÃ£o",
        -10.031462432900174
      ],
      [
        "referido",
        -10.031614907624526
      ],
      [
        "ĠdistribuiÃ§Ã£o",
        -10.031871907097493
      ],
      [
        "Ġhomenage",
        -10.032126409851823
      ],
      [
        "Ġmulta",
        -10.033014185382122
      ],
      [
        "PpP",
        -10.03399548269922
      ],
      [
        "ĠtÃ©cnico",
        -10.034612661471796
      ],
      [
        "Celso",
        -10.034742989515408
      ],
      [
        "Apoio",
        -10.035536134968403
      ],
      [
        "eleiÃ§Ãµes",
        -10.03835110357164
      ],
      [
        "votos",
        -10.039285259151638
      ],
      [
        "ĠBA",
        -10.040216261370553
      ],
      [
        "Ġdocumentos",
        -10.040902199361282
      ],
      [
        "Ġentrar",
        -10.04103063361248
      ],
      [
        "lei",
        -10.041074591984977
      ],
      [
        "regiÃµes",
        -10.04121302813791
      ],
      [
        "Ġqu",
        -10.041785769474668
      ],
      [
        "comissÃ£o",
        -10.04199944306308
      ],
      [
        "dizendo",
        -10.042127987968051
      ],
      [
        "Ġclasse",
        -10.04236632517784
      ],
      [
        "Ġgrave",
        -10.042377038788931
      ],
      [
        "ĠPROPOSI",
        -10.042458854561373
      ],
      [
        "ĠCentral",
        -10.042512633216568
      ],
      [
        "ĠDOS",
        -10.042880655310404
      ],
      [
        "ĠSouza",
        -10.043799860653984
      ],
      [
        "ris",
        -10.044293819133518
      ],
      [
        "Estamos",
        -10.04516819637586
      ],
      [
        "militares",
        -10.045194699552496
      ],
      [
        "Ġdiscutir",
        -10.046093763269518
      ],
      [
        "Ġperda",
        -10.046124080874794
      ],
      [
        "nada",
        -10.047132317952729
      ],
      [
        "ĠTemo",
        -10.047177808901532
      ],
      [
        "Ġsolicita",
        -10.047241462106102
      ],
      [
        "Ġmelhores",
        -10.047491728306571
      ],
      [
        "Certo",
        -10.047725759656386
      ],
      [
        "ĠGomes",
        -10.049797433142508
      ],
      [
        "ĠProcesso",
        -10.050289351046796
      ],
      [
        "ausÃªncia",
        -10.05078831156332
      ],
      [
        "ĠoperaÃ§Ã£o",
        -10.05241417004457
      ],
      [
        "ĠMunicipal",
        -10.052675612984798
      ],
      [
        "Ġ32",
        -10.052751361386456
      ],
      [
        "Ġvisita",
        -10.053044692908692
      ],
      [
        "Ġigual",
        -10.053224132393275
      ],
      [
        "ĠMinistra",
        -10.053803530487784
      ],
      [
        "Ġtentar",
        -10.054599605960782
      ],
      [
        "ĠLopes",
        -10.05473025218292
      ],
      [
        "ĠGrosso",
        -10.055082687202582
      ],
      [
        "ĠCi",
        -10.055541090468807
      ],
      [
        "Ġfazem",
        -10.055701072502758
      ],
      [
        "Ġ70",
        -10.055765994339708
      ],
      [
        "Ġrecebe",
        -10.056042693017138
      ],
      [
        "Ġcento",
        -10.056169377434951
      ],
      [
        "CARLOS",
        -10.05703069483324
      ],
      [
        "ĠMilitar",
        -10.057098723855724
      ],
      [
        "ĠPlano",
        -10.05753815626722
      ],
      [
        "esse",
        -10.057943902254737
      ],
      [
        "ĠRocha",
        -10.057959297434126
      ],
      [
        "Ġconsiderada",
        -10.059096257836291
      ],
      [
        "ĠConced",
        -10.059127680305174
      ],
      [
        "ĠCor",
        -10.059916534439584
      ],
      [
        "ff",
        -10.06065638788211
      ],
      [
        "inclusÃ£o",
        -10.060875396355698
      ],
      [
        "ĠJohn",
        -10.061924859552487
      ],
      [
        "SRA",
        -10.062440709455784
      ],
      [
        "Ġrepresentante",
        -10.063553691432563
      ],
      [
        "Ġparticular",
        -10.063936059458936
      ],
      [
        "possam",
        -10.064593327493812
      ],
      [
        "Ġbaixa",
        -10.064794066556782
      ],
      [
        "ĠlanÃ§amento",
        -10.065305913172049
      ],
      [
        "ĠcanÃ§Ã£o",
        -10.066058700118743
      ],
      [
        "operaÃ§Ãµes",
        -10.066130140595282
      ],
      [
        "tÃ¡",
        -10.06669498809728
      ],
      [
        "Ã¡veis",
        -10.066829729183898
      ],
      [
        "diretamente",
        -10.067436095301458
      ],
      [
        "ĠpeÃ§o",
        -10.0688170318177
      ],
      [
        "ĠEscola",
        -10.069343148432052
      ],
      [
        "alunos",
        -10.069433921425132
      ],
      [
        "Ġfedera",
        -10.069474628785027
      ],
      [
        "Ġquadro",
        -10.069790183306116
      ],
      [
        "GERAL",
        -10.070587730589422
      ],
      [
        "Ġcar",
        -10.070886238763638
      ],
      [
        "Ġsite",
        -10.071020052195555
      ],
      [
        "Ġeleito",
        -10.07199134756204
      ],
      [
        "Ġres",
        -10.072468273632293
      ],
      [
        "Ġcompromisso",
        -10.0726865067293
      ],
      [
        "Pausa",
        -10.073844847242546
      ],
      [
        "............",
        -10.074036491265955
      ],
      [
        "Ġsofre",
        -10.074317330217257
      ],
      [
        "Ġcapaz",
        -10.07437509366703
      ],
      [
        "ĠorÃ§amentÃ¡ria",
        -10.074845443115548
      ],
      [
        "Ġdecreta",
        -10.07526211424477
      ],
      [
        "Ġlocalizado",
        -10.076441332131935
      ],
      [
        "ĠSub",
        -10.076581277799251
      ],
      [
        "ĠCatarina",
        -10.076973325206335
      ],
      [
        "regras",
        -10.077043720286287
      ],
      [
        "ant",
        -10.07728234680622
      ],
      [
        "Ġacabou",
        -10.07737257039819
      ],
      [
        "exposto",
        -10.07748920971794
      ],
      [
        "Of",
        -10.07775069298038
      ],
      [
        "ten",
        -10.078003501462051
      ],
      [
        "ĠPer",
        -10.078664577221115
      ],
      [
        "Ġtornar",
        -10.079394623258551
      ],
      [
        "Ġporta",
        -10.080158599922484
      ],
      [
        "ĠmÃ©dio",
        -10.080846909209365
      ],
      [
        "Ġmetros",
        -10.080904867296589
      ],
      [
        "Ġestabelece",
        -10.081204175419538
      ],
      [
        "xclusividade",
        -10.081524176654408
      ],
      [
        "cional",
        -10.082002957615662
      ],
      [
        "ocalidades",
        -10.082037016271864
      ],
      [
        "Ġconseguiu",
        -10.082499134922385
      ],
      [
        "Ġrelativa",
        -10.083535758006974
      ],
      [
        "ĠHe",
        -10.084280725829991
      ],
      [
        "Ġquarto",
        -10.084310989456895
      ],
      [
        "Ġdiferente",
        -10.085152609253983
      ],
      [
        "Ãºmula",
        -10.085213398715355
      ],
      [
        "ist",
        -10.085277150569356
      ],
      [
        "ĠBi",
        -10.085391641073892
      ],
      [
        "Ġperto",
        -10.08571184836928
      ],
      [
        "Ġfiz",
        -10.08616396216062
      ],
      [
        "Apesar",
        -10.087470085779191
      ],
      [
        "falando",
        -10.087495822614091
      ],
      [
        "esforÃ§o",
        -10.087999172468482
      ],
      [
        "ĠdiferenÃ§a",
        -10.088830680364277
      ],
      [
        "Ġrei",
        -10.088867202119484
      ],
      [
        "ido",
        -10.090554383917164
      ],
      [
        "ĠPorque",
        -10.090818323156888
      ],
      [
        "EL",
        -10.091047042227672
      ],
      [
        "Ġescolas",
        -10.09117197408851
      ],
      [
        "Ġrevista",
        -10.09223999933186
      ],
      [
        "Ġdisputa",
        -10.092675504681514
      ],
      [
        "estabelecimento",
        -10.092874525639733
      ],
      [
        "polÃŃticas",
        -10.093937207960352
      ],
      [
        "privada",
        -10.093990970100505
      ],
      [
        "Ġimprensa",
        -10.094193036114374
      ],
      [
        "Ġquantidade",
        -10.094349100300764
      ],
      [
        "ĠLista",
        -10.09497855375555
      ],
      [
        "Ġtomar",
        -10.0950164251738
      ],
      [
        "PPS",
        -10.095199659365134
      ],
      [
        "Ġestudos",
        -10.095347160730396
      ],
      [
        "Ġpequena",
        -10.095681028058166
      ],
      [
        "Ġinterior",
        -10.096926528056493
      ],
      [
        "ĠCONSTITUIÃĩÃĥO",
        -10.097148210941477
      ],
      [
        "Ġsete",
        -10.09756095182368
      ],
      [
        "ĠTi",
        -10.098001538873753
      ],
      [
        "Ġjovem",
        -10.09832390615976
      ],
      [
        "Ġquarta",
        -10.099597092424618
      ],
      [
        "ĠVeja",
        -10.100154798632976
      ],
      [
        "Ġpagar",
        -10.10122739302214
      ],
      [
        "plenÃ¡rio",
        -10.101771022797628
      ],
      [
        "ĠCl",
        -10.10227075338694
      ],
      [
        "RI",
        -10.102460928912102
      ],
      [
        "Ġreceita",
        -10.103029027585618
      ],
      [
        "ejeiÃ§Ã£o",
        -10.103676643721611
      ],
      [
        "motivo",
        -10.10414381087438
      ],
      [
        "ĠLUIZ",
        -10.10452968594086
      ],
      [
        "Ġusado",
        -10.104581005458773
      ],
      [
        "bar",
        -10.106159232082804
      ],
      [
        "ĠMaranhÃ£o",
        -10.106415191107526
      ],
      [
        "Ġcarro",
        -10.106917719391836
      ],
      [
        "Ġlocalizada",
        -10.10768994077275
      ],
      [
        "ĠAlmeida",
        -10.107711154387705
      ],
      [
        "Ł",
        -10.10819297544337
      ],
      [
        "Ġdemanda",
        -10.110531888526737
      ],
      [
        "tecnologia",
        -10.11090031809293
      ],
      [
        "ssem",
        -10.111155422668045
      ],
      [
        "Ġunidades",
        -10.11178971763393
      ],
      [
        "Ġcomigo",
        -10.111795968775189
      ],
      [
        "+",
        -10.112937389163225
      ],
      [
        "dÃºvida",
        -10.112937772518084
      ],
      [
        "Ġbens",
        -10.112945342319165
      ],
      [
        "Ì",
        -10.11295745011526
      ],
      [
        "entrada",
        -10.11306563801684
      ],
      [
        "ontem",
        -10.113752821378975
      ],
      [
        "Ġexatamente",
        -10.113767195083412
      ],
      [
        "ĠParÃ¡",
        -10.115323690184082
      ],
      [
        "benefÃŃcio",
        -10.115355948426265
      ],
      [
        "NR",
        -10.11658673503674
      ],
      [
        "Ġpermiti",
        -10.116819340586051
      ],
      [
        "ĠRodrigues",
        -10.11684386152379
      ],
      [
        "Ġinicial",
        -10.116913206889077
      ],
      [
        "|",
        -10.118047001759331
      ],
      [
        "ĠcrianÃ§a",
        -10.118513895404035
      ],
      [
        "Ġfonte",
        -10.11987249851438
      ],
      [
        "ĠDiretor",
        -10.119980834676078
      ],
      [
        "Ġbi",
        -10.120021283728391
      ],
      [
        "mÃ¡ximo",
        -10.120041141894829
      ],
      [
        "ĠAh",
        -10.120397495368117
      ],
      [
        "Ptb",
        -10.120419014256246
      ],
      [
        "Ġentrega",
        -10.120421268417855
      ],
      [
        "ĠSou",
        -10.121243695971769
      ],
      [
        "Ġministro",
        -10.121826562805207
      ],
      [
        "ĠReal",
        -10.1219101272919
      ],
      [
        "Ġ1991",
        -10.12252930155888
      ],
      [
        "fÃŃsica",
        -10.122559952634768
      ],
      [
        "Ġhaja",
        -10.12465719940326
      ],
      [
        "Ġseguir",
        -10.125045158328698
      ],
      [
        "ĠCarvalho",
        -10.125315091096288
      ],
      [
        "ĠEl",
        -10.125841001224163
      ],
      [
        "Ġdecidi",
        -10.12629455534247
      ],
      [
        "Ġcompra",
        -10.12637275506004
      ],
      [
        "ĠHo",
        -10.126689546950876
      ],
      [
        "RegiÃ£o",
        -10.1271930477881
      ],
      [
        "28",
        -10.127349351807904
      ],
      [
        "ambos",
        -10.129112845437662
      ],
      [
        "Ġresultados",
        -10.1299008950969
      ],
      [
        "ĠTr",
        -10.130536802156865
      ],
      [
        "LideranÃ§a",
        -10.131026361028576
      ],
      [
        "50",
        -10.131432912867083
      ],
      [
        "criada",
        -10.13180064159702
      ],
      [
        "corrupÃ§Ã£o",
        -10.132592185717568
      ],
      [
        "requisitos",
        -10.13404542509093
      ],
      [
        "ĠDes",
        -10.134153905117834
      ],
      [
        "ĠprÃ©",
        -10.13435055144551
      ],
      [
        "[",
        -10.134751969895994
      ],
      [
        "ĠAprova",
        -10.135306743309686
      ],
      [
        "DF",
        -10.135912197068963
      ],
      [
        "julgado",
        -10.13637062572625
      ],
      [
        "Ġacha",
        -10.136438281128768
      ],
      [
        "ĠGrupo",
        -10.136887654922353
      ],
      [
        "land",
        -10.137368809280725
      ],
      [
        "ĠPA",
        -10.137375216050629
      ],
      [
        "seu",
        -10.138469633796998
      ],
      [
        "existente",
        -10.138477720229154
      ],
      [
        "Ġ1995",
        -10.13942079597646
      ],
      [
        "ĠToda",
        -10.13979291126895
      ],
      [
        "ĠOnde",
        -10.140224949641402
      ],
      [
        "Ġpais",
        -10.140421520140974
      ],
      [
        "ĠcontribuiÃ§Ã£o",
        -10.142289546724951
      ],
      [
        "ĠBu",
        -10.14257260302165
      ],
      [
        "Ġmundial",
        -10.142624210816493
      ],
      [
        "ĠLEGISLATIV",
        -10.143115552171466
      ],
      [
        "Ġestadual",
        -10.144126757314508
      ],
      [
        "constitucionai",
        -10.145353626774678
      ],
      [
        "Ġluz",
        -10.145951357060044
      ],
      [
        "Ġpropriedade",
        -10.1461285042507
      ],
      [
        "Ġoito",
        -10.146227930018512
      ],
      [
        "tura",
        -10.14631202856505
      ],
      [
        "Ġ119",
        -10.146584658730948
      ],
      [
        "ĠexperiÃªncia",
        -10.147646042558652
      ],
      [
        "tiveram",
        -10.147942506386482
      ],
      [
        "nacionais",
        -10.148174126791794
      ],
      [
        "Ġvir",
        -10.148201511381473
      ],
      [
        "ais",
        -10.149431120120369
      ],
      [
        "ĠLu",
        -10.149513251171228
      ],
      [
        "ĠFica",
        -10.149529669579396
      ],
      [
        "chefe",
        -10.150254536709992
      ],
      [
        "atualmente",
        -10.150756476640666
      ],
      [
        "Ġevitar",
        -10.151056976498076
      ],
      [
        "ense",
        -10.151404773982122
      ],
      [
        "ĠpolÃŃcia",
        -10.15147029335439
      ],
      [
        "isto",
        -10.153647228186264
      ],
      [
        "ĠjurÃŃdico",
        -10.154172965856606
      ],
      [
        "ĠNordeste",
        -10.154642263025211
      ],
      [
        "tic",
        -10.155034987681042
      ],
      [
        "AmazÃ´nia",
        -10.155930853197413
      ],
      [
        "ĠMinha",
        -10.156128005019816
      ],
      [
        "Estadual",
        -10.156893340173822
      ],
      [
        "Ġci",
        -10.157083440866405
      ],
      [
        "Talvez",
        -10.157385651538972
      ],
      [
        "Ġfinanciamento",
        -10.158590386956837
      ],
      [
        "Ġaltera",
        -10.159557940044468
      ],
      [
        "Figueiredo",
        -10.160348781409354
      ],
      [
        "somos",
        -10.161452263946003
      ],
      [
        "29",
        -10.16163583944179
      ],
      [
        "ĠJu",
        -10.161693416872474
      ],
      [
        "ĠWikipÃ©dia",
        -10.162100222737193
      ],
      [
        "ĠDECRET",
        -10.162287525385077
      ],
      [
        "ite",
        -10.162961730813349
      ],
      [
        "JudiciÃ¡ri",
        -10.162995997990826
      ],
      [
        "99",
        -10.163333714598872
      ],
      [
        "Ġdocumento",
        -10.163439934581463
      ],
      [
        "ĠReino",
        -10.163543862735006
      ],
      [
        "CO",
        -10.163651589925808
      ],
      [
        "Ġvenda",
        -10.164139363198206
      ],
      [
        "tre",
        -10.164225056417449
      ],
      [
        "2020",
        -10.16448248642326
      ],
      [
        "Ġencontro",
        -10.165799403509723
      ],
      [
        "ĠSeguranÃ§a",
        -10.1659403599009
      ],
      [
        "ĠAugusto",
        -10.166173395546885
      ],
      [
        "Teixeira",
        -10.166187174149584
      ],
      [
        "emendas",
        -10.166937030089535
      ],
      [
        "preÃ§os",
        -10.167536221584044
      ],
      [
        "Ġpasso",
        -10.1679653420536
      ],
      [
        "Ġimporta",
        -10.16829761351215
      ],
      [
        "cidade",
        -10.169637128158037
      ],
      [
        "ĠRi",
        -10.169941876663431
      ],
      [
        "Ġinterna",
        -10.170152488296042
      ],
      [
        "Ġregra",
        -10.170385789449398
      ],
      [
        "Ġfui",
        -10.171368293784138
      ],
      [
        "DiscussÃ£o",
        -10.17213403524663
      ],
      [
        "ĠUSP",
        -10.174465284717854
      ],
      [
        "Ġaprova",
        -10.175493104257068
      ],
      [
        "ĠNelson",
        -10.17563765694333
      ],
      [
        "ĠAndrÃ©",
        -10.177364071148308
      ],
      [
        "TA",
        -10.17763318649787
      ],
      [
        "BA",
        -10.17912313074991
      ],
      [
        "impacto",
        -10.179809791375352
      ],
      [
        "ĠDaniel",
        -10.180266665085371
      ],
      [
        "licitante",
        -10.180513641270649
      ],
      [
        "candidato",
        -10.1815494012411
      ],
      [
        "Ġanimais",
        -10.181646073134592
      ],
      [
        "ĠBR",
        -10.181750555721292
      ],
      [
        "ĠFamÃŃlia",
        -10.182083230469166
      ],
      [
        "humanos",
        -10.183413022877692
      ],
      [
        "lho",
        -10.184093447274014
      ],
      [
        "Fazenda",
        -10.184239923354191
      ],
      [
        "levou",
        -10.184474754206596
      ],
      [
        "americano",
        -10.18460556244158
      ],
      [
        "Ġacontece",
        -10.184783558261984
      ],
      [
        "Ġlimite",
        -10.185116643895771
      ],
      [
        "sta",
        -10.185276032133446
      ],
      [
        "Ġestilo",
        -10.185506357858412
      ],
      [
        "abaixo",
        -10.186546907739858
      ],
      [
        "ĠOlÃ¡",
        -10.186693271908196
      ],
      [
        "ĠvÃŃdeo",
        -10.18748553702962
      ],
      [
        "paciente",
        -10.18793423946124
      ],
      [
        "ĠNi",
        -10.188604300066388
      ],
      [
        "Ġtorna",
        -10.1899572353485
      ],
      [
        "ĠDesde",
        -10.190154295903277
      ],
      [
        "avaliaÃ§Ã£o",
        -10.190671235636817
      ],
      [
        "ĠAlberto",
        -10.191434739043634
      ],
      [
        "SÃĥO",
        -10.192483129428844
      ],
      [
        "Ġpalavras",
        -10.19278436468566
      ],
      [
        "essÃ£o",
        -10.19362876177927
      ],
      [
        "ĠSabe",
        -10.19382125761068
      ],
      [
        "Ġjudicial",
        -10.19388143846818
      ],
      [
        "ju",
        -10.19401427581463
      ],
      [
        "IDADE",
        -10.194417129738378
      ],
      [
        "Ġmudar",
        -10.1945664268072
      ],
      [
        "OR",
        -10.196704377730766
      ],
      [
        "ĠFutebol",
        -10.197808269265368
      ],
      [
        "Ġatender",
        -10.198347460898674
      ],
      [
        "ĠLuÃŃs",
        -10.198724764650136
      ],
      [
        "zada",
        -10.19928791309658
      ],
      [
        "ĠChina",
        -10.199427540771396
      ],
      [
        "Ãł",
        -10.200087358014846
      ],
      [
        "90",
        -10.200825322415952
      ],
      [
        "Ġestes",
        -10.201273916185494
      ],
      [
        "ĠFa",
        -10.201453461022222
      ],
      [
        "investimentos",
        -10.202021808010976
      ],
      [
        "Ġ80",
        -10.20242526262921
      ],
      [
        "Ġacidente",
        -10.203618337698044
      ],
      [
        "ĠPRO",
        -10.204053086886196
      ],
      [
        "Ġantigo",
        -10.204445773615964
      ],
      [
        "daquele",
        -10.205355564445934
      ],
      [
        "ĠRS",
        -10.205431128204422
      ],
      [
        "ĠMundo",
        -10.206225853442495
      ],
      [
        "98",
        -10.206293164074314
      ],
      [
        "Ġexplorar",
        -10.20679478631809
      ],
      [
        "ĠFi",
        -10.206832244180156
      ],
      [
        "relaÃ§Ãµes",
        -10.207850951512643
      ],
      [
        "ocorreu",
        -10.208312202237265
      ],
      [
        "ĠNossa",
        -10.208353185518153
      ],
      [
        "Ġentender",
        -10.208833243972878
      ],
      [
        "Ġrural",
        -10.209829882325128
      ],
      [
        "ĠPolÃŃtica",
        -10.211108300294748
      ],
      [
        "PSL",
        -10.211409077011703
      ],
      [
        "ĠmanhÃ£",
        -10.211423979638449
      ],
      [
        "ĠDepu",
        -10.21152090868765
      ],
      [
        "Ġadministrativa",
        -10.21164707122798
      ],
      [
        "Ġmesa",
        -10.212174544850647
      ],
      [
        "±",
        -10.212218004228337
      ],
      [
        "Ġsala",
        -10.213183544866231
      ],
      [
        "geraÃ§Ã£o",
        -10.213275884995603
      ],
      [
        "ĠAlemanha",
        -10.214143239022276
      ],
      [
        "Ġpe",
        -10.21463668249166
      ],
      [
        "Ä",
        -10.214968142528091
      ],
      [
        "PrevidÃªncia",
        -10.215046469221402
      ],
      [
        "Å",
        -10.2150502400144
      ],
      [
        "EUA",
        -10.2156009732615
      ],
      [
        "ix",
        -10.215918402329573
      ],
      [
        "ĠAlexandre",
        -10.216591919411158
      ],
      [
        "Ġcontinua",
        -10.216718115289916
      ],
      [
        "ĠvÃª",
        -10.21684236167704
      ],
      [
        "enta",
        -10.216999109935363
      ],
      [
        "val",
        -10.217060556146622
      ],
      [
        "FundaÃ§Ã£o",
        -10.217180006493969
      ],
      [
        "dade",
        -10.217940421518543
      ],
      [
        "amento",
        -10.218659825638277
      ],
      [
        "å",
        -10.219368485258023
      ],
      [
        "ĠSerra",
        -10.219635769186494
      ],
      [
        "Ġestabelecer",
        -10.219759097806548
      ],
      [
        "ĠPelo",
        -10.219916193903993
      ],
      [
        "ĠNe",
        -10.22027555296384
      ],
      [
        "alteraÃ§Ã£o",
        -10.220411856139238
      ],
      [
        "Ġhumano",
        -10.221089862614647
      ],
      [
        "CearÃ¡",
        -10.221678415688544
      ],
      [
        "Ġpior",
        -10.222036493685977
      ],
      [
        "ÃŃndice",
        -10.22212669246561
      ],
      [
        "ĠVai",
        -10.222819909039728
      ],
      [
        "Ġ35",
        -10.223727062342984
      ],
      [
        "Ġpromover",
        -10.223756503983898
      ],
      [
        "ĠJesus",
        -10.224106757048547
      ],
      [
        "ĠCan",
        -10.22468036513292
      ],
      [
        "ĠfunÃ§Ãµes",
        -10.224819625450444
      ],
      [
        "Ġoferece",
        -10.224969677114425
      ],
      [
        "ĠrÃ¡pido",
        -10.225590354203772
      ],
      [
        "imagens",
        -10.225873035542984
      ],
      [
        "ell",
        -10.22611604729375
      ],
      [
        "apresentou",
        -10.226648726421978
      ],
      [
        "ĠQual",
        -10.226798886611723
      ],
      [
        "Ġarma",
        -10.227021903805117
      ],
      [
        "Ġdemocracia",
        -10.227763358989748
      ],
      [
        "Ġ1988",
        -10.227931283929292
      ],
      [
        "Ġpergunta",
        -10.22812988737628
      ],
      [
        "Geraldo",
        -10.228238294453522
      ],
      [
        "ĠKo",
        -10.229005402522468
      ],
      [
        "Departamento",
        -10.229199669057476
      ],
      [
        "Ġouvir",
        -10.23215384296736
      ],
      [
        "Ġvice",
        -10.232715979545002
      ],
      [
        "Ġvale",
        -10.23363565951691
      ],
      [
        "Ġcontas",
        -10.233942331147722
      ],
      [
        "Ġ37",
        -10.234047607151334
      ],
      [
        "Ġimagem",
        -10.234264798725972
      ],
      [
        "ĠLegislativa",
        -10.235229143887974
      ],
      [
        "cal",
        -10.235342631220064
      ],
      [
        "decreto",
        -10.235655896724678
      ],
      [
        "ĠBoa",
        -10.236050357192806
      ],
      [
        "ĠepisÃ³dio",
        -10.2361310185766
      ],
      [
        "ĠJo",
        -10.2363296668517
      ],
      [
        "Ġescrito",
        -10.236370920527069
      ],
      [
        "exigÃªncia",
        -10.23666085700813
      ],
      [
        "Ġpedir",
        -10.237111246903066
      ],
      [
        "Ġacaba",
        -10.23748553574536
      ],
      [
        "Ġface",
        -10.238503858130938
      ],
      [
        "cas",
        -10.238618720479591
      ],
      [
        "ĠUS",
        -10.238872166515938
      ],
      [
        "ĠcomeÃ§ar",
        -10.238921914165486
      ],
      [
        "Ġdeputado",
        -10.239471776672866
      ],
      [
        "ĠLisboa",
        -10.239492691551668
      ],
      [
        "ral",
        -10.240264563236764
      ],
      [
        "ĠopiniÃ£o",
        -10.240615497471977
      ],
      [
        "relativo",
        -10.24068752667798
      ],
      [
        "Ġantiga",
        -10.240813090459389
      ],
      [
        "ĠDESPACH",
        -10.240860227604054
      ],
      [
        "Ġpobre",
        -10.24172440700565
      ],
      [
        "privado",
        -10.243134449577408
      ],
      [
        "ĠcidadÃ£o",
        -10.243206618599356
      ],
      [
        "Ġvivo",
        -10.243221288325335
      ],
      [
        "2002",
        -10.245137659847174
      ],
      [
        "net",
        -10.24536472134614
      ],
      [
        "ĠRIO",
        -10.24708673029918
      ],
      [
        "Ġdada",
        -10.247180373917178
      ],
      [
        "Ġconseguir",
        -10.247526855346976
      ],
      [
        "til",
        -10.248414009655884
      ],
      [
        "ĠVista",
        -10.24882603707858
      ],
      [
        "ĠArthur",
        -10.249265694750592
      ],
      [
        "Ġentrevista",
        -10.249408142939496
      ],
      [
        "Ġconsegue",
        -10.249481903076711
      ],
      [
        "MEN",
        -10.251900246545556
      ],
      [
        "ĠorientaÃ§Ã£o",
        -10.252904555270073
      ],
      [
        "Ġouvi",
        -10.253091098039036
      ],
      [
        "Ġcerta",
        -10.253842115435653
      ],
      [
        "Ġpo",
        -10.254003294814645
      ],
      [
        "ĠMarcos",
        -10.254147917190895
      ],
      [
        "veÃŃculos",
        -10.254377741005392
      ],
      [
        "ĠgÃªnero",
        -10.254817411301486
      ],
      [
        "ResoluÃ§Ã£o",
        -10.25518813902762
      ],
      [
        "presidente",
        -10.255375634259993
      ],
      [
        "benefÃŃcios",
        -10.255441388680136
      ],
      [
        "elementos",
        -10.255901191099667
      ],
      [
        "www",
        -10.257332169229766
      ],
      [
        "ÃŃvel",
        -10.257385440849315
      ],
      [
        "Ġcomercial",
        -10.257623762561709
      ],
      [
        "equipamentos",
        -10.257746874124337
      ],
      [
        "ĠCha",
        -10.257788411125528
      ],
      [
        "Ġcria",
        -10.258445580733728
      ],
      [
        "Ġindependente",
        -10.258535049299
      ],
      [
        "ĠjustiÃ§a",
        -10.258657665741715
      ],
      [
        "Ġdaqui",
        -10.258939350520889
      ],
      [
        "Ġtime",
        -10.25930853225666
      ],
      [
        "Ã¡rio",
        -10.259464752252052
      ],
      [
        "havend",
        -10.260023218413634
      ],
      [
        "Jogos",
        -10.260102150390772
      ],
      [
        "ĠOUTR",
        -10.260295133993866
      ],
      [
        "Ġmerece",
        -10.260739923991636
      ],
      [
        "Ġdispor",
        -10.26155301978404
      ],
      [
        "ĠART",
        -10.26175169853789
      ],
      [
        "Ġdisco",
        -10.263842646368431
      ],
      [
        "Moreira",
        -10.264281342785084
      ],
      [
        "doenÃ§a",
        -10.264561976763115
      ],
      [
        "nossos",
        -10.264596227552868
      ],
      [
        "vamos",
        -10.265687372143082
      ],
      [
        "Ġfeliz",
        -10.265894017056402
      ],
      [
        "Ġunidade",
        -10.26621212443927
      ],
      [
        "ĠhistÃ³rico",
        -10.266518104638426
      ],
      [
        "vontade",
        -10.26679022570902
      ],
      [
        "nico",
        -10.267091615710717
      ],
      [
        "PL",
        -10.267174773984213
      ],
      [
        "eira",
        -10.26719834155232
      ],
      [
        "Ġcarga",
        -10.267283574182688
      ],
      [
        "assistÃªncia",
        -10.268379984998637
      ],
      [
        "ĠAto",
        -10.268671092670946
      ],
      [
        "Ġpretende",
        -10.268920100202534
      ],
      [
        "Ġutilizado",
        -10.268987308809738
      ],
      [
        "Ġtra",
        -10.269499107188716
      ],
      [
        "iti",
        -10.269624389350748
      ],
      [
        "fiscalizaÃ§Ã£o",
        -10.270100602264248
      ],
      [
        "mais",
        -10.270342127259758
      ],
      [
        "Ġambiental",
        -10.27087707325472
      ],
      [
        "parceria",
        -10.271213370495474
      ],
      [
        "ĠParis",
        -10.271600945038095
      ],
      [
        "Ġcentral",
        -10.27172823162254
      ],
      [
        "amanhÃ£",
        -10.2720145104772
      ],
      [
        "rÃ¡pida",
        -10.272466820179494
      ],
      [
        "ĠsaÃŃd",
        -10.272634331976066
      ],
      [
        "ĠZa",
        -10.272665963737248
      ],
      [
        "PrÃªmio",
        -10.273082320559238
      ],
      [
        "ĠSal",
        -10.274532585789965
      ],
      [
        "Ġnego",
        -10.275252378119651
      ],
      [
        "ĠRede",
        -10.275828523516145
      ],
      [
        "eiro",
        -10.276707511201504
      ],
      [
        "ĠSi",
        -10.276793547713403
      ],
      [
        "Proposta",
        -10.277321778337503
      ],
      [
        "Ġhonra",
        -10.277504361239082
      ],
      [
        "instalaÃ§Ã£o",
        -10.277677037120428
      ],
      [
        "Ġgrau",
        -10.278031987295522
      ],
      [
        "ĠQuanto",
        -10.278394253462482
      ],
      [
        "precisamos",
        -10.278736295623393
      ],
      [
        "leitura",
        -10.279583327922571
      ],
      [
        "Ġtramita",
        -10.279914437716627
      ],
      [
        "ĠForÃ§a",
        -10.280010188207672
      ],
      [
        "ĠPARA",
        -10.280308334184475
      ],
      [
        "can",
        -10.280869601070597
      ],
      [
        "virtud",
        -10.280936976562195
      ],
      [
        "substitutivo",
        -10.281012045183417
      ],
      [
        "Ġ33",
        -10.282245549186992
      ],
      [
        "ĠAgrav",
        -10.282806046542598
      ],
      [
        "ĠPubli",
        -10.283084951644057
      ],
      [
        "Ġtrabalhador",
        -10.283772627447734
      ],
      [
        "cargos",
        -10.284541244213043
      ],
      [
        "FederaÃ§Ã£o",
        -10.284621750283074
      ],
      [
        "juros",
        -10.286789471653318
      ],
      [
        "Ġcorpus",
        -10.287001427973555
      ],
      [
        "Ġanti",
        -10.287932077008726
      ],
      [
        "ĠMG",
        -10.2896819676239
      ],
      [
        "retorno",
        -10.289864701922523
      ],
      [
        "ĠSobre",
        -10.289999909349955
      ],
      [
        "Ġetc",
        -10.290424124295134
      ],
      [
        "prÃªmio",
        -10.290732389818778
      ],
      [
        "Ġviola",
        -10.290989725401136
      ],
      [
        "cho",
        -10.291214756478968
      ],
      [
        "expressÃ£o",
        -10.291491116294162
      ],
      [
        "Ġcompanhia",
        -10.29163200576816
      ],
      [
        "ĠNeste",
        -10.291786351423044
      ],
      [
        "Ġconcurso",
        -10.291804004496402
      ],
      [
        "Ġatingi",
        -10.292522292612349
      ],
      [
        "ĠQuer",
        -10.292776589334856
      ],
      [
        "Ġdado",
        -10.292935982007034
      ],
      [
        "Ġeventos",
        -10.293519237631193
      ],
      [
        "Ġmedo",
        -10.29352765823833
      ],
      [
        "ley",
        -10.293786427337492
      ],
      [
        "urgÃªncia",
        -10.29381223988465
      ],
      [
        "Amazonas",
        -10.295054315042115
      ],
      [
        "agentes",
        -10.295442152278287
      ],
      [
        "Ġtorno",
        -10.296111567488497
      ],
      [
        "retirada",
        -10.296171201846288
      ],
      [
        "ĠParlamento",
        -10.296514322633302
      ],
      [
        "ĠfaÃ§o",
        -10.296891621972344
      ],
      [
        "Ġregistrado",
        -10.29697718650002
      ],
      [
        "Ġprocedimento",
        -10.299422507005586
      ],
      [
        "let",
        -10.299423710867352
      ],
      [
        "ĠCON",
        -10.299634410677712
      ],
      [
        "etapa",
        -10.300233816517778
      ],
      [
        "requer",
        -10.30094838624046
      ],
      [
        "Barbosa",
        -10.301570017933267
      ],
      [
        "Ġtinham",
        -10.301819845493664
      ],
      [
        "bal",
        -10.301912993268344
      ],
      [
        "Ġrespectiva",
        -10.302531913759095
      ],
      [
        "Ġinvestimento",
        -10.302614725482208
      ],
      [
        "Ġrevela",
        -10.303278271257826
      ],
      [
        "ĠNeto",
        -10.303874811399464
      ],
      [
        "40",
        -10.304006227164386
      ],
      [
        "ĠNada",
        -10.304323909588728
      ],
      [
        "for",
        -10.304867135835256
      ],
      [
        "Ġescolha",
        -10.305580860995349
      ],
      [
        "contexto",
        -10.305637431803945
      ],
      [
        "apensado",
        -10.306214263873365
      ],
      [
        "Ġcomando",
        -10.30661467903331
      ],
      [
        "existem",
        -10.307023144248651
      ],
      [
        "lla",
        -10.307403556687396
      ],
      [
        "ĠfaÃ§a",
        -10.307466238313523
      ],
      [
        "ĠBa",
        -10.307772414725465
      ],
      [
        "ĠRegional",
        -10.307780470573308
      ],
      [
        "ĠAltera",
        -10.3078364529438
      ],
      [
        "Ġinternacionais",
        -10.308226327571784
      ],
      [
        "Ġdefende",
        -10.309073031708802
      ],
      [
        "ĠMeio",
        -10.309757761471149
      ],
      [
        "Ġperder",
        -10.311860412152388
      ],
      [
        "bel",
        -10.312060955676694
      ],
      [
        "Ġcima",
        -10.31251335639366
      ],
      [
        "ago",
        -10.312704538893303
      ],
      [
        "21",
        -10.31302650731593
      ],
      [
        "Ġesposa",
        -10.313094535329771
      ],
      [
        "vida",
        -10.313973891525226
      ],
      [
        "Ġsexta",
        -10.313980833833348
      ],
      [
        "tentativa",
        -10.314091611701494
      ],
      [
        "crimes",
        -10.315200048271846
      ],
      [
        "AgÃªncia",
        -10.315502920911896
      ],
      [
        "rim",
        -10.315645772393967
      ],
      [
        "tÃ³rio",
        -10.31570933391206
      ],
      [
        "RelaÃ§Ãµes",
        -10.317182841405726
      ],
      [
        "ĠjurisprudÃªncia",
        -10.317608114573108
      ],
      [
        "ĠalÃŃnea",
        -10.31789691703653
      ],
      [
        "gravada",
        -10.318346567216386
      ],
      [
        "http",
        -10.318722222936684
      ],
      [
        "ĠRodrigo",
        -10.32136622654235
      ],
      [
        "lan",
        -10.32144622556751
      ],
      [
        "ĠMagalhÃ£es",
        -10.32210057886616
      ],
      [
        "campeÃ£o",
        -10.322178973735843
      ],
      [
        "reconhecimento",
        -10.322821522297586
      ],
      [
        "ĠIsto",
        -10.323441190544091
      ],
      [
        "Ġleva",
        -10.323551010746348
      ],
      [
        "Ġinclui",
        -10.323621768275787
      ],
      [
        "ĠdenÃºncia",
        -10.323842386622864
      ],
      [
        "publicada",
        -10.324029019377829
      ],
      [
        "ĠpeÃ§a",
        -10.324364450723726
      ],
      [
        "Ġampla",
        -10.324541732833978
      ],
      [
        "deficiÃªncia",
        -10.325656218478404
      ],
      [
        "Ġespera",
        -10.325915585662862
      ],
      [
        "ĠCidade",
        -10.32608531993978
      ],
      [
        "PRIMEIR",
        -10.326375270015102
      ],
      [
        "Ġeleitoral",
        -10.326592762060894
      ],
      [
        "2001",
        -10.32693618620786
      ],
      [
        "Ġquinta",
        -10.327403875317405
      ],
      [
        "gia",
        -10.327566421333724
      ],
      [
        "HC",
        -10.32793688029835
      ],
      [
        "nunciou",
        -10.328062912105464
      ],
      [
        "org",
        -10.32821290295985
      ],
      [
        "Ġpermanece",
        -10.32897073693605
      ],
      [
        "Ġfesta",
        -10.32905939668468
      ],
      [
        "ð",
        -10.32973518588682
      ],
      [
        "metade",
        -10.329957828476871
      ],
      [
        "avanÃ§o",
        -10.330214307915684
      ],
      [
        "ĠCarreira",
        -10.330683496154466
      ],
      [
        "francÃªs",
        -10.330980733925704
      ],
      [
        "ĠlÃŃder",
        -10.33123991222444
      ],
      [
        "Ġjogador",
        -10.3314543453236
      ],
      [
        "mor",
        -10.331883276204184
      ],
      [
        "ĠClaro",
        -10.331999975696748
      ],
      [
        "the",
        -10.332193631364932
      ],
      [
        "NA",
        -10.332575371797692
      ],
      [
        "ĠlicenÃ§a",
        -10.333199878189824
      ],
      [
        "Ġ49",
        -10.33332524626942
      ],
      [
        "finalidade",
        -10.33395668341529
      ],
      [
        "ĠQUE",
        -10.333987939930774
      ],
      [
        "Ġ1994",
        -10.334058371273477
      ],
      [
        "Ġcursos",
        -10.334237473807184
      ],
      [
        "Ġefetiva",
        -10.334370471427762
      ],
      [
        "ÃŃn",
        -10.334646391772251
      ],
      [
        "SC",
        -10.334966365834513
      ],
      [
        "desempenho",
        -10.33515748965031
      ],
      [
        "ĠExterior",
        -10.336162284039991
      ],
      [
        "aram",
        -10.336954655728167
      ],
      [
        "decisÃµes",
        -10.337007584110925
      ],
      [
        "programas",
        -10.337254507354473
      ],
      [
        "iano",
        -10.337264691680888
      ],
      [
        "Ġoferta",
        -10.337724980755
      ],
      [
        "Ġvinte",
        -10.33815919112342
      ],
      [
        "vel",
        -10.338295214944358
      ],
      [
        "ĠGu",
        -10.33862529523016
      ],
      [
        "Ġjuiz",
        -10.33912591819023
      ],
      [
        "Ġlido",
        -10.339258502380009
      ],
      [
        "iva",
        -10.339600318080452
      ],
      [
        "Ġataque",
        -10.34007651126408
      ],
      [
        "indicaÃ§Ã£o",
        -10.34009023678079
      ],
      [
        "Ġlivros",
        -10.340524758332052
      ],
      [
        "gan",
        -10.341255480065934
      ],
      [
        "provÃŃncia",
        -10.341292074547402
      ],
      [
        "Ġfinanceiro",
        -10.341312186719565
      ],
      [
        "Ġmostrar",
        -10.341489373674207
      ],
      [
        "han",
        -10.342266619651795
      ],
      [
        "ĠFerreira",
        -10.342325395488633
      ],
      [
        "consumo",
        -10.342508024844271
      ],
      [
        "ĠGeral",
        -10.343000361125693
      ],
      [
        "Ġassinatura",
        -10.343147620576946
      ],
      [
        "MÃ£o",
        -10.343148302709318
      ],
      [
        "Enquanto",
        -10.343493627866296
      ],
      [
        "Ġcontato",
        -10.343930823121866
      ],
      [
        "...........",
        -10.344034247621565
      ],
      [
        "Ġexterior",
        -10.34414243085684
      ],
      [
        "agem",
        -10.34416933393776
      ],
      [
        "ĠConstitucional",
        -10.345862353300916
      ],
      [
        "iana",
        -10.345893627963893
      ],
      [
        "arney",
        -10.345920758783215
      ],
      [
        "dez",
        -10.346014748958156
      ],
      [
        "convidado",
        -10.346121125063323
      ],
      [
        "necessÃ¡ria",
        -10.346161028973812
      ],
      [
        "ĠrÃ¡dio",
        -10.346949261994313
      ],
      [
        "ĠTrans",
        -10.34716999724627
      ],
      [
        "GO",
        -10.347264974852386
      ],
      [
        "distrito",
        -10.34752198169624
      ],
      [
        "Ġposto",
        -10.347924921593442
      ],
      [
        "ĠelÃ©trica",
        -10.348110410499894
      ],
      [
        "ĠcompetiÃ§Ã£o",
        -10.348212756336176
      ],
      [
        "como",
        -10.34853071981686
      ],
      [
        "Ġtraz",
        -10.349270087973462
      ],
      [
        "Ġinstitui",
        -10.349783931965003
      ],
      [
        "Ġ1993",
        -10.34979334456456
      ],
      [
        "Rodrigo",
        -10.350935413772609
      ],
      [
        "Ġfogo",
        -10.350962251254808
      ],
      [
        "Ã",
        -10.351203606729529
      ],
      [
        "Ġquiser",
        -10.351926926548304
      ],
      [
        "ĠAL",
        -10.352273796064436
      ],
      [
        "ĠOrÃ§ament",
        -10.352476090920536
      ],
      [
        "licitaÃ§Ã£o",
        -10.352536739436468
      ],
      [
        "Ġreserva",
        -10.352610915302634
      ],
      [
        "Ġdaquel",
        -10.353051456561388
      ],
      [
        "Ġpartida",
        -10.353467418784332
      ],
      [
        "Ġtroca",
        -10.35356703480979
      ],
      [
        "ĠespÃ©cies",
        -10.353755515545902
      ],
      [
        "funcionamento",
        -10.354137756049004
      ],
      [
        "Ġterceira",
        -10.354299802543038
      ],
      [
        "tia",
        -10.354782638924188
      ],
      [
        "Ġrel",
        -10.355201157096833
      ],
      [
        "cos",
        -10.355239747606989
      ],
      [
        "Ġpreso",
        -10.355350667804366
      ],
      [
        "ĠAP",
        -10.356255222239485
      ],
      [
        "estaÃ§Ã£o",
        -10.35667137497128
      ],
      [
        "Outra",
        -10.356879982240615
      ],
      [
        "ĠMello",
        -10.35722255318539
      ],
      [
        "ĠCPI",
        -10.357337795200896
      ],
      [
        "nado",
        -10.357484601974669
      ],
      [
        "Ġitem",
        -10.357505883055849
      ],
      [
        "Ġespecifica",
        -10.357801005620692
      ],
      [
        "escreveu",
        -10.35845680241824
      ],
      [
        "exploraÃ§Ã£o",
        -10.358985548620574
      ],
      [
        "ĠMA",
        -10.359138598967366
      ],
      [
        "Embora",
        -10.359242367100087
      ],
      [
        "ĠAb",
        -10.35959126999854
      ],
      [
        "Ġinteiro",
        -10.35962346402429
      ],
      [
        "ĠameaÃ§a",
        -10.359741981186218
      ],
      [
        "Ġpersonagem",
        -10.360237980888336
      ],
      [
        "fontes",
        -10.36098895714111
      ],
      [
        "Eduardo",
        -10.361206444190682
      ],
      [
        "ĠCruz",
        -10.361316684133504
      ],
      [
        "ĠFolha",
        -10.36219810761956
      ],
      [
        "tributÃ¡ria",
        -10.36330377210482
      ],
      [
        "decorrente",
        -10.363625175547153
      ],
      [
        "Ġposse",
        -10.36362532959476
      ],
      [
        "morreu",
        -10.36433660410299
      ],
      [
        "quer",
        -10.364463673317648
      ],
      [
        "geralmente",
        -10.36447859261764
      ],
      [
        "Ġrelator",
        -10.364482302525069
      ],
      [
        "Ġbanco",
        -10.364605590605812
      ],
      [
        "policiais",
        -10.364721228871533
      ],
      [
        "ĠdistÃ¢ncia",
        -10.36486004553574
      ],
      [
        "ESTADO",
        -10.364872666544642
      ],
      [
        "Ġsabia",
        -10.36547094947742
      ],
      [
        "Ġprocura",
        -10.36580439561065
      ],
      [
        "ste",
        -10.366001654043473
      ],
      [
        "RA",
        -10.366894379044489
      ],
      [
        "Ġpermanente",
        -10.36749851720093
      ],
      [
        "ĠVila",
        -10.368087689236315
      ],
      [
        "Ġigreja",
        -10.368167253598264
      ],
      [
        "Ġregistrar",
        -10.368375140266275
      ],
      [
        "comÃ©rcio",
        -10.368378346519744
      ],
      [
        "Ġfixa",
        -10.368480072616856
      ],
      [
        "trinta",
        -10.368865851290767
      ],
      [
        "Ģ",
        -10.369096035705658
      ],
      [
        "GL",
        -10.369789575773158
      ],
      [
        "ĠAntes",
        -10.370151941765844
      ],
      [
        "cial",
        -10.371750276974138
      ],
      [
        "shi",
        -10.37201103677538
      ],
      [
        "ĠEdita",
        -10.37287434185076
      ],
      [
        "var",
        -10.373444449123454
      ],
      [
        "Ġadolescente",
        -10.373465007696089
      ],
      [
        "Ġhumana",
        -10.373541547357876
      ],
      [
        "tou",
        -10.373558056647658
      ],
      [
        "ĠEspanha",
        -10.37463508969584
      ],
      [
        "remos",
        -10.375976758020643
      ],
      [
        "Ġganhar",
        -10.37600179850806
      ],
      [
        "irÃ¡",
        -10.376571949143775
      ],
      [
        "Couto",
        -10.379604936351583
      ],
      [
        "fizeram",
        -10.37992265243339
      ],
      [
        "ĠfÃ¡cil",
        -10.380198279224086
      ],
      [
        "lÃ¡",
        -10.380511644897355
      ],
      [
        "Bibliografia",
        -10.380843638857009
      ],
      [
        "Ġacabar",
        -10.380881672985687
      ],
      [
        "Ġrua",
        -10.381590918636444
      ],
      [
        "Ġgosto",
        -10.381639565277878
      ],
      [
        "professores",
        -10.382425823086614
      ],
      [
        "Ġjornalista",
        -10.38253571933642
      ],
      [
        "este",
        -10.382736473425394
      ],
      [
        "Ġproduzir",
        -10.383019730531728
      ],
      [
        "Ġdiminui",
        -10.383246721273784
      ],
      [
        "Pernambuco",
        -10.383332637347277
      ],
      [
        "ĠClube",
        -10.383398471705032
      ],
      [
        "ordinÃ¡ria",
        -10.3839621903781
      ],
      [
        "ĠprÃ©vi",
        -10.384059159678603
      ],
      [
        "Ġfo",
        -10.384731807800438
      ],
      [
        "armas",
        -10.38488965594066
      ],
      [
        "Ġcultural",
        -10.384966453933105
      ],
      [
        "vemos",
        -10.385388814968897
      ],
      [
        "Vieira",
        -10.385550198962417
      ],
      [
        "estudantes",
        -10.38556712647074
      ],
      [
        "preciaÃ§Ã£o",
        -10.38604133578921
      ],
      [
        "rica",
        -10.386099018948746
      ],
      [
        "esteja",
        -10.386201383112232
      ],
      [
        "fatos",
        -10.386203747619772
      ],
      [
        "Ġenorme",
        -10.387731573373078
      ],
      [
        "ĠPr",
        -10.38779210057859
      ],
      [
        "ĠAgricultura",
        -10.388254911251028
      ],
      [
        "ĠSÃ¡",
        -10.388922931462847
      ],
      [
        "ĠNÃĥO",
        -10.388925079606226
      ],
      [
        "ĠMartins",
        -10.38961598435824
      ],
      [
        "Ġfigura",
        -10.390731239573938
      ],
      [
        "princÃŃpios",
        -10.39114502286401
      ],
      [
        "terminou",
        -10.391429133703651
      ],
      [
        "ĠTal",
        -10.391524482195242
      ],
      [
        "Ġshow",
        -10.391907442918384
      ],
      [
        "Ġprodutor",
        -10.392649047982834
      ],
      [
        "consumidor",
        -10.39303861437062
      ],
      [
        "uplente",
        -10.39327605114369
      ],
      [
        "autoridades",
        -10.393465553346974
      ],
      [
        "Ġseguro",
        -10.394006940179954
      ],
      [
        "Ġassumi",
        -10.394785639846289
      ],
      [
        "petrÃ³leo",
        -10.395069985640149
      ],
      [
        "ĠTra",
        -10.395170104669258
      ],
      [
        "nanimidade",
        -10.395642044882356
      ],
      [
        "trÃ¢nsito",
        -10.395923988629006
      ],
      [
        "Ġfr",
        -10.39593332944004
      ],
      [
        "ĠRequer",
        -10.396142695306487
      ],
      [
        "Ġacontecer",
        -10.396192129331151
      ],
      [
        "ĠYork",
        -10.39665184614206
      ],
      [
        "Ġjeito",
        -10.397229742058412
      ],
      [
        "ĠParte",
        -10.397248655284097
      ],
      [
        "hy",
        -10.397276554813663
      ],
      [
        "Ġinicia",
        -10.397621391590755
      ],
      [
        "aposentadoria",
        -10.397681078016234
      ],
      [
        "ĠMelhor",
        -10.398834691047542
      ],
      [
        "ĠAM",
        -10.398923172736623
      ],
      [
        "companheiro",
        -10.399499839432604
      ],
      [
        "patrimÃ´nio",
        -10.399689586462951
      ],
      [
        "Ġaumentar",
        -10.399779870859652
      ],
      [
        "ĠusuÃ¡rio",
        -10.400064783853196
      ],
      [
        "Ġ1913",
        -10.400729968221682
      ],
      [
        "ĠSer",
        -10.400788608896192
      ],
      [
        "Ġleis",
        -10.401179348392812
      ],
      [
        "Ġcompleta",
        -10.402082740671435
      ],
      [
        "Ġinferior",
        -10.403228818377787
      ],
      [
        "investigaÃ§Ã£o",
        -10.403246426796576
      ],
      [
        "Ġquerem",
        -10.403533683576333
      ],
      [
        "Ġalternativa",
        -10.403540859064924
      ],
      [
        "Ġmensagem",
        -10.40363019067152
      ],
      [
        "ĠMARCO",
        -10.403815682869606
      ],
      [
        "Ġanteriores",
        -10.403859704190316
      ],
      [
        "fundamento",
        -10.404475231046902
      ],
      [
        "ĠMachado",
        -10.405464508679833
      ],
      [
        "Ġofens",
        -10.405754170424157
      ],
      [
        "PLS",
        -10.406552715338156
      ],
      [
        "ĠPI",
        -10.407136173875305
      ],
      [
        "ĠcoraÃ§Ã£o",
        -10.40753784205762
      ],
      [
        "ĠAurÃ©li",
        -10.407744562572203
      ],
      [
        "bairro",
        -10.407812569145555
      ],
      [
        "passando",
        -10.408620048456044
      ],
      [
        "transferÃªncia",
        -10.408688858227048
      ],
      [
        "Ġ90",
        -10.408712785000102
      ],
      [
        "ĠParece",
        -10.4088692639045
      ],
      [
        "rÃ£o",
        -10.40892173142166
      ],
      [
        "Ġintegral",
        -10.408946967484022
      ],
      [
        "Ġalega",
        -10.409520797383877
      ],
      [
        "ĠCultural",
        -10.409651332337411
      ],
      [
        "produtores",
        -10.409654164540353
      ],
      [
        "ĠJO",
        -10.409716475004402
      ],
      [
        "Ġconceito",
        -10.40980039177646
      ],
      [
        "ador",
        -10.410015065425808
      ],
      [
        "enti",
        -10.410505424565573
      ],
      [
        "Ġprefeito",
        -10.410508123427013
      ],
      [
        "Ġvelho",
        -10.41055926880666
      ],
      [
        "á",
        -10.41074357097689
      ],
      [
        "wa",
        -10.411580431907083
      ],
      [
        "taÃ§Ã£o",
        -10.411585165297131
      ],
      [
        "cada",
        -10.411666121503805
      ],
      [
        "Ãģfrica",
        -10.411715966278855
      ],
      [
        "âĢĵâĢĵâĢĵâĢĵâĢĵ",
        -10.411729201385333
      ],
      [
        "lida",
        -10.412121187896307
      ],
      [
        "Ġcinema",
        -10.412556584989556
      ],
      [
        "Parlamentare",
        -10.413050536412022
      ],
      [
        "Ġganha",
        -10.413153843498542
      ],
      [
        "acrescenta",
        -10.4147744486605
      ],
      [
        "Ġamericano",
        -10.41544033884846
      ],
      [
        "tivesse",
        -10.415481203807596
      ],
      [
        "Ġolhos",
        -10.415645962347872
      ],
      [
        "ĠPar",
        -10.415773935526808
      ],
      [
        "horÃ¡rio",
        -10.415779894010642
      ],
      [
        "ĠProfessor",
        -10.417068912723169
      ],
      [
        "ĠNA",
        -10.41714471509513
      ],
      [
        "nasceu",
        -10.417585532706235
      ],
      [
        "funcionÃ¡rios",
        -10.417822861750528
      ],
      [
        "Ġchama",
        -10.418039727073138
      ],
      [
        "ĠNew",
        -10.418119682792582
      ],
      [
        "Ġaltura",
        -10.418127982162192
      ],
      [
        "Candido",
        -10.418634273202755
      ],
      [
        "obretudo",
        -10.418864332267926
      ],
      [
        "ĠPaim",
        -10.41942453185172
      ],
      [
        "ĠJapÃ£o",
        -10.419640069041357
      ],
      [
        "dispositivos",
        -10.419738695084902
      ],
      [
        "Ġ1992",
        -10.419847368227122
      ],
      [
        "Ġpensar",
        -10.4203094484068
      ],
      [
        "queremos",
        -10.420544219449964
      ],
      [
        "Ġinc",
        -10.421656802695434
      ],
      [
        "ĠEspÃŃrit",
        -10.421781357712328
      ],
      [
        "Ġrealiza",
        -10.422868985241964
      ],
      [
        "ĠSol",
        -10.423511859796502
      ],
      [
        "MÃ¡rio",
        -10.42383067559891
      ],
      [
        "ĠinfluÃªncia",
        -10.42391551138796
      ],
      [
        "Deputado",
        -10.423916922423928
      ],
      [
        "Ġpaz",
        -10.42413756856701
      ],
      [
        "contrataÃ§Ã£o",
        -10.424929363023884
      ],
      [
        "preocupaÃ§Ã£o",
        -10.425597912132655
      ],
      [
        "Ġaplica",
        -10.425870738537938
      ],
      [
        "cÃ³pia",
        -10.426553632470332
      ],
      [
        "Ġtamanho",
        -10.426682443127124
      ],
      [
        "aproximadamente",
        -10.427352387977104
      ],
      [
        "CI",
        -10.427382195020474
      ],
      [
        "ĠMichel",
        -10.428688109804597
      ],
      [
        "Ġparticipou",
        -10.429485946647077
      ],
      [
        "Ġfamiliar",
        -10.42949268982861
      ],
      [
        "ĠJa",
        -10.429550330081414
      ],
      [
        "iretrizes",
        -10.429922255612754
      ],
      [
        "usando",
        -10.430229042149229
      ],
      [
        "Ġexpressa",
        -10.430392612699706
      ],
      [
        "Mesmo",
        -10.430880861075012
      ],
      [
        "aspectos",
        -10.43112912265322
      ],
      [
        "ĠItÃ¡lia",
        -10.431757626287014
      ],
      [
        "ĠInter",
        -10.432236452999511
      ],
      [
        "importantes",
        -10.43275554311458
      ],
      [
        "RO",
        -10.433923090463647
      ],
      [
        "Ġgosta",
        -10.433932881401056
      ],
      [
        "ĠBen",
        -10.434197269269047
      ],
      [
        "teoria",
        -10.434412584400214
      ],
      [
        "Ġchance",
        -10.434578827654954
      ],
      [
        "conduta",
        -10.435860492264606
      ],
      [
        "Ġpotencial",
        -10.43602916224494
      ],
      [
        "esta",
        -10.436247139720749
      ],
      [
        "true",
        -10.436335624936618
      ],
      [
        "tido",
        -10.43701612342548
      ],
      [
        "recebimento",
        -10.437588273825629
      ],
      [
        "Ġaberto",
        -10.43783579982994
      ],
      [
        "ĠJoaquim",
        -10.438114037756522
      ],
      [
        "apelo",
        -10.438435303462969
      ],
      [
        "constitucional",
        -10.438822300013683
      ],
      [
        "ment",
        -10.439047685569388
      ],
      [
        "ung",
        -10.43930824322326
      ],
      [
        "ĠAC",
        -10.441376532031848
      ],
      [
        "Acordo",
        -10.44153117379842
      ],
      [
        "ĠAmbiente",
        -10.441575338620543
      ],
      [
        "Ġbreve",
        -10.441628213226966
      ],
      [
        "polÃŃticos",
        -10.442443126805692
      ],
      [
        "REGIMENT",
        -10.442753771041458
      ],
      [
        "nica",
        -10.442971219112112
      ],
      [
        "ĠcientÃŃfica",
        -10.44448185694836
      ],
      [
        "limites",
        -10.444824923998262
      ],
      [
        "FÃ¡bio",
        -10.444973139145215
      ],
      [
        "ExÃ©rcito",
        -10.445172002399932
      ],
      [
        "GoiÃ¡",
        -10.445376221766002
      ],
      [
        "ĠVal",
        -10.44603310673293
      ],
      [
        "caracterÃŃsticas",
        -10.446314532112329
      ],
      [
        "ĠIN",
        -10.4473824738793
      ],
      [
        "22",
        -10.448289846019932
      ],
      [
        "ĠciÃªncia",
        -10.448911972684696
      ],
      [
        "idÃ©ia",
        -10.448969574150071
      ],
      [
        "lteraÃ§Ãµes",
        -10.449119248224491
      ],
      [
        "Ġzona",
        -10.449137022059954
      ],
      [
        "km",
        -10.449179419202189
      ],
      [
        "Ġnove",
        -10.449503492164368
      ],
      [
        "ĠVida",
        -10.449548778640311
      ],
      [
        "Ġrepercuss",
        -10.449668133665904
      ],
      [
        "ĠMal",
        -10.450449703216169
      ],
      [
        "lÃ³gica",
        -10.45065708431657
      ],
      [
        "Ġconquista",
        -10.450842166902635
      ],
      [
        "ĠFlÃ¡vi",
        -10.450929654263971
      ],
      [
        "ispÃµe",
        -10.452061189473154
      ],
      [
        "Ġ45",
        -10.45362028891117
      ],
      [
        "ĠMiguel",
        -10.454253751234132
      ],
      [
        "desafio",
        -10.455719080373338
      ],
      [
        "Ġaceita",
        -10.455759740026554
      ],
      [
        "mecanismo",
        -10.456014678600871
      ],
      [
        "Ġvigorar",
        -10.456559057256404
      ],
      [
        "Ġinternet",
        -10.456572996767925
      ],
      [
        "implantaÃ§Ã£o",
        -10.457007399325132
      ],
      [
        "divisÃ£o",
        -10.4574357317101
      ],
      [
        "nho",
        -10.45774641135218
      ],
      [
        "Chefe",
        -10.459298609993391
      ],
      [
        "Ġportuguesa",
        -10.4599022880901
      ],
      [
        "ĠContas",
        -10.46017626681156
      ],
      [
        "CÃĤMARA",
        -10.460448932013389
      ],
      [
        "ĠKi",
        -10.460555273075377
      ],
      [
        "ĠmemÃ³ria",
        -10.46109406670274
      ],
      [
        "Ġ200",
        -10.461286822095149
      ],
      [
        "ĠcrÃŃtica",
        -10.461304465148178
      ],
      [
        "Ġbatalha",
        -10.461451916682057
      ],
      [
        "cÃ¡lculo",
        -10.46206825684722
      ],
      [
        "ĠTh",
        -10.46255793192261
      ],
      [
        "ocumentaÃ§Ã£o",
        -10.462570295630144
      ],
      [
        "Ġaquilo",
        -10.463148960716548
      ],
      [
        "Ġviu",
        -10.464008998467053
      ],
      [
        "ĠMauro",
        -10.464205445346114
      ],
      [
        "23",
        -10.464313512246456
      ],
      [
        "]",
        -10.464369423632816
      ],
      [
        "Nunca",
        -10.46464989364358
      ],
      [
        "ĠEconÃ´mic",
        -10.464668121100296
      ],
      [
        "ĠPresident",
        -10.465369670838909
      ],
      [
        "ocasiÃ£o",
        -10.465643103670434
      ],
      [
        "Ġhabe",
        -10.465693475777073
      ],
      [
        "ĠEspere",
        -10.465718209516544
      ],
      [
        "uti",
        -10.46588485672458
      ],
      [
        "casamento",
        -10.467139776562243
      ],
      [
        "Ġminuto",
        -10.467398276794931
      ],
      [
        "referida",
        -10.46747765785898
      ],
      [
        "trazer",
        -10.468432448874957
      ],
      [
        "Ġsol",
        -10.46844264383397
      ],
      [
        "iro",
        -10.468727925388388
      ],
      [
        "ĠParaÃŃba",
        -10.46904535198534
      ],
      [
        "Ġ48",
        -10.470158725695931
      ],
      [
        "rar",
        -10.47021415643822
      ],
      [
        "Ġfunciona",
        -10.470279920584549
      ],
      [
        "ĠPan",
        -10.470632791241698
      ],
      [
        "circunstÃ¢ncia",
        -10.471671774087811
      ],
      [
        "LA",
        -10.47194950601493
      ],
      [
        "sentenÃ§a",
        -10.472518320095292
      ],
      [
        "dificuldades",
        -10.472769054444225
      ],
      [
        "menta",
        -10.472779072120424
      ],
      [
        "produzido",
        -10.472914373035149
      ],
      [
        "Ġestiver",
        -10.473239338048169
      ],
      [
        "ĠÃĵ",
        -10.473335202554484
      ],
      [
        "Ġpaga",
        -10.473340195018595
      ],
      [
        "grupos",
        -10.473440886801733
      ],
      [
        "Afonso",
        -10.473488308152406
      ],
      [
        "Ã£",
        -10.4736459728275
      ],
      [
        "rado",
        -10.47374375160076
      ],
      [
        "indo",
        -10.474334685557798
      ],
      [
        "mantid",
        -10.474514700776488
      ],
      [
        "Ġguarda",
        -10.475183589608374
      ],
      [
        "ĠCol",
        -10.47519650979023
      ],
      [
        "Ġpegar",
        -10.476346442810602
      ],
      [
        "Ġmusical",
        -10.476516522978375
      ],
      [
        "Ġlonga",
        -10.47659425440436
      ],
      [
        "Ġmassa",
        -10.477413145168317
      ],
      [
        "Ã¡rios",
        -10.478132064566587
      ],
      [
        "Ġdetermina",
        -10.478296662725455
      ],
      [
        "ĠReuni",
        -10.478602013777625
      ],
      [
        "ologia",
        -10.478786420550202
      ],
      [
        "localidade",
        -10.478970776489732
      ],
      [
        "Direitos",
        -10.479709630331078
      ],
      [
        "Ġgaroto",
        -10.479969212235163
      ],
      [
        "lis",
        -10.479973136107622
      ],
      [
        "Ġmunicipal",
        -10.480470029695178
      ],
      [
        "aÃ§a",
        -10.480620284927433
      ],
      [
        "Ġreferente",
        -10.480661571778404
      ],
      [
        "ofÃŃcio",
        -10.481492022308757
      ],
      [
        "recebido",
        -10.481892665457035
      ],
      [
        "cidades",
        -10.482125660858252
      ],
      [
        "voltou",
        -10.4822113077833
      ],
      [
        "Ġsolo",
        -10.482353100085945
      ],
      [
        "Con",
        -10.482899048254248
      ],
      [
        "ty",
        -10.483707976501336
      ],
      [
        "ocorrÃªncia",
        -10.484693958424478
      ],
      [
        "ĠPROC",
        -10.484776272277552
      ],
      [
        "Ġobservado",
        -10.484983086027942
      ],
      [
        "ĠDom",
        -10.485551813142928
      ],
      [
        "mÃ©todo",
        -10.48615149910048
      ],
      [
        "OSÃī",
        -10.486238529105902
      ],
      [
        "ĠChico",
        -10.487006233633087
      ],
      [
        "ĠRei",
        -10.487199243467272
      ],
      [
        "tomada",
        -10.487456294600925
      ],
      [
        "Ġporte",
        -10.4878176656903
      ],
      [
        "24",
        -10.487950791048396
      ],
      [
        "Ġgovernador",
        -10.487998241193804
      ],
      [
        "ĠSuper",
        -10.48800826836796
      ],
      [
        "Ġincluir",
        -10.4880820927069
      ],
      [
        "Ġprestar",
        -10.488113831805256
      ],
      [
        "¾",
        -10.488444208116976
      ],
      [
        "ĠPessoal",
        -10.488535618601905
      ],
      [
        "Ġabrir",
        -10.488727704911607
      ],
      [
        "iauÃŃ",
        -10.489093133816375
      ],
      [
        "TÃ©cnico",
        -10.48938059413454
      ],
      [
        "inicialmente",
        -10.489813431526882
      ],
      [
        "ĠCaso",
        -10.49059654092429
      ],
      [
        "Ġchamar",
        -10.491176626454983
      ],
      [
        "ĠTu",
        -10.491303554321458
      ],
      [
        "lideranÃ§a",
        -10.493516434302824
      ],
      [
        "viagem",
        -10.494212167878624
      ],
      [
        "Ġcoloca",
        -10.494518751427634
      ],
      [
        "Ġutilizada",
        -10.494662431515266
      ],
      [
        "%)",
        -10.494933171041144
      ],
      [
        "Ġfilmes",
        -10.494961609380429
      ],
      [
        "uro",
        -10.495465787665651
      ],
      [
        "DIAS",
        -10.495976656327397
      ],
      [
        "Ġlonge",
        -10.497657056854946
      ],
      [
        "oficiais",
        -10.497839002507442
      ],
      [
        "interpretaÃ§Ã£o",
        -10.498723425098698
      ],
      [
        "Ġseparado",
        -10.499091902957366
      ],
      [
        "encaminhamento",
        -10.499613802549614
      ],
      [
        "Ġcanal",
        -10.500235197916478
      ],
      [
        "juntamente",
        -10.500411405502884
      ],
      [
        "ĠSerÃ¡",
        -10.50073679167402
      ],
      [
        "JUSTIÃĩA",
        -10.500978584525605
      ],
      [
        "IN",
        -10.501203914544814
      ],
      [
        "Desculpe",
        -10.501270630029738
      ],
      [
        "extensÃ£o",
        -10.501366830131564
      ],
      [
        "Ġservidor",
        -10.501879597490303
      ],
      [
        "Ġnomeado",
        -10.502003705834802
      ],
      [
        "ĠSO",
        -10.50231608819216
      ],
      [
        "municÃŃpios",
        -10.502376124098031
      ],
      [
        "ĠHumano",
        -10.50257701254745
      ],
      [
        "ĠTom",
        -10.502677669944465
      ],
      [
        "DiÃ¡rio",
        -10.503450902570656
      ],
      [
        "Ġatende",
        -10.503685177336711
      ],
      [
        "ĠHu",
        -10.50440546707271
      ],
      [
        "ĠMuseu",
        -10.504691008434564
      ],
      [
        "ĠPaul",
        -10.505063261705969
      ],
      [
        "embargo",
        -10.5056188813403
      ],
      [
        "tentando",
        -10.505898312069055
      ],
      [
        "Ġprecisam",
        -10.506130250253069
      ],
      [
        "mÃ£os",
        -10.506597886530075
      ],
      [
        "Ġtrouxe",
        -10.506843354172196
      ],
      [
        "Ġplaneta",
        -10.507086461540224
      ],
      [
        "errado",
        -10.50726384257594
      ],
      [
        "tados",
        -10.508317385559806
      ],
      [
        "Localida",
        -10.508535366628331
      ],
      [
        "ĠVerde",
        -10.50875341927622
      ],
      [
        "lia",
        -10.509121397245462
      ],
      [
        "totalmente",
        -10.509159540242344
      ],
      [
        "fronteira",
        -10.50929743750159
      ],
      [
        "consequÃªncia",
        -10.509744697113566
      ],
      [
        "Ġmeta",
        -10.509758890595169
      ],
      [
        "ĠTri",
        -10.509817793425745
      ],
      [
        "ĠTrabalhador",
        -10.510182186975202
      ],
      [
        "composiÃ§Ã£o",
        -10.510260711890297
      ],
      [
        "Ġteor",
        -10.51033875682498
      ],
      [
        "definiÃ§Ã£o",
        -10.510426307932546
      ],
      [
        "velocidade",
        -10.511191536865748
      ],
      [
        "Ġtirar",
        -10.511270088401917
      ],
      [
        "eliminaÃ§Ã£o",
        -10.511865755483822
      ],
      [
        "indÃŃgenas",
        -10.512035980816668
      ],
      [
        "ĠROBERT",
        -10.512203831835333
      ],
      [
        "ĠirmÃ£",
        -10.51256372635978
      ],
      [
        "trecho",
        -10.51277906968826
      ],
      [
        "exÃ©rcito",
        -10.51300816429996
      ],
      [
        "Ġmelhorar",
        -10.51325629529438
      ],
      [
        "Ġsimplesmente",
        -10.514115125645656
      ],
      [
        "Ġesteve",
        -10.51484183068076
      ],
      [
        "coberto",
        -10.51504158999174
      ],
      [
        "integrantes",
        -10.515189000545115
      ],
      [
        "Ġ38",
        -10.516154218700022
      ],
      [
        "entrou",
        -10.516861722242664
      ],
      [
        "Ġrenova",
        -10.51690754938553
      ],
      [
        "Ġbranco",
        -10.517677916280492
      ],
      [
        "posteriormente",
        -10.518110227187629
      ],
      [
        "ĠCÃ©sar",
        -10.518217829612183
      ],
      [
        "provas",
        -10.518656134210806
      ],
      [
        "Ġinterno",
        -10.51892331515896
      ],
      [
        "ĠGlobo",
        -10.519871113537844
      ],
      [
        "age",
        -10.520382142974492
      ],
      [
        "Ġvoz",
        -10.520707271029998
      ],
      [
        "ĠUnido",
        -10.521770872591889
      ],
      [
        "obrigaÃ§Ã£o",
        -10.521823501649363
      ],
      [
        "ĠveÃŃculo",
        -10.521930159859782
      ],
      [
        "Ġdemonstra",
        -10.5224208859963
      ],
      [
        "ĠFaria",
        -10.522488791921736
      ],
      [
        "Recurso",
        -10.52293386060812
      ],
      [
        "Ī",
        -10.522967756004626
      ],
      [
        "ĠJunior",
        -10.52370821171858
      ],
      [
        "responsÃ¡veis",
        -10.524183773116912
      ],
      [
        "Geografia",
        -10.524715853262766
      ],
      [
        "agente",
        -10.525348467056208
      ],
      [
        "Ġcumprir",
        -10.525518770470798
      ],
      [
        "Ġ53",
        -10.525908970968082
      ],
      [
        "tornando",
        -10.526199706859982
      ],
      [
        "ĠRO",
        -10.526619570607156
      ],
      [
        "GTE",
        -10.52697378837078
      ],
      [
        "Ġconstruir",
        -10.527248409349417
      ],
      [
        "Ġatras",
        -10.527638352875332
      ],
      [
        "Ġresolver",
        -10.52831603295304
      ],
      [
        "drogas",
        -10.52846726920539
      ],
      [
        "\"),",
        -10.528688224441472
      ],
      [
        "InocÃªnci",
        -10.528806739460869
      ],
      [
        "estÃºdio",
        -10.528987656408695
      ],
      [
        "Ġparticipa",
        -10.529472440629712
      ],
      [
        "gado",
        -10.529729408135683
      ],
      [
        "rios",
        -10.529864313308678
      ],
      [
        "Registro",
        -10.53000933026496
      ],
      [
        "Ġtiver",
        -10.530249718321398
      ],
      [
        "mentos",
        -10.530286423508043
      ],
      [
        "manifestaÃ§Ã£o",
        -10.53065695079839
      ],
      [
        "perante",
        -10.530800767563257
      ],
      [
        "Ġvolume",
        -10.530920114601528
      ],
      [
        "ĠdÃ³lares",
        -10.53136375544544
      ],
      [
        "Ġtive",
        -10.531552532481928
      ],
      [
        "ĠChi",
        -10.531651155798423
      ],
      [
        "liÃ¡s",
        -10.532154659209606
      ],
      [
        "Ġaberta",
        -10.53243071785169
      ],
      [
        "frequÃªncia",
        -10.532822481519238
      ],
      [
        "Ġagricultura",
        -10.532842930080191
      ],
      [
        "Ġplanos",
        -10.532916085378808
      ],
      [
        "Ġ1980",
        -10.533934723223933
      ],
      [
        "Atualmente",
        -10.53415769132796
      ],
      [
        "Ġimediata",
        -10.53416866473114
      ],
      [
        "CH",
        -10.534408441626535
      ],
      [
        "vejo",
        -10.534719656208214
      ],
      [
        "Ġ55",
        -10.535219332185775
      ],
      [
        "ker",
        -10.535630455525872
      ],
      [
        "Ġexercer",
        -10.535986180933223
      ],
      [
        "ĠNovo",
        -10.536290764042002
      ],
      [
        "rÃ³",
        -10.53677029614093
      ],
      [
        "classificaÃ§Ã£o",
        -10.536886893360617
      ],
      [
        "ice",
        -10.53725066020607
      ],
      [
        "ĠArgentina",
        -10.537455889676137
      ],
      [
        "Ġindividual",
        -10.537611462391586
      ],
      [
        "ĠCr",
        -10.538737719126436
      ],
      [
        "ham",
        -10.538792798506032
      ],
      [
        "Ġverdadeira",
        -10.538880215585976
      ],
      [
        "ĠCastro",
        -10.539008654867894
      ],
      [
        "partidos",
        -10.539190598988355
      ],
      [
        "cat",
        -10.539253559541969
      ],
      [
        "ĠGe",
        -10.539494085452558
      ],
      [
        "advogado",
        -10.539948718892369
      ],
      [
        "Ġdeterminado",
        -10.540267355162795
      ],
      [
        "112",
        -10.540925187966492
      ],
      [
        "ĠNota",
        -10.541084054281267
      ],
      [
        "bÃ¡sico",
        -10.541410799740891
      ],
      [
        "ĠpadrÃ£o",
        -10.541482349338908
      ],
      [
        "ĠBorges",
        -10.541608280918831
      ],
      [
        "Gilmar",
        -10.54215280974852
      ],
      [
        "Ġclara",
        -10.542562387968776
      ],
      [
        "ĠFo",
        -10.54288473202376
      ],
      [
        "Ġacredito",
        -10.54317631551691
      ],
      [
        "ĠCas",
        -10.54344319381319
      ],
      [
        "Ġpolicial",
        -10.544093515617478
      ],
      [
        "Ã¶",
        -10.544101525436297
      ],
      [
        "aquisiÃ§Ã£o",
        -10.544707040283129
      ],
      [
        "ĠaniversÃ¡rio",
        -10.54508033685763
      ],
      [
        "ilha",
        -10.545375082011674
      ],
      [
        "Ġouro",
        -10.545731904172076
      ],
      [
        "ĠRoma",
        -10.546003864717903
      ],
      [
        "ĠVII",
        -10.54656355304374
      ],
      [
        "Faculdade",
        -10.546683757841626
      ],
      [
        "Cavalcanti",
        -10.546983098408989
      ],
      [
        "ĠSujeit",
        -10.547173018366593
      ],
      [
        "Ġanual",
        -10.5472946303154
      ],
      [
        "emissora",
        -10.54792024627015
      ],
      [
        "ĠespecÃŃfica",
        -10.548232735986552
      ],
      [
        "Ġdeixe",
        -10.548256035892075
      ],
      [
        "26",
        -10.54883081141802
      ],
      [
        "inconstitucional",
        -10.549943733108316
      ],
      [
        "Alguns",
        -10.550350047581931
      ],
      [
        "ĠEstatut",
        -10.550885300543214
      ],
      [
        "tina",
        -10.551039423644053
      ],
      [
        "Ġservi",
        -10.551253177667752
      ],
      [
        "Ġcarta",
        -10.551257906117527
      ],
      [
        "kk",
        -10.55132239617146
      ],
      [
        "..........",
        -10.551344304062583
      ],
      [
        "tel",
        -10.552296480467536
      ],
      [
        "ficando",
        -10.552400596606322
      ],
      [
        "senhores",
        -10.552414313400504
      ],
      [
        "elli",
        -10.552671720106057
      ],
      [
        "van",
        -10.55398591751053
      ],
      [
        "materiais",
        -10.554034373126097
      ],
      [
        "Ġextra",
        -10.55466650246995
      ],
      [
        "CapitÃ£o",
        -10.555446085005617
      ],
      [
        "Ġsenador",
        -10.555787275346384
      ],
      [
        "estaduais",
        -10.55580144022904
      ],
      [
        "Ġcriou",
        -10.556577008696928
      ],
      [
        "ĠCal",
        -10.556597171487358
      ],
      [
        "verdadeiro",
        -10.556903295134475
      ],
      [
        "evoluÃ§Ã£o",
        -10.557147466264126
      ],
      [
        "AM",
        -10.557178880736291
      ],
      [
        "Ġminhas",
        -10.55739902217272
      ],
      [
        "Ġexclusivament",
        -10.557402677325085
      ],
      [
        "Ġmorrer",
        -10.557567164331742
      ],
      [
        "Ġdefender",
        -10.557740187567807
      ],
      [
        "Calheiro",
        -10.558084353810663
      ],
      [
        "oradores",
        -10.558167753608387
      ],
      [
        "Ġcompleto",
        -10.558190789447542
      ],
      [
        "ÃĬNCIA",
        -10.558320646693124
      ],
      [
        "setores",
        -10.558629490470988
      ],
      [
        "ĠRu",
        -10.558682937194256
      ],
      [
        "Ġ52",
        -10.558707276494705
      ],
      [
        "Ġcorrespondente",
        -10.558912561191171
      ],
      [
        "ĠDavid",
        -10.558970046666026
      ],
      [
        "ituaÃ§Ãµes",
        -10.560087076278464
      ],
      [
        "lhes",
        -10.56016322064324
      ],
      [
        "NT",
        -10.560242575262246
      ],
      [
        "TVR",
        -10.560801616792666
      ],
      [
        "Ġmorto",
        -10.560934633705534
      ],
      [
        "SEÃĩÃĥO",
        -10.561148155329208
      ],
      [
        "usada",
        -10.561610921175566
      ],
      [
        "gravante",
        -10.562409321066603
      ],
      [
        "æ",
        -10.562441695393051
      ],
      [
        "Ġjuntos",
        -10.56258809525911
      ],
      [
        "ExcelentÃŃssimo",
        -10.562673341051408
      ],
      [
        "nquÃ©rito",
        -10.562828756806766
      ],
      [
        "feminino",
        -10.563233825174258
      ],
      [
        "Ġ1989",
        -10.56371009490736
      ],
      [
        "divulgaÃ§Ã£o",
        -10.563733010458368
      ],
      [
        "escrita",
        -10.563913927571711
      ],
      [
        "Ġ43",
        -10.564318794152296
      ],
      [
        "Ġlembrar",
        -10.564588297858757
      ],
      [
        "Ġpodia",
        -10.56496587322933
      ],
      [
        "presentes",
        -10.56499007128652
      ],
      [
        "µ",
        -10.565660906625489
      ],
      [
        "cenÃ¡rio",
        -10.56573503734979
      ],
      [
        "Energia",
        -10.56606573700549
      ],
      [
        "ĠPaes",
        -10.566640331922317
      ],
      [
        "recuperaÃ§Ã£o",
        -10.566759542844643
      ],
      [
        "Ġcomportamento",
        -10.567152338339133
      ],
      [
        "recedente",
        -10.567226097824223
      ],
      [
        "lidade",
        -10.567801921529124
      ],
      [
        "ĠInglaterra",
        -10.568140294781998
      ],
      [
        "cionais",
        -10.568195223628605
      ],
      [
        "ĠrepresentaÃ§Ã£o",
        -10.568365218753856
      ],
      [
        "devidamente",
        -10.568614173021738
      ],
      [
        "Ġintegrar",
        -10.568751206365016
      ],
      [
        "Ãªncia",
        -10.570663057561635
      ],
      [
        "Ġimplica",
        -10.570765848027875
      ],
      [
        "ĠGar",
        -10.570946495344272
      ],
      [
        "iria",
        -10.57102168556825
      ],
      [
        "oeste",
        -10.571317502008242
      ],
      [
        "IM",
        -10.571348577206972
      ],
      [
        "ImpÃ©rio",
        -10.571424708625768
      ],
      [
        "tradiÃ§Ã£o",
        -10.571777768472376
      ],
      [
        "Ġaparece",
        -10.57182225699134
      ],
      [
        "Ġ01",
        -10.572153561838556
      ],
      [
        "entes",
        -10.572437057155522
      ],
      [
        "Ġ62",
        -10.572919311515925
      ],
      [
        "ĠLiga",
        -10.573160502650616
      ],
      [
        "ara",
        -10.573332166062452
      ],
      [
        "Ġdigital",
        -10.573956240919449
      ],
      [
        "PorÃ©m",
        -10.574256717106218
      ],
      [
        "her",
        -10.574408274407148
      ],
      [
        "Ġrecente",
        -10.574833445766666
      ],
      [
        "fls",
        -10.574909101279903
      ],
      [
        "ĠExiste",
        -10.576188962909583
      ],
      [
        "Ġaparte",
        -10.576275765213898
      ],
      [
        "cida",
        -10.57651397318796
      ],
      [
        "Ġ64",
        -10.577047581837023
      ],
      [
        "ĠsÃ©rio",
        -10.577075543670585
      ],
      [
        "Ġconhecer",
        -10.577304374263605
      ],
      [
        "Ġveja",
        -10.57773937244191
      ],
      [
        "necessÃ¡rias",
        -10.577923158049837
      ],
      [
        "nÃºmeros",
        -10.577937361332747
      ],
      [
        "ego",
        -10.57893869107341
      ],
      [
        "Arnaldo",
        -10.579087924487409
      ],
      [
        "Ġparlamentar",
        -10.579762488004189
      ],
      [
        "Ġdireto",
        -10.580309864546567
      ],
      [
        "Ġcantor",
        -10.580400913255868
      ],
      [
        "Ġescolar",
        -10.58083356487534
      ],
      [
        "ĠterÃ§a",
        -10.581289174133758
      ],
      [
        "Ġerro",
        -10.581445875201672
      ],
      [
        "urbana",
        -10.581645373748897
      ],
      [
        "rico",
        -10.581778585217211
      ],
      [
        "Ġjogar",
        -10.582984030295822
      ],
      [
        "Ġcaixa",
        -10.583001916750517
      ],
      [
        "sujeito",
        -10.583021700336788
      ],
      [
        "Ġreconhece",
        -10.583349310495471
      ],
      [
        "ĠDeve",
        -10.583709057216923
      ],
      [
        "iam",
        -10.584178357318534
      ],
      [
        "incidÃªncia",
        -10.585005850278256
      ],
      [
        "Ġpratica",
        -10.585277684972697
      ],
      [
        "edifÃŃcio",
        -10.585424197317264
      ],
      [
        "Ġcompetente",
        -10.585606120204847
      ],
      [
        "PÃļBLICA",
        -10.586625779464557
      ],
      [
        "Ġindica",
        -10.586780410259909
      ],
      [
        "pudesse",
        -10.587048675066026
      ],
      [
        "Ġadequada",
        -10.58855015672038
      ],
      [
        "efetivo",
        -10.588637922845091
      ],
      [
        "ComÃ©rcio",
        -10.588700930832232
      ],
      [
        "AR",
        -10.588945931412788
      ],
      [
        "ĠGeorge",
        -10.589274184719082
      ],
      [
        "trÃ¡s",
        -10.58930642393194
      ],
      [
        "Ġobter",
        -10.589362110172535
      ],
      [
        "incentivo",
        -10.589571601700618
      ],
      [
        "Ġpronto",
        -10.58997753721459
      ],
      [
        "dar",
        -10.590001542137053
      ],
      [
        "Ġacontecendo",
        -10.59038207630254
      ],
      [
        "ĠLondres",
        -10.590438887706302
      ],
      [
        "ĠManuel",
        -10.590589585686802
      ],
      [
        "ĠgÃ¡s",
        -10.59067749787307
      ],
      [
        "ella",
        -10.591069912147557
      ],
      [
        "Ġvive",
        -10.591328811168374
      ],
      [
        "CCJ",
        -10.591595278371743
      ],
      [
        "ĠGa",
        -10.591597165206618
      ],
      [
        "Ġreduzir",
        -10.592569886764704
      ],
      [
        "ĠQuadro",
        -10.592584305613192
      ],
      [
        "Ġsinal",
        -10.592594790351669
      ],
      [
        "Assembleia",
        -10.593008389457502
      ],
      [
        "ĠPesquisa",
        -10.593223749070551
      ],
      [
        "candidatos",
        -10.593274123340889
      ],
      [
        "vol",
        -10.593963157091729
      ],
      [
        "ĠSubstantiv",
        -10.594131224917332
      ],
      [
        "redor",
        -10.594286550368135
      ],
      [
        "ĠFu",
        -10.594397864951922
      ],
      [
        "Ŀ",
        -10.594961843019371
      ],
      [
        "Ġescritor",
        -10.595090048517909
      ],
      [
        "Freitas",
        -10.596094291962595
      ],
      [
        "dando",
        -10.59620512561847
      ],
      [
        "ĠPessoa",
        -10.596473154194658
      ],
      [
        "tinha",
        -10.596649462385772
      ],
      [
        "mil",
        -10.596772491885025
      ],
      [
        "27",
        -10.597272533429608
      ],
      [
        "Ġvencedor",
        -10.597318233067703
      ],
      [
        "disposiÃ§Ã£o",
        -10.59782191873746
      ],
      [
        "Ġ2021",
        -10.59865057960557
      ],
      [
        "EMENTA",
        -10.59874535113218
      ],
      [
        "ĠexposiÃ§Ã£o",
        -10.598764846509749
      ],
      [
        "segmento",
        -10.599398111338733
      ],
      [
        "Ġvo",
        -10.599802091601184
      ],
      [
        "Ġcomprar",
        -10.600552961768194
      ],
      [
        "representantes",
        -10.60123364665568
      ],
      [
        "cobranÃ§a",
        -10.603008204200368
      ],
      [
        "tec",
[...]
