{
  "version": "1.0",
  "truncation": {
    "direction": "Right",
    "max_length": 1024,
    "strategy": "LongestFirst",
    "stride": 0
  },
  "padding": null,
  "added_tokens": [
    {
      "id": 0,
      "content": "[PAD]",
      "single_word": false,
      "lstrip": false,
      "rstrip": false,
      "normalized": false,
      "special": true
    },
    {
      "id": 1,
      "content": "[SEP]",
      "single_word": false,
      "lstrip": false,
      "rstrip": false,
      "normalized": false,
      "special": true
    },
    {
      "id": 2,
      "content": "[EOS]",
      "single_word": false,
      "lstrip": false,
      "rstrip": false,
      "normalized": false,
      "special": true
    },
    {
      "id": 3,
      "content": "[UNK]",
      "single_word": false,
      "lstrip": false,
      "rstrip": false,
      "normalized": false,
      "special": true
    }
  ],
  "normalizer": {
    "type": "Sequence",
    "normalizers": [
      {
        "type": "Strip",
        "strip_left": true,
        "strip_right": true
      },
      {
        "type": "NFKD"
      }
    ]
  },
  "pre_tokenizer": {
    "type": "ByteLevel",
    "add_prefix_space": true,
    "trim_offsets": true,
    "use_regex": true
  },
  "post_processor": {
    "type": "Sequence",
    "processors": [
      {
        "type": "ByteLevel",
        "add_prefix_space": true,
        "trim_offsets": true,
        "use_regex": true
      },
      {
        "type": "TemplateProcessing",
        "single": [
          {
            "Sequence": {
              "id": "A",
              "type_id": 0
            }
          },
          {
            "SpecialToken": {
              "id": "[EOS]",
              "type_id": 0
            }
          }
        ],
        "pair": [
          {
            "Sequence": {
              "id": "A",
              "type_id": 0
            }
          },
          {
            "SpecialToken": {
              "id": "[SEP]",
              "type_id": 0
            }
          },
          {
            "Sequence": {
              "id": "B",
              "type_id": 0
            }
          },
          {
            "SpecialToken": {
              "id": "[EOS]",
              "type_id": 0
            }
          }
        ],
        "special_tokens": {
          "[EOS]": {
            "id": "[EOS]",
            "ids": [
              2
            ],
            "tokens": [
              "[EOS]"
            ]
          },
          "[SEP]": {
            "id": "[SEP]",
            "ids": [
              1
            ],
            "tokens": [
              "[SEP]"
            ]
          }
        }
      }
    ]
  },
  "decoder": {
    "type": "ByteLevel",
    "add_prefix_space": true,
    "trim_offsets": true,
    "use_regex": true
  },
  "model": {
    "type": "Unigram",
    "unk_id": 3,
    "vocab": [
      [
        "[PAD]",
        0.0
      ],
      [
        "[SEP]",
        0.0
      ],
      [
        "[EOS]",
        0.0
      ],
      [
        "[UNK]",
        0.0
      ],
      [
        "Ġ",
        -2.3506598092998594
      ],
      [
        "o",
        -3.0673487584522547
      ],
      [
        "a",
        -3.1962275835984215
      ],
      [
        ",",
        -3.367949044627366
      ],
      [
        "Ìģ",
        -3.4211660077888624
      ],
      [
        "s",
        -3.5881813135230125
      ],
      [
        ".",
        -3.5906904193991487
      ],
      [
        "Ġde",
        -3.6841491583506
      ],
      [
        "Ìĥ",
        -3.7418955337682185
      ],
      [
        "e",
        -3.778319401804449
      ],
      [
        "Ì§",
        -4.1803274081124115
      ],
      [
        "-",
        -4.640649429546272
      ],
      [
        "Ġque",
        -4.6730764807367215
      ],
      [
        "Ġdo",
        -4.683729677505799
      ],
      [
        "Ġda",
        -4.846396514973897
      ],
      [
        "m",
        -5.028501604971474
      ],
      [
        "ÌĤ",
        -5.04717419280496
      ],
      [
        "r",
        -5.0817822378231945
      ],
      [
        "c",
        -5.125927147808991
      ],
      [
        "u",
        -5.159781004259244
      ],
      [
        "Ġna",
        -5.195871365666481
      ],
      [
        "Ġem",
        -5.255617855733632
      ],
      [
        "Ġno",
        -5.347487537660125
      ],
      [
        "Ġpara",
        -5.458084898049009
      ],
      [
        "Ġ(",
        -5.458334611773445
      ],
      [
        "n",
        -5.4667632257937875
      ],
      [
        "es",
        -5.466787948941612
      ],
      [
        "\"",
        -5.473291690309196
      ],
      [
        "Ġcom",
        -5.584494952056449
      ],
      [
        ")",
        -5.6195046073796355
      ],
      [
        "i",
        -5.650157222063925
      ],
      [
        "ĠA",
        -5.693153705443326
      ],
      [
        ":",
        -5.804238915194713
      ],
      [
        "Ġum",
        -5.816599548115622
      ],
      [
        "ĠâĢĵ",
        -5.840363624789228
      ],
      [
        "/",
        -5.845739050879871
      ],
      [
        "ĠO",
        -5.861765545056015
      ],
      [
        "l",
        -5.948592442207676
      ],
      [
        "Ġuma",
        -6.049478998830109
      ],
      [
        "Ġse",
        -6.060527722799899
      ],
      [
        "Ġpor",
        -6.065723138288725
      ],
      [
        "Ġos",
        -6.070705072727682
      ],
      [
        "A",
        -6.094145755217667
      ],
      [
        "O",
        -6.10798537716507
      ],
      [
        "ncia",
        -6.133878204757066
      ],
      [
        "do",
        -6.147606413490159
      ],
      [
        "ÌĢ",
        -6.192993808531192
      ],
      [
        "da",
        -6.230633553980919
      ],
      [
        "ria",
        -6.289910291623917
      ],
      [
        "rio",
        -6.299693313481081
      ],
      [
        "ĠE",
        -6.312429872497884
      ],
      [
        "Ġdos",
        -6.332415280047169
      ],
      [
        "p",
        -6.337554134437076
      ],
      [
        "Ġas",
        -6.385524265016128
      ],
      [
        "t",
        -6.420655598037698
      ],
      [
        "Ġcomo",
        -6.494202408078884
      ],
      [
        "?",
        -6.503675827386857
      ],
      [
        "ndo",
        -6.562457228615392
      ],
      [
        "Ġesta",
        -6.56700317874353
      ],
      [
        "Ġfoi",
        -6.593108791144211
      ],
      [
        "d",
        -6.617909029066073
      ],
      [
        "ta",
        -6.6500266042541725
      ],
      [
        "!",
        -6.653051339970133
      ],
      [
        "Ġmais",
        -6.662928629326364
      ],
      [
        "S",
        -6.663525335859415
      ],
      [
        "Ġou",
        -6.747363810707846
      ],
      [
        "h",
        -6.7517633891363555
      ],
      [
        "de",
        -6.752802421669379
      ],
      [
        "na",
        -6.764053562689767
      ],
      [
        "ĠNa",
        -6.777519576800021
      ],
      [
        "ti",
        -6.785023661078425
      ],
      [
        ";",
        -6.791045937639016
      ],
      [
        "C",
        -6.793996535924469
      ],
      [
        "ĠDE",
        -6.806908646082416
      ],
      [
        "Ġpela",
        -6.816764937635929
      ],
      [
        "ĠNo",
        -6.824408676440443
      ],
      [
        "Ġ1",
        -6.840515113836972
      ],
      [
        "b",
        -6.856913036729493
      ],
      [
        "Ġpelo",
        -6.886573553701417
      ],
      [
        "Ġsua",
        -6.905142860518236
      ],
      [
        "Ġdas",
        -6.908442809679428
      ],
      [
        "................",
        -6.910671158007295
      ],
      [
        "Ġser",
        -6.942261777304703
      ],
      [
        "to",
        -6.94740017123261
      ],
      [
        "ĠSr",
        -6.965854262687566
      ],
      [
        "y",
        -6.98318020857822
      ],
      [
        "ra",
        -6.991044804573789
      ],
      [
        "mente",
        -6.9984644199378305
      ],
      [
        "g",
        -7.006244715703305
      ],
      [
        "ri",
        -7.022479080629919
      ],
      [
        "Ġsobre",
        -7.049608190686277
      ],
      [
        "...",
        -7.052126497211955
      ],
      [
        "6",
        -7.057893434124795
      ],
      [
        "7",
        -7.06765646416123
      ],
      [
        "dos",
        -7.0743479763304915
      ],
      [
        "Ġme",
        -7.078710221075303
      ],
      [
        "va",
        -7.086561314308806
      ],
      [
        "la",
        -7.103870419152173
      ],
      [
        "Ġ2",
        -7.133576190110469
      ],
      [
        "2",
        -7.134851026224961
      ],
      [
        "f",
        -7.141335709508898
      ],
      [
        "ĠâĢľ",
        -7.143676523508052
      ],
      [
        "re",
        -7.146463708659807
      ],
      [
        "Ġseu",
        -7.1527773412669315
      ],
      [
        "vel",
        -7.156727828181079
      ],
      [
        "mos",
        -7.163126685752953
      ],
      [
        "is",
        -7.18759750608951
      ],
      [
        "ĠPresidente",
        -7.197369510063483
      ],
      [
        "te",
        -7.198408003574691
      ],
      [
        "ou",
        -7.228836546850454
      ],
      [
        "ar",
        -7.230954826789901
      ],
      [
        "Ġtambe",
        -7.236903043679051
      ],
      [
        "ĠLei",
        -7.254721438787831
      ],
      [
        "1",
        -7.26393467825301
      ],
      [
        "ĠEm",
        -7.2681642252128285
      ],
      [
        "ĠI",
        -7.269257383672004
      ],
      [
        "Ġre",
        -7.271729088219603
      ],
      [
        "Ġnos",
        -7.282157238508795
      ],
      [
        "Ġsa",
        -7.291043292689968
      ],
      [
        "8",
        -7.293707600191853
      ],
      [
        "lo",
        -7.299062048355285
      ],
      [
        "Ġpro",
        -7.319707786747745
      ],
      [
        "Ġeu",
        -7.332177698015903
      ],
      [
        "ni",
        -7.334682857194629
      ],
      [
        "z",
        -7.347213604732568
      ],
      [
        "cio",
        -7.347754172123299
      ],
      [
        "ĠDeputado",
        -7.349692842307036
      ],
      [
        "Ġtem",
        -7.352267637660949
      ],
      [
        "ram",
        -7.352397224912
      ],
      [
        "E",
        -7.352835646365941
      ],
      [
        "Ġmas",
        -7.361798774374046
      ],
      [
        "das",
        -7.367219947810453
      ],
      [
        "li",
        -7.368225061368166
      ],
      [
        "Ġ19",
        -7.373441103494114
      ],
      [
        "Ġele",
        -7.373744778311696
      ],
      [
        "3",
        -7.379649906542232
      ],
      [
        "no",
        -7.387999331851008
      ],
      [
        "ĠCa",
        -7.412057156750899
      ],
      [
        "U",
        -7.418173470316058
      ],
      [
        "Ġ3",
        -7.419225718214143
      ],
      [
        "tica",
        -7.433492816711194
      ],
      [
        "ĠSa",
        -7.452988083189931
      ],
      [
        "Ġte",
        -7.45912176639176
      ],
      [
        "P",
        -7.474868710455215
      ],
      [
        "ĠSR",
        -7.480199873528301
      ],
      [
        "le",
        -7.481616180332917
      ],
      [
        "rios",
        -7.491215115805337
      ],
      [
        "D",
        -7.492911694024656
      ],
      [
        "Ġpu",
        -7.494437756600945
      ],
      [
        "ncias",
        -7.4964338189617905
      ],
      [
        "v",
        -7.4987087339241345
      ],
      [
        "Ġart",
        -7.501534523144166
      ],
      [
        "ĠFederal",
        -7.5031606404251505
      ],
      [
        "),",
        -7.511872304103102
      ],
      [
        "di",
        -7.514474573629393
      ],
      [
        "ve",
        -7.515586492401585
      ],
      [
        "Ġisso",
        -7.517969258410456
      ],
      [
        "Ġvoce",
        -7.521773782314259
      ],
      [
        "ga",
        -7.530748198440707
      ],
      [
        "R",
        -7.535931664646418
      ],
      [
        "em",
        -7.536117274414808
      ],
      [
        "ĠV",
        -7.537858077373727
      ],
      [
        "ĠS",
        -7.540039130801469
      ],
      [
        "Ġanos",
        -7.542116915737003
      ],
      [
        "L",
        -7.547625747551763
      ],
      [
        "ĠBrasil",
        -7.55612880750555
      ],
      [
        "ĠSenador",
        -7.5582541825316145
      ],
      [
        "nte",
        -7.56042561946542
      ],
      [
        "B",
        -7.565845000227624
      ],
      [
        "ĠEstado",
        -7.56694769205154
      ],
      [
        "N",
        -7.568248554783182
      ],
      [
        "T",
        -7.569892625874209
      ],
      [
        "4",
        -7.570842499288803
      ],
      [
        "k",
        -7.592390499094623
      ],
      [
        "Ġate",
        -7.596302686204796
      ],
      [
        "I",
        -7.604538195353483
      ],
      [
        ").",
        -7.608232069832779
      ],
      [
        "ĠEu",
        -7.608298126683186
      ],
      [
        "ba",
        -7.621462384443193
      ],
      [
        "pe",
        -7.630623099505071
      ],
      [
        "lia",
        -7.632631207975907
      ],
      [
        "Ġma",
        -7.635098689749883
      ],
      [
        "Ġaos",
        -7.635879157429727
      ],
      [
        "Ġentre",
        -7.636021915070916
      ],
      [
        "x",
        -7.642248170635572
      ],
      [
        "idade",
        -7.643854827437433
      ],
      [
        "Ġmuito",
        -7.647575588700693
      ],
      [
        "Ġ4",
        -7.64835876949412
      ],
      [
        "ĠSe",
        -7.650581580531499
      ],
      [
        "Ġja",
        -7.661315314217049
      ],
      [
        "go",
        -7.663994758698349
      ],
      [
        "9",
        -7.668784398050779
      ],
      [
        "5",
        -7.674324541504744
      ],
      [
        "que",
        -7.688486357313764
      ],
      [
        "ĠDe",
        -7.689907163419875
      ],
      [
        "cia",
        -7.69102082051471
      ],
      [
        "%",
        -7.702736451512173
      ],
      [
        "M",
        -7.704057160486448
      ],
      [
        "w",
        -7.713321442128821
      ],
      [
        "blica",
        -7.725095917137775
      ],
      [
        "in",
        -7.727405803102606
      ],
      [
        "ado",
        -7.742468219915274
      ],
      [
        "Ġ5",
        -7.752060627670964
      ],
      [
        "ĠComissa",
        -7.754555772856746
      ],
      [
        "Ġforma",
        -7.773355836648488
      ],
      [
        "ter",
        -7.775251988750796
      ],
      [
        "Ġbem",
        -7.779697574665809
      ],
      [
        "vi",
        -7.783021148136417
      ],
      [
        "\",",
        -7.790259297532364
      ],
      [
        "F",
        -7.802601284710576
      ],
      [
        "Ġco",
        -7.81059372289355
      ],
      [
        "Ġpode",
        -7.815030247502875
      ],
      [
        "Ġcontra",
        -7.81945400288701
      ],
      [
        "Ġ6",
        -7.826782665982053
      ],
      [
        "Ġquando",
        -7.836627254806531
      ],
      [
        "Ġ7",
        -7.853461133710912
      ],
      [
        "Ġaqui",
        -7.863487365933366
      ],
      [
        "Ġmesmo",
        -7.869378601023882
      ],
      [
        "Ġdia",
        -7.870432546543794
      ],
      [
        "(",
        -7.876358907948763
      ],
      [
        "ĠNacional",
        -7.879961666312653
      ],
      [
        "Ġpoli",
        -7.883558051119303
      ],
      [
        "Ġ8",
        -7.89061104671746
      ],
      [
        "Ġin",
        -7.901905598930641
      ],
      [
        "G",
        -7.912026441542608
      ],
      [
        "Ġca",
        -7.912517853177693
      ],
      [
        "ĠÂ§",
        -7.920346973024886
      ],
      [
        "Ġsem",
        -7.923294631484364
      ],
      [
        "mi",
        -7.924195178470992
      ],
      [
        "Ġtodos",
        -7.92489948568174
      ],
      [
        "Ġter",
        -7.9268830088024576
      ],
      [
        "Ġha",
        -7.931457939556337
      ],
      [
        "Ġ10",
        -7.935794050873524
      ],
      [
        "Ġpre",
        -7.937915094518548
      ],
      [
        "gu",
        -7.939450776094098
      ],
      [
        "ci",
        -7.94069445969785
      ],
      [
        "Ġainda",
        -7.941815227716914
      ],
      [
        "Ġpai",
        -7.945540289992943
      ],
      [
        "ĠR",
        -7.956709818480364
      ],
      [
        "dia",
        -7.965840776503512
      ],
      [
        "Ġseus",
        -7.96639330214165
      ],
      [
        "Ġ18",
        -7.970662483953138
      ],
      [
        "min",
        -7.971781771253708
      ],
      [
        "Ġera",
        -7.987446775584967
      ],
      [
        "âĢĿ.",
        -7.997957692635643
      ],
      [
        "Ġcidade",
        -8.002319007604624
      ],
      [
        "Ġac",
        -8.00600818457133
      ],
      [
        "br",
        -8.007529660490023
      ],
      [
        "ES",
        -8.00978287007136
      ],
      [
        "Ġparte",
        -8.011113857981663
      ],
      [
        "Ġvi",
        -8.015285011359994
      ],
      [
        "rias",
        -8.023739604886421
      ],
      [
        "Ġforam",
        -8.026423691750972
      ],
      [
        "ĠRe",
        -8.032749873985761
      ],
      [
        "Ġano",
        -8.03452064536793
      ],
      [
        "Ġfazer",
        -8.035096425101932
      ],
      [
        "ĠPaulo",
        -8.039054989087429
      ],
      [
        "ntes",
        -8.043507430550637
      ],
      [
        "ĠPor",
        -8.04394310381179
      ],
      [
        "ĠC",
        -8.045879134673877
      ],
      [
        "dio",
        -8.046599030768256
      ],
      [
        "Ġcaso",
        -8.046645249098978
      ],
      [
        "Ġex",
        -8.056156136389003
      ],
      [
        "Ġva",
        -8.067248916803846
      ],
      [
        "tu",
        -8.071525119844145
      ],
      [
        "\".",
        -8.07423831042034
      ],
      [
        "Ġservic",
        -8.075943539222104
      ],
      [
        "fi",
        -8.081052232205282
      ],
      [
        "tra",
        -8.082383826247801
      ],
      [
        "Ġessa",
        -8.084277873345378
      ],
      [
        "ĠCom",
        -8.084640454208188
      ],
      [
        "bi",
        -8.088850576779869
      ],
      [
        "Ġesse",
        -8.093065490516897
      ],
      [
        "ĠMa",
        -8.105856539157562
      ],
      [
        "Ġseja",
        -8.114414882366972
      ],
      [
        "ĠG",
        -8.116222747865718
      ],
      [
        "ir",
        -8.120289719976423
      ],
      [
        "ĠPL",
        -8.120705572940425
      ],
      [
        "nia",
        -8.12277425317964
      ],
      [
        "Ġpa",
        -8.122906295757758
      ],
      [
        "ĠLi",
        -8.124112295508343
      ],
      [
        "Ġtempo",
        -8.129005045891933
      ],
      [
        "ĠPara",
        -8.130715082626987
      ],
      [
        "ĠPROJETO",
        -8.138259836661978
      ],
      [
        "nico",
        -8.147265911135582
      ],
      [
        "gi",
        -8.148421618958677
      ],
      [
        "Ġporque",
        -8.149975013430915
      ],
      [
        "Ġvai",
        -8.150434922800619
      ],
      [
        "V",
        -8.156373502498056
      ],
      [
        "ĠLEI",
        -8.158320728735372
      ],
      [
        "ĠU",
        -8.163304209848649
      ],
      [
        "mara",
        -8.16618827018364
      ],
      [
        "Ġmeu",
        -8.17317138189126
      ],
      [
        "ĠDeputados",
        -8.174008638049935
      ],
      [
        "ĠPRESIDENTE",
        -8.17919104488625
      ],
      [
        "ĠP",
        -8.181105930334732
      ],
      [
        "ĠOs",
        -8.181779150286234
      ],
      [
        "Ġela",
        -8.183442598011451
      ],
      [
        "ĠMas",
        -8.184304974561705
      ],
      [
        "Ġprimeiro",
        -8.187966461695297
      ],
      [
        "veis",
        -8.190179714298742
      ],
      [
        "ĠMe",
        -8.191748740898294
      ],
      [
        "ĠEsta",
        -8.195621686982651
      ],
      [
        "Ġsera",
        -8.199357714006634
      ],
      [
        "ĠEle",
        -8.199406235343762
      ],
      [
        "pio",
        -8.199998406453403
      ],
      [
        "ver",
        -8.202433746363951
      ],
      [
        "H",
        -8.207257289158044
      ],
      [
        "ge",
        -8.209090609247996
      ],
      [
        "ĠB",
        -8.212320363459556
      ],
      [
        "pi",
        -8.212955671619284
      ],
      [
        "Ġonde",
        -8.214897661141249
      ],
      [
        "sta",
        -8.218450982866925
      ],
      [
        "ĠGoverno",
        -8.221156915217465
      ],
      [
        "ĠMinistro",
        -8.224183911693105
      ],
      [
        "Ġ9",
        -8.22981818948762
      ],
      [
        "ĠT",
        -8.230934675395726
      ],
      [
        "ĠVoce",
        -8.23105274865334
      ],
      [
        "ĠConstituic",
        -8.232555132032065
      ],
      [
        "tro",
        -8.233642442000948
      ],
      [
        "nd",
        -8.234095866800352
      ],
      [
        "âĢĿ",
        -8.237236351754532
      ],
      [
        "Ġpessoas",
        -8.245546568429996
      ],
      [
        "ch",
        -8.248303860743995
      ],
      [
        "za",
        -8.248467678044717
      ],
      [
        "'",
        -8.248990843577623
      ],
      [
        "Ġvez",
        -8.252757522411255
      ],
      [
        "be",
        -8.253486490125699
      ],
      [
        "00",
        -8.258234192965162
      ],
      [
        "Ġgrande",
        -8.261748696686606
      ],
      [
        "Ġoutros",
        -8.26245325772469
      ],
      [
        "ĠCo",
        -8.269531076500243
      ],
      [
        "Ġartigo",
        -8.273716620710493
      ],
      [
        "fe",
        -8.273979915341071
      ],
      [
        "der",
        -8.274826948441117
      ],
      [
        "Ġapenas",
        -8.285745485586936
      ],
      [
        "Ġoutras",
        -8.291067383870578
      ],
      [
        "Ġtrabalho",
        -8.291666601106325
      ],
      [
        "Ġ11",
        -8.297987383233211
      ],
      [
        "19",
        -8.299322363838836
      ],
      [
        "Ġ12",
        -8.299354529447976
      ],
      [
        "ĠRELATOR",
        -8.303356552764141
      ],
      [
        "blico",
        -8.303905185015074
      ],
      [
        "res",
        -8.308780790644688
      ],
      [
        "Ġeste",
        -8.31657778723943
      ],
      [
        "ĠDo",
        -8.316634800927433
      ],
      [
        "Ġseguinte",
        -8.319347383859611
      ],
      [
        "Ġcon",
        -8.321855160522112
      ],
      [
        "Ġsendo",
        -8.32327325341375
      ],
      [
        "tico",
        -8.328085657119416
      ],
      [
        "Ġdois",
        -8.32960149286289
      ],
      [
        "ĠRefere",
        -8.331016354900207
      ],
      [
        "Ġsuas",
        -8.335944192771509
      ],
      [
        "nha",
        -8.337701445949925
      ],
      [
        "Ġmaior",
        -8.338403911668358
      ],
      [
        "ĠRio",
        -8.340044888564497
      ],
      [
        "Ġordem",
        -8.340991223564748
      ],
      [
        "Ġ15",
        -8.34173812651208
      ],
      [
        "Ġnosso",
        -8.342980026976923
      ],
      [
        "ĠArt",
        -8.347389480326566
      ],
      [
        "Ġapo",
        -8.348080638201163
      ],
      [
        "ja",
        -8.348694744857227
      ],
      [
        "ĠProjeto",
        -8.35088920599698
      ],
      [
        "amento",
        -8.355694726446007
      ],
      [
        "ĠII",
        -8.356618704940205
      ],
      [
        "ĠLa",
        -8.356924927132152
      ],
      [
        "Ġlei",
        -8.35823688316298
      ],
      [
        "Ġen",
        -8.362841758466297
      ],
      [
        "ĠPai",
        -8.363697991628376
      ],
      [
        "ĠDO",
        -8.370853061159913
      ],
      [
        "ck",
        -8.371271176211451
      ],
      [
        "ĠCasa",
        -8.379315842641693
      ],
      [
        "Ġfi",
        -8.37985997229344
      ],
      [
        "Ġminha",
        -8.384640604370636
      ],
      [
        "Ġhoje",
        -8.38549247908101
      ],
      [
        "Ġla",
        -8.391933329345898
      ],
      [
        "Ġtermos",
        -8.392847073955629
      ],
      [
        "ĠHa",
        -8.393138933412478
      ],
      [
        "Ġprocesso",
        -8.402453798181213
      ],
      [
        "mento",
        -8.403505151033182
      ],
      [
        "Ġta",
        -8.403552754111072
      ],
      [
        "fica",
        -8.404733970424813
      ],
      [
        "Ġmeio",
        -8.406776966651933
      ],
      [
        "Ġassim",
        -8.407004659648193
      ],
      [
        "j",
        -8.410299749874298
      ],
      [
        "Ġ16",
        -8.41184203325187
      ],
      [
        "nio",
        -8.413771198960951
      ],
      [
        "Ġnu",
        -8.41515463771201
      ],
      [
        "ĠRa",
        -8.418013506685954
      ],
      [
        "ĠSenhor",
        -8.419356652225623
      ],
      [
        "Ġdesta",
        -8.42222604968217
      ],
      [
        "Ġprojeto",
        -8.424232001308635
      ],
      [
        "10",
        -8.424696424900269
      ],
      [
        "rea",
        -8.425604563388559
      ],
      [
        "PSDB",
        -8.431182413518926
      ],
      [
        "Ġ17",
        -8.432817199097236
      ],
      [
        "Ġpra",
        -8.432935392648526
      ],
      [
        "sse",
        -8.433425928257318
      ],
      [
        "ll",
        -8.436391357411662
      ],
      [
        "ĠPu",
        -8.437830724135349
      ],
      [
        "ĠJa",
        -8.445699743083889
      ],
      [
        "Ġpo",
        -8.447570871755213
      ],
      [
        "Ġqual",
        -8.448078904670552
      ],
      [
        "Ġnas",
        -8.450072415092187
      ],
      [
        "ĠJu",
        -8.45028331325597
      ],
      [
        "ĠJose",
        -8.455271908181992
      ],
      [
        "ĠMo",
        -8.456504014445983
      ],
      [
        "0",
        -8.460443317069352
      ],
      [
        "tar",
        -8.463554193923256
      ],
      [
        "Ġnome",
        -8.464544991597275
      ],
      [
        "qui",
        -8.465299780440985
      ],
      [
        "ĠF",
        -8.4695958280246
      ],
      [
        "ina",
        -8.471034390574928
      ],
      [
        "Ġli",
        -8.471406706106734
      ],
      [
        "Ġdireito",
        -8.472076419375838
      ],
      [
        "ĠSenado",
        -8.476452549293164
      ],
      [
        "Ġ20",
        -8.477435568307317
      ],
      [
        "nica",
        -8.478166416242802
      ],
      [
        "Ġprimeira",
        -8.478197186168646
      ],
      [
        "rito",
        -8.481027628264354
      ],
      [
        "Ġdisse",
        -8.48359862132662
      ],
      [
        "$",
        -8.485267309835107
      ],
      [
        "Ġsistema",
        -8.487605723907034
      ],
      [
        "Ġmu",
        -8.488521280040798
      ],
      [
        "Ġqualquer",
        -8.488976253495741
      ],
      [
        "ĠDA",
        -8.493234212738036
      ],
      [
        "ĠTribunal",
        -8.494079900329897
      ],
      [
        "Ġhisto",
        -8.496566064522439
      ],
      [
        "Ġtre",
        -8.496722915088167
      ],
      [
        "Ġfa",
        -8.496796904209011
      ],
      [
        "ĠLe",
        -8.498450314202271
      ],
      [
        "ĠâĢ¢",
        -8.502251848684256
      ],
      [
        "Ġdeste",
        -8.504003665010453
      ],
      [
        "dor",
        -8.504995758173488
      ],
      [
        "ĠComo",
        -8.505589313145801
      ],
      [
        "ĠD",
        -8.508604080725917
      ],
      [
        "Ġvida",
        -8.509004989125717
      ],
      [
        "ĠSem",
        -8.511355021918563
      ],
      [
        "Ġvoto",
        -8.515437371759802
      ],
      [
        "Ġtra",
        -8.517406613904775
      ],
      [
        "Ġ13",
        -8.520237221035334
      ],
      [
        "11",
        -8.523825769247496
      ],
      [
        "Ġpalavra",
        -8.524343704116397
      ],
      [
        "Ġcada",
        -8.52514488284532
      ],
      [
        "Ġacordo",
        -8.525457438031015
      ],
      [
        "man",
        -8.533947397847651
      ],
      [
        "Ġ14",
        -8.534305007075135
      ],
      [
        "Ġdepois",
        -8.534423691434396
      ],
      [
        "09",
        -8.534688230829245
      ],
      [
        "ĠW",
        -8.535786711329369
      ],
      [
        "ĠMiniste",
        -8.5384053091853
      ],
      [
        "Ġinformac",
        -8.539008758467224
      ],
      [
        "ĠAs",
        -8.539741246496972
      ],
      [
        "ng",
        -8.540961123684562
      ],
      [
        "sica",
        -8.547415362426742
      ],
      [
        "Ġtodo",
        -8.549449545261576
      ],
      [
        "ĠRepu",
        -8.549950188862944
      ],
      [
        "ĠRo",
        -8.550105172462553
      ],
      [
        "um",
        -8.552792760649826
      ],
      [
        "ĠPT",
        -8.555861410345635
      ],
      [
        "Ġprazo",
        -8.558027781912145
      ],
      [
        "Ġato",
        -8.560155850231789
      ],
      [
        "lha",
        -8.561544715645004
      ],
      [
        "ĠCarlos",
        -8.563094749026702
      ],
      [
        "via",
        -8.565820873751104
      ],
      [
        "ĠSim",
        -8.566463087558995
      ],
      [
        "Ġmi",
        -8.572655850241246
      ],
      [
        "ĠTe",
        -8.575727418448617
      ],
      [
        "Ġsi",
        -8.580870986425222
      ],
      [
        "ĠRelator",
        -8.58345499494844
      ],
      [
        "gra",
        -8.583565186206574
      ],
      [
        "Ġagora",
        -8.584094963391845
      ],
      [
        "ĠIn",
        -8.589617178864467
      ],
      [
        "Ġpresente",
        -8.590461743749938
      ],
      [
        "Ġmate",
        -8.592963643493961
      ],
      [
        "tos",
        -8.595007873020753
      ],
      [
        "men",
        -8.59753299661532
      ],
      [
        "Ġcomec",
        -8.598959505011036
      ],
      [
        "Ġdeve",
        -8.599413487434708
      ],
      [
        "Ġsob",
        -8.603512366591826
      ],
      [
        "Ġperi",
        -8.603616089645023
      ],
      [
        "nde",
        -8.610597137360745
      ],
      [
        "Ġrelac",
        -8.6116409986956
      ],
      [
        "Ġmelhor",
        -8.612910278399557
      ],
      [
        "Bloco",
        -8.618724012707563
      ],
      [
        "ita",
        -8.623006615671574
      ],
      [
        "Ġsegundo",
        -8.623160395433889
      ],
      [
        "Ġlanc",
        -8.625011727830133
      ],
      [
        "Ġmundo",
        -8.627292222754477
      ],
      [
        "Ġdizer",
        -8.63065544886966
      ],
      [
        "durante",
        -8.630691186165539
      ],
      [
        "Ġmil",
        -8.635319179655731
      ],
      [
        "Ġver",
        -8.63561926485521
      ],
      [
        "lio",
        -8.63868396725254
      ],
      [
        "ĠBa",
        -8.640122768425746
      ],
      [
        "Ġnossa",
        -8.646042186809055
      ],
      [
        "ĠJustic",
        -8.648536221849616
      ],
      [
        "_",
        -8.650304030530663
      ],
      [
        "ĠDa",
        -8.650925883924316
      ],
      [
        "RIO",
        -8.651276993519383
      ],
      [
        "gua",
        -8.65162161167436
      ],
      [
        "th",
        -8.653868621404978
      ],
      [
        "ĠMunici",
        -8.654458240843173
      ],
      [
        "per",
        -8.655632336359941
      ],
      [
        "ĠPa",
        -8.657387517988925
      ],
      [
        "enta",
        -8.662571951324347
      ],
      [
        "ando",
        -8.66557818602249
      ],
      [
        "Ġsido",
        -8.669051996573963
      ],
      [
        "dores",
        -8.669160067220853
      ],
      [
        "ĠEstados",
        -8.671562428758039
      ],
      [
        "Ġrecursos",
        -8.674140175139552
      ],
      [
        "rem",
        -8.674825198893283
      ],
      [
        "il",
        -8.678623796403933
      ],
      [
        "rga",
        -8.679410517121132
      ],
      [
        "Ġdi",
        -8.679968265722142
      ],
      [
        "orador",
        -8.681566409598345
      ],
      [
        "ĠAl",
        -8.681696763001748
      ],
      [
        "Ġdezembro",
        -8.683061482028284
      ],
      [
        "jo",
        -8.683319638588236
      ],
      [
        "nto",
        -8.690210979434399
      ],
      [
        "decisa",
        -8.692462470678205
      ],
      [
        "ĠJoa",
        -8.692678396195648
      ],
      [
        "ente",
        -8.697222007141933
      ],
      [
        "Ġpopulac",
        -8.702081212973448
      ],
      [
        "com",
        -8.702568476611676
      ],
      [
        "ĠTa",
        -8.702732346528197
      ],
      [
        "Ġpartir",
        -8.704448680033511
      ],
      [
        "culo",
        -8.704920648072225
      ],
      [
        "Ġestava",
        -8.7060912234901
      ],
      [
        "Ġantes",
        -8.706486965090617
      ],
      [
        "ste",
        -8.70712034320594
      ],
      [
        "ĠLu",
        -8.708395727316189
      ],
      [
        "tor",
        -8.70870978200934
      ],
      [
        "Ġoutro",
        -8.709419474741981
      ],
      [
        "Ġtudo",
        -8.71009805007121
      ],
      [
        "Ġcasa",
        -8.710750802711537
      ],
      [
        "=",
        -8.711196138149703
      ],
      [
        "ĠPMDB",
        -8.712392535886881
      ],
      [
        "Ġfami",
        -8.716886751093359
      ],
      [
        "ĠVi",
        -8.717066405359448
      ],
      [
        "12",
        -8.718201659959163
      ],
      [
        "tiva",
        -8.719233819047357
      ],
      [
        "ĠSo",
        -8.719780334862687
      ],
      [
        "mero",
        -8.720154259959607
      ],
      [
        "Ġfato",
        -8.720892659407978
      ],
      [
        "Ġrevisa",
        -8.722292587219835
      ],
      [
        "pu",
        -8.727137828487015
      ],
      [
        "Ġra",
        -8.728548407543773
      ],
      [
        "ing",
        -8.729661604268816
      ],
      [
        "ĠCon",
        -8.7316627962949
      ],
      [
        "Ġce",
        -8.731753224092408
      ],
      [
        "Ġmomento",
        -8.734321191537925
      ],
      [
        "ros",
        -8.73505669228968
      ],
      [
        "Ġvalor",
        -8.735192069065157
      ],
      [
        "ÌĪ",
        -8.73529529162492
      ],
      [
        "ĠVer",
        -8.73634459788613
      ],
      [
        "Ġdias",
        -8.737895225481523
      ],
      [
        "ĠGa",
        -8.738946156024266
      ],
      [
        "Ġgrupo",
        -8.742601036326603
      ],
      [
        "Ġdesde",
        -8.742719440489452
      ],
      [
        "Ġempresa",
        -8.744223918130578
      ],
      [
        "Ġgoverno",
        -8.745358936732403
      ],
      [
        "Ġeles",
        -8.748021834519584
      ],
      [
        "Ġconta",
        -8.74832612126461
      ],
      [
        "ĠFa",
        -8.750038617244767
      ],
      [
        "lar",
        -8.751485726467473
      ],
      [
        "Ġ24",
        -8.753192753386417
      ],
      [
        "ista",
        -8.755393803416615
      ],
      [
        "20",
        -8.755680082474868
      ],
      [
        "AS",
        -8.75866780293772
      ],
      [
        "cer",
        -8.767478848376742
      ],
      [
        "ha",
        -8.769160547536867
      ],
      [
        "2009",
        -8.769223980986446
      ],
      [
        "TO",
        -8.77050132927642
      ],
      [
        "Ġfinal",
        -8.771915943404473
      ],
      [
        "15",
        -8.772036323193895
      ],
      [
        "rica",
        -8.7744565437058
      ],
      [
        "OS",
        -8.77447028791438
      ],
      [
        "Ġnovo",
        -8.774790262593148
      ],
      [
        "ĠIsso",
        -8.774838413412041
      ],
      [
        "Ġmilho",
        -8.776100556626925
      ],
      [
        "nos",
        -8.780325297115953
      ],
      [
        "pre",
        -8.780947129897042
      ],
      [
        "ĠUm",
        -8.784007590302442
      ],
      [
        "ĠPre",
        -8.785298153262527
      ],
      [
        "ĠUnia",
        -8.785548426152332
      ],
      [
        "J",
        -8.785754577101887
      ],
      [
        "Ġproposta",
        -8.786606190165845
      ],
      [
        "PT",
        -8.787440023562073
      ],
      [
        "rie",
        -8.788305388131535
      ],
      [
        "Ġti",
        -8.788696215004865
      ],
      [
        "car",
        -8.79172025240765
      ],
      [
        "Ġsempre",
        -8.793706468764594
      ],
      [
        "ticas",
        -8.79497219405131
      ],
      [
        "rac",
        -8.800336794850649
      ],
      [
        "Ġpelos",
        -8.80104960029272
      ],
      [
        "Ġenta",
        -8.802534413551507
      ],
      [
        "Ġinciso",
        -8.803393648641334
      ],
      [
        "pios",
        -8.804562114256257
      ],
      [
        "Ġfaz",
        -8.806218883503881
      ],
      [
        "Ġcondic",
        -8.808136625777815
      ],
      [
        "cie",
        -8.816183950423317
      ],
      [
        "Ġduas",
        -8.816667980153357
      ],
      [
        "mar",
        -8.817095552508329
      ],
      [
        "Ġbrasileiro",
        -8.817491436337301
      ],
      [
        "ĠâĢĶ",
        -8.819275209656896
      ],
      [
        "08",
        -8.820013576766433
      ],
      [
        "ĠDi",
        -8.821446320540648
      ],
      [
        "rei",
        -8.821639535980813
      ],
      [
        "votac",
        -8.821684572411968
      ],
      [
        "Ġsu",
        -8.821810864811777
      ],
      [
        "ĠQue",
        -8.825159822784897
      ],
      [
        "Ġmenos",
        -8.825569323593509
      ],
      [
        "tri",
        -8.825676294225719
      ],
      [
        "Ġpouco",
        -8.826981882444072
      ],
      [
        "ĠEnta",
        -8.827294298172612
      ],
      [
        "ĠFoi",
        -8.829515909085723
      ],
      [
        "Ġ30",
        -8.82979028773331
      ],
      [
        "mica",
        -8.83221458675341
      ],
      [
        "Congresso",
        -8.832779696500662
      ],
      [
        "vida",
        -8.834304864250342
      ],
      [
        "lhe",
        -8.835367260835724
      ],
      [
        "Ġtinha",
        -8.841653312682189
      ],
      [
        "05",
        -8.842090181933195
      ],
      [
        "18",
        -8.844510210464007
      ],
      [
        "Ġquanto",
        -8.846482753067075
      ],
      [
        "Ġali",
        -8.846857059487695
      ],
      [
        "ĠSul",
        -8.852438808016318
      ],
      [
        "ĠPela",
        -8.852750398795
      ],
      [
        "07",
        -8.853205483991584
      ],
      [
        "Ġba",
        -8.8533046737296
      ],
      [
        "Ġale",
        -8.856631077069345
      ],
      [
        "neste",
        -8.85698617503849
      ],
      [
        "nu",
        -8.860497971076576
      ],
      [
        "ĠM",
        -8.862118244055967
      ],
      [
        "Ġnesta",
        -8.862239051080625
      ],
      [
        "ĠMar",
        -8.864618840083672
      ],
      [
        "aprovac",
        -8.864795828444386
      ],
      [
        "Ġsau",
        -8.86526864545836
      ],
      [
        "Ġfim",
        -8.866242872147362
      ],
      [
        "son",
        -8.870133752689542
      ],
      [
        "Ġmarc",
        -8.870780099681829
      ],
      [
        "TE",
        -8.872532896837969
      ],
      [
        "ĠTi",
        -8.873135133832873
      ],
      [
        "cha",
        -8.874088050084575
      ],
      [
        "Ġper",
        -8.876172396228995
      ],
      [
        "TA",
        -8.87924268688176
      ],
      [
        "dica",
        -8.882776639995928
      ],
      [
        "Ġimportante",
        -8.884595937490857
      ],
      [
        "Ġ@",
        -8.887149504756422
      ],
      [
        "tal",
        -8.889911415852115
      ],
      [
        "Ġpe",
        -8.891595720389905
      ],
      [
        "Ġbase",
        -8.891893096116995
      ],
      [
        "Ġtodas",
        -8.892076235623119
      ],
      [
        "ĠPoder",
        -8.893238880094446
      ],
      [
        "Ġof",
        -8.899987125918457
      ],
      [
        "ry",
        -8.900042676673083
      ],
      [
        "Z",
        -8.901437221848193
      ],
      [
        "ĠHo",
        -8.904630569183874
      ],
      [
        "ĠSu",
        -8.905333796271647
      ],
      [
        "ĠHe",
        -8.906524735946567
      ],
      [
        "ĠBo",
        -8.90965404354348
      ],
      [
        "Ġ2007",
        -8.90965711747296
      ],
      [
        "Ġsocial",
        -8.910164125732798
      ],
      [
        "Ġregia",
        -8.910423231257315
      ],
      [
        "Ġvezes",
        -8.911409186261642
      ],
      [
        "17",
        -8.911864005447043
      ],
      [
        "Ġcausa",
        -8.912351183999753
      ],
      [
        "ĠMu",
        -8.914838365438964
      ],
      [
        "ĠK",
        -8.915504113611144
      ],
      [
        "discussa",
        -8.917391282320159
      ],
      [
        "fer",
        -8.918082597101384
      ],
      [
        "Ġexemplo",
        -8.918461993649663
      ],
      [
        "Ġfor",
        -8.920786779053268
      ],
      [
        "âĢĵ",
        -8.9214990785565
      ],
      [
        "Ġfez",
        -8.921928605037843
      ],
      [
        "Ġcons",
        -8.924605486161568
      ],
      [
        "Ġcre",
        -8.924859671752499
      ],
      [
        "tas",
        -8.925738968658678
      ],
      [
        "Ġmaio",
        -8.928235495693231
      ],
      [
        "Ġnacional",
        -8.928544599966704
      ],
      [
        "Ġ23",
        -8.928629155939134
      ],
      [
        "par",
        -8.928644868560033
      ],
      [
        "Ġ21",
        -8.930022233372123
      ],
      [
        "Ġexternas",
        -8.930339662023492
      ],
      [
        "Ġpovo",
        -8.931062484836403
      ],
      [
        "06",
        -8.931063529838962
      ],
      [
        "Ġdiz",
        -8.931623308578361
      ],
      [
        "âĢĿ,",
        -8.931772987477318
      ],
      [
        "Ġpoder",
        -8.931789647917105
      ],
      [
        "Ġ2009",
        -8.933771791167288
      ],
      [
        "03",
        -8.935544289663662
      ],
      [
        "che",
        -8.936513070245413
      ],
      [
        "tivo",
        -8.936551406865368
      ],
      [
        "DO",
        -8.936552458950937
      ],
      [
        "ĠLuiz",
        -8.937552731892676
      ],
      [
        "Ligac",
        -8.937636544825017
      ],
      [
        "Ġnecessa",
        -8.937715659945475
      ],
      [
        "ĠExa",
        -8.938567094872383
      ],
      [
        "RA",
        -8.942061057195305
      ],
      [
        "Ġlugar",
        -8.94432630049159
      ],
      [
        "ĠBe",
        -8.945286711866403
      ],
      [
        "Ġtendo",
        -8.946467502426886
      ],
      [
        "digo",
        -8.946614770808024
      ],
      [
        "Ġpois",
        -8.947598704913469
      ],
      [
        "K",
        -8.947652611346065
      ],
      [
        "Ġquero",
        -8.948051058062477
      ],
      [
        "dito",
        -8.950805009142412
      ],
      [
        "zo",
        -8.951332509653703
      ],
      [
        "Ġmunici",
        -8.951461145923467
      ],
      [
        "Ġmedida",
        -8.952424859122608
      ],
      [
        "Ġal",
        -8.95256456297375
      ],
      [
        "16",
        -8.953901226440253
      ],
      [
        "Ġjulho",
        -8.955621397760666
      ],
      [
        "Ġrecurso",
        -8.960356968322056
      ],
      [
        "Ġsituac",
        -8.961440863594463
      ],
      [
        "ĠFi",
        -8.961819299219952
      ],
      [
        "Ġ25",
        -8.962556514654835
      ],
      [
        "rda",
        -8.964886910365047
      ],
      [
        "Ġsabe",
        -8.96586097572809
      ],
      [
        "Ġtoda",
        -8.966554788240355
      ],
      [
        "Ġespe",
        -8.97074303957965
      ],
      [
        "Ġ22",
        -8.971859245757736
      ],
      [
        "Ġalguns",
        -8.972814485138214
      ],
      [
        "Ġsentido",
        -8.972998258315359
      ],
      [
        "Ġtrata",
        -8.973159090889196
      ],
      [
        "eira",
        -8.97342297773023
      ],
      [
        "ĠSra",
        -8.973859991289979
      ],
      [
        "30",
        -8.975175707126146
      ],
      [
        "Ġsetembro",
        -8.977665531237742
      ],
      [
        "con",
        -8.978007556932987
      ],
      [
        "Ġim",
        -8.981522020243203
      ],
      [
        "it",
        -8.98200963218336
      ],
      [
        "Ì",
        -8.982839637052138
      ],
      [
        "Ġvou",
        -8.983858595072272
      ],
      [
        "ĠMi",
        -8.98413591419386
      ],
      [
        "lho",
        -8.984373147655802
      ],
      [
        "Ġ2008",
        -8.98524821630178
      ],
      [
        "Ġ:(",
        -8.986043596050164
      ],
      [
        "fico",
        -8.98631644790337
      ],
      [
        "Ġtemos",
        -8.98937450662134
      ],
      [
        "ssi",
        -8.989780359160218
      ],
      [
        "vam",
        -8.993254959084856
      ],
      [
        "Ġecono",
        -8.993546438574912
      ],
      [
        "Ġnem",
        -8.996010063027027
      ],
      [
        "Exa",
        -8.99692732533877
      ],
      [
        "tt",
        -8.997429258437474
      ],
      [
        "Â°",
        -9.0010617707418
      ],
      [
        "lin",
        -9.001974556367538
      ],
      [
        "ton",
        -9.002104231485381
      ],
      [
        "Ġpodem",
        -9.002344682114694
      ],
      [
        "Ġdata",
        -9.00246177381584
      ],
      [
        "Ġuso",
        -9.005903629527557
      ],
      [
        "Ġfavor",
        -9.006438759747502
      ],
      [
        "ER",
        -9.00790308020283
      ],
      [
        "cios",
        -9.00820472863094
      ],
      [
        "ĠSESS",
        -9.008244733481822
      ],
      [
        "Ġsociedade",
        -9.008872523095237
      ],
      [
        "Ġ28",
        -9.010343566052647
      ],
      [
        "Ġ2006",
        -9.011867235082136
      ],
      [
        "Ġcoisa",
        -9.01206437989467
      ],
      [
        "los",
        -9.013434685966558
      ],
      [
        "tua",
        -9.01373322154998
      ],
      [
        "Ġmesma",
        -9.01561569702789
      ],
      [
        "junho",
        -9.017833678717194
      ],
      [
        "Ġnova",
        -9.018312320943815
      ],
      [
        "Ġcor",
        -9.020033494437214
      ],
      [
        "Ġto",
        -9.020519475648406
      ],
      [
        "Ġseria",
        -9.020791137743132
      ],
      [
        "ĠN",
        -9.02130788669054
      ],
      [
        "Ġtipo",
        -9.0214790374044
      ],
      [
        "Ġsub",
        -9.022188136586912
      ],
      [
        "Ġdisso",
        -9.022646489610253
      ],
      [
        "Ġteve",
        -9.023956758397144
      ],
      [
        "ber",
        -9.02399315773318
      ],
      [
        "ĠPe",
        -9.024777189131584
      ],
      [
        "UTC",
        -9.025053397542685
      ],
      [
        "Ġtenho",
        -9.025455884540795
      ],
      [
        "ĠMuito",
        -9.027832757451757
      ],
      [
        "ĠGrande",
        -9.02876491384885
      ],
      [
        "grafo",
        -9.02980601106796
      ],
      [
        "ĠPi",
        -9.029896780484766
      ],
      [
        "nce",
        -9.030521060125771
      ],
      [
        "ĠEla",
        -9.030712303926032
      ],
      [
        "13",
        -9.030744600449289
      ],
      [
        "Ġnada",
        -9.031715098167876
      ],
      [
        "ĠVamos",
        -9.03205714140991
      ],
      [
        "04",
        -9.033634223492928
      ],
      [
        "ĠSanta",
        -9.03681225468492
      ],
      [
        "Ġestou",
        -9.0368914949949
      ],
      [
        "Ġimporta",
        -9.037747679440166
      ],
      [
        "Ġcargo",
        -9.03793915446287
      ],
      [
        "tulo",
        -9.039277865837384
      ],
      [
        "Ġ2011",
        -9.040091870108292
      ],
      [
        "ĠEste",
        -9.040925394614591
      ],
      [
        "Ġbrasileira",
        -9.043102635035448
      ],
      [
        "ira",
        -9.043878026154829
      ],
      [
        "ĠJ",
        -9.04532284935369
      ],
      [
        "Ġprograma",
        -9.046783592541916
      ],
      [
        "Ġdesenvolvimento",
        -9.04780913774523
      ],
      [
        "ine",
        -9.050890537240504
      ],
      [
        "ĠPro",
        -9.051086648476517
      ],
      [
        "Ġ26",
        -9.05194791102098
      ],
      [
        "ĠDecreto",
        -9.05240002260485
      ],
      [
        "DE",
        -9.055640540046126
      ],
      [
        "gar",
        -9.057709461596213
      ],
      [
        "Ġconstitucional",
        -9.059182765761031
      ],
      [
        "ĠPo",
        -9.060963665540712
      ],
      [
        "Ġrefere",
        -9.062057591477249
      ],
      [
        "000",
        -9.0620993677618
      ],
      [
        "Ġtanto",
        -9.0629417055758
      ],
      [
        "Ġdu",
        -9.063650680533526
      ],
      [
        "Ġexiste",
        -9.066720604902482
      ],
      [
        "zar",
        -9.066737596324645
      ],
      [
        "Ġini",
        -9.067227720006128
      ],
      [
        "Ġbom",
        -9.06739118747777
      ],
      [
        "tion",
        -9.067680709871176
      ],
      [
        "Ġ2010",
        -9.069408771081362
      ],
      [
        "zi",
        -9.07602476518412
      ],
      [
        "Ġoutra",
        -9.077508588956547
      ],
      [
        "ĠAr",
        -9.084296910283715
      ],
      [
        "Ġvamos",
        -9.08561576560847
      ],
      [
        "Ġpossi",
        -9.086445331980451
      ],
      [
        "MA",
        -9.086521668269535
      ],
      [
        "Ġlado",
        -9.087222794862566
      ],
      [
        "ĠJaneiro",
        -9.094415823065912
      ],
      [
        "tre",
        -9.095671641592505
      ],
      [
        "Ġpessoa",
        -9.095795423917105
      ],
      [
        "Ġagosto",
        -9.096394845598985
      ],
      [
        "Ġoutubro",
        -9.096668700925656
      ],
      [
        "W",
        -9.096692419206882
      ],
      [
        "Ġprovide",
        -9.09813394435854
      ],
      [
        "ĠSi",
        -9.09858905070246
      ],
      [
        "seguranc",
        -9.09869736779628
      ],
      [
        "Ġtexto",
        -9.101865230935658
      ],
      [
        "ĠNe",
        -9.105941160441668
      ],
      [
        "Ð",
        -9.106229293619082
      ],
      [
        "ĠBi",
        -9.108904048887736
      ],
      [
        "Ġve",
        -9.10929131680054
      ],
      [
        "Ġfeito",
        -9.109534526656873
      ],
      [
        "ment",
        -9.109570514836554
      ],
      [
        "Ġana",
        -9.109598976490052
      ],
      [
        "ĠEduardo",
        -9.110019913610602
      ],
      [
        "Ġ2005",
        -9.110034159702112
      ],
      [
        "RIA",
        -9.110504796500338
      ],
      [
        "ĠIII",
        -9.112364424208694
      ],
      [
        "ĠGo",
        -9.11320558692622
      ],
      [
        "ĠSala",
        -9.113245175031292
      ],
      [
        "ĠDia",
        -9.114347341791673
      ],
      [
        "Ġproduc",
        -9.11454965822288
      ],
      [
        "ximo",
        -9.11505719159446
      ],
      [
        "Ġquem",
        -9.117435748091706
      ],
      [
        "Ġcri",
        -9.118738149321151
      ],
      [
        "chi",
        -9.119074483482096
      ],
      [
        "ka",
        -9.121204697805185
      ],
      [
        "Ġhavia",
        -9.12193124771048
      ],
      [
        "Art",
        -9.12240932600995
      ],
      [
        "Ġvolta",
        -9.123041187173513
      ],
      [
        "nho",
        -9.125921034806062
      ],
      [
        "02",
        -9.126113796536062
      ],
      [
        "2015",
        -9.126436358990286
      ],
      [
        "cnica",
        -9.12751783078206
      ],
      [
        "Ġdessa",
        -9.128789096149015
      ],
      [
        "Ġabril",
        -9.130091265316382
      ],
      [
        "cho",
        -9.132313386433024
      ],
      [
        "Ġpresidente",
        -9.132899668302704
      ],
      [
        "Ġcara",
        -9.133483897170384
      ],
      [
        "lise",
        -9.135333249048772
      ],
      [
        "Ġempresas",
        -9.136716426939634
      ],
      [
        "Ġprincipal",
        -9.13778626862129
      ],
      [
        "ĠCA",
        -9.137960847819995
      ],
      [
        "mon",
        -9.13893731778716
      ],
      [
        "Ġjaneiro",
        -9.139137218472078
      ],
      [
        "ĠPR",
        -9.140515792112245
      ],
      [
        "Ġhabitantes",
        -9.14180710624836
      ],
      [
        "ĠPoli",
        -9.141931797875923
      ],
      [
        "Ġestado",
        -9.142363910760151
      ],
      [
        "PMDB",
        -9.142514449345246
      ],
      [
        "ral",
        -9.14350587856538
      ],
      [
        "://",
        -9.144847346033474
      ],
      [
        "ĠGe",
        -9.147897819998231
      ],
      [
        "Ġcrianc",
        -9.14799618815093
      ],
      [
        "Ġsemana",
        -9.148210586735702
      ],
      [
        "ĠPreside",
        -9.148917694554449
      ],
      [
        "Ġsei",
        -9.149875935324689
      ],
      [
        "Ġnovembro",
        -9.150523852033524
      ],
      [
        "Ġpec",
        -9.151865977315376
      ],
      [
        "DA",
        -9.15226029756914
      ],
      [
        "ĠH",
        -9.152435920801176
      ],
      [
        "ĠPARECER",
        -9.153673575338503
      ],
      [
        "Ġvei",
        -9.154028477841274
      ],
      [
        "ticos",
        -9.155537688481235
      ],
      [
        "Ġeducac",
        -9.157980016922563
      ],
      [
        "Ġsim",
        -9.164241963289872
      ],
      [
        "ĠAle",
        -9.164872351796577
      ],
      [
        "Ġforc",
        -9.164996780871922
      ],
      [
        "50",
        -9.166052895399876
      ],
      [
        "prio",
        -9.166736925778002
      ],
      [
        "Ġtenha",
        -9.167963181129991
      ],
      [
        "Ġ27",
        -9.169602940520903
      ],
      [
        "ĠJo",
        -9.169730606064231
      ],
      [
        "ĠCe",
        -9.1712222808314
      ],
      [
        "Ġexerci",
        -9.177955545771477
      ],
      [
        "Ġficar",
        -9.178064650195584
      ],
      [
        "Ġatrave",
        -9.178756843167934
      ],
      [
        "questa",
        -9.181113322399208
      ],
      [
        "Ġfalar",
        -9.181117699897907
      ],
      [
        "Ġnum",
        -9.181893968820969
      ],
      [
        "Ġ2013",
        -9.182376408337184
      ],
      [
        "Ġpodera",
        -9.188500274745454
      ],
      [
        "ĠBu",
        -9.188748178476915
      ],
      [
        "Ġjuri",
        -9.188900455283312
      ],
      [
        "ĠSau",
        -9.18973181572176
      ],
      [
        "Ġestamos",
        -9.189757185651784
      ],
      [
        "ĠKa",
        -9.190633066686887
      ],
      [
        "xi",
        -9.192135246129196
      ],
      [
        "ĠEssa",
        -9.19407152033926
      ],
      [
        "Ġestar",
        -9.19422274387147
      ],
      [
        "ĠDr",
        -9.194429376840365
      ],
      [
        "ĠAme",
        -9.195383618549162
      ],
      [
        "Ġdesse",
        -9.195843770434726
      ],
      [
        "ĠMin",
        -9.196188926859255
      ],
      [
        "gina",
        -9.196278213895438
      ],
      [
        "art",
        -9.199455365548111
      ],
      [
        "RE",
        -9.201048846697088
      ],
      [
        "ĠEmenda",
        -9.201633283181684
      ],
      [
        "ĠTo",
        -9.202815173354772
      ],
      [
        "sio",
        -9.204067681351257
      ],
      [
        "ner",
        -9.204470950391396
      ],
      [
        "Regimento",
        -9.205281530627888
      ],
      [
        "Ġfunc",
        -9.20584619955026
      ],
      [
        "Ġquatro",
        -9.209614297467995
      ],
      [
        "Ġpena",
        -9.21022569636386
      ],
      [
        "ĠFranc",
        -9.210326065393907
      ],
      [
        "LI",
        -9.2113178831444
      ],
      [
        "ĠEsse",
        -9.211783952155171
      ],
      [
        "X",
        -9.2119624183393
      ],
      [
        "ĠNO",
        -9.212554518273278
      ],
      [
        "14",
        -9.213164948721802
      ],
      [
        "Ġvista",
        -9.213567259277522
      ],
      [
        "ĠMA",
        -9.213815708458382
      ],
      [
        "Ġprova",
        -9.215030304707977
      ],
      [
        "NA",
        -9.21547096041176
      ],
      [
        "iv",
        -9.216248128160336
      ],
      [
        "Ġverdade",
        -9.217736355065025
      ],
      [
        "Ġir",
        -9.218111673069346
      ],
      [
        "Ġenquanto",
        -9.218996440405991
      ],
      [
        "Ġprec",
        -9.21988981721656
      ],
      [
        "rico",
        -9.220402985785766
      ],
      [
        "sen",
        -9.221913707690351
      ],
      [
        "Ġrespeito",
        -9.223554579037405
      ],
      [
        "Ġfo",
        -9.224403020030708
      ],
      [
        "2013",
        -9.225081084373816
      ],
      [
        "ĠAn",
        -9.22688738753722
      ],
      [
        "Ġinstituic",
        -9.227130451693204
      ],
      [
        "ĠCar",
        -9.227347402605634
      ],
      [
        "ten",
        -9.227543821802808
      ],
      [
        "ĠLo",
        -9.228389214466812
      ],
      [
        "Ġ2012",
        -9.22884937253136
      ],
      [
        "Ġobjetivo",
        -9.228855139108846
      ],
      [
        "ĠUma",
        -9.228914124677916
      ],
      [
        "Ġhora",
        -9.229892968990256
      ],
      [
        "ĠCi",
        -9.229990129589416
      ],
      [
        "mico",
        -9.23049018058937
      ],
      [
        "Ġfevereiro",
        -9.231089021609677
      ],
      [
        "IS",
        -9.231517594120389
      ],
      [
        "SP",
        -9.231546854810922
      ],
      [
        "Ġsessa",
        -9.231901566423977
      ],
      [
        "feira",
        -9.232306442746207
      ],
      [
        "Ġponto",
        -9.233265977999292
      ],
      [
        "Ġprecisa",
        -9.233388817851566
      ],
      [
        "gica",
        -9.23430505572238
      ],
      [
        "Ġdemais",
        -9.235746736529231
      ],
      [
        "Ġdentro",
        -9.237132301364648
      ],
      [
        "Ġvota",
        -9.237638056818398
      ],
      [
        "Ġ29",
        -9.23789711786402
      ],
      [
        "Ġpartido",
        -9.238355382256254
      ],
      [
        "Ġlocal",
        -9.23851290244502
      ],
      [
        "Ġsala",
        -9.238753678920782
      ],
      [
        "Ġquais",
        -9.240977367310968
      ],
      [
        "ĠBrasi",
        -9.243281920092477
      ],
      [
        "ĠMaria",
        -9.245002193507077
      ],
      [
        "Deputada",
        -9.245789984433726
      ],
      [
        "Ġhoras",
        -9.249589882497292
      ],
      [
        "Ġinteresse",
        -9.250364258853692
      ],
      [
        "Ġalgo",
        -9.250831123766847
      ],
      [
        "Ġproblema",
        -9.251949854902804
      ],
      [
        "Ġapoio",
        -9.252465694953848
      ],
      [
        "ĠInterno",
        -9.253044451561824
      ],
      [
        "tima",
        -9.255837036476782
      ],
      [
        "Ġ2004",
        -9.257206363013946
      ],
      [
        "ĠGu",
        -9.258166939803024
      ],
      [
        "ĠSupremo",
        -9.26109811008528
      ],
      [
        "mor",
        -9.26138699857806
      ],
      [
        "Ġparecer",
        -9.26139017541047
      ],
      [
        "Ġmim",
        -9.26143053174298
      ],
      [
        "ĠEducac",
        -9.265347368562558
      ],
      [
        "dico",
        -9.26570147693582
      ],
      [
        "Ġcu",
        -9.266821298719812
      ],
      [
        "DI",
        -9.26848582723339
      ],
      [
        "Ġcriac",
        -9.269725115431626
      ],
      [
        "ante",
        -9.270609923525834
      ],
      [
        "Ġtotal",
        -9.270932941256053
      ],
      [
        "Ġespecial",
        -9.27171963436789
      ],
      [
        "ran",
        -9.271944845998016
      ],
      [
        "ĠFe",
        -9.272994535312096
      ],
      [
        "2011",
        -9.273165052628215
      ],
      [
        "vis",
        -9.273410274597826
      ],
      [
        "pro",
        -9.2744132992948
      ],
      [
        "ĠUnidos",
        -9.274577045240576
      ],
      [
        "Ġ2015",
        -9.277332397646664
      ],
      [
        "Ġfalta",
        -9.278937572872875
      ],
      [
        "Ġconforme",
        -9.279660549662552
      ],
      [
        "ĠTurma",
        -9.281526789546623
      ],
      [
        "EL",
        -9.282178138701012
      ],
      [
        "Ġnunca",
        -9.283787618778064
      ],
      [
        "ĠConselho",
        -9.285320137962374
      ],
      [
        "Ġfilme",
        -9.285784196875262
      ],
      [
        "Ġacesso",
        -9.28656961756479
      ],
      [
        "Ġge",
        -9.288106154380944
      ],
      [
        "ĠNi",
        -9.288147716879314
      ],
      [
        "poca",
        -9.2895983637723
      ],
      [
        "Ġcerca",
        -9.290473920852618
      ],
      [
        "ĠQuando",
        -9.29183809615838
      ],
      [
        "logia",
        -9.293561189805976
      ],
      [
        "Ġmercado",
        -9.293996805733537
      ],
      [
        "nimo",
        -9.295630104415782
      ],
      [
        "ĠUniversidade",
        -9.295857315367368
      ],
      [
        "Ġpelas",
        -9.296076022297177
      ],
      [
        "Ġsou",
        -9.29820120788549
      ],
      [
        "Ġjogo",
        -9.29824141065145
      ],
      [
        "cil",
        -9.298973732429916
      ],
      [
        "ismo",
        -9.299940355512607
      ],
      [
        "Ġrelato",
        -9.3005449444259
      ],
      [
        "98",
        -9.30120891503128
      ],
      [
        "ke",
        -9.30388800069318
      ],
      [
        "Ġobrigado",
        -9.303961325387483
      ],
      [
        "Ġcinco",
        -9.30508780787624
      ],
      [
        "rcio",
        -9.305132877591726
      ],
      [
        "97",
        -9.307149903754052
      ],
      [
        "RI",
        -9.307319109413775
      ],
      [
        "ĠSilva",
        -9.307801489249249
      ],
      [
        "Ġ0",
        -9.309863411421269
      ],
      [
        "Ġequipe",
        -9.310863301361747
      ],
      [
        "remos",
        -9.311048554504673
      ],
      [
        "ĠPlena",
        -9.31135743881708
      ],
      [
        "Ġga",
        -9.31166621273143
      ],
      [
        "Ġprinci",
        -9.312398571733905
      ],
      [
        "Ġdireitos",
        -9.314744512834851
      ],
      [
        "ĠPedro",
        -9.31731530533296
      ],
      [
        "Ġfora",
        -9.31762778958731
      ],
      [
        "Ġregimental",
        -9.31969564275402
      ],
      [
        "cula",
        -9.321806848418836
      ],
      [
        "for",
        -9.322025801601663
      ],
      [
        "Ġdefesa",
        -9.322354281777091
      ],
      [
        "bar",
        -9.323235120271113
      ],
      [
        "idades",
        -9.32432015967782
      ],
      [
        "Ġsegunda",
        -9.325089627795869
      ],
      [
        "âĢĻ",
        -9.325240011270704
      ],
      [
        "Ġcrime",
        -9.3262373517948
      ],
      [
        "ĠOliveira",
        -9.327950565616018
      ],
      [
        "Ġpedido",
        -9.329474085274498
      ],
      [
        "Y",
        -9.32957728576996
      ],
      [
        "ĠTem",
        -9.330433691837175
      ],
      [
        "Ġ2003",
        -9.330663009414822
      ],
      [
        "Ġluta",
        -9.33114494211638
      ],
      [
        "ju",
        -9.332681511280548
      ],
      [
        "Ġthe",
        -9.333054229360874
      ],
      [
        "Ġkm",
        -9.333230529971589
      ],
      [
        "tura",
        -9.336074795673818
      ],
      [
        "Ġrealizada",
        -9.337031620217848
      ],
      [
        "LA",
        -9.337655799137243
      ],
      [
        "ĠTotal",
        -9.338166030857469
      ],
      [
        "AL",
        -9.338403567394202
      ],
      [
        "Ġpesquisa",
        -9.33846087264651
      ],
      [
        "por",
        -9.339113497485297
      ],
      [
        "Ġextraordina",
        -9.339754801078715
      ],
      [
        "para",
        -9.340562766808464
      ],
      [
        "devido",
        -9.340596383817958
      ],
      [
        "cada",
        -9.341557212786675
      ],
      [
        "Ġpassa",
        -9.341638517669937
      ],
      [
        "Ġmorte",
        -9.342244938059125
      ],
      [
        "Ġedic",
        -9.342815575950684
      ],
      [
        "96",
        -9.344479239659664
      ],
      [
        "gen",
        -9.345117083782316
      ],
      [
        "len",
        -9.347219884236525
      ],
      [
        "Ġfazendo",
        -9.348206965162968
      ],
      [
        "Ġvem",
        -9.349660408284914
      ],
      [
        "Ġobjeto",
        -9.35307434157851
      ],
      [
        "Ġraza",
        -9.356003638328335
      ],
      [
        "Ġcontrato",
        -9.356004547040786
      ],
      [
        "ĠPP",
        -9.356538789188525
      ],
      [
        "istas",
        -9.358559120014474
      ],
      [
        "ĠZ",
        -9.358729663211394
      ],
      [
        "Ġfeita",
        -9.359380510344677
      ],
      [
        "25",
        -9.360933110046036
      ],
      [
        "Ġdispo",
        -9.362938756310127
      ],
      [
        "Ġ2014",
        -9.36334156373996
      ],
      [
        "Ġfe",
        -9.363983439302634
      ],
      [
        "Ġmeses",
        -9.366111273420712
      ],
      [
        "Executivo",
        -9.36670501895855
      ],
      [
        "Ġposic",
        -9.36735135568948
      ],
      [
        "Ġorigem",
        -9.368073564133072
      ],
      [
        "CE",
        -9.369069230535152
      ],
      [
        "pria",
        -9.369151614659442
      ],
      [
        "ĠEx",
        -9.370366749684662
      ],
      [
        "ĠSocial",
        -9.370671846261072
      ],
      [
        "qua",
        -9.37240544940517
      ],
      [
        "Ġtema",
        -9.374162814640378
      ],
      [
        "blicos",
        -9.37455575497918
      ],
      [
        "ĠThe",
        -9.374768169461223
      ],
      [
        "Ġgeral",
        -9.374810169163206
      ],
      [
        "Ġemenda",
        -9.377714791423555
      ],
      [
        "reas",
        -9.37880051207101
      ],
      [
        "ĠSegundo",
        -9.381201690037567
      ],
      [
        "ĠVa",
        -9.381713624437024
      ],
      [
        "Ġdados",
        -9.383868702704428
      ],
      [
        "ĠComunicac",
        -9.383971533792645
      ],
      [
        "Ġterra",
        -9.384049585346066
      ],
      [
        "ĠFilho",
        -9.385517611319992
      ],
      [
        "ĠAgora",
        -9.386342226561489
      ],
      [
        "Ġ2016",
        -9.386747396268705
      ],
      [
        "Ġinclusive",
        -9.38736197613215
      ],
      [
        "NCIA",
        -9.387839439721446
      ],
      [
        "Ġocorre",
        -9.387872242858675
      ],
      [
        "PTB",
        -9.388161204572675
      ],
      [
        "eleic",
        -9.388511195518165
      ],
      [
        "Ġfac",
        -9.388564417037584
      ],
      [
        "vio",
        -9.391483421734405
      ],
      [
        "Ġpossui",
        -9.393546179881785
      ],
      [
        "40",
        -9.393753681283568
      ],
      [
        "tes",
        -9.394036378279164
      ],
      [
        "ser",
        -9.39449459548113
      ],
      [
        "ff",
        -9.396723223819714
      ],
      [
        "Ġfosse",
        -9.39690380469488
      ],
      [
        "Ġatividades",
        -9.397820979561354
      ],
      [
        "SE",
        -9.399076431583955
      ],
      [
        "radiodifusa",
        -9.399507930662264
      ],
      [
        "culos",
        -9.399683872481106
      ],
      [
        "ĠRu",
        -9.400584270591247
      ],
      [
        "Ġesses",
        -9.401308781390425
      ],
      [
        "Ġpagamento",
        -9.402958077248332
      ],
      [
        "Ġquase",
        -9.40378292555044
      ],
      [
        "Ġlegal",
        -9.40422655736212
      ],
      [
        "Ġbo",
        -9.404464332978591
      ],
      [
        "Ġci",
        -9.405351224899537
      ],
      [
        "Ġqualidade",
        -9.405562404334017
      ],
      [
        "Ġalgumas",
        -9.406678434779929
      ],
      [
        "ĠRE",
        -9.408924750524085
      ],
      [
        "ense",
        -9.409011269875675
      ],
      [
        "Ġproduto",
        -9.409138247995411
      ],
      [
        "Ġpoderia",
        -9.40937153294305
      ],
      [
        "Ġpossa",
        -9.409678299977658
      ],
      [
        "ard",
        -9.411311224890332
      ],
      [
        "Ġfala",
        -9.411454711400944
      ],
      [
        "Ġgra",
        -9.411713790355034
      ],
      [
        "ĠDeus",
        -9.41230137072832
      ],
      [
        "Ġnecessidade",
        -9.413162126419188
      ],
      [
        "28",
        -9.4136183985652
      ],
      [
        "AC",
        -9.414294069200482
      ],
      [
        "Ġfica",
        -9.414654101637783
      ],
      [
        "Ġfilho",
        -9.414722847533923
      ],
      [
        "mer",
        -9.415183489086068
      ],
      [
        "ĠL",
        -9.420595651214798
      ],
      [
        "Ġminutos",
        -9.42202720582756
      ],
      [
        "ĠApo",
        -9.423555588218338
      ],
      [
        "Ġparticipac",
        -9.425995301530024
      ],
      [
        "ĠCie",
        -9.429249470086804
      ],
      [
        "Ġmaioria",
        -9.429582733417648
      ],
      [
        "Ġdar",
        -9.429684742458766
      ],
      [
        "RO",
        -9.42981192744053
      ],
      [
        "Ġdis",
        -9.43201646955742
      ],
      [
        "Ġ(\"",
        -9.43275441952676
      ],
      [
        "Ġresponsa",
        -9.433570705458193
      ],
      [
        "Ġlinha",
        -9.43386787440649
      ],
      [
        "Ġfunciona",
        -9.434433562695174
      ],
      [
        "2000",
        -9.436828572201293
      ],
      [
        ".âĢĿ",
        -9.437422860548086
      ],
      [
        "Ġnota",
        -9.438851806147785
      ],
      [
        "Ġpublicac",
        -9.440020714668748
      ],
      [
        "ndi",
        -9.440336159799577
      ],
      [
        "Ġdinheiro",
        -9.440468416781613
      ],
      [
        "Ġcerto",
        -9.44171675432238
      ],
      [
        "Ġ31",
        -9.44177028616751
      ],
      [
        "stica",
        -9.441970165151442
      ],
      [
        "The",
        -9.44224268450826
      ],
      [
        "Ġconhecido",
        -9.442786364420307
      ],
      [
        "Ġmodo",
        -9.442835067448083
      ],
      [
        "gia",
        -9.442963240502326
      ],
      [
        "Ġirma",
        -9.44328011270763
      ],
      [
        "PE",
        -9.44576700356222
      ],
      [
        "Ġne",
        -9.446465585180684
      ],
      [
        "US",
        -9.446852070667722
      ],
      [
        "and",
        -9.447010497781058
      ],
      [
        "2008",
        -9.44794229093179
      ],
      [
        "Ġboa",
        -9.449047454101253
      ],
      [
        "lbum",
        -9.449330146627382
      ],
      [
        "Ġmal",
        -9.450606597587166
      ],
      [
        "Ġ50",
        -9.450704449581467
      ],
      [
        "Ġrequerimento",
        -9.450909791906586
      ],
      [
        "les",
        -9.45137480284412
      ],
      [
        ");",
        -9.452011417620678
      ],
      [
        "AR",
        -9.453630439421946
      ],
      [
        "bilidade",
        -9.454849008916602
      ],
      [
        "ĠSua",
        -9.455143680084994
      ],
      [
        "\")",
        -9.455575066253145
      ],
      [
        "ltimo",
        -9.45607201916041
      ],
      [
        "Ġnesse",
        -9.456166801922324
      ],
      [
        "Ġaumento",
        -9.456319923080784
      ],
      [
        "TI",
        -9.457683203007656
      ],
      [
        "timo",
        -9.460419708997245
      ],
      [
        "https",
        -9.460470490565216
      ],
      [
        "Ġensino",
        -9.460996923400614
      ],
      [
        "ĠGra",
        -9.462089680422029
      ],
      [
        "88",
        -9.464170537220488
      ],
      [
        "Ġnuma",
        -9.465090461160536
      ],
      [
        "agravo",
        -9.465589013190836
      ],
      [
        "ĠEM",
        -9.465944858247648
      ],
      [
        "her",
        -9.466302046746774
      ],
      [
        "Ġreforma",
        -9.468330427984792
      ],
      [
        "Ġnorte",
        -9.469032416191704
      ],
      [
        "Ġformula",
        -9.469487874153367
      ],
      [
        "ncio",
        -9.47009844033793
      ],
      [
        "bio",
        -9.470602032946596
      ],
      [
        "ĠPrograma",
        -9.470708405211075
      ],
      [
        "2007",
        -9.470802688288977
      ],
      [
        "ĠHi",
        -9.471585006441972
      ],
      [
        "nas",
        -9.472032556709063
      ],
      [
        "Ġjunto",
        -9.472615111536008
      ],
      [
        "Ġredac",
        -9.472949435921144
      ],
      [
        "ĠParecer",
        -9.473551628456418
      ],
      [
        "ĠNova",
        -9.47364333043645
      ],
      [
        "Ġcampo",
        -9.47370072389905
      ],
      [
        "Ġmuitas",
        -9.474133251945036
      ],
      [
        "Ġeram",
        -9.47430497263162
      ],
      [
        "Ġtal",
        -9.474387934686051
      ],
      [
        "Ġlhe",
        -9.474914547725428
      ],
      [
        "Ġgrandes",
        -9.475982050621411
      ],
      [
        "ĠCha",
        -9.476377003630246
      ],
      [
        "ĠAssim",
        -9.476555998307592
      ],
      [
        "Ġnoite",
        -9.477035505666914
      ],
      [
        "ltima",
        -9.480058878189574
      ],
      [
        "registro",
        -9.480438300818836
      ],
      [
        "gio",
        -9.48099479794222
      ],
      [
        "ĠLula",
        -9.481185227130783
      ],
      [
        "sia",
        -9.482226230931538
      ],
      [
        "Ġatual",
        -9.482813453006417
      ],
      [
        "ĠHisto",
        -9.483621121055451
      ],
      [
        "ĠAssociac",
        -9.48440599375905
      ],
      [
        "Ġingle",
        -9.485034333917303
      ],
      [
        "Ġlegislac",
        -9.485082483104591
      ],
      [
        "ura",
        -9.485673113288884
      ],
      [
        "Ġconstruc",
        -9.486143171483269
      ],
      [
        "Ġinter",
        -9.487145909483498
      ],
      [
        "inha",
        -9.487438969742811
      ],
      [
        "Ġdeixa",
        -9.487636225738672
      ],
      [
        "somente",
        -9.487848733434822
      ],
      [
        "Ġoperac",
        -9.4883618969462
      ],
      [
        "Ġcompete",
        -9.48838617822075
      ],
      [
        "Ġsuperior",
        -9.489133520548302
      ],
      [
        "22",
        -9.48974955140886
      ],
      [
        "ĠLegislativo",
        -9.490869822589204
      ],
      [
        "bel",
        -9.490879247059029
      ],
      [
        "entanto",
        -9.49096460729074
      ],
      [
        "Ġdeixar",
        -9.491791168262225
      ],
      [
        "Ġhomem",
        -9.492910407620409
      ],
      [
        "Ġregime",
        -9.493034486353384
      ],
      [
        "ĠLocal",
        -9.49382082542934
      ],
      [
        "ĠCor",
        -9.494353803527405
      ],
      [
        "Ġessas",
        -9.494599751126009
      ],
      [
        "ĠY",
        -9.495866673724864
      ],
      [
        "ĠPer",
        -9.495929267247368
      ],
      [
        "Ġoficial",
        -9.499747046080625
      ],
      [
        "ĠSt",
        -9.501134974071926
      ],
      [
        "2010",
        -9.501698005312946
      ],
      [
        "ler",
        -9.503098532728332
      ],
      [
        "Ġcontrole",
        -9.503290050355714
      ],
      [
        "Ġtarde",
        -9.503825347737717
      ],
      [
        "27",
        -9.505089287774858
      ],
      [
        "ĠDEM",
        -9.50536843595346
      ],
      [
        "ĠFernando",
        -9.505609615638283
      ],
      [
        "Ġlongo",
        -9.505917239007577
      ],
      [
        "ĠSP",
        -9.506107166337014
      ],
      [
        "Ġsetor",
        -9.507063388961576
      ],
      [
        "amos",
        -9.508168783303518
      ],
      [
        "Ġencontra",
        -9.509744266851246
      ],
      [
        "ĠBar",
        -9.509826850257094
      ],
      [
        "Ġand",
        -9.513159966071692
      ],
      [
        "Ġautor",
        -9.513177263585243
      ],
      [
        "Ġ100",
        -9.51406735169936
      ],
      [
        "NO",
        -9.515002438046388
      ],
      [
        "29",
        -9.51505164156048
      ],
      [
        "land",
        -9.515522965385236
      ],
      [
        "Ġmembro",
        -9.515583732096015
      ],
      [
        "Ġbrasileiros",
        -9.51583310150892
      ],
      [
        "Ġrealizac",
        -9.516458895177353
      ],
      [
        "ĠPA",
        -9.51743186915811
      ],
      [
        "Ġmuitos",
        -9.518952141877874
      ],
      [
        "BA",
        -9.519775532018308
      ],
      [
        "ĠTrabalho",
        -9.520118070388008
      ],
      [
        "ly",
        -9.520884911517058
      ],
      [
        "altera",
        -9.521000017880858
      ],
      [
        "ĠRi",
        -9.5216232654525
      ],
      [
        "Ġorc",
        -9.52164334160369
      ],
      [
        "80",
        -9.521711751194974
      ],
      [
        "ide",
        -9.52182815574462
      ],
      [
        "ĠRoberto",
        -9.521951881840206
      ],
      [
        "Ġdez",
        -9.522883505965527
      ],
      [
        "ĠX",
        -9.522914278977115
      ],
      [
        "Ġjulgamento",
        -9.524484305973983
      ],
      [
        "las",
        -9.524883374598437
      ],
      [
        "Ġsaber",
        -9.525438561205096
      ],
      [
        "bal",
        -9.528078072181222
      ],
      [
        "Ġpar",
        -9.528342780068186
      ],
      [
        "Ġpreciso",
        -9.528887747087118
      ],
      [
        "Ġmembros",
        -9.530272744953054
      ],
      [
        "Ġsai",
        -9.531382217037825
      ],
      [
        "ngua",
        -9.532420182234898
      ],
      [
        "IN",
        -9.533340759516976
      ],
      [
        "ĠMaia",
        -9.533600374531495
      ],
      [
        "Ġespac",
        -9.533953291493075
      ],
      [
        "Ġpresenc",
        -9.534552390175064
      ],
      [
        "45",
        -9.53507950950615
      ],
      [
        "passou",
        -9.536113644617666
      ],
      [
        "Ġdele",
        -9.5402978820265
      ],
      [
        "ĠBem",
        -9.542804373078862
      ],
      [
        "CI",
        -9.54457608441491
      ],
      [
        "Ġcorpo",
        -9.544685530865417
      ],
      [
        "eiro",
        -9.54552667284559
      ],
      [
        "ĠTra",
        -9.546136271055916
      ],
      [
        "Ġobras",
        -9.546592098721211
      ],
      [
        "ĠFo",
        -9.549017823663002
      ],
      [
        "36",
        -9.54932414916806
      ],
      [
        "99",
        -9.550689681907023
      ],
      [
        "46",
        -9.551383097456544
      ],
      [
        "mula",
        -9.552685232887834
      ],
      [
        "Ġenergia",
        -9.552843185532256
      ],
      [
        "Ġauto",
        -9.55298844200531
      ],
      [
        "01",
        -9.553737691946155
      ],
      [
        "ĠMan",
        -9.554433900482396
      ],
      [
        "ĠPortugal",
        -9.55443768587735
      ],
      [
        "Ġbenefi",
        -9.555094909593077
      ],
      [
        "cas",
        -9.55638397764701
      ],
      [
        "val",
        -9.556487219102085
      ],
      [
        "Ġ2017",
        -9.557425920167043
      ],
      [
        "35",
        -9.557650294376163
      ],
      [
        "Ġmulheres",
        -9.558420141910986
      ],
      [
        "tido",
        -9.559122480728757
      ],
      [
        "Ġacho",
        -9.559811224051504
      ],
      [
        "ĠPSB",
        -9.560103931193728
      ],
      [
        "sar",
        -9.560865980241296
      ],
      [
        "Ġgente",
        -9.561372735633984
      ],
      [
        "den",
        -9.562298499704015
      ],
      [
        "ndia",
        -9.562737414102331
      ],
      [
        "Ġajuda",
        -9.563190321957933
      ],
      [
        "ida",
        -9.563822697168504
      ],
      [
        "Ġmaneira",
        -9.564215297458531
      ],
      [
        "PR",
        -9.565198359656485
      ],
      [
        "lica",
        -9.566033096071392
      ],
      [
        "Ġeconomia",
        -9.566209861372622
      ],
      [
        "Ġassunto",
        -9.56637379502298
      ],
      [
        "SA",
        -9.570368127666454
      ],
      [
        "ĠMinas",
        -9.571118028062353
      ],
      [
        "mas",
        -9.572152548550472
      ],
      [
        "amenta",
        -9.572348861647953
      ],
      [
        "Ġdebate",
        -9.572768139678784
      ],
      [
        "Í",
        -9.572946576018776
      ],
      [
        "ĠMesa",
        -9.572967457938988
      ],
      [
        "Ġreuni",
        -9.57300555677385
      ],
      [
        "Ġfrente",
        -9.57342638779646
      ],
      [
        "ĠPode",
        -9.573691095386486
      ],
      [
        "ON",
        -9.575203836970742
      ],
      [
        "Ġprincipalmente",
        -9.57593712916326
      ],
      [
        "90",
        -9.576008647468026
      ],
      [
        "gico",
        -9.57630548015672
      ],
      [
        "stria",
        -9.57655395007403
      ],
      [
        "Ġestrutura",
        -9.577095585295796
      ],
      [
        "inho",
        -9.57820420442668
      ],
      [
        "legislativa",
        -9.578347988882376
      ],
      [
        "Ġchamado",
        -9.57891376697427
      ],
      [
        "ĠEstou",
        -9.579605798086815
      ],
      [
        "Ġconjunto",
        -9.579952255692854
      ],
      [
        "Ġindi",
        -9.58227491225036
      ],
      [
        "ĠDesenvolvimento",
        -9.582664288930385
      ],
      [
        "ÌĤ?",
        -9.583379639710731
      ],
      [
        "OR",
        -9.583539167315571
      ],
      [
        "Ġpapel",
        -9.583860534841874
      ],
      [
        "Ġforte",
        -9.585769593321531
      ],
      [
        "Ġparece",
        -9.586272303246934
      ],
      [
        "Ġproblemas",
        -9.58638699257176
      ],
      [
        "ĠAnto",
        -9.586514950217133
      ],
      [
        "ki",
        -9.58674762600589
      ],
      [
        "ĠFrancisco",
        -9.586981615077882
      ],
      [
        "ger",
        -9.587322745710592
      ],
      [
        "ĠNorte",
        -9.588130517655872
      ],
      [
        "IM",
        -9.592018741474762
      ],
      [
        "2012",
        -9.594452615413443
      ],
      [
        "ĠPartido",
        -9.594810855557377
      ],
      [
        "Ġobra",
        -9.595455530327182
      ],
      [
        "reais",
        -9.596511939047812
      ],
      [
        "):",
        -9.59651917483402
      ],
      [
        "blicas",
        -9.599406169766828
      ],
      [
        "Ġhouve",
        -9.599723182159943
      ],
      [
        "56",
        -9.600436050362427
      ],
      [
        "ional",
        -9.60054178510898
      ],
      [
        "Ġaplicac",
        -9.60065372990628
      ],
      [
        "Ġcoisas",
        -9.60079557243138
      ],
      [
        "Ġbusca",
        -9.600975419959116
      ],
      [
        "Ġatividade",
        -9.601426724238566
      ],
      [
        "ĠAna",
        -9.601667171291895
      ],
      [
        "devera",
        -9.603227051005836
      ],
      [
        "ĠIta",
        -9.603857628421324
      ],
      [
        "ĠIV",
        -9.604053894847183
      ],
      [
        "2016",
        -9.60457902397825
      ],
      [
        "cial",
        -9.6046404144022
      ],
      [
        "26",
        -9.604919900415307
      ],
      [
        "concessa",
        -9.605246860541556
      ],
      [
        "Ġcapital",
        -9.605897401254309
      ],
      [
        "Ġ2000",
        -9.60620598390625
      ],
      [
        "Ġbanda",
        -9.606519258020636
      ],
      [
        "ĠDJ",
        -9.606521503318268
      ],
      [
        "60",
        -9.608799216303828
      ],
      [
        "ĠEn",
        -9.609089149357269
      ],
      [
        "Ġaprovado",
        -9.609168061991069
      ],
      [
        "Ġ2019",
        -9.609948067686396
      ],
      [
        "Ġmovimento",
        -9.610264075416138
      ],
      [
        "gem",
        -9.610315192529638
      ],
      [
        "Ġconhecimento",
        -9.610377019465767
      ],
      [
        "rus",
        -9.610791425064296
      ],
      [
        "ĠVI",
        -9.613058650838225
      ],
      [
        "Ġprofessor",
        -9.613202367581405
      ],
      [
        "Ġposso",
        -9.613610827769214
      ],
      [
        "Ġ:)",
        -9.61381791776242
      ],
      [
        "ĠSE",
        -9.615869517790966
      ],
      [
        "Ġefeito",
        -9.61643845241752
      ],
      [
        "Ġni",
        -9.617518662520864
      ],
      [
        "gado",
        -9.61804232187044
      ],
      [
        "Ġconstante",
        -9.61820754728473
      ],
      [
        "cional",
        -9.618233050848866
      ],
      [
        "Ġpequeno",
        -9.619306234223188
      ],
      [
        "Ġembora",
        -9.619827201738785
      ],
      [
        "ĠMarco",
        -9.619897463588568
      ],
      [
        "Ġvia",
        -9.620689540639484
      ],
      [
        "Ġsenhor",
        -9.621467628817728
      ],
      [
        "MI",
        -9.62172062536524
      ],
      [
        "37",
        -9.62219991488188
      ],
      [
        "ras",
        -9.622560171352916
      ],
      [
        "ĠSan",
        -9.623343189998833
      ],
      [
        "ĠCOM",
        -9.623799159476407
      ],
      [
        "Ġoportunidade",
        -9.624463847521533
      ],
      [
        "responsabilidade",
        -9.624500529634076
      ],
      [
        "agem",
        -9.625320248535612
      ],
      [
        "Ġcusto",
        -9.626106474982818
      ],
      [
        "Ġaquele",
        -9.626261638221536
      ],
      [
        "Ġorganizac",
        -9.626398174991516
      ],
      [
        "IC",
        -9.626713551450296
      ],
      [
        "Ġalguma",
        -9.6269506326509
      ],
      [
        "ador",
        -9.62710396402182
      ],
      [
        "Ġdeveria",
        -9.627138636490612
      ],
      [
        "ã",
        -9.627332999775236
      ],
      [
        "Ġpassado",
        -9.628038053087575
      ],
      [
        "ĠTu",
        -9.630233000580487
      ],
      [
        "Ġalgum",
        -9.630930528041848
      ],
      [
        "COMISSA",
        -9.631210506485376
      ],
      [
        "cal",
        -9.631469182502515
      ],
      [
        "Ġinclui",
        -9.63325814296203
      ],
      [
        "portanto",
        -9.633883973877486
      ],
      [
        "Ġ2020",
        -9.6343884175317
      ],
      [
        "Ġlivro",
        -9.634730625190189
      ],
      [
        "ĠAntonio",
        -9.636717469810254
      ],
      [
        "bert",
        -9.637219887865482
      ],
      [
        "ĠAc",
        -9.637539936489846
      ],
      [
        "ĠSecreta",
        -9.637833151109476
      ],
      [
        "Ġeletro",
        -9.638234360842285
      ],
      [
        "xima",
        -9.638346905488753
      ],
      [
        "Distrito",
        -9.638739161527576
      ],
      [
        "Q",
        -9.63936437785784
      ],
      [
        "Ġaco",
        -9.63967402234286
      ],
      [
        "NI",
        -9.639971019146923
      ],
      [
        "48",
        -9.641326104335182
      ],
      [
        "net",
        -9.64148258972303
      ],
      [
        "cola",
        -9.641770450910856
      ],
      [
        "nea",
        -9.642510926851266
      ],
      [
        "RECURSO",
        -9.64361044429512
      ],
      [
        "Ġ2002",
        -9.643877809451132
      ],
      [
        "Defesa",
        -9.645095498967883
      ],
      [
        "ĠServic",
        -9.64532415508117
      ],
      [
        "Ġcla",
        -9.646112188115842
      ],
      [
        "ĠCivil",
        -9.646593787393794
      ],
      [
        "21",
        -9.647424924184117
      ],
      [
        "disposto",
        -9.6477253089096
      ],
      [
        "2014",
        -9.647897501806138
      ],
      [
        "zado",
        -9.648403021093722
      ],
      [
        "Ġmulher",
        -9.649343120768876
      ],
      [
        "ĠDu",
        -9.649465224053332
      ],
      [
        "38",
        -9.649678084805384
      ],
      [
        "Ġcar",
        -9.64991956542752
      ],
      [
        "nel",
        -9.650664345047668
      ],
      [
        "Ġentra",
        -9.6511364695197
      ],
      [
        "55",
        -9.652192688672166
      ],
      [
        "aram",
        -9.653327720480698
      ],
      [
        "fl",
        -9.657482155810191
      ],
      [
        "bol",
        -9.657927501161804
      ],
      [
        "dita",
        -9.658084642446855
      ],
      [
        "sociais",
        -9.658730674486955
      ],
      [
        "ĠVice",
        -9.658851619851598
      ],
      [
        "Ġexecuc",
        -9.65905576910261
      ],
      [
        "ĠEMENDA",
        -9.65976670040526
      ],
      [
        "Ġ1990",
        -9.65981807328077
      ],
      [
        "Ġfra",
        -9.660152314170093
      ],
      [
        "Ġpessoal",
        -9.661949108750155
      ],
      [
        "Ġcomunidade",
        -9.66390841335496
      ],
      [
        "Ġcomunicac",
        -9.664075437104266
      ],
      [
        "ĠPar",
        -9.664112012166854
      ],
      [
        "Ġmodelo",
        -9.66453291211597
      ],
      [
        "ĠTecnologia",
        -9.666228505739229
      ],
      [
        "Ġnego",
        -9.667081736817204
      ],
      [
        "izac",
        -9.667909258785851
      ],
      [
        "stico",
        -9.668498503995636
      ],
      [
        "ĠPDT",
        -9.670640359086043
      ],
      [
        "FI",
        -9.670905755197124
      ],
      [
        "Ġmudanc",
        -9.671253565723616
      ],
      [
        "PA",
        -9.671410224476652
      ],
      [
        "risco",
        -9.671579105741094
      ],
      [
        "ĠRosa",
        -9.671597986781514
      ],
      [
        "lida",
        -9.672560901530163
      ],
      [
        "Ġ40",
        -9.674384178717109
      ],
      [
        "Ġavanc",
        -9.675389026472947
      ],
      [
        "ĠFu",
        -9.67783833492866
      ],
      [
        "nessa",
        -9.677840490127734
      ],
      [
        "ĠPrimeira",
        -9.678402231055683
      ],
      [
        "Ġalcanc",
        -9.678746472960382
      ],
      [
        "Ġsuper",
        -9.679653673678612
      ],
      [
        "57",
        -9.680632492634524
      ],
      [
        "Ġiniciativa",
        -9.681298378634912
      ],
      [
        "Ġnenhum",
        -9.681549267443664
      ],
      [
        "q",
        -9.681640517975886
      ],
      [
        "Ġalta",
        -9.683428521014182
      ],
      [
        "lt",
        -9.683431381066082
      ],
      [
        "sim",
        -9.684403271372927
      ],
      [
        "possibilidade",
        -9.684490538487768
      ],
      [
        "ĠBrasileiro",
        -9.684714144894532
      ],
      [
        "ĠExcele",
        -9.685358823932743
      ],
      [
        "34",
        -9.685475498635572
      ],
      [
        "Ġescola",
        -9.68556942999121
      ],
      [
        "Ġquer",
        -9.68642547031935
      ],
      [
        "Ġho",
        -9.687198852107011
      ],
      [
        "Campeonato",
        -9.6872532941819
      ],
      [
        "ĠCorte",
        -9.687737716945964
      ],
      [
        "dic",
        -9.68853695698738
      ],
      [
        "Ġlista",
        -9.69037055428407
      ],
      [
        "Ġficou",
        -9.690446204637649
      ],
      [
        "Ġfinanceira",
        -9.690576992840272
      ],
      [
        "Ġespeci",
        -9.690872066574302
      ],
      [
        "44",
        -9.691350942002094
      ],
      [
        "ĠREQUERIMENTO",
        -9.692097240603582
      ],
      [
        "LO",
        -9.692207046852031
      ],
      [
        "Ġprojetos",
        -9.692832940750908
      ],
      [
        "prevista",
        -9.692898491380271
      ],
      [
        "Ġpropo",
        -9.692977408734414
      ],
      [
        "Ġcanc",
        -9.694402815032443
      ],
      [
        "Ġcarreira",
        -9.696723653557546
      ],
      [
        "ĠObrigado",
        -9.696752352043267
      ],
      [
        "Ġreal",
        -9.698637910996936
      ],
      [
        "sticas",
        -9.699117242146665
      ],
      [
        "ĠInstituto",
        -9.699347142593515
      ],
      [
        "Ġexpressa",
        -9.701910026933197
      ],
      [
        "DEM",
        -9.70196513368727
      ],
      [
        "Ġ2001",
        -9.702283502162492
      ],
      [
        "dios",
        -9.702404950713492
      ],
      [
        "ley",
        -9.702493318234422
      ],
      [
        "Ġsucesso",
        -9.702800731642236
      ],
      [
        "sico",
        -9.704152260594292
      ],
      [
        "mbito",
        -9.704322930932106
      ],
      [
        "Ġalgue",
        -9.70505486358834
      ],
      [
        "Ġtemporada",
        -9.70520011797982
      ],
      [
        "Ġanterior",
        -9.706736291043413
      ],
      [
        "Ġtrans",
        -9.707166342535816
      ],
      [
        "Ġres",
        -9.707401047375251
      ],
      [
        "discurso",
        -9.708366211337536
      ],
      [
        "Ġbilho",
        -9.70898466500173
      ],
      [
        "Ġterrito",
        -9.709712638968238
      ],
      [
        "Ġtornou",
        -9.711877124195492
      ],
      [
        "ĠCosta",
        -9.712186772658775
      ],
      [
        "ĠNA",
        -9.71328315379712
      ],
      [
        "sito",
        -9.713463795091156
      ],
      [
        "Ġvigor",
        -9.71375313898844
      ],
      [
        "podemos",
        -9.714102286263705
      ],
      [
        "Ġnobre",
        -9.714380879373966
      ],
      [
        "Ġfu",
        -9.715166851341465
      ],
      [
        "sejam",
        -9.715539688401565
      ],
      [
        "Ġrei",
        -9.716896425744796
      ],
      [
        "Ġproposic",
        -9.71702854004427
      ],
      [
        "Ġclube",
        -9.717403582791697
      ],
      [
        "Ġmandato",
        -9.717808500917869
      ],
      [
        "Ġchega",
        -9.717835002156155
      ],
      [
        "ĠCunha",
        -9.71800763084994
      ],
      [
        "Ġpauta",
        -9.7182036723778
      ],
      [
        "Ġteria",
        -9.71831477140888
      ],
      [
        "Ġcampanha",
        -9.718841777947098
      ],
      [
        "MENTO",
        -9.720670357883744
      ],
      [
        "ĠRequerimento",
        -9.720777277926697
      ],
      [
        "Ġdirec",
        -9.721030117721302
      ],
      [
        "Ġrepresenta",
        -9.721056824609882
      ],
      [
        "49",
        -9.7222057683928
      ],
      [
        "ĠTambe",
        -9.7229704969427
      ],
      [
        "Ġfederal",
        -9.723428096511356
      ],
      [
        "Ġcerteza",
        -9.72378285150402
      ],
      [
        "ĠDireito",
        -9.724960014743406
      ],
      [
        "Ġtransporte",
        -9.726042919953487
      ],
      [
        "Ġtitular",
        -9.726357755673828
      ],
      [
        "ris",
        -9.727331767279503
      ],
      [
        "Depois",
        -9.728775613250836
      ],
      [
        "Ġexame",
        -9.728950149253626
      ],
      [
        "39",
        -9.72965778268428
      ],
      [
        "Ġalterac",
        -9.73004742041443
      ],
      [
        "Ġporta",
        -9.73133471693246
      ],
      [
        "Ġapresenta",
        -9.731464960204525
      ],
      [
        "Ġcentro",
        -9.73277172775803
      ],
      [
        "ĠGuerra",
        -9.734019119229258
      ],
      [
        "â",
        -9.734340954369824
      ],
      [
        "Ġprofissional",
        -9.734424287313876
      ],
      [
        "Ġoriginal",
        -9.734948900507703
      ],
      [
        "ĠEles",
        -9.736056240080506
      ],
      [
        "Ġvalores",
        -9.737347496371124
      ],
      [
        "Ġ2018",
        -9.737488259471917
      ],
      [
        "23",
        -9.73754033118736
      ],
      [
        "Ġacha",
        -9.739264183382078
      ],
      [
        "dy",
        -9.739601727653335
      ],
      [
        "59",
        -9.739885475627135
      ],
      [
        "47",
        -9.739970332837965
      ],
      [
        "Ġrealizado",
        -9.74008507258097
      ],
      [
        "Ġprincipais",
        -9.74095570772695
      ],
      [
        "ĠTV",
        -9.74100090904836
      ],
      [
        "á",
        -9.741538359997516
      ],
      [
        "Presidente",
        -9.74199261560124
      ],
      [
        "Ġemprego",
        -9.74201508400514
      ],
      [
        "cias",
        -9.742060975097733
      ],
      [
        "cnico",
        -9.742942414790411
      ],
      [
        "LTIMA",
        -9.743096109261533
      ],
      [
        "32",
        -9.744406911233716
      ],
      [
        "Ġatenc",
        -9.744574920801048
      ],
      [
        "Ġresultado",
        -9.74479481329634
      ],
      [
        "Ġplena",
        -9.744923131217275
      ],
      [
        "ĠPortant",
        -9.745015789205064
      ],
      [
        "ĠSecretaria",
        -9.745547889448355
      ],
      [
        "dispo",
        -9.745661663194856
      ],
      [
        "Ġpontos",
        -9.745719502653449
      ],
      [
        "ĠAG",
        -9.746038321658876
      ],
      [
        "Ġpi",
        -9.746736546101836
      ],
      [
        "trica",
        -9.74737574250209
      ],
      [
        "Ġchegar",
        -9.747872947255637
      ],
      [
        "var",
        -9.748102973262773
      ],
      [
        "bil",
        -9.748171896871714
      ],
      [
        "Ġautos",
        -9.748831298702656
      ],
      [
        "gan",
        -9.749507985731949
      ],
      [
        "Ġhaver",
        -9.74953854301759
      ],
      [
        "Ġcaminho",
        -9.749640105229052
      ],
      [
        "Ġrenda",
        -9.750504146657116
      ],
      [
        "ĠEspecial",
        -9.751466882745303
      ],
      [
        "Ġmarca",
        -9.751558957950298
      ],
      [
        "apreciac",
        -9.751731017809034
      ],
      [
        "pt",
        -9.751903319929582
      ],
      [
        "Geral",
        -9.75326082164532
      ],
      [
        "Ġclaro",
        -9.753759689667984
      ],
      [
        "til",
        -9.754965849790274
      ],
      [
        "Ġideia",
        -9.755721143709504
      ],
      [
        "Ġinstrumento",
        -9.755749050655735
      ],
      [
        "lidade",
        -9.75646123957696
      ],
      [
        "Ġlogo",
        -9.756701891164754
      ],
      [
        "Ġcrise",
        -9.759084209139392
      ],
      [
        "pia",
        -9.759685031520265
      ],
      [
        "Ġnatureza",
        -9.760968217985676
      ],
      [
        "24",
        -9.76135630387786
      ],
      [
        "ĠSA",
        -9.762007415446032
      ],
      [
        "Ġconsiderado",
        -9.762122596178427
      ],
      [
        "Ġmenor",
        -9.765834111916536
      ],
      [
        "Ġturno",
        -9.76592190190884
      ],
      [
        "Ġ1998",
        -9.766869800828792
      ],
      [
        "2005",
        -9.768167543321566
      ],
      [
        "Ġtera",
        -9.768897849237034
      ],
      [
        "42",
        -9.769763360985564
      ],
      [
        "Ġfase",
        -9.770451337359486
      ],
      [
        "Ġhipo",
        -9.770457003082866
      ],
      [
        "ĠHu",
        -9.771181456727549
      ],
      [
        "tic",
        -9.772123061877029
      ],
      [
        "Ġlivre",
        -9.772382743279074
      ],
      [
        "ĠZe",
        -9.773838827123315
      ],
      [
        "ĠCopa",
        -9.774750106471304
      ],
      [
        "Ġ54",
        -9.77511862650047
      ],
      [
        "shi",
        -9.775328003217709
      ],
      [
        "ĠHenrique",
        -9.775563719177851
      ],
      [
        "ĠQuero",
        -9.7761934374449
      ],
      [
        "ĠSistema",
        -9.77747629868073
      ],
      [
        "Ġcontribuic",
        -9.777683594149517
      ],
      [
        "provimento",
        -9.777737836709866
      ],
      [
        "31",
        -9.777788013663354
      ],
      [
        "33",
        -9.778028803564636
      ],
      [
        "nada",
        -9.77823472504106
      ],
      [
        "ĠQuem",
        -9.779599559662136
      ],
      [
        "Ordem",
        -9.77974766315288
      ],
      [
        "ĠRicardo",
        -9.779927601732524
      ],
      [
        "ĠAndre",
        -9.780624641959069
      ],
      [
        "ĠAGRAV",
        -9.780816080699156
      ],
      [
        "Ġsul",
        -9.780845382787763
      ],
      [
        "chegou",
        -9.781904868500208
      ],
      [
        "Ġformac",
        -9.782150176131182
      ],
      [
        "ĠMIN",
        -9.782386228944468
      ],
      [
        "Ġdiferentes",
        -9.7836413027415
      ],
      [
        "ĠCri",
        -9.785284187226804
      ],
      [
        "Ġaltera",
        -9.78535382911524
      ],
      [
        "Ġsede",
        -9.786449173881811
      ],
      [
        "Ġcontinua",
        -9.786885541920103
      ],
      [
        "Ġleva",
        -9.78705932077237
      ],
      [
        "Ġpri",
        -9.787278066426524
      ],
      [
        "ĠAlves",
        -9.787820388909193
      ],
      [
        "Ġautoria",
        -9.789334645969978
      ],
      [
        "Ġcaput",
        -9.791435208173226
      ],
      [
        "ĠBra",
        -9.791524215882047
      ],
      [
        "Ġinsta",
        -9.792432297900197
      ],
      [
        "Ġcaracteri",
        -9.793777942913724
      ],
      [
        "ĠSTF",
        -9.79419433675312
      ],
      [
        "Ġrede",
        -9.79451663976997
      ],
      [
        "ĠMINISTR",
        -9.794577660676184
      ],
      [
        "ĠSantos",
        -9.794582766983568
      ],
      [
        "Ġautoriza",
        -9.795839108380946
      ],
      [
        "Ġtaxa",
        -9.7959776790083
      ],
      [
        "uma",
        -9.796370500698265
      ],
      [
        "Ġdenu",
        -9.79824217616644
      ],
      [
        "ĠPereira",
        -9.798418439421743
      ],
      [
        "Ġcategoria",
        -9.79946894821522
      ],
      [
        "Ġversa",
        -9.80020145766156
      ],
      [
        "Ġmar",
        -9.800414657721744
      ],
      [
        "Ġguerra",
        -9.800867944709388
      ],
      [
        "ex",
        -9.801886889845056
      ],
      [
        "Ġpartida",
        -9.802237784243044
      ],
      [
        "2019",
        -9.802368622816733
      ],
      [
        "ĠSanto",
        -9.802415396807977
      ],
      [
        "mio",
        -9.802982981355704
      ],
      [
        "Ġsignifica",
        -9.8038143997663
      ],
      [
        "Ġgesta",
        -9.803847281507927
      ],
      [
        "Ġcidada",
        -9.804068022067938
      ],
      [
        "port",
        -9.804308661371111
      ],
      [
        "ĠDias",
        -9.804412254986287
      ],
      [
        "sal",
        -9.806790790559724
      ],
      [
        "let",
        -9.807248348204949
      ],
      [
        "Ġvisita",
        -9.80773376758463
      ],
      [
        "SO",
        -9.808111279105267
      ],
      [
        "Ġcriar",
        -9.80890402092164
      ],
      [
        "Ġbi",
        -9.809517141295377
      ],
      [
        "Ġtorna",
        -9.809659434171415
      ],
      [
        "Cidadania",
        -9.811349876811986
      ],
      [
        "Ġuni",
        -9.811818284892862
      ],
      [
        "CURSO",
        -9.813084148597524
      ],
      [
        "tem",
        -9.815416642679256
      ],
      [
        "ĠMais",
        -9.818215394050569
      ],
      [
        "Ġinternacional",
        -9.818246730686475
      ],
      [
        "ĠRel",
        -9.819105411410408
      ],
      [
        "Ġusua",
        -9.820076387028095
      ],
      [
        "Ġ#",
        -9.8201246641202
      ],
      [
        "cujo",
        -9.820348929491548
      ],
      [
        "Ġpenal",
        -9.821228704538084
      ],
      [
        "Ġseis",
        -9.821229223850638
      ],
      [
        "acima",
        -9.821339435251303
      ],
      [
        "Ġconstitui",
        -9.821801380536725
      ],
      [
        "Ġvisa",
        -9.82440557512179
      ],
      [
        "Ġplano",
        -9.824789633025206
      ],
      [
        "ĠWe",
        -9.824997015321172
      ],
      [
        "Ġins",
        -9.826840672654
      ],
      [
        "ĠPSD",
        -9.827985625346432
      ],
      [
        "Medida",
        -9.828459476873348
      ],
      [
        "Ġrecebe",
        -9.829555295680256
      ],
      [
        "Ġdestaque",
        -9.830303176534024
      ],
      [
        "Ġautoridade",
        -9.830431133813772
      ],
      [
        "ĠPorto",
        -9.8307536886409
      ],
      [
        "logo",
        -9.831326899186962
      ],
      [
        "Ġcrite",
        -9.83238124978267
      ],
      [
        "Ġviole",
        -9.83263173786392
      ],
      [
        "ny",
        -9.832993315730294
      ],
      [
        "91",
        -9.833155218011786
      ],
      [
        "Ġnorma",
        -9.83404757203113
      ],
      [
        "41",
        -9.834845418327902
      ],
      [
        "ĠDilma",
        -9.83488500809221
      ],
      [
        "mediante",
        -9.835158501980205
      ],
      [
        "Ġmostra",
        -9.835611554120035
      ],
      [
        "Ġesca",
        -9.83583627557378
      ],
      [
        "Ĥ",
        -9.836639148818657
      ],
      [
        "Ġdifi",
        -9.8371314316617
      ],
      [
        "sur",
        -9.837388901709312
      ],
      [
        "Ġprotec",
        -9.83745866140904
      ],
      [
        "Ġdesses",
        -9.838331565264186
      ],
      [
        "2017",
        -9.838361730157851
      ],
      [
        "Ġisto",
        -9.83905708993365
      ],
      [
        "Ġfundo",
        -9.839499990793998
      ],
      [
        "Ġeleito",
        -9.840121668900151
      ],
      [
        "ME",
        -9.841360150421524
      ],
      [
        "ĠParlamentar",
        -9.841532232736272
      ],
      [
        "cuja",
        -9.842464370079982
      ],
      [
        "MS",
        -9.84355709775344
      ],
      [
        "ĠBanco",
        -9.84362865593163
      ],
      [
        "ĠOh",
        -9.844313370276746
      ],
      [
        "Ġinco",
        -9.844741195062964
      ],
      [
        "realmente",
        -9.845099969655234
      ],
      [
        "Ġatendimento",
        -9.84516870435167
      ],
      [
        "Ġexige",
        -9.846361770390123
      ],
      [
        "ĠSeu",
        -9.847827514210412
      ],
      [
        "Ġaquela",
        -9.848478066816863
      ],
      [
        "ĠVou",
        -9.84895763947993
      ],
      [
        "Ġnovos",
        -9.849802447114955
      ],
      [
        "Ġcultura",
        -9.850261742086492
      ],
      [
        "ĠPE",
        -9.850659918467487
      ],
      [
        "Ġindu",
        -9.851710867270995
      ],
      [
        "trabalhadores",
        -9.851832434453517
      ],
      [
        "61",
        -9.852353014153104
      ],
      [
        "rum",
        -9.853096367464406
      ],
      [
        "ĠMeu",
        -9.853266689121348
      ],
      [
        "ĠNesse",
        -9.854913520876975
      ],
      [
        "Ġpassar",
        -9.855103350306589
      ],
      [
        "ĠGre",
        -9.855808979042552
      ],
      [
        "recebeu",
        -9.8566542297816
      ],
      [
        "Ġtrabalhos",
        -9.856674652553073
      ],
      [
        "tese",
        -9.85713641790578
      ],
      [
        "ĠMato",
        -9.8574215981468
      ],
      [
        "category",
        -9.85742758526037
      ],
      [
        "VI",
        -9.857517883381432
      ],
      [
        "ĠBrasileira",
        -9.860231880947971
      ],
      [
        "tel",
        -9.86170635935694
      ],
      [
        "Ġ32",
        -9.86240457282339
      ],
      [
        "nima",
        -9.862526586855228
      ],
      [
        "Ġresposta",
        -9.862762341826544
      ],
      [
        "ĠProviso",
        -9.863362646665909
      ],
      [
        "Ġrazo",
        -9.864493394365786
      ],
      [
        "ĥ",
        -9.864677555725768
      ],
      [
        "54",
        -9.865975575968484
      ],
      [
        "Ġfl",
        -9.866909557937594
      ],
      [
        "Ġartigos",
        -9.867809032188642
      ],
      [
        "Ġatra",
        -9.868094634516629
      ],
      [
        "ĠFundo",
        -9.869045636660005
      ],
      [
        "Gerais",
        -9.869998461632672
      ],
      [
        "nero",
        -9.870690280426738
      ],
      [
        "53",
        -9.871555423115693
      ],
      [
        "Durante",
        -9.871567706631094
      ],
      [
        "ĠBen",
        -9.871964409713788
      ],
      [
        "Ġcapacidade",
        -9.87281723547383
      ],
      [
        "Ġliberdade",
        -9.87536812534417
      ],
      [
        "ĠMarcelo",
        -9.875414690747858
      ],
      [
        "Ġdeclarac",
        -9.87546861631932
      ],
      [
        "ava",
        -9.87607544589354
      ],
      [
        "ĠEntre",
        -9.876317384753047
      ],
      [
        "Ġqueria",
        -9.877075142881374
      ],
      [
        "PAULO",
        -9.877146408767564
      ],
      [
        "ĠRIC",
        -9.879449529119718
      ],
      [
        "Ġcomunita",
        -9.880092794338754
      ],
      [
        "tados",
        -9.88038715368266
      ],
      [
        "PP",
        -9.880731026408776
      ],
      [
        "ĠEra",
        -9.880863815220293
      ],
      [
        "ĠBahia",
        -9.882069169046748
      ],
      [
        "vidas",
        -9.88347265716228
      ],
      [
        "nior",
        -9.885279663019263
      ],
      [
        "ĠLima",
        -9.885597974464243
      ],
      [
        "Ġcriado",
        -9.885789157670354
      ],
      [
        "Ġpla",
        -9.885891962634792
      ],
      [
        "ang",
        -9.886288743070196
      ],
      [
        "Ġexecutar",
        -9.88660160519864
      ],
      [
        "Ġreduc",
        -9.886679984997974
      ],
      [
        "lei",
        -9.886831181437667
      ],
      [
        "REG",
        -9.88702033307224
      ],
      [
        "Ġmanter",
        -9.887089594682374
      ],
      [
        "Ġescrito",
        -9.887187660858515
      ],
      [
        "ĠJorge",
        -9.8876380309707
      ],
      [
        "Ġcha",
        -9.887848103383796
      ],
      [
        "Ġgene",
        -9.888381047623389
      ],
      [
        "ĠAdministrac",
        -9.88930090676648
      ],
      [
        "Ġsoluc",
        -9.889526094399413
      ],
      [
        "Ġdiversos",
        -9.889670537852268
      ],
      [
        "Ġterceiro",
        -9.889881724224448
      ],
      [
        "Do",
        -9.890138551257763
      ],
      [
        "ĠAte",
        -9.890254090514038
      ],
      [
        "Ġhe",
        -9.891760004573902
      ],
      [
        "ĠInter",
        -9.892330559979664
      ],
      [
        "Ġvotar",
        -9.892425878564804
      ],
      [
        "Ġsol",
        -9.892870301140723
      ],
      [
        "Ġhomens",
        -9.892908155143148
      ],
      [
        "Ġ60",
        -9.893041751803477
      ],
      [
        "Ġhomenage",
        -9.89309217798628
      ],
      [
        "ĠSENHOR",
        -9.89350402541215
      ],
      [
        "Ġambiente",
        -9.894882629286464
      ],
      [
        "Ġincluindo",
        -9.895217732723967
      ],
      [
        "rte",
        -9.895254972617224
      ],
      [
        "ĠComiss",
        -9.895333327404751
      ],
      [
        "Ġmaterial",
        -9.89549280535358
      ],
      [
        "ĠMundial",
        -9.895914966986869
      ],
      [
        "Ġconstrui",
        -9.896374617011457
      ],
      [
        "doenc",
        -9.897326852634192
      ],
      [
        "Ġchamada",
        -9.89772188488743
      ],
      [
        "ĠVale",
        -9.89776348030348
      ],
      [
        "Ġdiretor",
        -9.900158337026982
      ],
      [
        "Ġ1997",
        -9.900359727838602
      ],
      [
        "ĠCO",
        -9.900380818155542
      ],
      [
        "reunia",
        -9.901661090526684
      ],
      [
        "ĠCons",
        -9.901849443649064
      ],
      [
        "log",
        -9.902135473505066
      ],
      [
        "Ġapresentado",
        -9.902353781071549
      ],
      [
        "Ġproviso",
        -9.904327295368573
      ],
      [
        "mentos",
        -9.90467571731087
      ],
      [
        "ite",
        -9.904812588354584
      ],
      [
        "Ġnoti",
        -9.90513281470346
      ],
      [
        "ty",
        -9.905295959938682
      ],
      [
        "the",
        -9.90545173100496
      ],
      [
        "serem",
        -9.906511429875124
      ],
      [
        "2006",
        -9.906879328085076
      ],
      [
        "Ġmilitar",
        -9.907777038428655
      ],
      [
        "ano",
        -9.908175785363364
      ],
      [
        "Ġprofissionais",
        -9.908715372968448
      ],
      [
        "Ainda",
        -9.90885842938781
      ],
      [
        "ĠInternacional",
        -9.908871740224896
      ],
      [
        "Ġestudo",
        -9.909601018587216
      ],
      [
        "Ġdiversas",
        -9.909924313872292
      ],
      [
        "ltimos",
        -9.909957847607467
      ],
      [
        "Ġamor",
        -9.911037943399824
      ],
      [
        "ĠâĢĺ",
        -9.911090578099278
      ],
      [
        "ĠCla",
        -9.911463854411938
      ],
      [
        "rcito",
        -9.911794044946385
      ],
      [
        "ĠMendes",
        -9.912213337041283
      ],
      [
        "servidores",
        -9.913898393428935
      ],
      [
        "Ġcivil",
        -9.914019546613268
      ],
      [
        "Ġcena",
        -9.91473357547127
      ],
      [
        "Ġgarantia",
        -9.91514357090718
      ],
      [
        "Ġsolicita",
        -9.915746503943456
      ],
      [
        "Ġmeta",
        -9.91583743892918
      ],
      [
        "tratamento",
        -9.916049754955704
      ],
      [
        "ĠCan",
        -9.916998768618123
      ],
      [
        "Ġdeles",
        -9.917109155745358
      ],
      [
        "ble",
        -9.917696462741295
      ],
      [
        "pido",
        -9.91852563567598
      ],
      [
        "Ġaplica",
        -9.918544549840846
      ],
      [
        "ĠTudo",
        -9.918731902922064
      ],
      [
        "Apensa",
        -9.920044721397778
      ],
      [
        "Ġafirma",
        -9.921078098436952
      ],
      [
        "Ġextra",
        -9.92265043464388
      ],
      [
        "Ġju",
        -9.922826822772809
      ],
      [
        "Ġamigo",
        -9.923257269330405
      ],
      [
        "ĠJe",
        -9.923530164215688
      ],
      [
        "Ġreceber",
        -9.925167685262169
      ],
      [
        "Ġfins",
        -9.925535947500538
      ],
      [
        "by",
        -9.92674416674261
      ],
      [
        "dura",
        -9.927504545323226
      ],
      [
        "dora",
        -9.92784279185156
      ],
      [
        "ĠRJ",
        -9.928169814349936
      ],
      [
        "Ġtri",
        -9.928499459745932
      ],
      [
        "gostaria",
        -9.928572873336291
      ],
      [
        "PCdoB",
        -9.929608892292578
      ],
      [
        "ĠBA",
        -9.929940538390904
      ],
      [
        "NC",
        -9.930213021171578
      ],
      [
        "ĠGovernador",
        -9.930417819316457
      ],
      [
        "ĠInforma",
        -9.930605138773725
      ],
      [
        "Ġfundamental",
        -9.930704692386422
      ],
      [
        "Ġcumprimento",
        -9.93080810531988
      ],
      [
        "ssimo",
        -9.932041414027935
      ],
      [
        "ĠADV",
        -9.932773660595627
      ],
      [
        "ĠAL",
        -9.932864766895417
      ],
      [
        "ĠVoss",
        -9.93325217131756
      ],
      [
        "Ġfuturo",
        -9.934436783814464
      ],
      [
        "Ģ",
        -9.934544075024878
      ],
      [
        "AI",
        -9.935637814732434
      ],
      [
        "Ġfavora",
        -9.936585155147446
      ],
      [
        "Ġnovas",
        -9.936928512614733
      ],
      [
        "ĠCE",
        -9.93829806135408
      ],
      [
        "ĠParana",
        -9.938592846019288
      ],
      [
        "ĠSesso",
        -9.939173345257313
      ],
      [
        "95",
        -9.93940338713006
      ],
      [
        "Ġmotivo",
        -9.939481392817209
      ],
      [
        "Ġcompra",
        -9.939938417587772
      ],
      [
        "Ġarma",
        -9.942459359965904
      ],
      [
        "pronunciamento",
        -9.943279329450796
      ],
      [
        "..............",
        -9.943509531332284
      ],
      [
        "Ġpaciente",
        -9.943998245129034
      ],
      [
        "94",
        -9.945002504726558
      ],
      [
        "Ġdaquel",
        -9.946029301420204
      ],
      [
        "Ġaudie",
        -9.946481422011871
      ],
      [
        "Ġinstitui",
        -9.946546529833949
      ],
      [
        "\",\"",
        -9.946620787538627
      ],
      [
        "Ġgrave",
        -9.947150140691823
      ],
      [
        "Ġevento",
        -9.947319288911054
      ],
      [
        "58",
        -9.94739682961488
      ],
      [
        "Of",
        -9.9486532524184
      ],
      [
        "NTE",
        -9.949232646058864
      ],
      [
        "Ġjornal",
        -9.949272466093523
      ],
      [
        "Ġnenhuma",
        -9.949407858528478
      ],
      [
        "ĠEd",
        -9.94999081201651
      ],
      [
        "Ġmuita",
        -9.951354038097158
      ],
      [
        "Ġacaba",
        -9.951670930012844
      ],
      [
        "ĠOfi",
        -9.952687188424662
      ],
      [
        "oli",
        -9.953632955288953
      ],
      [
        "Ġadministrac",
        -9.95379821212988
      ],
      [
        "Ġalto",
        -9.954591934821613
      ],
      [
        "ĠPEC",
        -9.955222912091363
      ],
      [
        "Ġcombate",
        -9.955487341820254
      ],
      [
        "Ġlu",
        -9.956031952088702
      ],
      [
        "Ġliga",
        -9.956072134019806
      ],
      [
        "ĠSuperior",
        -9.956283492678642
      ],
      [
        "Ġtributa",
        -9.956292826813067
      ],
      [
        "Ġapresentar",
        -9.956383084973409
      ],
      [
        "Ġnatural",
        -9.957170711826109
      ],
      [
        "Ġcrescimento",
        -9.95835091227975
      ],
      [
        "ĠFA",
        -9.959238507645829
      ],
      [
        "ĠAcho",
        -9.959252462589395
      ],
      [
        "Ġcabe",
        -9.96037871237932
      ],
      [
        "entidades",
        -9.96058536478314
      ],
      [
        "ĠEcono",
        -9.960624357856942
      ],
      [
        "ĠMari",
        -9.961094719898568
      ],
      [
        "ĠBel",
        -9.961644319390809
      ],
      [
        "isto",
        -9.962031618715896
      ],
      [
        "ĠCentro",
        -9.96234431305205
      ],
      [
        "ĠPri",
        -9.963196710671852
      ],
      [
        "metros",
        -9.96344270313182
      ],
      [
        "Ġcerta",
        -9.96350785883601
      ],
      [
        "Ġ1999",
        -9.965044944215215
      ],
      [
        "Ġusado",
        -9.965086310705338
      ],
      [
        "Ġdispositivo",
        -9.966027897249395
      ],
      [
        "Ġanu",
        -9.966224115906437
      ],
      [
        "iam",
        -9.966386797101482
      ],
      [
        "Ġningue",
        -9.96674371400394
      ],
      [
        "Ġsonora",
        -9.966784830166969
      ],
      [
        "vos",
        -9.96741706187365
      ],
      [
        "Ġapresentac",
        -9.967565141873852
      ],
      [
        "Ġvir",
        -9.96803091513848
      ],
      [
        "EXTRAORDINA",
        -9.968076245797286
      ],
      [
        "Ġsimples",
        -9.969430399086214
      ],
      [
        "Ġusar",
        -9.9704704959648
      ],
      [
        "ĠVoto",
        -9.97151155793596
      ],
      [
        "Ġcontar",
        -9.971786175058025
      ],
      [
        "ĠAqui",
        -9.972004101784709
      ],
      [
        "ĠPmdbP",
        -9.97260551475831
      ],
      [
        "tando",
        -9.972877628286463
      ],
      [
        "tecnologia",
        -9.974205869772488
      ],
      [
        "Ġbu",
        -9.974429983417677
      ],
      [
        "Ġvito",
        -9.974760472791026
      ],
      [
        "Ġautorizac",
        -9.97532191751849
      ],
      [
        "Ġimposto",
        -9.975496717835068
      ],
      [
        "Ġusa",
        -9.975816596116234
      ],
      [
        "Ġfilhos",
        -9.976535141154104
      ],
      [
        "Ġajudar",
        -9.976827125138716
      ],
      [
        "ĠME",
        -9.97857951127318
      ],
      [
        "Ġtu",
        -9.978974744388443
      ],
      [
        "ĠCampos",
        -9.979078368323025
      ],
      [
        "Ltd",
        -9.979382084803875
      ],
      [
        "Ġconti",
        -9.980337291513584
      ],
      [
        "substituic",
        -9.983944876936516
      ],
      [
        "ĠKi",
        -9.985089911871478
      ],
      [
        "Ġvo",
        -9.985408257377347
      ],
      [
        "Ġefetiva",
        -9.985881725115572
      ],
      [
        "cita",
        -9.986179834884185
      ],
      [
        "Ġestabelece",
        -9.98716619318644
      ],
      [
        "CO",
        -9.987286057212406
      ],
      [
        "ĠRoma",
        -9.98797648313226
      ],
      [
        "Hoje",
        -9.988034613808926
      ],
      [
        "Ġarti",
        -9.9881132436142
      ],
      [
        "Ġconsegui",
        -9.988284548119474
      ],
      [
        "Ġprestac",
        -9.988442882673525
      ],
      [
        "Ġvisto",
        -9.988700625271818
      ],
      [
        "ĠTodos",
        -9.988846920570971
      ],
      [
        "Ġdespes",
        -9.989079101791583
      ],
      [
        "Anexo",
        -9.991343360484224
      ],
      [
        "bli",
        -9.991847476745582
      ],
      [
        "ĠIgreja",
        -9.992159369567382
      ],
      [
        "Ñ",
        -9.992298355353263
      ],
      [
        "43",
        -9.992600789762204
      ],
      [
        "Ġdisputa",
        -9.993528522463372
      ],
      [
        "ĠNu",
        -9.99403074861013
      ],
      [
        "Ġreceita",
        -9.994285577168242
      ],
      [
        "93",
        -9.995143985618537
      ],
      [
        "nsito",
        -9.99529734854242
      ],
      [
        "Ġmeus",
        -9.995947642661468
      ],
      [
        "Ġdiferenc",
        -9.998359253900675
      ],
      [
        "Ġdiante",
        -9.998480190847545
      ],
      [
        "Ġestavam",
        -9.99884521479104
      ],
      [
        "NT",
        -9.998978521731171
      ],
      [
        "designado",
        -9.999568104159312
      ],
      [
        "line",
        -9.999665510572536
      ],
      [
        "bin",
        -10.00010363281794
      ],
      [
        "Ġlevar",
        -10.0008645873508
      ],
      [
        "ĠCON",
        -10.001138177867114
      ],
      [
        "Ġespecialmente",
        -10.001149949922608
      ],
      [
        "lado",
        -10.00172650692206
      ],
      [
        "PFL",
        -10.003314219629774
      ],
      [
        "Ġ37",
        -10.00362467403531
      ],
      [
        "ĠSou",
        -10.006111183166992
      ],
      [
        "Ġconhecida",
        -10.006254200830265
      ],
      [
        "Ġconquista",
        -10.006316852757358
      ],
      [
        "juridicidade",
        -10.006750751909925
      ],
      [
        "Lei",
        -10.007267036266034
      ],
      [
        "devem",
        -10.007493426727672
      ],
      [
        "ĠBer",
        -10.007841129929924
      ],
      [
        "ĠCultura",
        -10.008009392601544
      ],
      [
        "Ġcurso",
        -10.008185772375548
      ],
      [
        "Ġfutebol",
        -10.008708848691588
      ],
      [
        "Ġinvesti",
        -10.008903815762494
      ],
      [
        "Ġgarantir",
        -10.009154955144885
      ],
      [
        "Ġtermo",
        -10.009449069725129
      ],
      [
        "ĠFEDERAL",
        -10.0098494997211
      ],
      [
        "Ġprogramas",
        -10.010105918344465
      ],
      [
        "pp",
        -10.01105621723158
      ],
      [
        "ĠTerra",
        -10.011236395851776
      ],
      [
        "RJ",
        -10.011306586029985
      ],
      [
        "Tenho",
        -10.011818712816384
      ],
      [
        "ĠTemer",
        -10.012079082629947
      ],
      [
        "Ġpopular",
        -10.0129293438173
      ],
      [
        "Ġconte",
        -10.012964669918649
      ],
      [
        "2003",
        -10.013093533359644
      ],
      [
        "Ġcabec",
        -10.01339683067047
      ],
      [
        "prisa",
        -10.013967770532128
      ],
      [
        "URMA",
        -10.015263869467676
      ],
      [
        "zes",
        -10.016337212458676
      ],
      [
        "ĠDep",
        -10.016449746061555
      ],
      [
        "tivos",
        -10.018123682585976
      ],
      [
        "ĠAta",
        -10.018356559016096
      ],
      [
        "Ġfilha",
        -10.019343458664832
      ],
      [
        "normas",
        -10.019549640702058
      ],
      [
        "Ġrevista",
        -10.01958179928248
      ],
      [
        "Ġbastante",
        -10.01968681908166
      ],
      [
        "ĠRibeiro",
        -10.020936886556829
      ],
      [
        "Ġhi",
        -10.022208133703147
      ],
      [
        "Ġelas",
        -10.022479231143205
      ],
      [
        "Ġvale",
        -10.023425022805991
      ],
      [
        "ĠBom",
        -10.023703474692386
      ],
      [
        "Ġconteu",
        -10.024853472877542
      ],
      [
        "ĠChe",
        -10.025457587936394
      ],
      [
        "meros",
        -10.026250516101708
      ],
      [
        "Ġrealidade",
        -10.026424965412422
      ],
      [
        "Ġaprovada",
        -10.02680816217339
      ],
      [
        "Ġimportantes",
        -10.027047492755344
      ],
      [
        "Ġpublicado",
        -10.027109238719197
      ],
      [
        "Ġtais",
        -10.027341901346627
      ],
      [
        "Ġcarta",
        -10.027658686624603
      ],
      [
        "Ġinflue",
        -10.028256805398138
      ],
      [
        "Ġrepresentante",
        -10.028977248786564
      ],
      [
        "afirmou",
        -10.029111919907576
      ],
      [
        "ĠFla",
        -10.030937289558608
      ],
      [
        "instalac",
        -10.031473926632394
      ],
      [
        "Ġ33",
        -10.031617331678197
      ],
      [
        "press",
        -10.032148634956398
      ],
      [
        "ĠTrata",
        -10.032357273890572
      ],
      [
        "âĢĲ",
        -10.032510004647854
      ],
      [
        "Ġvenda",
        -10.03252840712227
      ],
      [
        "Ġcomum",
        -10.033239771011685
      ],
      [
        "Ġexe",
        -10.033861610483964
      ],
      [
        "GE",
        -10.035121110800445
      ],
      [
        "Ġnovamente",
        -10.035155706328023
      ],
      [
        "ĠTri",
        -10.035438419663295
      ],
      [
        "ficas",
        -10.035676250056303
      ],
      [
        "ssem",
        -10.035709894388852
      ],
      [
        "Ġmissa",
        -10.037211598268549
      ],
      [
        "atuac",
        -10.038577913789652
      ],
      [
        "ĠTre",
        -10.039192455887235
      ],
      [
        "jovens",
        -10.039625929820344
      ],
      [
        "voca",
        -10.040576440839873
      ],
      [
        "posic",
        -10.040796545553707
      ],
      [
        "ĠEi",
        -10.041193313142308
      ],
      [
        "Ġide",
        -10.041236365337234
      ],
      [
        "Ġclasse",
        -10.04142055255324
      ],
      [
        "Ġsair",
        -10.041435170415603
      ],
      [
        "Ġassiste",
        -10.042017718299022
      ],
      [
        "Ġdepende",
        -10.042501119181056
      ],
      [
        "ĠSegunda",
        -10.04304015398217
      ],
      [
        "ĠJohn",
        -10.044174313905843
      ],
      [
        "Ġcienti",
        -10.04491454465839
      ],
      [
        "rgio",
        -10.04531683558402
      ],
      [
        "Ġ&",
        -10.046265692975242
      ],
      [
        "Ġtrabalhar",
        -10.04813763982081
      ],
      [
        "IA",
        -10.048143918370208
      ],
      [
        "Ġfiscal",
        -10.049013905881187
      ],
      [
        "Ġseguida",
        -10.049128932677736
      ],
      [
        "ĠDiretor",
        -10.0500777607287
      ],
      [
        "ĠBR",
        -10.050312435989856
      ],
      [
        "ĠMac",
        -10.050821024260154
      ],
      [
        "ĠCu",
        -10.05084932211385
      ],
      [
        "Pen",
        -10.050967652693249
      ],
      [
        "Ġepiso",
        -10.05152974036283
      ],
      [
        "Ġalema",
        -10.051875640847232
      ],
      [
        "Ġcorre",
        -10.052871033873958
      ],
      [
        "Ġcria",
        -10.053722305652968
      ],
      [
        "Ġfonte",
        -10.053982924226734
      ],
      [
        "micos",
        -10.05417542778236
      ],
      [
        "Ġvoltar",
        -10.05435371450616
      ],
      [
        "tividade",
        -10.054449840597425
      ],
      [
        "RS",
        -10.058081105355352
      ],
      [
        "Ġmante",
        -10.05835586844403
      ],
      [
        "Ġquesto",
        -10.058426638328989
      ],
      [
        "ĠComplementar",
        -10.05865399879795
      ],
      [
        "Ġbe",
        -10.059412666550084
      ],
      [
        "Ġopera",
        -10.059761472095005
      ],
      [
        "Ġ35",
        -10.05977267189931
      ],
      [
        "Ġora",
        -10.060562689761488
      ],
      [
        "bancada",
        -10.060673579557555
      ],
      [
        "Ġpropriedade",
        -10.060959527932004
      ],
      [
        "Ġministro",
        -10.06102360662114
      ],
      [
        "ģ",
        -10.062049967578645
      ],
      [
        "Ġrevela",
        -10.06443699841345
      ],
      [
        "Ġpequena",
        -10.064867945135909
      ],
      [
        "GO",
        -10.06501884032746
      ],
      [
        "Ġbeneficia",
        -10.06508588191408
      ],
      [
        "produtos",
        -10.065769950542562
      ],
      [
        "Ġportugue",
        -10.066520795366216
      ],
      [
        "Ġsuficiente",
        -10.066947451228662
      ],
      [
        "ker",
        -10.06712136491826
      ],
      [
        "ĠTom",
        -10.067516427301092
      ],
      [
        "Ġdeputado",
        -10.067999677518618
      ],
      [
        "CH",
        -10.06909807401997
      ],
      [
        "Ġprejui",
        -10.069567393564055
      ],
      [
        "Ġ1996",
        -10.070642676484947
      ],
      [
        "CIA",
        -10.070759588708135
      ],
      [
        "Ġcandidato",
        -10.071594990881934
      ],
      [
        "ĠEuropa",
        -10.07208518903606
      ],
      [
        "Ġvige",
        -10.072222175289236
      ],
      [
        "Ġentrar",
        -10.072300564142395
      ],
      [
        "AgR",
        -10.072779932812324
      ],
      [
        "ĠTer",
        -10.072814698259997
      ],
      [
        "Ġbaixa",
        -10.07291933432562
      ],
      [
        "ĠOrc",
        -10.073141991012609
      ],
      [
        "2004",
        -10.073553760907782
      ],
      [
        "Ġexperie",
        -10.074023791433026
      ],
      [
        "riz",
        -10.074101227685228
      ],
      [
        "Ġquadro",
        -10.074140579966134
      ],
      [
        "tenham",
        -10.074542579201657
      ],
      [
        "deixou",
        -10.0752681020089
      ],
      [
        "ĠSub",
        -10.075528949959692
      ],
      [
        "Ġobrigac",
        -10.076195769763023
      ],
      [
        "Ġantigo",
        -10.076591365103036
      ],
      [
        "ĠEscola",
        -10.07782070059402
      ],
      [
        "AM",
        -10.077833968015092
      ],
      [
        "Ġdever",
        -10.078680683518783
      ],
      [
        "Ġoutorga",
        -10.07896705809511
      ],
      [
        "ĠDOS",
        -10.07901335229628
      ],
      [
        "ĠEl",
        -10.079322004167402
      ],
      [
        "Ġencontrar",
        -10.079494740010825
      ],
      [
        "entendimento",
        -10.07968549982042
      ],
      [
        "ĠRelato",
        -10.08015298514618
      ],
      [
        "GL",
        -10.080163188898783
      ],
      [
        "å",
        -10.081405684830784
      ],
      [
        "Ġfaixa",
        -10.081515776532498
      ],
      [
        "ĠChi",
        -10.081680593225956
      ],
      [
        "Ġchama",
        -10.081849369090808
      ],
      [
        "ndice",
        -10.082231350563116
      ],
      [
        "han",
        -10.083670117987626
      ],
      [
        "Ġsite",
        -10.084313193117085
      ],
      [
        "ĠFor",
        -10.085613656331688
      ],
      [
        "Substitutivo",
        -10.087765693410129
      ],
      [
        "Ġdisco",
        -10.08839354364904
      ],
      [
        "ĠAmazo",
        -10.088455424531627
      ],
      [
        "SC",
        -10.088593113171994
      ],
      [
        "entidade",
        -10.089271866620384
      ],
      [
        "lares",
        -10.089595611606883
      ],
      [
        "Ġperda",
        -10.090485097572737
      ],
      [
        "Certo",
        -10.090543700485624
      ],
      [
        "ini",
        -10.090939362916728
      ],
      [
        "ĠPenal",
        -10.09197716881284
      ],
      [
        "Portaria",
        -10.092052715913194
      ],
      [
        "Ġbaixo",
        -10.09401283262632
      ],
      [
        "distribuic",
        -10.095128181274651
      ],
      [
        "Ġrel",
        -10.098880054590756
      ],
      [
        "ĠPRO",
        -10.098881451969037
      ],
      [
        "conformidade",
        -10.100031976171229
      ],
      [
        "Ġaconteceu",
        -10.100184684110166
      ],
      [
        "tulos",
        -10.100575882318662
      ],
      [
        "Ġdessas",
        -10.101188022688776
      ],
      [
        "Mar",
        -10.101314682967216
      ],
      [
        "ĠSU",
        -10.102869284919198
      ],
      [
        "Ġdemanda",
        -10.103032064200123
      ],
      [
        "previsto",
        -10.10334847153808
      ],
      [
        "Ġcolocar",
        -10.103736749194644
      ],
      [
        "ĠSp",
        -10.103945406082111
      ],
      [
        "locais",
        -10.103983421817276
      ],
      [
        "INA",
        -10.104378609534129
      ],
      [
        "PtbP",
        -10.104459348567318
      ],
      [
        "Ġpermite",
        -10.104653035243016
      ],
      [
        "Ġtratar",
        -10.104948850618314
      ],
      [
        "ngel",
        -10.105149206565732
      ],
      [
        "Ġreserva",
        -10.105346950483929
      ],
      [
        "Ġindependente",
        -10.105387636360156
      ],
      [
        "dez",
        -10.105776934192626
      ],
      [
        "ting",
        -10.107428123376078
      ],
      [
        "Ġigual",
        -10.10901668952202
      ],
      [
        "Ġacerca",
        -10.11160186324325
      ],
      [
        "Ġob",
        -10.11226649433432
      ],
      [
        "tores",
        -10.112410690276624
      ],
      [
        "PSOL",
        -10.115004554096258
      ],
      [
        "ĠComunita",
        -10.11540701718626
      ],
      [
        "Ġtelevisa",
        -10.115505725740356
      ],
      [
        "ias",
        -10.11559000344989
      ],
      [
        "Ġaprova",
        -10.115645240897106
      ],
      [
        "talvez",
        -10.115825792164848
      ],
      [
        "Ġregra",
        -10.117346623924396
      ],
      [
        "cido",
        -10.118847311055506
      ],
      [
        "ĠJU",
        -10.119938911254232
      ],
      [
        "Ġtornar",
        -10.122371370452749
      ],
      [
        "entrada",
        -10.122868881004736
      ],
      [
        "PRB",
        -10.1237485488694
      ],
      [
        "ĠSal",
        -10.124744464350323
      ],
      [
        "ĠPU",
        -10.125133106816383
      ],
      [
        "zada",
        -10.127654193865618
      ],
      [
        "Ġabertura",
        -10.127950003290204
      ],
      [
        "ĠPrimeiro",
        -10.128444859021428
      ],
      [
        "Ġordina",
        -10.128506464535183
      ],
      [
        "Ġesforc",
        -10.128963336996572
      ],
      [
        "...............",
        -10.129131984272275
      ],
      [
        "Ġ70",
        -10.12933050366524
      ],
      [
        "manutenc",
        -10.12964072972638
      ],
      [
        "Ġparticipar",
        -10.13090620484864
      ],
      [
        "Ġpermiti",
        -10.133173527990287
      ],
      [
        "Ġluz",
        -10.133258676026095
      ],
      [
        "Ġestu",
        -10.1333475024678
      ],
      [
        "Ġcontinuar",
        -10.133961786494211
      ],
      [
        "sicas",
        -10.1340121187495
      ],
      [
        "ĠMal",
        -10.13432248346242
      ],
      [
        "ĠVal",
        -10.134656202818675
      ],
      [
        "maiores",
        -10.13481482926715
      ],
      [
        "Ġjogos",
        -10.13646236620206
      ],
      [
        "Ġdireta",
        -10.13663915752541
      ],
      [
        "Ġmulta",
        -10.138168589639024
      ],
      [
        "Ġbens",
        -10.138882944988906
      ],
      [
        "ĠPOR",
        -10.139996227983309
      ],
      [
        "ĠGil",
        -10.140285275087818
      ],
      [
        "Ġalega",
        -10.140391366280216
      ],
      [
        "Ġtime",
        -10.14103353756804
      ],
      [
        "Ġlimite",
        -10.141422196820798
      ],
      [
        "Ġause",
        -10.143832549528238
      ],
      [
        "ĠNos",
        -10.144373392890042
      ],
      [
        "Ġinvestigac",
        -10.14480198106215
      ],
      [
        "ĠProcesso",
        -10.145116949764992
      ],
      [
        "ĠTrans",
        -10.146369476711984
      ],
      [
        "Ġprovi",
        -10.14783274210964
      ],
      [
        "Ġamigos",
        -10.147873765573078
      ],
      [
        "Ġerro",
        -10.148112412713482
      ],
      [
        "inclusa",
        -10.149682227146537
      ],
      [
        "Ġ38",
        -10.1504876460877
      ],
      [
        "Ġcento",
        -10.151456023011429
      ],
      [
        "Ġpergunta",
        -10.15222927115137
      ],
      [
        "legais",
        -10.153391024496662
      ],
      [
        "LIO",
        -10.154362278690217
      ],
      [
        "Prefeito",
        -10.154496704917095
      ],
      [
        "Ġapresentada",
        -10.15509667756594
      ],
      [
        "Ġdisposic",
        -10.155277972056108
      ],
      [
        "ĠCentral",
        -10.156059645268527
      ],
      [
        "PSC",
        -10.157267807946331
      ],
      [
        "Ġinforma",
        -10.15829077803
      ],
      [
        "Ġtribuna",
        -10.158435831217911
      ],
      [
        "lias",
        -10.15853348425318
      ],
      [
        "RES",
        -10.158754376109764
      ],
      [
        "apesar",
        -10.158907322323024
      ],
      [
        "ku",
        -10.159050379450967
      ],
      [
        "Ġcolega",
        -10.159492776562551
      ],
      [
        "ADO",
        -10.159848779421832
      ],
      [
        "Ġespi",
        -10.159883969993796
      ],
      [
        "pida",
        -10.160386974071235
      ],
      [
        "ĠGeral",
        -10.160418783789629
      ],
      [
        "gerac",
        -10.160777692076111
      ],
      [
        "Ġdecidi",
        -10.16154185053856
      ],
      [
        "Ġsofre",
        -10.161891104960302
      ],
      [
        "cimento",
        -10.162052645802625
      ],
      [
        "Ġcomercial",
        -10.162225335688817
      ],
      [
        "Ġdecreta",
        -10.163116083058554
      ],
      [
        "Ġsustenta",
        -10.163471600674775
      ],
      [
        "ĠJOSE",
        -10.16451450971162
      ],
      [
        "Ġdocumentos",
        -10.16484905371945
      ],
      [
        "ĠPROPOSI",
        -10.16530495530284
      ],
      [
        "Ġinterna",
        -10.166396533579563
      ],
      [
        "ĠUS",
        -10.16650127856557
      ],
      [
        "ĠPorque",
        -10.166775427685064
      ],
      [
        "Ġanti",
        -10.166858705049757
      ],
      [
        "Apoio",
        -10.167428853657052
      ],
      [
        "destinada",
        -10.168141299583858
      ],
      [
        "Ġperde",
        -10.168819088339331
      ],
      [
        "Ġdistribui",
        -10.16917405271663
      ],
      [
        "ji",
        -10.169540467220523
      ],
      [
        "Ġoito",
        -10.1697530008691
      ],
      [
        "Ġregio",
        -10.170013823255095
      ],
      [
        "ĠPlano",
        -10.171382506978327
      ],
      [
        "CIO",
        -10.171419862210549
      ],
      [
        "Ġlegi",
        -10.171833378966683
      ],
      [
        "ĠSouza",
        -10.172226411823546
      ],
      [
        "Ġpasso",
        -10.17246534563438
      ],
      [
        "ĠCelso",
        -10.173213910914578
      ],
      [
        "metro",
        -10.17501624930329
      ],
      [
        "Ġmanifestac",
        -10.175090589431903
      ],
      [
        "Ġdizendo",
        -10.176571785139236
      ],
      [
        "Ġrealizar",
        -10.17688081997664
      ],
      [
        "utilizac",
        -10.1770385033472
      ],
      [
        "Ġperto",
        -10.177337892421011
      ],
      [
        "ĠGomes",
        -10.178151217753893
      ],
      [
        "Ġfazem",
        -10.17820561390694
      ],
      [
        "Ġhumano",
        -10.178401544234218
      ],
      [
        "Ġantiga",
        -10.179276649018838
      ],
      [
        "Ġpermitir",
        -10.179752985663765
      ],
      [
        "Ġcapaz",
        -10.179774719153166
      ],
      [
        "ĠGrosso",
        -10.180319217827012
      ],
      [
        "Ġsete",
        -10.180351514788358
      ],
      [
        "ĠFami",
        -10.180684246712962
      ],
      [
        "Ġinterior",
        -10.180756354090953
      ],
      [
        "ĠMunicipal",
        -10.180943995724093
      ],
      [
        "ĠConced",
        -10.181389771332164
      ],
      [
        "ĠMinistra",
        -10.182043669781097
      ],
      [
        "ĠQual",
        -10.18250542905438
      ],
      [
        "ĠLopes",
        -10.183037556829824
      ],
      [
        "ĠRS",
        -10.183601106570254
      ],
      [
        "Ġvaria",
        -10.183703122303912
      ],
      [
        "lon",
        -10.184174286418108
      ],
      [
        "dicos",
        -10.18479575569758
      ],
      [
        "CARLOS",
        -10.185260574830927
      ],
      [
        "ĠMilitar",
        -10.185357262900258
      ],
      [
        "Ġdeficie",
        -10.185507329489642
      ],
      [
        "ginas",
        -10.185807595319822
      ],
      [
        "Ġconclui",
        -10.186257398684113
      ],
      [
        "ĠRocha",
        -10.186799924384912
      ],
      [
        "Ġseguir",
        -10.186921393663376
      ],
      [
        "ncer",
        -10.187688149024067
      ],
      [
        "Ġameac",
        -10.18806758892062
      ],
      [
        "Ġdiscutir",
        -10.189561658049692
      ],
      [
        "__",
        -10.191072549890311
      ],
      [
        "2018",
        -10.19110666502323
      ],
      [
        "Ġconsiderada",
        -10.192252230581047
      ],
      [
        "ĠKo",
        -10.192313452240482
      ],
      [
        "Ġtroca",
        -10.193610524813645
      ],
      [
        "post",
        -10.193812935525038
      ],
      [
        "Pausa",
        -10.194511351284804
      ],
      [
        "Ġmelhores",
        -10.19470344298947
      ],
      [
        "ĠAprova",
        -10.195416233130013
      ],
      [
        "Ġconsidera",
        -10.195561215730365
      ],
      [
        "Ġadministrativa",
        -10.196489592470844
      ],
      [
        "ĠLista",
        -10.196562312872588
      ],
      [
        "ĠPARA",
        -10.197984430794378
      ],
      [
        "cida",
        -10.198641625609843
      ],
      [
        "riamente",
        -10.198911341023726
      ],
      [
        "Ġcolo",
        -10.198954012904249
      ],
      [
        "Ġcompromisso",
        -10.199360236875728
      ],
      [
        "GERAL",
        -10.199593193504295
      ],
      [
        "Ġescolas",
        -10.201013346606432
      ],
      [
        "Ġmento",
        -10.201833634572644
      ],
      [
        "Ġconversa",
        -10.201932851682429
      ],
      [
        "medidas",
        -10.202068380082274
      ],
      [
        "referido",
        -10.202444649958236
      ],
      [
        "Ġ1991",
        -10.202936396542311
      ],
      [
        "ĠPubli",
        -10.203292350895495
      ],
      [
        "52",
        -10.203994118943282
      ],
      [
        "Ġrelativa",
        -10.205045103671411
      ],
      [
        "Ġlocalizado",
        -10.205054786194909
      ],
      [
        "ĠCatarina",
        -10.20517216053248
      ],
      [
        "Ġacabou",
        -10.205238567049015
      ],
      [
        "Ġavaliac",
        -10.205535079536691
      ],
      [
        "ĠSol",
        -10.20711325226756
      ],
      [
        "Ġjovem",
        -10.20754532021308
      ],
      [
        "Ġpensa",
        -10.207695448032952
      ],
      [
        "Ġama",
        -10.207731844106448
      ],
      [
        "ĠSabe",
        -10.208035023964843
      ],
      [
        "exclusividade",
        -10.208865957974195
      ],
      [
        "ido",
        -10.209583888074295
      ],
      [
        "Ġconseguiu",
        -10.210034649765335
      ],
      [
        "Ġcompetic",
        -10.211145352075205
      ],
      [
        "Ġdiferente",
        -10.211807536279212
      ],
      [
        "pica",
        -10.21181842520284
      ],
      [
        "ionais",
        -10.212245174417845
      ],
      [
        "Ġquarto",
        -10.212559549940806
      ],
      [
        "Ġentrega",
        -10.213014574393604
      ],
      [
        "CN",
        -10.2132410524186
      ],
      [
        "mera",
        -10.214025303921249
      ],
      [
        "IDADE",
        -10.214124361320756
      ],
      [
        "exposto",
        -10.214355750171018
      ],
      [
        "NR",
        -10.214645698218384
      ],
      [
        "Apesar",
        -10.215785791765272
      ],
      [
        "Ġtomar",
        -10.21650732342643
      ],
      [
        "Ġrenova",
        -10.216697216160616
      ],
      [
        "leg",
        -10.217133769643551
      ],
      [
        "tivas",
        -10.217225171824332
      ],
      [
        "ĠVeja",
        -10.21723873737162
      ],
      [
        "Ġassumi",
        -10.217310418724566
      ],
      [
        "ĠOli",
        -10.21739004968557
      ],
      [
        "Ġcompleta",
        -10.217653905398684
      ],
      [
        "Ġestudos",
        -10.217684688886694
      ],
      [
        "Â",
        -10.217810778971469
      ],
      [
        "Ġatua",
        -10.218352858436829
      ],
      [
        "americana",
        -10.218673437891994
      ],
      [
        "CONSTITUIC",
        -10.218777641690762
      ],
      [
        "ĠProfessor",
        -10.21897625322097
      ],
      [
        "RG",
        -10.22003599843082
      ],
      [
        "ĠJudicia",
        -10.220496587095434
      ],
      [
        "ĠLUIZ",
        -10.220596102342954
      ],
      [
        "ontem",
        -10.220841459357043
      ],
      [
        "estabelecimento",
        -10.220964021819729
      ],
      [
        "Ġhonra",
        -10.221457788780516
      ],
      [
        "Ġ1995",
        -10.22194924738774
      ],
      [
        "MG",
        -10.222099681821987
      ],
      [
        "Ġfinanciamento",
        -10.222187722782266
      ],
      [
        "Estamos",
        -10.222343064751032
      ],
      [
        "Ġimprensa",
        -10.222362653779795
      ],
      [
        "Ġquantidade",
        -10.22252858982126
      ],
      [
        "Ġtentar",
        -10.22310923171496
      ],
      [
        "indicac",
        -10.223531916940898
      ],
      [
        "Na",
        -10.224615189053605
      ],
      [
        "gens",
        -10.224997819127172
      ],
      [
        "QUE",
        -10.225250719974929
      ],
      [
        "Maranha",
        -10.225514220502529
      ],
      [
        "]",
        -10.225906879007324
      ],
      [
        "rk",
        -10.226110898614715
      ],
      [
        "Ġquarta",
        -10.22775838813282
      ],
      [
        "Ł",
        -10.228240892334776
      ],
      [
        "Ġpatrimo",
        -10.22836839387278
      ],
      [
        "ĠLui",
        -10.22849866981386
      ],
      [
        "Ġcac",
        -10.229186956446616
      ],
      [
        "ĠFica",
        -10.230925264886784
      ],
      [
        "Ġreco",
        -10.231476487227386
      ],
      [
        "Ġ36",
        -10.231498837863713
      ],
      [
        "Ġouvi",
        -10.231587823491704
      ],
      [
        "Ġcompro",
        -10.232040526001834
      ],
      [
        "Ġpagar",
        -10.23207870221236
      ],
      [
        "militares",
        -10.234512637011294
      ],
      [
        "ham",
        -10.234525681243165
      ],
      [
        "ĠReco",
        -10.234673228063995
      ],
      [
        "ĠAlmeida",
        -10.235403777839128
      ],
      [
        "ĠMG",
        -10.23549718845254
      ],
      [
        "Ġestrate",
        -10.235584030478888
      ],
      [
        "ĠCidade",
        -10.235797121453851
      ],
      [
        "Ġcarro",
        -10.235962134078212
      ],
      [
        "Ġlocalizada",
        -10.2366785533316
      ],
      [
        "Ġunidades",
        -10.237638051310553
      ],
      [
        "ĠPelo",
        -10.238376951039536
      ],
      [
        "Ġganha",
        -10.2393817508836
      ],
      [
        "Ġbasead",
        -10.239443558052182
      ],
      [
        "Ġcomigo",
        -10.240205191879497
      ],
      [
        "Ġinicial",
        -10.240780806499265
      ],
      [
        "ĠUSP",
        -10.240954851811512
      ],
      [
        "falando",
        -10.241492930703124
      ],
      [
        "mir",
        -10.241815798111872
      ],
      [
        "Ġexatamente",
        -10.241914710261463
      ],
      [
        "ĠOla",
        -10.243215319326309
      ],
      [
        "tiveram",
        -10.244152757482276
      ],
      [
        "Ġcomissa",
        -10.244945807207651
      ],
      [
        "ĠRodrigues",
        -10.245051242060496
      ],
      [
        "ĠReal",
        -10.245271110325598
      ],
      [
        "grafia",
        -10.24533641591315
      ],
      [
        "Lideran",
        -10.245519044257165
      ],
      [
        "frica",
        -10.246186193452289
      ],
      [
        "atriz",
        -10.24671291409949
      ],
      [
        "Ġrodovia",
        -10.248657375327785
      ],
      [
        "ĠGrupo",
        -10.248950864624222
      ],
      [
        "Ġresultados",
        -10.25005819730282
      ],
      [
        "Ġconfi",
        -10.250136804760936
      ],
      [
        "ux",
        -10.250516341252302
      ],
      [
        "BE",
        -10.25106010607871
      ],
      [
        "lizac",
        -10.25172186955876
      ],
      [
        "nato",
        -10.252050812494373
      ],
      [
        "ħ",
        -10.252175705298027
      ],
      [
        "ĠCarvalho",
        -10.253157869935372
      ],
      [
        "corrupc",
        -10.254782722705414
      ],
      [
        "Ġhaja",
        -10.25549734591435
      ],
      [
        "Ġsubstitui",
        -10.255705738831688
      ],
      [
        "Ġjulgado",
        -10.25585022955577
      ],
      [
        "Ġtado",
        -10.255915890432554
      ],
      [
        "Ġfundamento",
        -10.256627746179111
      ],
      [
        "ĠSenhora",
        -10.256827920073473
      ],
      [
        "ambos",
        -10.257388911226416
      ],
      [
        "ĠToda",
        -10.257785275680588
      ],
      [
        "permissa",
        -10.25834122655486
      ],
      [
        "EM",
        -10.259303227863423
      ],
      [
        "nicos",
        -10.259570055436257
      ],
      [
        "Ġlicenc",
        -10.259611952236662
      ],
      [
        "ĠGoia",
        -10.259873371928936
      ],
      [
        "bairro",
        -10.259980004388195
      ],
      [
        "ĠPrevide",
        -10.261261800184984
      ],
      [
        "ĠSin",
        -10.261348012596825
      ],
      [
        "Ġpior",
        -10.262395111286414
      ],
      [
        "ĠQui",
        -10.262428566589731
      ],
      [
        "ĠMinha",
        -10.263917954837916
      ],
      [
        "Ġmundial",
        -10.264138933942402
      ],
      [
        "nus",
        -10.264543907480489
      ],
      [
        "diretamente",
        -10.264607831318804
      ],
      [
        "Ġ119",
        -10.264629549562692
      ],
      [
        "Ġprocedimento",
        -10.265174285333169
      ],
      [
        "chefe",
        -10.265326280868887
      ],
      [
        "Ġgosta",
        -10.265528584114527
      ],
      [
        "Ġinvestimento",
        -10.266558583547631
      ],
      [
        "SRA",
        -10.268082239395886
      ],
      [
        "ĠDaniel",
        -10.2683706161156
      ],
      [
        "Ġinfra",
        -10.268638557481346
      ],
      [
        "Ġacontece",
        -10.268732535269203
      ],
      [
        "rejeic",
        -10.269957301685228
      ],
      [
        "ÌĦ",
        -10.270787288798514
      ],
      [
        "Ġorientac",
        -10.270962419763176
      ],
      [
        "Ġestes",
        -10.27145210143327
      ],
      [
        "Ġencontro",
        -10.271752934506347
      ],
      [
        "Ġaberto",
        -10.272068439148978
      ],
      [
        "ĠLEGISLATIV",
        -10.272517427933028
      ],
      [
        "Ġestadual",
        -10.2726061676866
      ],
      [
        "Ġempre",
        -10.272840548422815
      ],
      [
        "ĠRegia",
        -10.272950877065243
      ],
      [
        "Ġclara",
        -10.273474919531324
      ],
      [
        "cies",
        -10.273662305847306
      ],
      [
        "Ġamericano",
        -10.274944327202304
      ],
      [
        "ficado",
        -10.275193651792568
      ],
      [
        "ĠOnde",
        -10.275458246134496
      ],
      [
        "ĠReino",
        -10.276749237176396
      ],
      [
        "Ġ01",
        -10.276889682475264
      ],
      [
        "ĠWikipe",
        -10.276945614878152
      ],
      [
        "ĠPI",
        -10.277223964985945
      ],
      [
        "Ġpaga",
        -10.27732939647612
      ],
      [
        "ĠAugusto",
        -10.277467459867175
      ],
      [
        "licitac",
        -10.277548484021326
      ],
      [
        "lico",
        -10.277577849281084
      ],
      [
        "Ġvivo",
        -10.278330178973528
      ],
      [
        "ĠRelac",
        -10.278331610072652
      ],
      [
        "PL",
        -10.279556296493618
      ],
      [
        "Ġestabelecer",
        -10.279561299374558
      ],
      [
        "ĠART",
        -10.280135323552187
      ],
      [
        "deres",
        -10.280650244880968
      ],
      [
        "leo",
        -10.281143380850786
      ],
      [
        "Ġagra",
        -10.28119129771031
      ],
      [
        "Ġfigura",
        -10.281824326112664
      ],
      [
        "plica",
        -10.282021842548804
      ],
      [
        "atribuic",
        -10.282540282122854
      ],
      [
        "ĠNordeste",
        -10.282874029219805
      ],
      [
        "Ġfinanceiro",
        -10.282957485493592
      ],
      [
        "Ġ48",
        -10.283116989991566
      ],
      [
        "ĠLU",
        -10.283356792240951
      ],
      [
        "Seguranc",
        -10.283407212630722
      ],
      [
        "rita",
        -10.283542067484872
      ],
      [
        "Ġposto",
        -10.283686603910846
      ],
      [
        "enda",
        -10.284691765042204
      ],
      [
        "Talvez",
        -10.28556510527064
      ],
      [
        "ĠSI",
        -10.286164065872471
      ],
      [
        "ĠSuper",
        -10.286660238269723
      ],
      [
        "Ġgrau",
        -10.286723444088668
      ],
      [
        "bia",
        -10.286973293852997
      ],
      [
        "ĠEstadual",
        -10.28726242738808
      ],
      [
        "impacto",
        -10.287310979504332
      ],
      [
        "Ġmerece",
        -10.287972803078198
      ],
      [
        "somos",
        -10.288004285146544
      ],
      [
        "Ġcomenta",
        -10.288015232493546
      ],
      [
        "efeitos",
        -10.288288074982871
      ],
      [
        "Figueiredo",
        -10.288600654388407
      ],
      [
        "Ġ80",
        -10.288807999292256
      ],
      [
        "Ġ(...)",
        -10.290192900452643
      ],
      [
        "izou",
        -10.290203808564335
      ],
      [
        "Ġconhece",
        -10.290204969763172
      ],
      [
        "ĠDECRET",
        -10.290544859369632
      ],
      [
        "Ġqua",
        -10.29064216747804
      ],
      [
        "ĠDis",
        -10.29110440665166
      ],
      [
        "ĠNelson",
        -10.291764083525958
      ],
      [
        "Ġpalavras",
        -10.291979708576449
      ],
      [
        "ĠSer",
        -10.292550550278516
      ],
      [
        "ĠSec",
        -10.292847938806885
      ],
      [
        "Ġbanco",
        -10.293099371459226
      ],
      [
        "atualmente",
        -10.293458978191548
      ],
      [
        "ĠQUE",
        -10.29367554438896
      ],
      [
        "Ġevitar",
        -10.2937142688873
      ],
      [
        "Teixeira",
        -10.293932151452765
      ],
      [
        "Ġvive",
        -10.295778464081897
      ],
      [
        "ĠOu",
        -10.296281199566527
      ],
      [
        "Ġdocumento",
        -10.296565902184634
      ],
      [
        "ĠFlo",
        -10.297061536276583
      ],
      [
        "ĠFazenda",
        -10.29730875201328
      ],
      [
        "ela",
        -10.298651019853072
      ],
      [
        "Ġpublicada",
        -10.299924650279548
      ],
      [
        "Discussa",
        -10.300153336036912
      ],
      [
        "ĠMon",
        -10.300436742382312
      ],
      [
        "Ġshow",
        -10.30052174239828
      ],
      [
        "Ġjudicial",
        -10.300802399279346
      ],
      [
        "Ġcentral",
        -10.300862758980914
      ],
      [
        "DF",
        -10.301944897302576
      ],
      [
        "Ġfui",
        -10.30259798682073
      ],
      [
        "Ġjoga",
        -10.3044524581358
      ],
      [
        "Ġataque",
        -10.305460306305465
      ],
      [
        "ĠDesde",
        -10.305945493010324
      ],
      [
        "Ġesti",
        -10.30624535808622
      ],
      [
        "ricos",
        -10.306373198754804
      ],
      [
        "ĠCre",
        -10.306596214090282
      ],
      [
        "ZA",
        -10.306776486893003
      ],
      [
        "levou",
        -10.307212142070252
      ],
      [
        "cito",
        -10.307824836806873
      ],
      [
        "ĠRO",
        -10.307886645192518
      ],
      [
        "Ġmedi",
        -10.30841138579966
      ],
      [
        "ĠNew",
        -10.308758126070618
      ],
      [
        "Ġpetro",
        -10.309063112388724
      ],
      [
        "Ġprocura",
        -10.309084574895255
      ],
      [
        "alunos",
        -10.309328061401246
      ],
      [
        "Ġanimais",
        -10.309511796944618
      ],
      [
        "ĠFutebol",
        -10.309802326400472
      ],
      [
        "ĠPla",
        -10.311140026358702
      ],
      [
        "Ġabaixo",
        -10.312638985556028
      ],
      [
        "Li",
        -10.31275075359205
      ],
      [
        "EIRA",
        -10.312959841310644
      ],
      [
        "deira",
        -10.313560625739989
      ],
      [
        "Ġtrabalha",
        -10.314072665894097
      ],
      [
        "ĠEspi",
        -10.31450106723046
      ],
      [
        "Ġestilo",
        -10.314553127795389
      ],
      [
        "Ġjurisprude",
        -10.314576557974794
      ],
      [
        "federai",
        -10.314593715087108
      ],
      [
        "Ġdisponi",
        -10.31479506687828
      ],
      [
        "ED",
        -10.315358367235302
      ],
      [
        "ĠChina",
        -10.31538300317888
      ],
      [
        "tz",
        -10.315436416475618
      ],
      [
        "Ġrua",
        -10.315680922310854
      ],
      [
        "requisitos",
        -10.315690715196531
      ],
      [
        "Ġpreso",
        -10.315894357246538
      ],
      [
        "Ġquilo",
        -10.316895566233262
      ],
      [
        "licitante",
        -10.31801166065477
      ],
      [
        "ĠTemo",
        -10.318367162481252
      ],
      [
        "neo",
        -10.318815351975088
      ],
      [
        "Ġtraz",
        -10.319536400249696
      ],
      [
        "criada",
        -10.31956956071252
      ],
      [
        "Ġqui",
        -10.319584500893152
      ],
      [
        "ĠNossa",
        -10.320179744824792
      ],
      [
        "ĠAge",
        -10.32095314463853
      ],
      [
        "ney",
        -10.321207860347622
      ],
      [
        "PI",
        -10.321574772807152
      ],
      [
        "Ġaparece",
        -10.322292227185937
      ],
      [
        "ĠAlberto",
        -10.322377645022986
      ],
      [
        "ĠAure",
        -10.323262759374243
      ],
      [
        "lizado",
        -10.323340465247488
      ],
      [
        "xico",
        -10.3235391083486
      ],
      [
        "Ġentrevista",
        -10.323678634189289
      ],
      [
        "Ġmanha",
        -10.32370873973422
      ],
      [
        "ĠRequer",
        -10.323897714746447
      ],
      [
        "Ġadvogado",
        -10.32408650840956
      ],
      [
        "Ġmemo",
        -10.32414191067969
      ],
      [
        "ĠRodrigo",
        -10.324297902898271
      ],
      [
        "Ġmudar",
        -10.325082321016115
      ],
      [
        "Ġpretende",
        -10.325422361359845
      ],
      [
        "Ġterc",
        -10.325625854556735
      ],
      [
        "quia",
        -10.326040890206071
      ],
      [
        "Ġ1988",
        -10.327090464197
      ],
      [
        "Sessa",
        -10.328082061665382
      ],
      [
        "ĠAlemanha",
        -10.328367959046917
      ],
      [
        "ĠMundo",
        -10.328559603186152
      ],
      [
        "ĠPp",
        -10.328563275796975
      ],
      [
        "Ġespera",
        -10.32863886684716
      ],
      [
        "Ġpedir",
        -10.33088086885684
      ],
      [
        "Ġ*",
        -10.331166060377258
      ],
      [
        "tenc",
        -10.331291303496917
      ],
      [
        "Ġacidente",
        -10.331857851331744
      ],
      [
        "ĠSerra",
        -10.331983302942533
      ],
      [
        "Ġvice",
        -10.332965895211164
      ],
      [
        "lis",
        -10.33423172307088
      ],
      [
        "Ġmesa",
        -10.334423882511572
      ],
      [
        "ĠMichel",
        -10.334491625929198
      ],
      [
        "Ġatender",
        -10.334691226264916
      ],
      [
        "Ġdemocracia",
        -10.3350004481913
      ],
      [
        "Ġoferece",
        -10.335724544167643
      ],
      [
        "ĠAh",
        -10.336072123566824
      ],
      [
        "ĠForc",
        -10.33679624936551
      ],
      [
        "burg",
        -10.33710207762698
      ],
      [
        "Ġmetros",
        -10.33715351278702
      ],
      [
        "Ġdistrito",
        -10.337237690950923
      ],
      [
        "ĠDepu",
        -10.337502085962331
      ],
      [
        "Ġapa",
        -10.337564236773623
      ],
      [
        "ngue",
        -10.337874665391
      ],
      [
        "Ġrural",
        -10.33819584504204
      ],
      [
        "Ġrece",
        -10.338217427680414
      ],
      [
        "Ġanual",
        -10.338809720407795
      ],
      [
        "Ġexplorar",
        -10.338820511012852
      ],
      [
        "EUA",
        -10.338992676016453
      ],
      [
        "Ġresulta",
        -10.339088309896512
      ],
      [
        "PSL",
        -10.339356653324876
      ],
      [
        "Ġdetermina",
        -10.339579683340888
      ],
      [
        "Ġfesta",
        -10.33960564236468
      ],
      [
        "ĠRede",
        -10.340074859860747
      ],
      [
        "ĠJesus",
        -10.340609396678117
      ],
      [
        "Ġguarda",
        -10.340742718846744
      ],
      [
        "Ġfeliz",
        -10.341298040066436
      ],
      [
        "ĠAlexandre",
        -10.341310981032228
      ],
      [
        "ĠFer",
        -10.341662142513076
      ],
      [
        "Ġgol",
        -10.342087188520706
      ],
      [
        "Ġinicia",
        -10.342095533330612
      ],
      [
        "virtude",
        -10.342346730080084
      ],
      [
        "Ġilha",
        -10.34364313370586
      ],
      [
        "Resoluc",
        -10.343985810388824
      ],
      [
        "ĠPra",
        -10.344907896380732
      ],
      [
        "Ġjornalista",
        -10.34500128528416
      ],
      [
        "Ġdeciso",
        -10.345275957092202
      ],
      [
        "preocupac",
        -10.34534770817627
      ],
      [
        "ĠMarcos",
        -10.34544806512704
      ],
      [
        "fronteira",
        -10.345963460539751
      ],
      [
        "Ġabsoluta",
        -10.346579540133868
      ],
      [
        "Ġdista",
        -10.347246933259973
      ],
      [
        "ĠLisboa",
        -10.347604632866046
      ],
      [
        "Ħ",
        -10.34803999510534
      ],
      [
        "ĠFundac",
        -10.348720448450326
      ],
      [
        "ĠCol",
        -10.348782495253692
      ],
      [
        "ĠZa",
        -10.348941593320284
      ],
      [
        "Ġimagem",
        -10.348991924596223
      ],
      [
        "Ġenca",
        -10.349502808778729
      ],
      [
        "decreto",
        -10.349584879504066
      ],
      [
        "Ġquebra",
        -10.349669073885003
      ],
      [
        "Ġatribui",
        -10.34976352542452
      ],
      [
        "ĠArthur",
        -10.3511134567158
      ],
      [
        "ĠVai",
        -10.351385910281785
      ],
      [
        "Ġ49",
        -10.35267115973226
      ],
      [
        "Ġconcurso",
        -10.353167002472196
      ],
      [
        "apresentou",
        -10.353663033337092
      ],
      [
        "Ġzona",
        -10.353942804865628
      ],
      [
        "imagens",
        -10.354173146607582
      ],
      [
        "nunciou",
        -10.354347883745096
      ],
      [
        "Ġtenta",
        -10.35464454374885
      ],
      [
        "pico",
        -10.35470927446997
      ],
      [
        "Ġconseguir",
        -10.355621524305832
      ],
      [
        "ĠMarc",
        -10.355682418804392
      ],
      [
        "Ġsecreta",
        -10.355821737662614
      ],
      [
        "Ġconve",
        -10.356263978926489
      ],
      [
        "privado",
        -10.35632223591994
      ],
      [
        "Ġinve",
        -10.35645727212763
      ],
      [
        "Departamento",
        -10.357457918751996
      ],
      [
        "ele",
        -10.357688327310829
      ],
      [
        "ĠCeara",
        -10.359205411448674
      ],
      [
        "Ġindica",
        -10.360254387793116
      ],
      [
        "Ġurge",
        -10.360769643569386
      ],
      [
        "Ġunidade",
        -10.360872045418295
      ],
      [
        "*",
        -10.361204510543107
      ],
      [
        "ĠImpe",
        -10.361418157758566
      ],
      [
        "Ġjui",
        -10.36201264081073
      ],
      [
        "Ġatende",
        -10.362152995498937
      ],
      [
        "ĠMen",
        -10.362192275521418
      ],
      [
        "Ġcai",
        -10.36253555804756
      ],
      [
        "Ġpromover",
        -10.362932661706038
      ],
      [
        "Ġface",
        -10.362940953148096
      ],
      [
        "trecho",
        -10.36311399648762
      ],
      [
        "Ġopinia",
        -10.363305460771612
      ],
      [
        "ĠLegislativa",
        -10.363449054699307
      ],
      [
        "Ġparticipa",
        -10.36360063842736
      ],
      [
        "Mor",
        -10.364858973234202
      ],
      [
        "Ġtermina",
        -10.364947728983864
      ],
      [
        "Ġtrabalhador",
        -10.365710045566004
      ],
      [
        "Ġdestaca",
        -10.366209925581686
      ],
      [
        "cadas",
        -10.366375306689465
      ],
      [
        "Ġdemonstra",
        -10.366784372916786
      ],
      [
        "Ġretorno",
        -10.366974246994252
      ],
      [
        "oeste",
        -10.367006992138888
      ],
      [
        "Ġigreja",
        -10.367452785597465
      ],
      [
        "Ġ45",
        -10.367762569732667
      ],
      [
        "Ġentende",
        -10.367783191878676
      ],
      [
        "ĠSobre",
        -10.367973265418106
      ],
      [
        "ĠAcre",
        -10.36801618413465
      ],
      [
        "ĠBoa",
        -10.368154642095034
      ],
      [
        "velmente",
        -10.368258487445992
      ],
      [
        "Ġetc",
        -10.368431946724275
      ],
      [
        "Ġconceito",
        -10.368476346554491
      ],
      [
        "ĠDESPACH",
        -10.369117304901534
      ],
      [
        "ĠSera",
        -10.36921442047593
      ],
      [
        "Proposic",
        -10.369311280605173
      ],
      [
        "Ġgera",
        -10.369488046435263
      ],
      [
        "Ġobrigato",
        -10.369600655536708
      ],
      [
        "Ġdireto",
        -10.369634698058748
      ],
      [
        "vemos",
        -10.369996856923448
      ],
      [
        "Ġjustic",
        -10.371018305020112
      ],
      [
        "Geraldo",
        -10.37111293081296
      ],
      [
        "Ġcontas",
        -10.373076929380003
      ],
      [
        "Ġreside",
        -10.37311736867033
      ],
      [
        "Ġprima",
        -10.373359057233014
      ],
      [
        "Ġexigi",
        -10.373549355326627
      ],
      [
        "Ġseguro",
        -10.37363099525182
      ],
      [
        "Ġprovoc",
        -10.37493210538438
      ],
      [
        "Ġtive",
        -10.375261622811903
      ],
      [
        "Ġbra",
        -10.375554478456312
      ],
      [
        "Ġentender",
        -10.375843165480418
      ],
      [
        "·",
        -10.37714126075187
      ],
      [
        "regras",
        -10.3774864182753
      ],
      [
        "sol",
        -10.377817001433836
      ],
      [
        "Ï",
        -10.377856365380588
      ],
      [
        "usada",
        -10.378456038555594
      ],
      [
        "Ġconsegue",
        -10.378484780423868
      ],
      [
        "rida",
        -10.378698266389735
      ],
      [
        "Ġfreque",
        -10.378722930025058
      ],
      [
        "esta",
        -10.37971838398353
      ],
      [
        "Ġatingi",
        -10.379910512726184
      ],
      [
        "PSB",
        -10.380118428289896
      ],
      [
        "bora",
        -10.381244419194466
      ],
      [
        "ĠVista",
        -10.381291866835983
      ],
      [
        "Ġ[",
        -10.382176941587405
      ],
      [
        "Ġamanha",
        -10.382444951785306
      ],
      [
        "Ġdiminui",
        -10.382461372282194
      ],
      [
        "Jogos",
        -10.382502652914065
      ],
      [
        "Ġpreve",
        -10.382702318431162
      ],
      [
        "ung",
        -10.383943830825157
      ],
      [
        "ĠParis",
        -10.384259017041437
      ],
      [
        "Ġambiental",
        -10.385473414979376
      ],
      [
        "www",
        -10.38563486498326
      ],
      [
        "Ġconsiderac",
        -10.385752572488984
      ],
      [
        "Ġsom",
        -10.386920708654651
      ],
      [
        "Ġjogador",
        -10.38723116345016
      ],
      [
        "Ġ90",
        -10.387451001085829
      ],
      [
        "ĠBal",
        -10.387859119554896
      ],
      [
        "ĠOUTR",
        -10.38791139664182
      ],
      [
        "juros",
        -10.388056105531437
      ],
      [
        "Ġselec",
        -10.388140811396545
      ],
      [
        "ĠAltera",
        -10.388708366294797
      ],
      [
        "substitutivo",
        -10.389092502861033
      ],
      [
        "Ġfiz",
        -10.38911938583961
      ],
      [
        "apensado",
        -10.389363647223844
      ],
      [
        "mia",
        -10.389467334915816
      ],
      [
        "ĠQuanto",
        -10.389708771221883
      ],
      [
        "ĠQuer",
        -10.389894981082133
      ],
      [
        "Con",
        -10.39132982414902
      ],
      [
        "lista",
        -10.39234730681747
      ],
      [
        "Ġage",
        -10.392527414503638
      ],
      [
        "Moreira",
        -10.393763015898026
      ],
      [
        "rb",
        -10.394699147814984
      ],
      [
        "PDT",
        -10.396018855975075
      ],
      [
        "In",
        -10.396019320679368
      ],
      [
        "NS",
        -10.39789741550395
      ],
      [
        "nacionais",
        -10.398257486628022
      ],
      [
        "aqueles",
        -10.399122888669089
      ],
      [
        "Ġcarga",
        -10.39914352803089
      ],
      [
        "org",
        -10.399314038531555
      ],
      [
        "parceria",
        -10.399337731656026
      ],
      [
        "Ġouvir",
        -10.39998592864363
      ],
      [
        "ico",
        -10.400000763629588
      ],
      [
        "Ġ1993",
        -10.400107696797171
      ],
      [
        "Ġdefende",
        -10.400705221546716
      ],
      [
        "berg",
        -10.401000543151806
      ],
      [
        "Ĩ",
        -10.40160917225
      ],
      [
        "ĠWal",
        -10.401801767612008
      ],
      [
        "rez",
        -10.402345864749377
      ],
      [
        "Ġitem",
        -10.402421853542013
      ],
      [
        "°",
        -10.402524241708322
      ],
      [
        "tomada",
        -10.402604076742415
      ],
      [
        "Ġbrita",
        -10.403090776974798
      ],
      [
        "Ġleitura",
        -10.40331913498664
      ],
      [
        "eiros",
        -10.403586982703896
      ],
      [
        "Ġfrance",
        -10.404235791596236
      ],
      [
        "fiscalizac",
        -10.404396401952816
      ],
      [
        "Ġvontade",
        -10.404833510855902
      ],
      [
        "ligac",
        -10.404835676567844
      ],
      [
        "Ġtorno",
        -10.405046431472948
      ],
      [
        "Ġdemocra",
        -10.405884059868402
      ],
      [
        "Proposta",
        -10.405998037296674
      ],
      [
        "ĠRei",
        -10.406048481323769
      ],
      [
        "nicas",
        -10.406970693987343
      ],
      [
        "ĠAgrav",
        -10.407919885408443
      ],
      [
        "Ġarmas",
        -10.408280736090411
      ],
      [
        "Ġdaqui",
        -10.40886540102102
      ],
      [
        "MARA",
        -10.409743566621588
      ],
      [
        "contratac",
        -10.410045838963034
      ],
      [
        "Ġquinta",
        -10.410238191497657
      ],
      [
        "mulo",
        -10.41082291821428
      ],
      [
        "ĠCruz",
        -10.410892321065957
      ],
      [
        "Ġdivisa",
        -10.410921020228711
      ],
      [
        "Ġhumana",
        -10.41146398584923
      ],
      [
        "Ġjuiz",
        -10.41154196575679
      ],
      [
        "Ġ|",
        -10.412608115668936
      ],
      [
        "ĠFederac",
        -10.412699968798403
      ],
      [
        "ĠNeste",
        -10.413011483566676
      ],
      [
        "Ġprodutor",
        -10.413398204875984
      ],
      [
        "referida",
        -10.413478444127511
      ],
      [
        "Ġ02",
        -10.413768972090914
      ],
      [
        "Ġeventos",
        -10.413854847400856
      ],
      [
        "Ġcuidado",
        -10.41418256860826
      ],
      [
        "Ġvinte",
        -10.414246841986554
      ],
      [
        "Ġcorpus",
        -10.415277258531113
      ],
      [
        "ssia",
        -10.415399669344966
      ],
      [
        "Ġderrota",
        -10.415904276718434
      ],
      [
        "ĠRoge",
        -10.417256038694916
      ],
      [
        "possam",
        -10.418126317475794
      ],
      [
        "Ġfoto",
        -10.41818588005322
      ],
      [
        "Ġamplia",
        -10.418329019859696
      ],
      [
        "Ġ1994",
        -10.418336041178945
      ],
      [
        "gravada",
        -10.418340697680176
      ],
      [
        "Ġdispor",
        -10.41906648651462
      ],
      [
        "Ġopc",
        -10.419686804888746
      ],
      [
        "TOR",
        -10.419811125148655
      ],
      [
        "Ġcompanhia",
        -10.419889101944335
      ],
      [
        "Ġpermanece",
        -10.420710157191197
      ],
      [
        "retirada",
        -10.421313983607645
      ],
      [
        "elli",
        -10.423491210337406
      ],
      [
        "zen",
        -10.42371186333766
      ],
      [
        "agentes",
        -10.423981656409753
      ],
      [
        "etapa",
        -10.424020917903622
      ],
      [
        "Ġapre",
        -10.424331893360495
      ],
      [
        "ĠParlamento",
        -10.42473447329362
      ],
      [
        "ĠMil",
        -10.425234338416525
      ],
      [
        "consumo",
        -10.425584680154484
      ],
      [
        "Ġdevo",
        -10.425727639581268
      ],
      [
        "NAL",
        -10.425794687852235
      ],
      [
        "ĠParai",
        -10.426652182688915
      ],
      [
        "Ġregistrado",
        -10.427080148488914
      ],
      [
        "Ġcapita",
        -10.42724656117419
      ],
      [
        "genas",
        -10.42813409301828
      ],
      [
        "Ġoferta",
        -10.428322668384702
      ],
      [
        "Ġpais",
        -10.428519722083363
      ],
      [
        "Ġcomemora",
        -10.428630583992216
      ],
      [
        "Ġgosto",
        -10.4287524554856
      ],
      [
        "ĠVila",
        -10.42886311760641
      ],
      [
        "zer",
        -10.429195708682812
      ],
      [
        "Ġvoz",
        -10.429241327995433
      ],
      [
        "Barbosa",
        -10.429254338858687
      ],
      [
        "NIA",
        -10.429473934103047
      ],
      [
        "Ġesteja",
        -10.4300343301013
      ],
      [
        "Ġrespectiva",
        -10.430345396166889
      ],
      [
        "ĠNeto",
        -10.430487158907397
      ],
      [
        "ĠAprecia",
        -10.430491257068974
      ],
      [
        "Ġapro",
        -10.430750821899624
      ],
      [
        "extensa",
        -10.431380020778212
      ],
      [
        "constitucionai",
        -10.431688505195895
      ],
      [
        "precisamos",
        -10.43204427091527
      ],
      [
        "ĠWi",
        -10.432116612566343
      ],
      [
        "ĠKe",
        -10.432650610745153
      ],
      [
        "Ġtinham",
        -10.432872564200482
      ],
      [
        "Ġ53",
        -10.433108919408912
      ],
      [
        "ĠMeio",
        -10.433124007798536
      ],
      [
        "Ġ55",
        -10.433356083325464
      ],
      [
        "contexto",
        -10.43364819569942
      ],
      [
        "Ġescolha",
        -10.433969851777777
      ],
      [
        "ĠRegional",
        -10.434827542923836
      ],
      [
        "ĠAmazonas",
        -10.43533659323754
      ],
      [
        "DEPUTADO",
        -10.435446537369849
      ],
      [
        "Ġapura",
        -10.435615249544885
      ],
      [
        "Magalha",
        -10.436017541036744
      ],
      [
        "versa",
        -10.436305935894318
      ],
      [
        "VO",
        -10.436421399460691
      ],
      [
        "Ġinternacionais",
        -10.436481370945318
      ],
      [
        "Ġvelho",
        -10.437085630863898
      ],
      [
        "ET",
        -10.43716905362063
      ],
      [
        "bado",
        -10.437267841381018
      ],
      [
        "ric",
        -10.43762645447096
      ],
      [
        "Ġcoloca",
        -10.43771419836638
      ],
      [
        "udio",
        -10.43810049180452
      ],
      [
        "Ġdecorre",
        -10.438791698613334
      ],
      [
        "BRA",
        -10.438959207795676
      ],
      [
        "gresso",
        -10.439008188816882
      ],
      [
        "tinho",
        -10.439099984247228
      ],
      [
        "desempenho",
        -10.439469788720748
      ],
      [
        "bus",
        -10.439521194095583
      ],
      [
        "Ġfogo",
        -10.440116005800428
      ],
      [
        "Ī",
        -10.440681275467965
      ],
      [
        "ĠJapa",
        -10.441024153086252
      ],
      [
        "Ġcomando",
        -10.441193535463013
      ],
      [
        "Ġesposa",
        -10.441316400963109
      ],
      [
        "Ġcorac",
        -10.441817349693386
      ],
      [
        "Ġeleitoral",
        -10.442194108461145
      ],
      [
        "ganhou",
        -10.44222785460938
      ],
      [
        "Ġsexta",
        -10.442235570416871
      ],
      [
        "Pro",
        -10.442490037941742
      ],
      [
        "polis",
        -10.444423664144953
      ],
      [
        "Ġampla",
        -10.446099454473837
      ],
      [
        "Ġreferente",
        -10.446389722328597
      ],
      [
        "Ġviu",
        -10.44754498471952
      ],
      [
        "lite",
        -10.447813473529056
      ],
      [
        "micas",
        -10.447977352635183
      ],
      [
        "Ġcorte",
        -10.448022263568424
      ],
      [
        "Ġ64",
        -10.44907250406076
      ],
      [
        "gicos",
        -10.449245234231284
      ],
      [
        "Ġdela",
        -10.449708983376366
      ],
      [
        "Ġtentativa",
        -10.449779782904622
      ],
      [
        "Ġposse",
        -10.450008472592204
      ],
      [
        "2020",
        -10.450156159635627
      ],
      [
        "reconhecimento",
        -10.450957450714116
      ],
      [
        "Ġrelator",
        -10.451058478934716
      ],
      [
        "ĠSte",
        -10.45130980504232
      ],
      [
        "postos",
        -10.451623097491618
      ],
      [
        "Ġincide",
        -10.45172121074163
      ],
      [
        "http",
        -10.451764542409263
      ],
      [
        "ocorreu",
        -10.4518198169331
      ],
      [
        "sobretudo",
        -10.45191130765484
      ],
      [
        "Ġofi",
        -10.45199403169265
      ],
      [
        "ĠIsto",
        -10.452216665584617
      ],
      [
        "ĠPan",
        -10.45224780438741
      ],
      [
        "ĠPRE",
        -10.452948844569685
      ],
      [
        "Ġobserva",
        -10.45323685525484
      ],
      [
        "zinho",
        -10.453433207817987
      ],
      [
        "havend",
        -10.453886364503392
      ],
      [
        "ĠColo",
        -10.455011368552167
      ],
      [
        "ĠPRIMEIR",
        -10.456029731713931
      ],
      [
        "Ġcursos",
        -10.45608507331712
      ],
      [
        "vista",
        -10.456971445750389
      ],
      [
        "Ġutilizado",
        -10.457082652414124
      ],
      [
        "tante",
        -10.457376515331118
      ],
      [
        "Ġlivros",
        -10.457468216882624
      ],
      [
        "ĠPessoa",
        -10.457619994578232
      ],
      [
        "ĠBarros",
        -10.457698298836268
      ],
      [
        "Ġmilha",
        -10.45779144689628
      ],
      [
        "apelo",
        -10.457889118525928
      ],
      [
        "Ġtransfere",
        -10.45845491047776
      ],
      [
        "habea",
        -10.458578698337366
      ],
      [
        "ĠCarreira",
        -10.458829705016743
      ],
      [
        "Ġaumenta",
        -10.45909367649089
      ],
      [
        "Ġseque",
        -10.459173234648809
      ],
      [
        "cedentes",
        -10.45920461957298
      ],
      [
        "ĠAli",
        -10.460442056008928
      ],
      [
        "ĠClaro",
        -10.461174650407743
      ],
      [
        "Ĵ",
        -10.46159102674807
      ],
      [
        "ĠJOA",
        -10.461613708120934
      ],
      [
        "ĠMO",
        -10.46191647486879
      ],
      [
        "ĠExterior",
        -10.462913232305596
      ],
      [
        "convidado",
        -10.464967286927266
      ],
      [
        "Vi",
        -10.465362563701586
      ],
      [
        "pula",
        -10.466173232303992
      ],
      [
        "Ġconhec",
        -10.46646702683446
      ],
      [
        "¾",
        -10.466579154724435
      ],
      [
        "Ġassinatura",
        -10.46680341688702
      ],
      [
        "ica",
        -10.4668251158499
      ],
      [
        "Ġ58",
        -10.466848151924369
      ],
      [
        "Ġinu",
        -10.467984925866766
      ],
      [
        "Ġquiser",
        -10.469167884586316
      ],
      [
        "ĠCPI",
        -10.469189384235412
      ],
      [
        "ĠFolha",
        -10.469364099173175
      ],
      [
        "ĠExe",
        -10.4697207167746
      ],
      [
        "Ġconfirm",
        -10.470190334248516
      ],
      [
        "ĠFerreira",
        -10.470303836363806
      ],
      [
        "Ġconsumidor",
        -10.47174435346944
      ],
      [
        "Ġprivada",
        -10.471755576073388
      ],
      [
        "Ġexposic",
        -10.471953898309
      ],
      [
        "Ġexterior",
        -10.472004444112567
      ],
      [
        "Enquanto",
        -10.472024137799371
      ],
      [
        "ĠEli",
        -10.472150026799946
      ],
      [
        "ĠDra",
        -10.472502081177725
      ],
      [
        "ĠConstitucional",
        -10.472515552131409
      ],
      [
        "ĠNac",
        -10.472744907883811
      ],
      [
        "Ġexplorac",
        -10.473506411160695
      ],
      [
        "metade",
        -10.473783101586028
      ],
      [
        "Ġtende",
        -10.473897368975464
      ],
      [
        "Ġcultural",
        -10.47427736934317
      ],
      [
        "equipamentos",
        -10.475161730171369
      ],
      [
        "Ġfamiliar",
        -10.476359436282271
      ],
      [
        "sicos",
        -10.476473149806752
      ],
      [
        "Ġconseque",
        -10.47737372173019
      ],
      [
        "ficos",
        -10.477498115897566
      ],
      [
        "Ġservi",
        -10.477634229743972
      ],
      [
        "Ġaceita",
        -10.479027556480965
      ],
      [
        "Ġdade",
        -10.479489625370428
      ],
      [
        "plant",
        -10.480184658949073
      ],
      [
        "ĠAma",
        -10.480244409701536
      ],
      [
        "Ġvencedor",
        -10.4802770679538
      ],
      [
        "ĠMARCO",
        -10.48052877557817
      ],
      [
        "Ġcontato",
        -10.48104796128556
      ],
      [
        "Ġfixa",
        -10.481070813706028
      ],
      [
        "conclusa",
        -10.481613863676312
      ],
      [
        "ĠVirgi",
        -10.48181670724914
      ],
      [
        "Ġterceira",
        -10.482298816404509
      ],
      [
        "elementos",
        -10.483536007047768
      ],
      [
        ".............",
        -10.48426764047943
      ],
      [
        "ĠUni",
        -10.484603699162736
      ],
      [
        "Ġbebe",
        -10.48529319620041
      ],
      [
        "Ġdiploma",
        -10.485737546487664
      ],
      [
        "ĠMello",
        -10.48596010459062
      ],
      [
        "ESTADO",
        -10.485980690537811
      ],
      [
        "ĠNada",
        -10.48617240558084
      ],
      [
        "Ġsauda",
        -10.48625383862268
      ],
      [
        "existente",
        -10.486995962432472
      ],
      [
        "Ġcima",
        -10.487199988193485
      ],
      [
        "Ġauxi",
        -10.487720538735068
      ],
      [
        "ĠEspanha",
        -10.48775972443793
      ],
      [
        "Ġinteiro",
        -10.488181347066837
      ],
      [
        "ĠCorre",
        -10.488212725916236
      ],
      [
        "Ġpersonagem",
        -10.48844438156214
      ],
      [
        "funcionamento",
        -10.488488974118347
      ],
      [
        "PB",
        -10.488970675536937
      ],
      [
        "Ġmorreu",
        -10.489013828380306
      ],
      [
        "Ġimo",
        -10.489247575937672
      ],
      [
        "Ġcampea",
        -10.489362266482564
      ],
      [
        "Ġsabia",
        -10.489655371476436
      ],
      [
        "Ġveja",
        -10.490179473265815
      ],
      [
        "Outra",
        -10.490237643031396
      ],
      [
        "Ġproduzir",
        -10.490353077505391
      ],
      [
        "Ġ62",
        -10.49138321364834
      ],
      [
        "RN",
        -10.491681856342517
      ],
      [
        "mantid",
        -10.491712931943177
      ],
      [
        "ĠVito",
        -10.491773780398976
      ],
      [
        "Ġprefeito",
        -10.492815682727985
      ],
      [
        "policiais",
        -10.492937974461558
      ],
      [
        "nsul",
        -10.493139239538936
      ],
      [
        "Embora",
        -10.494476198394407
      ],
      [
        "ĠEdita",
        -10.49612208910976
      ],
      [
        "ĠClube",
        -10.496368767982966
      ],
      [
        "trinta",
        -10.496854962759173
      ],
      [
        "Ġpermanente",
        -10.497423872891044
      ],
      [
        "Ġ46",
        -10.4978443279959
      ],
      [
        "nis",
        -10.497878140671808
      ],
      [
        "Ġindividual",
        -10.49890177065457
      ],
      [
        "negociac",
        -10.499808083956966
      ],
      [
        "ĠParlamentare",
        -10.499891589391384
      ],
      [
        "ENTE",
        -10.50002703288524
      ],
      [
        "ĠMelhor",
        -10.500358635588828
      ],
      [
        "Ġadministrativo",
        -10.500575626334356
      ],
      [
        "ĠAto",
        -10.500988306189436
      ],
      [
        "Ġcrista",
        -10.501320162551862
      ],
      [
        "suspensa",
        -10.5014650984684
      ],
      [
        "humanos",
        -10.50158626150281
      ],
      [
        "Ġmedo",
        -10.501803457937948
      ],
      [
        "Ġcur",
        -10.50202733181404
      ],
      [
        "ĠYork",
        -10.502361589547728
      ],
      [
        "Ġadolescente",
        -10.502793072356692
      ],
      [
        "Ġ1992",
        -10.502923545762204
      ],
      [
        "finalidade",
        -10.503246844166178
      ],
      [
        "Ġ52",
        -10.504030384130218
      ],
      [
        "Ġimplica",
        -10.50406111158293
      ],
      [
        "Ġdeterminado",
        -10.504065279093492
      ],
      [
        "Assunto",
        -10.504299303207064
      ],
      [
        "ĠMuseu",
        -10.504349842088605
      ],
      [
        "ĠPala",
        -10.505815655794573
      ],
      [
        "Sarney",
        -10.506426000761024
      ],
      [
        "Ġ39",
        -10.50664206227242
      ],
      [
        "Ġfloresta",
        -10.50737135513134
      ],
      [
        "investimentos",
        -10.50745777397606
      ],
      [
        "Ġintenc",
        -10.507526651548766
      ],
      [
        "Ġpaz",
        -10.507688645270145
      ],
      [
        "fizeram",
        -10.508094425842042
      ],
      [
        "ĠVida",
        -10.508101892015103
      ],
      [
        "Couto",
        -10.508590032845945
      ],
      [
        "ĠParte",
        -10.508765987684177
      ],
[...]
