{
  "version": "1.0",
  "truncation": {
    "direction": "Right",
    "max_length": 1024,
    "strategy": "LongestFirst",
    "stride": 0
  },
  "padding": null,
  "added_tokens": [
    {
      "id": 0,
      "content": "[PAD]",
      "single_word": false,
      "lstrip": false,
      "rstrip": false,
      "normalized": false,
      "special": true
    },
    {
      "id": 1,
      "content": "[SEP]",
      "single_word": false,
      "lstrip": false,
      "rstrip": false,
      "normalized": false,
      "special": true
    },
    {
      "id": 2,
      "content": "[EOS]",
      "single_word": false,
      "lstrip": false,
      "rstrip": false,
      "normalized": false,
      "special": true
    },
    {
      "id": 3,
      "content": "[UNK]",
      "single_word": false,
      "lstrip": false,
      "rstrip": false,
      "normalized": false,
      "special": true
    }
  ],
  "normalizer": {
    "type": "Sequence",
    "normalizers": [
      {
        "type": "Strip",
        "strip_left": true,
        "strip_right": true
      },
      {
        "type": "NFKC"
      }
    ]
  },
  "pre_tokenizer": {
    "type": "ByteLevel",
    "add_prefix_space": true,
    "trim_offsets": true,
    "use_regex": true
  },
  "post_processor": {
    "type": "Sequence",
    "processors": [
      {
        "type": "ByteLevel",
        "add_prefix_space": true,
        "trim_offsets": true,
        "use_regex": true
      },
      {
        "type": "TemplateProcessing",
        "single": [
          {
            "Sequence": {
              "id": "A",
              "type_id": 0
            }
          },
          {
            "SpecialToken": {
              "id": "[EOS]",
              "type_id": 0
            }
          }
        ],
        "pair": [
          {
            "Sequence": {
              "id": "A",
              "type_id": 0
            }
          },
          {
            "SpecialToken": {
              "id": "[SEP]",
              "type_id": 0
            }
          },
          {
            "Sequence": {
              "id": "B",
              "type_id": 0
            }
          },
          {
            "SpecialToken": {
              "id": "[EOS]",
              "type_id": 0
            }
          }
        ],
        "special_tokens": {
          "[EOS]": {
            "id": "[EOS]",
            "ids": [
              2
            ],
            "tokens": [
              "[EOS]"
            ]
          },
          "[SEP]": {
            "id": "[SEP]",
            "ids": [
              1
            ],
            "tokens": [
              "[SEP]"
            ]
          }
        }
      }
    ]
  },
  "decoder": {
    "type": "ByteLevel",
    "add_prefix_space": true,
    "trim_offsets": true,
    "use_regex": true
  },
  "model": {
    "type": "Unigram",
    "unk_id": 3,
    "vocab": [
      [
        "[PAD]",
        0.0
      ],
      [
        "[SEP]",
        0.0
      ],
      [
        "[EOS]",
        0.0
      ],
      [
        "[UNK]",
        0.0
      ],
      [
        "Ġ",
        -2.0755153974909533
      ],
      [
        ",",
        -3.2576343731640947
      ],
      [
        ".",
        -3.468661588603968
      ],
      [
        "s",
        -3.4948293889640887
      ],
      [
        "Ġde",
        -3.571402066200694
      ],
      [
        "a",
        -3.613668179048243
      ],
      [
        "o",
        -3.761120484028318
      ],
      [
        "e",
        -3.769618172714931
      ],
      [
        "-",
        -4.5245216746765315
      ],
      [
        "Ġque",
        -4.569924080171717
      ],
      [
        "Ġdo",
        -4.5865789682780616
      ],
      [
        "r",
        -4.761745227183308
      ],
      [
        "Ġda",
        -4.764328782173244
      ],
      [
        "u",
        -4.857769888953424
      ],
      [
        "Ġem",
        -5.1464095428577075
      ],
      [
        "m",
        -5.262203056495142
      ],
      [
        "\"",
        -5.27491878694504
      ],
      [
        "Ġno",
        -5.27972327906685
      ],
      [
        "Ġ(",
        -5.352327908448128
      ],
      [
        "Ġpara",
        -5.368472554827889
      ],
      [
        "i",
        -5.482645786231068
      ],
      [
        "Ġcom",
        -5.499361783316868
      ],
      [
        ")",
        -5.5011100926927945
      ],
      [
        "n",
        -5.520841084837407
      ],
      [
        "ĠA",
        -5.57254024215586
      ],
      [
        "p",
        -5.631811956875822
      ],
      [
        "c",
        -5.653045728498583
      ],
      [
        "t",
        -5.693025023997228
      ],
      [
        ":",
        -5.6946243623129185
      ],
      [
        "Ġum",
        -5.730937394798097
      ],
      [
        "ĠO",
        -5.731008547162066
      ],
      [
        "ĠÃ©",
        -5.731652839379256
      ],
      [
        "ĠâĢĵ",
        -5.732986932205872
      ],
      [
        "/",
        -5.736770528502731
      ],
      [
        "Ġna",
        -5.773323131143455
      ],
      [
        "l",
        -5.812595263265065
      ],
      [
        "ĠnÃ£o",
        -5.824942079456498
      ],
      [
        "do",
        -5.848450129386201
      ],
      [
        "Ġuma",
        -5.924602036543307
      ],
      [
        "Ġpor",
        -5.9464541945996885
      ],
      [
        "Ġos",
        -5.988406589483292
      ],
      [
        "da",
        -6.005044114614648
      ],
      [
        "Ġao",
        -6.118828869676076
      ],
      [
        "Ã§Ã£o",
        -6.131049033476522
      ],
      [
        "Ġse",
        -6.131494684028523
      ],
      [
        "d",
        -6.141560642543743
      ],
      [
        "b",
        -6.171849837117607
      ],
      [
        "g",
        -6.2086008042623675
      ],
      [
        "A",
        -6.227517735198509
      ],
      [
        "Ġdos",
        -6.2562871711422865
      ],
      [
        "Ġas",
        -6.311500899675979
      ],
      [
        "Ġcomo",
        -6.32994612197651
      ],
      [
        "?",
        -6.338472249688024
      ],
      [
        "ĠÃł",
        -6.339008347264109
      ],
      [
        "h",
        -6.3899418087714785
      ],
      [
        "ndo",
        -6.417975663975705
      ],
      [
        "ta",
        -6.434685002697975
      ],
      [
        "S",
        -6.449858255578935
      ],
      [
        "co",
        -6.466186087085404
      ],
      [
        "Ġfoi",
        -6.484131689042194
      ],
      [
        "ra",
        -6.506995506675006
      ],
      [
        "ĠS",
        -6.531355503413604
      ],
      [
        "O",
        -6.542093870036766
      ],
      [
        "!",
        -6.544519676316389
      ],
      [
        "Ġmais",
        -6.552603838368228
      ],
      [
        "ĠE",
        -6.599457216271579
      ],
      [
        "to",
        -6.629501364325339
      ],
      [
        "f",
        -6.655400164998261
      ],
      [
        "se",
        -6.674129102529703
      ],
      [
        "Ġou",
        -6.677924044213148
      ],
      [
        ";",
        -6.681631496706666
      ],
      [
        "ti",
        -6.693916724601616
      ],
      [
        "Ġpela",
        -6.705323540763539
      ],
      [
        "ĠDE",
        -6.715984472863374
      ],
      [
        "Ġ1",
        -6.758760287392855
      ],
      [
        "y",
        -6.759592487650002
      ],
      [
        "Ġpelo",
        -6.774905051086932
      ],
      [
        "ĠNo",
        -6.7913673029049235
      ],
      [
        "Ġsua",
        -6.791734034077033
      ],
      [
        "la",
        -6.794469153036461
      ],
      [
        "ri",
        -6.797570308976249
      ],
      [
        "................",
        -6.7983954128389215
      ],
      [
        "7",
        -6.820728193218493
      ],
      [
        "C",
        -6.837354599645689
      ],
      [
        "Ġdas",
        -6.83893216763788
      ],
      [
        "en",
        -6.841355761021955
      ],
      [
        "ar",
        -6.870010018799848
      ],
      [
        "ĠSr",
        -6.87022473996344
      ],
      [
        "li",
        -6.872676928048213
      ],
      [
        "Ġser",
        -6.875337629452872
      ],
      [
        "ou",
        -6.877752086646165
      ],
      [
        "v",
        -6.884676126556604
      ],
      [
        "na",
        -6.8883533510582495
      ],
      [
        "dos",
        -6.899288213339059
      ],
      [
        "Ġre",
        -6.904799732168561
      ],
      [
        "de",
        -6.909047969345936
      ],
      [
        "z",
        -6.918055626975548
      ],
      [
        "lo",
        -6.919681807838346
      ],
      [
        "is",
        -6.934546120323946
      ],
      [
        "6",
        -6.934918932266617
      ],
      [
        "ĠP",
        -6.937589816965836
      ],
      [
        "Ġsobre",
        -6.939650447068409
      ],
      [
        "...",
        -6.943420862152665
      ],
      [
        "Ã£o",
        -6.943908366392138
      ],
      [
        "mente",
        -6.958101182507212
      ],
      [
        "va",
        -6.971543551619236
      ],
      [
        "ĠC",
        -6.979864992622529
      ],
      [
        "Ã¡",
        -6.981241952325314
      ],
      [
        "di",
        -6.985596148309352
      ],
      [
        "mos",
        -6.995008337061494
      ],
      [
        "2",
        -7.005372046324489
      ],
      [
        "os",
        -7.006375646636121
      ],
      [
        "ca",
        -7.007858636513465
      ],
      [
        "8",
        -7.008820661412225
      ],
      [
        "1",
        -7.022442260822139
      ],
      [
        "ĠâĢľ",
        -7.035347756434538
      ],
      [
        "I",
        -7.036722552446317
      ],
      [
        "Ġseu",
        -7.045016379569978
      ],
      [
        "te",
        -7.051485450284421
      ],
      [
        "Ġ2",
        -7.065768694707076
      ],
      [
        "T",
        -7.088022312865061
      ],
      [
        "ĠPresidente",
        -7.091009098238398
      ],
      [
        "ĠestÃ¡",
        -7.10484742981143
      ],
      [
        "ÃŃ",
        -7.1073688471559535
      ],
      [
        "ĠNÃ£o",
        -7.119646025759719
      ],
      [
        "ĠtambÃ©m",
        -7.131187277219015
      ],
      [
        "ĠEm",
        -7.138270256984924
      ],
      [
        "ĠLei",
        -7.147752798943875
      ],
      [
        "al",
        -7.154481977844819
      ],
      [
        "5",
        -7.154916937511553
      ],
      [
        "Ã§Ãµes",
        -7.168816717740773
      ],
      [
        "em",
        -7.179208407240852
      ],
      [
        "Ġnos",
        -7.185832005174722
      ],
      [
        "ci",
        -7.203213184520605
      ],
      [
        "in",
        -7.217913281329032
      ],
      [
        "Ã©",
        -7.227497722304431
      ],
      [
        "ram",
        -7.22797518666259
      ],
      [
        "Ġ19",
        -7.228861033613933
      ],
      [
        "ĠI",
        -7.230126620590355
      ],
      [
        "ĠF",
        -7.232347637348287
      ],
      [
        "das",
        -7.233126988184276
      ],
      [
        "Ġtem",
        -7.2348933574149505
      ],
      [
        "Ġeu",
        -7.236848184781186
      ],
      [
        "ĠDeputado",
        -7.239137602468931
      ],
      [
        "P",
        -7.242177546623388
      ],
      [
        "Ġmas",
        -7.245246423018901
      ],
      [
        "ĠV",
        -7.254579465177891
      ],
      [
        "R",
        -7.25545828636778
      ],
      [
        "E",
        -7.267049831634457
      ],
      [
        "D",
        -7.276379629250302
      ],
      [
        "ni",
        -7.276610187323072
      ],
      [
        "am",
        -7.277164683442697
      ],
      [
        "L",
        -7.280888950932747
      ],
      [
        "x",
        -7.286584414802576
      ],
      [
        "3",
        -7.2896447917061185
      ],
      [
        "ve",
        -7.296994379944648
      ],
      [
        "U",
        -7.302264669630061
      ],
      [
        "ĠR",
        -7.3029673561217745
      ],
      [
        "Ġele",
        -7.307072288042965
      ],
      [
        "Ġin",
        -7.309136600432979
      ],
      [
        "le",
        -7.313099502386192
      ],
      [
        "4",
        -7.343918482772466
      ],
      [
        "Ġ3",
        -7.3552065233554735
      ],
      [
        "ga",
        -7.359701241512868
      ],
      [
        "ĠsÃ£o",
        -7.367753622360793
      ],
      [
        "Ġart",
        -7.371555993737324
      ],
      [
        "ĠSR",
        -7.38077778287037
      ],
      [
        "ĠFederal",
        -7.39420585608053
      ],
      [
        "Ã³",
        -7.3950584481279105
      ],
      [
        "ĠÃī",
        -7.399669160932787
      ],
      [
        "B",
        -7.399798728413327
      ],
      [
        "Ġisso",
        -7.408978762971277
      ],
      [
        "no",
        -7.410438062702323
      ],
      [
        "as",
        -7.42298897532835
      ],
      [
        "),",
        -7.431349161385095
      ],
      [
        "Ġanos",
        -7.434503655606639
      ],
      [
        "ĠBrasil",
        -7.444947752504312
      ],
      [
        "M",
        -7.452634541822952
      ],
      [
        "ĠEstado",
        -7.454905409170555
      ],
      [
        "k",
        -7.456921355272156
      ],
      [
        "9",
        -7.461135588087135
      ],
      [
        "Ġme",
        -7.461221763173974
      ],
      [
        "ia",
        -7.469304911952625
      ],
      [
        "ĠSenador",
        -7.477957070034302
      ],
      [
        "Ġentre",
        -7.50006249570481
      ],
      [
        ").",
        -7.512563383243361
      ],
      [
        "F",
        -7.518571914155141
      ],
      [
        "ĠvocÃª",
        -7.518905881000075
      ],
      [
        "go",
        -7.520049616190706
      ],
      [
        "ĠEu",
        -7.520105081257764
      ],
      [
        "ĠDe",
        -7.521879980882375
      ],
      [
        "que",
        -7.535750300208564
      ],
      [
        "Ġmuito",
        -7.535934706185271
      ],
      [
        "vi",
        -7.564649635413922
      ],
      [
        "ir",
        -7.586776736259958
      ],
      [
        "er",
        -7.5894401831518525
      ],
      [
        "ĠatÃ©",
        -7.589950521251671
      ],
      [
        "ter",
        -7.59079394962736
      ],
      [
        "ĠjÃ¡",
        -7.592381976347459
      ],
      [
        "%",
        -7.593540882379285
      ],
      [
        "Ġ4",
        -7.600494218477596
      ],
      [
        "idade",
        -7.612070545658103
      ],
      [
        "N",
        -7.623698127710064
      ],
      [
        "Ġforma",
        -7.624230302487527
      ],
      [
        "res",
        -7.643622841215136
      ],
      [
        "ĠComissÃ£o",
        -7.646474078447333
      ],
      [
        "Ġaos",
        -7.658721711109907
      ],
      [
        "(",
        -7.6657697480188
      ],
      [
        "Ġbem",
        -7.670424783539069
      ],
      [
        "Ġpode",
        -7.679639352243351
      ],
      [
        "Ġ5",
        -7.6805596148740385
      ],
      [
        "min",
        -7.695831585814945
      ],
      [
        "ria",
        -7.696246558981219
      ],
      [
        "0",
        -7.714331659582872
      ],
      [
        "ĠT",
        -7.717185720233976
      ],
      [
        "Ġ6",
        -7.719180241506752
      ],
      [
        "ĠB",
        -7.72727374497536
      ],
      [
        "ch",
        -7.72735148216325
      ],
      [
        "Ġquando",
        -7.729601863875955
      ],
      [
        "bi",
        -7.7317132059761775
      ],
      [
        "ĠNa",
        -7.74594516538712
      ],
      [
        "Ġsem",
        -7.7491891158922
      ],
      [
        "Ġaqui",
        -7.751562380490347
      ],
      [
        "Ġcon",
        -7.754054441208391
      ],
      [
        "nte",
        -7.7573451379067695
      ],
      [
        "\",",
        -7.76001767811336
      ],
      [
        "w",
        -7.760300508160745
      ],
      [
        "Ġmesmo",
        -7.76036147244149
      ],
      [
        "ĠNacional",
        -7.770908329286739
      ],
      [
        "gi",
        -7.774588502780809
      ],
      [
        "ĠSe",
        -7.776232615075667
      ],
      [
        "Ġ7",
        -7.778410759914932
      ],
      [
        "ĠPor",
        -7.778770853967199
      ],
      [
        "fi",
        -7.782269623209961
      ],
      [
        "V",
        -7.788536139536888
      ],
      [
        "ĠRe",
        -7.793752322618499
      ],
      [
        "Ġ10",
        -7.805839616620716
      ],
      [
        "ĠÂ§",
        -7.811382831801557
      ],
      [
        "Ġtodos",
        -7.813767352992006
      ],
      [
        "ver",
        -7.821047042053753
      ],
      [
        "Ġdia",
        -7.822296927686418
      ],
      [
        "G",
        -7.825777952309448
      ],
      [
        "Ġ8",
        -7.828891377706956
      ],
      [
        "Ġainda",
        -7.832856840049281
      ],
      [
        "ĠG",
        -7.840213889035708
      ],
      [
        "ĠSÃ£o",
        -7.841763562159445
      ],
      [
        "Ġcontra",
        -7.845731443862704
      ],
      [
        "Ġpro",
        -7.859461731812132
      ],
      [
        "Ġ18",
        -7.860852175582512
      ],
      [
        "Ġter",
        -7.862327242353212
      ],
      [
        "Ġseus",
        -7.863691906029951
      ],
      [
        "za",
        -7.864736948635613
      ],
      [
        "um",
        -7.865110777844821
      ],
      [
        "Ġesta",
        -7.884003987443068
      ],
      [
        "âĢĿ.",
        -7.891952773830125
      ],
      [
        "Ġera",
        -7.896433991176137
      ],
      [
        "Ġparte",
        -7.902191449491799
      ],
      [
        "Ġcidade",
        -7.909186384570297
      ],
      [
        "Ġforam",
        -7.917336733629217
      ],
      [
        "Ġex",
        -7.918209227974659
      ],
      [
        "Ã",
        -7.920621334882128
      ],
      [
        "Ġfazer",
        -7.926370492211159
      ],
      [
        "ĠPaulo",
        -7.931106447194862
      ],
      [
        "Ġcaso",
        -7.937100248180181
      ],
      [
        "ĠhÃ¡",
        -7.937859799356666
      ],
      [
        "im",
        -7.939932087203564
      ],
      [
        "Ġano",
        -7.942971169199401
      ],
      [
        "ĠCom",
        -7.956520600252926
      ],
      [
        "ntes",
        -7.962152398811501
      ],
      [
        "Ġessa",
        -7.9711255531559235
      ],
      [
        "ĠPL",
        -7.971182561866161
      ],
      [
        "Ġtempo",
        -7.988858364157416
      ],
      [
        "ĠD",
        -7.995530540670703
      ],
      [
        "br",
        -7.999286678152771
      ],
      [
        "Ġesse",
        -7.999416665051765
      ],
      [
        "PRESIDENTE",
        -8.021607825547866
      ],
      [
        "ĠÃłs",
        -8.024364680586508
      ],
      [
        "Ãª",
        -8.024598640500908
      ],
      [
        "PROJETO",
        -8.0281606725901
      ],
      [
        "ĠM",
        -8.02832278385918
      ],
      [
        "Ġseja",
        -8.032863739418456
      ],
      [
        "Ġpre",
        -8.036802264389303
      ],
      [
        "Ġvai",
        -8.036960387838613
      ],
      [
        "ĠLEI",
        -8.049762246448443
      ],
      [
        "mento",
        -8.054946563276554
      ],
      [
        "Ġporque",
        -8.057262586587724
      ],
      [
        "Ġmeu",
        -8.058597552121249
      ],
      [
        "ĠsÃ³",
        -8.061627398347305
      ],
      [
        "ĠMas",
        -8.06295991731326
      ],
      [
        "nd",
        -8.064404295893192
      ],
      [
        "qui",
        -8.065413314972062
      ],
      [
        "ĠDeputados",
        -8.071264486398581
      ],
      [
        "Ġnas",
        -8.078436616193452
      ],
      [
        "Ġprimeiro",
        -8.07900476151426
      ],
      [
        "ĠEle",
        -8.086617463345442
      ],
      [
        "Ġela",
        -8.090566812457162
      ],
      [
        "ina",
        -8.092685223332516
      ],
      [
        "il",
        -8.094914868627992
      ],
      [
        "ĠOs",
        -8.100158749202555
      ],
      [
        "RELATOR",
        -8.108939178173399
      ],
      [
        "tar",
        -8.111168226138517
      ],
      [
        "ĠGoverno",
        -8.112194462086231
      ],
      [
        "H",
        -8.113138502574522
      ],
      [
        "aÃ§Ã£o",
        -8.113564964531086
      ],
      [
        "ente",
        -8.114371982634925
      ],
      [
        "Ġonde",
        -8.1153934741903
      ],
      [
        "ĠMinistro",
        -8.115930628966318
      ],
      [
        "âĢĿ",
        -8.11660643268627
      ],
      [
        "j",
        -8.118475333874882
      ],
      [
        "00",
        -8.122602008466565
      ],
      [
        "ĠConstituiÃ§Ã£o",
        -8.127477174911741
      ],
      [
        "ĠVocÃª",
        -8.12962570638673
      ],
      [
        "Ġgrande",
        -8.13454239546266
      ],
      [
        "Ãº",
        -8.13497182535973
      ],
      [
        "Ġpessoas",
        -8.137751494079158
      ],
      [
        "'",
        -8.139966235186495
      ],
      [
        "Ġvez",
        -8.14789424752511
      ],
      [
        "Ġoutros",
        -8.155203267149139
      ],
      [
        "Ġartigo",
        -8.161959352912174
      ],
      [
        "cio",
        -8.16217119164207
      ],
      [
        "ĠSenhor",
        -8.162648666759758
      ],
      [
        "tor",
        -8.16396913869078
      ],
      [
        "per",
        -8.167488451979917
      ],
      [
        "Ġ11",
        -8.17169330397524
      ],
      [
        "ĠDo",
        -8.17242077045519
      ],
      [
        "ES",
        -8.17340393371714
      ],
      [
        "ĠestÃ£o",
        -8.174906396128055
      ],
      [
        "Ġapenas",
        -8.176782546567814
      ],
      [
        "Ġtrabalho",
        -8.178624360870929
      ],
      [
        "Ġoutras",
        -8.183349923939268
      ],
      [
        "Ġ9",
        -8.18458252472698
      ],
      [
        "ĠCÃ¢mara",
        -8.189685768516458
      ],
      [
        "19",
        -8.189908598630145
      ],
      [
        "ĠnÃ³s",
        -8.192302157117755
      ],
      [
        "ja",
        -8.200668406059835
      ],
      [
        "ĠArt",
        -8.202051088121829
      ],
      [
        "Ġ12",
        -8.205560548267503
      ],
      [
        "Ġsendo",
        -8.215061088034178
      ],
      [
        "Ġ15",
        -8.218235353240903
      ],
      [
        "tos",
        -8.218790745741027
      ],
      [
        "ĠK",
        -8.219002002202528
      ],
      [
        "rÃ¡",
        -8.224428954354583
      ],
      [
        "Ġlei",
        -8.225620232013004
      ],
      [
        "ĠRio",
        -8.226106384422836
      ],
      [
        "Ġdois",
        -8.230590384575946
      ],
      [
        "Ġordem",
        -8.23202663904336
      ],
      [
        "Ġnosso",
        -8.232754516695545
      ],
      [
        "Ġsuas",
        -8.238836932343098
      ],
      [
        "Ġeste",
        -8.240869401694075
      ],
      [
        "ĠProjeto",
        -8.241929477588425
      ],
      [
        "ĠJ",
        -8.242048517067957
      ],
      [
        "ĠII",
        -8.248509096768755
      ],
      [
        "ĠW",
        -8.249699060439356
      ],
      [
        "ĠIn",
        -8.258650751445845
      ],
      [
        "Ġnome",
        -8.261818331283509
      ],
      [
        "10",
        -8.263662580620474
      ],
      [
        "ĠCasa",
        -8.264029388613574
      ],
      [
        "Ġminha",
        -8.273200495431668
      ],
      [
        "Ġmaior",
        -8.276529993956807
      ],
      [
        "Ġhoje",
        -8.276557005727891
      ],
      [
        "ĠpÃºblica",
        -8.277114230829682
      ],
      [
        "ĠPara",
        -8.277672585985572
      ],
      [
        "Ãµes",
        -8.278771483815209
      ],
      [
        "ing",
        -8.27982335958158
      ],
      [
        "Ġdesta",
        -8.280826672654594
      ],
      [
        "Ġtermos",
        -8.284536819913898
      ],
      [
        "est",
        -8.285514766988404
      ],
      [
        "ĠserÃ¡",
        -8.287092645508915
      ],
      [
        "ĠserviÃ§o",
        -8.290488032827584
      ],
      [
        "ista",
        -8.291246353588429
      ],
      [
        "Ġprocesso",
        -8.293509246419866
      ],
      [
        "ĠReferÃªncias",
        -8.294444248237225
      ],
      [
        "Ġmeio",
        -8.297937930947619
      ],
      [
        "ĠSenado",
        -8.298224037621662
      ],
      [
        "Ġassim",
        -8.301837618206973
      ],
      [
        "ĠDO",
        -8.30487183396003
      ],
      [
        "Ġma",
        -8.307107197672751
      ],
      [
        "Ãªncia",
        -8.31053246336861
      ],
      [
        "rem",
        -8.311055758914973
      ],
      [
        "Ġprojeto",
        -8.312621070570195
      ],
      [
        "Ġ17",
        -8.318140215537092
      ],
      [
        "lha",
        -8.31918482953162
      ],
      [
        "PSDB",
        -8.322128654322281
      ],
      [
        "Ġvi",
        -8.322269088576265
      ],
      [
        "ck",
        -8.322858853275157
      ],
      [
        "ĠL",
        -8.325272462758894
      ],
      [
        "Ġ16",
        -8.327366678773783
      ],
      [
        "Ġqual",
        -8.32764986124714
      ],
      [
        "cia",
        -8.335446530318924
      ],
      [
        "11",
        -8.342265042806531
      ],
      [
        "nha",
        -8.34629354069148
      ],
      [
        "it",
        -8.346409008660842
      ],
      [
        "ita",
        -8.351510014836888
      ],
      [
        "Ġvida",
        -8.355023711877678
      ],
      [
        "Ġdireito",
        -8.360398778437562
      ],
      [
        "ĠComo",
        -8.362019374230384
      ],
      [
        "ĠpolÃŃtica",
        -8.364377251753348
      ],
      [
        "ĠLa",
        -8.365905450439106
      ],
      [
        "Ġprimeira",
        -8.369280489368297
      ],
      [
        "Ġdisse",
        -8.37595880061537
      ],
      [
        "$",
        -8.3763030495055
      ],
      [
        "rei",
        -8.378044132020806
      ],
      [
        "Ġqualquer",
        -8.38007798330498
      ],
      [
        "ĠDa",
        -8.384645790150765
      ],
      [
        "ĠTribunal",
        -8.385273946973745
      ],
      [
        "Ġseguinte",
        -8.389809793077617
      ],
      [
        "ĠSem",
        -8.39001411046455
      ],
      [
        "Ġdeste",
        -8.390278127065212
      ],
      [
        "ĠâĢ¢",
        -8.393287588633255
      ],
      [
        "Ġ20",
        -8.393391644332894
      ],
      [
        "ĠAl",
        -8.394990717225348
      ],
      [
        "ica",
        -8.39668958520779
      ],
      [
        "ĠJosÃ©",
        -8.396962287036184
      ],
      [
        "ĠVi",
        -8.399563034607553
      ],
      [
        "Ġmelhor",
        -8.402629194128423
      ],
      [
        "car",
        -8.405078093288536
      ],
      [
        "Ġvoto",
        -8.407559016213762
      ],
      [
        "ĠÃ¡rea",
        -8.408005431130436
      ],
      [
        "Ġdi",
        -8.409171167409813
      ],
      [
        "ĠPaÃŃs",
        -8.412744734606921
      ],
      [
        "ĠLi",
        -8.41388865854961
      ],
      [
        "Ġpalavra",
        -8.414319267423346
      ],
      [
        "Ġacordo",
        -8.41655327742581
      ],
      [
        "ĠDA",
        -8.422391331273255
      ],
      [
        "Ġsistema",
        -8.423740529997175
      ],
      [
        "Ġ13",
        -8.423802054738811
      ],
      [
        "Ġtodo",
        -8.424817062566301
      ],
      [
        "Ġdepois",
        -8.42538977000329
      ],
      [
        "09",
        -8.429576110716079
      ],
      [
        "ĠAs",
        -8.4312980067937
      ],
      [
        "ĠRo",
        -8.4342087638278
      ],
      [
        "ismo",
        -8.441477165952929
      ],
      [
        "Ġ14",
        -8.44202159647839
      ],
      [
        "ĠCon",
        -8.44273216770697
      ],
      [
        "ĠMinistÃ©rio",
        -8.44419081505618
      ],
      [
        "tal",
        -8.445634279446589
      ],
      [
        "ĠN",
        -8.446047931132098
      ],
      [
        "Ġprazo",
        -8.448897892503
      ],
      [
        "ĠpÃºblico",
        -8.449487229067767
      ],
      [
        "man",
        -8.45084974447604
      ],
      [
        "aÃ§Ãµes",
        -8.456186683808411
      ],
      [
        "ĠCarlos",
        -8.457202563789492
      ],
      [
        "Ġcada",
        -8.460822707483311
      ],
      [
        "ĠSim",
        -8.461589888594048
      ],
      [
        "ĠapÃ³s",
        -8.465640837480622
      ],
      [
        "dor",
        -8.469573821092798
      ],
      [
        "ĠRelator",
        -8.46963261006086
      ],
      [
        "dores",
        -8.469693745467863
      ],
      [
        "Ġper",
        -8.471094517865412
      ],
      [
        "Ġagora",
        -8.475153531949173
      ],
      [
        "J",
        -8.47588267741192
      ],
      [
        "ĠPT",
        -8.478435295718306
      ],
      [
        "Ġpresente",
        -8.479039541882718
      ],
      [
        "Ã§a",
        -8.479398009246877
      ],
      [
        "MA",
        -8.482501519976664
      ],
      [
        "ĠH",
        -8.483132629046482
      ],
      [
        "Ġsob",
        -8.494202565340558
      ],
      [
        "q",
        -8.495956905140156
      ],
      [
        "Ġimportante",
        -8.499055787813116
      ],
      [
        "ge",
        -8.501738916756093
      ],
      [
        "ando",
        -8.503308255874565
      ],
      [
        "Ġato",
        -8.505205807627759
      ],
      [
        "Bloco",
        -8.509697737073562
      ],
      [
        "ĠRepÃºblica",
        -8.509850452234671
      ],
      [
        "Ġsegundo",
        -8.514189486751162
      ],
      [
        "tri",
        -8.514885439619349
      ],
      [
        "ĠMar",
        -8.515124840738173
      ],
      [
        "Ġmundo",
        -8.517292811330462
      ],
      [
        "cha",
        -8.51999385624346
      ],
      [
        "durante",
        -8.521734205673885
      ],
      [
        "Ġdizer",
        -8.52222680846014
      ],
      [
        "Ġdeve",
        -8.523899279370593
      ],
      [
        "Ġmil",
        -8.524128202518794
      ],
      [
        "ĠMo",
        -8.527169467362771
      ],
      [
        "th",
        -8.529417263360077
      ],
      [
        "ncia",
        -8.53170362692449
      ],
      [
        "ĠMa",
        -8.531833865295338
      ],
      [
        "AL",
        -8.533595496411538
      ],
      [
        "der",
        -8.534367038708078
      ],
      [
        "AS",
        -8.534820022533173
      ],
      [
        "Ġnossa",
        -8.536198933117882
      ],
      [
        "Ã§o",
        -8.543107798312326
      ],
      [
        "ĠmatÃ©ria",
        -8.543876443873316
      ],
      [
        "_",
        -8.546415924213049
      ],
      [
        "ĠCa",
        -8.548273982669754
      ],
      [
        "ĠJustiÃ§a",
        -8.549270292614732
      ],
      [
        "Ġestava",
        -8.556884839369465
      ],
      [
        "fer",
        -8.557840145041288
      ],
      [
        "ros",
        -8.55819801466363
      ],
      [
        "tiva",
        -8.559156465025321
      ],
      [
        "com",
        -8.559289083095464
      ],
      [
        "Ġsido",
        -8.561288981091606
      ],
      [
        "sse",
        -8.56178412546622
      ],
      [
        "Z",
        -8.563403745238997
      ],
      [
        "12",
        -8.566963326177122
      ],
      [
        "Ġrecursos",
        -8.567223749453122
      ],
      [
        "ĠEstados",
        -8.570313594648635
      ],
      [
        "dezembro",
        -8.571347790550565
      ],
      [
        "ĠLe",
        -8.574314559039234
      ],
      [
        "decisÃ£o",
        -8.583801055243788
      ],
      [
        "ĠtrÃªs",
        -8.590444903260485
      ],
      [
        "DO",
        -8.59052562892284
      ],
      [
        "ten",
        -8.592483169583275
      ],
      [
        "Ġpartir",
        -8.59322901376753
      ],
      [
        "20",
        -8.595446848696291
      ],
      [
        "Ġoutro",
        -8.595754890189768
      ],
      [
        "Ġcasa",
        -8.596002892172676
      ],
      [
        "lar",
        -8.597069728012537
      ],
      [
        "Ġantes",
        -8.59761962637619
      ],
      [
        "Ġtudo",
        -8.601919303648254
      ],
      [
        "Ġver",
        -8.6033115540759
      ],
      [
        "OS",
        -8.604007245819082
      ],
      [
        "=",
        -8.604095197062934
      ],
      [
        "orador",
        -8.606876306670923
      ],
      [
        "ĠentÃ£o",
        -8.607141805918335
      ],
      [
        "Ġfato",
        -8.608128786516943
      ],
      [
        "con",
        -8.615212059813834
      ],
      [
        "ĠnÃºmero",
        -8.619435680981205
      ],
      [
        "Ì",
        -8.622281337870177
      ],
      [
        "Ġprograma",
        -8.622754679966798
      ],
      [
        "mar",
        -8.625026015589725
      ],
      [
        "Ġvalor",
        -8.625201675006824
      ],
      [
        "Ġmomento",
        -8.625328992931102
      ],
      [
        "Ġpo",
        -8.62589932888811
      ],
      [
        "ĠPMDB",
        -8.6262636752045
      ],
      [
        "2009",
        -8.626277888590115
      ],
      [
        "Ġdias",
        -8.629868703883691
      ],
      [
        "ĠVer",
        -8.63063799337082
      ],
      [
        "15",
        -8.630893482653894
      ],
      [
        "Ġgrupo",
        -8.634913072748104
      ],
      [
        "Ġdesde",
        -8.635832720170892
      ],
      [
        "revisÃ£o",
        -8.636100971852683
      ],
      [
        "Ġgoverno",
        -8.63640147154088
      ],
      [
        "ĠJoÃ£o",
        -8.63904251901405
      ],
      [
        "men",
        -8.640475189602379
      ],
      [
        "PT",
        -8.645007800837337
      ],
      [
        "Ġeles",
        -8.646751602256098
      ],
      [
        "ĠfamÃŃlia",
        -8.646828076386187
      ],
      [
        "Ã´",
        -8.647360422573286
      ],
      [
        "Ġte",
        -8.64797430355857
      ],
      [
        "ment",
        -8.648554787035954
      ],
      [
        "Ġ24",
        -8.651808395561893
      ],
      [
        "Ġconta",
        -8.654263217352035
      ],
      [
        "05",
        -8.655864321202525
      ],
      [
        "son",
        -8.660238883489725
      ],
      [
        "Ġnovo",
        -8.66294943129933
      ],
      [
        "ĠpaÃŃs",
        -8.665398490682554
      ],
      [
        "ĠIsso",
        -8.665815668294204
      ],
      [
        "Ġfinal",
        -8.666151659522082
      ],
      [
        "ĠlÃ¡",
        -8.667044993151537
      ],
      [
        "ĠUniÃ£o",
        -8.669522069173217
      ],
      [
        "ÃĥO",
        -8.673511491022202
      ],
      [
        "Ġproposta",
        -8.677512513085691
      ],
      [
        "ion",
        -8.67798354711594
      ],
      [
        "18",
        -8.678618163550816
      ],
      [
        "ĠpopulaÃ§Ã£o",
        -8.680828420081045
      ],
      [
        "ĠUm",
        -8.68160804852305
      ],
      [
        "ll",
        -8.685143787152262
      ],
      [
        "ĠBa",
        -8.685295086996332
      ],
      [
        "ÃĩÃĥO",
        -8.685345899522657
      ],
      [
        "Ġsempre",
        -8.685906000747465
      ],
      [
        "03",
        -8.690106620459497
      ],
      [
        "mon",
        -8.691021848000103
      ],
      [
        "lhe",
        -8.691143419747975
      ],
      [
        "ĠPR",
        -8.69205045979734
      ],
      [
        "les",
        -8.693998418387428
      ],
      [
        "Ġinciso",
        -8.695117508047044
      ],
      [
        "ida",
        -8.696650042628999
      ],
      [
        "ER",
        -8.697637759026504
      ],
      [
        "ĠdÃ¡",
        -8.702903897054785
      ],
      [
        "Ġbrasileiro",
        -8.705825346479338
      ],
      [
        "Ġduas",
        -8.706974049521543
      ],
      [
        "eira",
        -8.707318982804797
      ],
      [
        "ĠrelaÃ§Ã£o",
        -8.707341870559734
      ],
      [
        "Ġpoder",
        -8.707519989071658
      ],
      [
        "Ġpelos",
        -8.710550329704043
      ],
      [
        "08",
        -8.712426355675897
      ],
      [
        "ĠâĢĶ",
        -8.713459069880718
      ],
      [
        "ĠCo",
        -8.715295652325517
      ],
      [
        "Ġmenos",
        -8.716247058182892
      ],
      [
        "ĠmilhÃµes",
        -8.717862493265303
      ],
      [
        "Ġpouco",
        -8.718034589046786
      ],
      [
        "ĠMe",
        -8.718522081235873
      ],
      [
        "ĠFoi",
        -8.719095709416985
      ],
      [
        "nce",
        -8.720173409348321
      ],
      [
        "ĠEntÃ£o",
        -8.721066514753014
      ],
      [
        "Ġim",
        -8.721090660262336
      ],
      [
        "Ġtinha",
        -8.72254157439037
      ],
      [
        "Ã£",
        -8.72267373290677
      ],
      [
        "ĠPa",
        -8.722826737334174
      ],
      [
        "Congresso",
        -8.723481024537811
      ],
      [
        "nesta",
        -8.725930987435017
      ],
      [
        "ĠTe",
        -8.729885993354033
      ],
      [
        "ng",
        -8.731663650007748
      ],
      [
        "dia",
        -8.733227734013566
      ],
      [
        "07",
        -8.73475850555194
      ],
      [
        "ĠvotaÃ§Ã£o",
        -8.735380166900752
      ],
      [
        "17",
        -8.736565865317807
      ],
      [
        "16",
        -8.738397190172023
      ],
      [
        "Ġquanto",
        -8.739980290256893
      ],
      [
        "ĠSul",
        -8.741638027351412
      ],
      [
        "Ġbrasileira",
        -8.743430482875693
      ],
      [
        "aprovaÃ§Ã£o",
        -8.745120080465592
      ],
      [
        "ĠPela",
        -8.745221468958825
      ],
      [
        "Ġ30",
        -8.745939786154581
      ],
      [
        "ĠEsta",
        -8.74834363658487
      ],
      [
        "ito",
        -8.748404057124842
      ],
      [
        "jo",
        -8.74906698505512
      ],
      [
        "Ġfim",
        -8.75150146981258
      ],
      [
        "tas",
        -8.751577943016482
      ],
      [
        "neste",
        -8.751866164458615
      ],
      [
        "AR",
        -8.754198397592415
      ],
      [
        "Ġsu",
        -8.76215131549916
      ],
      [
        "ĠperÃŃodo",
        -8.762805123230276
      ],
      [
        "ĠU",
        -8.763263617254003
      ],
      [
        "cl",
        -8.763926417766923
      ],
      [
        "Ġof",
        -8.767598018089629
      ],
      [
        "ĠHa",
        -8.768000296644011
      ],
      [
        "Ġfa",
        -8.768473532941256
      ],
      [
        "ĠQue",
        -8.770485319833593
      ],
      [
        "Ġca",
        -8.770918172583057
      ],
      [
        "ĠPro",
        -8.772403529436628
      ],
      [
        "Ġtra",
        -8.775304893914713
      ],
      [
        "tion",
        -8.77830990423017
      ],
      [
        "âĢĵ",
        -8.778563681778817
      ],
      [
        "ĠÃºnico",
        -8.779776707344707
      ],
      [
        "end",
        -8.780788730734548
      ],
      [
        "ĠhistÃ³ria",
        -8.780788770542282
      ],
      [
        "Ġ@",
        -8.783860306278422
      ],
      [
        "Ġtodas",
        -8.785462020103738
      ],
      [
        "mor",
        -8.786495808441172
      ],
      [
        "Ġfaz",
        -8.786923462355576
      ],
      [
        "gen",
        -8.786986023576176
      ],
      [
        "ĠinformaÃ§Ãµes",
        -8.786992320209944
      ],
      [
        "Ġcor",
        -8.788717659909366
      ],
      [
        "Ġbase",
        -8.789949527978314
      ],
      [
        "ĠPoder",
        -8.790821897222001
      ],
      [
        "ĠsaÃºde",
        -8.791631418016577
      ],
      [
        "Ġvezes",
        -8.794391892674255
      ],
      [
        "ira",
        -8.796887468850514
      ],
      [
        "Ġpa",
        -8.797458502086009
      ],
      [
        "Ġsocial",
        -8.801096188580024
      ],
      [
        "Ġcausa",
        -8.80272797642461
      ],
      [
        "che",
        -8.803160648579658
      ],
      [
        "ĠregiÃ£o",
        -8.803641550861029
      ],
      [
        "K",
        -8.804991067389395
      ],
      [
        "Ġexemplo",
        -8.809497737196025
      ],
      [
        "ĠtÃ£o",
        -8.813095972299482
      ],
      [
        "Ġfez",
        -8.813107509353813
      ],
      [
        "Ġquero",
        -8.818645858047859
      ],
      [
        "Ġnacional",
        -8.819216951156358
      ],
      [
        "06",
        -8.819261664157676
      ],
      [
        "Ġmaio",
        -8.819447061079572
      ],
      [
        "par",
        -8.82007802124439
      ],
      [
        "Ġdiz",
        -8.820161451393181
      ],
      [
        "alÃ©m",
        -8.820340827908014
      ],
      [
        "Ġ2007",
        -8.820685925541289
      ],
      [
        "Ġexternas",
        -8.821689757838097
      ],
      [
        "50",
        -8.82222943272907
      ],
      [
        "ĠtÃªm",
        -8.824185636531132
      ],
      [
        "ĠquestÃ£o",
        -8.825812976617556
      ],
      [
        "ĠCar",
        -8.828681880830006
      ],
      [
        "ĠLuiz",
        -8.828712836898813
      ],
      [
        "ren",
        -8.82947099857902
      ],
      [
        "LigaÃ§Ãµes",
        -8.831613026042268
      ],
      [
        "Ġpra",
        -8.83161439479265
      ],
      [
        "âĢĿ,",
        -8.831786463141343
      ],
      [
        "Ġ21",
        -8.832084060325437
      ],
      [
        "ĠAn",
        -8.83252753924982
      ],
      [
        "Ġ23",
        -8.833641404962965
      ],
      [
        "Ġlugar",
        -8.834690792717888
      ],
      [
        "Ġtendo",
        -8.83572180849166
      ],
      [
        "inho",
        -8.837435039664088
      ],
      [
        "ĠHo",
        -8.837630353020332
      ],
      [
        "Ġpois",
        -8.838622406226738
      ],
      [
        "TO",
        -8.840906649824928
      ],
      [
        "Ġseria",
        -8.843879145813796
      ],
      [
        "julho",
        -8.843909034350222
      ],
      [
        "mer",
        -8.844596368094592
      ],
      [
        "ĠTo",
        -8.847529955845875
      ],
      [
        "Ġpovo",
        -8.84819011478566
      ],
      [
        "Ġ25",
        -8.84871319534504
      ],
      [
        "Ġrecurso",
        -8.84883108765398
      ],
      [
        "Ġfor",
        -8.84985198157116
      ],
      [
        "vam",
        -8.849900953094055
      ],
      [
        "Exa",
        -8.850531114486486
      ],
      [
        "ton",
        -8.853898705916745
      ],
      [
        "bar",
        -8.854216925234601
      ],
      [
        "Ġtoda",
        -8.854459658575907
      ],
      [
        "Ð",
        -8.855361127689022
      ],
      [
        "inha",
        -8.855373393035851
      ],
      [
        "Ġempresa",
        -8.856610988646482
      ],
      [
        "ĠBo",
        -8.857182003599164
      ],
      [
        "and",
        -8.857306580797902
      ],
      [
        "30",
        -8.858579576347672
      ],
      [
        "ESSÃĥO",
        -8.859454017260832
      ],
      [
        "Ġestado",
        -8.859836386886279
      ],
      [
        "ĠTa",
        -8.860005039929874
      ],
      [
        "rio",
        -8.861084156323837
      ],
      [
        "las",
        -8.861154497105128
      ],
      [
        "Ġfavor",
        -8.861215830979496
      ],
      [
        "sentido",
        -8.862399669699466
      ],
      [
        "ĠmunicÃŃpio",
        -8.862443253130898
      ],
      [
        "ĠSra",
        -8.863001061779853
      ],
      [
        "Ġalguns",
        -8.863850305053726
      ],
      [
        "13",
        -8.86554533569584
      ],
      [
        "setembro",
        -8.865662938976625
      ],
      [
        "Ġ2009",
        -8.866500181932654
      ],
      [
        "nos",
        -8.8709354125747
      ],
      [
        "Ġtrata",
        -8.874964075117038
      ],
      [
        "Ġ22",
        -8.875291343846436
      ],
      [
        "los",
        -8.877481333481716
      ],
      [
        "Ġ:(",
        -8.877536663530782
      ],
      [
        "Ġsabe",
        -8.87846583163901
      ],
      [
        "Ġvou",
        -8.878819299956472
      ],
      [
        "Ġnem",
        -8.88341441407454
      ],
      [
        "Ġba",
        -8.885144635600819
      ],
      [
        "amento",
        -8.886796114396171
      ],
      [
        "Ġpodem",
        -8.8898591926638
      ],
      [
        "ĠJu",
        -8.89099791915104
      ],
      [
        "EL",
        -8.89140036929929
      ],
      [
        "Â°",
        -8.892099440229844
      ],
      [
        "art",
        -8.892630752227573
      ],
      [
        "dispÃµe",
        -8.893613922343768
      ],
      [
        "ĠDi",
        -8.894126594398747
      ],
      [
        "Ġuso",
        -8.895487484791321
      ],
      [
        "Ġquem",
        -8.897519745665255
      ],
      [
        "Ġ2008",
        -8.898363277926912
      ],
      [
        "Ġnada",
        -8.899580279172138
      ],
      [
        "for",
        -8.899764789093746
      ],
      [
        "Ġsociedade",
        -8.89990826314781
      ],
      [
        "Ġcoisa",
        -8.900319112848155
      ],
      [
        "ĠExa",
        -8.90055224502818
      ],
      [
        "Ġbom",
        -8.900613241057632
      ],
      [
        "Ġ28",
        -8.901502333689795
      ],
      [
        "DI",
        -8.902136465784581
      ],
      [
        "Ġmedida",
        -8.902760925688206
      ],
      [
        "Ġtipo",
        -8.902950984170886
      ],
      [
        "Ġpe",
        -8.90345114809888
      ],
      [
        "Ġmesma",
        -8.906593218265552
      ],
      [
        "Ġdata",
        -8.907825724467884
      ],
      [
        "Muito",
        -8.907891450698742
      ],
      [
        "junho",
        -8.908691915666271
      ],
      [
        "04",
        -8.909303712650084
      ],
      [
        "Ġnova",
        -8.909919639612458
      ],
      [
        "lho",
        -8.909957442910676
      ],
      [
        "Art",
        -8.910779953336922
      ],
      [
        "temos",
        -8.913816682344372
      ],
      [
        "Ġdisso",
        -8.914038798107867
      ],
      [
        "ĠGo",
        -8.915978063412242
      ],
      [
        "UTC",
        -8.916090665155531
      ],
      [
        "Ġtenho",
        -8.916111969671244
      ],
      [
        "ante",
        -8.916264294577598
      ],
      [
        "Ġ2006",
        -8.917176979913169
      ],
      [
        "ry",
        -8.91768675616172
      ],
      [
        "Ġteve",
        -8.918420117597487
      ],
      [
        "ĠEla",
        -8.919570801308065
      ],
      [
        "ĠGrande",
        -8.919684852480549
      ],
      [
        "tes",
        -8.920107582228294
      ],
      [
        "ĠVamos",
        -8.922193043685445
      ],
      [
        "ĠLu",
        -8.922646891503758
      ],
      [
        "ĠJa",
        -8.92432026499581
      ],
      [
        "ĠÃºltimo",
        -8.924466215255842
      ],
      [
        "tica",
        -8.925797527527923
      ],
      [
        "Ġestou",
        -8.927689808231682
      ],
      [
        "ĠSanta",
        -8.92892517678738
      ],
      [
        "ĠAr",
        -8.929894756147236
      ],
      [
        "Decreto",
        -8.93053505565963
      ],
      [
        "gar",
        -8.93127590687005
      ],
      [
        "DE",
        -8.937166576616638
      ],
      [
        "lin",
        -8.938477535173277
      ],
      [
        "Ġdesenvolvimento",
        -8.938864311041659
      ],
      [
        "Ġconstitucional",
        -8.939992420867787
      ],
      [
        "Ġquais",
        -8.948439369181845
      ],
      [
        "via",
        -8.949178842310792
      ],
      [
        "W",
        -8.953909401486893
      ],
      [
        "000",
        -8.954209181469272
      ],
      [
        "Ġfi",
        -8.954678726289709
      ],
      [
        "Ġvamos",
        -8.957049916557976
      ],
      [
        "Ġ2011",
        -8.958965996264824
      ],
      [
        "Ġoutra",
        -8.962451862603784
      ],
      [
        "ĠLo",
        -8.963514587611357
      ],
      [
        "Ġestar",
        -8.96978961482575
      ],
      [
        "ine",
        -8.970632370218517
      ],
      [
        "Ġ26",
        -8.972013386578698
      ],
      [
        "ang",
        -8.973848972713466
      ],
      [
        "ĠGa",
        -8.97508187890134
      ],
      [
        "Ġsub",
        -8.980115160373131
      ],
      [
        "ber",
        -8.980402954832492
      ],
      [
        "ĠmarÃ§o",
        -8.981418422992224
      ],
      [
        "missÃ£o",
        -8.982441636402342
      ],
      [
        "ĠMu",
        -8.98318003499308
      ],
      [
        "Ġ2010",
        -8.983202942346153
      ],
      [
        "2015",
        -8.9835051065916
      ],
      [
        "ino",
        -8.983526907831187
      ],
      [
        "Ġpessoa",
        -8.983863993036248
      ],
      [
        "ide",
        -8.98513097492096
      ],
      [
        "ĠJaneiro",
        -8.985433549599554
      ],
      [
        "Ġvolta",
        -8.987127376858403
      ],
      [
        "Ġagosto",
        -8.987433974056957
      ],
      [
        "Ġoutubro",
        -8.987704385479912
      ],
      [
        "14",
        -8.988025262253478
      ],
      [
        "TE",
        -8.993004571449926
      ],
      [
        "ĠBe",
        -8.993164924792083
      ],
      [
        "Ġtexto",
        -8.993387030228448
      ],
      [
        "02",
        -8.993836942389777
      ],
      [
        "chi",
        -8.993998969003298
      ],
      [
        "por",
        -8.9942914425769
      ],
      [
        "Ġinter",
        -8.99478593519458
      ],
      [
        "ral",
        -8.99538569012434
      ],
      [
        "lia",
        -8.995954786937428
      ],
      [
        "US",
        -8.996063580047919
      ],
      [
        "tÃ¡",
        -8.9966979131957
      ],
      [
        "Ġlado",
        -8.99767216509357
      ],
      [
        "PMDB",
        -8.999591413309613
      ],
      [
        "Ġdis",
        -9.001481723327108
      ],
      [
        "ĠIII",
        -9.004220387430907
      ],
      [
        "Ġfeito",
        -9.006062151193666
      ],
      [
        "ĠprÃ³prio",
        -9.006249200775825
      ],
      [
        "IS",
        -9.007887267340058
      ],
      [
        "ĠEduardo",
        -9.00848210401453
      ],
      [
        "Y",
        -9.010445765423016
      ],
      [
        "ka",
        -9.011087785215226
      ],
      [
        "DA",
        -9.012010574197324
      ],
      [
        "Ġhavia",
        -9.012341924380124
      ],
      [
        "Ġsi",
        -9.0142793534303
      ],
      [
        "Ġdessa",
        -9.015647917329058
      ],
      [
        "RE",
        -9.015897196536551
      ],
      [
        "ĠEstÃ¡",
        -9.016765258969132
      ],
      [
        "Ġ2005",
        -9.019235606110914
      ],
      [
        "ĠEste",
        -9.02118114745126
      ],
      [
        "Ġabril",
        -9.02127260756158
      ],
      [
        "Ġempresas",
        -9.022827927823052
      ],
      [
        "ĠtÃ©cnica",
        -9.02310369027541
      ],
      [
        "ĠJo",
        -9.026690394255589
      ],
      [
        "RI",
        -9.027281073827776
      ],
      [
        "Ġcons",
        -9.02804373053295
      ],
      [
        "Ġprincipal",
        -9.028782756799654
      ],
      [
        "Ãģ",
        -9.029108799609192
      ],
      [
        "Ġjaneiro",
        -9.030111158273288
      ],
      [
        "ĠMi",
        -9.031292439238191
      ],
      [
        "pen",
        -9.031430238500354
      ],
      [
        "Ġpresidente",
        -9.032208163813063
      ],
      [
        "Ġsim",
        -9.0324410284521
      ],
      [
        "habitantes",
        -9.032850457587347
      ],
      [
        "ĠBu",
        -9.033975024440387
      ],
      [
        "tivo",
        -9.035834959774492
      ],
      [
        "://",
        -9.035940813673374
      ],
      [
        "dio",
        -9.036547418403568
      ],
      [
        "Ġnum",
        -9.037003909905913
      ],
      [
        "TA",
        -9.040657283121542
      ],
      [
        "Ġnovembro",
        -9.041559576073992
      ],
      [
        "Q",
        -9.042639908072182
      ],
      [
        "Ġsei",
        -9.043900842936964
      ],
      [
        "ste",
        -9.044090921011051
      ],
      [
        "ĠtÃŃtulo",
        -9.04427258220319
      ],
      [
        "ĠPARECER",
        -9.044709315215234
      ],
      [
        "den",
        -9.046226107311597
      ],
      [
        "Ġpu",
        -9.046431949545148
      ],
      [
        "Ã¡rio",
        -9.047934894398685
      ],
      [
        "ĠcondiÃ§Ãµes",
        -9.049577836039488
      ],
      [
        "ĠproduÃ§Ã£o",
        -9.05015027748322
      ],
      [
        "Ġsemana",
        -9.050176316005574
      ],
      [
        "Ġ27",
        -9.052101769374818
      ],
      [
        "98",
        -9.05277881804064
      ],
      [
        "ĠRE",
        -9.054476849332437
      ],
      [
        "Ġtanto",
        -9.054817904903622
      ],
      [
        "Ġprecisa",
        -9.05578771397668
      ],
      [
        "ĠSala",
        -9.056359667620312
      ],
      [
        "ĠsituaÃ§Ã£o",
        -9.056366711862928
      ],
      [
        "ense",
        -9.057171059937769
      ],
      [
        "ĠseguranÃ§a",
        -9.060504214043664
      ],
      [
        "ĠÃ¡gua",
        -9.060647658845692
      ],
      [
        "NÃ³s",
        -9.061738027439905
      ],
      [
        "MunicÃŃpio",
        -9.064319576139235
      ],
      [
        "tura",
        -9.064478792555311
      ],
      [
        "Ã©m",
        -9.064597498172011
      ],
      [
        "OR",
        -9.066221521398695
      ],
      [
        "cional",
        -9.066356525405473
      ],
      [
        "ĠEx",
        -9.06758492112428
      ],
      [
        "40",
        -9.06813547843213
      ],
      [
        "Ġan",
        -9.07049906179851
      ],
      [
        "EN",
        -9.07090422379899
      ],
      [
        "Ġfalar",
        -9.070964180756835
      ],
      [
        "ĠPre",
        -9.072369613961776
      ],
      [
        "ĠMin",
        -9.073601427486738
      ],
      [
        "Ġvista",
        -9.07715997417136
      ],
      [
        "Ġtenha",
        -9.0783230132108
      ],
      [
        "ner",
        -9.078337377501509
      ],
      [
        "2013",
        -9.082160061027164
      ],
      [
        "ler",
        -9.082222674897285
      ],
      [
        "Ġar",
        -9.083163738668
      ],
      [
        "ĠEssa",
        -9.084882600398046
      ],
      [
        "PSB",
        -9.086247628371458
      ],
      [
        "estamos",
        -9.086863480421677
      ],
      [
        "ĠNe",
        -9.088399628955326
      ],
      [
        "Ġdesse",
        -9.088575890589013
      ],
      [
        "Ġpena",
        -9.088631892196563
      ],
      [
        "pro",
        -9.090049037427008
      ],
      [
        "ke",
        -9.091573423911663
      ],
      [
        "ĠEmenda",
        -9.092517650078134
      ],
      [
        "Ġpai",
        -9.093215197881756
      ],
      [
        "ard",
        -9.094632875748175
      ],
      [
        "CE",
        -9.09544969788963
      ],
      [
        "ĠSu",
        -9.096247091021691
      ],
      [
        "Regimento",
        -9.096677961020069
      ],
      [
        "ĠUma",
        -9.097863096698417
      ],
      [
        "46",
        -9.099353732668412
      ],
      [
        "Ġat",
        -9.099376034725568
      ],
      [
        "ĠeducaÃ§Ã£o",
        -9.101921655396112
      ],
      [
        "ĠDr",
        -9.102542431672012
      ],
      [
        "ĠEsse",
        -9.103323096184168
      ],
      [
        "X",
        -9.106155459898664
      ],
      [
        "Ġ2013",
        -9.107152877149227
      ],
      [
        "Ġce",
        -9.107802910164253
      ],
      [
        "Ġverdade",
        -9.1080872995672
      ],
      [
        "ĠinÃŃcio",
        -9.108228913966238
      ],
      [
        "NE",
        -9.108932271754458
      ],
      [
        "Ġquatro",
        -9.10944645707642
      ],
      [
        "Ġenquanto",
        -9.11002256259704
      ],
      [
        "SP",
        -9.110064601592148
      ],
      [
        "providÃªncias",
        -9.113759099307684
      ],
      [
        "Ġcargo",
        -9.114298607283953
      ],
      [
        "Ġrespeito",
        -9.114462591786246
      ],
      [
        "ador",
        -9.115023661143915
      ],
      [
        "sessÃ£o",
        -9.1157130439836
      ],
      [
        "Ġlocal",
        -9.118592778444835
      ],
      [
        "Ġtu",
        -9.11917902400077
      ],
      [
        "Ġobjetivo",
        -9.119933031684946
      ],
      [
        "Ġponto",
        -9.121929168618264
      ],
      [
        "Ġfevereiro",
        -9.122144507751669
      ],
      [
        "tico",
        -9.123029303992636
      ],
      [
        "feira",
        -9.12449996535434
      ],
      [
        "Ġvota",
        -9.12475292063727
      ],
      [
        "Ġdentro",
        -9.12785910754042
      ],
      [
        "istas",
        -9.128173212103423
      ],
      [
        "Supremo",
        -9.129361597459082
      ],
      [
        "Ġdemais",
        -9.129829620051147
      ],
      [
        "ĠMaria",
        -9.129981379197126
      ],
      [
        "2011",
        -9.13028547922132
      ],
      [
        "Deputada",
        -9.133167201317397
      ],
      [
        "Ġhoras",
        -9.134494654265715
      ],
      [
        "ĠFi",
        -9.134866286518712
      ],
      [
        "ĠBi",
        -9.134951398396796
      ],
      [
        "¢",
        -9.1379826504546
      ],
      [
        "bre",
        -9.138229338617158
      ],
      [
        "ĠsÃ©rie",
        -9.139568810071562
      ],
      [
        "Ġmim",
        -9.142460359044124
      ],
      [
        "Ã¡vel",
        -9.14257324710162
      ],
      [
        "tÃ£o",
        -9.14303854791992
      ],
      [
        "Ġapoio",
        -9.143095780718529
      ],
      [
        "Ġbo",
        -9.143451496351766
      ],
      [
        "ĠPresidÃªncia",
        -9.143897391471238
      ],
      [
        "ĠInterno",
        -9.144042090286437
      ],
      [
        "Ġ2012",
        -9.144219167221143
      ],
      [
        "ĠÃĢ",
        -9.146276340989228
      ],
      [
        "ido",
        -9.146369586742788
      ],
      [
        "ju",
        -9.148673592164496
      ],
      [
        "port",
        -9.152113582796655
      ],
      [
        "Ġtotal",
        -9.154835642217437
      ],
      [
        "Ġpesquisa",
        -9.155936170224704
      ],
      [
        "ki",
        -9.157994986690028
      ],
      [
        "ĠPÃºblico",
        -9.159179788760554
      ],
      [
        "Ġ29",
        -9.159469045799831
      ],
      [
        "nia",
        -9.160366753850706
      ],
      [
        "Ġtrans",
        -9.160721320162182
      ],
      [
        "ĠpossÃŃvel",
        -9.1610686723976
      ],
      [
        "criaÃ§Ã£o",
        -9.16236417631737
      ],
      [
        "Ġ2004",
        -9.16370827443744
      ],
      [
        "ĠBrasÃŃlia",
        -9.163802041927228
      ],
      [
        "Ġespecial",
        -9.164546666497662
      ],
      [
        "ĠUnidos",
        -9.166357477010408
      ],
      [
        "PDT",
        -9.16686851092794
      ],
      [
        "ĠY",
        -9.16828963250623
      ],
      [
        "Ġfalta",
        -9.169992931323334
      ],
      [
        "Ġfilme",
        -9.170059437471265
      ],
      [
        "Ġconforme",
        -9.17072661455622
      ],
      [
        "nes",
        -9.172503379372024
      ],
      [
        "ĠTurma",
        -9.172573661543144
      ],
      [
        "Ġnunca",
        -9.174820876816089
      ],
      [
        "ĠConselho",
        -9.176357042273402
      ],
      [
        "ras",
        -9.176920949161511
      ],
      [
        "Ġparecer",
        -9.17740947262357
      ],
      [
        "ĠpaÃŃses",
        -9.17790732766172
      ],
      [
        "iro",
        -9.178749340983858
      ],
      [
        "97",
        -9.179235190757623
      ],
      [
        "Ġproblema",
        -9.182096625913273
      ],
      [
        "Ġcerca",
        -9.18302609267098
      ],
      [
        "Ã¡ria",
        -9.183577243083704
      ],
      [
        "ĠQuando",
        -9.18451712901002
      ],
      [
        "ĠMan",
        -9.18534442352433
      ],
      [
        "Ġalgo",
        -9.185883546097449
      ],
      [
        "Ġjogo",
        -9.18660416276995
      ],
      [
        "ĠUniversidade",
        -9.186893055852943
      ],
      [
        "Ġmembro",
        -9.187125762788348
      ],
      [
        "ĠmÃºsica",
        -9.190883815139644
      ],
      [
        "Ġfora",
        -9.191435722967023
      ],
      [
        "ON",
        -9.19308444515382
      ],
      [
        "ger",
        -9.194975332625326
      ],
      [
        "Ġobrigado",
        -9.19506180070858
      ],
      [
        "ĠsÃ©culo",
        -9.195103056467063
      ],
      [
        "ĠNO",
        -9.195393133825633
      ],
      [
        "defesa",
        -9.196431983568347
      ],
      [
        "ava",
        -9.196790932538512
      ],
      [
        "ĠSilva",
        -9.200192184981134
      ],
      [
        "ex",
        -9.201150525438145
      ],
      [
        "ĠforÃ§a",
        -9.201237920605768
      ],
      [
        "Ġequipe",
        -9.201805308922072
      ],
      [
        "Ġcinco",
        -9.202092233222608
      ],
      [
        "ĠPi",
        -9.202249923330788
      ],
      [
        "ĠEducaÃ§Ã£o",
        -9.202598108381936
      ],
      [
        "devido",
        -9.202660281857176
      ],
      [
        "ura",
        -9.202995095591316
      ],
      [
        "LA",
        -9.20350833739593
      ],
      [
        "Ġsou",
        -9.204555885866196
      ],
      [
        "ĠPedro",
        -9.20606768979743
      ],
      [
        "CÃ³digo",
        -9.20618127292772
      ],
      [
        "izaÃ§Ã£o",
        -9.208804233190712
      ],
      [
        "registro",
        -9.208821211753976
      ],
      [
        "Ġ2015",
        -9.209480533460184
      ],
      [
        "ĠatravÃ©s",
        -9.210155867134295
      ],
      [
        "Ġregimental",
        -9.2107316234214
      ],
      [
        "one",
        -9.211721387620312
      ],
      [
        "Ġdireitos",
        -9.212115671638276
      ],
      [
        "agem",
        -9.214394348027978
      ],
      [
        "Ġfica",
        -9.214922541078534
      ],
      [
        "Ġsegunda",
        -9.216148945735032
      ],
      [
        "âĢĻ",
        -9.216275751653798
      ],
      [
        "ĠTem",
        -9.217763810694214
      ],
      [
        "ĠZ",
        -9.218209752127397
      ],
      [
        "ĠOliveira",
        -9.218986251966788
      ],
      [
        "PlenÃ¡rio",
        -9.219352584812771
      ],
      [
        "Ġluta",
        -9.21941466540254
      ],
      [
        "Ġpelas",
        -9.219515769270524
      ],
      [
        "tanto",
        -9.219863199150277
      ],
      [
        "Ġpedido",
        -9.220625287216295
      ],
      [
        "25",
        -9.221152227142552
      ],
      [
        "Ġmi",
        -9.221837082172584
      ],
      [
        "Ġficar",
        -9.22316049328841
      ],
      [
        "cas",
        -9.226537747690204
      ],
      [
        "IN",
        -9.22683734097014
      ],
      [
        "val",
        -9.227199637694536
      ],
      [
        "ĠDia",
        -9.228015539233176
      ],
      [
        "Ġal",
        -9.22866006736436
      ],
      [
        "Ġrealizada",
        -9.228705043341476
      ],
      [
        "ĠTotal",
        -9.229374188726114
      ],
      [
        "¼",
        -9.231418025656184
      ],
      [
        "Ġkm",
        -9.231686543698876
      ],
      [
        "Ġmorte",
        -9.2318321363304
      ],
      [
        "ĠKa",
        -9.23234730702742
      ],
      [
        "remos",
        -9.233237358809152
      ],
      [
        "nÃ§a",
        -9.23345460493041
      ],
      [
        "Ġvem",
        -9.233874581044969
      ],
      [
        "Ġthe",
        -9.234195475385675
      ],
      [
        "ĠJÃ¡",
        -9.238405533493316
      ],
      [
        "Ġfazendo",
        -9.239264413639235
      ],
      [
        "Ġ2003",
        -9.23941881005126
      ],
      [
        "taÃ§Ã£o",
        -9.240538439046988
      ],
      [
        "ĠprÃ³pria",
        -9.242923534411766
      ],
      [
        "ĠMA",
        -9.243674148055756
      ],
      [
        "ĠSt",
        -9.244308359949912
      ],
      [
        "Ġobjeto",
        -9.24441890284213
      ],
      [
        "ly",
        -9.245853385783956
      ],
      [
        "ĠrazÃ£o",
        -9.24737973384394
      ],
      [
        "bel",
        -9.247509438132218
      ],
      [
        "Ġali",
        -9.248727608664067
      ],
      [
        "vÃ¡rios",
        -9.251976399797996
      ],
      [
        "CO",
        -9.25354229774454
      ],
      [
        "ĠexercÃŃcio",
        -9.2537204710826
      ],
      [
        "serviÃ§os",
        -9.253991325310496
      ],
      [
        "Ġacesso",
        -9.254090942889334
      ],
      [
        "Ġvo",
        -9.254504690848984
      ],
      [
        "ĠSaÃºde",
        -9.25557563468364
      ],
      [
        "Ġmeses",
        -9.256024474988774
      ],
      [
        "origem",
        -9.256224042813512
      ],
      [
        "ĠSocial",
        -9.25634014967362
      ],
      [
        "RO",
        -9.25673719291946
      ],
      [
        "ĠPer",
        -9.25687385134022
      ],
      [
        "28",
        -9.257476801777466
      ],
      [
        "Executivo",
        -9.257684535968624
      ],
      [
        "Ġmercado",
        -9.257689602665272
      ],
      [
        "iano",
        -9.26088003776226
      ],
      [
        "IA",
        -9.26378201213714
      ],
      [
        "Ġobra",
        -9.264143690158274
      ],
      [
        "88",
        -9.26503200888733
      ],
      [
        "ĠÃ©poca",
        -9.265037925482638
      ],
      [
        "ais",
        -9.265894191695471
      ],
      [
        "96",
        -9.267414608662106
      ],
      [
        "rÃ£o",
        -9.268402149279597
      ],
      [
        "Ġatividade",
        -9.26965497060189
      ],
      [
        "Ġcrime",
        -9.271511760306684
      ],
      [
        "ĠSegundo",
        -9.272234530007786
      ],
      [
        "Ġgeral",
        -9.273098677559735
      ],
      [
        "nho",
        -9.273644432787885
      ],
      [
        "Ġpassa",
        -9.275715467670674
      ],
      [
        "AlÃ©m",
        -9.275927495246552
      ],
      [
        "ĠFilho",
        -9.276686081146911
      ],
      [
        "ĠAgora",
        -9.277446786809428
      ],
      [
        "Ġfilho",
        -9.27808261336836
      ],
      [
        "PTB",
        -9.278401594596628
      ],
      [
        "Ġinclusive",
        -9.278756237288178
      ],
      [
        "ĠPP",
        -9.279155346035123
      ],
      [
        "tem",
        -9.279269474239126
      ],
      [
        "her",
        -9.27979902724654
      ],
      [
        "Ãī",
        -9.280087861114916
      ],
      [
        "ĠVI",
        -9.28077271206462
      ],
      [
        "Ġ2014",
        -9.280793512991496
      ],
      [
        "\")",
        -9.285649894876476
      ],
      [
        "bilidade",
        -9.286099242535832
      ],
      [
        "Ġmal",
        -9.287978395414784
      ],
      [
        "Ġfosse",
        -9.2881043826013
      ],
      [
        "radiodifusÃ£o",
        -9.290713853814324
      ],
      [
        "Ġdados",
        -9.290897207193863
      ],
      [
        "Ġinteresse",
        -9.2915171389357
      ],
      [
        "ĠpolÃŃtico",
        -9.291781283049426
      ],
      [
        "Ġab",
        -9.292013409064433
      ],
      [
        "CI",
        -9.292065489764216
      ],
      [
        "2000",
        -9.293996443835844
      ],
      [
        "Ġpagamento",
        -9.294043148340256
      ],
      [
        "Ġquase",
        -9.295167479157314
      ],
      [
        "Ġpartido",
        -9.295219556468524
      ],
      [
        "ĠHe",
        -9.296296695148794
      ],
      [
        "Ġqualidade",
        -9.29651465227797
      ],
      [
        "Ġlegal",
        -9.296988907490126
      ],
      [
        "Ġesses",
        -9.299738247997205
      ],
      [
        "uma",
        -9.300227800561494
      ],
      [
        "Ġalgumas",
        -9.3004772541123
      ],
      [
        "STF",
        -9.301632498196426
      ],
      [
        "ĠDeus",
        -9.30389261620593
      ],
      [
        "The",
        -9.303946707621666
      ],
      [
        "Ġnecessidade",
        -9.304198132633635
      ],
      [
        "29",
        -9.304419649647828
      ],
      [
        "2008",
        -9.305054351002571
      ],
      [
        "Ġ2016",
        -9.306063062489024
      ],
      [
        "Ġminutos",
        -9.313904558093412
      ],
      [
        "ĠThe",
        -9.314157816901492
      ],
      [
        "para",
        -9.314287637283122
      ],
      [
        "serÃ£o",
        -9.318680781909595
      ],
      [
        "Ġmaioria",
        -9.319700321828932
      ],
      [
        "27",
        -9.31978501571513
      ],
      [
        "sen",
        -9.319805446820745
      ],
      [
        "Ġemenda",
        -9.322688352107209
      ],
      [
        "cada",
        -9.322833921227057
      ],
      [
        "Ġatual",
        -9.323288608560151
      ],
      [
        "Ġpoderia",
        -9.32330389715776
      ],
      [
        "ĥ",
        -9.323616652582755
      ],
      [
        "raÃ§Ã£o",
        -9.325157670855749
      ],
      [
        "ĠnecessÃ¡rio",
        -9.3256073554919
      ],
      [
        "bal",
        -9.325708723028605
      ],
      [
        "SE",
        -9.325963556314631
      ],
      [
        "Ġboa",
        -9.327296114352666
      ],
      [
        "Ġtema",
        -9.327812516196898
      ],
      [
        "2007",
        -9.327924333413986
      ],
      [
        "ĠCiÃªncia",
        -9.329273801444904
      ],
      [
        "ĠEn",
        -9.330976597273288
      ],
      [
        "Ġdinheiro",
        -9.331527927959575
      ],
      [
        "IO",
        -9.332413277948945
      ],
      [
        "ĠRi",
        -9.332869269017426
      ],
      [
        "Ġmodo",
        -9.333317068680088
      ],
      [
        "Ġformula",
        -9.33372863265832
      ],
      [
        "Ġcerto",
        -9.333743117209249
      ],
      [
        "Ġfala",
        -9.33385671044562
      ],
      [
        "Ġconhecido",
        -9.33470960776855
      ],
      [
        "22",
        -9.336711016813773
      ],
      [
        "Ġ31",
        -9.337394189955967
      ],
      [
        "Ġpossa",
        -9.337737817486495
      ],
      [
        "Ġnuma",
        -9.338732343416908
      ],
      [
        "ologia",
        -9.338908772843542
      ],
      [
        "26",
        -9.339900249992912
      ],
      [
        ".âĢĿ",
        -9.340208395154391
      ],
      [
        "Ġrequerimento",
        -9.34202710996896
      ],
      [
        "ĠTi",
        -9.343022196623842
      ],
      [
        "aumento",
        -9.343963162938394
      ],
      [
        "ĠHÃ¡",
        -9.346676934905036
      ],
      [
        "Ġnesse",
        -9.34721451347124
      ],
      [
        "ff",
        -9.347567987454154
      ],
      [
        "01",
        -9.348238426357096
      ],
      [
        "nÃŃvel",
        -9.349008234048643
      ],
      [
        ");",
        -9.349511585824963
      ],
      [
        "Ġproduto",
        -9.350203716391816
      ],
      [
        "Ġensino",
        -9.35204259983823
      ],
      [
        "https",
        -9.352515878842556
      ],
      [
        "Ġsolicita",
        -9.355134220762388
      ],
      [
        "agravo",
        -9.355684130523604
      ],
      [
        "Ġnorte",
        -9.357084547215331
      ],
      [
        "Ġfr",
        -9.35727845587141
      ],
      [
        "2010",
        -9.358832437143322
      ],
      [
        "land",
        -9.359043818160837
      ],
      [
        "Ġprova",
        -9.35956529355112
      ],
      [
        "ĠEM",
        -9.359884357216371
      ],
      [
        "Ġdeixar",
        -9.360139598661442
      ],
      [
        "ĠPrograma",
        -9.360179506368215
      ],
      [
        "Ġjunto",
        -9.36084307472754
      ],
      [
        "Ġreforma",
        -9.36191661872773
      ],
      [
        "ĠprÃ¡tica",
        -9.363186824818898
      ],
      [
        "nas",
        -9.363278821769605
      ],
      [
        "Ġmar",
        -9.364463012421208
      ],
      [
        "anÃ¡lise",
        -9.36448647282078
      ],
      [
        "ĠreuniÃ£o",
        -9.364832249833288
      ],
      [
        "Ġcampo",
        -9.365258400862828
      ],
      [
        "ĠNova",
        -9.365688727677426
      ],
      [
        "ĠÃºltima",
        -9.365940003752096
      ],
      [
        "Ġeram",
        -9.36604059518878
      ],
      [
        "Ġmuitas",
        -9.366852085930011
      ],
      [
        "ĠAssim",
        -9.36775527243372
      ],
      [
        "Ġnoite",
        -9.36903812059698
      ],
      [
        "ĠmÃ£e",
        -9.369071228299717
      ],
      [
        "ĠLÃŃder",
        -9.370436888005193
      ],
      [
        "somente",
        -9.371570910504548
      ],
      [
        "ĠLula",
        -9.37222334369943
      ],
      [
        "Ġ(\"",
        -9.374761020677097
      ],
      [
        "press",
        -9.37584440999615
      ],
      [
        "redaÃ§Ã£o",
        -9.378014535283665
      ],
      [
        "Ġgrandes",
        -9.378133964597104
      ],
      [
        "Ġho",
        -9.378226282338492
      ],
      [
        "ĠParecer",
        -9.37901250095228
      ],
      [
        "entanto",
        -9.379278427997042
      ],
      [
        "Ġsuperior",
        -9.380176125042524
      ],
      [
        "ĠSua",
        -9.380950838549394
      ],
      [
        "ĠLegislativo",
        -9.381925884623588
      ],
      [
        "altera",
        -9.382581607531142
      ],
      [
        "ow",
        -9.382920522413928
      ],
      [
        "Ġfeita",
        -9.383541372204991
      ],
      [
        "Ġhomem",
        -9.383947015354464
      ],
      [
        "Ġcontrato",
        -9.384192876178682
      ],
      [
        "AÃĩÃĥO",
        -9.384506888092714
      ],
      [
        "ĠparticipaÃ§Ã£o",
        -9.384713963076091
      ],
      [
        "ĠPÃºblica",
        -9.3850300231891
      ],
      [
        "90",
        -9.387524239979625
      ],
      [
        "Ġoficial",
        -9.392182237248198
      ],
      [
        "PE",
        -9.393481712772756
      ],
      [
        "Ġcontrole",
        -9.394334545945831
      ],
      [
        "Ġtarde",
        -9.395012609925388
      ],
      [
        "ĠcrÃ©dito",
        -9.39590797767672
      ],
      [
        "Ġessas",
        -9.396851406191072
      ],
      [
        "Ġlongo",
        -9.396895451749025
      ],
      [
        "Ġregime",
        -9.398423780180044
      ],
      [
        "Ġliga",
        -9.398428164060098
      ],
      [
        "ĠCha",
        -9.399508480450889
      ],
      [
        "ĠFernando",
        -9.403222107006815
      ],
      [
        "ĠRoberto",
        -9.406164324149533
      ],
      [
        "ĠAssociaÃ§Ã£o",
        -9.40644023722611
      ],
      [
        "tt",
        -9.408231852350436
      ],
      [
        "99",
        -9.408709235656644
      ],
      [
        "36",
        -9.409516756320077
      ],
      [
        "ĠlegislaÃ§Ã£o",
        -9.409865281854769
      ],
      [
        "Ġ100",
        -9.4104012861488
      ],
      [
        "NO",
        -9.410976984860453
      ],
      [
        "ĠTrabalho",
        -9.411158566207924
      ],
      [
        "Ġbrasileiros",
        -9.412352921244633
      ],
      [
        "ĠSÃ³",
        -9.413289053665295
      ],
      [
        "Ġir",
        -9.413677802832664
      ],
      [
        "ban",
        -9.415220358552377
      ],
      [
        "if",
        -9.41528774178595
      ],
      [
        "Ġjulgamento",
        -9.415490443624885
      ],
      [
        "ĠdiscussÃ£o",
        -9.41647866389112
      ],
      [
        "ĠpublicaÃ§Ã£o",
        -9.420488933471509
      ],
      [
        "ĠaÃŃ",
        -9.421616659638955
      ],
      [
        "ĠBar",
        -9.422500516231434
      ],
      [
        "45",
        -9.422548310888224
      ],
      [
        "Ġpreciso",
        -9.42421178813415
      ],
      [
        "PR",
        -9.424373170063538
      ],
      [
        "Ġsaber",
        -9.42530087413912
      ],
      [
        "ĠMaia",
        -9.42589309714094
      ],
      [
        "38",
        -9.426049438574152
      ],
      [
        "Ġmuitos",
        -9.427697903590254
      ],
      [
        "BA",
        -9.427992597223136
      ],
      [
        "passou",
        -9.428073324257513
      ],
      [
        "Ġ50",
        -9.429536508359645
      ],
      [
        "ĠCor",
        -9.429567664830843
      ],
      [
        "economia",
        -9.430104215910909
      ],
      [
        "vis",
        -9.430801820172448
      ],
      [
        "mas",
        -9.430969804598616
      ],
      [
        "relatÃ³rio",
        -9.431567295216878
      ],
      [
        "ez",
        -9.431861674332822
      ],
      [
        "ĠBem",
        -9.432444833525516
      ],
      [
        "let",
        -9.432593548189931
      ],
      [
        "Ġsetor",
        -9.43310984555682
      ],
      [
        "ĠextraordinÃ¡rio",
        -9.433578954266563
      ],
      [
        "ĠCol",
        -9.433591499635206
      ],
      [
        "ĠDEM",
        -9.433791589677648
      ],
      [
        "â",
        -9.435300674351607
      ],
      [
        "Ġencontra",
        -9.437821426170338
      ],
      [
        "ĠVice",
        -9.43849870595113
      ],
      [
        "Ġaltera",
        -9.43992846627655
      ],
      [
        "ME",
        -9.440358629097249
      ],
      [
        "Ġterra",
        -9.440549852933485
      ],
      [
        "35",
        -9.441147822404828
      ],
      [
        "Ġlhe",
        -9.44160288501426
      ],
      [
        "Ġpar",
        -9.442091735237224
      ],
      [
        "ĠDu",
        -9.442237485580373
      ],
      [
        "Ġconstante",
        -9.44273571236728
      ],
      [
        "mulheres",
        -9.443608146335713
      ],
      [
        "Ġenergia",
        -9.44387741910648
      ],
      [
        "conjunto",
        -9.44428257132437
      ],
      [
        "Ġfo",
        -9.446228229929044
      ],
      [
        "ĠconstruÃ§Ã£o",
        -9.446332747951866
      ],
      [
        "mÃŃnimo",
        -9.446997535559731
      ],
      [
        "ĠPortugal",
        -9.447181526292445
      ],
      [
        "realizaÃ§Ã£o",
        -9.447421272912546
      ],
      [
        "Ġacho",
        -9.448532004439494
      ],
      [
        "NA",
        -9.450930944533546
      ],
      [
        "2012",
        -9.451571904010155
      ],
      [
        "ĠcrianÃ§as",
        -9.451994589797634
      ],
      [
        "ĠMarco",
        -9.452032408669652
      ],
      [
        "Ġlinha",
        -9.452346066448063
      ],
      [
        "ĠGu",
        -9.45261585773962
      ],
      [
        "ĠSP",
        -9.454076792484535
      ],
      [
        "23",
        -9.454225132805592
      ],
      [
        "Ġmaneira",
        -9.45541154972603
      ],
      [
        "ny",
        -9.455678081256846
      ],
      [
        "ĠÃ¡lbum",
        -9.456188942694332
      ],
      [
        "ĠX",
        -9.456200231426926
      ],
      [
        "ĠespÃ©cie",
        -9.45660783522212
      ],
      [
        "Ġpossui",
        -9.456700247910147
      ],
      [
        "ĠPode",
        -9.457007879731774
      ],
      [
        "Ġautor",
        -9.458484390493672
      ],
      [
        "ĠCam",
        -9.458733183936229
      ],
      [
        "vÃ¡rias",
        -9.460008394596224
      ],
      [
        "95",
        -9.460532003430252
      ],
      [
        "ĠediÃ§Ã£o",
        -9.46080893179666
      ],
      [
        "bol",
        -9.461209992736997
      ],
      [
        "gan",
        -9.461455125276478
      ],
      [
        "Ġhora",
        -9.461605391880044
      ],
      [
        "2016",
        -9.461706706829446
      ],
      [
        "ĠMesa",
        -9.461830898355707
      ],
      [
        "Ġparece",
        -9.462137689524006
      ],
      [
        "ĠMinas",
        -9.462627113850548
      ],
      [
        "Ġdebate",
        -9.4633453802015
      ],
      [
        "Ġfrente",
        -9.464982351226816
      ],
      [
        "Ġassunto",
        -9.465055202677748
      ],
      [
        "Ġprincipalmente",
        -9.467033323235627
      ],
      [
        "Partido",
        -9.467873530632485
      ],
      [
        "ÃŃn",
        -9.468299870549185
      ],
      [
        "ice",
        -9.468690331189215
      ],
      [
        "tando",
        -9.468941102034895
      ],
      [
        "poderÃ¡",
        -9.46980178554968
      ],
      [
        "legislativa",
        -9.469807752749714
      ],
      [
        "Ġchamado",
        -9.470286996121798
      ],
      [
        "ĠEstou",
        -9.471102431706166
      ],
      [
        "LO",
        -9.472173634791238
      ],
      [
        "Í",
        -9.47298892748504
      ],
      [
        "ĠDesenvolvimento",
        -9.47369979376082
      ],
      [
        "ĠespaÃ§o",
        -9.474383388476353
      ],
      [
        "Ġpapel",
        -9.474426017964849
      ],
      [
        "Ġ2017",
        -9.47499139385162
      ],
      [
        "Ġvir",
        -9.477143276879849
      ],
      [
        "ĠvÃ£o",
        -9.477364112799574
      ],
      [
        "Ġforte",
        -9.477627225548783
      ],
      [
        "Ġcorpo",
        -9.477900631407568
      ],
      [
        "ĠNorte",
        -9.478389934565593
      ],
      [
        "Ġauto",
        -9.47846885670597
      ],
      [
        "ĠFrancisco",
        -9.478541293354963
      ],
      [
        "sejam",
        -9.478584526784443
      ],
      [
        "Ġestrutura",
        -9.47877373749089
      ],
      [
        "Ġproblemas",
        -9.479492438980529
      ],
      [
        "48",
        -9.480886576557127
      ],
      [
        "ĠSE",
        -9.481176044161456
      ],
      [
        "presenÃ§a",
        -9.484129001095194
      ],
      [
        "Ġcapital",
        -9.484258331869912
      ],
      [
        "tan",
        -9.484397500950124
      ],
      [
        "ĠCons",
        -9.484963565453125
      ],
      [
        "Ġvia",
        -9.486599495912616
      ],
      [
        "Ġcara",
        -9.488670886803444
      ],
      [
        "Ġhouve",
        -9.489081714025469
      ],
      [
        "MunicÃŃpios",
        -9.48913633555606
      ],
      [
        "ĠDJ",
        -9.493236405593809
      ],
      [
        "reais",
        -9.493882682382033
      ],
      [
        "61",
        -9.495763923894309
      ],
      [
        "vida",
        -9.496256258172558
      ],
      [
        "Ġcoisas",
        -9.496752227992518
      ],
      [
        "ĠCi",
        -9.496882886971282
      ],
      [
        "Ġbanda",
        -9.497141914683713
      ],
      [
        "concessÃ£o",
        -9.498017251012142
      ],
      [
        "dÃ©cada",
        -9.498141126882992
      ],
      [
        "ĠHi",
        -9.49871180139944
      ],
      [
        "Ġalguma",
        -9.501016006407529
      ],
      [
        "Ġmovimento",
        -9.50129626625619
      ],
      [
        "Ġconhecimento",
        -9.501486293411276
      ],
      [
        "Ġrepresenta",
        -9.502272683316844
      ],
      [
        "21",
        -9.502676721687324
      ],
      [
        "ĠNi",
        -9.502916691764373
      ],
      [
        "prÃ³ximo",
        -9.503179439604336
      ],
      [
        "Ġprofessor",
        -9.503576392807648
      ],
      [
        "esta",
        -9.504155483467098
      ],
      [
        "Ġposso",
        -9.504576483590624
      ],
      [
        "tornou",
        -9.50500489844068
      ],
      [
        "2014",
        -9.505015507147746
      ],
      [
        "Ġinc",
        -9.505723233665266
      ],
      [
        "execuÃ§Ã£o",
        -9.50724385377548
      ],
      [
        "):",
        -9.507945373995348
      ],
      [
        "Ġembora",
        -9.508405800791214
      ],
      [
        "Ġbusca",
        -9.5110841925097
      ],
      [
        "Ĥ",
        -9.512547688950326
      ],
      [
        "Ġ:)",
        -9.512589702532322
      ],
      [
        "responsabilidade",
        -9.51349700202681
      ],
      [
        "tÃ³rio",
        -9.513809107581752
      ],
      [
        "Ġtal",
        -9.514068924176495
      ],
      [
        "Ġautoriza",
        -9.514723891111151
      ],
      [
        "Ġdele",
        -9.515490809938449
      ],
      [
        "Ġoportunidade",
        -9.515503688159134
      ],
      [
        "ĠGra",
        -9.515581769434982
      ],
      [
        "gem",
        -9.516204145452502
      ],
      [
        "COMISSÃĥO",
        -9.51708299501492
      ],
      [
        "ĠSeu",
        -9.517314527258131
      ],
      [
        "Ġdeveria",
        -9.519297592410489
      ],
      [
        "33",
        -9.519429510357458
      ],
      [
        "Ġpassado",
        -9.519925223506258
      ],
      [
        "Ġlivro",
        -9.523141989361854
      ],
      [
        "ĠcompetÃªncia",
        -9.523894971714702
      ],
      [
        "ĠfunÃ§Ã£o",
        -9.52500457014137
      ],
      [
        "55",
        -9.525095782869936
      ],
      [
        "Ġmu",
        -9.526719714388229
      ],
      [
        "NI",
        -9.5267843351847
      ],
      [
        "ĠimportÃ¢ncia",
        -9.527302302743657
      ],
      [
        "Ġdeixa",
        -9.527364358704718
      ],
      [
        "aprovado",
        -9.528019522150794
      ],
      [
        "Ġescola",
        -9.528142545471786
      ],
      [
        "ĠmÃ©dia",
        -9.528727034325517
      ],
      [
        "ĠApÃ³s",
        -9.529713716936277
      ],
      [
        "Distrito",
        -9.529773923671534
      ],
      [
        "Ġ2019",
        -9.529994797667586
      ],
      [
        "ĠAntonio",
        -9.53049466937088
      ],
      [
        "sic",
        -9.53056360248714
      ],
      [
        "ĠSan",
        -9.531063644605974
      ],
      [
        "exame",
        -9.532348252302132
      ],
      [
        "Ġfe",
        -9.533494581153224
      ],
      [
        "ĠRIC",
        -9.533792061332584
      ],
      [
        "previsto",
        -9.534492182063063
      ],
      [
        "93",
        -9.534599753124606
      ],
      [
        "RECURSO",
        -9.534773466631073
      ],
      [
        "Ġalgum",
        -9.535789261963036
      ],
      [
        "ĠEd",
        -9.536028622328136
      ],
      [
        "Defesa",
        -9.536099415329463
      ],
      [
        "34",
        -9.536332206357793
      ],
      [
        "Ġlista",
        -9.53681892564648
      ],
      [
        "Ġhaver",
        -9.536819570332376
      ],
      [
        "Ġentra",
        -9.537152115096651
      ],
      [
        "ĠCivil",
        -9.537615960783192
      ],
      [
        "atividades",
        -9.538017406050246
      ],
      [
        "disposto",
        -9.538426292997778
      ],
      [
        "Ġ2000",
        -9.539232091739636
      ],
      [
        "Ġmulher",
        -9.539709174512849
      ],
      [
        "ĠGe",
        -9.540167961619764
      ],
      [
        "Ġ2020",
        -9.540909142470282
      ],
      [
        "Ġmarca",
        -9.541547999909548
      ],
      [
        "sur",
        -9.54217150546826
      ],
      [
        "DEM",
        -9.543555601067109
      ],
      [
        "Ġand",
        -9.544414284786605
      ],
      [
        "ell",
        -9.546958919975554
      ],
      [
        "cÃ³rdÃ£o",
        -9.548352258089556
      ],
      [
        "Ġ2002",
        -9.54931328916479
      ],
      [
        "sociais",
        -9.5502033199083
      ],
      [
        "ĠEMENDA",
        -9.55080449301974
      ],
      [
        "portanto",
        -9.551867905828638
      ],
      [
        "Ġgente",
        -9.553181893733337
      ],
      [
        "ĠpÃ¡gina",
        -9.554098968434742
      ],
      [
        "Ãį",
        -9.554854303665934
      ],
      [
        "Ġmodelo",
        -9.554914661403387
      ],
      [
        "Ġ1990",
        -9.555307422092412
      ],
      [
        "isto",
        -9.555560945225718
      ],
      [
        "Ġpessoal",
        -9.555639279725725
      ],
      [
        "ĠIV",
        -9.55607551905893
      ],
      [
        "ĠprincÃŃpio",
        -9.556095883316903
      ],
      [
        "zada",
        -9.557081443851862
      ],
      [
        "ĠTecnologia",
        -9.557252314345565
      ],
      [
        "44",
        -9.558167005270228
      ],
      [
        "ĠCOM",
        -9.560477047004085
      ],
      [
        "posiÃ§Ã£o",
        -9.561078694813707
      ],
      [
        "Ġagr",
        -9.561169168413874
      ],
      [
        "Ġdu",
        -9.56138717226606
      ],
      [
        "ĠCA",
        -9.561468377041235
      ],
      [
        "ĠPE",
        -9.561560442377123
      ],
      [
        "mentos",
        -9.56253591208157
      ],
      [
        "Ġgra",
        -9.56342780092259
      ],
      [
        "ĠmudanÃ§a",
        -9.563442245514542
      ],
      [
        "Ġlogo",
        -9.564075172448655
      ],
      [
        "net",
        -9.564297590342484
      ],
      [
        "mÃªs",
        -9.56430197460215
      ],
      [
        "risco",
        -9.564721221172116
      ],
      [
        "Ġchegar",
        -9.566358675057533
      ],
      [
        "Ġsenhor",
        -9.56660452125361
      ],
      [
        "ĠPA",
        -9.5666505197435
      ],
      [
        "Ġexiste",
        -9.568134992885671
      ],
      [
        "Ġreal",
        -9.568556552144743
      ],
      [
        "ĠPrimeira",
        -9.569477342669266
      ],
      [
        "eiro",
        -9.56971360852159
      ],
      [
        "nessa",
        -9.570404284895137
      ],
      [
        "Ġefeito",
        -9.571310779907758
      ],
      [
        "ĠComunicaÃ§Ã£o",
        -9.571846536766069
      ],
      [
        "iniciativa",
        -9.572001437065206
      ],
      [
        "ĠinglÃªs",
        -9.573179180956654
      ],
      [
        "vel",
        -9.573430410943136
      ],
      [
        "possibilidade",
        -9.573773894205042
      ],
      [
        "ServiÃ§o",
        -9.574483076061316
      ],
      [
        "Ġajuda",
        -9.574501849184069
      ],
      [
        "AI",
        -9.575120717522084
      ],
      [
        "ĠBrasileiro",
        -9.576134439906856
      ],
      [
        "Ġsuper",
        -9.576993635807844
      ],
      [
        "Campeonato",
        -9.578288822654208
      ],
      [
        "Ġalta",
        -9.578775869278612
      ],
      [
        "ela",
        -9.579211684926284
      ],
      [
        "cal",
        -9.580927682748122
      ],
      [
        "Ġficou",
        -9.581038676737778
      ],
      [
        "Ġfinanceira",
        -9.581612732515152
      ],
      [
        "Ġaquele",
        -9.582024357532593
      ],
      [
        "prevista",
        -9.582128618202011
      ],
      [
        "ĠAb",
        -9.58298075193624
      ],
      [
        "ĠREQUERIMENTO",
        -9.583132980274412
      ],
      [
        "ĠRel",
        -9.585002943410933
      ],
      [
        "Ġqueria",
        -9.586395047099776
      ],
      [
        "mÃ©rito",
        -9.58672497837446
      ],
      [
        "Ġnenhum",
        -9.587010859011883
      ],
      [
        "ĠCorte",
        -9.587211523725845
      ],
      [
        "Ġcarreira",
        -9.587762118377103
      ],
      [
        "ĠObrigado",
        -9.587788084875433
      ],
      [
        "ĠCan",
        -9.588516670834998
      ],
      [
        "FI",
        -9.58974107115128
      ],
      [
        "ĠIm",
        -9.590784832114382
      ],
      [
        "Ġapresenta",
        -9.59105300666826
      ],
      [
        "leg",
        -9.592120067220549
      ],
      [
        "ĠInstituto",
        -9.592381643509656
      ],
      [
        "Do",
        -9.592496519193729
      ],
      [
        "Ġprofissional",
        -9.593007787138705
      ],
      [
        "39",
        -9.593264175355095
      ],
      [
        "Ġprojetos",
        -9.593618238783504
      ],
      [
        "ley",
        -9.593812678636702
      ],
      [
        "Ġtemporada",
        -9.594411127214116
      ],
      [
        "ian",
        -9.594525326531809
      ],
      [
        "ato",
        -9.594802551791034
      ],
      [
        "ĠFe",
        -9.59503411990942
      ],
      [
        "Ġdar",
        -9.596866918225205
      ],
      [
        "discussÃ£o",
        -9.59692157252595
      ],
      [
        "Presidente",
        -9.59865448067744
      ],
      [
        "jurÃŃdica",
        -9.598783428721196
      ],
      [
        "bilhÃµes",
        -9.599152982910034
      ],
      [
        "discurso",
        -9.599777737437044
      ],
      [
        "podemos",
        -9.599876769836987
      ],
      [
        "ĠAmÃ©rica",
        -9.599928612054695
      ],
      [
        "laÃ§Ã£o",
        -9.601308554624254
      ],
      [
        "Ġanterior",
        -9.601899815868428
      ],
      [
        "ĠExcelÃªncia",
        -9.602357012402967
      ],
      [
        "Ġdez",
        -9.602571698893296
      ],
      [
        "Ġsucesso",
        -9.602589805695704
      ],
      [
        "ĠCosta",
        -9.602962787349616
      ],
      [
        "Ã¢mbito",
        -9.604230382410114
      ],
      [
        "TambÃ©m",
        -9.604586812984056
      ],
      [
        "Ġvigor",
        -9.605032552043378
      ],
      [
        "ĠTra",
        -9.606054320573868
      ],
      [
        "Ġafirma",
        -9.6065983761482
      ],
      [
        "Ġ2001",
        -9.607365196560773
      ],
      [
        "ĠquÃª",
        -9.607537883842106
      ],
      [
        "Ġoutorga",
        -9.6077554743997
      ],
      [
        "Ġcar",
        -9.60786005235536
      ],
      [
        "Ġclube",
        -9.608439393531272
      ],
      [
        "ĠCunha",
        -9.60953682482308
      ],
      [
        "ini",
        -9.609748958155595
      ],
      [
        "Ġcampanha",
        -9.609901039358675
      ],
      [
        "Geral",
        -9.61013989752504
      ],
      [
        "Ġpauta",
        -9.610257293284407
      ],
      [
        "pan",
        -9.611059212303717
      ],
      [
        "ĠRequerimento",
        -9.611813535714871
      ],
      [
        "24",
        -9.612667233336785
      ],
      [
        "Ġnobre",
        -9.612910312039018
      ],
      [
        "fl",
        -9.61367371539131
      ],
      [
        "Ġcerteza",
        -9.614818777217655
      ],
      [
        "ĠBen",
        -9.615906415677877
      ],
      [
        "ĠCh",
        -9.615932541076184
      ],
      [
        "comeÃ§ou",
        -9.615943318383325
      ],
      [
        "ĠSal",
        -9.61598614664574
      ],
      [
        "Ġnota",
        -9.61602635425466
      ],
      [
        "mandato",
        -9.61695039929974
      ],
      [
        "Ġtransporte",
        -9.61709230199116
      ],
      [
        "ĠEst",
        -9.617213284992582
      ],
      [
        "Ġtitular",
        -9.618535124419967
      ],
      [
        "Depois",
        -9.619648687334552
      ],
      [
        "membros",
        -9.621260409161431
      ],
      [
        "valores",
        -9.62126415147019
      ],
      [
        "Ġfederal",
        -9.621375567307352
      ],
      [
        "ÃļLTI",
        -9.622915626867435
      ],
      [
        "nica",
        -9.62311006445444
      ],
      [
        "Ġteria",
        -9.62315510193678
      ],
      [
        "Ġoriginal",
        -9.624011344828247
      ],
      [
        "Ġocorre",
        -9.624118646774392
      ],
      [
        "ĠposiÃ§Ã£o",
        -9.62430134528934
      ],
      [
        "Ġcentro",
        -9.624836372480384
      ],
      [
        "ĠGuerra",
        -9.625062215842544
      ],
      [
        "2005",
        -9.625756034081
      ],
      [
        "Ġ40",
        -9.626153459342037
      ],
      [
        "tados",
        -9.626239932739065
      ],
      [
        "econÃ´mica",
        -9.626397565501982
      ],
      [
        "ĠalguÃ©m",
        -9.62660670116396
      ],
      [
        "ĠaplicaÃ§Ã£o",
        -9.627770742412087
      ],
      [
        "Î",
        -9.628064647213236
      ],
      [
        "Ġarma",
        -9.628889447436912
      ],
      [
        "ĠterritÃ³rio",
        -9.630426535433674
      ],
      [
        "47",
        -9.631674086317917
      ],
      [
        "obras",
        -9.631794781645988
      ],
      [
        "Ġprincipais",
        -9.63199135257086
      ],
      [
        "ĠCopa",
        -9.63259176632487
      ],
      [
        "Ġrealizado",
        -9.632595029145962
      ],
      [
        "Ġresultado",
        -9.633506672085272
      ],
      [
        "ĠSecretaria",
        -9.633921286297548
      ],
      [
        "zado",
        -9.63463107690482
      ],
      [
        "BE",
        -9.634987105259988
      ],
      [
        "bert",
        -9.636700763648156
      ],
      [
        "ÃĩÃķES",
        -9.6372181559603
      ],
      [
        "tel",
        -9.63738028669446
      ],
      [
        "ĠEles",
        -9.637762611686812
      ],
      [
        "lado",
        -9.637869501155436
      ],
      [
        "ĠTu",
        -9.638234096067242
      ],
      [
        "ĠTV",
        -9.638312611398716
      ],
      [
        "CURSO",
        -9.640549626567754
      ],
      [
        "tido",
        -9.64064638978456
      ],
      [
        "Ġpontos",
        -9.641274109996806
      ],
      [
        "Ġclaro",
        -9.641307780666212
      ],
      [
        "NT",
        -9.641720700648197
      ],
      [
        "Ġautos",
        -9.641755429513784
      ],
      [
        "ĠEspecial",
        -9.641811124185937
      ],
      [
        "Ġcan",
        -9.64202309321728
      ],
      [
        "ite",
        -9.642403474308368
      ],
      [
        "Ġrenda",
        -9.642422639463389
      ],
      [
        "cionais",
        -9.643346921298296
      ],
      [
        "Ġrefere",
        -9.645075576614063
      ],
      [
        "ĠinformaÃ§Ã£o",
        -9.645721842282596
      ],
      [
        "Ġideia",
        -9.646596376866135
      ],
      [
        "EIRA",
        -9.64791996122478
      ],
      [
        "Ã³rgÃ£o",
        -9.64806664888794
      ],
      [
        "Ġcrise",
        -9.649552897123398
      ],
      [
        "apreciaÃ§Ã£o",
        -9.65021859097515
      ],
      [
        "Ġ2018",
        -9.650825454080286
      ],
      [
        "Ġconsiderado",
        -9.651924144062564
      ],
      [
        "Ġnatureza",
        -9.652003910050182
      ],
      [
        "cido",
        -9.654440845729964
      ],
      [
        "ã",
        -9.656209979818046
      ],
      [
        "Ġturno",
        -9.65696258468695
      ],
      [
        "comunicaÃ§Ã£o",
        -9.657266557350958
      ],
      [
        "Ã¡rios",
        -9.65735125056404
      ],
      [
        "ĠQuero",
        -9.657353231518346
      ],
      [
        "ĠMIN",
        -9.657540786135351
      ],
      [
        "deverÃ¡",
        -9.658181584376887
      ],
      [
        "2019",
        -9.659728124625085
      ],
      [
        "Ġperde",
        -9.661064223497029
      ],
      [
        "ĠatenÃ§Ã£o",
        -9.66214870985376
      ],
      [
        "Ġfase",
        -9.662192084664776
      ],
      [
        "Ġlivre",
        -9.663456303308928
      ],
      [
        "nÃ£o",
        -9.665747863260489
      ],
      [
        "ĠQuem",
        -9.665932868036364
      ],
      [
        "Ġ1998",
        -9.666077446174246
      ],
      [
        "Ġsede",
        -9.667062860670669
      ],
      [
        "Ġrede",
        -9.667266054483315
      ],
      [
        "provimento",
        -9.668060798387282
      ],
      [
        "dura",
        -9.67026503893531
      ],
      [
        "Ordem",
        -9.670796069085482
      ],
      [
        "ĠRicardo",
        -9.670982668844738
      ],
      [
        "chegou",
        -9.672951027167985
      ],
      [
        "ĠDireito",
        -9.67331900100362
      ],
      [
        "Ġcriar",
        -9.673657369655466
      ],
      [
        "ĠHenrique",
        -9.673763786126612
      ],
      [
        "rÃ©",
        -9.674734127619056
      ],
      [
        "Ġcomunidade",
        -9.675615840127524
      ],
      [
        "Ġdiferentes",
        -9.676415835332412
      ],
      [
        "ĠmÃ£o",
        -9.67723667674358
      ],
      [
        "ĠAGRAV",
        -9.67781177929908
      ],
      [
        "ĠSistema",
        -9.677943905228718
      ],
      [
        "ĠAlves",
        -9.678879848828675
      ],
      [
        "ĠBra",
        -9.67902999122913
      ],
      [
        "Ġautoria",
        -9.679225340431262
      ],
      [
        "Apensa",
        -9.681386333571195
      ],
      [
        "Ġcaput",
        -9.68246938262335
      ],
      [
        "existÃªncia",
        -9.68370787496935
      ],
      [
        "Ġsignifica",
        -9.68437676182348
      ],
      [
        "idades",
        -9.68551213004652
      ],
      [
        "Ġpenal",
        -9.685538843300646
      ],
      [
        "ĠMINISTR",
        -9.685613404902607
      ],
      [
        "Ġguerra",
        -9.685898640519568
      ],
      [
        "ĠRu",
        -9.686105972362869
      ],
      [
        "Ġob",
        -9.687374452927628
      ],
      [
        "ĠSantos",
        -9.688398710243044
      ],
      [
        "Ġtaxa",
        -9.688663107358243
      ],
      [
        "ĠDias",
        -9.68871997351378
      ],
      [
        "dÃ£o",
        -9.68923421831515
      ],
      [
        "ĠPereira",
        -9.68975591942666
      ],
      [
        "ĠSanto",
        -9.68995091977868
      ],
      [
        "MO",
        -9.690139931559392
      ],
      [
        "Ġcategoria",
        -9.690504677461572
      ],
      [
        "Ģ",
        -9.69152417280531
      ],
      [
        "ĠCO",
        -9.691953561230193
      ],
      [
        "REG",
        -9.693485441687413
      ],
      [
        "essÃµes",
        -9.694750711017448
      ],
      [
        "tÃ³ria",
        -9.695024894233883
      ],
      [
        "2017",
        -9.695494758914991
      ],
      [
        "Ã¡veis",
        -9.699070340786673
      ],
      [
        "ĠÃºnica",
        -9.699873387329706
      ],
      [
        "GO",
        -9.70018431228713
      ],
      [
        "ko",
        -9.701261362991364
      ],
      [
        "acima",
        -9.70176681207654
      ],
      [
        "Ġmenor",
        -9.701915627599227
      ],
      [
        "Cidadania",
        -9.701975069072724
      ],
      [
        "Ã³rgÃ£os",
        -9.702115893532577
      ],
      [
        "Ġres",
        -9.703268435197732
      ],
      [
        "quer",
        -9.70366582010666
      ],
      [
        "Ġqu",
        -9.70419505389701
      ],
      [
        "Ġpequeno",
        -9.70488299205604
      ],
      [
        "ĠformaÃ§Ã£o",
        -9.705248251809396
      ],
      [
        "PolÃŃcia",
        -9.706326419801362
      ],
      [
        "cujo",
        -9.708103986003955
      ],
      [
        "ĠMais",
        -9.708831111479332
      ],
      [
        "Ġinternacional",
        -9.709315832503169
      ],
      [
        "ĠSi",
        -9.709391346852794
      ],
      [
        "gestÃ£o",
        -9.70973684617438
      ],
      [
        "nada",
        -9.710703688915784
      ],
      [
        "Ġplano",
        -9.712926396246283
      ],
      [
        "Ġ54",
        -9.713337491611815
      ],
      [
        "soluÃ§Ã£o",
        -9.714105678616086
      ],
      [
        "trabalhadores",
        -9.715866211910326
      ],
      [
        "Ġ#",
        -9.719371702775698
      ],
      [
        "Medida",
        -9.719514887845136
      ],
      [
        "gente",
        -9.719721951811376
      ],
      [
        "Ġeleito",
        -9.720452157705967
      ],
      [
        "Ġsul",
        -9.72071964113216
      ],
      [
        "Ġvisita",
        -9.720949236538296
      ],
      [
        "dora",
        -9.721788439793954
      ],
      [
        "lei",
        -9.722332426063478
      ],
      [
        "ĠreferÃªncia",
        -9.723593186319048
      ],
      [
        "Ġseis",
        -9.72385058490095
      ],
      [
        "Ġleva",
        -9.72389137145126
      ],
      [
        "amente",
        -9.724101043040314
      ],
      [
        "ÃŃvel",
        -9.724989884613866
      ],
      [
        "PP",
        -9.725523590075772
      ],
      [
        "ĠParlamentar",
        -9.725667167395375
      ],
      [
        "ĠInter",
        -9.725972682054993
      ],
      [
        "ĠDilma",
        -9.725985786094308
      ],
      [
        "mediante",
        -9.726182726916518
      ],
      [
        "lt",
        -9.726916710837996
      ],
      [
        "destaque",
        -9.728536081311749
      ],
      [
        "sim",
        -9.728704495061605
      ],
      [
        "ĠPorto",
        -9.728828842773003
      ],
      [
        "Ġfundo",
        -9.72931719024928
      ],
      [
        "ĠPSD",
        -9.729380773239736
      ],
      [
        "Ġcaminho",
        -9.730398023392688
      ],
      [
        "ĠRosa",
        -9.731666062964052
      ],
      [
        "ĠinstituiÃ§Ãµes",
        -9.731949454628316
      ],
      [
        "ĠAG",
        -9.731951670598658
      ],
      [
        "ĠirmÃ£o",
        -9.732150912978137
      ],
      [
        "ĠEntre",
        -9.732917369002116
      ],
      [
        "Ġdesses",
        -9.733313057231246
      ],
      [
        "recebeu",
        -9.735014930669438
      ],
      [
        "ĠBanco",
        -9.73565324715118
      ],
      [
        "Ġatendimento",
        -9.736203728437872
      ],
      [
        "Ã¢ncia",
        -9.73663082304035
      ],
      [
        "ĠMeu",
        -9.7370053492545
      ],
      [
        "contrÃ¡rio",
        -9.737158567685483
      ],
      [
        "parÃ¡grafo",
        -9.738754860235264
      ],
      [
        "cuja",
        -9.739827101678427
      ],
      [
        "realmente",
        -9.740604427488952
      ],
      [
        "Ġcultura",
        -9.742493977788811
      ],
      [
        "ĠHistÃ³ria",
        -9.74458058111515
      ],
      [
        "Ġnovos",
        -9.744691361954596
      ],
      [
        "MS",
        -9.744863691696258
      ],
      [
        "ĠVou",
        -9.745144437366656
      ],
      [
        "ĠNesse",
        -9.745914119943349
      ],
      [
        "ĠOr",
        -9.746694909231078
      ],
      [
        "lidade",
        -9.74766914849019
      ],
      [
        "category",
        -9.74846332906228
      ],
      [
        "Ġexce",
        -9.751100240459008
      ],
      [
        "Ġman",
        -9.751734747909484
      ],
      [
        "Ġpri",
        -9.75206927428298
      ],
      [
        "Ġresposta",
        -9.753811915154238
      ],
      [
        "Ġporta",
        -9.754962820920436
      ],
      [
        "Ġdisputa",
        -9.755737585040446
      ],
      [
        "Ġmanter",
        -9.755961852331057
      ],
      [
        "vidade",
        -9.756690941809207
      ],
      [
        "critÃ©rio",
        -9.757369534396087
      ],
      [
        "Ġcontinua",
        -9.75765268126086
      ],
      [
        "ĠlanÃ§ado",
        -9.757787958550496
      ],
      [
        "Ġreceber",
        -9.758133219072924
      ],
      [
        "violÃªncia",
        -9.75929868736248
      ],
      [
        "Ġ32",
        -9.759894855588694
      ],
      [
        "Ġtrabalhos",
        -9.760757017425204
      ],
      [
        "Gerais",
        -9.760904414907388
      ],
      [
        "org",
        -9.761286041408944
      ],
      [
        "ĠMarcelo",
        -9.76244705080747
      ],
      [
        "shi",
        -9.762495548874664
      ],
      [
        "ĠFundo",
        -9.762656724443277
      ],
      [
        "Durante",
        -9.762846558502984
      ],
      [
        "ĠSub",
        -9.76350963636982
      ],
      [
        "Ġcapacidade",
        -9.763869708372606
      ],
      [
        "2006",
        -9.76401407426492
      ],
      [
        "ĠOh",
        -9.765518748938234
      ],
      [
        "Ġliberdade",
        -9.766454800506066
      ],
      [
        "PAULO",
        -9.76715102876824
      ],
      [
        "ĠSol",
        -9.767580785074864
      ],
      [
        "Ġreuni",
        -9.767765671205362
      ],
      [
        "ĠADV",
        -9.769450074940542
      ],
      [
        "ĠMato",
        -9.769743976538066
      ],
      [
        "ĠRÃ¡dio",
        -9.769832737890203
      ],
      [
        "Ġcriado",
        -9.769979429551032
      ],
      [
        "homens",
        -9.772259947257258
      ],
      [
        "Ġartigos",
        -9.772263094062316
      ],
      [
        "ĠBahia",
        -9.773123244669604
      ],
      [
        "Ġtorna",
        -9.77416761017157
      ],
      [
        "Ġvotar",
        -9.774227918802882
      ],
      [
        "Ġcivil",
        -9.774674260719664
      ],
      [
        "ĠBrasileira",
        -9.77577002838693
      ],
      [
        "Ġexecutar",
        -9.777741866507112
      ],
      [
        "oli",
        -9.77818979973666
      ],
      [
        "ĠJorge",
        -9.778692239584474
      ],
      [
        "proteÃ§Ã£o",
        -9.778855998567913
      ],
      [
        "preÃ§o",
        -9.779349406789104
      ],
      [
        "Ġdiversos",
        -9.780444934688044
      ],
      [
        "ĠresponsÃ¡vel",
        -9.780658155699632
      ],
      [
        "Ġterceiro",
        -9.78071189992794
      ],
      [
        "Ġmaterial",
        -9.78089707353851
      ],
      [
        "Ġmostra",
        -9.781224432265214
      ],
      [
        "ARDO",
        -9.78125694734413
      ],
      [
        "pressÃ£o",
        -9.781544635795326
      ],
      [
        "ĠLima",
        -9.78167978778526
      ],
      [
        "servidores",
        -9.782185371887694
      ],
      [
        "Ġautoridade",
        -9.7826187697858
      ],
      [
        "gens",
        -9.782817552025126
      ],
      [
        "32",
        -9.783115351643149
      ],
      [
        "devem",
        -9.783790175751196
      ],
      [
        "ĠSENHOR",
        -9.784539232531548
      ],
      [
        "Ġrejei",
        -9.785008789797004
      ],
      [
        "Ġincluindo",
        -9.78535023657822
      ],
      [
        "maiores",
        -9.785360462111743
      ],
      [
        "ĠBR",
        -9.785834161830838
      ],
      [
        "Ġambiente",
        -9.785918621082011
      ],
      [
        "pp",
        -9.786924762065269
      ],
      [
        "ĠMundial",
        -9.786948673810302
      ],
      [
        "ProvisÃ³ria",
        -9.788232786961784
      ],
      [
        "ģ",
        -9.788377262617685
      ],
      [
        "Ġchamada",
        -9.78892160210628
      ],
      [
        "ĠAdministraÃ§Ã£o",
        -9.790003799060454
      ],
      [
        "Ġhomenage",
        -9.790024917835506
      ],
      [
        "PA",
        -9.79118764544844
      ],
      [
        "SOL",
        -9.793098567470638
      ],
      [
        "Ġapresentado",
        -9.793114985666564
      ],
      [
        "ĠWe",
        -9.793425093114914
      ],
      [
        "serem",
        -9.79390073808483
      ],
      [
        "Ġacha",
        -9.793989929034778
      ],
      [
        "ĠEra",
        -9.794525063442624
      ],
      [
        "Ġdiversas",
        -9.795873196011772
      ],
      [
        "Ġestudo",
        -9.7961487938914
      ],
      [
        "ĠDis",
        -9.797887036098825
      ],
      [
        "Ġisto",
        -9.799024453873624
      ],
      [
        "Ġ1997",
        -9.799589350325457
      ],
      [
        "Ġprofissionais",
        -9.799751112512771
      ],
      [
        "ĠInternacional",
        -9.800049293828629
      ],
      [
        "Ainda",
        -9.800198077821651
      ],
      [
        "ĠPar",
        -9.800991395827856
      ],
      [
        "Ġnorma",
        -9.801868924435968
      ],
      [
        "ĠâĢĺ",
        -9.802126317954825
      ],
      [
        "ĠvocÃªs",
        -9.803154191954947
      ],
      [
        "ĠMendes",
        -9.803212223727192
      ],
      [
        "Ġcabe",
        -9.80399120180083
      ],
      [
        "ĠJohn",
        -9.804038505584748
      ],
      [
        "han",
        -9.804339573649765
      ],
      [
        "Ġpassar",
        -9.80630013304756
      ],
      [
        "Ġamor",
        -9.806649194293824
      ],
      [
        "tratamento",
        -9.806836182172251
      ],
      [
        "gostaria",
        -9.809322760955224
      ],
      [
        "ĠTudo",
        -9.810366561275822
      ],
      [
        "Ġinstrumento",
        -9.811727814209664
      ],
      [
        "Ġamigo",
        -9.811809512415536
      ],
      [
        "43",
        -9.812554309115487
      ],
      [
        "Ġchega",
        -9.812665550847118
      ],
      [
        "zer",
        -9.813509518472545
      ],
      [
        "ĠeconÃ´mico",
        -9.813519310599194
      ],
      [
        "ĠcomeÃ§a",
        -9.814257380282683
      ],
      [
        "Ġacaba",
        -9.81512762047146
      ],
      [
        "Ġha",
        -9.815371728944587
      ],
      [
        "ĠHu",
        -9.816198749349496
      ],
      [
        "ĠAna",
        -9.816243718839432
      ],
      [
        "Ġfins",
        -9.816402017729978
      ],
      [
        "Ġtri",
        -9.81679177756288
      ],
      [
        "cus",
        -9.817035368686213
      ],
      [
        "reduÃ§Ã£o",
        -9.817372418629995
      ],
      [
        "Ġextra",
        -9.81824469457223
      ],
      [
        "PCdoB",
        -9.81867381655394
      ],
      [
        "Ġgarantia",
        -9.81929270423467
      ],
      [
        "31",
        -9.820135969027396
      ],
      [
        "Of",
        -9.821668493499123
      ],
      [
        "Ġnenhuma",
        -9.82189511146196
      ],
      [
        "Ġcumprimento",
        -9.821999799913506
      ],
      [
        "Ġfundamental",
        -9.82288414507598
      ],
      [
        "ĠCE",
        -9.823050525870135
      ],
      [
        "Ġ33",
        -9.823985786550162
      ],
      [
        "ĠVoss",
        -9.824557173334377
      ],
      [
        "Ġapresentar",
        -9.824909177906145
      ],
      [
        "ĠGovernador",
        -9.825087213958607
      ],
      [
        "Ġcarro",
        -9.825240902328469
      ],
      [
        "ty",
        -9.825351326526109
      ],
      [
        "Ġfuturo",
        -9.825763703791331
      ],
      [
        "Ġfunda",
        -9.826334779374756
      ],
      [
        "Ġusar",
        -9.827112558791596
      ],
      [
        "Ġpergunta",
        -9.829788665478258
      ],
      [
        "Ġdeclar",
        -9.831049347381455
      ],
      [
        "ĠMal",
        -9.831495362566672
      ],
      [
        "Ġcusto",
        -9.832541916409845
      ],
      [
        "Ġsol",
        -9.833583677748772
      ],
      [
        "pronunciamento",
        -9.834315050562868
      ],
      [
        "Ġnovas",
        -9.83503821428075
      ],
      [
        "GU",
        -9.83509114142996
      ],
      [
        "Ġindica",
        -9.835444084695515
      ],
      [
        "normas",
        -9.835453673296389
      ],
      [
        "Ġevento",
        -9.835659434249427
      ],
      [
        "94",
        -9.836332574556833
      ],
      [
        "stÃµes",
        -9.836976557683276
      ],
      [
        "fÃŃsica",
        -9.837039762783904
      ],
      [
        "Ġdiretor",
        -9.837816416543856
      ],
      [
        "Ġgrave",
        -9.837946412890666
      ],
      [
        "Ġmuita",
        -9.83976078046264
      ],
      [
        "Ġfl",
        -9.840868014367109
      ],
      [
        "eiros",
        -9.841435865708036
      ],
      [
        "Ġnatural",
        -9.841667520699655
      ],
      [
        "ĠHer",
        -9.841804815547366
      ],
      [
        "ĠAcho",
        -9.84207673106371
      ],
      [
        "Ġapresentada",
        -9.84343551855143
      ],
      [
        "dÃºvida",
        -9.844128445536692
      ],
      [
        "Ġmilitar",
        -9.844488405466816
      ],
      [
        "lÃ³gica",
        -9.844875097849425
      ],
      [
        "CN",
        -9.845214924488912
      ],
      [
        "Ġjornal",
        -9.846107437161823
      ],
      [
        "ias",
        -9.846260784536849
      ],
      [
        "Ġcerta",
        -9.847123414589667
      ],
      [
        "ĠSuperior",
        -9.847321602511514
      ],
      [
        "\",\"",
        -9.848457440050934
      ],
      [
        "Ġcrescimento",
        -9.849383711860376
      ],
      [
        "Ġajudar",
        -9.849685287833443
      ],
      [
        "Ġju",
        -9.850056448640196
      ],
      [
        "substituiÃ§Ã£o",
        -9.850403250789274
      ],
      [
        "Ġalto",
        -9.851222344254944
      ],
      [
        "ĠPI",
        -9.85173164252974
      ],
      [
        "Ġdeles",
        -9.852253551143376
      ],
      [
        "ĠRJ",
        -9.852508832717923
      ],
      [
        "Ġconsegui",
        -9.85307676067105
      ],
      [
        "ĠLocal",
        -9.853121170528684
      ],
      [
        "produtos",
        -9.853290120679931
      ],
      [
        "ĠCentro",
        -9.853473145360232
      ],
      [
        "entidades",
        -9.85400544839502
      ],
      [
        "ano",
        -9.854067299337634
      ],
      [
        "hipÃ³tese",
        -9.856545051965108
      ],
      [
        "Ġcombate",
        -9.856623491164752
      ],
      [
        "ĠCON",
        -9.85663166951609
      ],
      [
        "ĠPEC",
        -9.857397819763472
      ],
      [
        "Ġsonora",
        -9.857836372359364
      ],
      [
        "Ġdemonstra",
        -9.859522405634284
      ],
      [
        "..............",
        -9.859553795262402
      ],
      [
        "Ġparticular",
        -9.860364051473928
      ],
      [
        "Ġsimples",
        -9.860428362799972
      ],
      [
        "ĠEXTRAORDINÃģRI",
        -9.861859353981217
      ],
      [
        "ĠVoto",
        -9.862586742086137
      ],
      [
        "Ġpermiti",
        -9.863126151934248
      ],
      [
        "tÃ¡rio",
        -9.863144964469043
      ],
      [
        "ĠPmdbP",
        -9.863554563156152
      ],
      [
        "ssem",
        -9.86409805397032
      ],
      [
        "ĠÃģ",
        -9.864146530413118
      ],
      [
        "RIA",
        -9.864457022018875
      ],
      [
        "tecnologia",
        -9.864841742637422
      ],
      [
        "riz",
        -9.865028783271246
      ],
      [
        "audiÃªncia",
        -9.86508037122043
      ],
      [
        "Lei",
        -9.8652257126485
      ],
      [
        "Ġnaquel",
        -9.866764508930716
      ],
      [
        "Ġ60",
        -9.867227337012556
      ],
      [
        "Ġimposto",
        -9.867535748807503
      ],
      [
        "Ġcompra",
        -9.868006624830112
      ],
      [
        "ĠGen",
        -9.869415835126969
      ],
      [
        "Ġ1999",
        -9.869474725517954
      ],
      [
        "posiÃ§Ãµes",
        -9.870266934636298
      ],
      [
        "2003",
        -9.870301383450958
      ],
      [
        "ĠCampos",
        -9.871180836246852
      ],
      [
        "icas",
        -9.873221620243664
      ],
      [
        "Ġfilhos",
        -9.873733842457934
      ],
      [
        "RJ",
        -9.874451237655768
      ],
      [
        "ixou",
        -9.874907616912964
      ],
      [
        "Ġtribuna",
        -9.876147490960411
      ],
      [
        "Ñ",
        -9.876929811837616
      ],
      [
        "ĠninguÃ©m",
        -9.877121654323057
      ],
      [
        "MENTO",
        -9.877912876316726
      ],
      [
        "Ġconquista",
        -9.877929129241815
      ],
      [
        "Ġefetiva",
        -9.878412221915204
      ],
      [
        "Ġ70",
        -9.878428105162085
      ],
      [
        "ĠVal",
        -9.879155662102312
      ],
      [
        "Hoje",
        -9.87917425576703
      ],
      [
        "AM",
        -9.879408369380249
      ],
      [
        "omissÃµes",
        -9.879749818224424
      ],
      [
        "Ġdespes",
        -9.87982224505518
      ],
      [
        "Ġlevar",
        -9.879885468655136
      ],
      [
        "Ġvisto",
        -9.88009415202348
      ],
      [
        "ĠTodos",
        -9.88095772939897
      ],
      [
        "Ġcorre",
        -9.881279670647045
      ],
      [
        "Ġimporta",
        -9.881288481775917
      ],
      [
        "ĠCal",
        -9.881414762935728
      ],
      [
        "Ã§",
        -9.882955899727085
      ],
      [
        "ĠIgreja",
        -9.883195107696846
      ],
      [
        "ĠAqui",
        -9.884239040047184
      ],
      [
        "ĠBer",
        -9.884393912796938
      ],
      [
        "ĠSecretÃ¡rio",
        -9.885345963242647
      ],
      [
        "verÃ£o",
        -9.885537533404376
      ],
      [
        "ĠFu",
        -9.88620878933677
      ],
      [
        "ĠPRO",
        -9.886477725496748
      ],
      [
        "ĠLt",
        -9.886858575377437
      ],
      [
        "Ġcontar",
        -9.88723782142205
      ],
      [
        "ĠterÃ¡",
        -9.887803601116165
      ],
      [
        "Ġdiante",
        -9.888181794467457
      ],
      [
        "ĠEl",
        -9.889115156281784
      ],
      [
        "ĠadministraÃ§Ã£o",
        -9.889248120187544
      ],
      [
        "ĠBA",
        -9.88966797575418
      ],
      [
        "tores",
        -9.890247416796102
      ],
      [
        "by",
        -9.89036766413447
      ],
      [
        "Ġestabelece",
        -9.890632339030248
      ],
      [
        "GL",
        -9.890865501403177
      ],
      [
        "ĠorganizaÃ§Ã£o",
        -9.891837459083526
      ],
      [
        "Ġespecialmente",
        -9.892262809114628
      ],
      [
        "pur",
        -9.89235045660152
      ],
      [
        "ĠGi",
        -9.89246946965553
      ],
      [
        "ĠFranÃ§a",
        -9.892511774940932
      ],
      [
        "ÃŃstica",
        -9.89318838023909
      ],
      [
        "ĠAnex",
        -9.893664722359226
      ],
      [
        "Ġparticipar",
        -9.893759449909457
      ],
      [
        "PFL",
        -9.89437949812736
      ],
      [
        "ani",
        -9.894581960100318
      ],
      [
        "ĠinstituiÃ§Ã£o",
        -9.895134447269252
      ],
      [
        "age",
        -9.895241858647385
      ],
      [
        "lÃ³gico",
        -9.895582569114216
      ],
      [
        "ĠlÃŃngua",
        -9.8968304269085
      ],
      [
        "juridicidade",
        -9.898050966771008
      ],
      [
        "Ġconhecida",
        -9.89851026610248
      ],
      [
        "ĠCultura",
        -9.898659224704062
      ],
      [
        "Ġfutebol",
        -9.899635280781256
      ],
      [
        "ĠSou",
        -9.900211293047256
      ],
      [
        "Tenho",
        -9.900545922030055
      ],
      [
        "tenham",
        -9.900797323847142
      ],
      [
        "ĠFEDERAL",
        -9.900885238534585
      ],
      [
        "ĠversÃ£o",
        -9.903333760214752
      ],
      [
        "iana",
        -9.903903466118212
      ],
      [
        "Ġmeus",
        -9.904156163105242
      ],
      [
        "ĠTemer",
        -9.904233563554012
      ],
      [
        "cimento",
        -9.904632258889611
      ],
      [
        "ĠEi",
        -9.904720420631946
      ],
      [
        "ĠTerra",
        -9.904736953128918
      ],
      [
        "Ġinvestiga",
        -9.90503631455546
      ],
      [
        "Ġcomum",
        -9.905222111598851
      ],
      [
        "Ġ37",
        -9.905537909499694
      ],
      [
        "ĠJÃºnior",
        -9.906014505622688
      ],
      [
        "URMA",
        -9.906316714598178
      ],
      [
        "ting",
        -9.906663291372304
      ],
      [
        "ĠBom",
        -9.907604298893734
      ],
      [
        "Ġsair",
        -9.909379454592084
      ],
      [
        "medidas",
        -9.91003186593582
      ],
      [
        "Ġvale",
        -9.910338491910723
      ],
      [
        "designado",
        -9.910461334738203
      ],
      [
        "Ġrevista",
        -9.910591239931628
      ],
      [
        "Ġbastante",
        -9.9106624521303
      ],
      [
        "Ġfilha",
        -9.911418119417531
      ],
      [
        "ĠRibeiro",
        -9.913237066135943
      ],
      [
        "ĠVale",
        -9.913649972222569
      ],
      [
        "Ġcria",
        -9.913665714788792
      ],
      [
        "proposiÃ§Ã£o",
        -9.914694726420707
      ],
      [
        "comunitÃ¡ria",
        -9.915140352848267
      ],
      [
        "Ġgarantir",
        -9.915625244928036
      ],
      [
        "requer",
        -9.915783638312542
      ],
      [
        "Ptb",
        -9.9163435406838
      ],
      [
        "Ġtermo",
        -9.917069286289498
      ],
      [
        "ĠtÃ©cnico",
        -9.9173954645221
      ],
      [
        "Ġrealidade",
        -9.917411264682215
      ],
      [
        "afirmou",
        -9.917581467811264
      ],
      [
        "conteÃºdo",
        -9.917734566719574
      ],
      [
        "prisÃ£o",
        -9.91824453314594
      ],
      [
        "Ġaprovada",
        -9.918384035012048
      ],
      [
        "Ġnego",
        -9.918738358617166
      ],
      [
        "ĠprÃ³xima",
        -9.9188459509777
      ],
      [
        "Ġpublicado",
        -9.918885165285833
      ],
      [
        "Ġdispositivo",
        -9.91903915037895
      ],
      [
        "ĠTom",
        -9.91983072254316
      ],
      [
        "bancada",
        -9.920711268513394
      ],
      [
        "Ġora",
        -9.921237917812272
      ],
      [
        "ĠDOS",
        -9.922361220850814
      ],
      [
        "Ġtrabalhar",
        -9.922407144451206
      ],
      [
        "ĠTrata",
        -9.922504431717485
      ],
      [
        "Ġregulamenta",
        -9.922860374684106
      ],
      [
        "âĢĲ",
        -9.923545745514495
      ],
      [
        "CH",
        -9.9241880162189
      ],
      [
        "ADO",
        -9.9247642902528
      ],
      [
        "Ġnovamente",
        -9.926316980783318
      ],
      [
        "cidade",
        -9.92660382149069
      ],
      [
        "ĠIta",
        -9.930262583924724
      ],
      [
        "jovens",
        -9.930661803387167
      ],
      [
        "2004",
        -9.93070419369971
      ],
      [
        "pÃµe",
        -9.9320552211086
      ],
      [
        "Ġclasse",
        -9.93218508140906
      ],
      [
        "Ġmeta",
        -9.93252239256551
      ],
      [
        "ĠLÃºci",
        -9.93278114119598
      ],
      [
        "ĠSegunda",
        -9.934083940677388
      ],
      [
        "Ġelas",
        -9.934206718188715
      ],
      [
        "vendo",
        -9.935392284688191
      ],
      [
        "autorizaÃ§Ã£o",
        -9.936266117731336
      ],
      [
        "ngel",
        -9.93745954434423
      ],
      [
        "Ġfiscal",
        -9.937684545925215
      ],
      [
        "Ġcurso",
        -9.938042009642045
      ],
      [
        "ĠAprova",
        -9.938980037273051
      ],
      [
        "anti",
        -9.939591722121952
      ],
      [
        "ĠInformÃ¡tica",
        -9.9403265484165
      ],
      [
        "ĠAtÃ©",
        -9.94051793369024
      ],
      [
        "atuaÃ§Ã£o",
        -9.942182685005102
      ],
      [
        "Ġpla",
        -9.94255107097742
      ],
      [
        "ser",
        -9.943737072157235
      ],
      [
        "Ġaparece",
        -9.943829160679892
      ],
      [
        "seguida",
        -9.944800956982874
      ],
      [
        "ĠeletrÃ´nico",
        -9.945810611043314
      ],
      [
        "ĠmÃ©dico",
        -9.946667585883686
      ],
      [
        "Ġreserva",
        -9.947187249169652
      ],
      [
        "ĠAta",
        -9.947412700886256
      ],
      [
        "ĠcondiÃ§Ã£o",
        -9.9477552189291
      ],
      [
        "ĠMon",
        -9.94849685796339
      ],
      [
        "Ġprocura",
        -9.949231946669345
      ],
      [
        "Ġfedera",
        -9.949712497227669
      ],
      [
        "Ġvoltar",
        -9.949764979418536
      ],
      [
        "Ġcer",
        -9.94977394446776
      ],
      [
        "Ġpopular",
        -9.949780592436266
      ],
      [
        "ĠdireÃ§Ã£o",
        -9.9504193545251
      ],
      [
        "]",
        -9.95181274794224
      ],
      [
        "HC",
        -9.951953060419363
      ],
      [
        "RS",
        -9.952436714641072
      ],
      [
        "Ġtais",
        -9.9531583445297
      ],
      [
        "Ġ&",
        -9.95428424713325
      ],
      [
        "ĠDep",
        -9.954643589508372
      ],
      [
        "ÃĬNCIA",
        -9.95685319386152
      ],
      [
        "ĠComplementar",
        -9.957936658362485
      ],
      [
        "Ġsuficiente",
        -9.960103640659748
      ],
      [
        "ÃŃcio",
        -9.961561996455805
      ],
      [
        "ĠcabeÃ§a",
        -9.961941353572724
      ],
      [
        "Ġministro",
        -9.962060916791245
      ],
      [
        "emprego",
        -9.962540834306775
      ],
      [
        "almente",
        -9.96298195654928
      ],
      [
        "Ġpratica",
        -9.963738899637496
      ],
      [
        "AgR",
        -9.963965588199551
      ],
      [
        "dÃŃvida",
        -9.964565568077209
      ],
      [
        "ĠEuropa",
        -9.964596756354194
      ],
      [
        "Ġquadro",
        -9.96521850284108
      ],
      [
        "SC",
        -9.96550787099536
      ],
      [
        "Ġbaixa",
        -9.966389665902494
      ],
      [
        "indÃºstria",
        -9.96705318560302
      ],
      [
        "onde",
        -9.968109624239585
      ],
      [
        "Ġtr",
        -9.96963473060057
      ],
      [
        "Ġ1996",
        -9.970506504073976
      ],
      [
        "entendimento",
        -9.970756014173954
      ],
      [
        "declaraÃ§Ã£o",
        -9.971359739006028
      ],
      [
        "ĠRoma",
        -9.971745571179495
      ],
      [
        "ĠEscola",
        -9.972143959003567
      ],
      [
        "å",
        -9.972441424501175
      ],
      [
        "Ġfaixa",
        -9.972551507538018
      ],
      [
        "razÃµes",
        -9.973540679460491
      ],
      [
        "Ġrecebe",
        -9.976148700431043
      ],
      [
        "AntÃ´nio",
        -9.97637780205098
      ],
      [
        "Ġsite",
        -9.976414326507928
      ],
      [
        "entidade",
        -9.977621983441871
      ],
      [
        "comissÃ£o",
        -9.977880540573205
      ],
      [
        "Ġref",
        -9.978096555639908
      ],
      [
        "the",
        -9.97832615878758
      ],
      [
        "Ġencontrar",
        -9.97837649274043
      ],
      [
        "Substitutivo",
        -9.97880143306835
      ],
      [
        "DEPUTADO",
        -9.979020010972048
      ],
      [
        "ĠportuguÃªs",
        -9.979055984546555
      ],
      [
        "ori",
        -9.979635018374164
      ],
      [
        "Ġcolocar",
        -9.980294106158224
      ],
      [
        "Ġentrar",
        -9.980421042703238
      ],
      [
        "Ġrepresentante",
        -9.980757292186777
      ],
      [
        "vÃŃtima",
        -9.980825495697804
      ],
      [
        "ĠParanÃ¡",
        -9.981855128377878
      ],
      [
        "visÃ£o",
        -9.982424243702187
      ],
      [
        "Ġrei",
        -9.982930304058396
      ],
      [
        "Portaria",
        -9.982950235802669
      ],
      [
        "prestaÃ§Ã£o",
        -9.982976393140104
      ],
      [
        "ĠJO",
        -9.98363402160203
      ],
      [
        "SO",
        -9.985120404460837
      ],
      [
        "Ġapro",
        -9.985851577698083
      ],
      [
        "ĠPenal",
        -9.98589956637183
      ],
      [
        "+",
        -9.986494073904662
      ],
      [
        "Ġtornar",
        -9.986504309961528
      ],
      [
        "Ġrestri",
        -9.98665824757769
      ],
      [
        "Primeiro",
        -9.987494022084478
      ],
      [
        "ĠSer",
        -9.98842112211033
      ],
      [
        "Ġ35",
        -9.988512330788948
      ],
      [
        "RG",
        -9.989943187141623
      ],
      [
        "SÃ©rgi",
        -9.990793268880395
      ],
      [
        "conformidade",
        -9.991067724504006
      ],
      [
        "RelatÃ³rio",
        -9.99206901207426
      ],
      [
        "Ġaconteceu",
        -9.99284025362188
      ],
      [
        "Certo",
        -9.993008703084165
      ],
      [
        "ĠvitÃ³ria",
        -9.993816623807112
      ],
      [
        "AC",
        -9.994156996515176
      ],
      [
        "fico",
        -9.994494943841003
      ],
      [
        "Ġnega",
        -9.994559176657456
      ],
      [
        "locais",
        -9.995047576715404
      ],
      [
        "ĠPaul",
        -9.99517931930154
      ],
      [
        "ĠPr",
        -9.99525543489939
      ],
      [
        "Ġindependente",
        -9.995544867719447
      ],
      [
        "Ġpermite",
        -9.99561319540501
      ],
      [
        "IR",
        -9.99601251004652
      ],
      [
        "provisÃ³ria",
        -9.996786269652986
      ],
      [
        "Ġusado",
        -9.997517017087604
      ],
      [
        "Ġdisco",
        -9.99864300366937
      ],
      [
        "tivos",
        -9.9991362304034
      ],
      [
        "ĠAL",
        -9.99951892745418
      ],
      [
        "Ġdessas",
        -9.999840576425704
      ],
      [
        "ĠTri",
        -10.0002604465229
      ],
      [
        "caÃ§Ã£o",
        -10.002166302501662
      ],
      [
        "Ġacerca",
        -10.002650860194644
      ],
      [
        "Ġtratar",
        -10.003265748258436
      ],
      [
        "ĠSp",
        -10.003594789088668
      ],
      [
        "¸",
        -10.003782410305092
      ],
      [
        "Ġdemanda",
        -10.004475094670754
      ],
      [
        "Ġfonte",
        -10.005205690738126
      ],
      [
        "aquela",
        -10.006256079800323
      ],
      [
        "talvez",
        -10.006866992952071
      ],
      [
        "veio",
        -10.008634210879364
      ],
      [
        "riam",
        -10.008805020623369
      ],
      [
        "ĠtelevisÃ£o",
        -10.009263615161114
      ],
      [
        "ĠapresentaÃ§Ã£o",
        -10.010950718989594
      ],
      [
        "Ł",
        -10.01304975761674
      ],
      [
        "pt",
        -10.013297564320888
      ],
      [
        "Ġpequena",
        -10.01337752211588
      ],
      [
        "Ġbaixo",
        -10.013522627346047
      ],
      [
        "Ġluz",
        -10.014799350422413
      ],
      [
        "SRA",
        -10.015103477850689
      ],
      [
        "tivas",
        -10.015314469621924
      ],
      [
        "Ġcomercial",
        -10.01557464620706
      ],
      [
        "salÃ¡rio",
        -10.016215536366104
      ],
      [
        "OfÃŃci",
        -10.016229688455228
      ],
      [
        "estavam",
        -10.01648422914077
      ],
      [
        "ĠvÃª",
        -10.016582794149258
      ],
      [
        "seguintes",
        -10.01776521165365
      ],
      [
        "PRB",
        -10.01781402402528
      ],
      [
        "Ġtomar",
        -10.018205808551564
      ],
      [
        "Ġcontinuar",
        -10.01829633787336
      ],
      [
        "prejuÃŃz",
        -10.018557884167006
      ],
      [
        "Ġabertura",
        -10.018986015345652
      ],
      [
        "leiÃ§Ã£o",
        -10.019923409874153
      ],
      [
        "ĠexperiÃªncia",
        -10.020851991378334
      ],
      [
        "ĠDepu",
        -10.021016399166657
      ],
      [
        "ĠPrefeit",
        -10.02112137047066
      ],
      [
        "ĠComunitÃ¡ri",
        -10.02137496357671
      ],
      [
        "Ġinstitui",
        -10.021705204692225
      ],
      [
        "ĠcarÃ¡ter",
        -10.021775840341462
      ],
      [
        "arÃ¡grafo",
        -10.023200731833253
      ],
      [
        "ĠdifÃŃcil",
        -10.023611431131222
      ],
      [
        "GA",
        -10.025117475637336
      ],
      [
        "Ġantiga",
        -10.02539894626172
      ],
      [
        "Ġfunciona",
        -10.02696159323875
      ],
      [
        "ĠdistribuiÃ§Ã£o",
        -10.02701489289675
      ],
      [
        "atrÃ¡s",
        -10.02744380111204
      ],
      [
        "Ġdireta",
        -10.03012842323187
      ],
      [
        "Ġmulta",
        -10.030374916028624
      ],
      [
        "Ġaprova",
        -10.030401966702874
      ],
      [
        "ĠTrans",
        -10.030416543842106
      ],
      [
        "SÃĥO",
        -10.031939407227863
      ],
      [
        "Ġtime",
        -10.032046307818804
      ],
      [
        "IDADE",
        -10.032546824034096
      ],
      [
        "manutenÃ§Ã£o",
        -10.032899072581529
      ],
      [
        "ĠPOR",
        -10.033550248991745
      ],
      [
        "Ġjogos",
        -10.033806554242869
      ],
      [
        "Ġreceita",
        -10.033876285370384
      ],
      [
        "ĠPARA",
        -10.034094628794731
      ],
      [
        "ham",
        -10.035594956568572
      ],
      [
        "ciais",
        -10.036939995987732
      ],
      [
        "Ãĵ",
        -10.038994533852373
      ],
      [
        "ĠCentral",
        -10.040284792492344
      ],
      [
        "regiÃµes",
        -10.04216720027448
      ],
      [
        "Ġamigos",
        -10.04232125655554
      ],
      [
        "favorÃ¡vel",
        -10.042577496450988
      ],
      [
        "ĠMac",
        -10.04268167117652
      ],
      [
        "RES",
        -10.04271595079426
      ],
      [
        "post",
        -10.042889877642594
      ],
      [
        "ĠProcesso",
        -10.043022682861867
      ],
      [
        "efeitos",
        -10.044254500976816
      ],
      [
        "legais",
        -10.044595257974064
      ],
      [
        "Ġbens",
        -10.045677837643916
      ],
      [
        "destinada",
        -10.045750781506394
      ],
      [
        "ĠTer",
        -10.046116123716642
      ],
      [
        "Ġchama",
        -10.047999726425545
      ],
      [
        "dez",
        -10.048057930050655
      ],
      [
        "2018",
        -10.048276946693996
      ],
      [
        "utilizaÃ§Ã£o",
        -10.048506105297736
      ],
      [
        "Ġlu",
        -10.048542611522086
      ],
      [
        "apesar",
        -10.049873490387393
      ],
      [
        "Ġcolega",
        -10.050592501211057
      ],
      [
        "Ī",
        -10.051203550564608
      ],
      [
        "ĠNos",
        -10.051740754645513
      ],
      [
        "Ġtraz",
        -10.05230789980217
      ],
      [
        "PSC",
        -10.05259747069726
      ],
      [
        "ontem",
        -10.053948006201834
      ],
      [
        "Å",
        -10.054374934908756
      ],
      [
        "Celso",
        -10.054713536330915
      ],
      [
        "Apoio",
        -10.054838563284164
      ],
      [
        "Ġcoloca",
        -10.054994157865591
      ],
      [
        "Ġdecreta",
        -10.055683480576482
      ],
      [
        "rb",
        -10.055738157439276
      ],
      [
        "eleiÃ§Ãµes",
        -10.055926539462718
      ],
      [
        "Ġfixa",
        -10.056323620516803
      ],
      [
        "Ġatingi",
        -10.057525844169993
      ],
      [
        "Ġsofre",
        -10.057581295236355
      ],
      [
        "Ġdocumentos",
        -10.058275499378585
      ],
      [
        "Ġrealizar",
        -10.059223224140885
      ],
      [
        "Ġinterna",
        -10.05994205794216
      ],
      [
        "Ä",
        -10.060628059622667
      ],
      [
        "ĠPlano",
        -10.061039960291652
      ],
      [
        "Ġpasso",
        -10.061623940272725
      ],
      [
        "Ġcento",
        -10.061941621651174
      ],
      [
        "dizendo",
        -10.06194868268247
      ],
      [
        "Ġtramita",
        -10.062318640947328
      ],
      [
        "ĠPROPOSI",
        -10.062744983525484
      ],
      [
        "ĠOu",
        -10.06346351609079
      ],
      [
        "ĠSouza",
        -10.06357762524014
      ],
      [
        "Ġopera",
        -10.064009114935237
      ],
      [
        "Ġvenda",
        -10.064317293621512
      ],
      [
        "Ġuni",
        -10.064439450731197
      ],
      [
        "ausÃªncia",
        -10.064887173763733
      ],
      [
        "Ġviola",
        -10.065398265881138
      ],
      [
        "militares",
        -10.065497256431671
      ],
      [
        "Ġatua",
        -10.06553153885713
      ],
      [
        "ĩ",
        -10.06569903248721
      ],
      [
        "Ġinfra",
        -10.065853889465604
      ],
      [
        "Ġmelhores",
        -10.066049574349428
      ],
      [
        "Ġpermitir",
        -10.067257189573771
      ],
      [
        "Ġigual",
        -10.06748537272511
      ],
      [
        "Ġrevela",
        -10.067591659772871
      ],
      [
        "entrada",
        -10.067923294215957
      ],
      [
        "diretamente",
        -10.067968499717756
      ],
      [
        "±",
        -10.068430167009826
      ],
      [
        "Ġcen",
        -10.068442914151692
      ],
      [
        "Ġregra",
        -10.068500002547712
      ],
      [
        "Ġouvi",
        -10.068849220415377
      ],
      [
        "ĠGomes",
        -10.06909404731313
      ],
      [
        "ĠConced",
        -10.069337814550757
      ],
      [
        "Ã©tica",
        -10.070036368913634
      ],
      [
        "Ġfazem",
        -10.070195631408502
      ],
      [
        "essÃ£o",
        -10.07089347074099
      ],
      [
        "ĠGrosso",
        -10.071354570974014
      ],
      [
        "Ġoito",
        -10.071377542228149
      ],
      [
        "ĠMunicipal",
        -10.07166151069178
      ],
      [
        "sul",
        -10.07174067237722
      ],
      [
        "Ġinterior",
        -10.071805511081513
      ],
      [
        "motivo",
        -10.072042174308953
      ],
      [
        "Ġperto",
        -10.072350710965608
      ],
      [
        "ĠMinistra",
        -10.073078669484811
      ],
      [
        "ĠEli",
        -10.073081707066232
      ],
      [
        "ĠoperaÃ§Ã£o",
        -10.073265038769778
      ],
      [
        "ĠLopes",
        -10.074020668412338
      ],
      [
        "ĠKi",
        -10.074665332251584
      ],
      [
        "ĠcanÃ§Ã£o",
        -10.075520180867604
      ],
      [
        "CARLOS",
        -10.076296485343796
      ],
      [
        "Ġ38",
        -10.076389728089644
      ],
      [
        "ĠMilitar",
        -10.076416104117412
      ],
      [
        "Ġsete",
        -10.076559442912494
      ],
      [
        "MG",
        -10.076932629450688
      ],
      [
        "Ġcapaz",
        -10.07734215836346
      ],
      [
        "Ġtro",
        -10.078028629966404
      ],
      [
        "Ġtentar",
        -10.078337323976324
      ],
      [
        "ĠRocha",
        -10.078435978371862
      ],
      [
        "GERAL",
        -10.08005085941497
      ],
      [
        "uns",
        -10.080204594437944
      ],
      [
        "Ġgera",
        -10.080252452688024
      ],
      [
        "Ġdiscutir",
        -10.081041983903065
      ],
      [
        "Ġpropriedade",
        -10.081117502009992
      ],
      [
        "ĠCer",
        -10.081145729939347
      ],
      [
        "ĠvÃŃdeo",
        -10.081262122578712
      ],
      [
        "Ġconsiderada",
        -10.081712021944304
      ],
      [
        "Ġadministrativa",
        -10.081922284821268
      ],
      [
        "Estamos",
        -10.082386745221957
      ],
      [
        "ku",
        -10.08263937270138
      ],
      [
        "tida",
        -10.082852629047508
      ],
      [
        "inclusÃ£o",
        -10.082946471476648
      ],
      [
        "Ġrio",
        -10.083610794550788
      ],
      [
        "ĠlanÃ§amento",
        -10.084760561059316
      ],
      [
        "ĠSabe",
        -10.08486874252789
      ],
      [
        "ĠcomeÃ§ar",
        -10.085157273678025
      ],
      [
        "Ġperda",
        -10.085293872066416
      ],
      [
        "grafia",
        -10.086358868931445
      ],
      [
        "operaÃ§Ãµes",
        -10.086751267302647
      ],
      [
        "ĠChi",
        -10.087076155946995
      ],
      [
        "ĠLista",
        -10.087148833306186
      ],
      [
        "ED",
        -10.087156273727096
      ],
      [
        "Ġ[",
        -10.087295412178497
      ],
      [
        "alunos",
        -10.088120241973671
      ],
      [
        "Ġmora",
        -10.088546831232836
      ],
      [
        "ĠpeÃ§o",
        -10.088742648527877
      ],
      [
        "tante",
        -10.091533149489942
      ],
      [
        "Ġcompromisso",
        -10.091793261142383
      ],
      [
        "Pausa",
        -10.093104791743334
      ],
      [
        "ĠorÃ§amentÃ¡ria",
        -10.094135930119794
      ],
      [
        "Ġcri",
        -10.094318771742442
      ],
      [
        "ĠPorque",
        -10.094652397720589
      ],
      [
        "Ġlimite",
        -10.094958540002878
      ],
      [
        "Ġtroca",
        -10.095017957709585
      ],
      [
        "Ġseguir",
        -10.095734158424824
      ],
      [
        "ĠCatarina",
        -10.096265123382398
      ],
      [
        "Ġacabou",
        -10.096274100502947
      ],
      [
        "Ġlocalizado",
        -10.09673280493958
      ],
      [
        "pÃºblicos",
        -10.097873587361384
      ],
      [
        "Ġaplica",
        -10.0979348695612
      ],
      [
        "Ġrelativa",
        -10.098089418127534
      ],
      [
        "ĠmÃ©dio",
        -10.098303183786276
      ],
      [
        "Ġjovem",
        -10.098589251270662
      ],
      [
        "Ġescolas",
        -10.09890340914192
      ],
      [
        "mÃ¡tica",
        -10.09917594313276
      ],
      [
        "xclusividade",
        -10.099203145882642
      ],
      [
        "Ġmetros",
        -10.099932383886411
      ],
      [
        "referido",
        -10.10009085966269
      ],
      [
        "ĠVeja",
        -10.10097551579624
      ],
      [
        "ĠQuer",
        -10.100990243467027
      ],
      [
        "Ġdiferente",
        -10.102058532826728
      ],
      [
        "dÃ¡",
        -10.102746341252145
      ],
      [
        "exposto",
        -10.102930913751726
      ],
      [
        "Ġquarto",
        -10.103614512346178
      ],
      [
        "Ġquer",
        -10.10364172197436
      ],
      [
        "Ġ1991",
        -10.103779654616272
      ],
      [
        "Ġutilizado",
        -10.10385053519586
      ],
      [
        "Ġconseguiu",
        -10.103885086289669
      ],
      [
        "Ãºmula",
        -10.10450620750052
      ],
      [
        "ĠGeral",
        -10.104682221684008
      ],
      [
        "Ġservi",
        -10.10470269116586
      ],
      [
        "Apesar",
        -10.106770645621182
      ],
      [
        "esforÃ§o",
        -10.1068636696458
      ],
      [
        "ĠDiretor",
        -10.10738873753944
      ],
      [
        "Ġcondena",
        -10.107721869058151
      ],
      [
        "ĠdiferenÃ§a",
        -10.10811512223126
      ],
      [
        "Â",
        -10.108826134116487
      ],
      [
        "americana",
        -10.109216288409758
      ],
      [
        "ĠProfessor",
        -10.110011958107314
      ],
      [
        "Ġorienta",
        -10.110680338680591
      ],
      [
        "uplente",
        -10.111378299936367
      ],
      [
        "ĠLUIZ",
        -10.111378728484018
      ],
      [
        "Ġestudos",
        -10.111520223834962
      ],
      [
        "estabelecimento",
        -10.11200944818675
      ],
      [
        "Ġcompleta",
        -10.11227205082337
      ],
      [
        "Ġfinanciamento",
        -10.113233170366868
      ],
      [
        "Ġimprensa",
        -10.113476154091169
      ],
      [
        "Ġquantidade",
        -10.113581686998176
      ],
      [
        "EM",
        -10.114352248677008
      ],
      [
        "Ġpais",
        -10.114659216987675
      ],
      [
        "PPS",
        -10.114803917953209
      ],
      [
        "Ġpagar",
        -10.11546593207362
      ],
      [
        "ĠCONSTITUIÃĩÃĥO",
        -10.116438778412247
      ],
      [
        "line",
        -10.11700526040212
      ],
      [
        "Ġapa",
        -10.11758035404565
      ],
      [
        "Ġhonra",
        -10.117696187914405
      ],
      [
        "ĠGal",
        -10.117930620846463
      ],
      [
        "zinho",
        -10.11869361463755
      ],
      [
        "Ġquarta",
        -10.118861914932712
      ],
      [
        "plenÃ¡rio",
        -10.120137397980145
      ],
      [
        "ĠBan",
        -10.121889322729036
      ],
      [
        "ĠChe",
        -10.12218930570608
      ],
      [
        "Ġ1995",
        -10.122818357171395
      ],
      [
        "Ġbe",
        -10.123149112174438
      ],
      [
        "Ġ36",
        -10.12322547845528
      ],
      [
        "ung",
        -10.12364638062553
      ],
      [
        "ĠMari",
        -10.124286088633102
      ],
      [
        "Ġescrito",
        -10.12447975387095
      ],
      [
        "nÃ¡ria",
        -10.125066253056762
      ],
      [
        "ĠPra",
        -10.125508790088288
      ],
      [
        "ĠMaranhÃ£o",
        -10.12569134400976
      ],
      [
        "ĠRS",
        -10.12606446839117
      ],
      [
        "ĠAlmeida",
        -10.126991187850123
      ],
      [
        "falando",
        -10.127097326626188
      ],
      [
        "Ġvaria",
        -10.127277368671932
      ],
      [
        "Ġentrega",
        -10.127319146678587
      ],
      [
        "ego",
        -10.127637335263838
      ],
      [
        "INA",
        -10.127825506811424
      ],
      [
        "Ġantigo",
        -10.127855327264948
      ],
      [
        "ĠFica",
        -10.127897189499908
      ],
      [
        "Ġlocalizada",
        -10.12803488985965
      ],
      [
        "ĠameaÃ§a",
        -10.128402835065328
      ],
      [
        "ĠParÃ¡",
        -10.129443740246924
      ],
      [
        "ĠprÃ©",
        -10.129839780560546
      ],
      [
        "ĠPelo",
        -10.130316195774345
      ],
      [
        "burg",
        -10.130344799706698
      ],
      [
        "OSÃī",
        -10.130501538600946
      ],
      [
        "Ġunidades",
        -10.13108566591981
      ],
      [
        "Ġcomigo",
        -10.131301006481342
      ],
      [
        "ĠUSP",
        -10.131927837512997
      ],
      [
        "Ġconfi",
        -10.132181744358675
      ],
      [
        "Ġinicial",
        -10.13247396706452
      ],
      [
        "Ġexatamente",
        -10.132950456146052
      ],
      [
        "rum",
        -10.133344515479523
      ],
      [
        "Ġdeputado",
        -10.134554717519364
      ],
      [
        "CIA",
        -10.134833131891398
      ],
      [
        "privada",
        -10.135361175851354
      ],
      [
        "ĠBal",
        -10.135611740522714
      ],
      [
        "Ġpobre",
        -10.13601370486844
      ],
      [
        "ĠRodrigues",
        -10.136086981718265
      ],
      [
        "aqueles",
        -10.136609550875884
      ],
      [
        "sol",
        -10.136618546785522
      ],
      [
        "benefÃŃcio",
        -10.13665823657072
      ],
      [
        "Ġalega",
        -10.136732628721274
      ],
      [
        "Ġpior",
        -10.136848631958635
      ],
      [
        "ĠBel",
        -10.137861442266647
      ],
      [
        "Ġarte",
        -10.138875397474964
      ],
      [
        "ĠCidade",
        -10.139139873667784
      ],
      [
        "mÃ¡ximo",
        -10.139333669295906
      ],
      [
        "Ġhumano",
        -10.13941826964107
      ],
      [
        "ĠGrupo",
        -10.1400121982926
      ],
      [
        "ĠcrianÃ§a",
        -10.140152389335483
      ],
      [
        "desc",
        -10.140525518861883
      ],
      [
        "Ġassumi",
        -10.14258155227869
      ],
      [
        "QUE",
        -10.142802401285424
      ],
      [
        "ĠMaio",
        -10.143204256013773
      ],
      [
        "ĠQUE",
        -10.143281093991792
      ],
      [
        "Ġhaja",
        -10.14436655935746
      ],
      [
        "BR",
        -10.144403183448642
      ],
      [
        "ĠCarvalho",
        -10.1446048601816
      ],
      [
        "lizado",
        -10.14511615376785
      ],
      [
        "Ġresultados",
        -10.145821589066689
      ],
      [
        "¤",
        -10.14620901196297
      ],
      [
        "ney",
        -10.146467296581667
      ],
      [
        "julgado",
        -10.147507781199735
      ],
      [
        "NR",
        -10.14785988475722
      ],
      [
        "ambos",
        -10.148476714176011
      ],
      [
        "Ġama",
        -10.148701192971762
      ],
      [
        "Ġtado",
        -10.149656090737707
      ],
      [
        "LideranÃ§a",
        -10.15031646451239
      ],
      [
        "ĠOnde",
        -10.150656000498934
      ],
      [
        "bairro",
        -10.151013048114892
      ],
      [
        "RegiÃ£o",
        -10.151027632493566
      ],
      [
        "Ġrel",
        -10.1513981936891
      ],
      [
        "corrupÃ§Ã£o",
        -10.151699084644145
      ],
      [
        "ĠMen",
        -10.151817962873553
      ],
      [
        "ĠcontribuiÃ§Ã£o",
        -10.152837204594077
      ],
      [
        "ĠQual",
        -10.153050363225274
      ],
      [
        "chefe",
        -10.155353236732225
      ],
      [
        "ĠMinha",
        -10.155501029481709
      ],
      [
        "atriz",
        -10.156068151278886
      ],
      [
        "Pen",
        -10.156893618276303
      ],
      [
        "ĠSuper",
        -10.15694418578506
      ],
      [
        "Ġmundial",
        -10.157179143113977
      ],
      [
        "Ġ119",
        -10.157739191767371
      ],
      [
        "Ġparticipa",
        -10.15776876317207
      ],
      [
        "Ġenfrenta",
        -10.158441209493969
      ],
      [
        "ĠepisÃ³dio",
        -10.158475776193988
      ],
      [
        "ĠcidadÃ£o",
        -10.159211077479217
      ],
      [
        "ĠDaniel",
        -10.159409062086551
      ],
      [
        "tiveram",
        -10.15968725327582
      ],
      [
        "DF",
        -10.16053511796228
      ],
      [
        "ĠgÃªnero",
        -10.161145936214549
      ],
      [
        "Ġencontro",
        -10.16148905940632
      ],
      [
        "ĠToda",
        -10.162172635491494
      ],
      [
        "ĠhistÃ³rico",
        -10.162431334762802
      ],
      [
        "Ġganha",
        -10.162834332716418
      ],
      [
        "Ġinforma",
        -10.163195432214014
      ],
      [
        "Ġestadual",
        -10.163412298564973
      ],
      [
        "ĠLEGISLATIV",
        -10.164430301844526
      ],
      [
        "ĠMG",
        -10.164944817198126
      ],
      [
        "Ġpedir",
        -10.165083946687442
      ],
      [
        "Ġvivo",
        -10.165769987543554
      ],
      [
        "ĠRIO",
        -10.16581558404963
      ],
      [
        "Ġinicia",
        -10.165910730074582
      ],
      [
        "Ġvive",
        -10.16599289309112
      ],
      [
        "somos",
        -10.166567823334011
      ],
      [
        "distrito",
        -10.167114500532191
      ],
      [
        "Ġestabelecer",
        -10.16747546479214
      ],
      [
        "lizaÃ§Ã£o",
        -10.167792424906382
      ],
      [
        "Ġevitar",
        -10.167953911529532
      ],
      [
        "Ġclara",
        -10.16851316031108
      ],
      [
        "ĠAugusto",
        -10.169027118192709
      ],
      [
        "ĠReino",
        -10.169141526042267
      ],
      [
        "No",
        -10.169537534294175
      ],
      [
        "Ġmedi",
        -10.169932044050984
      ],
      [
        "ĠpolÃŃcia",
        -10.170735060311705
      ],
      [
        "ĠAndrÃ©",
        -10.17146836813536
      ],
      [
        "ĠQu",
        -10.172225240158552
      ],
      [
        "Ġacontece",
        -10.172898105529177
      ],
      [
        "deira",
        -10.173160237095669
      ],
      [
        "Ġestes",
        -10.173434141665654
      ],
      [
        "ĠjurÃŃdico",
        -10.173465802077644
      ],
      [
        "ĠZe",
        -10.173473287483928
      ],
      [
        "Ġsala",
        -10.173648888717558
      ],
      [
        "ĠNordeste",
        -10.173909765605847
      ],
      [
        "Ġgosta",
        -10.174450920327914
      ],
      [
        "tÃ¡ria",
        -10.174624156444455
      ],
      [
        "raÃ§a",
        -10.17498850933426
      ],
      [
        "Ġdaquel",
        -10.175104531244669
      ],
      [
        "Ġfigura",
        -10.175141491741003
      ],
      [
        "AmazÃ´nia",
        -10.175222197712822
      ],
      [
        "Estadual",
        -10.176184521444398
      ],
      [
        "Talvez",
        -10.176602867402346
      ],
      [
        "Ġmudar",
        -10.176993908255442
      ],
      [
        "ĠZa",
        -10.177248929566645
      ],
      [
        "Ġdetermina",
        -10.178210918057628
      ],
      [
        "impacto",
        -10.178465369173823
      ],
      [
        "Ġconseguir",
        -10.17954996328335
      ],
      [
        "Figueiredo",
        -10.1796363923644
      ],
      [
        "Fazenda",
        -10.180009748040971
      ],
      [
        "Ġgrau",
        -10.180211369292854
      ],
      [
        "ĠFamÃŃlia",
        -10.180477961797232
      ],
      [
        "Ġmerece",
        -10.180753787871074
      ],
      [
        "atualmente",
        -10.181220720555569
      ],
      [
        "Ġ(...)",
        -10.181367485179068
      ],
      [
        "ĠWikipÃ©dia",
        -10.181393058844996
      ],
      [
        "ĠDECRET",
        -10.181580764095465
      ],
      [
        "ET",
        -10.18205707275868
      ],
      [
        "JudiciÃ¡ri",
        -10.18228827647544
      ],
      [
        "ĠNA",
        -10.182637450421206
      ],
      [
        "requisitos",
        -10.182694841864064
      ],
      [
        "Ġjudicial",
        -10.18274659939216
      ],
      [
        "Ġ01",
        -10.182783924288646
      ],
      [
        "ĠNelson",
        -10.182800192564434
      ],
      [
        "Ġdocumento",
        -10.18488167132218
      ],
      [
        "ĠSeguranÃ§a",
        -10.185209061492085
      ],
      [
        "Teixeira",
        -10.185479628794916
      ],
      [
        "Ġresulta",
        -10.186702124395657
      ],
      [
        "Ġfui",
        -10.18671690124714
      ],
      [
        "ĠJan",
        -10.186731067473785
      ],
      [
        "preÃ§os",
        -10.187180256048904
      ],
      [
        "ĠPan",
        -10.18768054852812
      ],
      [
        "ĠFer",
        -10.1892542309564
      ],
      [
        "Ġface",
        -10.189492493064218
      ],
      [
        "ĠReal",
        -10.18977737897736
      ],
      [
        "Ġespecifica",
        -10.19003749752436
      ],
      [
        "ker",
        -10.190773613833864
      ],
      [
        "Ġposto",
        -10.191063192921344
      ],
      [
        "DiscussÃ£o",
        -10.191420242703687
      ],
      [
        "regras",
        -10.191548344943923
      ],
      [
        "Ġshow",
        -10.19157408015174
      ],
      [
        "Ġcentral",
        -10.191873000593178
      ],
      [
        "__",
        -10.192472293646702
      ],
      [
        "Ġespera",
        -10.19357866125785
      ],
      [
        "criada",
        -10.1949210291948
      ],
      [
        "ling",
        -10.196711682597982
      ],
      [
        "versa",
        -10.196890614590233
      ],
      [
        "levou",
        -10.198464637594643
      ],
      [
        "Ġpalavras",
        -10.198686756396429
      ],
      [
        "ĠDesde",
        -10.198808289783909
      ],
      [
        "ĠBoa",
        -10.200028681584312
      ],
      [
        "Ġanimais",
        -10.20054130187962
      ],
      [
        "ĠFutebol",
        -10.200838100924948
      ],
      [
        "ĠNew",
        -10.201209584739177
      ],
      [
        "Ġ1988",
        -10.2016139963579
      ],
      [
        "ĠART",
        -10.202516886701446
      ],
      [
        "Ġ48",
        -10.202678459775107
      ],
      [
        "candidato",
        -10.202805336122728
      ],
      [
        "á",
        -10.20329139807001
      ],
      [
        "existente",
        -10.203616315193845
      ],
      [
        "abaixo",
        -10.204314405240194
      ],
      [
        "ĠTemo",
        -10.204947375551871
      ],
      [
        "ĠOlÃ¡",
        -10.2050078707811
      ],
      [
        "bit",
        -10.20507204738755
      ],
      [
        "publicada",
        -10.20604140844318
      ],
      [
        "Ġestilo",
        -10.20616239243316
      ],
      [
        "Ġacusa",
        -10.207042655420944
      ],
      [
        "ĠAlberto",
        -10.207878850077105
      ],
      [
        "°",
        -10.208132919708024
      ],
      [
        "avaliaÃ§Ã£o",
        -10.208667748318156
      ],
      [
        "ĠChina",
        -10.208785134352423
      ],
      [
        "Ġcur",
        -10.208945561232094
      ],
      [
        "paciente",
        -10.209019465993745
      ],
      [
        "Con",
        -10.20941690365112
      ],
      [
        "ĠNossa",
        -10.210610026753018
      ],
      [
        "Ġamericano",
        -10.211493416435712
      ],
      [
        "Ġ80",
        -10.211604443475004
      ],
      [
        "Ġdepende",
        -10.212687716928198
      ],
      [
        "bus",
        -10.212841161814993
      ],
      [
        "Ġmesa",
        -10.213524755497447
      ],
      [
        "vemos",
        -10.213830537232877
      ],
      [
        "Ġanti",
        -10.213830540448246
      ],
      [
        "ĠciÃªncia",
        -10.21417009262404
      ],
      [
        "possam",
        -10.214228608041262
      ],
      [
        "ĠPolÃŃtica",
        -10.214874532948045
      ],
      [
        "ĠUS",
        -10.215012910446726
      ],
      [
        "Ġentrevista",
        -10.216493667720076
      ],
      [
        "*",
        -10.217010172457249
      ],
      [
        "Ġfeliz",
        -10.217143683449114
      ],
      [
        "ĠLuÃŃs",
        -10.21810249841157
      ],
      [
        "Ġprocedimento",
        -10.218480693529306
      ],
      [
        "ĠPri",
        -10.218881172068183
      ],
      [
        "PL",
        -10.219000887178472
      ],
      [
        "ĠMundo",
        -10.219554811763244
      ],
      [
        "ĠAlemanha",
        -10.219738420506928
      ],
      [
        "Ġinvestimento",
        -10.220251278237091
      ],
      [
        "nacionais",
        -10.221703351164944
      ],
      [
        "licitante",
        -10.221904921113502
      ],
      [
        "Ġacidente",
        -10.222889751697927
      ],
      [
        "ĠRede",
        -10.223260713313463
      ],
      [
        "iam",
        -10.22360915499292
      ],
      [
        "Ġvice",
        -10.223675255729914
      ],
      [
        "ĠPROC",
        -10.224275979063169
      ],
      [
        "Ġpretende",
        -10.224553191915035
      ],
      [
        "Ġanual",
        -10.224964191735866
      ],
      [
        "Ġdemocracia",
        -10.225538670758704
      ],
      [
        "ĠDom",
        -10.225800378531828
      ],
      [
        "Ġatender",
        -10.225932618422638
      ],
      [
        "ĠRequer",
        -10.226156696940992
      ],
      [
        "ji",
        -10.227144045221952
      ],
      [
        "ĠWal",
        -10.227264691354591
      ],
      [
        "¶",
        -10.22757402330952
      ],
      [
        "relaÃ§Ãµes",
        -10.227862603762247
      ],
      [
        "Ġexplorar",
        -10.228441469776952
      ],
      [
        "Ġrural",
        -10.22926998171594
      ],
      [
        "ĠLisboa",
        -10.229362710812488
      ],
      [
        "EUA",
        -10.229661800455863
      ],
      [
        "LT",
        -10.230347720345534
      ],
      [
        "Ġambiental",
        -10.230388975311143
      ],
      [
        "PSL",
        -10.230508400942108
      ],
      [
        "ĠmanhÃ£",
        -10.230575388141231
      ],
      [
        "ĠVai",
        -10.230668535526505
      ],
      [
        "ĠfunÃ§Ãµes",
        -10.230785998077309
      ],
      [
        "Ġregula",
        -10.231313194655474
      ],
      [
        "ĠJesus",
        -10.23163664349758
      ],
      [
        "ĠPp",
        -10.23167746995534
      ],
      [
        "Ġfinanceiro",
        -10.231968324197762
      ],
      [
        "Ġoferece",
        -10.232165362432132
      ],
      [
        "Ã³n",
        -10.232322860389942
      ],
      [
        "ĠAlexandre",
        -10.232379521281038
      ],
      [
        "Ġfesta",
        -10.232606361347036
      ],
      [
        "virtud",
        -10.23316702930908
      ],
      [
        "deficiÃªncia",
        -10.23349613293587
      ],
      [
        "ĠCapi",
        -10.233531396158137
      ],
      [
        "PrevidÃªncia",
        -10.234319142022622
      ],
      [
        "ĠAma",
        -10.235328888421206
      ],
      [
        "ĠSerra",
        -10.236137723275128
      ],
      [
        "Ġjornalista",
        -10.236387434071828
      ],
      [
        "Ġdispo",
        -10.236413809880707
      ],
      [
        "fronteira",
        -10.236999209971367
      ],
      [
        "ĠAnt",
        -10.23747187500885
      ],
      [
        "Ï",
        -10.237901457916005
      ],
      [
        "ĠMichel",
        -10.238586353239334
      ],
      [
        "Ġcal",
        -10.239599974437033
      ],
      [
        "ĠMil",
        -10.239834482499836
      ],
      [
        "Ã¢nia",
        -10.23991176726194
      ],
      [
        "ĠpeÃ§a",
        -10.24019436198204
      ],
      [
        "Ġimagem",
        -10.240354770653177
      ],
      [
        "Ġjustifica",
        -10.240457427831592
      ],
      [
        "decreto",
        -10.240611721343678
      ],
      [
        "icamente",
        -10.240827736614426
      ],
      [
        "Ġguarda",
        -10.240900983931931
      ],
      [
        "CearÃ¡",
        -10.241001078519483
      ],
      [
        "In",
        -10.241156900323697
      ],
      [
        "ĠRodrigo",
        -10.24120290585408
      ],
      [
        "ÃŃndice",
        -10.241420436122354
      ],
      [
        "Ġbio",
        -10.242112803423565
      ],
      [
        "ĠArthur",
        -10.24214968352908
      ],
      [
        "FundaÃ§Ã£o",
        -10.242430362579718
      ],
      [
        "Ġpaga",
        -10.242621372925754
      ],
      [
        "ublique",
        -10.24280175260009
      ],
      [
        "Ġdisciplina",
        -10.242804825794105
      ],
      [
        "Ġbanco",
        -10.243705357352756
      ],
      [
        "ĠdenÃºncia",
        -10.24441285731784
      ],
      [
        "Ġconcurso",
        -10.244462147098233
      ],
      [
        "Ġlido",
        -10.244686432908065
      ],
      [
        "apresentou",
        -10.244813216254768
      ],
      [
        "ĠrÃ¡pido",
        -10.244872465480409
      ],
      [
        "trecho",
        -10.245192949433813
      ],
      [
        "imagens",
        -10.24520920324466
      ],
      [
        "nunciou",
        -10.245215809414049
      ],
      [
        "Ġtorno",
        -10.24595355617102
      ],
      [
        "Ġataque",
        -10.246080902605955
      ],
      [
        "Ġzona",
        -10.246506212055396
      ],
      [
        "ĠMarcos",
        -10.246592546269593
      ],
      [
        "rais",
        -10.246900226011975
      ],
      [
        "tivesse",
        -10.247635151416445
      ],
      [
        "Departamento",
        -10.248493601559618
      ],
      [
        "NÃ£o",
        -10.24875799643855
      ],
      [
        "ĠRei",
        -10.2489217022518
      ],
      [
        "Ġunidade",
        -10.249285148830689
      ],
      [
        "Ġsom",
        -10.249617220742048
      ],
      [
        "Ġpromover",
        -10.251697400334727
      ],
      [
        "Ġpreso",
        -10.252181746992363
      ],
      [
        "Ġentender",
        -10.252291847734092
      ],
      [
        "ĠAcre",
        -10.25230960733029
      ],
      [
        "berg",
        -10.254126570629206
      ],
      [
        "usada",
        -10.254331109296327
      ],
      [
        "ĠLegislativa",
        -10.254584477262195
      ],
      [
        "Ġexpressa",
        -10.2554577335863
      ],
      [
        "Ġtrabalha",
        -10.255563715109956
      ],
      [
        "exigÃªncia",
        -10.255960034466836
      ],
      [
        "Ġusa",
        -10.256607851409282
      ],
      [
        "como",
        -10.257499712278104
      ],
      [
        "Ġ*",
        -10.257619334953729
      ],
      [
        "AP",
        -10.258381946785011
      ],
      [
        "ĠSÃ¡",
        -10.258463330010876
      ],
      [
        "Ġigreja",
        -10.258510999796457
      ],
      [
        "Ġerro",
        -10.25896133650058
      ],
      [
        "Ġetc",
        -10.259437393275832
      ],
      [
        "Ġconceito",
        -10.25951201503879
      ],
      [
        "ĠopiniÃ£o",
        -10.259663160403605
      ],
      [
        "ĠDESPACH",
        -10.260153044488964
      ],
      [
        "tenÃ§Ã£o",
        -10.260927522649624
      ],
      [
        "Geraldo",
        -10.262641128027347
      ],
      [
        "Ġapre",
        -10.262873317650593
      ],
      [
        "Ġrenova",
        -10.263436796207673
      ],
      [
        "Ġcumpri",
        -10.264085660766602
      ],
      [
        "Ġrua",
        -10.26419905467971
      ],
      [
        "apensado",
        -10.26420406531958
      ],
      [
        "relativo",
        -10.26427741659111
      ],
      [
        "escu",
        -10.264399690001332
      ],
      [
        "Ġseguro",
        -10.264622353370727
      ],
      [
        "conflito",
        -10.26472090335298
      ],
      [
        "ĠCur",
        -10.264937419394125
      ],
      [
        "ĠRO",
        -10.2656464743596
      ],
      [
        "Ġatende",
        -10.26681082075303
      ],
      [
        "Ġprovi",
        -10.267685546204444
      ],
      [
        "Ġhabita",
        -10.267884840784962
      ],
      [
        "leitura",
        -10.269693546422037
      ],
      [
        "urgÃªncia",
        -10.269737222646274
      ],
      [
        "Ġilha",
        -10.270338348473151
      ],
      [
        "Ġderrota",
        -10.270553240941402
      ],
      [
        "Ġconsegue",
        -10.271902282139813
      ],
      [
        "Ġbra",
        -10.27222677318791
      ],
      [
        "benefÃŃcios",
        -10.2722310572142
      ],
      [
        "ĠorientaÃ§Ã£o",
        -10.272467625825357
      ],
      [
        "Ġcontas",
        -10.272481572180126
      ],
      [
        "PÃ¡gina",
        -10.272680637251234
      ],
      [
        "Ġplanta",
        -10.272900079660038
      ],
      [
        "ENTE",
        -10.273459963669092
      ],
      [
        "Ġfiz",
        -10.273675355982942
      ],
      [
        "ĠVista",
        -10.27378578258719
      ],
      [
        "Ġenca",
        -10.273898861574924
      ],
      [
        "alteraÃ§Ã£o",
        -10.27434230962162
      ],
      [
        "mann",
        -10.27443168718642
      ],
      [
        "geraÃ§Ã£o",
        -10.274749186580728
      ],
      [
        "ĠParis",
        -10.275011894057997
      ],
      [
        "ĠmÃ¡",
        -10.27598757807933
      ],
      [
        "sidente",
        -10.276237137745053
      ],
      [
        "www",
        -10.276667311739256
      ],
      [
        "Ġresta",
        -10.277255378537513
      ],
      [
        "NAL",
        -10.277706259398498
      ],
      [
        "ĠjustiÃ§a",
        -10.277937362202836
      ],
      [
        "ResoluÃ§Ã£o",
        -10.278854606952544
      ],
      [
        "juros",
        -10.27893993219198
      ],
      [
        "ĠOUTR",
        -10.278949323247732
      ],
      [
        "Ġreclama",
        -10.2789934379454
      ],
      [
        "Jogos",
        -10.2790701485801
      ],
      [
        "ĠAh",
        -10.279639201987363
      ],
      [
        "substitutivo",
        -10.280128396968744
      ],
      [
        "ĠQuanto",
        -10.280656901701722
      ],
      [
        "IV",
        -10.281690584967452
      ],
      [
        "Ġouvir",
        -10.28270704730178
      ],
      [
        "Ġexigi",
        -10.283174973186645
      ],
      [
        "doenÃ§a",
        -10.283597535132392
      ],
      [
        "ĠSobre",
        -10.284031561568495
      ],
      [
        "constitucionai",
        -10.284040838464469
      ],
      [
        "rÃŃamos",
        -10.286005150062584
      ],
      [
        "vontade",
        -10.286087692001889
      ],
      [
        "Moreira",
        -10.286675172911291
      ],
      [
        "ĠAp",
        -10.287167322902338
      ],
      [
        "Ġadequa",
        -10.288093639851596
      ],
      [
        "Ġcarga",
        -10.288511450283613
      ],
      [
        "Ġremunera",
        -10.28884300711876
      ],
      [
        "elli",
        -10.289270534243371
      ],
      [
        "Ġsitua",
        -10.289923347694527
      ],
      [
        "parceria",
        -10.290355808404165
      ],
      [
        "amanhÃ£",
        -10.291120584311807
      ],
      [
        "Ġcarta",
        -10.29135889167994
      ],
      [
        "gli",
        -10.291696041164077
      ],
      [
        "rÃ¡pida",
        -10.291764711450467
      ],
      [
        "privado",
        -10.29180505244618
      ],
      [
        "PrÃªmio",
        -10.292375158891264
      ],
      [
        "ocorreu",
        -10.292579707448754
      ],
      [
        "¾",
        -10.29260767785627
      ],
      [
        "ĠGua",
        -10.292666851289486
      ],
      [
        "advogado",
        -10.294427298380278
      ],
      [
        "Ġitem",
        -10.295072697709466
      ],
      [
        "instalaÃ§Ã£o",
        -10.295111767901792
      ],
      [
        "assistÃªncia",
        -10.295426074984492
      ],
      [
        "mil",
        -10.295683223788629
      ],
      [
        "Proposta",
        -10.296324512313037
      ],
      [
        "fiscalizaÃ§Ã£o",
        -10.296829506861137
      ],
      [
        "Ġinstru",
        -10.297919801648709
      ],
      [
        "irÃ¡",
        -10.298013688495637
      ],
      [
        "ĠJU",
        -10.298808132957884
      ],
      [
        "tais",
        -10.298963907728702
      ],
      [
        "Ġjuiz",
        -10.299404447610462
      ],
      [
        "ĠForÃ§a",
        -10.299622214586687
      ],
      [
        "havend",
        -10.299925441136846
      ],
      [
        "Ġ49",
        -10.300932238957383
      ],
      [
        "Ġquinta",
        -10.30182707629999
      ],
      [
        "ITO",
        -10.302064973758151
      ],
      [
        "Ġhumana",
        -10.302506341979967
      ],
      [
        "ĠAltera",
        -10.303185337567546
      ],
      [
        "existem",
        -10.303656637691734
      ],
      [
        "ĠNeste",
        -10.303760899673396
      ],
      [
        "Ġtrabalhador",
        -10.303885318471853
      ],
      [
        "Ġcuidado",
        -10.305147049303972
      ],
      [
        "Ġcorpus",
        -10.30629725400924
      ],
      [
        "Ġentende",
        -10.306822783797452
      ],
      [
        "Ġ45",
        -10.307316928067165
      ],
      [
        "2020",
        -10.307413407833364
      ],
      [
        "preciaÃ§Ã£o",
        -10.30835689762026
      ],
      [
        "Ġ1993",
        -10.308534366925157
      ],
      [
        "single",
        -10.30876681901655
      ],
      [
        "Ġcomunica",
        -10.308834693534804
      ],
      [
        "ĠCruz",
        -10.308861519931902
      ],
      [
        "gravada",
        -10.309013381706736
      ],
      [
        "Ġeventos",
        -10.309386989370976
      ],
      [
        "prÃªmio",
        -10.310025225857958
      ],
      [
        "humanos",
        -10.31032877989699
      ],
      [
        "FederaÃ§Ã£o",
        -10.310683579670068
      ],
      [
        "Ġconstitui",
        -10.310904159049244
      ],
      [
        "Ġcompanhia",
        -10.310924857805238
      ],
      [
        "referida",
        -10.311011691786552
      ],
      [
        "avanÃ§o",
        -10.31169795953725
      ],
      [
        "campeÃ£o",
        -10.312075114087255
      ],
      [
        "Ġfar",
        -10.312274070325945
      ],
      [
        "Ġpermanece",
        -10.31330015930576
      ],
      [
        "ĠMag",
        -10.313424265306894
      ],
      [
        "Ġdispor",
        -10.313732868772757
      ],
      [
        "Amazonas",
        -10.313759453261632
      ],
      [
        "Ġ|",
        -10.313864045235436
      ],
      [
        "agentes",
        -10.314361201173709
      ],
      [
        "expressÃ£o",
        -10.314520283559858
      ],
      [
        "Ġdefende",
        -10.315432172102437
      ],
      [
        "etapa",
        -10.315493448871027
      ],
      [
        "clusÃ£o",
        -10.31555225034012
      ],
      [
        "ĠParlamento",
        -10.315769757077195
      ],
      [
        "consumo",
        -10.316305463134496
      ],
      [
        "ĠAgrav",
        -10.316611165290391
      ],
      [
        "Ġtinham",
        -10.316962567936072
      ],
      [
        "ĠfaÃ§o",
        -10.317120083305186
      ],
      [
        "Ġregistrado",
        -10.31717982955245
      ],
      [
        "Ġvinte",
        -10.317874411181894
      ],
      [
        "Ġ1994",
        -10.31796816774202
      ],
      [
        "sal",
        -10.3183428440943
      ],
      [
        "Ġaberto",
        -10.318363499665717
      ],
      [
        "ĠusuÃ¡rio",
        -10.318923635731302
      ],
      [
        "ĠfaÃ§a",
        -10.31988300283776
      ],
      [
        "Ġgosto",
        -10.319894513133
      ],
      [
        "Ġoferta",
        -10.319970497244691
      ],
      [
        "Ġinten",
        -10.320050472373904
      ],
      [
        "Ġrealiza",
        -10.320332514540848
      ],
      [
        "ĠlÃŃder",
        -10.320708595974692
      ],
      [
        "ocalidades",
        -10.320827332275142
      ],
      [
        "Barbosa",
        -10.32086435337401
      ],
      [
        "TER",
        -10.321226986769233
      ],
      [
        "Ġrespectiva",
        -10.321342122904705
      ],
      [
        "precisamos",
        -10.321766869891356
      ],
      [
        "Ġfun",
        -10.321769400383433
      ],
      [
        "ĠNeto",
        -10.32260116219701
      ],
      [
        "obretudo",
        -10.322916451301476
      ],
      [
        "ĠDeve",
        -10.322929250968526
      ],
      [
        "ĠMeio",
        -10.323461533156731
      ],
      [
        "investimentos",
        -10.323586206472
      ],
      [
        "Ġjogador",
        -10.324240484721091
      ],
      [
        "retirada",
        -10.324486150231383
      ],
      [
        "contexto",
        -10.32471786595129
      ],
      [
        "Ġescolha",
        -10.324842348937402
      ],
      [
        "ĠRegional",
        -10.326956830758236
      ],
      [
        "ativo",
        -10.32706050082444
      ],
      [
        "Ġamplia",
        -10.327146522379074
      ],
      [
        "empresÃ¡rio",
        -10.327604733308972
      ],
      [
        "Ġinternacionais",
        -10.32763768498423
      ],
      [
        "Ġvelho",
        -10.327657915686885
      ],
      [
        "Ġconven",
        -10.328330705979727
      ],
      [
        "equipamentos",
        -10.32839217460892
      ],
      [
        "Ġpartida",
        -10.329699983053157
      ],
      [
        "estaÃ§Ã£o",
        -10.32988401298835
      ],
      [
        "desempenho",
        -10.330247461668463
      ],
      [
        "ick",
        -10.330290941546936
      ],
      [
        "½",
        -10.330573647984489
      ],
      [
        "ĠNada",
        -10.331131854981932
      ],
      [
        "ADA",
        -10.331198374915411
      ],
      [
        "incidÃªncia",
        -10.331324807549398
      ],
      [
        "Mar",
        -10.3318317416114
      ],
      [
        "Ġcima",
        -10.332127886745289
      ],
      [
        "ĠVila",
        -10.332138380603029
      ],
      [
        "Ġcomando",
        -10.3322949800451
      ],
      [
        "Ġesposa",
        -10.33238733836415
      ],
      [
        "grÃ¡fico",
        -10.332704621479568
      ],
      [
        "Ġeleitoral",
        -10.333283278961831
      ],
      [
        "Ġsexta",
        -10.333328492022956
      ],
      [
        "PI",
        -10.333700655025572
      ],
      [
        "curso",
        -10.333818539175434
      ],
      [
        "ganhou",
        -10.334051796378288
      ],
      [
        "Ġrelator",
        -10.334954802046624
      ],
      [
        "Ġdaqui",
        -10.334995449909018
      ],
      [
        "Ã¡reas",
        -10.335387637061071
      ],
      [
        "Ġconhece",
        -10.335396371852164
      ],
      [
        "·",
        -10.335901859720956
      ],
      [
        "elementos",
        -10.336112212862686
      ],
      [
        "ĠjurisprudÃªncia",
        -10.336897990685229
      ],
      [
        "tentativa",
        -10.3369946906465
      ],
      [
        "zen",
        -10.337178885790262
      ],
      [
        "ĠalÃŃnea",
        -10.33719010638122
      ],
      [
        "RelaÃ§Ãµes",
        -10.33816393802243
      ],
      [
        "Ġinclui",
        -10.338714038739823
      ],
      [
        "ĠAO",
        -10.339043669994926
      ],
      [
        "Ġampla",
        -10.33917565765322
      ],
      [
        "Ġ64",
        -10.339333457838784
      ],
      [
        "errado",
        -10.34004365075808
      ],
      [
        "Ġpresta",
        -10.340061814222892
      ],
      [
        "http",
        -10.34017229292283
      ],
      [
        "Ġ90",
        -10.340273673375796
      ],
      [
        "Ġfogo",
        -10.34051745714592
      ],
      [
        "Ġvoz",
        -10.340607493639071
      ],
      [
        "ĠUni",
        -10.34108423371772
      ],
      [
        "ĠMagalhÃ£es",
        -10.341392900376542
      ],
      [
        "reconhecimento",
        -10.34199130798968
      ],
      [
        "esteja",
        -10.342961728022374
      ],
      [
        "Ġrece",
        -10.343334537941692
      ],
      [
        "ĠIsto",
        -10.343797678493432
      ],
      [
        "ĠsaÃŃd",
        -10.345253867933629
      ],
      [
        "PRIMEIR",
        -10.34566421475684
      ],
      [
        "Ġesti",
        -10.34688036835777
      ],
      [
        "Ġtive",
        -10.347629033919318
      ],
      [
        "apelo",
        -10.347977263702717
      ],
      [
        "arney",
        -10.349879455155028
      ],
      [
        "ĠCarreira",
        -10.34994787363082
      ],
      [
        "cy",
        -10.349962255021673
      ],
      [
        "convidado",
        -10.350016399615534
      ],
      [
        "francÃªs",
        -10.350311324003716
      ],
      [
        "ĠMARCO",
        -10.35050326422288
      ],
      [
        "ĠClaro",
        -10.351434864559424
      ],
      [
        "Ġcursos",
        -10.351645549791954
      ],
      [
        "Ġcorte",
        -10.351761762357098
      ],
      [
        "ficado",
        -10.352065942818852
      ],
      [
        "ĠlicenÃ§a",
        -10.352454053582314
      ],
      [
        "Ġquiser",
        -10.353758852984036
      ],
      [
        "ĠExterior",
        -10.35394915342759
      ],
      [
        "Ġlivros",
        -10.354701618697696
      ],
      [
        "AgÃªncia",
        -10.35474057944728
      ],
      [
        "rel",
        -10.355267253361864
      ],
      [
        "metade",
        -10.355583331187074
      ],
      [
        "decisÃµes",
        -10.356248615674131
      ],
      [
        "Ġassinatura",
        -10.356957894107683
      ],
      [
        "veÃŃculos",
        -10.357533698661916
      ],
      [
        "AV",
        -10.357877850159015
      ],
      [
        "ĠDra",
        -10.358552922988912
      ],
      [
        "fundamento",
        -10.359042213573607
      ],
      [
        "administrativo",
        -10.359845860418885
      ],
      [
        "ĠFolha",
        -10.359955242563268
      ],
      [
        "provÃŃncia",
        -10.360584928897548
      ],
      [
        "ĠCPI",
        -10.360846919270523
      ],
      [
        "Ġjunta",
        -10.361517823386102
      ],
      [
        "ĠFerreira",
        -10.361595743340006
      ],
      [
        "Ġconsidera",
        -10.36240671807567
      ],
      [
        "Ġexterior",
        -10.3630398559582
      ],
      [
        "Enquanto",
        -10.363056570737175
      ],
      [
        "ĠConstitucional",
        -10.36355129176632
      ],
      [
        "ÃŃa",
        -10.36374692752974
      ],
      [
        "necessÃ¡ria",
        -10.363977729136352
      ],
      [
        "postos",
        -10.364669550224422
      ],
      [
        "Ġcultural",
        -10.365791174104244
      ],
      [
        "Ġ53",
        -10.36629348033654
      ],
      [
        "ĠrÃ¡dio",
        -10.36631086450121
      ],
      [
        "ĠespÃ©cies",
        -10.367100871117396
      ],
      [
        "Ġjoga",
        -10.367247636946228
      ],
      [
        "ĠelÃ©trica",
        -10.367365655935794
      ],
      [
        "ĠTim",
        -10.367751820821317
      ],
      [
        "Ġdela",
        -10.368033082864066
      ],
      [
        "ĠCap",
        -10.368109239312547
      ],
      [
        "ĠcompetiÃ§Ã£o",
        -10.36863710928318
      ],
      [
        "Ġcinema",
        -10.36904761858799
      ],
      [
        "Ġchance",
        -10.369652476677963
      ],
      [
        "Ġposse",
        -10.370427343079838
      ],
      [
        "ĠOrÃ§ament",
        -10.370696671983064
      ],
      [
        "Ġtenta",
        -10.371077492703858
      ],
      [
        "Ġ1992",
        -10.372091722642349
      ],
      [
        "Ġaceita",
        -10.372117333657345
      ],
      [
        "Ġprodutor",
        -10.372529457486335
      ],
      [
        "Ġterceira",
        -10.373507645647518
      ],
      [
        "ier",
        -10.374000375622844
      ],
      [
        "ĠClube",
        -10.374095231645992
      ],
      [
        "Ġpensa",
        -10.374490587837164
      ],
      [
        "emendas",
        -10.37454860236944
      ],
      [
        "americano",
        -10.375459426787938
      ],
      [
        "ESTADO",
        -10.37549358107199
      ],
      [
        "Outra",
        -10.37553625479304
      ],
      [
        "Ġcontato",
        -10.375636531750525
      ],
      [
        "Pro",
        -10.375951718317102
      ],
      [
        "funcionamento",
        -10.376855288779614
      ],
      [
        "finalidade",
        -10.376931919617714
      ],
      [
        "ĠMello",
        -10.377207671681989
      ],
      [
        "Ġsustenta",
        -10.37725314236516
      ],
      [
        "Ġmedo",
        -10.377288566479994
      ],
      [
        "Embora",
        -10.377406327314963
      ],
      [
        "ĠSai",
        -10.377646723254712
      ],
      [
        "ÃŃveis",
        -10.378192411799391
      ],
      [
        "ĠEspanha",
        -10.378808142618537
      ],
      [
        "licitaÃ§Ã£o",
        -10.379084910270526
      ],
      [
        "Ġaumenta",
        -10.379194681303602
      ],
      [
        "Ġpersonagem",
        -10.37948020579361
      ],
      [
        "daquele",
        -10.379595176049683
      ],
      [
        "Ġinteiro",
        -10.379610127762918
      ],
      [
        "Ġtermina",
        -10.379740101791748
      ],
      [
        "exploraÃ§Ã£o",
        -10.3802714509107
      ],
      [
        "Ġquebra",
        -10.381048176073255
      ],
      [
        "Ġveja",
        -10.381096420889913
      ],
      [
        "ĠcrÃŃtica",
        -10.381688501914203
      ],
      [
        "tributÃ¡ria",
        -10.382583255702322
      ],
      [
        "Ĵ",
        -10.382693948524471
      ],
      [
        "Ġacompanha",
        -10.383866714030264
      ],
      [
        "ĠdistÃ¢ncia",
        -10.38403167580525
      ],
      [
        "policiais",
        -10.384222006546016
      ],
      [
        "Ġsabia",
        -10.38459745356974
      ],
      [
        "ĠEdita",
        -10.384997842063198
      ],
      [
        "tomada",
        -10.385096357822292
      ],
      [
        "Ġ02",
        -10.385155909219788
      ],
      [
        "Ġproduzir",
        -10.38520384353682
      ],
      [
        "pÃ©",
        -10.38562597734525
      ],
      [
        "indicaÃ§Ã£o",
        -10.386366154563143
      ],
      [
        "comÃ©rcio",
        -10.386558592974907
      ],
      [
        "Ġpermanente",
        -10.386787170221634
      ],
      [
        "Ġ62",
        -10.387140172382278
      ],
      [
        "Ġveda",
        -10.38738127006814
      ],
      [
        "trinta",
        -10.388280000664892
      ],
      [
        "Ġpensar",
        -10.388489673523225
      ],
      [
        "Ġindividual",
        -10.389703682000173
      ],
      [
        "2002",
        -10.389838050609596
      ],
      [
        "Ġadolescente",
        -10.392757843488074
      ],
      [
        "ĠParece",
        -10.39325558301348
      ],
      [
        "ĠYork",
        -10.393388900662824
      ],
      [
        "ĠMartins",
        -10.39368528467012
      ],
      [
        "ĠMuseu",
        -10.39549046036572
      ],
      [
        "Ġ58",
        -10.395734940554137
      ],
      [
        "Ġreferente",
        -10.396051199854345
      ],
      [
        "Ġdiminui",
        -10.396219165724489
      ],
      [
        "ĠGO",
        -10.396693802871328
      ],
      [
        "ĠMelhor",
        -10.396941685004242
      ],
      [
        "presidente",
        -10.39731290428826
      ],
      [
        "geralmente",
        -10.39809685338106
      ],
      [
        "Ġregistrar",
        -10.3991724638836
      ],
      [
        "ĠfÃ¡cil",
        -10.399489330364132
      ],
      [
        "Couto",
        -10.3998156054447
      ],
      [
        "Ġpaz",
        -10.399933949393125
      ],
      [
        "Bibliografia",
        -10.400110580626531
      ],
      [
        "Ġdeterminado",
        -10.400258664726929
      ],
      [
        "fizeram",
        -10.400417649117577
      ],
      [
        "ĠParte",
        -10.401128365381398
      ],
      [
        "Ġsai",
        -10.401790195761174
      ],
      [
        "domÃŃnio",
        -10.401913613922211
      ],
      [
        "Parlamentare",
        -10.402372572305348
      ],
      [
        "Pernambuco",
        -10.40252164150411
      ],
      [
        "ordinÃ¡ria",
        -10.402984871073867
      ],
      [
        "Ġperder",
        -10.403208869253618
      ],
      [
        "cidiu",
        -10.404878230089755
      ],
      [
        "estudantes",
        -10.405523006838209
      ],
      [
        "duto",
        -10.405610813445229
      ],
      [
        "professores",
        -10.405925442882133
      ],
      [
        "Ġprefeito",
        -10.4060327293306
      ],
      [
        "Ġconversa",
        -10.406355649046285
      ],
      [
        "Ġ1913",
        -10.406554131755271
      ],
      [
        "Ġespe",
        -10.40672003094449
      ],
      [
        "ĠprÃ©vi",
        -10.40679795878794
      ],
      [
        "Ġenorme",
        -10.407022639665827
      ],
      [
        "Ġimplica",
        -10.40726289493063
      ],
      [
        "ĠAgricultura",
        -10.407543875219634
      ],
      [
        ".............",
        -10.407583973052128
      ],
      [
        "ĠAC",
        -10.40761498085566
      ],
      [
        "consumidor",
        -10.408869558613526
      ],
      [
        "Ġ55",
        -10.40899632505364
      ],
      [
        "terminou",
        -10.409054326696856
      ],
      [
        "ĠNÃĥO",
        -10.409280948697896
      ],
      [
        "ĠVida",
        -10.409662687717391
      ],
      [
        "Ġajud",
        -10.41001134472841
      ],
      [
        "Ġlonga",
        -10.410639497569548
      ],
      [
        "bÃ¡sica",
        -10.410942477184337
      ],
      [
        "Ġaquilo",
        -10.411310202997395
      ],
      [
        "ĠMc",
        -10.411411385290796
      ],
      [
        "morreu",
        -10.412040204856106
      ],
      [
        "Ġofereci",
        -10.41206866463024
      ],
      [
        "ĠIN",
        -10.412545938185616
      ],
      [
        "Ġmostrar",
        -10.412989595948376
      ],
      [
        "Ġfamiliar",
        -10.413413819352726
      ],
      [
        "ĠAM",
        -10.41407262435721
      ],
      [
        "ĠVan",
        -10.41423911272893
      ],
      [
        "petrÃ³leo",
        -10.414362837246127
      ],
      [
        "Vieira",
        -10.41445139449506
      ],
      [
        "iauÃŃ",
        -10.414738997103058
      ],
      [
        "tamento",
        -10.414912330869758
      ],
      [
        "nanimidade",
        -10.414927810104032
      ],
      [
        "trÃ¢nsito",
        -10.4152168247668
      ],
      [
        "Ġjeito",
        -10.4165107042464
      ],
      [
        "ella",
        -10.416920995806768
      ],
      [
        "ĠÃĵ",
        -10.417304556564428
      ],
      [
        "ĠNovo",
        -10.417438993018228
      ],
      [
        "aposentadoria",
        -10.41825444403053
      ],
      [
        "patrimÃ´nio",
        -10.41890443832024
      ],
      [
        "ĠAli",
        -10.41904125707514
      ],
      [
        "companheiro",
        -10.419784507627126
      ],
      [
        "Ġobservado",
        -10.419840082366902
      ],
      [
        "rados",
        -10.421146380088729
      ],
      [
        "ĠAntes",
        -10.421345959153385
      ],
      [
        "Ġpatr",
        -10.421871308027631
      ],
      [
        "Ġinferior",
        -10.422445976523344
      ],
      [
        "Ġanteriores",
        -10.422628136429411
      ],
      [
        "Ġalternativa",
        -10.422750441853417
[...]
