{
  "version": "1.0",
  "truncation": {
    "direction": "Right",
    "max_length": 1024,
    "strategy": "LongestFirst",
    "stride": 0
  },
  "padding": null,
  "added_tokens": [
    {
      "id": 0,
      "content": "[PAD]",
      "single_word": false,
      "lstrip": false,
      "rstrip": false,
      "normalized": false,
      "special": true
    },
    {
      "id": 1,
      "content": "[SEP]",
      "single_word": false,
      "lstrip": false,
      "rstrip": false,
      "normalized": false,
      "special": true
    },
    {
      "id": 2,
      "content": "[EOS]",
      "single_word": false,
      "lstrip": false,
      "rstrip": false,
      "normalized": false,
      "special": true
    },
    {
      "id": 3,
      "content": "[UNK]",
      "single_word": false,
      "lstrip": false,
      "rstrip": false,
      "normalized": false,
      "special": true
    }
  ],
  "normalizer": {
    "type": "Sequence",
    "normalizers": [
      {
        "type": "Strip",
        "strip_left": true,
        "strip_right": true
      },
      {
        "type": "NFC"
      }
    ]
  },
  "pre_tokenizer": {
    "type": "ByteLevel",
    "add_prefix_space": true,
    "trim_offsets": true,
    "use_regex": true
  },
  "post_processor": {
    "type": "Sequence",
    "processors": [
      {
        "type": "ByteLevel",
        "add_prefix_space": true,
        "trim_offsets": true,
        "use_regex": true
      },
      {
        "type": "TemplateProcessing",
        "single": [
          {
            "Sequence": {
              "id": "A",
              "type_id": 0
            }
          },
          {
            "SpecialToken": {
              "id": "[EOS]",
              "type_id": 0
            }
          }
        ],
        "pair": [
          {
            "Sequence": {
              "id": "A",
              "type_id": 0
            }
          },
          {
            "SpecialToken": {
              "id": "[SEP]",
              "type_id": 0
            }
          },
          {
            "Sequence": {
              "id": "B",
              "type_id": 0
            }
          },
          {
            "SpecialToken": {
              "id": "[EOS]",
              "type_id": 0
            }
          }
        ],
        "special_tokens": {
          "[EOS]": {
            "id": "[EOS]",
            "ids": [
              2
            ],
            "tokens": [
              "[EOS]"
            ]
          },
          "[SEP]": {
            "id": "[SEP]",
            "ids": [
              1
            ],
            "tokens": [
              "[SEP]"
            ]
          }
        }
      }
    ]
  },
  "decoder": {
    "type": "ByteLevel",
    "add_prefix_space": true,
    "trim_offsets": true,
    "use_regex": true
  },
  "model": {
    "type": "Unigram",
    "unk_id": 3,
    "vocab": [
      [
        "[PAD]",
        0.0
      ],
      [
        "[SEP]",
        0.0
      ],
      [
        "[EOS]",
        0.0
      ],
      [
        "[UNK]",
        0.0
      ],
      [
        "Ġ",
        -1.925664492648831
      ],
      [
        ",",
        -3.278710195863784
      ],
      [
        "s",
        -3.333053253973969
      ],
      [
        "a",
        -3.3565495663973053
      ],
      [
        ".",
        -3.515992360070186
      ],
      [
        "o",
        -3.5817934633382933
      ],
      [
        "Ġde",
        -3.62694399887922
      ],
      [
        "e",
        -3.649780880645924
      ],
      [
        "-",
        -4.573643125404164
      ],
      [
        "Ġque",
        -4.620083164719819
      ],
      [
        "Ġdo",
        -4.6327305463026995
      ],
      [
        "r",
        -4.663344682009058
      ],
      [
        "Ġda",
        -4.8053767835171435
      ],
      [
        "u",
        -4.842470498283138
      ],
      [
        "m",
        -5.065686055473126
      ],
      [
        "i",
        -5.169090626372178
      ],
      [
        "n",
        -5.173201471220384
      ],
      [
        "Ġem",
        -5.198240940640652
      ],
      [
        "\"",
        -5.247439223240647
      ],
      [
        "(",
        -5.303293106979446
      ],
      [
        "l",
        -5.31465383384085
      ],
      [
        "O",
        -5.364001748959009
      ],
      [
        ")",
        -5.409102006557358
      ],
      [
        "Ġpara",
        -5.417159208554384
      ],
      [
        "c",
        -5.477645021483333
      ],
      [
        "Ġcom",
        -5.530895738240666
      ],
      [
        "t",
        -5.589785226659483
      ],
      [
        "Ġno",
        -5.600725896832795
      ],
      [
        "d",
        -5.655903509853875
      ],
      [
        "ĠA",
        -5.66350676929606
      ],
      [
        "p",
        -5.6759533008167224
      ],
      [
        ":",
        -5.74054497145594
      ],
      [
        "Ġum",
        -5.773669323971314
      ],
      [
        "ĠâĢĵ",
        -5.781242469280219
      ],
      [
        "/",
        -5.783879987248287
      ],
      [
        "ĠÃ©",
        -5.788989074685347
      ],
      [
        "Ġna",
        -5.830908699299508
      ],
      [
        "ĠnÃ£o",
        -5.8726604338006965
      ],
      [
        "S",
        -5.9328671563267505
      ],
      [
        "Ġuma",
        -5.982377969764849
      ],
      [
        "g",
        -5.994300917830444
      ],
      [
        "do",
        -6.004688812021298
      ],
      [
        "Ġpor",
        -6.0148100707212375
      ],
      [
        "Ġse",
        -6.124376907275787
      ],
      [
        "b",
        -6.197072178886447
      ],
      [
        "da",
        -6.205122314683997
      ],
      [
        "A",
        -6.212399281691235
      ],
      [
        "1",
        -6.2333534604621725
      ],
      [
        "Ã§Ã£o",
        -6.247918028058503
      ],
      [
        "E",
        -6.269128104541961
      ],
      [
        "h",
        -6.331998636031736
      ],
      [
        "Ġdos",
        -6.336670496450047
      ],
      [
        "3",
        -6.342579648353793
      ],
      [
        "ĠÃł",
        -6.384675201557046
      ],
      [
        "?",
        -6.385661410311311
      ],
      [
        "Ġcomo",
        -6.389459536689422
      ],
      [
        "2",
        -6.416229364476759
      ],
      [
        "7",
        -6.433632725430657
      ],
      [
        "4",
        -6.440970097297479
      ],
      [
        "I",
        -6.465690250720122
      ],
      [
        "de",
        -6.466985132683332
      ],
      [
        "ndo",
        -6.4697143396975765
      ],
      [
        "6",
        -6.473176986572742
      ],
      [
        "5",
        -6.487032521153138
      ],
      [
        "f",
        -6.521579485086679
      ],
      [
        "8",
        -6.525025149761886
      ],
      [
        "Ġfoi",
        -6.531307423930478
      ],
      [
        "!",
        -6.591821172385975
      ],
      [
        "v",
        -6.596193763929504
      ],
      [
        "Ġmais",
        -6.5995481331000345
      ],
      [
        "R",
        -6.621662249042332
      ],
      [
        "Ġou",
        -6.72500040705202
      ],
      [
        ";",
        -6.728368723448348
      ],
      [
        "Ġpela",
        -6.747556829851252
      ],
      [
        "ĠDE",
        -6.765151335995695
      ],
      [
        "ĠnÂº",
        -6.768374753897941
      ],
      [
        "9",
        -6.806155392035354
      ],
      [
        "y",
        -6.807817661824117
      ],
      [
        "Ġpelo",
        -6.816814962678464
      ],
      [
        "Ġsua",
        -6.836767800936666
      ],
      [
        "C",
        -6.839142835867534
      ],
      [
        "................",
        -6.873009176003233
      ],
      [
        "to",
        -6.873582067275452
      ],
      [
        "ti",
        -6.884675615635597
      ],
      [
        "Ġre",
        -6.902519789118948
      ],
      [
        "ĠSr",
        -6.909384773919662
      ],
      [
        "Âº",
        -6.915480241265422
      ],
      [
        "Ġser",
        -6.9294588798662105
      ],
      [
        "Ġdas",
        -6.9354975480363645
      ],
      [
        "co",
        -6.950371085377039
      ],
      [
        "is",
        -6.968388648628984
      ],
      [
        "la",
        -6.969420511719358
      ],
      [
        "Ġsobre",
        -6.986723226372337
      ],
      [
        "ĠC",
        -6.989057392818184
      ],
      [
        "L",
        -6.997983254048453
      ],
      [
        "N",
        -6.99808740859819
      ],
      [
        "mente",
        -6.998645433700421
      ],
      [
        "...",
        -7.003721665118528
      ],
      [
        "dos",
        -7.015960633603008
      ],
      [
        "in",
        -7.017726423675802
      ],
      [
        "Ã£o",
        -7.0288889475106
      ],
      [
        "na",
        -7.052851412460498
      ],
      [
        "li",
        -7.056549675402996
      ],
      [
        "ri",
        -7.061213381387656
      ],
      [
        "ÃŃ",
        -7.0634932214385415
      ],
      [
        "mos",
        -7.067015743798409
      ],
      [
        "Ã©",
        -7.073378443728171
      ],
      [
        "ĠâĢľ",
        -7.082401091908999
      ],
      [
        "Ġseu",
        -7.086979517289974
      ],
      [
        "te",
        -7.09215683118771
      ],
      [
        "Ã¡",
        -7.117412189159326
      ],
      [
        "k",
        -7.132182080438239
      ],
      [
        "ram",
        -7.135217448580526
      ],
      [
        "ĠPresidente",
        -7.140153220605848
      ],
      [
        "ĠestÃ¡",
        -7.148889058594623
      ],
      [
        "U",
        -7.165791516471714
      ],
      [
        "ĠNÃ£o",
        -7.16758359451887
      ],
      [
        "T",
        -7.170256343460144
      ],
      [
        "ou",
        -7.174965631279411
      ],
      [
        "ĠEm",
        -7.175605451839447
      ],
      [
        "va",
        -7.177041800549347
      ],
      [
        "ĠtambÃ©m",
        -7.178545676825035
      ],
      [
        "D",
        -7.190589646309734
      ],
      [
        "ĠLei",
        -7.1966893746028635
      ],
      [
        "em",
        -7.210450103101048
      ],
      [
        "Ġ19",
        -7.212002258886939
      ],
      [
        "ĠP",
        -7.220941433606129
      ],
      [
        "z",
        -7.225869034232167
      ],
      [
        "P",
        -7.265877206309478
      ],
      [
        "Ġin",
        -7.268926975786902
      ],
      [
        "ĠDeputado",
        -7.281674771576725
      ],
      [
        "Ġmas",
        -7.284600662144122
      ],
      [
        "Ġtem",
        -7.286559927176968
      ],
      [
        "ĠV",
        -7.286602862510376
      ],
      [
        "Ġnos",
        -7.289339337748837
      ],
      [
        "x",
        -7.293458735976639
      ],
      [
        "M",
        -7.302276057588404
      ],
      [
        "Ã§Ãµes",
        -7.342309283365378
      ],
      [
        "Ġart",
        -7.356345370701028
      ],
      [
        "das",
        -7.363877525080655
      ],
      [
        "Ġele",
        -7.377561457289266
      ],
      [
        "ci",
        -7.414907238364801
      ],
      [
        "ĠSR",
        -7.428221182359641
      ],
      [
        "ĠsÃ£o",
        -7.434156171475781
      ],
      [
        "ĠFederal",
        -7.441365055261574
      ],
      [
        "ĠÃī",
        -7.45018957101191
      ],
      [
        "Ġisso",
        -7.456221087404069
      ],
      [
        "vi",
        -7.459837407872394
      ],
      [
        "B",
        -7.461009629505249
      ],
      [
        "ĠNÂº",
        -7.471126710741627
      ],
      [
        "Ġanos",
        -7.4855253901460514
      ],
      [
        "que",
        -7.489346554373148
      ],
      [
        "ĠBrasil",
        -7.492366308790537
      ],
      [
        "ĠEstado",
        -7.496504130264862
      ],
      [
        "Ã³",
        -7.502354054234543
      ],
      [
        "ĠSenador",
        -7.51240709437454
      ],
      [
        "F",
        -7.5290106358577535
      ],
      [
        "Ġme",
        -7.529053188016389
      ],
      [
        "ĠF",
        -7.529162536657788
      ],
      [
        "ĠEu",
        -7.536656768086196
      ],
      [
        "Ġentre",
        -7.5495523148443215
      ],
      [
        "idade",
        -7.5552885210324305
      ],
      [
        "ĠvocÃª",
        -7.560867680849421
      ],
      [
        "Ġaos",
        -7.573452730793308
      ],
      [
        "Ġmuito",
        -7.577748159770399
      ],
      [
        "Ġcon",
        -7.591932437587815
      ],
      [
        ").",
        -7.599670571483285
      ],
      [
        "ter",
        -7.607403512819991
      ],
      [
        "no",
        -7.613945171854857
      ],
      [
        "ĠNo",
        -7.61948906342012
      ],
      [
        "ria",
        -7.6269207669247105
      ],
      [
        "ĠatÃ©",
        -7.63339429091941
      ],
      [
        "ĠjÃ¡",
        -7.639517659027961
      ],
      [
        "%",
        -7.643861780971744
      ],
      [
        "ĠDe",
        -7.66954498343163
      ],
      [
        "cia",
        -7.6832529727108785
      ],
      [
        "ĠComissÃ£o",
        -7.694571032699304
      ],
      [
        "ir",
        -7.695961580632726
      ],
      [
        "Ġforma",
        -7.6987831136081635
      ],
      [
        "ver",
        -7.71053295674794
      ],
      [
        "Ġbem",
        -7.7177845832440095
      ],
      [
        "min",
        -7.725405586697296
      ],
      [
        "ĠSe",
        -7.727580762224498
      ],
      [
        "Ġpode",
        -7.736779276012433
      ],
      [
        "w",
        -7.738103414950034
      ],
      [
        "V",
        -7.746537362084181
      ],
      [
        "Ġpro",
        -7.771030077305181
      ],
      [
        "ĠNa",
        -7.771704531390487
      ],
      [
        "bi",
        -7.772726300345068
      ],
      [
        "Ġquando",
        -7.7747447095216735
      ],
      [
        "ĠB",
        -7.781629465351131
      ],
      [
        "Ġ10",
        -7.792178289571458
      ],
      [
        "Ġaqui",
        -7.800551367294426
      ],
      [
        "Ġmesmo",
        -7.807461014158363
      ],
      [
        "ĠNacional",
        -7.818002216428562
      ],
      [
        "ĠPor",
        -7.83090050317776
      ],
      [
        "ĠRe",
        -7.841125912815247
      ],
      [
        "gi",
        -7.843846124547184
      ],
      [
        "G",
        -7.8513977538892785
      ],
      [
        "Ġsem",
        -7.852144475786533
      ],
      [
        "tra",
        -7.85271229796497
      ],
      [
        "ĠÂ§",
        -7.858479393262476
      ],
      [
        "0",
        -7.86317116589546
      ],
      [
        "Ġtodos",
        -7.863991810551852
      ],
      [
        "j",
        -7.868240039472017
      ],
      [
        "res",
        -7.869406215006922
      ],
      [
        "um",
        -7.872541791856078
      ],
      [
        "Ġainda",
        -7.879967333137804
      ],
      [
        "ĠSÃ£o",
        -7.885710003514454
      ],
      [
        "Ġcontra",
        -7.8917843496159055
      ],
      [
        "Ġ18",
        -7.892193351159612
      ],
      [
        "Ġdia",
        -7.901118356207926
      ],
      [
        "aÃ§Ã£o",
        -7.912155917541416
      ],
      [
        "ĠOs",
        -7.917712754039963
      ],
      [
        "Ġseus",
        -7.923543607922994
      ],
      [
        "Ġera",
        -7.928021201787779
      ],
      [
        "Ãª",
        -7.93429602855821
      ],
      [
        "âĢĿ.",
        -7.937890630093344
      ],
      [
        "Ġter",
        -7.937948096147322
      ],
      [
        "Ġesta",
        -7.944443324093347
      ],
      [
        "Ġparte",
        -7.949220145395774
      ],
      [
        "ĠG",
        -7.949652026926678
      ],
      [
        "Ġcidade",
        -7.956647050369629
      ],
      [
        "fi",
        -7.960544478234269
      ],
      [
        "br",
        -7.96199010809131
      ],
      [
        "Ġforam",
        -7.964474883171031
      ],
      [
        "Ġfazer",
        -7.973281771661631
      ],
      [
        "ĠPaulo",
        -7.9800361762446546
      ],
      [
        "Ġano",
        -7.98129161160098
      ],
      [
        "Ġcaso",
        -7.984305376714678
      ],
      [
        "ĠhÃ¡",
        -7.985119850553181
      ],
      [
        "ĠT",
        -7.991556828312968
      ],
      [
        "ĠCom",
        -7.996231584152042
      ],
      [
        "Ġex",
        -8.010441174202816
      ],
      [
        "ĠPL",
        -8.020609584801145
      ],
      [
        "Ġesse",
        -8.041966389671403
      ],
      [
        "ch",
        -8.04355500631012
      ],
      [
        "Ġtempo",
        -8.054461231023808
      ],
      [
        "il",
        -8.05646672786306
      ],
      [
        "Ġessa",
        -8.058988109505023
      ],
      [
        "H",
        -8.065115298815417
      ],
      [
        "PRESIDENTE",
        -8.06885972045357
      ],
      [
        "ĠD",
        -8.071047188008855
      ],
      [
        "PROJETO",
        -8.07525697034468
      ],
      [
        "Ġseja",
        -8.079608528730539
      ],
      [
        "mento",
        -8.082309832091898
      ],
      [
        "cio",
        -8.084350162692555
      ],
      [
        "nte",
        -8.084775884396256
      ],
      [
        "Ġvai",
        -8.085586603807567
      ],
      [
        "ĠLEI",
        -8.09417035484221
      ],
      [
        "ĠÃłs",
        -8.099971991548491
      ],
      [
        "Ġmeu",
        -8.10046943217766
      ],
      [
        "ĠM",
        -8.101515000939804
      ],
      [
        "ita",
        -8.101633168188123
      ],
      [
        "tro",
        -8.102602168566856
      ],
      [
        "Ġporque",
        -8.104492035775909
      ],
      [
        "ĠsÃ³",
        -8.106021561751175
      ],
      [
        "ĠMas",
        -8.116554730181074
      ],
      [
        "ĠEle",
        -8.121153623770274
      ],
      [
        "Ġprimeiro",
        -8.126113985456747
      ],
      [
        "ĠDeputados",
        -8.130991291372519
      ],
      [
        "tar",
        -8.142628617600229
      ],
      [
        "Ġela",
        -8.14776215229919
      ],
      [
        "RELATOR",
        -8.156035461209113
      ],
      [
        "ĠJ",
        -8.157103090103442
      ],
      [
        "ĠGoverno",
        -8.159256754038399
      ],
      [
        "ĠMinistro",
        -8.163539531223984
      ],
      [
        "Ġonde",
        -8.1638384324968
      ],
      [
        "âĢĿ",
        -8.167979692260792
      ],
      [
        "Ġ12",
        -8.170656573197405
      ],
      [
        "Ġnas",
        -8.170824865590765
      ],
      [
        "Ãº",
        -8.17349539061165
      ],
      [
        "ĠConstituiÃ§Ã£o",
        -8.174534910209802
      ],
      [
        "00",
        -8.17553431580083
      ],
      [
        "ĠVocÃª",
        -8.177435328159818
      ],
      [
        "19",
        -8.180729557498745
      ],
      [
        "ja",
        -8.183204371489541
      ],
      [
        "tor",
        -8.185788875415911
      ],
      [
        "'",
        -8.187089364371122
      ],
      [
        "Ġpessoas",
        -8.187220502362369
      ],
      [
        "Ġvez",
        -8.194721877826218
      ],
      [
        "Ġgrande",
        -8.197732852496717
      ],
      [
        "Ġ11",
        -8.198302079845783
      ],
      [
        "Ġdi",
        -8.20109039762768
      ],
      [
        "Ġartigo",
        -8.203717580971992
      ],
      [
        "Ġoutros",
        -8.205827664740644
      ],
      [
        "ĠSenhor",
        -8.209737501222259
      ],
      [
        "ĠDo",
        -8.219480660732138
      ],
      [
        "Ġtrabalho",
        -8.220387752720143
      ],
      [
        "qui",
        -8.221871370262376
      ],
      [
        "ĠestÃ£o",
        -8.222042334504717
      ],
      [
        "ĠIn",
        -8.222819794717092
      ],
      [
        "Ġapenas",
        -8.223887132471578
      ],
      [
        "Ġlei",
        -8.227526009252559
      ],
      [
        "Ġoutras",
        -8.23296695281131
      ],
      [
        "Ġpre",
        -8.235856270325812
      ],
      [
        "ĠCÃ¢mara",
        -8.236781797688328
      ],
      [
        "ĠnÃ³s",
        -8.239432878428518
      ],
      [
        "Ġvi",
        -8.240159237222827
      ],
      [
        "Âª",
        -8.249517872232829
      ],
      [
        "Ġ15",
        -8.251941452335906
      ],
      [
        "ĠArt",
        -8.25634210602301
      ],
      [
        "Ġsendo",
        -8.26133534771052
      ],
      [
        "man",
        -8.26532162309382
      ],
      [
        "ĠRio",
        -8.269244480981365
      ],
      [
        "sta",
        -8.274355367626546
      ],
      [
        "ĠMo",
        -8.277155659914946
      ],
      [
        "Ġordem",
        -8.27912420094342
      ],
      [
        "Ġnosso",
        -8.279911959161241
      ],
      [
        "Ġdois",
        -8.279999501642202
      ],
      [
        "Ġeste",
        -8.284938768705443
      ],
      [
        "ĠProjeto",
        -8.289023984974465
      ],
      [
        "ica",
        -8.290773607072184
      ],
      [
        "ĠII",
        -8.293468732084794
      ],
      [
        "est",
        -8.294721974343304
      ],
      [
        "ES",
        -8.299388356803519
      ],
      [
        "per",
        -8.299566707789026
      ],
      [
        "Ġsuas",
        -8.308936347906187
      ],
      [
        "iz",
        -8.30910948774193
      ],
      [
        "rÃ¡",
        -8.309733551803449
      ],
      [
        "Ġnome",
        -8.311320100342696
      ],
      [
        "Ġminha",
        -8.315301219233795
      ],
      [
        "car",
        -8.318693654011893
      ],
      [
        "ĠCasa",
        -8.319377575221987
      ],
      [
        "10",
        -8.321550020498284
      ],
      [
        "Ġhoje",
        -8.323658928205411
      ],
      [
        "Ġmaior",
        -8.324061443869374
      ],
      [
        "ĠpÃºblica",
        -8.324196925740232
      ],
      [
        "ĠPara",
        -8.3287511504397
      ],
      [
        "Ġtermos",
        -8.332693970426764
      ],
      [
        "ĠserÃ¡",
        -8.333497452613983
      ],
      [
        "tos",
        -8.33467737294834
      ],
      [
        "ente",
        -8.33703319585075
      ],
      [
        "Ġprocesso",
        -8.340610680690459
      ],
      [
        "Ġco",
        -8.341575268170008
      ],
      [
        "ĠReferÃªncias",
        -8.341841845366785
      ],
      [
        "Ġmeio",
        -8.345144750727062
      ],
      [
        "ĠserviÃ§o",
        -8.345943615431901
      ],
      [
        "Ġassim",
        -8.347317556878325
      ],
      [
        "it",
        -8.347962847760957
      ],
      [
        "Ġdesta",
        -8.350253020808095
      ],
      [
        "Ãªncia",
        -8.350345255405193
      ],
      [
        "Ġprojeto",
        -8.354331138636857
      ],
      [
        "Ġ16",
        -8.354856849488703
      ],
      [
        "lha",
        -8.36246295162862
      ],
      [
        "dia",
        -8.364754092383304
      ],
      [
        "ĠLi",
        -8.364791145408935
      ],
      [
        "ista",
        -8.365450285848741
      ],
      [
        "ĠRo",
        -8.366732474144792
      ],
      [
        "PSDB",
        -8.369073153576226
      ],
      [
        "Ġpo",
        -8.372695566628469
      ],
      [
        "ĠSenado",
        -8.373991926792943
      ],
      [
        "Ġ17",
        -8.374274552554908
      ],
      [
        "Ġqual",
        -8.374587895386608
      ],
      [
        "ĠDO",
        -8.375578007078346
      ],
      [
        "Ġ13",
        -8.381502148298424
      ],
      [
        "aÃ§Ãµes",
        -8.38715948761798
      ],
      [
        "Ġ14",
        -8.388309509688401
      ],
      [
        "Ġ20",
        -8.393105088439263
      ],
      [
        "lar",
        -8.394341862463833
      ],
      [
        "Ġdireito",
        -8.402136783488753
      ],
      [
        "Ġvida",
        -8.402473771773566
      ],
      [
        "ĠAl",
        -8.40360587713534
      ],
      [
        "Ãµes",
        -8.40909522754957
      ],
      [
        "ĠMa",
        -8.410796445756738
      ],
      [
        "sse",
        -8.411291663895037
      ],
      [
        "ĠpolÃŃtica",
        -8.41147170682631
      ],
      [
        "Ġprimeira",
        -8.41638713115606
      ],
      [
        "ĠComo",
        -8.416460939431811
      ],
      [
        "Ġdisse",
        -8.422541959926695
      ],
      [
        "$",
        -8.423402769149614
      ],
      [
        "nha",
        -8.42433744722084
      ],
      [
        "ina",
        -8.42465481211841
      ],
      [
        "J",
        -8.426827280669697
      ],
      [
        "Ġqualquer",
        -8.427180293237384
      ],
      [
        "tal",
        -8.43030608335928
      ],
      [
        "ĠTribunal",
        -8.432471886163801
      ],
      [
        "ida",
        -8.432584211272195
      ],
      [
        "11",
        -8.433271682685584
      ],
      [
        "ĠSem",
        -8.434667048169901
      ],
      [
        "Ġdeste",
        -8.43924410789809
      ],
      [
        "ĠâĢ¢",
        -8.440383886073107
      ],
      [
        "ĠJosÃ©",
        -8.44582229172341
      ],
      [
        "Ġseguinte",
        -8.448820428054137
      ],
      [
        "ĠCon",
        -8.453541186924998
      ],
      [
        "Ġvoto",
        -8.454563281028802
      ],
      [
        "Ã",
        -8.455045104115593
      ],
      [
        "Ġpalavra",
        -8.45611620724122
      ],
      [
        "ĠPaÃŃs",
        -8.459838992867414
      ],
      [
        "Ġacordo",
        -8.463660182925869
      ],
      [
        "Ġca",
        -8.464964984781902
      ],
      [
        "Ġsu",
        -8.4650316660344
      ],
      [
        "Ġtodo",
        -8.467098655455752
      ],
      [
        "ĠÃ¡rea",
        -8.46820142687336
      ],
      [
        "ĠDA",
        -8.470580397868753
      ],
      [
        "Ġsistema",
        -8.470843888987151
      ],
      [
        "za",
        -8.471981460657517
      ],
      [
        "Ġcada",
        -8.47209192656473
      ],
      [
        "Ġdepois",
        -8.472495604794728
      ],
      [
        "rem",
        -8.476138725074279
      ],
      [
        "MA",
        -8.48348242069015
      ],
      [
        "ĠDa",
        -8.48688393232026
      ],
      [
        "ito",
        -8.487121443832166
      ],
      [
        "mar",
        -8.489461513089907
      ],
      [
        "ĠMinistÃ©rio",
        -8.491288943910067
      ],
      [
        "Ġprazo",
        -8.495990399444704
      ],
      [
        "cha",
        -8.496467524210798
      ],
      [
        "tiva",
        -8.500418212632374
      ],
      [
        "Ġmelhor",
        -8.500827760578643
      ],
      [
        "ĠLa",
        -8.504170336604359
      ],
      [
        "dor",
        -8.505360499150859
      ],
      [
        "ĠCarlos",
        -8.506607826342377
      ],
      [
        "ĠpÃºblico",
        -8.508783513502035
      ],
      [
        "Ġdeve",
        -8.510251972041642
      ],
      [
        "ĠSim",
        -8.51188495926578
      ],
      [
        "ĠapÃ³s",
        -8.512754726062276
      ],
      [
        "ing",
        -8.514105245131272
      ],
      [
        "ntes",
        -8.515297606342946
      ],
      [
        "Ã§a",
        -8.51648486344528
      ],
      [
        "ĠRelator",
        -8.519338478759371
      ],
      [
        "09",
        -8.519999927555682
      ],
      [
        "Ġagora",
        -8.522304545234466
      ],
      [
        "ck",
        -8.525658738775656
      ],
      [
        "Ġpresente",
        -8.526439994969081
      ],
      [
        "com",
        -8.526834807224219
      ],
      [
        "con",
        -8.529557256705106
      ],
      [
        "ĠMar",
        -8.533757651590166
      ],
      [
        "ando",
        -8.53618993164873
      ],
      [
        "Ġsob",
        -8.543734143168354
      ],
      [
        "AL",
        -8.544435933710988
      ],
      [
        "Ġimportante",
        -8.54574000386233
      ],
      [
        "ĠPT",
        -8.5462297949861
      ],
      [
        "DO",
        -8.549332528565227
      ],
      [
        "ten",
        -8.549925053671517
      ],
      [
        "Bloco",
        -8.556776190428678
      ],
      [
        "ĠRepÃºblica",
        -8.556952616197998
      ],
      [
        "dores",
        -8.557226232367146
      ],
      [
        "ismo",
        -8.559003872843693
      ],
      [
        "Ġsegundo",
        -8.561295667757886
      ],
      [
        "Ġmundo",
        -8.563811019004456
      ],
      [
        "durante",
        -8.568723024121635
      ],
      [
        "Ġdizer",
        -8.568960865261923
      ],
      [
        "Ġper",
        -8.570074602835504
      ],
      [
        "ĠAs",
        -8.57087167908787
      ],
      [
        "Ġato",
        -8.5736890533805
      ],
      [
        "ĠK",
        -8.574042122043483
      ],
      [
        "th",
        -8.576842766117645
      ],
      [
        "Ġnossa",
        -8.584416476596072
      ],
      [
        "RI",
        -8.58841769587632
      ],
      [
        "15",
        -8.58939317902705
      ],
      [
        "ĠmatÃ©ria",
        -8.590961871893036
      ],
      [
        "tri",
        -8.594737219795002
      ],
      [
        "ĠJustiÃ§a",
        -8.59636659073673
      ],
      [
        "Ġmil",
        -8.59699598662853
      ],
      [
        "cer",
        -8.597471845904721
      ],
      [
        "ĠW",
        -8.598777676733233
      ],
      [
        "Ġestava",
        -8.602425205946622
      ],
      [
        "gen",
        -8.60250423069416
      ],
      [
        "_",
        -8.603340543302846
      ],
      [
        "Z",
        -8.606790735212444
      ],
      [
        "Ġsido",
        -8.607206212866608
      ],
      [
        "ĠBa",
        -8.61252686692235
      ],
      [
        "pre",
        -8.615015200878835
      ],
      [
        "eira",
        -8.616068631968536
      ],
      [
        "dezembro",
        -8.618444095761207
      ],
      [
        "Ġrecursos",
        -8.618456888798454
      ],
      [
        "X",
        -8.619954224825392
      ],
      [
        "Ã§o",
        -8.620925631146285
      ],
      [
        "rei",
        -8.621755344068742
      ],
      [
        "ÃĩÃĥO",
        -8.623479164893793
      ],
      [
        "ĠAn",
        -8.631518795477108
      ],
      [
        "ĠVi",
        -8.632211048290785
      ],
      [
        "ĠEstados",
        -8.634078036544318
      ],
      [
        "Ġcasa",
        -8.637724968365703
      ],
      [
        "fer",
        -8.637945116466785
      ],
      [
        "ĠtrÃªs",
        -8.639301340459703
      ],
      [
        "AS",
        -8.63966050364004
      ],
      [
        "Ġoutro",
        -8.639699445977953
      ],
      [
        "12",
        -8.641586544224666
      ],
      [
        "Ġpartir",
        -8.641769355710286
      ],
      [
        "tado",
        -8.64488439182034
      ],
      [
        "2009",
        -8.647824050926472
      ],
      [
        "Ġtudo",
        -8.648201298853325
      ],
      [
        "=",
        -8.651316126097527
      ],
      [
        "orador",
        -8.651491815632065
      ],
      [
        "Ġ24",
        -8.651931104398153
      ],
      [
        "ĠentÃ£o",
        -8.65418252307308
      ],
      [
        "Ġfato",
        -8.655726992535952
      ],
      [
        "Ġfinal",
        -8.6613420634986
      ],
      [
        "men",
        -8.663710357070913
      ],
      [
        "ĠnÃºmero",
        -8.666538525980332
      ],
      [
        "ĠVer",
        -8.667553676267508
      ],
      [
        "Ã´",
        -8.669938017687059
      ],
      [
        "Ġprograma",
        -8.670071143937873
      ],
      [
        "and",
        -8.67060418366499
      ],
      [
        "Ġvalor",
        -8.671020017685022
      ],
      [
        "PT",
        -8.671218721311435
      ],
      [
        "ion",
        -8.672121068766755
      ],
      [
        "Ġmomento",
        -8.6724519653973
      ],
      [
        "ĠMe",
        -8.672585544690394
      ],
      [
        "Q",
        -8.67299452641795
      ],
      [
        "@",
        -8.673635221733711
      ],
      [
        "ĠH",
        -8.674484495078076
      ],
      [
        "Ì",
        -8.674849479984987
      ],
      [
        "Ġver",
        -8.676885724053623
      ],
      [
        "decisÃ£o",
        -8.676915535547776
      ],
      [
        "tas",
        -8.681705712691832
      ],
      [
        "revisÃ£o",
        -8.682859343848616
      ],
      [
        "Ġgrupo",
        -8.682914060582481
      ],
      [
        "Ġgoverno",
        -8.683516227349575
      ],
      [
        "ĠLe",
        -8.68404564182229
      ],
      [
        "Ġdesde",
        -8.686875513880764
      ],
      [
        "ĠJoÃ£o",
        -8.687384956088128
      ],
      [
        "Ġdias",
        -8.690239986779607
      ],
      [
        "ĠPMDB",
        -8.690645573592937
      ],
      [
        "Ġantes",
        -8.691512074527779
      ],
      [
        "Ġfa",
        -8.692364824100677
      ],
      [
        "les",
        -8.692373390323242
      ],
      [
        "amento",
        -8.693718207016362
      ],
      [
        "ĠfamÃŃlia",
        -8.693933344192526
      ],
      [
        "Ġconta",
        -8.696599684065621
      ],
      [
        "20",
        -8.69664402307519
      ],
      [
        "Ġte",
        -8.70060445989042
      ],
      [
        "Ġpa",
        -8.703547034663496
      ],
      [
        "Ġnovo",
        -8.704826598292966
      ],
      [
        "nos",
        -8.711243304259762
      ],
      [
        "gue",
        -8.712040035840639
      ],
      [
        "ĠpaÃŃs",
        -8.7122858336147
      ],
      [
        "ĠIsso",
        -8.71286638347945
      ],
      [
        "Ġeles",
        -8.71377771654551
      ],
      [
        "ĠPR",
        -8.715365755198158
      ],
      [
        "ĠUniÃ£o",
        -8.716637295613948
      ],
      [
        "ĠUm",
        -8.717691710021311
      ],
      [
        "qu",
        -8.717843515520837
      ],
      [
        "ĠdÃ¡",
        -8.721551648066555
      ],
      [
        "nal",
        -8.724560533844954
      ],
      [
        "Ġproposta",
        -8.724623132487325
      ],
      [
        "ĠpopulaÃ§Ã£o",
        -8.72792471839115
      ],
      [
        "ng",
        -8.728901585370764
      ],
      [
        "ĠHa",
        -8.729202459978083
      ],
      [
        "ÃĥO",
        -8.731441804907616
      ],
      [
        "Ġsempre",
        -8.734227091620287
      ],
      [
        "Ġpoder",
        -8.736213935993298
      ],
      [
        "05",
        -8.741626987865992
      ],
      [
        "Ġinciso",
        -8.742213594902458
      ],
      [
        "ĠlÃ¡",
        -8.74366033726431
      ],
      [
        "OS",
        -8.744094801478916
      ],
      [
        "Ġbrasileiro",
        -8.747504595106038
      ],
      [
        "Ġsub",
        -8.751438033086954
      ],
      [
        "Ġ30",
        -8.75326176763645
      ],
      [
        "Ġduas",
        -8.753484478002607
      ],
      [
        "ĠrelaÃ§Ã£o",
        -8.754499704958873
      ],
      [
        "Ġ:(",
        -8.75757777629965
      ],
      [
        "Ġ21",
        -8.761035301760941
      ],
      [
        "ĠâĢĶ",
        -8.76302839637749
      ],
      [
        "Ġmenos",
        -8.763361814285437
      ],
      [
        "ren",
        -8.764367669380428
      ],
      [
        "ata",
        -8.764535928340809
      ],
      [
        "ĠmilhÃµes",
        -8.764966805058071
      ],
      [
        "Ġpouco",
        -8.765148071021233
      ],
      [
        "ĠFoi",
        -8.766361698450922
      ],
      [
        "ĠEntÃ£o",
        -8.768175449146394
      ],
      [
        "Ġtinha",
        -8.768516052889677
      ],
      [
        "03",
        -8.769438694429253
      ],
      [
        "ĠJu",
        -8.769623449404387
      ],
      [
        "18",
        -8.769825203987805
      ],
      [
        "Congresso",
        -8.77055176647765
      ],
      [
        "nesta",
        -8.77194374861624
      ],
      [
        "ĠPe",
        -8.773454005504993
      ],
      [
        "ĠCa",
        -8.778539694284152
      ],
      [
        "lin",
        -8.780574430752473
      ],
      [
        "ĠvotaÃ§Ã£o",
        -8.782292238347226
      ],
      [
        "los",
        -8.782738684773669
      ],
      [
        "Ġquanto",
        -8.788893083866576
      ],
      [
        "ante",
        -8.789569294808405
      ],
      [
        "mor",
        -8.790354952866636
      ],
      [
        "ĠSul",
        -8.790528913415363
      ],
      [
        "Ġbrasileira",
        -8.790537182725945
      ],
      [
        "aprovaÃ§Ã£o",
        -8.790943391890195
      ],
      [
        "ĠPela",
        -8.793424171557332
      ],
      [
        "Ġpelos",
        -8.7948980531708
      ],
      [
        "Ġfim",
        -8.797790988835443
      ],
      [
        "neste",
        -8.799210137282236
      ],
      [
        "âĢĵ",
        -8.801596260167194
      ],
      [
        "Ġ23",
        -8.801948012064605
      ],
      [
        "ĠQue",
        -8.804645898523562
      ],
      [
        "ĠEsta",
        -8.806015381449987
      ],
      [
        "ĠDi",
        -8.808517168373237
      ],
      [
        "ĠperÃŃodo",
        -8.809885100534997
      ],
      [
        "Ġ25",
        -8.812710801958
      ],
      [
        "Ġ22",
        -8.820341857350506
      ],
      [
        "ral",
        -8.821265671098436
      ],
      [
        "lhe",
        -8.82136254262146
      ],
      [
        "Ãģ",
        -8.822807194626353
      ],
      [
        "ros",
        -8.822960545877613
      ],
      [
        "TO",
        -8.82326928385748
      ],
      [
        "08",
        -8.824436914545412
      ],
      [
        "ĠÃºnico",
        -8.826893021051132
      ],
      [
        "K",
        -8.827675554937553
      ],
      [
        "ĠhistÃ³ria",
        -8.827900476883526
      ],
      [
        "17",
        -8.830645757907986
      ],
      [
        "ĠinformaÃ§Ãµes",
        -8.834058718874937
      ],
      [
        "Ġcor",
        -8.8379077355982
      ],
      [
        "Ġtodas",
        -8.837949762030735
      ],
      [
        "ĠsaÃºde",
        -8.838733264020693
      ],
      [
        "ora",
        -8.839058384052564
      ],
      [
        "ĠPoder",
        -8.839623349990214
      ],
      [
        "Ġfaz",
        -8.841503864200757
      ],
      [
        "Ġvezes",
        -8.841905858610277
      ],
      [
        "ĠTe",
        -8.844139564273638
      ],
      [
        "Ġbase",
        -8.84532579397154
      ],
      [
        "07",
        -8.847618525826528
      ],
      [
        "Ġsocial",
        -8.848216389181315
      ],
      [
        "ĠregiÃ£o",
        -8.85073763437506
      ],
      [
        "DI",
        -8.8513452042019
      ],
      [
        "Ġexemplo",
        -8.85660458157676
      ],
      [
        "ĠCo",
        -8.85680761642993
      ],
      [
        "art",
        -8.856951595590532
      ],
      [
        "ira",
        -8.85701930983623
      ],
      [
        "ĠJo",
        -8.858606908958457
      ],
      [
        "Ġfez",
        -8.859570547203754
      ],
      [
        "can",
        -8.859661883666204
      ],
      [
        "pen",
        -8.860178303622096
      ],
      [
        "Ġcausa",
        -8.862363262845253
      ],
      [
        "menta",
        -8.865363819847477
      ],
      [
        "Ġnacional",
        -8.866067808231033
      ],
      [
        "alÃ©m",
        -8.866072387537496
      ],
      [
        "Ġmaio",
        -8.866360261847325
      ],
      [
        "Ġof",
        -8.867081152356596
      ],
      [
        "for",
        -8.868102780487424
      ],
      [
        "04",
        -8.868262408615692
      ],
      [
        "Ġexternas",
        -8.869428965162184
      ],
      [
        "Ġdiz",
        -8.870190053744043
      ],
      [
        "ĠtÃªm",
        -8.871291204365624
      ],
      [
        "ĠquestÃ£o",
        -8.872936215311436
      ],
      [
        "ĠTa",
        -8.87387204028674
      ],
      [
        "ĠtÃ£o",
        -8.873900513683225
      ],
      [
        "Ġquero",
        -8.874641495446058
      ],
      [
        "âĢĿ,",
        -8.876855835506769
      ],
      [
        "ĠLuiz",
        -8.877081912182996
      ],
      [
        "LigaÃ§Ãµes",
        -8.878408968904766
      ],
      [
        "16",
        -8.878924343379955
      ],
      [
        "Ġlugar",
        -8.880975069065046
      ],
      [
        "ĠFi",
        -8.881011850578883
      ],
      [
        "06",
        -8.881285454442967
      ],
      [
        "Ġ2007",
        -8.882975323475604
      ],
      [
        "Ġtendo",
        -8.882993514580521
      ],
      [
        "ER",
        -8.885930476806719
      ],
      [
        "Ġtrata",
        -8.886067473606198
      ],
      [
        "Ġpois",
        -8.886302360171209
      ],
      [
        "Ġpra",
        -8.886441369081462
      ],
      [
        "tion",
        -8.887041036197427
      ],
      [
        "Ġseria",
        -8.887576803018563
      ],
      [
        "Ġrecurso",
        -8.890491074379387
      ],
      [
        "julho",
        -8.890915206855501
      ],
      [
        "13",
        -8.89385122777488
      ],
      [
        "inho",
        -8.89434389207662
      ],
      [
        "Ġpovo",
        -8.895670748687472
      ],
      [
        "ĠExÂª",
        -8.895824094030681
      ],
      [
        "Ġtoda",
        -8.89683943008919
      ],
      [
        "Ġempresa",
        -8.898113634813075
      ],
      [
        "ste",
        -8.90083594558321
      ],
      [
        "Ġestado",
        -8.90218861766832
      ],
      [
        "gar",
        -8.902304320597377
      ],
      [
        "Ð",
        -8.902457425379769
      ],
      [
        "par",
        -8.902472100647884
      ],
      [
        "inha",
        -8.902769680040299
      ],
      [
        "TE",
        -8.903307063912912
      ],
      [
        "W",
        -8.905964206279958
      ],
      [
        "ESSÃĥO",
        -8.906211507679185
      ],
      [
        "ĠPro",
        -8.90772967726983
      ],
      [
        "ĠmunicÃŃpio",
        -8.909545037114954
      ],
      [
        "sentido",
        -8.910061363787642
      ],
      [
        "Ġalguns",
        -8.910954852644208
      ],
      [
        "las",
        -8.911260919704793
      ],
      [
        "son",
        -8.912085621228913
      ],
      [
        "tura",
        -8.91245028102665
      ],
      [
        "setembro",
        -8.912759260629374
      ],
      [
        "Ġdata",
        -8.913710430805974
      ],
      [
        "Ġfavor",
        -8.914330483790337
      ],
      [
        "NE",
        -8.916092253194178
      ],
      [
        "ĠLo",
        -8.916192887796708
      ],
      [
        "Ġ28",
        -8.917026538963162
      ],
      [
        "ton",
        -8.917613122049667
      ],
      [
        "Ġfor",
        -8.92220610907788
      ],
      [
        "ran",
        -8.923579855486611
      ],
      [
        "Ġsabe",
        -8.92374015338023
      ],
      [
        "zar",
        -8.92508471989485
      ],
      [
        "ĠAr",
        -8.925907186062313
      ],
      [
        "EL",
        -8.925983945094817
      ],
      [
        "Ġvou",
        -8.926093735590271
      ],
      [
        "temos",
        -8.927050280613551
      ],
      [
        "rar",
        -8.930164986017854
      ],
      [
        "Ġnem",
        -8.933094793117707
      ],
      [
        "Art",
        -8.93310536433994
      ],
      [
        "vam",
        -8.935116826313601
      ],
      [
        "30",
        -8.938059529280903
      ],
      [
        "Ġnova",
        -8.938500314683834
      ],
      [
        "Â°",
        -8.939495556535464
      ],
      [
        "rio",
        -8.940718322710364
      ],
      [
        "dispÃµe",
        -8.940879508479762
      ],
      [
        "Ġcoisa",
        -8.942080634133504
      ],
      [
        "ĠFa",
        -8.942198094285901
      ],
      [
        "tica",
        -8.943843262200264
      ],
      [
        "ras",
        -8.944035483674357
      ],
      [
        "TA",
        -8.944556827152345
      ],
      [
        "Ġuso",
        -8.945964065064983
      ],
      [
        "Ġpodem",
        -8.946776467217935
      ],
      [
        "Ġsociedade",
        -8.947010336747736
      ],
      [
        "Ġ2009",
        -8.947071631604663
      ],
      [
        "Ã£",
        -8.947881693081099
      ],
      [
        "mer",
        -8.94849439209825
      ],
      [
        "Ġnada",
        -8.949063895072515
      ],
      [
        "Ġbom",
        -8.94936506109322
      ],
      [
        "tou",
        -8.949872040922207
      ],
      [
        "Ġtipo",
        -8.950036700435545
      ],
      [
        "ĠTo",
        -8.950637726781277
      ],
      [
        "len",
        -8.953267100624915
      ],
      [
        "Ġmesma",
        -8.953714178782358
      ],
      [
        "Muito",
        -8.95506299206327
      ],
      [
        "ĠGo",
        -8.955501763188602
      ],
      [
        "junho",
        -8.955734423593613
      ],
      [
        "ĠLu",
        -8.957253222568088
      ],
      [
        "ĠEla",
        -8.957603900134503
      ],
      [
        "Ġmedida",
        -8.958235877966834
      ],
      [
        "DE",
        -8.958508418371196
      ],
      [
        "tur",
        -8.958965195625378
      ],
      [
        "Ġdisso",
        -8.96105290942549
      ],
      [
        "Ġ2008",
        -8.962323317236462
      ],
      [
        "UTC",
        -8.96318720784353
      ],
      [
        "Ġtenho",
        -8.963246334410751
      ],
      [
        "Ġteve",
        -8.964328850336855
      ],
      [
        "Ã¢",
        -8.964607405129652
      ],
      [
        "ima",
        -8.966636451042664
      ],
      [
        "ĠGrande",
        -8.966778536844988
      ],
      [
        "ĠVamos",
        -8.969323601425852
      ],
      [
        "ĠJa",
        -8.970485744476623
      ],
      [
        "Ġinter",
        -8.971178602692714
      ],
      [
        "Exa",
        -8.971179273079347
      ],
      [
        "ĠÃºltimo",
        -8.971565455565212
      ],
      [
        "port",
        -8.972604053568896
      ],
      [
        "Ġestou",
        -8.974963927373954
      ],
      [
        "Ġ2006",
        -8.9750650997976
      ],
      [
        "Decreto",
        -8.97763135046298
      ],
      [
        "ĠSanta",
        -8.979740263774975
      ],
      [
        "ki",
        -8.982433152854638
      ],
      [
        "ĠHo",
        -8.98450809892676
      ],
      [
        "Ġdesenvolvimento",
        -8.98597811421784
      ],
      [
        "ĠCar",
        -8.98620143114845
      ],
      [
        "ĠPa",
        -8.986588819838587
      ],
      [
        "tes",
        -8.989901707366586
      ],
      [
        "che",
        -8.99011389538999
      ],
      [
        "ber",
        -8.992758939200117
      ],
      [
        "Ġquais",
        -8.995534637039857
      ],
      [
        "Ġ26",
        -8.998963238232397
      ],
      [
        "bar",
        -9.000551440820022
      ],
      [
        "Ġestar",
        -9.00055988836598
      ],
      [
        "izaÃ§Ã£o",
        -9.0019099876521
      ],
      [
        "para",
        -9.003494821470312
      ],
      [
        "Ġvamos",
        -9.00403322157548
      ],
      [
        "2015",
        -9.005144164106282
      ],
      [
        "ry",
        -9.005282166464761
      ],
      [
        "ler",
        -9.006505342259391
      ],
      [
        "ĠSu",
        -9.007028919003538
      ],
      [
        "Ġoutra",
        -9.008324695754707
      ],
      [
        "Ġconstitucional",
        -9.010486082100524
      ],
      [
        "ĠBo",
        -9.012854601028089
      ],
      [
        "000",
        -9.014997710262742
      ],
      [
        "Ġpe",
        -9.01572621111389
      ],
      [
        "Ġquem",
        -9.016555898427123
      ],
      [
        "via",
        -9.017488479212629
      ],
      [
        "lho",
        -9.02019979302852
      ],
      [
        "Y",
        -9.020307340617965
      ],
      [
        "Ã¡rio",
        -9.02186181069072
      ],
      [
        "PMDB",
        -9.02205202893321
      ],
      [
        "vol",
        -9.023338373719636
      ],
      [
        "Ġpessoa",
        -9.024370381729035
      ],
      [
        "Ġ2011",
        -9.027499094584217
      ],
      [
        "AR",
        -9.028371204140887
      ],
      [
        "ĠmarÃ§o",
        -9.028501905374082
      ],
      [
        "tÃ¡",
        -9.030066073950364
      ],
      [
        "ner",
        -9.031224648994986
      ],
      [
        "ura",
        -9.032048864697254
      ],
      [
        "ĠJaneiro",
        -9.03253845841442
      ],
      [
        "50",
        -9.03260791671519
      ],
      [
        "Ġagosto",
        -9.034533328607312
      ],
      [
        "Ġoutubro",
        -9.034800684182512
      ],
      [
        "IS",
        -9.035866808197314
      ],
      [
        "Ġtexto",
        -9.040040519475172
      ],
      [
        "missÃ£o",
        -9.046477523818965
      ],
      [
        "Ġ2010",
        -9.047612403243935
      ],
      [
        "Ġvolta",
        -9.049239693966616
      ],
      [
        "por",
        -9.051744346307238
      ],
      [
        "ĠIII",
        -9.05283731544828
      ],
      [
        "tivo",
        -9.053051020372392
      ],
      [
        "ĠprÃ³prio",
        -9.05446730153374
      ],
      [
        "ju",
        -9.056545886353469
      ],
      [
        "Ġfeito",
        -9.05776529368657
      ],
      [
        "02",
        -9.05844596980456
      ],
      [
        "ĠMu",
        -9.05858968586342
      ],
      [
        "Ġhavia",
        -9.059376020560256
      ],
      [
        "chi",
        -9.06023943334528
      ],
      [
        "ĠEduardo",
        -9.061058368289594
      ],
      [
        "Ġdessa",
        -9.062271754138
      ],
      [
        "Ġnum",
        -9.063733354708232
      ],
      [
        "ense",
        -9.067054846002671
      ],
      [
        "Ġlado",
        -9.06856234969318
      ],
      [
        "Ġabril",
        -9.068606395906418
      ],
      [
        "NA",
        -9.06905546862388
      ],
      [
        "ĠtÃ©cnica",
        -9.07019964988302
      ],
      [
        "lia",
        -9.072533811013622
      ],
      [
        "ĠNO",
        -9.07395762151899
      ],
      [
        "fl",
        -9.074494108063652
      ],
      [
        "Ġsemana",
        -9.07523515458666
      ],
      [
        "zi",
        -9.07536690258436
      ],
      [
        "ant",
        -9.075923897919353
      ],
      [
        "Ġprincipal",
        -9.07592444028521
      ],
      [
        "RE",
        -9.076157379455074
      ],
      [
        "Ġempresas",
        -9.076352238274298
      ],
      [
        "Ġjaneiro",
        -9.0772075890233
      ],
      [
        "habitantes",
        -9.079488992574914
      ],
      [
        "Ġ2005",
        -9.08025382533219
      ],
      [
        "://",
        -9.083011067664987
      ],
      [
        "ĠEste",
        -9.083675161002544
      ],
      [
        "IA",
        -9.084026928729148
      ],
      [
        "Ġpresidente",
        -9.085573010329233
      ],
      [
        "ĠEx",
        -9.087338099594334
      ],
      [
        "Ġnovembro",
        -9.08866919125499
      ],
      [
        "ĠPARECER",
        -9.091805612920044
      ],
      [
        "ĠtÃŃtulo",
        -9.09241030990332
      ],
      [
        "ĠDr",
        -9.093993205533405
      ],
      [
        "ĠEn",
        -9.094730067315217
      ],
      [
        "14",
        -9.096632605214491
      ],
      [
        "ĠcondiÃ§Ãµes",
        -9.09670338077085
      ],
      [
        "ĠproduÃ§Ã£o",
        -9.097229254248512
      ],
      [
        "gua",
        -9.098974913767508
      ],
      [
        "DA",
        -9.100753260311851
      ],
      [
        "Ġprecisa",
        -9.101795350265254
      ],
      [
        "ĠsituaÃ§Ã£o",
        -9.10337632661718
      ],
      [
        "Ġsim",
        -9.103470429533852
      ],
      [
        "2013",
        -9.104128917306424
      ],
      [
        "ĠSt",
        -9.105146311559103
      ],
      [
        "MunicÃŃpio",
        -9.10598248913007
      ],
      [
        "ĠNe",
        -9.10646873297734
      ],
      [
        "Ġ27",
        -9.106691221351433
      ],
      [
        "ĠseguranÃ§a",
        -9.10760298565686
      ],
      [
        "ĠSala",
        -9.107789116195866
      ],
      [
        "NÃ³s",
        -9.108654552920296
      ],
      [
        "ĠÃ¡gua",
        -9.109800234963354
      ],
      [
        "ĠGa",
        -9.111100914790136
      ],
      [
        "nes",
        -9.11371041813523
      ],
      [
        "tada",
        -9.11379490825257
      ],
      [
        "Ġba",
        -9.114090616689538
      ],
      [
        "Ġsei",
        -9.118841348911754
      ],
      [
        "ĠBe",
        -9.11921033635843
      ],
      [
        "istas",
        -9.119528259716017
      ],
      [
        "cas",
        -9.120433752642109
      ],
      [
        "ĠRE",
        -9.120579579936118
      ],
      [
        "Ġtanto",
        -9.120823950174408
      ],
      [
        "Ġtenha",
        -9.122017953681327
      ],
      [
        "ĠMin",
        -9.122784858441284
      ],
      [
        "40",
        -9.123409226205796
      ],
      [
        "Ġvista",
        -9.125160792197908
      ],
      [
        "ĠMi",
        -9.126294121246726
      ],
      [
        "Ġfalar",
        -9.127468417037203
      ],
      [
        "Ġdesse",
        -9.12937471215684
      ],
      [
        "estamos",
        -9.129610324355172
      ],
      [
        "Ġ29",
        -9.130849406038807
      ],
      [
        "ĠEssa",
        -9.132629362079877
      ],
      [
        "PSB",
        -9.133351840281865
      ],
      [
        "essa",
        -9.136706230232464
      ],
      [
        "ĠBu",
        -9.1389416309306
      ],
      [
        "Ġpena",
        -9.13928900522154
      ],
      [
        "ĠEmenda",
        -9.139842851480482
      ],
      [
        "Ġpai",
        -9.14064969406614
      ],
      [
        "pro",
        -9.141484754789351
      ],
      [
        "Regimento",
        -9.143618538737831
      ],
      [
        "ĠEsse",
        -9.148947024229264
      ],
      [
        "ĠeducaÃ§Ã£o",
        -9.149469242766225
      ],
      [
        "ĠEstÃ¡",
        -9.15009832361851
      ],
      [
        "sal",
        -9.150729858462752
      ],
      [
        "uni",
        -9.15237814085308
      ],
      [
        "2011",
        -9.152455260292944
      ],
      [
        "ON",
        -9.152926083740748
      ],
      [
        "ĠinÃŃcio",
        -9.155313436790957
      ],
      [
        "Ġverdade",
        -9.155372441643491
      ],
      [
        "Ġenquanto",
        -9.157112510985767
      ],
      [
        "ĠUma",
        -9.157303793321166
      ],
      [
        "Ġquatro",
        -9.158343873948631
      ],
      [
        "providÃªncias",
        -9.16085535866038
      ],
      [
        "Ġponto",
        -9.163601670156789
      ],
      [
        "Ġcargo",
        -9.163957669587118
      ],
      [
        "sessÃ£o",
        -9.164528175324955
      ],
      [
        "ger",
        -9.16542170325578
      ],
      [
        "Ġrespeito",
        -9.166915415264716
      ],
      [
        "Ġobjetivo",
        -9.167023581742155
      ],
      [
        "Ġlocal",
        -9.167207415158163
      ],
      [
        "SP",
        -9.169022047872293
      ],
      [
        "nia",
        -9.169162961306151
      ],
      [
        "Ġfevereiro",
        -9.169247312313017
      ],
      [
        "US",
        -9.171486207608025
      ],
      [
        "feira",
        -9.172086899669672
      ],
      [
        "cional",
        -9.173740450165488
      ],
      [
        "CI",
        -9.174368164872416
      ],
      [
        "Ġdentro",
        -9.175402136778338
      ],
      [
        "Ġvota",
        -9.17588968679598
      ],
      [
        "Supremo",
        -9.176458113264705
      ],
      [
        "tÃ£o",
        -9.177180762840404
      ],
      [
        "Ġ31",
        -9.177589376751712
      ],
      [
        "CE",
        -9.177741574267154
      ],
      [
        "ati",
        -9.177872233116323
      ],
      [
        "ele",
        -9.17867144907614
      ],
      [
        "Ġ2013",
        -9.180682606429333
      ],
      [
        "Ġbo",
        -9.1810020771128
      ],
      [
        "Ġdemais",
        -9.182190872475788
      ],
      [
        "Deputada",
        -9.182230673661996
      ],
      [
        "ĠPo",
        -9.182669455740644
      ],
      [
        "Ġhoras",
        -9.185466329589762
      ],
      [
        "Ġalgo",
        -9.185811427095407
      ],
      [
        "ĠsÃ©rie",
        -9.186666159951468
      ],
      [
        "cho",
        -9.18737331427691
      ],
      [
        "Ġmim",
        -9.188654974830095
      ],
      [
        "Ġapoio",
        -9.190158313666974
      ],
      [
        "Ġtra",
        -9.19091598456786
      ],
      [
        "ĠInterno",
        -9.191123510323022
      ],
      [
        "ĠMaria",
        -9.192407277217152
      ],
      [
        "ĠPresidÃªncia",
        -9.192964244784326
      ],
      [
        "ĠPre",
        -9.193041103624884
      ],
      [
        "entes",
        -9.194133131170066
      ],
      [
        "ĠÃĢ",
        -9.195997440486668
      ],
      [
        "eiro",
        -9.196592373463094
      ],
      [
        "Ġtotal",
        -9.20322627560616
      ],
      [
        "Ġ(\"",
        -9.204741876275266
      ],
      [
        "ini",
        -9.205920426827502
      ],
      [
        "ĠPÃºblico",
        -9.206287285090742
      ],
      [
        "criaÃ§Ã£o",
        -9.208078190181956
      ],
      [
        "ĠpossÃŃvel",
        -9.208172074171427
      ],
      [
        "lan",
        -9.208933857249097
      ],
      [
        "Ġ2012",
        -9.209906035101776
      ],
      [
        "OR",
        -9.210894957974864
      ],
      [
        "ĠBrasÃŃlia",
        -9.210902100395156
      ],
      [
        "ĠFe",
        -9.21091252535196
      ],
      [
        "Ġfilme",
        -9.211790138079705
      ],
      [
        "PDT",
        -9.213955499247696
      ],
      [
        "rado",
        -9.214066283917733
      ],
      [
        "ĠUnidos",
        -9.214855386175802
      ],
      [
        "bel",
        -9.216013688840304
      ],
      [
        "ĠPi",
        -9.216345973577647
      ],
      [
        "Ġluta",
        -9.2164178958527
      ],
      [
        "Ġfalta",
        -9.217099113437431
      ],
      [
        "Ġespecial",
        -9.21722552709594
      ],
      [
        "Ġconforme",
        -9.217830536058983
      ],
      [
        "Ġparecer",
        -9.217971264458814
      ],
      [
        "25",
        -9.219207255524257
      ],
      [
        "ĠTurma",
        -9.219726658263616
      ],
      [
        "Ġnunca",
        -9.221932287276326
      ],
      [
        "Ġ2004",
        -9.222670330661655
      ],
      [
        "ĠConselho",
        -9.223452695189165
      ],
      [
        "Ġproblema",
        -9.22375506155498
      ],
      [
        "ĠpaÃŃses",
        -9.225388153772888
      ],
      [
        "Ġjogo",
        -9.228164743376514
      ],
      [
        "cal",
        -9.228972616406471
      ],
      [
        "Ġcerca",
        -9.229719036748724
      ],
      [
        "LA",
        -9.23258446326168
      ],
      [
        "ĠQuando",
        -9.232937486448296
      ],
      [
        "ĠUniversidade",
        -9.234008596906165
      ],
      [
        "Ġcons",
        -9.234325170044594
      ],
      [
        "Ġmembro",
        -9.238366908930278
      ],
      [
        "ĠmÃºsica",
        -9.238597396751937
      ],
      [
        "Ġobrigado",
        -9.24214923609902
      ],
      [
        "ĠsÃ©culo",
        -9.242344434421714
      ],
      [
        "defesa",
        -9.24356344335496
      ],
      [
        "bre",
        -9.245944317421175
      ],
      [
        "ais",
        -9.247201268657433
      ],
      [
        "Ġfora",
        -9.248302950659353
      ],
      [
        "Ġequipe",
        -9.24890571521848
      ],
      [
        "ĠEducaÃ§Ã£o",
        -9.24970189975571
      ],
      [
        "devido",
        -9.249704767975327
      ],
      [
        "ĠSilva",
        -9.250925996889643
      ],
      [
        "ido",
        -9.253167468859838
      ],
      [
        "ĠPedro",
        -9.25317018636049
      ],
      [
        "CÃ³digo",
        -9.25327754399394
      ],
      [
        "Ġcinco",
        -9.253580400216038
      ],
      [
        "registro",
        -9.25591788363529
      ],
      [
        "98",
        -9.255954843680168
      ],
      [
        "Ġali",
        -9.25617016555959
      ],
      [
        "tanto",
        -9.256937292312111
      ],
      [
        "ĠatravÃ©s",
        -9.257063284024518
      ],
      [
        "Ġregimental",
        -9.257828165663192
      ],
      [
        "q",
        -9.259179441105395
      ],
      [
        "Ġkm",
        -9.259871357307487
      ],
      [
        "Ġdis",
        -9.260529557689395
      ],
      [
        "Ġsou",
        -9.261117884559209
      ],
      [
        "Ġsegunda",
        -9.263257130186052
      ],
      [
        "âĢĻ",
        -9.263372049379129
      ],
      [
        "ĠKa",
        -9.265791043117078
      ],
      [
        "ĠOliveira",
        -9.266086514636928
      ],
      [
        "ĠforÃ§a",
        -9.266107842180505
      ],
      [
        "PlenÃ¡rio",
        -9.266445335530324
      ],
      [
        "Ġpedido",
        -9.267325778180224
      ],
      [
        "Ġficar",
        -9.270804005922312
      ],
      [
        "ĠSra",
        -9.2711986851567
      ],
      [
        "CO",
        -9.271539000022113
      ],
      [
        "Ġdireitos",
        -9.272024236303292
      ],
      [
        "ĠBi",
        -9.274424729166208
      ],
      [
        "uro",
        -9.275022817804173
      ],
      [
        "Ġrealizada",
        -9.275194721242231
      ],
      [
        "ly",
        -9.275889821886317
      ],
      [
        "ĠTotal",
        -9.276424451218013
      ],
      [
        "Ġpesquisa",
        -9.278585991309944
      ],
      [
        "Ġmorte",
        -9.279023752343578
      ],
      [
        "val",
        -9.279188964166604
      ],
      [
        "serviÃ§os",
        -9.279499995011786
      ],
      [
        "Ġtrans",
        -9.28064050688148
      ],
      [
        "ĠCha",
        -9.280980279604083
      ],
      [
        "Ã¡vel",
        -9.283352207648676
      ],
      [
        "Ġvem",
        -9.284677509343387
      ],
      [
        "ĠJÃ¡",
        -9.285586664500624
      ],
      [
        "Ġfazendo",
        -9.286366417588608
      ],
      [
        "ĠDia",
        -9.288900856572376
      ],
      [
        "Ġ2015",
        -9.289474596855792
      ],
      [
        "ĠprÃ³pria",
        -9.290019707444404
      ],
      [
        "ang",
        -9.290232239550226
      ],
      [
        "Ġobjeto",
        -9.291433412586764
      ],
      [
        "Ġfica",
        -9.291925175199047
      ],
      [
        "ĠTem",
        -9.293172356832445
      ],
      [
        "ani",
        -9.29349925724153
      ],
      [
        "ĠrazÃ£o",
        -9.294478305348663
      ],
      [
        "ĠHe",
        -9.296522979172469
      ],
      [
        "60",
        -9.29685173743858
      ],
      [
        "bol",
        -9.29824897027304
      ],
      [
        "vÃ¡rios",
        -9.29931698663961
      ],
      [
        "ador",
        -9.299558345115823
      ],
      [
        "Ġ2003",
        -9.30015105379838
      ],
      [
        "dora",
        -9.300500041933924
      ],
      [
        "ĠexercÃŃcio",
        -9.300857419489242
      ],
      [
        "her",
        -9.30117259458039
      ],
      [
        "Ġacesso",
        -9.301739028306123
      ],
      [
        "Ġatividade",
        -9.30201317494682
      ],
      [
        "ĠSaÃºde",
        -9.302675978872555
      ],
      [
        "Ġmeses",
        -9.302960827170654
      ],
      [
        "origem",
        -9.303314339160409
      ],
      [
        "Ġthe",
        -9.303892405101852
      ],
      [
        "Executivo",
        -9.304759242525662
      ],
      [
        "Ãī",
        -9.30490585058116
      ],
      [
        "Ġmal",
        -9.305463199323327
      ],
      [
        "ĠSocial",
        -9.305757303832715
      ],
      [
        "Ġmercado",
        -9.310333712352548
      ],
      [
        "SE",
        -9.311819765496336
      ],
      [
        "lor",
        -9.312413056463509
      ],
      [
        "ĠÃ©poca",
        -9.31242983922026
      ],
      [
        "nho",
        -9.312538222908763
      ],
      [
        "ĠZ",
        -9.313565450374444
      ],
      [
        "Ġobra",
        -9.313770111258645
      ],
      [
        "agem",
        -9.314963314174364
      ],
      [
        "Ġcara",
        -9.315674281779746
      ],
      [
        "ĠDu",
        -9.316105953224394
      ],
      [
        "2000",
        -9.316690675619956
      ],
      [
        "ĠMan",
        -9.31884193594389
      ],
      [
        "ĠSegundo",
        -9.31933504778648
      ],
      [
        "Ġfilho",
        -9.319726713582744
      ],
      [
        "let",
        -9.320603687915732
      ],
      [
        "AlÃ©m",
        -9.320743190538176
      ],
      [
        "ĠFilho",
        -9.32381286895616
      ],
      [
        "PTB",
        -9.323892722916373
      ],
      [
        "ĠAgora",
        -9.324649713035376
      ],
      [
        "The",
        -9.325017418467668
      ],
      [
        "Ġinclusive",
        -9.325852519980812
      ],
      [
        "Ġgeral",
        -9.325977686296014
      ],
      [
        "leg",
        -9.326961449390147
      ],
      [
        "2008",
        -9.32738497363093
      ],
      [
        "Ġcrime",
        -9.329238754265512
      ],
      [
        "Ġdados",
        -9.330598352061266
      ],
      [
        "Ġpelas",
        -9.331159908757408
      ],
      [
        "ĠEM",
        -9.331640798007422
      ],
      [
        "ĠPP",
        -9.331806966332136
      ],
      [
        "tan",
        -9.333103004860684
      ],
      [
        "97",
        -9.333352204862155
      ],
      [
        "Ġfosse",
        -9.334751360566374
      ],
      [
        "iano",
        -9.335201608850191
      ],
      [
        "radiodifusÃ£o",
        -9.33780665500693
      ],
      [
        "bilidade",
        -9.339434634666874
      ],
      [
        "serÃ£o",
        -9.341013482528664
      ],
      [
        "Ġpagamento",
        -9.34114824608001
      ],
      [
        "Ġquase",
        -9.341903182396392
      ],
      [
        "Ġqualidade",
        -9.343680036405074
      ],
      [
        "Ġlegal",
        -9.345154730666597
      ],
      [
        "ava",
        -9.3459358883442
      ],
      [
        "Ġ2014",
        -9.348176204586496
      ],
      [
        "90",
        -9.348658152267284
      ],
      [
        "STF",
        -9.348694270820362
      ],
      [
        "ĠpolÃŃtico",
        -9.34991176710582
      ],
      [
        "2007",
        -9.350277715551972
      ],
      [
        "ĠDeus",
        -9.35107679989069
      ],
      [
        "Ġinteresse",
        -9.351176510745235
      ],
      [
        "Ġnecessidade",
        -9.351299382423385
      ],
      [
        "Ġalgumas",
        -9.351708985410658
      ],
      [
        "PR",
        -9.35212758284444
      ],
      [
        "¼",
        -9.352490608567658
      ],
      [
        "ĠOr",
        -9.353687196073434
      ],
      [
        "Ġpartido",
        -9.353856636777271
      ],
      [
        "Ġatual",
        -9.357484249990906
      ],
      [
        "95",
        -9.358549324224516
      ],
      [
        "cos",
        -9.359678903397514
      ],
      [
        "Ġminutos",
        -9.362701884184052
      ],
      [
        "ban",
        -9.363285653653724
      ],
      [
        "Ã¡ria",
        -9.36521078584436
      ],
      [
        "Ġvo",
        -9.365390608823722
      ],
      [
        "Ġmaioria",
        -9.365457034682285
      ],
      [
        "Ġpassa",
        -9.365958698637348
      ],
      [
        "Ġesses",
        -9.36688425823321
      ],
      [
        "Ġpoderia",
        -9.368568500737824
      ],
      [
        "29",
        -9.369414336761585
      ],
      [
        "ĠnecessÃ¡rio",
        -9.372708033489182
      ],
      [
        "28",
        -9.37348461215132
      ],
      [
        "Ġfala",
        -9.373732112778583
      ],
      [
        "Ġ2016",
        -9.374949873812634
      ],
      [
        "ĠNi",
        -9.37621234155782
      ],
      [
        "ĠCiÃªncia",
        -9.376389541775575
      ],
      [
        "Ġpossa",
        -9.377030192276234
      ],
      [
        "bal",
        -9.37714082377557
      ],
      [
        "Ġboa",
        -9.37735340920248
      ],
      [
        "ice",
        -9.378086045922162
      ],
      [
        "Ġdinheiro",
        -9.3786134933696
      ],
      [
        "vel",
        -9.379468439206097
      ],
      [
        "Ġemenda",
        -9.379559366771206
      ],
      [
        "Ġcerto",
        -9.380102048312327
      ],
      [
        ".âĢĿ",
        -9.381122078335366
      ],
      [
        "2010",
        -9.381182266614063
      ],
      [
        "Ġconhecido",
        -9.381584738543095
      ],
      [
        "rim",
        -9.381762084971443
      ],
      [
        "Ġve",
        -9.384981677423683
      ],
      [
        "ĠPer",
        -9.385876628417105
      ],
      [
        "ĠThe",
        -9.387861314290957
      ],
      [
        "Ġdele",
        -9.389028504373451
      ],
      [
        "Ġrequerimento",
        -9.389041611905556
      ],
      [
        "ĠTi",
        -9.389195988567334
      ],
      [
        "ff",
        -9.389704634743625
      ],
      [
        "ĠSua",
        -9.390694874352867
      ],
      [
        "Ġpi",
        -9.390881015706244
      ],
      [
        "aumento",
        -9.391322003356573
      ],
      [
        "ex",
        -9.391700363457696
      ],
      [
        "Ġgra",
        -9.392274939863915
      ],
      [
        "ĠHÃ¡",
        -9.393328958430368
      ],
      [
        "Ġnesse",
        -9.39424489921684
      ],
      [
        "Ġpu",
        -9.39532318527706
      ],
      [
        "99",
        -9.39580615872778
      ],
      [
        "nÃŃvel",
        -9.39680923358616
      ],
      [
        "Ġmodo",
        -9.397187985104232
      ],
      [
        "ĥ",
        -9.39780552623528
      ],
      [
        "Ġnuma",
        -9.397950180247571
      ],
      [
        "altera",
        -9.398702411883075
      ],
      [
        "Ġensino",
        -9.399140609531957
      ],
      [
        "ĠSE",
        -9.40107458364758
      ],
      [
        "uma",
        -9.401650555682256
      ],
      [
        "https",
        -9.40165735486578
      ],
      [
        ");",
        -9.401850861870493
      ],
      [
        "agravo",
        -9.402309044724792
      ],
      [
        "Ġjunto",
        -9.402520668967172
      ],
      [
        "45",
        -9.403116228673072
      ],
      [
        "Ġnorte",
        -9.40411710242596
      ],
      [
        "amente",
        -9.404483416570912
      ],
      [
        "ĠNova",
        -9.404817600802676
      ],
      [
        "88",
        -9.405255341230822
      ],
      [
        "Ġ50",
        -9.406306285023192
      ],
      [
        "Ġsolicita",
        -9.408992377869268
      ],
      [
        "ĠMA",
        -9.409070389838984
      ],
      [
        "Ġreforma",
        -9.410049177849013
      ],
      [
        "ĠprÃ¡tica",
        -9.410287718507128
      ],
      [
        "anÃ¡lise",
        -9.411573674082025
      ],
      [
        "Ġmi",
        -9.411706674635765
      ],
      [
        "ĠreuniÃ£o",
        -9.411878101513636
      ],
      [
        "Ġcampo",
        -9.412357889740443
      ],
      [
        "PE",
        -9.412626277925153
      ],
      [
        "ĠÃºltima",
        -9.4130501117429
      ],
      [
        "ĠPrograma",
        -9.414168460163934
      ],
      [
        "ĠAssim",
        -9.414850967031915
      ],
      [
        "Ġnoite",
        -9.4155488019067
      ],
      [
        "Ġproduto",
        -9.415576924070304
      ],
      [
        "ĠmÃ£e",
        -9.416190877309342
      ],
      [
        "Ġmuitas",
        -9.417369139062531
      ],
      [
        "Ġautor",
        -9.417700400845677
      ],
      [
        "gan",
        -9.41888219710237
      ],
      [
        "ĠLula",
        -9.41916618642978
      ],
      [
        "ĠRi",
        -9.419271421643453
      ],
      [
        "ĠLÃŃder",
        -9.420013014322354
      ],
      [
        "somente",
        -9.42156616301579
      ],
      [
        "ĠParecer",
        -9.422533350230609
      ],
      [
        "tico",
        -9.42311642964244
      ],
      [
        "redaÃ§Ã£o",
        -9.423669931699688
      ],
      [
        "entanto",
        -9.425184006306944
      ],
      [
        "vida",
        -9.426119581405528
      ],
      [
        "ato",
        -9.426537212031857
      ],
      [
        "Ġsuperior",
        -9.427277184665234
      ],
      [
        "Ġdeixar",
        -9.427516232755613
      ],
      [
        "BA",
        -9.4278768789719
      ],
      [
        "ĠLegislativo",
        -9.429021127322162
      ],
      [
        "Ġeram",
        -9.430079441459206
      ],
      [
        "cada",
        -9.430763452069554
      ],
      [
        "Ġhomem",
        -9.431501752673016
      ],
      [
        "ĠparticipaÃ§Ã£o",
        -9.43178972563632
      ],
      [
        "ĠPÃºblica",
        -9.432126320873657
      ],
      [
        "Ġprova",
        -9.433018228983768
      ],
      [
        "ĠCi",
        -9.433332786949322
      ],
      [
        "iro",
        -9.433475441003466
      ],
      [
        "mas",
        -9.433732713955695
      ],
      [
        "96",
        -9.434326739508546
      ],
      [
        "ĠVI",
        -9.435438926288803
      ],
      [
        "27",
        -9.437883716896003
      ],
      [
        "Ġdez",
        -9.438683267079368
      ],
      [
        "NT",
        -9.439179115185588
      ],
      [
        "land",
        -9.43952730625082
      ],
      [
        "26",
        -9.44046446085876
      ],
      [
        "Ġoficial",
        -9.44058965794356
      ],
      [
        "Ġfeita",
        -9.441129762074322
      ],
      [
        "Ġcontrole",
        -9.441431489551103
      ],
      [
        "Ġgrandes",
        -9.441599652830392
      ],
      [
        "Ġtarde",
        -9.442476928989729
      ],
      [
        "ĠcrÃ©dito",
        -9.443004274113491
      ],
      [
        "Ġlongo",
        -9.443150910002698
      ],
      [
        "Ġregime",
        -9.443548953285362
      ],
      [
        "Ġ100",
        -9.444345076885105
      ],
      [
        "RO",
        -9.446239461097722
      ],
      [
        "Ġcontrato",
        -9.446337722857145
      ],
      [
        "ment",
        -9.447690450530084
      ],
      [
        "ĠFernando",
        -9.451477022471934
      ],
      [
        "ĠSÃ³",
        -9.451728043828002
      ],
      [
        "Ġfi",
        -9.451813422393268
      ],
      [
        "ĠWa",
        -9.452420455906363
      ],
      [
        "ĠAssociaÃ§Ã£o",
        -9.453522434791529
      ],
      [
        "ĠRoberto",
        -9.454594127153786
      ],
      [
        "net",
        -9.45465637501974
      ],
      [
        "tem",
        -9.455487501954083
      ],
      [
        "ĠlegislaÃ§Ã£o",
        -9.456609192668648
      ],
      [
        "ser",
        -9.457618513973856
      ],
      [
        "log",
        -9.457747667637154
      ],
      [
        "ĠTrabalho",
        -9.458254864633094
      ],
      [
        "ty",
        -9.458415028325703
      ],
      [
        "ĠBar",
        -9.45857870290588
      ],
      [
        "tina",
        -9.45915526315671
      ],
      [
        "Ġacho",
        -9.461259032616722
      ],
      [
        "Ġjulgamento",
        -9.462592454033285
      ],
      [
        "23",
        -9.46446827751576
      ],
      [
        "rÃ£o",
        -9.46460220368611
      ],
      [
        "24",
        -9.467011635712511
      ],
      [
        "Ġpreciso",
        -9.46731905646156
      ],
      [
        "ĠpublicaÃ§Ã£o",
        -9.467509862851747
      ],
      [
        "Ġessas",
        -9.46823928129344
      ],
      [
        "Ġbrasileiros",
        -9.47053629648318
      ],
      [
        "passou",
        -9.470564989162916
      ],
      [
        "ĠMaia",
        -9.471845120374926
      ],
      [
        "ĠPE",
        -9.472742321730868
      ],
      [
        "2012",
        -9.473889634798494
      ],
      [
        "Ġsaber",
        -9.474065982620294
      ],
      [
        "ologia",
        -9.474137581123294
      ],
      [
        "Ġformula",
        -9.474486958204285
      ],
      [
        "idades",
        -9.474882557653022
      ],
      [
        "nÃ§a",
        -9.475107316563149
      ],
      [
        "economia",
        -9.47720537261168
      ],
      [
        "relatÃ³rio",
        -9.47866697556285
      ],
      [
        "Ġsetor",
        -9.480239679153245
      ],
      [
        "ĠextraordinÃ¡rio",
        -9.48067526520564
      ],
      [
        "ĠEs",
        -9.480808200466546
      ],
      [
        "ĠBem",
        -9.480871538995972
      ],
      [
        "\")",
        -9.48240117703638
      ],
      [
        "ago",
        -9.48256956723597
      ],
      [
        "2016",
        -9.483828542259468
      ],
      [
        "taÃ§Ã£o",
        -9.48467339171718
      ],
      [
        "ĠdiscussÃ£o",
        -9.484780233978888
      ],
      [
        "46",
        -9.485026449818648
      ],
      [
        "rada",
        -9.48626755781212
      ],
      [
        "ĠSi",
        -9.48726783566502
      ],
      [
        "Ġconstante",
        -9.4891365203148
      ],
      [
        "ĠaÃŃ",
        -9.490819720165604
      ],
      [
        "Ġenergia",
        -9.49097870888352
      ],
      [
        "ĠVice",
        -9.491030851218005
      ],
      [
        "conjunto",
        -9.491376838158196
      ],
      [
        "mulheres",
        -9.491417833143224
      ],
      [
        "vis",
        -9.491870798038727
      ],
      [
        "Ġterra",
        -9.492152323808336
      ],
      [
        "realizaÃ§Ã£o",
        -9.493042341760546
      ],
      [
        "ĠconstruÃ§Ã£o",
        -9.49316591928376
      ],
      [
        "mÃŃnimo",
        -9.494093638338333
      ],
      [
        "ĠPortugal",
        -9.49552235270663
      ],
      [
        "ez",
        -9.495668407495227
      ],
      [
        "AÃĩÃĥO",
        -9.497398213331664
      ],
      [
        "ĠespÃ©cie",
        -9.498291080231809
      ],
      [
        "ĠDes",
        -9.499987941947728
      ],
      [
        "Ġhora",
        -9.501825729537885
      ],
      [
        "ĠcrianÃ§as",
        -9.501860331991583
      ],
      [
        "ĠCor",
        -9.502079896011011
      ],
      [
        "Ġlhe",
        -9.502317074072796
      ],
      [
        "Ġmaneira",
        -9.502425286967878
      ],
      [
        "Ġlinha",
        -9.502695296948955
      ],
      [
        "Ġparece",
        -9.503558777561128
      ],
      [
        "Ġpossui",
        -9.503997621911914
      ],
      [
        "ĠÃ¡lbum",
        -9.504068221801075
      ],
      [
        "Ġto",
        -9.504318342549226
      ],
      [
        "sejam",
        -9.505411062775622
      ],
      [
        "ĠMarco",
        -9.505623216131486
      ],
      [
        "ĠDEM",
        -9.50573281690524
      ],
      [
        "ĠSP",
        -9.506406904508504
      ],
      [
        "ĠPode",
        -9.506846009826685
      ],
      [
        "vÃ¡rias",
        -9.507059522785957
      ],
      [
        "ĠediÃ§Ã£o",
        -9.507836508421924
      ],
      [
        "Ġdebate",
        -9.50934093661962
      ],
      [
        "ĠMinas",
        -9.509399535621002
      ],
      [
        "Partido",
        -9.510038508692608
      ],
      [
        "ĠMesa",
        -9.510108085816828
      ],
      [
        "poderÃ¡",
        -9.510322399973868
      ],
      [
        "Ġmuitos",
        -9.510494631619371
      ],
      [
        "lado",
        -9.510886373041656
      ],
      [
        "Ġ54",
        -9.511636271334048
      ],
      [
        "Ġfrente",
        -9.51186111843093
      ],
      [
        "Ġprincipalmente",
        -9.514064369593536
      ],
      [
        "Ġassunto",
        -9.514379482957102
      ],
      [
        "possibilidade",
        -9.515189366823234
      ],
      [
        "tÃ³rio",
        -9.51543241118536
      ],
      [
        "Ġchamado",
        -9.516263318802666
      ],
      [
        "legislativa",
        -9.516485091699534
      ],
      [
        "01",
        -9.516677802981508
      ],
      [
        "Ġencontra",
        -9.517246111105829
      ],
      [
        "â",
        -9.517613839170064
      ],
      [
        "ĠEstou",
        -9.51816953739879
      ],
      [
        "zado",
        -9.518980267529834
      ],
      [
        "NI",
        -9.519091387325874
      ],
      [
        "essÃµes",
        -9.519311489647048
      ],
      [
        "Í",
        -9.520085225162523
      ],
      [
        "ĠDesenvolvimento",
        -9.520812226871245
      ],
      [
        "ĠespaÃ§o",
        -9.521489964955329
      ],
      [
        "Ġpapel",
        -9.521634274743745
      ],
      [
        "DEM",
        -9.522250371331983
      ],
      [
        "Ġ33",
        -9.524321084599634
      ],
      [
        "Ġforte",
        -9.524328025241417
      ],
      [
        "ĠvÃ£o",
        -9.52531649151051
      ],
      [
        "ĠNorte",
        -9.525470132355982
      ],
      [
        "ĠFrancisco",
        -9.525565634472317
      ],
      [
        "Ġcorpo",
        -9.526646800184592
      ],
      [
        "isto",
        -9.52696154354472
      ],
      [
        "2014",
        -9.527232152623316
      ],
      [
        "ĠCA",
        -9.527765943073666
      ],
      [
        "Ġ40",
        -9.529020887123435
      ],
      [
        "GO",
        -9.52950626994551
      ],
      [
        "Ġmar",
        -9.530598955708422
      ],
      [
        "presenÃ§a",
        -9.531230440869638
      ],
      [
        "Ġrepresenta",
        -9.531748348763523
      ],
      [
        "Ġcapital",
        -9.532246230427102
      ],
      [
        "tando",
        -9.5327644750295
      ],
      [
        "ĠDJ",
        -9.533197131739271
      ],
      [
        "Ġestrutura",
        -9.533383009187572
      ],
      [
        "remos",
        -9.533689832416323
      ],
      [
        "Ġproblemas",
        -9.533972710753002
      ],
      [
        "oni",
        -9.5353964675715
      ],
      [
        "Ġfo",
        -9.535454229601047
      ],
      [
        "Ġ32",
        -9.536021567047218
      ],
      [
        "Ġhouve",
        -9.536238592981409
      ],
      [
        "Ġtema",
        -9.536886152558534
      ],
      [
        "reais",
        -9.542101020859166
      ],
      [
        "Ġ2017",
        -9.542442243518606
      ],
      [
        "Ġbanda",
        -9.544243568498963
      ],
      [
        "MunicÃŃpios",
        -9.544606495306864
      ],
      [
        "concessÃ£o",
        -9.545187192854916
      ],
      [
        "dÃ©cada",
        -9.5452386343189
      ],
      [
        "#",
        -9.545871244342
      ],
      [
        "Ġmovimento",
        -9.548397890641883
      ],
      [
        "Ġconhecimento",
        -9.548584232634088
      ],
      [
        "sÃ£o",
        -9.549044003564022
      ],
      [
        "Ġprofessor",
        -9.54989684191624
      ],
      [
        "prÃ³ximo",
        -9.5502809962245
      ],
      [
        "Ġalguma",
        -9.550452360429524
      ],
      [
        "Ġposso",
        -9.551500098427264
      ],
      [
        "execuÃ§Ã£o",
        -9.553420884195232
      ],
      [
        "tornou",
        -9.55376971589833
      ],
      [
        "Ġcoisas",
        -9.553798444699408
      ],
      [
        "Ĥ",
        -9.554476839601374
      ],
      [
        "ME",
        -9.554963053238804
      ],
      [
        "Ġbusca",
        -9.555279017011236
      ],
      [
        "Ġembora",
        -9.555526262082251
      ],
      [
        "ĠRIC",
        -9.558165913672314
      ],
      [
        "responsabilidade",
        -9.560593450502028
      ],
      [
        "ĠCol",
        -9.560852784484048
      ],
      [
        "Ġoportunidade",
        -9.562595726697928
      ],
      [
        "aprovado",
        -9.563379516665965
      ],
      [
        "COMISSÃĥO",
        -9.564179287042066
      ],
      [
        "Ġdeveria",
        -9.564281196908595
      ],
      [
        "Ġlivro",
        -9.564819796543564
      ],
      [
        "Ġpassado",
        -9.565825717579328
      ],
      [
        "Ġ:)",
        -9.566204865029087
      ],
      [
        "Ġcar",
        -9.56659949919026
      ],
      [
        "ite",
        -9.566728870605946
      ],
      [
        "ĠSeu",
        -9.56688633388448
      ],
      [
        "Ġdeixa",
        -9.567227159571113
      ],
      [
        "Ġtal",
        -9.568890951604972
      ],
      [
        "ã",
        -9.56984372885595
      ],
      [
        "ĠGu",
        -9.570657963133003
      ],
      [
        "ĠcompetÃªncia",
        -9.57099127008308
      ],
      [
        "ĠfunÃ§Ã£o",
        -9.571954998461475
      ],
      [
        "):",
        -9.573143374122408
      ],
      [
        "Ġgente",
        -9.574356852562182
      ],
      [
        "ĠimportÃ¢ncia",
        -9.574398588293963
      ],
      [
        "Ġalgum",
        -9.575297376383274
      ],
      [
        "ĠmÃ©dia",
        -9.575830068573048
      ],
      [
        "ĠApÃ³s",
        -9.57682224207019
      ],
      [
        "Distrito",
        -9.576869558551694
      ],
      [
        "atividades",
        -9.57823705014248
      ],
      [
        "22",
        -9.578632539843731
      ],
      [
        "Ġajuda",
        -9.578674318742245
      ],
      [
        "Ġmon",
        -9.57891774368728
      ],
      [
        "ĠAntonio",
        -9.579765608144625
      ],
      [
        "Ġescola",
        -9.581205810587916
      ],
      [
        "previsto",
        -9.581582597985946
      ],
      [
        "RECURSO",
        -9.58170616428831
      ],
      [
        "Defesa",
        -9.58319650291405
      ],
      [
        "exame",
        -9.5839202329712
      ],
      [
        "ĠCivil",
        -9.584710903531413
      ],
      [
        "disposto",
        -9.5850328465522
      ],
      [
        "ĠPA",
        -9.585939201382104
      ],
      [
        "Ġmulher",
        -9.586023763036744
      ],
      [
        "Ġ1990",
        -9.586472066125454
      ],
      [
        "ĠHi",
        -9.587197843558284
      ],
      [
        "ĠWi",
        -9.587537470360246
      ],
      [
        "&",
        -9.587580180202758
      ],
      [
        "Ġlista",
        -9.58767791612525
      ],
      [
        "*",
        -9.590934864912228
      ],
      [
        "Ġga",
        -9.592304248787377
      ],
      [
        "portanto",
        -9.593622582405844
      ],
      [
        "Ģ",
        -9.593878237564148
      ],
      [
        "cÃ³rdÃ£o",
        -9.595448540262831
      ],
      [
        "sociais",
        -9.597493823043
      ],
      [
        "ĠEMENDA",
        -9.59789870885264
      ],
      [
        "Ġentra",
        -9.598785586268685
      ],
      [
        "ĠPar",
        -9.5993278863008
      ],
      [
        "Ġ2020",
        -9.599550803814664
      ],
      [
        "Ġ2019",
        -9.599588991853578
      ],
      [
        "Ġmarca",
        -9.600398834782572
      ],
      [
        "ĠBen",
        -9.6019761341445
      ],
      [
        "Ġmodelo",
        -9.602073182068375
      ],
      [
        "Ġpar",
        -9.602954075275472
      ],
      [
        "ĠTecnologia",
        -9.60434861309704
      ],
      [
        "ĠCOM",
        -9.6044606956535
      ],
      [
        "Ġapresenta",
        -9.605633234767614
      ],
      [
        "Â",
        -9.605819617030749
      ],
      [
        "Ġ2002",
        -9.607473634706547
      ],
      [
        "Ġpessoal",
        -9.607494018749287
      ],
      [
        "80",
        -9.608304669480468
      ],
      [
        "ĠIV",
        -9.60953041154908
      ],
      [
        "ĠmudanÃ§a",
        -9.610539149481127
      ],
      [
        "ĠpÃ¡gina",
        -9.611674502512864
      ],
      [
        "mÃªs",
        -9.611857496100416
      ],
      [
        "Ġsenhor",
        -9.612115287287663
      ],
      [
        "ĠprincÃŃpio",
        -9.612311553502932
      ],
      [
        "risco",
        -9.612580527158537
      ],
      [
        "cado",
        -9.614359945307704
      ],
      [
        "Ġalta",
        -9.614555171895487
      ],
      [
        "ĠRu",
        -9.614621133133134
      ],
      [
        "Ġlogo",
        -9.61485813761512
      ],
      [
        "ĠLocal",
        -9.61546061995531
      ],
      [
        "ĠPrimeira",
        -9.61657396219642
      ],
      [
        "Ġreal",
        -9.617589862842816
      ],
      [
        "posiÃ§Ã£o",
        -9.61766745975412
      ],
      [
        "Â²",
        -9.617862940561396
      ],
      [
        "iniciativa",
        -9.617908955597771
      ],
      [
        "Ġ2000",
        -9.618303820297632
      ],
      [
        "Ãį",
        -9.618710532942544
      ],
      [
        "ĠComunicaÃ§Ã£o",
        -9.618941758283198
      ],
      [
        "discussÃ£o",
        -9.619202967648588
      ],
      [
        "laÃ§Ã£o",
        -9.619587926029553
      ],
      [
        "ĠinglÃªs",
        -9.620275494187878
      ],
      [
        "ĠRel",
        -9.620646090633292
      ],
      [
        "ServiÃ§o",
        -9.621579318830904
      ],
      [
        "ĠSal",
        -9.621944121735345
      ],
      [
        "Presidente",
        -9.622333154552065
      ],
      [
        "ĠBrasileiro",
        -9.623483505349975
      ],
      [
        "cap",
        -9.62350888323626
      ],
      [
        "podemos",
        -9.623818026733714
      ],
      [
        "Ġafirma",
        -9.624390161144332
      ],
      [
        "Campeonato",
        -9.62538516525844
      ],
      [
        "Ġnenhum",
        -9.625951032673097
      ],
      [
        "nessa",
        -9.62758272068367
      ],
      [
        "Ġqueria",
        -9.627928015234769
      ],
      [
        "Ġficou",
        -9.6282475476356
      ],
      [
        "Ġfinanceira",
        -9.628714748065525
      ],
      [
        "ias",
        -9.628980065197156
      ],
      [
        "prevista",
        -9.629217131731409
      ],
      [
        "Ġefeito",
        -9.629841512094004
      ],
      [
        "Geral",
        -9.630167687882697
      ],
      [
        "ĠREQUERIMENTO",
        -9.630229277966514
      ],
      [
        "carreira",
        -9.631257227214377
      ],
      [
        "ÃŃn",
        -9.631402278736369
      ],
      [
        "...............",
        -9.631695381834437
      ],
      [
        "ĠGra",
        -9.63186357226818
      ],
      [
        "ela",
        -9.632613805472085
      ],
      [
        "ĠCorte",
        -9.634157107367509
      ],
      [
        "ĠObrigado",
        -9.635017755695566
      ],
      [
        "mÃ©rito",
        -9.63593701898136
      ],
      [
        "ĠFor",
        -9.63888732599356
      ],
      [
        "sim",
        -9.63902359752879
      ],
      [
        "Ġprofissional",
        -9.6401445199119
      ],
      [
        "Ġexiste",
        -9.64025012467127
      ],
      [
        "ara",
        -9.640841979947488
      ],
      [
        "ĠInstituto",
        -9.640982652452545
      ],
      [
        "Ġtemporada",
        -9.641838931755933
      ],
      [
        "Ġpri",
        -9.644885680439236
      ],
      [
        "ĠSan",
        -9.64559739261465
      ],
      [
        "Ġaquele",
        -9.64571121173658
      ],
      [
        "Ġliga",
        -9.6457626906474
      ],
      [
        "jurÃŃdica",
        -9.64587972635795
      ],
      [
        "bilhÃµes",
        -9.64624518950337
      ],
      [
        "2005",
        -9.646667953727311
      ],
      [
        "discurso",
        -9.64673540029466
      ],
      [
        "ĠAmÃ©rica",
        -9.647030745878704
      ],
      [
        "BE",
        -9.647974492179406
      ],
      [
        "Ġtu",
        -9.64876286792776
      ],
      [
        "Ġanterior",
        -9.648822335986482
      ],
      [
        "sic",
        -9.6493911010059
      ],
      [
        "ĠExcelÃªncia",
        -9.649453496695871
      ],
      [
        "ley",
        -9.650260038312538
      ],
      [
        "ĠCosta",
        -9.650567906019027
      ],
      [
        "21",
        -9.651150967037182
      ],
      [
        "Ã¢mbito",
        -9.65132670114262
      ],
      [
        "Ġauto",
        -9.651454687813658
      ],
      [
        "Ġsuper",
        -9.651519729124493
      ],
      [
        "TambÃ©m",
        -9.651683866390576
      ],
      [
        "Ġfr",
        -9.651927533519691
      ],
      [
        "cÃ¡",
        -9.652383078561524
      ],
      [
        "nas",
        -9.652677086804225
      ],
      [
        "Ġvigor",
        -9.652809412221645
      ],
      [
        "Ġoutorga",
        -9.654847707283253
      ],
      [
        "tido",
        -9.6554220803167
      ],
      [
        "Ġaltera",
        -9.656410075967752
      ],
      [
        "org",
        -9.656524617526244
      ],
      [
        "ĠCunha",
        -9.65663270380812
      ],
      [
        "Ġnobre",
        -9.656936308570272
      ],
      [
        "Ġcampanha",
        -9.657014959717696
      ],
      [
        "Ġpauta",
        -9.657378112248123
      ],
      [
        "ĠRequerimento",
        -9.658910042224411
      ],
      [
        "Ġprojetos",
        -9.660328043460083
      ],
      [
        "comeÃ§ou",
        -9.66046405816538
      ],
      [
        "ĠquÃª",
        -9.660693129359837
      ],
      [
        "mandato",
        -9.661190496440812
      ],
      [
        "ell",
        -9.66182370501001
      ],
      [
        "Ġcerteza",
        -9.661926688151429
      ],
      [
        "membros",
        -9.661992239696906
      ],
      [
        "Ġtransporte",
        -9.664189447729116
      ],
      [
        "gem",
        -9.664402481198175
      ],
      [
        "Ġ2001",
        -9.66535486395838
      ],
      [
        "ble",
        -9.665410499626605
      ],
      [
        "Ġtitular",
        -9.66599322009031
      ],
      [
        "Ġinc",
        -9.666146788151051
      ],
      [
        "Ġteria",
        -9.666205322549404
      ],
      [
        "rica",
        -9.666619132629132
      ],
      [
        "Depois",
        -9.66675076492576
      ],
      [
        "IO",
        -9.668873787190844
      ],
      [
        "nico",
        -9.669921381531775
      ],
      [
        "ÃļLTI",
        -9.670011924557514
      ],
      [
        "valores",
        -9.670483038989149
      ],
      [
        "Ġfederal",
        -9.671072226296747
      ],
      [
        "Ġoriginal",
        -9.671113606224882
      ],
      [
        "sur",
        -9.671269180459031
      ],
      [
        "Ġinfra",
        -9.671969725730508
      ],
      [
        "ĠGuerra",
        -9.672168970236086
      ],
      [
        "Ġcentro",
        -9.672183123179634
      ],
      [
        "econÃ´mica",
        -9.67271496809673
      ],
      [
        "Ġand",
        -9.672854331451983
      ],
      [
        "ĠTr",
        -9.67364861579764
      ],
      [
        "ĠalguÃ©m",
        -9.674173504427948
      ],
      [
        "obras",
        -9.674441663361051
      ],
      [
        "ĠaplicaÃ§Ã£o",
        -9.674573683844494
      ],
      [
        "Ġresultado",
        -9.67488378660236
      ],
      [
        "Ġnota",
        -9.676059743498838
      ],
      [
        "requer",
        -9.67715059507922
      ],
      [
        "ĠterritÃ³rio",
        -9.67752854204494
      ],
      [
        "MENTO",
        -9.677689153414368
      ],
      [
        "Ġrealizado",
        -9.678758337082243
      ],
      [
        "Ġprincipais",
        -9.679087650262034
      ],
      [
        "Ġperde",
        -9.679287052860529
      ],
      [
        "ĠCopa",
        -9.679675512484806
      ],
      [
        "ĠSecretaria",
        -9.681023487088284
      ],
      [
        "ĠCons",
        -9.68111444703481
      ],
      [
        "2019",
        -9.68188481897828
      ],
      [
        "Ġocorre",
        -9.68244521645055
      ],
      [
        "Ġvir",
        -9.684124626722266
      ],
      [
        "nica",
        -9.684177131695195
      ],
      [
        "Ġhaver",
        -9.684215066462974
      ],
      [
        "ÃĩÃķES",
        -9.68431445299836
      ],
      [
        "nada",
        -9.68456274469196
      ],
      [
        "bert",
        -9.685245951135403
      ],
      [
        "Î",
        -9.68730325606682
      ],
      [
        "CURSO",
        -9.687827818233565
      ],
      [
        "Ġclaro",
        -9.688429725850137
      ],
      [
        "ĠEspecial",
        -9.68915907552616
      ],
      [
        "Ã³rgÃ£o",
        -9.689714733219498
      ],
      [
        "Ġautos",
        -9.690256132990392
      ],
      [
        "EIRA",
        -9.690284488926876
      ],
      [
        "Ġrenda",
        -9.690378726368664
      ],
      [
        "ĠTV",
        -9.69086836443636
      ],
      [
        "ĠposiÃ§Ã£o",
        -9.692091640083795
      ],
      [
        "ĠinformaÃ§Ã£o",
        -9.692618501788322
      ],
      [
        "Ġideia",
        -9.693450444676548
      ],
      [
        "Ġchegar",
        -9.695665305220157
      ],
      [
        "tel",
        -9.695756395886187
      ],
      [
        "Ġcrise",
        -9.695946305028231
      ],
      [
        "lon",
        -9.69659785241042
      ],
      [
        "Ġrefere",
        -9.696774087913647
      ],
      [
        "Ġpontos",
        -9.697607543910534
      ],
      [
        "Ġconsiderado",
        -9.69766270324006
      ],
      [
        "AM",
        -9.698751487587906
      ],
      [
        "Ġnatureza",
        -9.699100264012802
      ],
      [
        "nÃ£o",
        -9.700527278799584
      ],
      [
        "comunicaÃ§Ã£o",
        -9.700540551145023
      ],
      [
        "apreciaÃ§Ã£o",
        -9.701601039876635
      ],
      [
        "ĠEst",
        -9.70202557163028
      ],
      [
        "Ġvia",
        -9.702057337134704
      ],
      [
        "deverÃ¡",
        -9.702998230830596
      ],
      [
        "Ġturno",
        -9.704333367549827
      ],
      [
        "ĠTra",
        -9.705493814770549
      ],
      [
        "Ġfase",
        -9.706965705481736
      ],
      [
        "ĠEles",
        -9.70828637753813
      ],
      [
        "ĠQuero",
        -9.70846684847763
      ],
      [
        "ĠOu",
        -9.709199255810274
      ],
      [
        "Ġlivre",
        -9.710566539585056
      ],
      [
        "ĠatenÃ§Ã£o",
        -9.711454069429456
      ],
      [
        "ĠMIN",
        -9.712198900516263
      ],
      [
        "Ġsucesso",
        -9.713290044369652
      ],
      [
        "Ġ2018",
        -9.714830209350538
      ],
      [
        "Ã¡rios",
        -9.715850106965364
      ],
      [
        "ĠQuem",
        -9.71614787429555
      ],
      [
        "provimento",
        -9.71618817073591
      ],
      [
        "2017",
        -9.717706609764326
      ],
      [
        "Ordem",
        -9.7179482020228
      ],
      [
        "ĠRicardo",
        -9.71810996320132
      ],
      [
        "Ġdar",
        -9.71815217788468
      ],
      [
        "Ġ1998",
        -9.718785128193428
      ],
      [
        "ny",
        -9.7195487570818
      ],
      [
        "chegou",
        -9.720036180314938
      ],
      [
        "emos",
        -9.72136436097902
      ],
      [
        "tados",
        -9.722081947121785
      ],
      [
        "ĠSistema",
        -9.725041757700955
      ],
      [
        "ĠAb",
        -9.725216493894528
      ],
      [
        "Ġautoria",
        -9.725699332717909
      ],
      [
        "ĠAlves",
        -9.72590097467686
      ],
      [
        "Ġsede",
        -9.72598418659861
      ],
      [
        "ĠHenrique",
        -9.726134037849206
      ],
      [
        "FI",
        -9.726181338857154
      ],
      [
        "ier",
        -9.72624706058469
      ],
      [
        "Ġagr",
        -9.726702437786864
      ],
      [
        "Ġdiferentes",
        -9.72705858512984
      ],
      [
        "Ġautoriza",
        -9.729087246233236
      ],
      [
        "ĠDireito",
        -9.729089447103494
      ],
      [
        "ĠAGRAV",
        -9.72928261127572
      ],
      [
        "Ġcaput",
        -9.729570489916094
      ],
      [
        "Ġpenal",
        -9.73061878736046
      ],
      [
        "existÃªncia",
        -9.730804170087394
      ],
      [
        "ĠMINISTR",
        -9.732709697674023
      ],
      [
        "Ġguerra",
        -9.733016468069492
      ],
      [
        "ĠCan",
        -9.73369362258808
      ],
      [
        "Ġtaxa",
        -9.73442467014594
      ],
      [
        "Ġsignifica",
        -9.735447487123794
      ],
      [
        "ĠOh",
        -9.735912364178809
      ],
      [
        "Ġcomunidade",
        -9.736189966375958
      ],
      [
        "ĠPereira",
        -9.736855830307572
      ],
      [
        "ĠmÃ£o",
        -9.737260645578605
      ],
      [
        "Ġcategoria",
        -9.73760734219921
      ],
      [
        "ĠSanto",
        -9.737676946272632
      ],
      [
        "Ġrede",
        -9.739722330935448
      ],
      [
        "ĠSantos",
        -9.740960712793722
      ],
      [
        "quer",
        -9.7415830818232
      ],
      [
        "ĠDias",
        -9.743530058505804
      ],
      [
        "gestÃ£o",
        -9.744136755495088
      ],
      [
        "ĠInter",
        -9.744146408136722
      ],
      [
        "PP",
        -9.744785978515557
      ],
      [
        "elo",
        -9.74514552087468
      ],
      [
        "ĠÃºnica",
        -9.746973711943616
      ],
      [
        "Ġmenor",
        -9.748279955720331
      ],
      [
        "Cidadania",
        -9.749071362191255
      ],
      [
        "acima",
        -9.74922918482812
      ],
      [
        "REG",
        -9.749970673091754
      ],
      [
        "ĠformaÃ§Ã£o",
        -9.750000547929067
      ],
      [
        "Ġcriar",
        -9.751324901939409
      ],
      [
        "PolÃŃcia",
        -9.753422287184035
      ],
      [
        "enti",
        -9.75435128227189
      ],
      [
        "Ġplano",
        -9.7546138753485
      ],
      [
        "Ã³rgÃ£os",
        -9.75499539489075
      ],
      [
        "cujo",
        -9.755131229631814
      ],
      [
        "eve",
        -9.755555095506068
      ],
      [
        "ADO",
        -9.755779300499515
      ],
      [
        "Ġinternacional",
        -9.756404317676363
      ],
      [
        "ĠMais",
        -9.756785861557034
      ],
      [
        "lei",
        -9.757625371223984
      ],
      [
        "ĠBra",
        -9.758097696611696
      ],
      [
        "Ġvisita",
        -9.758532027221056
      ],
      [
        "ĠWe",
        -9.760162040698036
      ],
      [
        "tÃ³ria",
        -9.76126079995001
      ],
      [
        "soluÃ§Ã£o",
        -9.761918021239609
      ],
      [
        "Ġpequeno",
        -9.762944733315004
      ],
      [
        "trabalhadores",
        -9.763209213366816
      ],
      [
        "Ġporta",
        -9.764444803405466
      ],
      [
        "ĠSub",
        -9.764721444425597
      ],
      [
        "Ġ37",
        -9.765462683175745
      ],
      [
        "Medida",
        -9.766495590588503
      ],
      [
        "ego",
        -9.767794658596635
      ],
      [
        "Ġchega",
        -9.768461675289249
      ],
      [
        "ĠreferÃªncia",
        -9.770689294079288
      ],
      [
        "mentos",
        -9.770777289845093
      ],
      [
        "ĠPorto",
        -9.773115753479477
      ],
      [
        "ĠDilma",
        -9.773117241549825
      ],
      [
        "mediante",
        -9.773139132818873
      ],
      [
        "ĠSou",
        -9.773338626564296
      ],
      [
        "destaque",
        -9.773883718679883
      ],
      [
        "ĠEl",
        -9.774245934092944
      ],
      [
        "van",
        -9.775731432704095
      ],
      [
        "ĠirmÃ£o",
        -9.77656171010332
      ],
      [
        "Ġcaminho",
        -9.776578548382725
      ],
      [
        "Ġclube",
        -9.776669453748845
      ],
      [
        "ĠinstituiÃ§Ãµes",
        -9.778955338137258
      ],
      [
        "recebeu",
        -9.77943595890414
      ],
      [
        "realmente",
        -9.779503356946956
      ],
      [
        "Ġ35",
        -9.780041918456494
      ],
      [
        "Ġfundo",
        -9.782101442397876
      ],
      [
        "Ġseis",
        -9.782338145153876
      ],
      [
        "ĠBanco",
        -9.782452175543073
      ],
      [
        "Ġeleito",
        -9.783092681336058
      ],
      [
        "Ġatendimento",
        -9.78330002029593
      ],
      [
        "age",
        -9.783390599255554
      ],
      [
        "IDADE",
        -9.783574104428466
      ],
      [
        "ĠParlamentar",
        -9.78383926102602
      ],
      [
        "Ã¢ncia",
        -9.783862864468272
      ],
      [
        "contrÃ¡rio",
        -9.784256755967723
      ],
      [
        "ĠPSD",
        -9.784503478161705
      ],
      [
        "parÃ¡grafo",
        -9.785737002564234
      ],
      [
        "2006",
        -9.786461658623972
      ],
      [
        "ĠMeu",
        -9.786498477135966
      ],
      [
        "ĠRosa",
        -9.786775566770736
      ],
      [
        "ĠGi",
        -9.786918799584347
      ],
      [
        "cuja",
        -9.78696380932098
      ],
      [
        "ĠEi",
        -9.788734888899056
      ],
      [
        "ĠNos",
        -9.789264682821653
      ],
      [
        "Ġrio",
        -9.789463774863714
      ],
      [
        "ĠVou",
        -9.790034516328856
      ],
      [
        "ĠEntre",
        -9.790571855695545
      ],
      [
        "ĠEra",
        -9.790768740186223
      ],
      [
        "CN",
        -9.791895790927438
      ],
      [
        "Ġdesses",
        -9.79190387025305
      ],
      [
        "ĠHu",
        -9.792077279079043
      ],
      [
        "ĠNesse",
        -9.79302926004168
      ],
      [
        "oli",
        -9.793377711033536
      ],
      [
        "ĠHistÃ³ria",
        -9.793884180548163
      ],
      [
        "ĠMato",
        -9.79495497828012
      ],
      [
        "category",
        -9.795559628019747
      ],
      [
        "Ġcultura",
        -9.796271176433004
      ],
      [
        "ance",
        -9.79631398704095
      ],
      [
        "ĠDis",
        -9.796515155233411
      ],
      [
        "Ġcontinua",
        -9.79786049175967
      ],
      [
        "Ġ60",
        -9.797976716800694
      ],
      [
        "rico",
        -9.800075557343243
      ],
      [
        "Ġresposta",
        -9.800918311682045
      ],
      [
        "Ġmanter",
        -9.800926687152486
      ],
      [
        "ĠSol",
        -9.801403168469456
      ],
      [
        "ian",
        -9.802779421961374
      ],
      [
        "critÃ©rio",
        -9.804465831593632
      ],
      [
        "serem",
        -9.804500573953575
      ],
      [
        "ĠlanÃ§ado",
        -9.804768936827893
      ],
      [
        "Ġdisputa",
        -9.80513773272323
      ],
      [
        "Ġtorna",
        -9.805325061129022
      ],
      [
        "ĠMarcelo",
        -9.80574753460608
      ],
      [
        "violÃªncia",
        -9.806289014304202
      ],
      [
        "Gerais",
        -9.808204017105744
      ],
      [
        "Durante",
        -9.809702285061064
      ],
      [
        "ĠFundo",
        -9.81041713437958
      ],
      [
        "Ġsol",
        -9.81041854536232
      ],
      [
        "Ġcapacidade",
        -9.810962584851978
      ],
      [
        "Ġnovos",
        -9.811392297861882
      ],
      [
        "Ġsul",
        -9.811924381330549
      ],
      [
        "Ġliberdade",
        -9.81352252608552
      ],
      [
        "PAULO",
        -9.816055019167775
      ],
      [
        "ĠADV",
        -9.816535996636212
      ],
      [
        "preÃ§o",
        -9.816859579239678
      ],
      [
        "ĠRÃ¡dio",
        -9.81693417983898
      ],
      [
        "Ġmostra",
        -9.817053411433774
      ],
      [
        "Ġreuni",
        -9.817103162926108
      ],
      [
        "Ġextra",
        -9.818866308181498
      ],
      [
        "nio",
        -9.819219219938768
      ],
      [
        "homens",
        -9.819437886123632
      ],
      [
        "ĠCO",
        -9.82002697899277
      ],
      [
        "ĠBahia",
        -9.820224500992996
      ],
      [
        "Ġcriado",
        -9.820662258776125
      ],
      [
        "ÃŃvel",
        -9.821570131383243
      ],
      [
        "Ġcivil",
        -9.821774950243098
      ],
      [
        "ĠBrasileira",
        -9.823014176332302
      ],
      [
        "Ġexecutar",
        -9.824825350442438
      ],
      [
        "ĠJorge",
        -9.825820213293046
      ],
      [
        "proteÃ§Ã£o",
        -9.8259345707988
      ],
      [
        "tores",
        -9.8263850419503
      ],
      [
        "posiÃ§Ãµes",
        -9.827193984820187
      ],
      [
        "ĠresponsÃ¡vel",
        -9.827776087083375
      ],
      [
        "Ġterceiro",
        -9.827818463711678
      ],
      [
        "Ġmaterial",
        -9.827997654097253
      ],
      [
        "Ġdiversos",
        -9.828159987128888
      ],
      [
        "ĠLima",
        -9.82939315059844
      ],
      [
        "servidores",
        -9.829402945481812
      ],
      [
        "Of",
        -9.82995549686012
      ],
      [
        "ĠSENHOR",
        -9.83163552566777
      ],
      [
        "Ġincluindo",
        -9.83240659670778
      ],
      [
        "devem",
        -9.832469866395645
      ],
      [
        "maiores",
        -9.8327910198524
      ],
      [
        "Ġambiente",
        -9.833014790951207
      ],
      [
        "vos",
        -9.833332672093322
      ],
      [
        "shi",
        -9.833449186876887
      ],
      [
        "SOL",
        -9.83394181121509
      ],
      [
        "ĠMundial",
        -9.834044968765973
      ],
      [
        "Ġtrabalhos",
        -9.834238156621284
      ],
      [
        "Ġchamada",
        -9.834865906430512
      ],
      [
        "ProvisÃ³ria",
        -9.835329084463448
      ],
      [
        "ĠCON",
        -9.83541009249277
      ],
      [
        "pressÃ£o",
        -9.836057933681415
      ],
      [
        "ĠAdministraÃ§Ã£o",
        -9.837100096749516
      ],
      [
        "Ġhomenage",
        -9.837367171518444
      ],
      [
        "Ġautoridade",
        -9.837531417214684
      ],
      [
        "Ġestudo",
        -9.83821611726794
      ],
      [
        "Ġcompra",
        -9.840905042697596
      ],
      [
        "Ġacha",
        -9.841022924117818
      ],
      [
        "Ġconsegui",
        -9.841579932937304
      ],
      [
        "Ġvotar",
        -9.842027879215232
      ],
      [
        "Ġdiversas",
        -9.842962647937162
      ],
      [
        "ĠBR",
        -9.845020219221071
      ],
      [
        "ÃŃstica",
        -9.845364451802077
      ],
      [
        "Ġartigos",
        -9.846489429176774
      ],
      [
        "Ġprofissionais",
        -9.846875822422218
      ],
      [
        "ĠAG",
        -9.846965827339798
      ],
      [
        "ĠInternacional",
        -9.847003807355556
      ],
      [
        "Ainda",
        -9.8471391823923
      ],
      [
        "ĠâĢĺ",
        -9.84922261571225
      ],
      [
        "antes",
        -9.85010385161541
      ],
      [
        "Ġapresentado",
        -9.850279030204875
      ],
      [
        "ĠMendes",
        -9.8503250050199
      ],
      [
        "Ġcabe",
        -9.850560216820176
      ],
      [
        "tratamento",
        -9.851732680199277
      ],
      [
        "Ġnorma",
        -9.852133387502462
      ],
      [
        "Ġ1997",
        -9.852472606998042
      ],
      [
        "Ġamigo",
        -9.853494246261606
      ],
      [
        "ĠVal",
        -9.85543713994955
      ],
      [
        "gostaria",
        -9.85570401573502
      ],
      [
        "Ġir",
        -9.855758277224057
      ],
      [
        "ĠTudo",
        -9.855866243838596
      ],
      [
        "\",\"",
        -9.856043685754186
      ],
      [
        "Apensa",
        -9.85607468392454
      ],
      [
        "lÃ³gico",
        -9.857336372815
      ],
      [
        "ARDO",
        -9.857789775513938
      ],
      [
        "Ġamor",
        -9.85913801004846
      ],
      [
        "ģ",
        -9.859194568363057
      ],
      [
        "ĠeconÃ´mico",
        -9.86062271769763
      ],
      [
        "reduÃ§Ã£o",
        -9.864108127911472
      ],
      [
        "ĠPI",
        -9.864134208435416
      ],
      [
        "cido",
        -9.864338396794874
      ],
      [
        "PCdoB",
        -9.865068427820413
      ],
      [
        "Ġgarantia",
        -9.867407574701794
      ],
      [
        "Ġcumprimento",
        -9.869025521699696
      ],
      [
        "ĠFu",
        -9.86922601348866
      ],
      [
        "cionais",
        -9.869996992513206
      ],
      [
        "Ġfundamental",
        -9.87103203644584
      ],
      [
        "Ġinstrumento",
        -9.871135974661776
      ],
      [
        "ĠVoss",
        -9.871475116041548
      ],
      [
        "Ġ38",
        -9.871590097767536
      ],
      [
        "Ġcarro",
        -9.87159614093934
      ],
      [
        "Ġarma",
        -9.872635128056652
      ],
      [
        "Ġfuturo",
        -9.872863821588416
      ],
      [
        "ĠAta",
        -9.874045982071983
      ],
      [
        "ĠRO",
        -9.874532964068424
      ],
      [
        "ĠGovernador",
        -9.87481841372919
      ],
      [
        "lÃ¡",
        -9.874837143225225
      ],
      [
        "lidade",
        -9.875325016833544
      ],
      [
        "acrescenta",
        -9.875337639192182
      ],
      [
        "Ġcria",
        -9.875470614336225
      ],
      [
        "Ġpergunta",
        -9.87690692431158
      ],
      [
        "normas",
        -9.877063528796024
      ],
      [
        "ĠPRO",
        -9.877101410443007
      ],
      [
        "Ġevento",
        -9.877344969305469
      ],
      [
        "Ġnenhuma",
        -9.879417833531347
      ],
      [
        "pp",
        -9.87998490589078
      ],
      [
        "PA",
        -9.88013617657032
      ],
      [
        "Ġpassar",
        -9.880300831168936
      ],
      [
        "Ġdiretor",
        -9.880566240964828
      ],
      [
        "Ġmuita",
        -9.881078448620672
      ],
      [
        "pronunciamento",
        -9.881411347954073
      ],
      [
        "Ġreceber",
        -9.881549823503946
      ],
      [
        "Ġpermiti",
        -9.881848323172184
      ],
      [
        "Ġfunda",
        -9.882433882488684
      ],
      [
        "Ġisto",
        -9.882716693466753
      ],
      [
        "mir",
        -9.883806863183688
      ],
      [
        "ĠCE",
        -9.884028250336373
      ],
      [
        "fÃŃsica",
        -9.884143566840567
      ],
      [
        "Ġgrave",
        -9.884209198170112
      ],
      [
        "Ġacaba",
        -9.884644612602916
      ],
      [
        "Ġbu",
        -9.88514872108708
      ],
      [
        "produtos",
        -9.88575062761849
      ],
      [
        "Ġalto",
        -9.886686728649876
      ],
      [
        "Ġapresentada",
        -9.887150203359024
      ],
      [
        "Ġ36",
        -9.887155401071368
      ],
      [
        "Ġnatural",
        -9.888753687362524
      ],
      [
        "Ġcusto",
        -9.889625005666511
      ],
      [
        "RJ",
        -9.890747158309123
      ],
      [
        "Ġmilitar",
        -9.890813121874936
      ],
      [
        "zer",
        -9.890860091470334
      ],
      [
        "Lei",
        -9.891071099222684
      ],
      [
        "dÃºvida",
        -9.891225392680308
      ],
      [
        "GL",
        -9.892249957338212
      ],
      [
        "2003",
        -9.892629546418927
      ],
      [
        "ĠSuperior",
        -9.894418335303511
      ],
      [
        "Ġdire",
        -9.895526837304422
      ],
      [
        "substituiÃ§Ã£o",
        -9.896345452940569
      ],
      [
        "Ġnovas",
        -9.89643700780374
      ],
      [
        "Ġfins",
        -9.896456269338747
      ],
      [
        "Ġcrescimento",
        -9.896480020349465
      ],
      [
        "ĠAcho",
        -9.896523631198145
      ],
      [
        "Ã¡veis",
        -9.89801726807412
      ],
      [
        "Ġapro",
        -9.898291168049644
      ],
      [
        "Ġjornal",
        -9.89880387167794
      ],
      [
        "iana",
        -9.898831760407408
      ],
      [
        "Ġusar",
        -9.900254480564811
      ],
      [
        "Ġnaquel",
        -9.90048583693764
      ],
      [
        "ĠCentro",
        -9.90058531362347
      ],
      [
        "Ãĵ",
        -9.9012268038207
      ],
      [
        "the",
        -9.901951636931122
      ],
      [
        "ĠvocÃªs",
        -9.902324924536549
      ],
      [
        "ĠHer",
        -9.902548859726426
      ],
      [
        "hipÃ³tese",
        -9.90364134683798
      ],
      [
        "ĠPEC",
        -9.90475208946177
      ],
      [
        "Ġsonora",
        -9.904979079054062
      ],
      [
        "ĠAna",
        -9.905130959099338
      ],
      [
        "Ġdeles",
        -9.90523117200661
      ],
      [
        "ĠMal",
        -9.905361518362618
      ],
      [
        "entidades",
        -9.90591797043425
      ],
      [
        "ĠGen",
        -9.907160603717353
      ],
      [
        "Ġparticular",
        -9.90746790891326
      ],
      [
        "Ġsimples",
        -9.907574056044856
      ],
      [
        "ĠEXTRAORDINÃģRI",
        -9.908955651671455
      ],
      [
        "ĠVoto",
        -9.909744177723034
      ],
      [
        "ĠPmdbP",
        -9.910650492241205
      ],
      [
        "RES",
        -9.910964484078283
      ],
      [
        "ĠPr",
        -9.91172100403798
      ],
      [
        "tecnologia",
        -9.911938061862577
      ],
      [
        "Ġimposto",
        -9.912749838397035
      ],
      [
        "Ġdeixo",
        -9.91291350034442
      ],
      [
        "Ġpratica",
        -9.913775583769242
      ],
      [
        "ĠIta",
        -9.915231237547417
      ],
      [
        "Ġapresentar",
        -9.915694449965102
      ],
      [
        "audiÃªncia",
        -9.916158260270558
      ],
      [
        "tÃ¡rio",
        -9.916375835087685
      ],
      [
        "ano",
        -9.916733526511802
      ],
      [
        "omissÃµes",
        -9.918361950895653
      ],
      [
        "Ġmod",
        -9.918780304495218
      ],
      [
        "ĠCampos",
        -9.920450236163353
      ],
      [
        "Ġtribuna",
        -9.92159669290563
      ],
      [
        "Ġmeta",
        -9.921699602021404
      ],
      [
        "..............",
        -9.92181393918068
      ],
      [
        "ĠLt",
        -9.92247023027625
      ],
      [
        "lÃ³gica",
        -9.922919234350074
      ],
      [
        "ĠRJ",
        -9.923095055656631
      ],
      [
        "Ñ",
        -9.92402610952836
      ],
      [
        "ĠninguÃ©m",
        -9.924225623930514
      ],
      [
        "Ġajudar",
        -9.924579512083138
      ],
      [
        "Ġconquista",
        -9.925035949540714
      ],
      [
        "Hoje",
        -9.92629127392718
      ],
      [
        "Ġ1999",
        -9.926537480506225
      ],
      [
        "Ġdespes",
        -9.92694655552315
      ],
      [
        "Ġvisto",
        -9.927294057810297
      ],
      [
        "ĠTodos",
        -9.927534772430464
      ],
      [
        "ĠcomeÃ§a",
        -9.927641140673725
      ],
      [
        "Ġimporta",
        -9.929314681847384
      ],
      [
        "verÃ£o",
        -9.930112590692646
      ],
      [
        "ĠIgreja",
        -9.930291404380934
      ],
      [
        "Ġfilhos",
        -9.9308317157583
      ],
      [
        "ĠSp",
        -9.93108160734798
      ],
      [
        "medidas",
        -9.932967443650393
      ],
      [
        "ĠterÃ¡",
        -9.934042727966412
      ],
      [
        "Ġrecebe",
        -9.934078347447835
      ],
      [
        "Ġestabelece",
        -9.93408548951924
      ],
      [
        "Ġdiante",
        -9.934458665003117
      ],
      [
        "Ġcombate",
        -9.934927818443574
      ],
      [
        "esta",
        -9.935206801019923
      ],
      [
        "Ġ53",
        -9.935728148621616
      ],
      [
        "ĠadministraÃ§Ã£o",
        -9.93634943266201
      ],
      [
        "tenÃ§Ã£o",
        -9.9363944160656
      ],
      [
        "zada",
        -9.936464545386311
      ],
      [
        "ĠSecretÃ¡rio",
        -9.937557543943988
      ],
      [
        "ssem",
        -9.93758457418726
      ],
      [
        "designado",
        -9.937700149592445
      ],
      [
        "ĠBA",
        -9.93847336497472
      ],
      [
        "Ġespecialmente",
        -9.939259130668953
      ],
      [
        "ĠorganizaÃ§Ã£o",
        -9.939672320963089
      ],
      [
        "ĠFranÃ§a",
        -9.939839967108924
      ],
      [
        "ĠVale",
        -9.940626565524296
      ],
      [
        "ĠAnex",
        -9.940800002282058
      ],
      [
        "PFL",
        -9.941474562794694
      ],
      [
        "ĠinstituiÃ§Ã£o",
        -9.942013093561307
      ],
      [
        "sul",
        -9.943020171769476
      ],
      [
        "Ġcontar",
        -9.94305890027201
      ],
      [
        "ĠBer",
        -9.943855751303342
      ],
      [
        "ĠCultura",
        -9.943899742732157
      ],
      [
        "ĠlÃŃngua",
        -9.943926844756142
      ],
      [
        "ĠAqui",
        -9.944256423665031
      ],
      [
        "juridicidade",
        -9.945123987154664
      ],
      [
        "Ġconhecida",
        -9.945275925777908
      ],
      [
        "stÃµes",
        -9.945467631834978
      ],
      [
        "ĠBel",
        -9.94673106847982
      ],
      [
        "Tenho",
        -9.94699983347866
      ],
      [
        "Ġfutebol",
        -9.947167781878024
      ],
      [
        "ĠFEDERAL",
        -9.947981536273486
      ],
      [
        "ĠSrÂª",
        -9.948001133333182
      ],
      [
        "Ġatua",
        -9.949698005948871
      ],
      [
        "ĠTemer",
        -9.950303667345093
      ],
      [
        "tante",
        -9.9518921923587
      ],
      [
        "Ġlevar",
        -9.952331554001898
      ],
      [
        "ĠJÃºnior",
        -9.953118703401437
      ],
      [
        "pur",
        -9.953188015200174
      ],
      [
        "2004",
        -9.95321875207974
      ],
      [
        "URMA",
        -9.95341556738186
      ],
      [
        "ĠTerra",
        -9.954934131324864
      ],
      [
        "ĠCal",
        -9.955352874700814
      ],
      [
        "Ġinvestiga",
        -9.955701328184588
      ],
      [
        "GA",
        -9.956250616579618
      ],
      [
        "ting",
        -9.956275950332207
      ],
      [
        "ĠBom",
        -9.956336696078774
      ],
      [
        "Ġ34",
        -9.956384145836612
      ],
      [
        "Ġrevista",
        -9.957653981528871
      ],
      [
        "Ġbastante",
        -9.957686139599948
      ],
      [
        "Ġtermo",
        -9.957844721827286
      ],
      [
        "Ġtri",
        -9.958377694794851
      ],
      [
        "Ġfilha",
        -9.958408961565064
      ],
      [
        "Ġcomum",
        -9.95855491304711
      ],
      [
        "ĠversÃ£o",
        -9.959041751901603
      ],
      [
        "by",
        -9.96030846882018
      ],
      [
        "ĠRibeiro",
        -9.96034936429982
      ],
      [
        "proposiÃ§Ã£o",
        -9.960435234767573
      ],
      [
        "Ġ55",
        -9.960897076061508
      ],
      [
        "han",
        -9.961494965446242
      ],
      [
        "tenham",
        -9.96156152323497
      ],
      [
        "comunitÃ¡ria",
        -9.962238747786012
      ],
      [
        "Ġvale",
        -9.962714379359229
      ],
      [
        "Ġsair",
        -9.963167891913832
      ],
      [
        "Ġaprovada",
        -9.964179207664504
      ],
      [
        "Ġrealidade",
        -9.964550729365932
      ],
      [
        "conteÃºdo",
        -9.964846812828794
      ],
      [
        "Ġpublicado",
        -9.965091584068096
      ],
      [
        "ĠprÃ³xima",
        -9.965942278612378
      ],
      [
        "prisÃ£o",
        -9.966039033315823
      ],
      [
        "Ġnego",
        -9.966294215736903
      ],
      [
        "ngel",
        -9.966376827135027
      ],
      [
        "bancada",
        -9.967792985482488
      ],
      [
        "afirmou",
        -9.968092579420254
      ],
      [
        "Ġgarantir",
        -9.97150836666606
      ],
      [
        "tividade",
        -9.972538357903948
      ],
      [
        "Ġdispositivo",
        -9.973073347361048
      ],
      [
        "ĠtÃ©cnico",
        -9.973181431555414
      ],
      [
        "Ġnovamente",
        -9.973315077572458
      ],
      [
        "autorizaÃ§Ã£o",
        -9.974217453804172
      ],
      [
        "ĠTrata",
        -9.974573085614134
      ],
      [
        "ĠDOS",
        -9.975356290825497
      ],
      [
        "jovens",
        -9.97775770115346
      ],
      [
        "ĠTom",
        -9.978386724633516
      ],
      [
        "Ġclasse",
        -9.979294404619456
      ],
      [
        "ĠLÃºci",
        -9.979867654984671
      ],
      [
        "ĠSegunda",
        -9.981196486362998
      ],
      [
        "ĠJohn",
        -9.98224445061045
      ],
      [
        "âĢĳ",
        -9.983872960254738
      ],
      [
        "Ġfiscal",
        -9.9846772197283
      ],
      [
        "SC",
        -9.984947131262343
      ],
      [
        "Ġres",
        -9.98499555211873
      ],
      [
        "Ġmeus",
        -9.986109084886325
      ],
      [
        "ĠAprova",
        -9.986328778737803
      ],
      [
        "seguida",
        -9.986968506609466
      ],
      [
        "ĠInformÃ¡tica",
        -9.987422828352118
      ],
      [
        "«",
        -9.987578131865057
      ],
      [
        "ĠAtÃ©",
        -9.987679819631202
      ],
      [
        "atuaÃ§Ã£o",
        -9.987869998858551
      ],
      [
        "cisÃ£o",
        -9.98856585670832
      ],
      [
        "Ġ48",
        -9.989599163095612
      ],
      [
        "porÃ©",
        -9.990191890533918
      ],
      [
        "Ġtrabalhar",
        -9.991495393315589
      ],
      [
        "HC",
        -9.991715690201929
      ],
      [
        "ĠMon",
        -9.992105640256476
      ],
      [
        "Ġ70",
        -9.992408218111631
      ],
      [
        "ĠeletrÃ´nico",
        -9.992906908740064
      ],
      [
        "Ġreserva",
        -9.993700981725496
      ],
      [
        "Ġcen",
        -9.994702569724115
      ],
      [
        "ĠcondiÃ§Ã£o",
        -9.994840924829354
      ],
      [
        "Ġ49",
        -9.995522747543356
      ],
      [
        "Ġfiz",
        -9.996279060129329
      ],
      [
        "Ġpopular",
        -9.996476881351306
      ],
      [
        "Ã§",
        -9.99650319722872
      ],
      [
        "enda",
        -9.99667137220523
      ],
      [
        "Ġcurso",
        -9.997859533585132
      ],
      [
        "Ġcorre",
        -9.998272258706717
      ],
      [
        "ĠCur",
        -9.99830121552604
      ],
      [
        "emprego",
        -9.998958525871048
      ],
      [
        "]",
        -9.999082719919633
      ],
      [
        "cimento",
        -9.999295653609972
      ],
      [
        "ĠdireÃ§Ã£o",
        -9.999669633047583
      ],
      [
        "mont",
        -10.000038861300949
      ],
      [
        "Ġfedera",
        -10.000627338855333
      ],
      [
        "dez",
        -10.001682368107188
      ],
      [
        "side",
        -10.001695633269504
      ],
      [
        "ĠSer",
        -10.001899292712473
      ],
      [
        "ĠmÃ©dico",
        -10.002335848896957
      ],
      [
        "ĠGe",
        -10.002959614205649
      ],
      [
        "ÃĬNCIA",
        -10.003949480275926
      ],
      [
        "Ġrel",
        -10.004115122508974
      ],
      [
        "seguintes",
        -10.005367546601716
      ],
      [
        "icas",
        -10.00588914724704
      ],
      [
        "Ġganho",
        -10.006182792834228
      ],
      [
        "Ġaparece",
        -10.006211584981694
      ],
      [
        "Ptb",
        -10.00692590880689
      ],
      [
        "Ġsuficiente",
        -10.008545366058629
      ],
      [
        "RS",
        -10.009396010695426
      ],
      [
        "ĠEsc",
        -10.01063325938025
      ],
      [
        "tivos",
        -10.01074031498436
      ],
      [
        "ĠComplementar",
        -10.011116755321638
      ],
      [
        "ĠcabeÃ§a",
        -10.01147561763659
      ],
      [
        "dÃŃvida",
        -10.011664345636513
      ],
      [
        "ĠEuropa",
        -10.011692719151396
      ],
      [
        "Ġquadro",
        -10.012315938446324
      ],
      [
        "Ġtais",
        -10.012558877737696
      ],
      [
        "AgR",
        -10.01308854282433
      ],
      [
        "Ġbaixa",
        -10.013418193930574
      ],
      [
        "indÃºstria",
        -10.01414948423228
      ],
      [
        "CH",
        -10.01480262896006
      ],
      [
        "entendimento",
        -10.017632959750818
      ],
      [
        "Ġelas",
        -10.017719371146828
      ],
      [
        "Ġministro",
        -10.018197625180116
      ],
      [
        "entidade",
        -10.019153018188211
      ],
      [
        "ĠEscola",
        -10.019383071009209
      ],
      [
        "å",
        -10.019537722191918
      ],
      [
        "Ġfaixa",
        -10.01965643882911
      ],
      [
        "Ġvoltar",
        -10.02049132242513
      ],
      [
        "razÃµes",
        -10.020628749846283
      ],
      [
        "press",
        -10.02182533542019
      ],
      [
        "ÃŃcio",
        -10.02270095199104
      ],
      [
        "Ġsite",
        -10.023093298631812
      ],
      [
        "Ġ1996",
        -10.023888235072029
      ],
      [
        "Ġparticipar",
        -10.02402070223102
      ],
      [
        "AntÃ´nio",
        -10.024232479324729
      ],
      [
        "DEPUTADO",
        -10.024432447226072
      ],
      [
        "declaraÃ§Ã£o",
        -10.02466925546716
      ],
      [
        "Ġencontrar",
        -10.025254419628384
      ],
      [
        "prestaÃ§Ã£o",
        -10.026533208226418
      ],
      [
        "comissÃ£o",
        -10.02668252309521
      ],
      [
        "AC",
        -10.027904830676093
      ],
      [
        "vÃŃtima",
        -10.027921806893506
      ],
      [
        "ĠportuguÃªs",
        -10.02809710501464
      ],
      [
        "ĠParanÃ¡",
        -10.029080718777848
      ],
      [
        "ĠPenal",
        -10.02974995128975
      ],
      [
        "Portaria",
        -10.029980857905468
      ],
      [
        "GU",
        -10.030055612553
      ],
      [
        "visÃ£o",
        -10.032269746784817
      ],
      [
        "Substitutivo",
        -10.03363955222148
      ],
      [
        "Ġentrar",
        -10.033845855217638
      ],
      [
        "+",
        -10.03412987989241
      ],
      [
        "Primeiro",
        -10.034602014353036
      ],
      [
        "vendo",
        -10.034668203060304
      ],
      [
        "escu",
        -10.034668300666324
      ],
      [
        "Certo",
        -10.034960277251274
      ],
      [
        "Ġrepresentante",
        -10.03533632961356
      ],
      [
        "SRA",
        -10.035975883613911
      ],
      [
        "ĠDep",
        -10.037585860729632
      ],
      [
        "ĠPaul",
        -10.037660663729248
      ],
      [
        "SÃ©rgi",
        -10.03788900769572
      ],
      [
        "conformidade",
        -10.0381640325631
      ],
      [
        "ham",
        -10.038996794143246
      ],
      [
        "RelatÃ³rio",
        -10.039166608340508
      ],
      [
        "efeitos",
        -10.039467631346662
      ],
      [
        "SÃĥO",
        -10.040270059052792
      ],
      [
        "Ġaconteceu",
        -10.04033047526955
      ],
      [
        "ĠvitÃ³ria",
        -10.04096856186596
      ],
      [
        "entrada",
        -10.041300573083678
      ],
      [
        "ĠJO",
        -10.042035567192768
      ],
      [
        "locais",
        -10.042112513738012
      ],
      [
        "Ġindependente",
        -10.042687328034306
      ],
      [
        "Ġpermite",
        -10.042710105703415
      ],
      [
        "pel",
        -10.044639064256344
      ],
      [
        "Ġfunciona",
        -10.046443640385686
      ],
      [
        "Ġcerta",
        -10.04651218473224
      ],
      [
        "¸",
        -10.04658489742753
      ],
      [
        "Ġdecidi",
        -10.047626146065893
      ],
      [
        "Ġusado",
        -10.048599207069984
      ],
      [
        "Ġdisco",
        -10.049625945648232
      ],
      [
        "Ġacerca",
        -10.049750761657789
      ],
      [
        "Ġigual",
        -10.050554676377065
      ],
      [
        "prejuÃŃz",
        -10.05165230459489
      ],
      [
        "Ġquer",
        -10.052039865275798
      ],
      [
        "Ġdemanda",
        -10.052175976536008
      ],
      [
        "Ł",
        -10.052421676030749
      ],
      [
        "Ġcolocar",
        -10.053749764734464
      ],
      [
        "talvez",
        -10.05395164617422
      ],
      [
        "Ġnega",
        -10.05504686745982
      ],
      [
        "Ġluz",
        -10.05523872512664
      ],
      [
        "Ġbaixo",
        -10.056057291913252
      ],
      [
        "Ġ43",
        -10.056302925571122
      ],
      [
        "ĠtelevisÃ£o",
        -10.056369244386271
      ],
      [
        "veio",
        -10.05638559149787
      ],
      [
        "Ġtratar",
        -10.056794876164371
      ],
      [
        "salÃ¡rio",
        -10.056979255787695
      ],
      [
        "ĠRoma",
        -10.057385243983546
      ],
      [
        "ĠapresentaÃ§Ã£o",
        -10.05778788355104
      ],
      [
        "Ġfonte",
        -10.058254798764228
      ],
      [
        "ĠXX",
        -10.059890031762144
      ],
      [
        "Ġrei",
        -10.060745868680533
      ],
      [
        "Ġdessas",
        -10.061340281087451
      ],
      [
        "OfÃŃci",
        -10.06169243316276
      ],
      [
        "Ġtornar",
        -10.061804603872233
      ],
      [
        "PRB",
        -10.062707154342965
      ],
      [
        "iam",
        -10.063430566563
      ],
      [
        "ĠvÃª",
        -10.064577961072736
      ],
      [
        "aquela",
        -10.064686834026334
      ],
      [
        "Ġabertura",
        -10.066083460590194
      ],
      [
        "estavam",
        -10.066319175803097
      ],
      [
        "Ġtomar",
        -10.066363645555583
      ],
      [
        "ĠCas",
        -10.06696629300223
      ],
      [
        "Ġcomercial",
        -10.06767031362608
      ],
      [
        "ĠTu",
        -10.067743207439936
      ],
      [
        "ĠexperiÃªncia",
        -10.067957149909985
      ],
      [
        "ĠComunitÃ¡ri",
        -10.068472154979084
      ],
      [
        "ĠcarÃ¡ter",
        -10.068871907039942
      ],
      [
        "tiveram",
        -10.068991653576152
      ],
      [
        "Ġpequena",
        -10.069751094781182
      ],
      [
        "arÃ¡grafo",
        -10.070448713528608
      ],
      [
        "2018",
        -10.070614376973923
      ],
      [
        "ĠdifÃŃcil",
        -10.070734384360597
      ],
      [
        "Ġtr",
        -10.071678865027051
      ],
      [
        "Ġantiga",
        -10.07191670525902
      ],
      [
        "cÃ³pia",
        -10.073305715895582
      ],
      [
        "ĠdistribuiÃ§Ã£o",
        -10.07403279883604
      ],
      [
        "leiÃ§Ã£o",
        -10.074860646701476
      ],
      [
        "ĠPROC",
        -10.076865397388092
      ],
      [
        "Ġmulta",
        -10.077450144185198
      ],
      [
        "ĠPrefeit",
        -10.077676537781644
      ],
      [
        "ĠTrans",
        -10.077693327851698
      ],
      [
        "ĠPOR",
        -10.078785022161682
      ],
      [
        "atrÃ¡s",
        -10.078945808399853
      ],
      [
        "Ġdireta",
        -10.079099071291065
      ],
      [
        "Ġtime",
        -10.079219258287486
      ],
      [
        "manutenÃ§Ã£o",
        -10.079993506317834
      ],
      [
        "fico",
        -10.080017003513468
      ],
      [
        "Ġinstitui",
        -10.08039441783786
      ],
      [
        "ĠPARA",
        -10.08138538788094
      ],
      [
        "QUE",
        -10.08247095049333
      ],
      [
        "Ġ44",
        -10.083169820979148
      ],
      [
        "Ġenca",
        -10.083516357013536
      ],
      [
        "pÃºblicos",
        -10.083837610149356
      ],
      [
        "sol",
        -10.084191166571202
      ],
      [
        "Ġsofre",
        -10.08444343931921
      ],
      [
        "provisÃ³ria",
        -10.084453495088631
      ],
      [
        "destinada",
        -10.085834269643216
      ],
      [
        "ĠKi",
        -10.086281429338504
      ],
      [
        "Ġchama",
        -10.086644476425208
      ],
      [
        "Ġatingi",
        -10.088453748722078
      ],
      [
        "favorÃ¡vel",
        -10.088846728609512
      ],
      [
        "regiÃµes",
        -10.08925869485238
      ],
      [
        "ĠprÃ©",
        -10.089860265982567
      ],
      [
        "ĠQuer",
        -10.090605910950206
      ],
      [
        "aqueles",
        -10.091308579623988
      ],
      [
        "ker",
        -10.091579035932904
      ],
      [
        "mÃ¡tica",
        -10.09171331846616
      ],
      [
        "legais",
        -10.091753420528326
      ],
      [
        "|",
        -10.092743797688644
      ],
      [
        "Ġreceita",
        -10.092970110332963
      ],
      [
        "Ġjogos",
        -10.093664611663582
      ],
      [
        "Ġcontinuar",
        -10.093702050409792
      ],
      [
        "bin",
        -10.093813990597027
      ],
      [
        "Ġtraz",
        -10.09483255494335
      ],
      [
        "ĠProcesso",
        -10.095142635794128
      ],
      [
        "Ġbens",
        -10.095932647240312
      ],
      [
        "ĠIN",
        -10.096281095291143
      ],
      [
        "Ġamigos",
        -10.09631390467546
      ],
      [
        "MG",
        -10.096352756229008
      ],
      [
        "apesar",
        -10.096959083708844
      ],
      [
        "Ġrevela",
        -10.09696569174269
      ],
      [
        "cus",
        -10.097472121393086
      ],
      [
        "Ġcolega",
        -10.097722874124624
      ],
      [
        "Å",
        -10.097736614585788
      ],
      [
        "PSC",
        -10.09776087184438
      ],
      [
        "Ġnormal",
        -10.098378236923844
      ],
      [
        "ĠCentral",
        -10.098481472934386
      ],
      [
        "utilizaÃ§Ã£o",
        -10.09922732930714
      ],
      [
        "tÃ¡vel",
        -10.099916553393632
      ],
      [
        "Ī",
        -10.101171928412128
      ],
      [
        "ĠChe",
        -10.101683687674706
      ],
      [
        "Apoio",
        -10.101950503479904
      ],
      [
        "Celso",
        -10.102057170326834
      ],
      [
        "ĠMac",
        -10.102528956957412
      ],
      [
        "Ġdecreta",
        -10.102783561506005
      ],
      [
        "eleiÃ§Ãµes",
        -10.1028864284221
      ],
      [
        "ĠQual",
        -10.104121367828196
      ],
      [
        "Ä",
        -10.107051515221578
      ],
      [
        "Ġleva",
        -10.107677582554874
      ],
      [
        "Ġinterna",
        -10.107798914541188
      ],
      [
        "ĠPlano",
        -10.108077613104056
      ],
      [
        "dizendo",
        -10.10877817077377
      ],
      [
        "Ġtramita",
        -10.109421593787204
      ],
      [
        "ĠPROPOSI",
        -10.109576964714629
      ],
      [
        "Ġdocumentos",
        -10.11020916796356
      ],
      [
        "ĠSouza",
        -10.110501333224514
      ],
      [
        "Ã©tica",
        -10.111965916622854
      ],
      [
        "ausÃªncia",
        -10.112003768573116
      ],
      [
        "militares",
        -10.11355799524201
      ],
      [
        "±",
        -10.113664107531855
      ],
      [
        "motivo",
        -10.113888750660076
      ],
      [
        "Ġmelhores",
        -10.114100620757768
      ],
      [
        "tual",
        -10.11415262973122
      ],
      [
        "diretamente",
        -10.11457830721372
      ],
      [
        "daquele",
        -10.114615801789082
      ],
      [
        "Ġsete",
        -10.11479675631458
      ],
      [
        "Ġaprova",
        -10.11611989117334
      ],
      [
        "onde",
        -10.116176554571016
      ],
      [
        "ĠGomes",
        -10.116198111657758
      ],
      [
        "Ġcapaz",
        -10.116345945883902
      ],
      [
        "ĠConced",
        -10.11635061799229
      ],
      [
        "Ġpasso",
        -10.117244293242406
      ],
      [
        "Ġperto",
        -10.11753647498287
      ],
      [
        "Ġparticipa",
        -10.11814938764693
      ],
      [
        "ĠGrosso",
        -10.118460242569808
      ],
      [
        "Ġimediata",
        -10.118810393178192
      ],
      [
        "Ġinterior",
        -10.11894656635635
      ],
      [
        "ĠMunicipal",
        -10.119120147333824
      ],
      [
        "ĠoperaÃ§Ã£o",
        -10.120097831864577
      ],
      [
        "ĠMinistra",
        -10.120176197983035
      ],
      [
        "ĠcanÃ§Ã£o",
        -10.120264098966416
      ],
      [
        "Ġcento",
        -10.120416496038128
      ],
      [
        "Ġviola",
        -10.120875407446698
      ],
      [
        "Ġregra",
        -10.120936077596411
      ],
      [
        "ĠLopes",
        -10.121129134836403
      ],
      [
        "ontem",
        -10.121378772706327
      ],
      [
        "Ġperda",
        -10.12156605777014
      ],
      [
        "Ġvenda",
        -10.122032610043217
      ],
      [
        "CARLOS",
        -10.123392145014718
      ],
      [
        "ĠMilitar",
        -10.12350685638838
      ],
      [
        "Ġfazem",
        -10.123660809836643
      ],
      [
        "Estamos",
        -10.123949825103056
      ],
      [
        "Ġ45",
        -10.124375457811263
      ],
      [
        "ED",
        -10.12555145261316
      ],
      [
        "ĠRocha",
        -10.125596228305817
      ],
      [
        "Ġpropriedade",
        -10.126253577374554
      ],
      [
        "Ġouvi",
        -10.126299107611594
      ],
      [
        "referido",
        -10.126375083812796
      ],
      [
        "cidade",
        -10.1264254594266
      ],
      [
        "Ġcoloca",
        -10.126734240262664
      ],
      [
        "Ġconsiderada",
        -10.127200845120848
      ],
      [
        "ĠvÃŃdeo",
        -10.128377356594076
      ],
      [
        "Ġoito",
        -10.128615033590451
      ],
      [
        "Ġadministrativa",
        -10.128871862509554
      ],
      [
        "ĠGal",
        -10.12984522712551
      ],
      [
        "inclusÃ£o",
        -10.130335127651383
      ],
      [
        "ĠSabe",
        -10.131429850086208
      ],
      [
        "ĠlanÃ§amento",
        -10.131846394972357
      ],
      [
        "operaÃ§Ãµes",
        -10.13206964039959
      ],
      [
        "ĠFun",
        -10.132381401355506
      ],
      [
        "ciais",
        -10.132727858277336
      ],
      [
        "BR",
        -10.132999130940403
      ],
      [
        "Ġdiscutir",
        -10.133403369960105
      ],
      [
        "hy",
        -10.133423469336185
      ],
      [
        "grafia",
        -10.133623300447532
      ],
      [
        "ĠLista",
        -10.13399486288167
      ],
      [
        "Ġopera",
        -10.13513223758044
      ],
      [
        "ĠpeÃ§o",
        -10.135764600987468
      ],
      [
        "Ġrealizar",
        -10.136084626489913
      ],
      [
        "Ġescrito",
        -10.136388769739424
      ],
      [
        "alunos",
        -10.136944438418436
      ],
      [
        "CIA",
        -10.137016385224175
      ],
      [
        "GERAL",
        -10.137332344995787
      ],
      [
        "Ġ[",
        -10.1379986536504
      ],
      [
        "Ġderrota",
        -10.138177067833723
      ],
      [
        "Ġcompromisso",
        -10.13888953958092
      ],
      [
        "Pausa",
        -10.140199936368006
      ],
      [
        "Ġ80",
        -10.141035917584396
      ],
      [
        "Ġinforma",
        -10.141050511462634
      ],
      [
        "ĠorÃ§amentÃ¡ria",
        -10.141232223936044
      ],
      [
        "Ġfixa",
        -10.141786725751992
      ],
      [
        "ĠPorque",
        -10.142074918126756
      ],
      [
        "Ġlocalizado",
        -10.142786633231085
      ],
      [
        "Ġmetros",
        -10.142815824542744
      ],
      [
        "Ġtroca",
        -10.142915145001975
      ],
      [
        "Ġservi",
        -10.143092387828414
      ],
      [
        "ĠCatarina",
        -10.143361061758476
      ],
      [
        "Ġacabou",
        -10.14337978375436
      ],
      [
        "Ġdiferente",
        -10.14500309608498
      ],
      [
        "ĠmÃ©dio",
        -10.145407426655767
      ],
      [
        "Ġjovem",
        -10.14569576505002
      ],
      [
        "xclusividade",
        -10.146298234862376
      ],
      [
        "lizado",
        -10.146323376064608
      ],
      [
        "Ġrelativa",
        -10.146494449430492
      ],
      [
        "Ġseguir",
        -10.146544986185823
      ],
      [
        "exposto",
        -10.1468751585128
      ],
      [
        "ĠVeja",
        -10.148093857442849
      ],
      [
        "Ġlimite",
        -10.148124000548354
      ],
      [
        "ĠDiretor",
        -10.14819269168193
      ],
      [
        "Ġpermitir",
        -10.15030029577978
      ],
      [
        "Ġquarto",
        -10.150704709217854
      ],
      [
        "ung",
        -10.15076885047764
      ],
      [
        "Ãºmula",
        -10.151602552875325
      ],
      [
        "Ġconseguiu",
        -10.151764904624436
      ],
      [
        "Apesar",
        -10.153861287345004
      ],
      [
        "esforÃ§o",
        -10.15395834629939
      ],
      [
        "Ġescolas",
        -10.154770845139984
      ],
      [
        "ĠdiferenÃ§a",
        -10.155211418470529
      ],
      [
        "americana",
        -10.15658660287027
      ],
      [
        "Ġ1991",
        -10.157031713531264
      ],
      [
        "ĠProfessor",
        -10.157117961479704
      ],
      [
        "ĠLUIZ",
        -10.158475026016273
      ],
      [
        "Ġentrega",
        -10.158738473465258
      ],
      [
        "estabelecimento",
        -10.159105744081089
      ],
      [
        "ĠPubli",
        -10.15912988322724
      ],
      [
        "Ġgera",
        -10.159318991651494
      ],
      [
        "Ġcompleta",
        -10.159407218312344
      ],
      [
        "Ġfinanciamento",
        -10.160329466835693
      ],
      [
        "Ġimprensa",
        -10.1605821701899
      ],
      [
        "Ġquantidade",
        -10.160661023201206
      ],
      [
        "ĠReal",
        -10.160864872270588
      ],
      [
        "line",
        -10.16126787874712
      ],
      [
        "ĠPal",
        -10.161722368936005
      ],
      [
        "Ġ42",
        -10.16246622229516
      ],
      [
        "ĠCONSTITUIÃĩÃĥO",
        -10.163537172116657
      ],
      [
        "Ġhonra",
        -10.164768369992382
      ],
      [
        "Ġganha",
        -10.16592881691832
      ],
      [
        "Ġquarta",
        -10.165983990818257
      ],
      [
        "Ġestudos",
        -10.166119577119993
      ],
      [
        "cat",
        -10.166449094793863
      ],
      [
        "ĠmÃ¡",
        -10.166630598978749
      ],
      [
        "zinho",
        -10.166730095238064
      ],
      [
        "Ġ52",
        -10.166793089890948
      ],
      [
        "ĠTemo",
        -10.16734821255566
      ],
      [
        "plenÃ¡rio",
        -10.167572635181797
      ],
      [
        "Ġtentar",
        -10.167694796378942
      ],
      [
        "Ġorienta",
        -10.167699268758655
      ],
      [
        "Ġassumi",
        -10.167852989139098
      ],
      [
        "constitucionai",
        -10.16819516877204
      ],
      [
        "uplente",
        -10.168778283265484
      ],
      [
        "falando",
        -10.169045963924594
      ],
      [
        "Ġmora",
        -10.16935110811197
      ],
      [
        "ejeiÃ§Ã£o",
        -10.170067996521247
      ],
      [
        "privada",
        -10.170075517174732
      ],
      [
        "Ġutilizado",
        -10.170696174190736
      ],
      [
        "all",
        -10.171058835568507
      ],
      [
        "ĠGar",
        -10.171494894456089
      ],
      [
        "PPS",
        -10.171968868676956
      ],
      [
        "ĠMaranhÃ£o",
        -10.17279748374162
      ],
      [
        "ĠFica",
        -10.172884212598198
      ],
      [
        "ĠAlmeida",
        -10.174097445807393
      ],
      [
        "Ġlocalizada",
        -10.174613281440385
      ],
      [
        "Ġdemonstra",
        -10.174775294424514
      ],
      [
        "ĠameaÃ§a",
        -10.17551793178944
      ],
      [
        "ĠAg",
        -10.17560904742191
      ],
      [
        "Ġacontece",
        -10.17606330561254
      ],
      [
        "NR",
        -10.176234411210569
      ],
      [
        "ĠParÃ¡",
        -10.176334031378364
      ],
      [
        "Ġpais",
        -10.176505319828282
      ],
      [
        "Ġpagar",
        -10.17669210828279
      ],
      [
        "Con",
        -10.176761509603438
      ],
      [
        "Ġ1995",
        -10.177045454466088
      ],
      [
        "ĠRS",
        -10.177345449958285
      ],
      [
        "OSÃī",
        -10.177828222876544
      ],
      [
        "Ġcomigo",
        -10.17819639608576
      ],
      [
        "benefÃŃcio",
        -10.178308103395455
      ],
      [
        "ĠAL",
        -10.178661575229556
      ],
      [
        "ĠUSP",
        -10.178667328491898
      ],
      [
        "clusÃ£o",
        -10.179021120725142
      ],
      [
        "ĠPelo",
        -10.179923311215576
      ],
      [
        "Ġexatamente",
        -10.18006752185418
      ],
      [
        "burg",
        -10.181703551566072
      ],
      [
        "ĠcrianÃ§a",
        -10.181781854295965
      ],
      [
        "Ġinicial",
        -10.182211432039844
      ],
      [
        "Ġunidades",
        -10.183055142045651
      ],
      [
        "ĠRodrigues",
        -10.183232994657963
      ],
      [
        "DF",
        -10.183824315502187
      ],
      [
        "Ġconfi",
        -10.18403563384622
      ],
      [
        "ĠSU",
        -10.18409962643998
      ],
      [
        "atriz",
        -10.18581954226218
      ],
      [
        "Ġantigo",
        -10.186011887808952
      ],
      [
        "mÃ¡ximo",
        -10.186429929298088
      ],
      [
        "Ġenfrenta",
        -10.186446085562803
      ],
      [
        "ĠGrupo",
        -10.187118487924815
      ],
      [
        "ĠCidade",
        -10.188123604479662
      ],
      [
        "Ġsala",
        -10.188313128538356
      ],
      [
        "Ġdeputado",
        -10.190084472296787
      ],
      [
        "ĠMaio",
        -10.190555311526522
      ],
      [
        "Ġhumano",
        -10.1907187927565
      ],
      [
        "Ġhaja",
        -10.191099679562583
      ],
      [
        "ĠCarvalho",
        -10.191700988046511
      ],
      [
        "Ġ119",
        -10.191766074182883
      ],
      [
        "Ġpior",
        -10.191991761117034
      ],
      [
        "ĠEr",
        -10.192379893190084
      ],
      [
        "ĠToda",
        -10.19326818393066
      ],
      [
        "Ġefetiva",
        -10.193929931453876
      ],
      [
        "julgado",
        -10.194176381273566
      ],
      [
        "Ġ64",
        -10.194263870392716
      ],
      [
        "Ġ58",
        -10.195116988253108
      ],
      [
        "ambos",
        -10.19550671238731
      ],
      [
        "RegiÃ£o",
        -10.19664099312023
      ],
      [
        "ĠOnde",
        -10.196945110893974
      ],
      [
        "gente",
        -10.19734257487712
      ],
      [
        "LideranÃ§a",
        -10.197414133391554
      ],
      [
        "bairro",
        -10.19809342240066
      ],
      [
        "corrupÃ§Ã£o",
        -10.19880547890662
      ],
      [
        "nÂº",
        -10.199659212113907
      ],
      [
        "ĠcontribuiÃ§Ã£o",
        -10.199895972475488
      ],
      [
        "Ġdocumenta",
        -10.20130639087452
      ],
      [
        "Ġresultados",
        -10.201950508542634
      ],
      [
        "Ġprocura",
        -10.202128069703326
      ],
      [
        "chefe",
        -10.202456687104965
      ],
      [
        "ĠMinha",
        -10.20260679128642
      ],
      [
        "Ġ01",
        -10.20277863574022
      ],
      [
        "ceu",
        -10.203711690442985
      ],
      [
        "ĠSuper",
        -10.203942176649162
      ],
      [
        "existente",
        -10.20434446836256
      ],
      [
        "ĠGeral",
        -10.205472718090284
      ],
      [
        "ĠKo",
        -10.20558496719556
      ],
      [
        "Ġmundial",
        -10.205650568118749
      ],
      [
        "ĠDaniel",
        -10.206559758330515
      ],
      [
        "Ġvive",
        -10.207618788014177
      ],
      [
        "ĠgÃªnero",
        -10.208262629041627
      ],
      [
        "essÃ£o",
        -10.208740432492569
      ],
      [
        "nacionais",
        -10.209092525326453
      ],
      [
        "Ġdefende",
        -10.209163229906116
      ],
      [
        "ĠhistÃ³rico",
        -10.209537840702502
      ],
      [
        "ĠLEGISLATIV",
        -10.20995455923114
      ],
      [
        "Ġaberto",
        -10.210116292304669
      ],
      [
        "Ġestadual",
        -10.210509266367248
      ],
      [
        "ejo",
        -10.211492069641718
      ],
      [
        "ĠSI",
        -10.212876007713133
      ],
      [
        "ĠcidadÃ£o",
        -10.213272254647263
      ],
      [
        "somos",
        -10.214044246578686
      ],
      [
        "distrito",
        -10.214202419776356
      ],
      [
        "ĠRIO",
        -10.214280327253585
      ],
      [
        "ĠReino",
        -10.21485568700013
      ],
      [
        "Ġevitar",
        -10.215067003668311
      ],
      [
        "Ġanti",
        -10.215234199858614
      ],
      [
        "Ġbe",
        -10.21542213873226
      ],
      [
        "Ġcri",
        -10.215592686378413
      ],
      [
        "ĠBoa",
        -10.215691797732871
      ],
      [
        "Ġvivo",
        -10.215764298910964
      ],
      [
        "INA",
        -10.215997023364766
      ],
      [
        "ĠepisÃ³dio",
        -10.216332739961278
      ],
      [
        "Ġinicia",
        -10.216375102133195
      ],
      [
        "ĠChi",
        -10.216412292856056
      ],
      [
        "Ġencontro",
        -10.217375818635784
      ],
      [
        "ĠpolÃŃcia",
        -10.217830660163497
      ],
      [
        "Ġ41",
        -10.218526177199005
      ],
      [
        "ĠPri",
        -10.218924048229214
      ],
      [
        "ĠjurÃŃdico",
        -10.220562099750005
      ],
      [
        "ĠNordeste",
        -10.22102670968321
      ],
      [
        "ĠAugusto",
        -10.221830746643397
      ],
      [
        "AmazÃ´nia",
        -10.222318375976355
      ],
      [
        "Ġfigura",
        -10.222403257021536
      ],
      [
        "Estadual",
        -10.223280472408108
      ],
      [
        "Talvez",
        -10.223695052977858
      ],
      [
        "ĠQUE",
        -10.224085048890323
      ],
      [
        "criada",
        -10.224203692139929
      ],
      [
        "usada",
        -10.22475703263533
      ],
      [
        "ali",
        -10.224826607393592
      ],
      [
        "impacto",
        -10.22499153120972
      ],
      [
        "atualmente",
        -10.225465603700789
      ],
      [
        "Ġgosta",
        -10.225752720419738
      ],
      [
        "Ġdocumento",
        -10.22652673182365
      ],
      [
        "Ġface",
        -10.226540445774356
      ],
      [
        "Figueiredo",
        -10.226732690202198
      ],
      [
        "Ġposto",
        -10.22688665383445
      ],
      [
        "Fazenda",
        -10.22723808850448
      ],
      [
        "ĠFamÃŃlia",
        -10.227667811675184
      ],
      [
        "Ġmerece",
        -10.227881893496184
      ],
      [
        "dido",
        -10.228266295682753
      ],
      [
        "ĠWikipÃ©dia",
        -10.22848935596229
      ],
      [
        "ĠDECRET",
        -10.22867676887911
      ],
      [
        "JudiciÃ¡ri",
        -10.229384468367185
      ],
      [
        "requisitos",
        -10.229444755505511
      ],
      [
        "Ġmedi",
        -10.229813084368365
      ],
      [
        "Ġjudicial",
        -10.229842747080896
      ],
      [
        "ĠNelson",
        -10.229897006955383
      ],
      [
        "Ġdela",
        -10.229988267298236
      ],
      [
        "Ġgrau",
        -10.230979942373429
      ],
      [
        "ĠBal",
        -10.231667117550748
      ],
      [
        "ĠSeguranÃ§a",
        -10.23230660735339
      ],
      [
        "tÃ¡ria",
        -10.232451070648974
      ],
      [
        "Teixeira",
        -10.232575929142538
      ],
      [
        "regras",
        -10.23269425057585
      ],
      [
        "PL",
        -10.23316702857513
      ],
      [
        "ĠAndrÃ©",
        -10.233675891588504
      ],
      [
        "ĠTri",
        -10.23492990807803
      ],
      [
        "ĠCam",
        -10.2355551277367
      ],
      [
        "ĠZa",
        -10.236467723167832
      ],
      [
        "°",
        -10.2377873571799
      ],
      [
        "ĠTer",
        -10.237885168117469
      ],
      [
        "ney",
        -10.238282163007232
      ],
      [
        "DiscussÃ£o",
        -10.238516569686212
      ],
      [
        "Ġshow",
        -10.238667323381849
      ],
      [
        "tida",
        -10.2396573716211
      ],
      [
        "Ġestabelecer",
        -10.239702719580878
      ],
      [
        "ĠMG",
        -10.240293628082144
      ],
      [
        "Ġcentral",
        -10.24140597565999
      ],
      [
        "Ġfui",
        -10.241596035654672
      ],
      [
        "publicada",
        -10.242439941756086
      ],
      [
        "ĠAp",
        -10.242540165219632
      ],
      [
        "Ġespecifica",
        -10.243009895028528
      ],
      [
        "preÃ§os",
        -10.243617938638922
      ],
      [
        "candidato",
        -10.244462869051606
      ],
      [
        "levou",
        -10.245512641163524
      ],
      [
        "rb",
        -10.24708749585127
      ],
      [
        "Ġanimais",
        -10.247637718963354
      ],
      [
        "ĠFutebol",
        -10.247945021274363
      ],
      [
        "Ġ1988",
        -10.248615184154316
      ],
      [
        "ĠSÃ¡",
        -10.249448308948043
      ],
      [
        "ĠDesde",
        -10.249592223113346
      ],
      [
        "Ġcompro",
        -10.250323966472305
      ],
      [
        "ĠUS",
        -10.25049390101622
      ],
      [
        "paciente",
        -10.25068981524847
      ],
      [
        "ĠPan",
        -10.25107511602024
      ],
      [
        "vemos",
        -10.2512901622713
      ],
      [
        "abaixo",
        -10.25174333892308
      ],
      [
        "Ġestilo",
        -10.252362074390607
      ],
      [
        "ĠOlÃ¡",
        -10.252907841880411
      ],
      [
        "Ġ39",
        -10.253274568609603
      ],
      [
        "Ġresulta",
        -10.254585896144857
      ],
      [
        "ĠChina",
        -10.254968339933148
      ],
      [
        "Ġdaquel",
        -10.255540776732316
      ],
      [
        "ĠAlberto",
        -10.25664122889688
      ],
      [
        "ĠNew",
        -10.257031947004595
      ],
      [
        "Ġestes",
        -10.25768721467582
      ],
      [
        "ĠNossa",
        -10.258535893404574
      ],
      [
        "á",
        -10.259210135776115
      ],
      [
        "Ġespera",
        -10.259403557241653
      ],
      [
        "Ġalega",
        -10.25944678056124
      ],
      [
        "avaliaÃ§Ã£o",
        -10.260142126579964
      ],
      [
        "licitante",
        -10.26066466126876
      ],
      [
        "ĠART",
        -10.26117210917442
      ],
      [
        "ĠciÃªncia",
        -10.261257852984034
      ],
      [
        "Ġnot",
        -10.261617798185256
      ],
      [
        "ĠPolÃŃtica",
        -10.262433330064963
      ],
      [
        "Ġentrevista",
        -10.263606861206805
      ],
      [
        "Ġfeliz",
        -10.26370265644498
      ],
      [
        "Ġdetermina",
        -10.263921630127138
      ],
      [
        "Ġpobre",
        -10.264668311956616
      ],
      [
        "ĠLuÃŃs",
        -10.265219359639914
      ],
      [
        "ĠMundo",
        -10.266227799837829
      ],
      [
        "Ġmesa",
        -10.266713070467487
      ],
      [
        "ĠAlemanha",
        -10.26684553833841
      ],
      [
        "ĠRequer",
        -10.266937991825396
      ],
      [
        "Ġacidente",
        -10.270007908634616
      ],
      [
        "Ġoferece",
        -10.270277321879474
      ],
      [
        "Ġinvestimento",
        -10.271435871021918
      ],
      [
        "Ġaplica",
        -10.271992411716193
      ],
      [
        "Ġprocedimento",
        -10.27205142015947
      ],
      [
        "Ġvice",
        -10.272429260596018
      ],
      [
        "Ġdemocracia",
        -10.27265671496756
      ],
      [
        "Ġpretende",
        -10.273418882530136
      ],
      [
        "Ġpaga",
        -10.2735322622475
      ],
      [
        "relaÃ§Ãµes",
        -10.275266021222988
      ],
      [
        "¤",
        -10.275827587590936
      ],
      [
        "Ġrural",
        -10.27630789629362
      ],
      [
        "ĠLisboa",
        -10.276459234883491
      ],
      [
        "EUA",
        -10.276467968460285
      ],
      [
        "ĠDepu",
        -10.277103263839436
      ],
      [
        "Ã³n",
        -10.277280098410278
      ],
      [
        "Ġambiental",
        -10.277485272655223
      ],
      [
        "ĠmanhÃ£",
        -10.277704072643592
      ],
      [
        "PSL",
        -10.277733317380587
      ],
      [
        "ĠfunÃ§Ãµes",
        -10.277745104836288
      ],
      [
        "Ġexplorar",
        -10.277797813422426
      ],
      [
        "Ġregula",
        -10.277817869314086
      ],
      [
        "Ġpalavras",
        -10.27796221185722
      ],
      [
        "Ġdisciplina",
        -10.278381218492168
      ],
      [
        "ĠJesus",
        -10.278734055510562
      ],
      [
        "tivesse",
        -10.278746562550646
      ],
      [
        "tomada",
        -10.27937285017096
      ],
      [
        "ĠAlexandre",
        -10.27950867312562
      ],
      [
        "possam",
        -10.280090471093796
      ],
      [
        "Ġfesta",
        -10.280251338544746
      ],
      [
        "virtud",
        -10.280267017487684
      ],
      [
        "ĠVai",
        -10.280383398079492
      ],
      [
        "ĠRede",
        -10.280629678620029
      ],
      [
        "Ġatender",
        -10.280685866659434
      ],
      [
        "Ġmudar",
        -10.280733868311646
      ],
      [
        "ĠSerra",
        -10.281170282324291
      ],
      [
        "PrevidÃªncia",
        -10.28141544247308
      ],
      [
        "deficiÃªncia",
        -10.281456168888829
      ],
      [
        "NÃ£o",
        -10.28172374616831
      ],
      [
        "Ġamericano",
        -10.281727071387843
      ],
      [
        "Ġdispo",
        -10.28254372358003
      ],
      [
        "erson",
        -10.282584709369592
      ],
      [
        "FundaÃ§Ã£o",
        -10.282686132188845
      ],
      [
        "Ġjornalista",
        -10.28325116052567
      ],
      [
        "ku",
        -10.283586512949183
      ],
      [
        "Ï",
        -10.284018485249906
      ],
      [
        "fronteira",
        -10.284415450842776
      ],
      [
        "Ġtrabalha",
        -10.28448688448611
      ],
      [
        "Ġcondena",
        -10.284625875792322
      ],
      [
        "Ġcur",
        -10.285115039671798
      ],
      [
        "mil",
        -10.285303218883952
      ],
      [
        "Ġlido",
        -10.285649360528108
      ],
      [
        "Ã¢nia",
        -10.286855443800963
      ],
      [
        "Ġimagem",
        -10.286920616492989
      ],
      [
        "decreto",
        -10.287713873576088
      ],
      [
        "IV",
        -10.287763115412655
      ],
      [
        "Ġfinanceiro",
        -10.287929456840391
      ],
      [
        "CearÃ¡",
        -10.288100518002675
      ],
      [
        "ÃŃndice",
        -10.288516250329634
      ],
      [
        "ĠArthur",
        -10.289246167762654
      ],
      [
        "Ġ62",
        -10.28987036697112
      ],
      [
        "Ġpedir",
        -10.290152033104135
      ],
      [
        "Ġunidade",
        -10.290896802103594
      ],
      [
        "Ġconcurso",
        -10.291659369521536
      ],
      [
        "geraÃ§Ã£o",
        -10.291803234492107
      ],
      [
        "ĠrÃ¡pido",
        -10.291979832280695
      ],
      [
        "apresentou",
        -10.292061155433256
      ],
      [
        "imagens",
        -10.292249887691309
      ],
      [
        "nunciou",
        -10.292312052713802
      ],
      [
        "ĠSin",
        -10.292857705575308
      ],
      [
        "trecho",
        -10.293052326851372
      ],
      [
        "conflito",
        -10.293547703873871
      ],
      [
        "ĠpeÃ§a",
        -10.2936367855518
      ],
      [
        "ĠWal",
        -10.293775216787957
      ],
      [
        "Ġzona",
        -10.29407757005367
      ],
      [
        "curso",
        -10.294674203694498
      ],
      [
        "ĠMil",
        -10.294924371288907
      ],
      [
        "Departamento",
        -10.295589376733872
      ],
      [
        "ĠMichel",
        -10.295829822284157
      ],
      [
        "Ã¡reas",
        -10.296852632225688
      ],
      [
        "velmente",
        -10.29759600559449
      ],
      [
        "ĠDom",
        -10.29842559666539
      ],
      [
        "Ġbanco",
        -10.298924975229443
      ],
      [
        "ĠAcre",
        -10.29907883198028
      ],
      [
        "ĠPp",
        -10.29909044142239
      ],
      [
        "ĠCapi",
        -10.299179619887378
      ],
      [
        "ÃŃstico",
        -10.299621357623906
      ],
      [
        "Ġtorno",
        -10.300193715339942
      ],
      [
        "evoluÃ§Ã£o",
        -10.30072590180691
      ],
      [
        "Geraldo",
        -10.301214890586737
      ],
      [
        "Ġrua",
        -10.301290798001691
      ],
      [
        "ĠLegislativa",
        -10.30165941557182
      ],
      [
        "Ġataque",
        -10.30224889896706
      ],
      [
        "Ġexpressa",
        -10.302527889525823
      ],
      [
        "ĠdenÃºncia",
        -10.302757560346397
      ],
      [
        "exigÃªncia",
        -10.303056837453864
      ],
      [
        "war",
        -10.303218230927332
      ],
      [
        "Ġbio",
        -10.303728587573808
      ],
      [
        "Ġigreja",
        -10.305618537928046
      ],
      [
        "ĠMarcos",
        -10.305998325587993
      ],
      [
        "Ġconceito",
        -10.30661958898922
      ],
      [
        "alteraÃ§Ã£o",
        -10.306657661817978
      ],
      [
        "ĠopiniÃ£o",
        -10.306763227711498
      ],
      [
        "Ġatende",
        -10.307067637313086
      ],
      [
        "ĠDESPACH",
        -10.307249342415872
      ],
      [
        "Ġetc",
        -10.307353902414985
      ],
      [
        "Ġerro",
        -10.307875676262674
      ],
      [
        "ĠRodrigo",
        -10.30817761181396
      ],
      [
        "Ġpromover",
        -10.308343806354884
      ],
      [
        "quilo",
        -10.309087610793105
      ],
      [
        "relativo",
        -10.310558471331438
      ],
      [
        "Ġseguro",
        -10.311746063445732
      ],
      [
        "Ġguarda",
        -10.312088509725804
      ],
      [
        "lizaÃ§Ã£o",
        -10.313341236609968
      ],
      [
        "ling",
        -10.31378806783019
      ],
      [
        "Ġrenova",
        -10.314565574959747
      ],
      [
        "urgÃªncia",
        -10.316821810074735
      ],
      [
        "Ġentender",
        -10.317270195397766
      ],
      [
        "leitura",
        -10.317398406950076
      ],
      [
        "Ġusa",
        -10.317418016156948
      ],
      [
        "ĠCer",
        -10.318512682037996
      ],
      [
        "Ġconsegue",
        -10.318872181275426
      ],
      [
        "ĠorientaÃ§Ã£o",
        -10.319259415269537
      ],
      [
        "½",
        -10.319583012143973
      ],
      [
        "PÃ¡gina",
        -10.31977686131398
      ],
      [
        "pÃµe",
        -10.320055190876126
      ],
      [
        "havend",
        -10.320085604311346
      ],
      [
        "ĠRei",
        -10.320782353878402
      ],
      [
        "sidente",
        -10.320954477930304
      ],
      [
        "Ġilha",
        -10.321083432954916
      ],
      [
        "ĠVista",
        -10.321677798295449
      ],
      [
        "privado",
        -10.321770636392992
      ],
      [
        "ocorreu",
        -10.322356676604649
      ],
      [
        "Ġconseguir",
        -10.322511102673705
      ],
      [
        "ĠParis",
        -10.322629719381794
      ],
      [
        "doenÃ§a",
        -10.323499119182006
      ],
      [
        "www",
        -10.323753178546744
      ],
      [
        "mann",
        -10.324540706634744
      ],
      [
        "ResoluÃ§Ã£o",
        -10.32473214028534
      ],
      [
        "ĠjustiÃ§a",
        -10.32504511794171
      ],
      [
        "juros",
        -10.325107443971287
      ],
      [
        "ĠEli",
        -10.325345262048389
      ],
      [
        "benefÃŃcios",
        -10.32560122342843
      ],
      [
        "Ġadmit",
        -10.325674717709727
      ],
      [
        "ĠsaÃŃd",
        -10.325809231754384
      ],
      [
        "Ġinstru",
        -10.326026506154474
      ],
      [
        "ĠOUTR",
        -10.326042657065498
      ],
      [
        "Jogos",
        -10.327150713195987
      ],
      [
        "apensado",
        -10.327315155267277
      ],
      [
        "substitutivo",
        -10.327316410239211
      ],
      [
        "Ã´nica",
        -10.327341725459783
      ],
      [
        "ĠQuanto",
        -10.32775293350313
      ],
      [
        "¾",
        -10.328741476700428
      ],
      [
        "ĠNA",
        -10.329123097124151
      ],
      [
        "2020",
        -10.329737833599143
      ],
      [
        "Moreira",
        -10.330576689633569
      ],
      [
        "ĠSobre",
        -10.330804318206903
      ],
      [
        "ĠAh",
        -10.330956053924996
      ],
      [
        "Ġ1994",
        -10.332610645258752
      ],
      [
        "tais",
        -10.33279426211876
      ],
      [
        "Ġpermanece",
        -10.332888473896244
      ],
      [
        "vontade",
        -10.33317908663
      ],
      [
        "Ġcarga",
        -10.333881468110324
      ],
      [
        "ENTE",
        -10.3348324993654
      ],
      [
        "assistÃªncia",
        -10.335169014478076
      ],
      [
        "Ġcumpri",
        -10.335837119751698
      ],
      [
        "ĩ",
        -10.336294536008374
      ],
      [
        "Ġrealiza",
        -10.337266840446237
      ],
      [
        "parceria",
        -10.337453749104316
      ],
      [
        "TER",
        -10.337568792332906
      ],
      [
        "ĠcomeÃ§ar",
        -10.338208446449652
      ],
      [
        "amanhÃ£",
        -10.338216846893864
      ],
      [
        "ji",
        -10.338450506973242
      ],
      [
        "rÃ¡pida",
        -10.338861719176949
      ],
      [
        "Ġremunera",
        -10.33914326141711
      ],
      [
        "referida",
        -10.339251433711912
      ],
      [
        "Ġplanta",
        -10.339393332114811
      ],
      [
        "PrÃªmio",
        -10.339471458070935
      ],
      [
        "aÃ§a",
        -10.34112688195765
      ],
      [
        "In",
        -10.341471959687295
      ],
      [
        "advogado",
        -10.341521032245598
      ],
      [
        "NAL",
        -10.341970438327014
      ],
      [
        "instalaÃ§Ã£o",
        -10.342210541956112
      ],
      [
        "ADA",
        -10.3427576246462
      ],
      [
        "Proposta",
        -10.343374079516034
      ],
      [
        "fiscalizaÃ§Ã£o",
        -10.343457464241242
      ],
      [
        "Ġitem",
        -10.343796687039486
      ],
      [
        "ĠCruz",
        -10.344032108343017
      ],
      [
        "preciaÃ§Ã£o",
        -10.345285049198967
      ],
      [
        "Ġouvir",
        -10.3453730053285
      ],
      [
        "bus",
        -10.346230416325072
      ],
      [
        "ĠForÃ§a",
        -10.346685965780583
      ],
      [
        "Ġtrabalhador",
        -10.347013261501369
      ],
      [
        "Ġjuiz",
        -10.34707097990526
      ],
      [
        "Ġcontas",
        -10.34812263568823
      ],
      [
        "Ġquinta",
        -10.34891045548361
      ],
      [
        "Ġhumana",
        -10.349602932438646
      ],
      [
        "Ġresta",
        -10.34961147998344
      ],
      [
        "ĠFer",
        -10.350110599753512
      ],
      [
        "ĠAma",
        -10.350527650655
      ],
      [
        "irÃ¡",
        -10.350759699231348
      ],
      [
        "ĠNeste",
        -10.350912584041977
      ],
      [
        "Ġcuidado",
        -10.35134667422256
      ],
      [
        "Ġcarta",
        -10.351635509731167
      ],
      [
        "existem",
        -10.351671633093533
      ],
      [
        "humanos",
        -10.352460492351128
      ],
      [
        "rel",
        -10.353317930918944
      ],
      [
        "Ġcorpus",
        -10.353394159872208
      ],
      [
        "Ġpreso",
        -10.354077394436024
      ],
      [
        "Ġpropor",
        -10.354657135336208
      ],
      [
        "FederaÃ§Ã£o",
        -10.355300870994634
      ],
      [
        "single",
        -10.355693466130448
      ],
      [
        "gravada",
        -10.355950125118534
      ],
      [
        "Ġadequa",
        -10.35668063544395
      ],
      [
        "prÃªmio",
        -10.357121523693497
      ],
      [
        "ĠAgrav",
        -10.357477773874486
      ],
      [
        "ĠBor",
        -10.357622895077425
      ],
      [
        "ĠAltera",
        -10.35788628756976
      ],
      [
        "Ġcompanhia",
        -10.358021139383617
      ],
      [
        "precisamos",
        -10.358346440944809
      ],
      [
        "Ġexigi",
        -10.35861698189907
      ],
      [
        "avanÃ§o",
        -10.358806873662925
      ],
      [
        "campeÃ£o",
        -10.359171240793156
      ],
      [
        "ĠSai",
        -10.360174794968527
      ],
      [
        "expressÃ£o",
        -10.36050890147052
      ],
      [
        "Amazonas",
        -10.36085565304242
      ],
      [
        "gli",
        -10.36102726788422
      ],
      [
        "Ġsom",
        -10.3610494096751
      ],
      [
        "ativo",
        -10.361273391141072
      ],
      [
        "atu",
        -10.361899261605792
      ],
      [
        "Ġsinal",
        -10.362162833897097
      ],
      [
        "etapa",
        -10.362409345537635
      ],
      [
        "Ġdispor",
        -10.362611895303148
      ],
      [
        "ĠParlamento",
        -10.362867125430338
      ],
      [
        "Ġespe",
        -10.362924807158212
      ],
      [
        "Ġentende",
        -10.363419191643052
      ],
      [
        "consumo",
        -10.363422093327433
      ],
      [
        "Ġregistrado",
        -10.363593751387585
      ],
      [
        "estaÃ§Ã£o",
        -10.364122318473724
      ],
      [
        "ĠfaÃ§o",
        -10.364264579599752
      ],
      [
        "ĠfaÃ§a",
        -10.365198073298878
      ],
      [
        "Ġeventos",
        -10.365688197028364
      ],
      [
        "Ġreclama",
        -10.36578739194588
      ],
      [
        "ĠAli",
        -10.365812043911458
      ],
      [
        "PI",
        -10.365898239210871
      ],
      [
        "Ġvoz",
        -10.365909444226872
      ],
      [
        "investimentos",
        -10.365994813692016
      ],
      [
        "agentes",
        -10.366120945720366
      ],
      [
        "Ġ1993",
        -10.366713110693375
      ],
      [
        "Ġgosto",
        -10.366892591690974
      ],
      [
        "ĠlÃŃder",
        -10.367052553712432
      ],
      [
        "Ġoferta",
        -10.367207340570683
      ],
      [
        "retirada",
        -10.367550656723632
      ],
      [
        "Ġconhece",
        -10.367953261185573
      ],
      [
        "Barbosa",
        -10.367960017224934
      ],
      [
        "Ġ90",
        -10.36826139780294
      ],
      [
        "Ġrespectiva",
        -10.368504472412392
      ],
      [
        "ĠNeto",
        -10.368671475822756
      ],
      [
        "obretudo",
        -10.369845766095947
      ],
      [
        "Ġtinham",
        -10.37009754892311
      ],
      [
        "Ġjogador",
        -10.37012218775308
      ],
      [
        "ĠMeio",
        -10.370949831070714
      ],
      [
        "Ġtenta",
        -10.371083558909849
      ],
      [
        "ĠusuÃ¡rio",
        -10.371564149275551
      ],
      [
        "Ġclara",
        -10.371614254838953
      ],
      [
        "contexto",
        -10.371769663994446
      ],
      [
        "Ġescolha",
        -10.371950674594745
      ],
      [
        "·",
        -10.372658340092096
      ],
      [
        "ĠNada",
        -10.373250753102088
      ],
      [
        "errado",
        -10.373745571748504
      ],
      [
        "equipamentos",
        -10.37417260252476
      ],
      [
        "empresÃ¡rio",
        -10.37450521197786
      ],
      [
        "ĠRegional",
        -10.37454559415458
      ],
      [
        "Ġinternacionais",
        -10.37472841941806
      ],
      [
        "Ġvelho",
        -10.374751082763536
      ],
      [
        "Ġvinte",
        -10.375362110272915
      ],
      [
        "ĠJU",
        -10.375365460689656
      ],
      [
        "definiÃ§Ã£o",
        -10.376767379955266
      ],
      [
        "ĠVila",
        -10.37717061732563
      ],
      [
        "desempenho",
        -10.377221104740668
      ],
      [
        "elementos",
        -10.378342934388384
      ],
      [
        "incidÃªncia",
        -10.378533106586866
      ],
      [
        "Ġesposa",
        -10.37948371090518
      ],
      [
        "Ġcomando",
        -10.37973036849226
      ],
      [
        "Ġsexta",
        -10.380356995716308
      ],
      [
        "Ġeleitoral",
        -10.380390451283771
      ],
      [
        "esteja",
        -10.380999309068777
      ],
      [
        "tentativa",
        -10.381487886814163
      ],
      [
        "Ġcima",
        -10.381783779981252
      ],
      [
        "http",
        -10.381784411804237
      ],
      [
        "grÃ¡fico",
        -10.381870256974317
      ],
      [
        "ĠJan",
        -10.38353081567383
      ],
      [
        "ĠjurisprudÃªncia",
        -10.38399428837597
      ],
      [
        "ĠalÃŃnea",
        -10.384286079428598
      ],
      [
        "raÃ§a",
        -10.384364016114276
      ],
      [
        "RelaÃ§Ãµes",
        -10.38496884550566
      ],
      [
        "Ġfogo",
        -10.386283918926562
      ],
      [
        "ĠAP",
        -10.386706517586587
      ],
      [
        "gor",
        -10.387355767000086
      ],
      [
        "Ġindica",
        -10.38739164224003
      ],
      [
        "Ġampla",
        -10.387614067663314
      ],
      [
        "Ġinclui",
        -10.3877810003162
      ],
      [
        "ĠMagalhÃ£es",
        -10.388489198067113
      ],
      [
        "reconhecimento",
        -10.389087605688433
      ],
      [
        "queiro",
        -10.389136234150858
      ],
      [
        "ĠIsto",
        -10.39009100558417
      ],
      [
        "Ġpartida",
        -10.390160983052104
      ],
      [
        "Ġdaqui",
        -10.39072912924534
      ],
      [
        "Ġaumenta",
        -10.39123052324215
      ],
      [
        "Ĵ",
        -10.391717512183568
      ],
      [
        "ĠEdi",
        -10.391762541428465
      ],
      [
        "ĠSha",
        -10.39186652054988
      ],
      [
        "Ġrelator",
        -10.39208649643226
      ],
      [
        "PRIMEIR",
        -10.392761136024788
      ],
      [
        "americano",
        -10.392976830466347
      ],
      [
        "ĠSam",
        -10.393407356238695
      ],
      [
        "Ġconstitui",
        -10.393487458482094
      ],
      [
        "ĠTim",
        -10.3936019251196
      ],
      [
        "convidado",
        -10.393844766737102
      ],
      [
        "ð",
        -10.396124319781126
      ],
      [
        "ĠSegur",
        -10.396126303151222
      ],
      [
        "Ġprodutor",
        -10.396231002874234
      ],
      [
        "Ġhabita",
        -10.396234977216045
      ],
      [
        "Ġresto",
        -10.396251822739488
      ],
      [
        "ĠCarreira",
        -10.397117209131553
      ],
      [
        "francÃªs",
        -10.3974386142334
      ],
      [
        "apelo",
        -10.39754563449681
      ],
      [
        "ĠMARCO",
        -10.39759730886075
      ],
      [
        "ĠDeve",
        -10.39827077879661
      ],
      [
        "ĠClaro",
        -10.398607998827782
      ],
      [
        "Ġsenti",
        -10.398651805026145
      ],
      [
        "Ġcorte",
        -10.398975339739472
      ],
      [
        "ĠalcanÃ§",
        -10.399197261131263
      ],
      [
        "AgÃªncia",
        -10.399203460975652
      ],
      [
        "ĠlicenÃ§a",
        -10.399550414882327
      ],
      [
        "emendas",
        -10.399899601812182
      ],
      [
        "Ġaceita",
        -10.400302738687037
      ],
      [
        "Ġconsidera",
        -10.400662794823754
      ],
      [
        "ĠExterior",
        -10.40104530011332
      ],
      [
        "veÃŃculos",
        -10.401411263131472
      ],
      [
        "Ġcolo",
        -10.402181354982854
      ],
      [
        "Ġpreocupa",
        -10.402315472678191
      ],
      [
        "Ġquiser",
        -10.402731016058302
      ],
      [
        "elli",
        -10.403059513287122
      ],
      [
        "decisÃµes",
        -10.403333180883283
      ],
      [
        "Ġjoga",
        -10.403475335235951
      ],
      [
        "ficado",
        -10.40375125685414
      ],
      [
        "Ġtele",
        -10.404230485731654
      ],
      [
        "Ġassinatura",
        -10.405243994627751
      ],
      [
        "Ġnove",
        -10.405879400047752
      ],
      [
        "administrativo",
        -10.406498306521364
      ],
      [
        "necessÃ¡ria",
        -10.407018967224907
      ],
      [
        "metade",
        -10.4076658616437
      ],
      [
        "ĠFolha",
        -10.407666428418542
      ],
      [
        "provÃŃncia",
        -10.407681212846452
      ],
      [
        "Ġposse",
        -10.407839359399516
      ],
      [
        "ĠCPI",
        -10.407992295999454
      ],
      [
        "Ġjunta",
        -10.408437052714238
      ],
      [
        "Ġcursos",
        -10.408460652481953
      ],
      [
        "Ġ200",
        -10.408488808162597
      ],
      [
        "ĠFerreira",
        -10.408704186352429
      ],
      [
        "ĠClube",
        -10.409899006364778
      ],
      [
        "Ġexterior",
        -10.41013602667485
      ],
      [
        "Enquanto",
        -10.410170081583026
      ],
      [
        "ĠConstitucional",
        -10.41066007182306
      ],
      [
        "endente",
        -10.410997575729256
      ],
      [
        "2002",
        -10.411875058640062
      ],
      [
        "ĠrÃ¡dio",
        -10.413247957172173
      ],
      [
        "Ġmedo",
        -10.41374995956836
      ],
      [
        "Ġlivros",
        -10.41436911784456
      ],
      [
        "ĠelÃ©trica",
        -10.414499544434513
      ],
      [
        "ĠcompetiÃ§Ã£o",
        -10.415508431177148
      ],
      [
        "Ġcinema",
        -10.4161563608261
      ],
      [
        "Mar",
        -10.416525726997117
      ],
      [
        "Ġcultural",
        -10.416662871037698
      ],
      [
        "Ġchance",
        -10.416722897716657
      ],
      [
        "indicaÃ§Ã£o",
        -10.417495624507724
      ],
      [
        "ĠOrÃ§ament",
        -10.418038589375376
      ],
      [
        "Ġeditor",
        -10.419066824690969
      ],
      [
        "Ġ1992",
        -10.419219078064224
      ],
      [
        ".............",
        -10.419748593459031
      ],
      [
        "licitaÃ§Ã£o",
        -10.420350824890962
      ],
      [
        "presidente",
        -10.420367681527283
      ],
      [
        "Ġcontato",
        -10.420510504003166
      ],
      [
        "Ġterceira",
        -10.420619186322316
      ],
      [
        "gula",
        -10.421467981388457
      ],
      [
        "finalidade",
        -10.421893138421646
      ],
      [
        "Ġrece",
        -10.422117421027718
      ],
      [
        "ESTADO",
        -10.422554420650986
      ],
      [
        "deira",
        -10.422622739021602
      ],
      [
        "Ġfun",
        -10.423217720953682
      ],
      [
        "funcionamento",
        -10.423236102974329
      ],
      [
        "ĠMello",
        -10.42375560406075
      ],
      [
        "fundamento",
        -10.423792768937412
      ],
      [
        "ficaÃ§Ã£o",
        -10.423912801939268
      ],
      [
        "Embora",
        -10.424541114397393
      ],
      [
        "Ġanual",
        -10.425666752915223
      ],
      [
        "exploraÃ§Ã£o",
        -10.42582045798242
      ],
      [
        "ĠEspanha",
        -10.42590447942665
      ],
      [
        "Ġpersonagem",
        -10.426627243342056
      ],
      [
        "Ġinteiro",
        -10.426683427610476
      ],
      [
        "Ġpensa",
        -10.427131905937069
      ],
      [
        "ĠespÃ©cies",
        -10.427779879319669
      ],
      [
        "Parlamentare",
        -10.428024828601448
      ],
      [
        "Outra",
        -10.428415092518971
      ],
      [
        "Ġjustifica",
        -10.428743567161694
      ],
      [
        "tributÃ¡ria",
        -10.42977333201292
      ],
      [
        "Ġlimita",
        -10.430712400208956
      ],
      [
        "Ġprefeito",
        -10.430913229867274
      ],
      [
        "ĠdistÃ¢ncia",
        -10.431127870696102
      ],
      [
        "policiais",
        -10.431251925168931
      ],
      [
        "Ġsabia",
        -10.431754141096114
      ],
      [
        "comÃ©rcio",
        -10.433655243190191
      ],
      [
        "Ġpermanente",
        -10.43388426815102
      ],
      [
        "Ġproduzir",
        -10.434539067499886
      ],
      [
        "trinta",
        -10.435262513665894
      ],
      [
        "ĠcrÃŃtica",
        -10.435712963927044
      ],
      [
        "Ġindividual",
        -10.436825607358356
      ],
      [
        "ella",
        -10.437146699059594
      ],
      [
        "Ġcai",
        -10.439552985570275
      ],
      [
        "Ġadolescente",
        -10.439854141705508
      ],
      [
        "Ġquebra",
        -10.440330923421724
      ],
      [
        "Ġdiminui",
        -10.440525602405057
      ],
      [
        "ĠYork",
        -10.440537840174375
      ],
      [
        "Ġpaz",
        -10.440608456776786
      ],
      [
        "ĠMartins",
        -10.44078232039844
      ],
      [
        "geralmente",
        -10.44094820516413
      ],
      [
        "ĠMuseu",
        -10.442509305192292
      ],
      [
        "lex",
        -10.442543112099656
      ],
      [
        "Ġdeterminado",
        -10.443435977014111
      ],
      [
        "Ġdepende",
        -10.443800452099415
      ],
      [
        "ĠSO",
        -10.445103858808546
      ],
      [
        "logia",
        -10.44560668894762
      ],
      [
        "fizeram",
        -10.445842375512845
      ],
      [
        "PB",
        -10.446189794307692
      ],
      [
        "Couto",
        -10.44655293943564
      ],
      [
        "ĠfÃ¡cil",
        -10.446585638389651
      ],
      [
        "Bibliografia",
        -10.447232772793535
      ],
      [
        "Ġimplica",
        -10.44735224709832
      ],
      [
        "Ġaquilo",
        -10.447886101281524
      ],
      [
        "ĠMelhor",
        -10.448398781092944
      ],
      [
        "ĠParte",
        -10.448627595298156
      ],
      [
        "domÃŃnio",
        -10.448955440057508
      ],
      [
        "Ġpensar",
        -10.449148936755469
      ],
      [
        "Ġconversa",
        -10.449597393157136
      ],
      [
        "Pernambuco",
        -10.449721771243205
      ],
      [
        "ordinÃ¡ria",
        -10.450140218196925
      ],
      [
        "ĠVida",
        -10.450490983093689
      ],
      [
        "constitucional",
        -10.45058040178954
      ],
      [
        "Ġreferente",
        -10.451029147350676
      ],
      [
        "postos",
        -10.451229295788863
      ],
      [
        "ĠprÃ©vi",
        -10.452676495605852
      ],
      [
        "usando",
        -10.45287596936105
      ],
      [
        "Ġtriste",
        -10.453041186004908
      ],
      [
        "ĠParece",
        -10.453357446240668
      ],
      [
        "Ġ1913",
        -10.453887262397483
      ],
      [
        "estudantes",
        -10.454023349540323
      ],
      [
        "Ġenorme",
        -10.454118835369878
      ],
      [
        "ĠAgricultura",
        -10.454640198496955
      ],
      [
        "ĠAC",
        -10.454722382452925
      ],
      [
        "Ġlonga",
        -10.454789845627047
      ],
      [
        "professores",
        -10.454963179630058
      ],
      [
        "ĠNÃĥO",
        -10.455558848655464
      ],
      [
        "consumidor",
        -10.455737790390955
      ],
      [
        "terminou",
        -10.456136396962853
      ],
      [
        "anti",
        -10.45628600139594
      ],
      [
        "Ġprejudica",
        -10.457174328115984
      ],
      [
        "Ġmulti",
        -10.457810262413505
      ],
      [
        "bÃ¡sica",
        -10.458038662790562
      ],
      [
        "Ġfar",
        -10.458961275023622
      ],
      [
        "Vieira",
        -10.45911748478113
      ],
      [
        "ĠGer",
        -10.459173357836882
      ],
      [
        "tradiÃ§Ã£o",
        -10.459310669622608
      ],
      [
        "Ġcompetente",
        -10.459405256819554
      ],
      [
        "morreu",
        -10.45958630577294
      ],
      [
        "Ġfamiliar",
        -10.459728550034905
      ],
      [
        "ĠMer",
        -10.460596438307348
      ],
      [
        "petrÃ³leo",
        -10.46145913412977
      ],
      [
        "Ġobservado",
        -10.461915238665888
      ],
      [
        "nanimidade",
        -10.462024063711151
      ],
      [
        "iauÃŃ",
        -10.462145191310633
      ],
      [
        "trÃ¢nsito",
        -10.46231312252115
      ],
      [
        "MÃ£o",
        -10.462863682002345
      ],
      [
        "MAN",
        -10.462944679986755
      ],
      [
        "Ġjeito",
        -10.463626324325148
      ],
      [
        "aposentadoria",
        -10.464336637212668
      ],
      [
        "patrimÃ´nio",
        -10.466000277515109
      ],
      [
        "companheiro",
        -10.46611458981053
      ],
      [
        "Ĩ",
        -10.466805350961232
      ],
      [
        "ĠNovo",
        -10.467346107729671
      ],
      [
        "Ġregistrar",
        -10.46753874189178
      ],
      [
        "Ġinferior",
        -10.469550573701127
      ],
      [
        "Ġalternativa",
        -10.469912073105572
      ],
      [
        "Ġmensagem",
        -10.470022192234476
      ],
      [
        "ĠMonte",
        -10.470088000068468
      ],
      [
        "Ġanteriores",
        -10.470242606489762
      ],
      [
        "ĠMc",
        -10.470421511626649
      ],
      [
        "escrita",
        -10.471150795098207
      ],
      [
        "Ġacompanha",
        -10.471472798668128
      ],
      [
        "ĠAntes",
        -10.471734471315235
      ],
      [
        "ĠMachado",
        -10.47184009135279
      ],
      [
        "ĠEdita",
        -10.471871668290191
      ],
      [
        "Ġofens",
        -10.472210981877671
      ],
      [
        "Ġteor",
        -10.473271079719604
      ],
      [
        "Ġintegral",
        -10.473595649509946
      ],
      [
        "ĠAurÃ©li",
        -10.474133582701096
      ],
      [
        "cenÃ¡rio",
        -10.474284062784362
      ],
      [
        "LT",
        -10.4746656210262
      ],
      [
        "Ġrespon",
        -10.474887674678024
      ],
      [
        "ĠAto",
        -10.474998278913512
      ],
      [
        "Ġvolume",
        -10.475019040233637
      ],
      [
        "transferÃªncia",
        -10.475052665382268
      ],
      [
        "ĠcoraÃ§Ã£o",
        -10.475288406733169
      ],
      [
        "µ",
        -10.476636959475451
      ],
      [
        "Ġhabe",
        -10.476647622870114
      ],
      [
        "arney",
        -10.4769099891727
      ],
      [
        "Ġsenador",
        -10.477046083965451
      ],
      [
        "Ãģfrica",
        -10.478105496729286
      ],
      [
        "âĢĵâĢĵâĢĵâĢĵâĢĵ",
        -10.478118334714065
      ],
      [
        "Ġaberta",
        -10.47841520373901
      ],
      [
        "horÃ¡rio",
        -10.47844665597182
      ],
      [
        "tinho",
        -10.478684324441389
      ],
      [
        "ĠCultural",
        -10.47903331179421
      ],
      [
        "Ġvaria",
        -10.48051446634308
      ],
      [
        "»",
        -10.48064493277722
      ],
      [
        "Ġveja",
        -10.480976652817516
      ],
      [
        "Ġtermina",
        -10.481200085349483
      ],
      [
        "Ġdesenvolve",
        -10.481711297908952
      ],
      [
        "produtores",
        -10.483172245955071
      ],
      [
        "definido",
        -10.483531242620192
      ],
      [
        "Ġolhos",
        -10.483755140057696
      ],
      [
        "Ġpossu",
        -10.483871175996214
      ],
      [
        "passando",
        -10.48424613827292
      ],
      [
        "Ġaltura",
        -10.484606638677857
      ],
      [
        "PLS",
        -10.484656395236245
      ],
      [
        "desafio",
        -10.485220559335726
      ],
      [
        "Į",
[...]
