{
  "version": "1.0",
  "truncation": {
    "direction": "Right",
    "max_length": 1024,
    "strategy": "LongestFirst",
    "stride": 0
  },
  "padding": null,
  "added_tokens": [
    {
      "id": 0,
      "content": "[PAD]",
      "single_word": false,
      "lstrip": false,
      "rstrip": false,
      "normalized": false,
      "special": true
    },
    {
      "id": 1,
      "content": "[SEP]",
      "single_word": false,
      "lstrip": false,
      "rstrip": false,
      "normalized": false,
      "special": true
    },
    {
      "id": 2,
      "content": "[EOS]",
      "single_word": false,
      "lstrip": false,
      "rstrip": false,
      "normalized": false,
      "special": true
    },
    {
      "id": 3,
      "content": "[UNK]",
      "single_word": false,
      "lstrip": false,
      "rstrip": false,
      "normalized": false,
      "special": true
    }
  ],
  "normalizer": {
    "type": "Sequence",
    "normalizers": [
      {
        "type": "Strip",
        "strip_left": true,
        "strip_right": true
      },
      {
        "type": "NFC"
      }
    ]
  },
  "pre_tokenizer": {
    "type": "ByteLevel",
    "add_prefix_space": true,
    "trim_offsets": true,
    "use_regex": true
  },
  "post_processor": {
    "type": "Sequence",
    "processors": [
      {
        "type": "ByteLevel",
        "add_prefix_space": true,
        "trim_offsets": true,
        "use_regex": true
      },
      {
        "type": "TemplateProcessing",
        "single": [
          {
            "Sequence": {
              "id": "A",
              "type_id": 0
            }
          },
          {
            "SpecialToken": {
              "id": "[EOS]",
              "type_id": 0
            }
          }
        ],
        "pair": [
          {
            "Sequence": {
              "id": "A",
              "type_id": 0
            }
          },
          {
            "SpecialToken": {
              "id": "[SEP]",
              "type_id": 0
            }
          },
          {
            "Sequence": {
              "id": "B",
              "type_id": 0
            }
          },
          {
            "SpecialToken": {
              "id": "[EOS]",
              "type_id": 0
            }
          }
        ],
        "special_tokens": {
          "[EOS]": {
            "id": "[EOS]",
            "ids": [
              2
            ],
            "tokens": [
              "[EOS]"
            ]
          },
          "[SEP]": {
            "id": "[SEP]",
            "ids": [
              1
            ],
            "tokens": [
              "[SEP]"
            ]
          }
        }
      }
    ]
  },
  "decoder": {
    "type": "ByteLevel",
    "add_prefix_space": true,
    "trim_offsets": true,
    "use_regex": true
  },
  "model": {
    "type": "Unigram",
    "unk_id": 3,
    "vocab": [
      [
        "[PAD]",
        0.0
      ],
      [
        "[SEP]",
        0.0
      ],
      [
        "[EOS]",
        0.0
      ],
      [
        "[UNK]",
        0.0
      ],
      [
        "Ġ",
        -1.8523117141113552
      ],
      [
        "s",
        -3.2492363626539316
      ],
      [
        "a",
        -3.296482529838066
      ],
      [
        ",",
        -3.3151986481995195
      ],
      [
        "o",
        -3.398692673197054
      ],
      [
        "e",
        -3.5055608453891267
      ],
      [
        ".",
        -3.536344229770041
      ],
      [
        "Ġde",
        -3.663436051611445
      ],
      [
        "r",
        -4.5600972804809
      ],
      [
        "-",
        -4.61027309280038
      ],
      [
        "u",
        -4.610953357122252
      ],
      [
        "i",
        -4.626855540307027
      ],
      [
        "Ġdo",
        -4.6313882398142425
      ],
      [
        "Ġque",
        -4.647663062709068
      ],
      [
        "Ġda",
        -4.816028443113556
      ],
      [
        "m",
        -4.850593195727026
      ],
      [
        "n",
        -4.91196991828679
      ],
      [
        "d",
        -5.101666448130114
      ],
      [
        "l",
        -5.171302288659373
      ],
      [
        "t",
        -5.18348455223574
      ],
      [
        "Ġem",
        -5.219976916220862
      ],
      [
        "A",
        -5.272821523757077
      ],
      [
        "\"",
        -5.28401452530732
      ],
      [
        "c",
        -5.29451992118636
      ],
      [
        ")",
        -5.339737690446004
      ],
      [
        "(",
        -5.339858694341821
      ],
      [
        "O",
        -5.361811320585947
      ],
      [
        "Ġpara",
        -5.454486865672912
      ],
      [
        "Ġcom",
        -5.567787949017237
      ],
      [
        "p",
        -5.615145328311538
      ],
      [
        "Ġno",
        -5.62474879391646
      ],
      [
        ":",
        -5.776616849079145
      ],
      [
        "Ġum",
        -5.81650330392773
      ],
      [
        "ĠâĢĵ",
        -5.819129208943185
      ],
      [
        "/",
        -5.8205113049014585
      ],
      [
        "ĠÃ©",
        -5.830499305685096
      ],
      [
        "Ġna",
        -5.8385109227184735
      ],
      [
        "ĠnÃ£o",
        -5.910037806333149
      ],
      [
        "S",
        -5.930555258260524
      ],
      [
        "g",
        -5.973647271841388
      ],
      [
        "Ġuma",
        -6.023830726623032
      ],
      [
        "E",
        -6.045750565814865
      ],
      [
        "b",
        -6.053569212909048
      ],
      [
        "Ġpor",
        -6.058561001625373
      ],
      [
        "1",
        -6.2641130322230385
      ],
      [
        "v",
        -6.321695313513413
      ],
      [
        "I",
        -6.3739847750886955
      ],
      [
        "f",
        -6.378867384202042
      ],
      [
        "Ġdos",
        -6.392731713150534
      ],
      [
        "P",
        -6.40247413728339
      ],
      [
        "Ã§Ã£o",
        -6.408812239075667
      ],
      [
        "R",
        -6.411348352340321
      ],
      [
        "ĠÃł",
        -6.419812778083902
      ],
      [
        "C",
        -6.421291644787718
      ],
      [
        "?",
        -6.4223328330708505
      ],
      [
        "Ġcomo",
        -6.439006786606697
      ],
      [
        "3",
        -6.4541204727843535
      ],
      [
        "2",
        -6.457083103390525
      ],
      [
        "h",
        -6.490521278711386
      ],
      [
        "6",
        -6.512237533435835
      ],
      [
        "7",
        -6.514009773705569
      ],
      [
        "4",
        -6.5268196355888435
      ],
      [
        "ndo",
        -6.532599804312069
      ],
      [
        "5",
        -6.544330894267874
      ],
      [
        "Ġfoi",
        -6.568100420731318
      ],
      [
        "!",
        -6.62850375158135
      ],
      [
        "Ġmais",
        -6.63622148414289
      ],
      [
        "8",
        -6.666710725962151
      ],
      [
        "de",
        -6.68282432955888
      ],
      [
        "y",
        -6.730673331659542
      ],
      [
        "T",
        -6.7567328379650995
      ],
      [
        ";",
        -6.764639174560163
      ],
      [
        "Ġpela",
        -6.783001697256438
      ],
      [
        "ĠDE",
        -6.798798284992856
      ],
      [
        "ĠnÂº",
        -6.8064100022569445
      ],
      [
        "M",
        -6.83590314922003
      ],
      [
        "z",
        -6.844988531031326
      ],
      [
        "Ġpelo",
        -6.851651829952612
      ],
      [
        "9",
        -6.869001343354286
      ],
      [
        "Ġsua",
        -6.86975351261224
      ],
      [
        "D",
        -6.903872994055753
      ],
      [
        "L",
        -6.911070058171479
      ],
      [
        "V",
        -6.921738762231543
      ],
      [
        "Ġser",
        -6.942448757527378
      ],
      [
        "ĠSr",
        -6.9456408778351175
      ],
      [
        "Âº",
        -6.951292485220268
      ],
      [
        "................",
        -6.9758298278994655
      ],
      [
        "Ġdas",
        -6.988664637776644
      ],
      [
        "in",
        -6.998213746923012
      ],
      [
        "Ġsobre",
        -7.01864480467267
      ],
      [
        "...",
        -7.043389002268015
      ],
      [
        "Ã©",
        -7.050264419312855
      ],
      [
        "N",
        -7.071042714670307
      ],
      [
        "Ã¡",
        -7.079437339986173
      ],
      [
        "Ġseu",
        -7.101969377001531
      ],
      [
        "B",
        -7.103407428091188
      ],
      [
        "Ã£o",
        -7.112707126858648
      ],
      [
        "ĠâĢľ",
        -7.119187750811831
      ],
      [
        "k",
        -7.120418011146699
      ],
      [
        "F",
        -7.120658343110728
      ],
      [
        "mente",
        -7.1361895634722785
      ],
      [
        "mos",
        -7.156154379484349
      ],
      [
        "dos",
        -7.168501753606703
      ],
      [
        "ĠestÃ¡",
        -7.174252304509016
      ],
      [
        "U",
        -7.176324782429287
      ],
      [
        "ĠPresidente",
        -7.178785734074765
      ],
      [
        "ĠNÃ£o",
        -7.205274911059496
      ],
      [
        "ĠEm",
        -7.208102770237648
      ],
      [
        "ĠtambÃ©m",
        -7.215455414507664
      ],
      [
        "ĠLei",
        -7.236768764285784
      ],
      [
        "li",
        -7.246057005503202
      ],
      [
        "ÃŃ",
        -7.304845215060082
      ],
      [
        "Ġ19",
        -7.311693701489263
      ],
      [
        "ĠDeputado",
        -7.316660746481579
      ],
      [
        "Ġtem",
        -7.318842930528078
      ],
      [
        "Ġmas",
        -7.3227779329690605
      ],
      [
        "Ġnos",
        -7.349268294466203
      ],
      [
        "Ġart",
        -7.353094540756871
      ],
      [
        "G",
        -7.370134987924253
      ],
      [
        "Ġele",
        -7.415507492755724
      ],
      [
        "ram",
        -7.428185440828536
      ],
      [
        "ĠSR",
        -7.4494145978281505
      ],
      [
        "Ã§Ãµes",
        -7.464454640167681
      ],
      [
        "ĠFederal",
        -7.478013481728029
      ],
      [
        "das",
        -7.479548191053723
      ],
      [
        "ĠsÃ£o",
        -7.486985786127578
      ],
      [
        "ĠÃī",
        -7.488406382265463
      ],
      [
        "Ġisso",
        -7.492696677041705
      ],
      [
        "ĠNÂº",
        -7.5077576195705635
      ],
      [
        "x",
        -7.5127898962642465
      ],
      [
        "Ġanos",
        -7.524298136384491
      ],
      [
        "ĠBrasil",
        -7.5296596660874116
      ],
      [
        "ĠEstado",
        -7.530155333514518
      ],
      [
        "Ġin",
        -7.535306341599183
      ],
      [
        "ĠSenador",
        -7.543801017819787
      ],
      [
        "que",
        -7.569596172464394
      ],
      [
        "ĠEu",
        -7.576955649426914
      ],
      [
        "Ġentre",
        -7.58294591141844
      ],
      [
        "ter",
        -7.593863178178939
      ],
      [
        "ĠvocÃª",
        -7.595805562282491
      ],
      [
        "idade",
        -7.608499285105042
      ],
      [
        "Ġmuito",
        -7.612467574733783
      ],
      [
        "Ġcon",
        -7.618712565816722
      ],
      [
        "J",
        -7.647211736877043
      ],
      [
        "Ã³",
        -7.660830145387099
      ],
      [
        "era",
        -7.662329371711536
      ],
      [
        "ĠatÃ©",
        -7.670047237750065
      ],
      [
        "ĠNo",
        -7.673116391431138
      ],
      [
        "ĠjÃ¡",
        -7.676180979422302
      ],
      [
        "%",
        -7.685692728752906
      ],
      [
        "ĠComissÃ£o",
        -7.732123433231933
      ],
      [
        "ĠDe",
        -7.737065424899564
      ],
      [
        "Ġbem",
        -7.7540145588489935
      ],
      [
        "j",
        -7.759340114161851
      ],
      [
        "Ġforma",
        -7.760256057169217
      ],
      [
        "min",
        -7.766178095351854
      ],
      [
        "Ġpode",
        -7.778044080970556
      ],
      [
        "ĠSe",
        -7.797263631418209
      ],
      [
        "w",
        -7.801941076282461
      ],
      [
        "vi",
        -7.802763405243745
      ],
      [
        "ria",
        -7.805715851558812
      ],
      [
        "ela",
        -7.809217520334068
      ],
      [
        "Ġquando",
        -7.811319193886112
      ],
      [
        "um",
        -7.812938573182093
      ],
      [
        "aÃ§Ã£o",
        -7.827547402397542
      ],
      [
        "ĠRe",
        -7.827995647963602
      ],
      [
        "Ġsem",
        -7.832413328272647
      ],
      [
        "Ġaqui",
        -7.83731186566175
      ],
      [
        "ĠNa",
        -7.839573396883859
      ],
      [
        "Ġ10",
        -7.840315182043154
      ],
      [
        "Ġmesmo",
        -7.844082705425787
      ],
      [
        "ver",
        -7.854323236238333
      ],
      [
        "ĠNacional",
        -7.854633882900227
      ],
      [
        "Ġco",
        -7.856959746267062
      ],
      [
        "Ġpro",
        -7.857354388125224
      ],
      [
        "ĠPor",
        -7.8659959301957745
      ],
      [
        "Ġex",
        -7.880006067837728
      ],
      [
        "0",
        -7.88274221348043
      ],
      [
        "ĠÂ§",
        -7.895109385428629
      ],
      [
        "Ġtodos",
        -7.901552981015996
      ],
      [
        "Ġdia",
        -7.906668999172334
      ],
      [
        "Ġainda",
        -7.916627371134286
      ],
      [
        "ĠSÃ£o",
        -7.922359885825005
      ],
      [
        "Ġ18",
        -7.932004289802435
      ],
      [
        "Ġter",
        -7.961466789987339
      ],
      [
        "res",
        -7.961989555188128
      ],
      [
        "Ġseus",
        -7.965420960423977
      ],
      [
        "ĠOs",
        -7.968559016570346
      ],
      [
        "âĢĿ.",
        -7.973799006716717
      ],
      [
        "Ġcontra",
        -7.9776038431627025
      ],
      [
        "cio",
        -7.979311162966255
      ],
      [
        "br",
        -7.9805456830521955
      ],
      [
        "Ġparte",
        -7.985695449466057
      ],
      [
        "nte",
        -7.9907817550134705
      ],
      [
        "Ġcidade",
        -7.9958635544825505
      ],
      [
        "Ġforam",
        -8.001523450699024
      ],
      [
        "Ġesta",
        -8.007427161583111
      ],
      [
        "Ġfazer",
        -8.010008761106901
      ],
      [
        "tra",
        -8.012758932414137
      ],
      [
        "ĠPaulo",
        -8.017037710074172
      ],
      [
        "Ġcaso",
        -8.021348227032936
      ],
      [
        "tro",
        -8.02174029351308
      ],
      [
        "ĠhÃ¡",
        -8.022070644987116
      ],
      [
        "Ġano",
        -8.038230559535364
      ],
      [
        "ĠPL",
        -8.058626082342553
      ],
      [
        "ĠCom",
        -8.05913399390271
      ],
      [
        "ch",
        -8.066949722373579
      ],
      [
        "Ġtempo",
        -8.091600282788066
      ],
      [
        "Ġpre",
        -8.091651480426169
      ],
      [
        "Ãª",
        -8.0969381252473
      ],
      [
        "fi",
        -8.101729220235407
      ],
      [
        "Ġesse",
        -8.103542286239573
      ],
      [
        "ĠCon",
        -8.104696294926947
      ],
      [
        "Ġessa",
        -8.104905327459251
      ],
      [
        "PRESIDENTE",
        -8.105533353701878
      ],
      [
        "Ġseja",
        -8.109632952999979
      ],
      [
        "PROJETO",
        -8.1118869378526
      ],
      [
        "Ġvai",
        -8.117301685876349
      ],
      [
        "Ġmeu",
        -8.122170673681218
      ],
      [
        "tor",
        -8.126289384668583
      ],
      [
        "ĠLEI",
        -8.130786184723213
      ],
      [
        "Ġporque",
        -8.140830726928682
      ],
      [
        "ĠsÃ³",
        -8.142883324904009
      ],
      [
        "ĠÃłs",
        -8.147761331869752
      ],
      [
        "ĠEle",
        -8.149449836840924
      ],
      [
        "H",
        -8.150695493327001
      ],
      [
        "ĠMas",
        -8.155318594861493
      ],
      [
        "Ġprimeiro",
        -8.162743688801733
      ],
      [
        "ita",
        -8.165428141076232
      ],
      [
        "ĠDeputados",
        -8.17316298594712
      ],
      [
        "ĠAs",
        -8.184318233231792
      ],
      [
        "RELATOR",
        -8.192665403448633
      ],
      [
        "ĠGoverno",
        -8.1959025342213
      ],
      [
        "ĠMinistro",
        -8.200706857317057
      ],
      [
        "and",
        -8.210290051866469
      ],
      [
        "âĢĿ",
        -8.210666103548446
      ],
      [
        "iz",
        -8.211025102783575
      ],
      [
        "ĠConstituiÃ§Ã£o",
        -8.211211662968884
      ],
      [
        "Ġonde",
        -8.211491244682087
      ],
      [
        "per",
        -8.213294924623863
      ],
      [
        "ĠVocÃª",
        -8.214930604459887
      ],
      [
        "00",
        -8.215248046092995
      ],
      [
        "Ġ12",
        -8.219772503947379
      ],
      [
        "'",
        -8.223738910978415
      ],
      [
        "Ġpessoas",
        -8.224863674576872
      ],
      [
        "_",
        -8.225773873305227
      ],
      [
        "Ġnas",
        -8.226764023591079
      ],
      [
        "Ġvez",
        -8.231037274069902
      ],
      [
        "cia",
        -8.23201347978862
      ],
      [
        "Ġgrande",
        -8.234315865159557
      ],
      [
        "ES",
        -8.236239545454486
      ],
      [
        "19",
        -8.23787862766652
      ],
      [
        "Ġartigo",
        -8.23827720751571
      ],
      [
        "Ġoutros",
        -8.244149242290394
      ],
      [
        "ĠSenhor",
        -8.246362812476223
      ],
      [
        "ĠMa",
        -8.254566912390784
      ],
      [
        "Ġtrabalho",
        -8.254962678247702
      ],
      [
        "Ġ11",
        -8.255310701201648
      ],
      [
        "ĠestÃ£o",
        -8.258665030455674
      ],
      [
        "Ġapenas",
        -8.260518121370227
      ],
      [
        "ando",
        -8.270219056144715
      ],
      [
        "Ġoutras",
        -8.270828972730822
      ],
      [
        "ĠCÃ¢mara",
        -8.273412230331262
      ],
      [
        "tar",
        -8.274400754187665
      ],
      [
        "Ãº",
        -8.274540452252223
      ],
      [
        "ĠnÃ³s",
        -8.276081070122313
      ],
      [
        "ĠMo",
        -8.280447191062759
      ],
      [
        "Ġsendo",
        -8.284944025856706
      ],
      [
        "Âª",
        -8.286175224817661
      ],
      [
        "mento",
        -8.286956412733094
      ],
      [
        "ĠAl",
        -8.287984479710678
      ],
      [
        "ĠDo",
        -8.290949967994907
      ],
      [
        "ĠMar",
        -8.293697815565805
      ],
      [
        "Ġdois",
        -8.294756942934542
      ],
      [
        "Ġ15",
        -8.29845750384776
      ],
      [
        "ĠArt",
        -8.298842014712704
      ],
      [
        "antes",
        -8.29963448313636
      ],
      [
        "ĠIn",
        -8.304500049471585
      ],
      [
        "ĠRio",
        -8.306665741814964
      ],
      [
        "Ġlei",
        -8.311188470626854
      ],
      [
        "Ġordem",
        -8.315754579991804
      ],
      [
        "Ġnosso",
        -8.317536467626288
      ],
      [
        "Ġca",
        -8.319340432946456
      ],
      [
        "Ġeste",
        -8.323177400808783
      ],
      [
        "aÃ§Ãµes",
        -8.32556962680853
      ],
      [
        "ĠProjeto",
        -8.325641421547179
      ],
      [
        "Z",
        -8.328336608428003
      ],
      [
        "rem",
        -8.328381115350032
      ],
      [
        "ĠII",
        -8.330495163025022
      ],
      [
        "ista",
        -8.332818662528217
      ],
      [
        "10",
        -8.34366558118709
      ],
      [
        "Ġnome",
        -8.349857786001063
      ],
      [
        "Ġminha",
        -8.350561146967236
      ],
      [
        "ina",
        -8.35078277710137
      ],
      [
        "Ġvi",
        -8.352822242456458
      ],
      [
        "Ġsuas",
        -8.354684936711074
      ],
      [
        "ĠCasa",
        -8.356776681461875
      ],
      [
        "Ġmaior",
        -8.359771439106614
      ],
      [
        "Ġhoje",
        -8.360289053642836
      ],
      [
        "qui",
        -8.363991909720328
      ],
      [
        "ĠserÃ¡",
        -8.368050660769828
      ],
      [
        "tiva",
        -8.368725275314869
      ],
      [
        "Ġtermos",
        -8.369761147433913
      ],
      [
        "Ġqual",
        -8.37691746564722
      ],
      [
        "Ġprocesso",
        -8.377218517434924
      ],
      [
        "ĠReferÃªncias",
        -8.378627655999434
      ],
      [
        "Ġmeio",
        -8.38145366308639
      ],
      [
        "ĠLi",
        -8.384205754879648
      ],
      [
        "Ġassim",
        -8.38528695396373
      ],
      [
        "Ġprojeto",
        -8.388631776994204
      ],
      [
        "ĠPara",
        -8.38865294465707
      ],
      [
        "ja",
        -8.3888126328986
      ],
      [
        "Ġte",
        -8.398571404367672
      ],
      [
        "Ġ16",
        -8.398973262090166
      ],
      [
        "ĠAn",
        -8.40168395376489
      ],
      [
        "ica",
        -8.403216272364183
      ],
      [
        "ĠDO",
        -8.405457068494686
      ],
      [
        "PSDB",
        -8.405929429366005
      ],
      [
        "ĠserviÃ§o",
        -8.406874879656252
      ],
      [
        "Ġdesta",
        -8.408427355872941
      ],
      [
        "ente",
        -8.409073318921378
      ],
      [
        "est",
        -8.41295647865491
      ],
      [
        "Ġ17",
        -8.417526872663812
      ],
      [
        "Ãµes",
        -8.42017624154404
      ],
      [
        "ĠSenado",
        -8.422679955230272
      ],
      [
        "Ġvida",
        -8.42933581593313
      ],
      [
        "Ġ13",
        -8.431852100303495
      ],
      [
        "Ġ14",
        -8.432980383384331
      ],
      [
        "Ãªncia",
        -8.43619906514971
      ],
      [
        "Ġdireito",
        -8.436358734055345
      ],
      [
        "Ġ20",
        -8.439071637728741
      ],
      [
        "tos",
        -8.447242509459375
      ],
      [
        "car",
        -8.448005835535014
      ],
      [
        "11",
        -8.451126581062363
      ],
      [
        "Ġprimeira",
        -8.453017092709022
      ],
      [
        "ĠMe",
        -8.45845902769322
      ],
      [
        "ĠComo",
        -8.459707359516552
      ],
      [
        "$",
        -8.460032736545795
      ],
      [
        "dia",
        -8.463375971474045
      ],
      [
        "Ġqualquer",
        -8.463793505709397
      ],
      [
        "ĠTribunal",
        -8.46913727987374
      ],
      [
        "ĠSem",
        -8.47227247739996
      ],
      [
        "Ġdeste",
        -8.472417546968874
      ],
      [
        "ĠâĢ¢",
        -8.477013853469506
      ],
      [
        "ĠVi",
        -8.482752883131639
      ],
      [
        "ĠJosÃ©",
        -8.48392253120824
      ],
      [
        "ing",
        -8.484237964239435
      ],
      [
        "ĠDA",
        -8.486990463390484
      ],
      [
        "tri",
        -8.489305795108177
      ],
      [
        "Ġpalavra",
        -8.490735794477303
      ],
      [
        "Ġdisse",
        -8.49203668278259
      ],
      [
        "ito",
        -8.494469600995501
      ],
      [
        "ĠPaÃŃs",
        -8.496469794311508
      ],
      [
        "Ġcada",
        -8.49743096990169
      ],
      [
        "Ġtodo",
        -8.498167795387683
      ],
      [
        "ĠDa",
        -8.498423355773939
      ],
      [
        "Ġacordo",
        -8.500297423141886
      ],
      [
        "MA",
        -8.502846199044628
      ],
      [
        "Ġsistema",
        -8.50747296197092
      ],
      [
        "Ġdepois",
        -8.509117256179293
      ],
      [
        "ĠpÃºblica",
        -8.509710128360409
      ],
      [
        "Ġseguinte",
        -8.510640913316276
      ],
      [
        "lado",
        -8.517835720954592
      ],
      [
        "man",
        -8.522328204889705
      ],
      [
        "sta",
        -8.523999315595548
      ],
      [
        "ĠPro",
        -8.527279309771965
      ],
      [
        "ĠMinistÃ©rio",
        -8.527921470473478
      ],
      [
        "Ġmelhor",
        -8.530921292818103
      ],
      [
        "ĠÃ¡rea",
        -8.531197576969674
      ],
      [
        "Ġprazo",
        -8.532634146399538
      ],
      [
        "RI",
        -8.53580854550383
      ],
      [
        "Ġdeve",
        -8.543544219179154
      ],
      [
        "nha",
        -8.544814403282572
      ],
      [
        "X",
        -8.545123024608491
      ],
      [
        "ĠCarlos",
        -8.545283800977986
      ],
      [
        "mar",
        -8.546919922209476
      ],
      [
        "ĠapÃ³s",
        -8.54938553925361
      ],
      [
        "ĠSim",
        -8.55096578539783
      ],
      [
        "09",
        -8.551845029886948
      ],
      [
        "cor",
        -8.552313911869003
      ],
      [
        "ĠRelator",
        -8.557436917141766
      ],
      [
        "Ġagora",
        -8.558949836328487
      ],
      [
        "rÃ¡",
        -8.562686813506101
      ],
      [
        "Ġpresente",
        -8.562795828368289
      ],
      [
        "th",
        -8.563320735591915
      ],
      [
        "ĠW",
        -8.565588033170972
      ],
      [
        "tal",
        -8.569458243090866
      ],
      [
        "enta",
        -8.570386979772236
      ],
      [
        "ismo",
        -8.570725910912456
      ],
      [
        "ĠpÃºblico",
        -8.571150852058771
      ],
      [
        "ĠpolÃŃtica",
        -8.57146874487414
      ],
      [
        "ĠLe",
        -8.572367152327901
      ],
      [
        "Ġpo",
        -8.578592776036526
      ],
      [
        "ck",
        -8.581433468939238
      ],
      [
        "Ġimportante",
        -8.582240430676654
      ],
      [
        "con",
        -8.582794116202615
      ],
      [
        "Ġsob",
        -8.58505133305638
      ],
      [
        "Ġver",
        -8.585546531262048
      ],
      [
        "ten",
        -8.587628864820553
      ],
      [
        "Ã´",
        -8.588428762819989
      ],
      [
        "ĠLa",
        -8.589220517718474
      ],
      [
        "Ġper",
        -8.592809992023538
      ],
      [
        "ida",
        -8.593099765743425
      ],
      [
        "Bloco",
        -8.593409973379202
      ],
      [
        "ĠRepÃºblica",
        -8.593585929082199
      ],
      [
        "dor",
        -8.596540490364598
      ],
      [
        "Ġsegundo",
        -8.597925293795765
      ],
      [
        "tado",
        -8.598045878840702
      ],
      [
        "ĠPT",
        -8.59975312168334
      ],
      [
        "Ġmundo",
        -8.600478970362056
      ],
      [
        "durante",
        -8.605353879280555
      ],
      [
        "Ġdizer",
        -8.60565670184148
      ],
      [
        "15",
        -8.609020986439798
      ],
      [
        "fer",
        -8.609182457772501
      ],
      [
        "dores",
        -8.614464769842716
      ],
      [
        "Ã§o",
        -8.614976505902975
      ],
      [
        "Ġnossa",
        -8.621881993544466
      ],
      [
        "AL",
        -8.625196167096034
      ],
      [
        "ĠmatÃ©ria",
        -8.62759044311582
      ],
      [
        "Ġmil",
        -8.628169978080827
      ],
      [
        "TO",
        -8.629093015980663
      ],
      [
        "ĠCo",
        -8.63095927716207
      ],
      [
        "ido",
        -8.631172795606076
      ],
      [
        "ĠJustiÃ§a",
        -8.632996552301094
      ],
      [
        "Ġestava",
        -8.633814999414636
      ],
      [
        "Ġvoto",
        -8.635953296987614
      ],
      [
        "cer",
        -8.637937752302623
      ],
      [
        "eiro",
        -8.640362321462675
      ],
      [
        "DO",
        -8.641091679699734
      ],
      [
        "qu",
        -8.645252199770429
      ],
      [
        "Ġsido",
        -8.646060933261861
      ],
      [
        "Ã§a",
        -8.64828970773913
      ],
      [
        "com",
        -8.651954036584122
      ],
      [
        "dezembro",
        -8.65507403714609
      ],
      [
        "ĠBa",
        -8.655676161185607
      ],
      [
        "Ġrecursos",
        -8.657083741162362
      ],
      [
        "2009",
        -8.65782889222795
      ],
      [
        "lar",
        -8.659006652453998
      ],
      [
        "ĠAr",
        -8.659763125709206
      ],
      [
        "men",
        -8.66105174572236
      ],
      [
        "gen",
        -8.669322925345075
      ],
      [
        "ante",
        -8.669796773048963
      ],
      [
        "ĠVer",
        -8.670316198836018
      ],
      [
        "Y",
        -8.670324225046457
      ],
      [
        "Ġoutro",
        -8.67152171060313
      ],
      [
        "OS",
        -8.673344554153543
      ],
      [
        "ĠtrÃªs",
        -8.677431068785975
      ],
      [
        "Ġpartir",
        -8.677516123497735
      ],
      [
        "ĠEstados",
        -8.677956723710421
      ],
      [
        "nos",
        -8.678156947640327
      ],
      [
        "ico",
        -8.679807244768213
      ],
      [
        "ĠH",
        -8.682593736152953
      ],
      [
        "Q",
        -8.685572558058944
      ],
      [
        "orador",
        -8.687097155703043
      ],
      [
        "Ġ24",
        -8.687145422240063
      ],
      [
        "=",
        -8.687946093493744
      ],
      [
        "AS",
        -8.690450345515671
      ],
      [
        "ĠentÃ£o",
        -8.690947057792165
      ],
      [
        "ata",
        -8.69098167131606
      ],
      [
        "cha",
        -8.69137690720349
      ],
      [
        "PT",
        -8.692507561729132
      ],
      [
        "Ġfinal",
        -8.693969006954543
      ],
      [
        "12",
        -8.697200698505148
      ],
      [
        "ent",
        -8.697201070635053
      ],
      [
        "ula",
        -8.697790839336784
      ],
      [
        "decisÃ£o",
        -8.700904275141925
      ],
      [
        "eira",
        -8.701203203864308
      ],
      [
        "ĠnÃºmero",
        -8.703168488418111
      ],
      [
        "ÃĩÃĥO",
        -8.703934008065367
      ],
      [
        "ĠCa",
        -8.705457162505146
      ],
      [
        "Ġvalor",
        -8.70696091928832
      ],
      [
        "Ġmomento",
        -8.709112368268547
      ],
      [
        "@",
        -8.710265189129892
      ],
      [
        "DI",
        -8.710935728420608
      ],
      [
        "Ì",
        -8.711481343239276
      ],
      [
        "ĠK",
        -8.717926592190668
      ],
      [
        "revisÃ£o",
        -8.718075025764533
      ],
      [
        "Ġgoverno",
        -8.720146513623016
      ],
      [
        "Ġgrupo",
        -8.720470013027969
      ],
      [
        "Ġtudo",
        -8.721308002069755
      ],
      [
        "Ġdesde",
        -8.722649534445765
      ],
      [
        "Ġsub",
        -8.723847888273806
      ],
      [
        "20",
        -8.724642974147555
      ],
      [
        "ĠJoÃ£o",
        -8.724950084977644
      ],
      [
        "ĠfamÃŃlia",
        -8.730563310815281
      ],
      [
        "Ġato",
        -8.733645812336281
      ],
      [
        "Ġcasa",
        -8.733674272547344
      ],
      [
        "Ġdias",
        -8.734535077875533
      ],
      [
        "Ãģ",
        -8.739393829312563
      ],
      [
        "Ġnovo",
        -8.739719261702291
      ],
      [
        "ĠPR",
        -8.739734637456827
      ],
      [
        "art",
        -8.742740598856903
      ],
      [
        "ava",
        -8.742889754541332
      ],
      [
        "ĠPMDB",
        -8.743030586366189
      ],
      [
        "ira",
        -8.745945096307695
      ],
      [
        "ĠpaÃŃs",
        -8.748695957462909
      ],
      [
        "amento",
        -8.74876510876057
      ],
      [
        "ĠTe",
        -8.749391095164007
      ],
      [
        "ĠIsso",
        -8.749532411363177
      ],
      [
        "ĠUniÃ£o",
        -8.753329434001834
      ],
      [
        "ĠUm",
        -8.753676359552436
      ],
      [
        "Ġeles",
        -8.76070805260032
      ],
      [
        "ĠdÃ¡",
        -8.76085525317592
      ],
      [
        "tas",
        -8.76110390515274
      ],
      [
        "Ġproposta",
        -8.761250824470817
      ],
      [
        "Ġpoder",
        -8.761421324179217
      ],
      [
        "lha",
        -8.762432009827176
      ],
      [
        "ĠpopulaÃ§Ã£o",
        -8.7645546865177
      ],
      [
        "RA",
        -8.765340728738797
      ],
      [
        "mor",
        -8.767415920433564
      ],
      [
        "par",
        -8.767789832185455
      ],
      [
        "ÃĥO",
        -8.768788477776832
      ],
      [
        "rio",
        -8.769466944080673
      ],
      [
        "05",
        -8.770270663251885
      ],
      [
        "Ġsempre",
        -8.770741864371807
      ],
      [
        "ju",
        -8.771302807275745
      ],
      [
        "EL",
        -8.777415703266492
      ],
      [
        "Ġinciso",
        -8.778833224953399
      ],
      [
        "Ġconta",
        -8.780881531521807
      ],
      [
        "les",
        -8.780890613091895
      ],
      [
        "Ġpra",
        -8.781708105105308
      ],
      [
        "Ġbrasileiro",
        -8.78174109356587
      ],
      [
        "18",
        -8.78353178914277
      ],
      [
        "ĠDi",
        -8.784317970768445
      ],
      [
        "rado",
        -8.786810673954678
      ],
      [
        "Ġduas",
        -8.790171757034571
      ],
      [
        "ĠrelaÃ§Ã£o",
        -8.790728923080753
      ],
      [
        "Ġ30",
        -8.793543450801083
      ],
      [
        "Ġ:(",
        -8.794974788482293
      ],
      [
        "ĠJo",
        -8.796042455140348
      ],
      [
        "ĠlÃ¡",
        -8.796704065195849
      ],
      [
        "ĠEsta",
        -8.798630435948779
      ],
      [
        "Ġmenos",
        -8.799441009744289
      ],
      [
        "ĠmilhÃµes",
        -8.801588824384963
      ],
      [
        "Ġpouco",
        -8.801762497616455
      ],
      [
        "ĠâĢĶ",
        -8.802086931141712
      ],
      [
        "gue",
        -8.803303239614872
      ],
      [
        "Ġtinha",
        -8.80403407242473
      ],
      [
        "ĠEntÃ£o",
        -8.804730885330535
      ],
      [
        "Ġfato",
        -8.806246724617758
      ],
      [
        "Congresso",
        -8.807341535196612
      ],
      [
        "ĠFoi",
        -8.808256531697676
      ],
      [
        "03",
        -8.808378211622927
      ],
      [
        "lhe",
        -8.809029927496303
      ],
      [
        "âĢĵ",
        -8.812806252026068
      ],
      [
        "nesta",
        -8.814569165232202
      ],
      [
        "Ġinter",
        -8.81549800961239
      ],
      [
        "bra",
        -8.81658479023137
      ],
      [
        "ste",
        -8.817998452661845
      ],
      [
        "ĠvotaÃ§Ã£o",
        -8.818691844764079
      ],
      [
        "Ġ21",
        -8.824610529227613
      ],
      [
        "aprovaÃ§Ã£o",
        -8.826650851793874
      ],
      [
        "ĠJu",
        -8.826756717017213
      ],
      [
        "ĠSul",
        -8.826787369924713
      ],
      [
        "Ġbrasileira",
        -8.827167098078622
      ],
      [
        "Ġquanto",
        -8.827387520295689
      ],
      [
        "ĠPela",
        -8.82914995936657
      ],
      [
        "ntes",
        -8.832179464320067
      ],
      [
        "ĠTo",
        -8.835116797797058
      ],
      [
        "neste",
        -8.835174885325399
      ],
      [
        "Ġfim",
        -8.836696473756462
      ],
      [
        "Ġ23",
        -8.838641307740323
      ],
      [
        "ĠQue",
        -8.843332061200567
      ],
      [
        "K",
        -8.844280392464007
      ],
      [
        "Ġpelos",
        -8.845238247441682
      ],
      [
        "08",
        -8.846080313693184
      ],
      [
        "ĠperÃŃodo",
        -8.846514974009656
      ],
      [
        "Ġprograma",
        -8.849315235448715
      ],
      [
        "17",
        -8.850624923545599
      ],
      [
        "Ġ25",
        -8.851286280576764
      ],
      [
        "Ġbom",
        -8.85343559263907
      ],
      [
        "inha",
        -8.854023022625984
      ],
      [
        "can",
        -8.855071956994813
      ],
      [
        "Ġ22",
        -8.857794705494507
      ],
      [
        "ĠPoder",
        -8.85851791368007
      ],
      [
        "ĠFa",
        -8.861115763609217
      ],
      [
        "ĠÃºnico",
        -8.863526484879737
      ],
      [
        "ĠhistÃ³ria",
        -8.86453036343656
      ],
      [
        "02",
        -8.866418498675305
      ],
      [
        "pre",
        -8.866705525643631
      ],
      [
        "ati",
        -8.867230693463304
      ],
      [
        "Ġsu",
        -8.869202821681007
      ],
      [
        "ais",
        -8.86974755088893
      ],
      [
        "ĠinformaÃ§Ãµes",
        -8.870629168600228
      ],
      [
        "rei",
        -8.873410893295999
      ],
      [
        "07",
        -8.874141045635454
      ],
      [
        "ĠsaÃºde",
        -8.875363216199927
      ],
      [
        "DA",
        -8.875980671843202
      ],
      [
        "menta",
        -8.876045930010058
      ],
      [
        "Ġtodas",
        -8.876056628355157
      ],
      [
        "gar",
        -8.876922412982262
      ],
      [
        "TE",
        -8.878647586202378
      ],
      [
        "Ġfaz",
        -8.878862487490347
      ],
      [
        "Ġvezes",
        -8.878967929973062
      ],
      [
        "ĠPa",
        -8.88097755792369
      ],
      [
        "lin",
        -8.881045204055585
      ],
      [
        "ton",
        -8.881070829451573
      ],
      [
        "Ġsocial",
        -8.88498706626898
      ],
      [
        "Ġbase",
        -8.885547385565241
      ],
      [
        "Ã¢",
        -8.886296191936689
      ],
      [
        "ĠregiÃ£o",
        -8.88736498059493
      ],
      [
        "tes",
        -8.888371495692626
      ],
      [
        "los",
        -8.889666004827674
      ],
      [
        "Ġexemplo",
        -8.893234546151094
      ],
      [
        "for",
        -8.894025929480868
      ],
      [
        "ĠDr",
        -8.894110603307823
      ],
      [
        "16",
        -8.89423341273465
      ],
      [
        "Ġfez",
        -8.896124360613344
      ],
      [
        "ki",
        -8.8978535187647
      ],
      [
        "04",
        -8.899338829969167
      ],
      [
        "alÃ©m",
        -8.90270723990824
      ],
      [
        "Ġnacional",
        -8.902771270319839
      ],
      [
        "Ġmaio",
        -8.90351678071179
      ],
      [
        "ant",
        -8.903641079015571
      ],
      [
        "Ġempresa",
        -8.906015184066987
      ],
      [
        "Ġexternas",
        -8.906379939809687
      ],
      [
        "W",
        -8.906812881740729
      ],
      [
        "ĠtÃªm",
        -8.907927621470382
      ],
      [
        "ĠquestÃ£o",
        -8.909563851248706
      ],
      [
        "âĢĿ,",
        -8.909636032227658
      ],
      [
        "Ġdiz",
        -8.91162966037356
      ],
      [
        "Ġfor",
        -8.911660318303934
      ],
      [
        "ĠtÃ£o",
        -8.913533566980497
      ],
      [
        "ĠLuiz",
        -8.914722902530942
      ],
      [
        "LigaÃ§Ãµes",
        -8.914895241534861
      ],
      [
        "Ġlugar",
        -8.916758107905217
      ],
      [
        "che",
        -8.918455937701495
      ],
      [
        "Ġtendo",
        -8.918457297789935
      ],
      [
        "Ġpois",
        -8.921397351792606
      ],
      [
        "pen",
        -8.921428830061659
      ],
      [
        "Ġquero",
        -8.922802479478696
      ],
      [
        "ist",
        -8.923790118992565
      ],
      [
        "Ġrecurso",
        -8.92427003947654
      ],
      [
        "Ġcausa",
        -8.925233905573794
      ],
      [
        "Ġtoda",
        -8.927129737146887
      ],
      [
        "julho",
        -8.927274484423325
      ],
      [
        "ĠHa",
        -8.929877374305464
      ],
      [
        "Ġpa",
        -8.930557944376831
      ],
      [
        "Ġestado",
        -8.931178506987523
      ],
      [
        "ĠFi",
        -8.931672594486788
      ],
      [
        "ĠExÂª",
        -8.932466419505142
      ],
      [
        "Ġpovo",
        -8.932846570586666
      ],
      [
        "ĠGo",
        -8.933111374048556
      ],
      [
        "las",
        -8.933367231888159
      ],
      [
        "13",
        -8.933838624634102
      ],
      [
        "tur",
        -8.933879273776038
      ],
      [
        "Ġ2007",
        -8.933998157343158
      ],
      [
        "ber",
        -8.935410753946728
      ],
      [
        "Ã£",
        -8.936757660498056
      ],
      [
        "ESSÃĥO",
        -8.942811895641752
      ],
      [
        "sentido",
        -8.942818001007073
      ],
      [
        "Ġseria",
        -8.943495499986847
      ],
      [
        "06",
        -8.943527049846004
      ],
      [
        "Ġalguns",
        -8.947584803229187
      ],
      [
        "setembro",
        -8.949389201457068
      ],
      [
        "ĠPre",
        -8.95199630132401
      ],
      [
        "ĠGa",
        -8.952100253952128
      ],
      [
        "inho",
        -8.953341892057306
      ],
      [
        "Ġnada",
        -8.953574003798664
      ],
      [
        "ĠCar",
        -8.954432441563378
      ],
      [
        "Ġnova",
        -8.956445251729392
      ],
      [
        "Ġ28",
        -8.95824608663396
      ],
      [
        "tua",
        -8.961102552571864
      ],
      [
        "Ġfavor",
        -8.962293698591546
      ],
      [
        "Ġtrata",
        -8.96273272039844
      ],
      [
        "Ġvou",
        -8.963281600175613
      ],
      [
        "Ġdata",
        -8.964154749591456
      ],
      [
        "fica",
        -8.965558668518744
      ],
      [
        "Ġnem",
        -8.966132077666048
      ],
      [
        "temos",
        -8.968046787632762
      ],
      [
        "Ã¡vel",
        -8.968136560397829
      ],
      [
        "30",
        -8.970690360796528
      ],
      [
        "nal",
        -8.974945994292606
      ],
      [
        "ler",
        -8.97575211909119
      ],
      [
        "Â°",
        -8.97611595750573
      ],
      [
        "Ġcoisa",
        -8.976170498532069
      ],
      [
        "dispÃµe",
        -8.978022125301973
      ],
      [
        "Ġfu",
        -8.97817745889871
      ],
      [
        "Ġsociedade",
        -8.983640304235855
      ],
      [
        "RE",
        -8.986307210376062
      ],
      [
        "Ġtipo",
        -8.986501949880058
      ],
      [
        "Ġpodem",
        -8.98650890567091
      ],
      [
        "ĠJa",
        -8.98803426141932
      ],
      [
        "Ġmesma",
        -8.990346113272517
      ],
      [
        "ry",
        -8.991006759624781
      ],
      [
        "Muito",
        -8.991517456029694
      ],
      [
        "junho",
        -8.992143241699518
      ],
      [
        "ĠEla",
        -8.993259548783472
      ],
      [
        "ĠBo",
        -8.995972543503633
      ],
      [
        "IS",
        -8.996582480552334
      ],
      [
        "Ġdisso",
        -8.997768574324143
      ],
      [
        "UTC",
        -8.999824368917611
      ],
      [
        "Ġtenho",
        -8.99982571263431
      ],
      [
        "izaÃ§Ã£o",
        -9.000011402687473
      ],
      [
        "Ġteve",
        -9.001096402486022
      ],
      [
        "ĠGrande",
        -9.003419235868453
      ],
      [
        "ĠVamos",
        -9.006115371910347
      ],
      [
        "ĠÃºltimo",
        -9.008195407043235
      ],
      [
        "Ġestou",
        -9.011422084880069
      ],
      [
        "Exa",
        -9.013267840480973
      ],
      [
        "Decreto",
        -9.014261295429057
      ],
      [
        "Ġ2008",
        -9.014600614872435
      ],
      [
        "ang",
        -9.014882449761137
      ],
      [
        "2015",
        -9.015066521576948
      ],
      [
        "tou",
        -9.016438605766949
      ],
      [
        "TA",
        -9.016957019877028
      ],
      [
        "ĠHo",
        -9.018114139777875
      ],
      [
        "Ġmedida",
        -9.019087713421838
      ],
      [
        "ĠEx",
        -9.019464115717591
      ],
      [
        "Ġcons",
        -9.019720834042232
      ],
      [
        "Ġ2009",
        -9.020765860967252
      ],
      [
        "Art",
        -9.02144966229009
      ],
      [
        "Ġ2006",
        -9.021853540740558
      ],
      [
        "Ġdesenvolvimento",
        -9.022613136411357
      ],
      [
        "lho",
        -9.025402398817638
      ],
      [
        "Ġquais",
        -9.031979296961914
      ],
      [
        "bar",
        -9.033314613817828
      ],
      [
        "Ġ26",
        -9.033575730770597
      ],
      [
        "ĠBe",
        -9.034534292333577
      ],
      [
        "essa",
        -9.037161774717411
      ],
      [
        "PMDB",
        -9.037175561757891
      ],
      [
        "tica",
        -9.037394128467875
      ],
      [
        "Ġoutra",
        -9.038140874576634
      ],
      [
        "tre",
        -9.039580284170372
      ],
      [
        "ĠSanta",
        -9.040291522801573
      ],
      [
        "Ġconstitucional",
        -9.046627939552597
      ],
      [
        "DE",
        -9.048863250505605
      ],
      [
        "ĠLu",
        -9.049388394418855
      ],
      [
        "Ġnum",
        -9.049807400464086
      ],
      [
        "000",
        -9.05046705748937
      ],
      [
        "ura",
        -9.05090995459275
      ],
      [
        "via",
        -9.050977316379717
      ],
      [
        "Ġsei",
        -9.05168597012804
      ],
      [
        "Ġestar",
        -9.052693678965804
      ],
      [
        "Ġsabe",
        -9.054504471011876
      ],
      [
        "Ã¡rio",
        -9.057618876277209
      ],
      [
        "Ġpessoa",
        -9.063334505900542
      ],
      [
        "ĠmarÃ§o",
        -9.0651596458095
      ],
      [
        "amente",
        -9.065310936169494
      ],
      [
        "uni",
        -9.065805898355256
      ],
      [
        "vam",
        -9.065954028278858
      ],
      [
        "Ġvamos",
        -9.06625503124826
      ],
      [
        "ĠJaneiro",
        -9.069187721624267
      ],
      [
        "ex",
        -9.070820935135858
      ],
      [
        "Ġagosto",
        -9.071160288369182
      ],
      [
        "Ġoutubro",
        -9.071430648449445
      ],
      [
        "cal",
        -9.073401416581955
      ],
      [
        "fl",
        -9.074032354812145
      ],
      [
        "ĠRE",
        -9.074503752912005
      ],
      [
        "ĠMu",
        -9.075006766664282
      ],
      [
        "Ġtexto",
        -9.076668029001269
      ],
      [
        "tada",
        -9.08167195077051
      ],
      [
        "ĠFe",
        -9.08215550420343
      ],
      [
        "ora",
        -9.08331982456231
      ],
      [
        "zar",
        -9.084385610702164
      ],
      [
        "...............",
        -9.086004039747518
      ],
      [
        "Ġ2011",
        -9.086570277211976
      ],
      [
        "Ġcor",
        -9.088549472188568
      ],
      [
        "ĠIII",
        -9.089792940419562
      ],
      [
        "ĠprÃ³prio",
        -9.092482146854262
      ],
      [
        "CI",
        -9.092499599922482
      ],
      [
        "50",
        -9.093792932762229
      ],
      [
        "iro",
        -9.09379704307407
      ],
      [
        "Ġhavia",
        -9.096005577707372
      ],
      [
        "ĠmunicÃŃpio",
        -9.09717118374963
      ],
      [
        "ral",
        -9.097680867702628
      ],
      [
        "tion",
        -9.098181998270054
      ],
      [
        "Ġdessa",
        -9.099419946407336
      ],
      [
        "Ġdis",
        -9.099754062997556
      ],
      [
        "Ġ2010",
        -9.102116117618037
      ],
      [
        "ĠEduardo",
        -9.102469141981228
      ],
      [
        "ĠSt",
        -9.103731052782267
      ],
      [
        "Ġabril",
        -9.104695373660196
      ],
      [
        "ĠTem",
        -9.10542537634694
      ],
      [
        "ras",
        -9.105761114745238
      ],
      [
        "ĠtÃ©cnica",
        -9.10682969786254
      ],
      [
        "ĠNO",
        -9.10758709736402
      ],
      [
        "Ġsemana",
        -9.11197027980456
      ],
      [
        "Ġprincipal",
        -9.112679119211377
      ],
      [
        "Ġjaneiro",
        -9.113837761039584
      ],
      [
        "Ġdesse",
        -9.113946323307209
      ],
      [
        "2013",
        -9.11549365939099
      ],
      [
        "Ġpe",
        -9.115931108631973
      ],
      [
        "habitantes",
        -9.115993256896571
      ],
      [
        "Ġempresas",
        -9.117079474628856
      ],
      [
        "gua",
        -9.118556365879172
      ],
      [
        "://",
        -9.119622746623866
      ],
      [
        "ĠEste",
        -9.121088696945865
      ],
      [
        "cional",
        -9.12348242647696
      ],
      [
        "Ġsim",
        -9.124340546215524
      ],
      [
        "cas",
        -9.124841531738133
      ],
      [
        "ĠGu",
        -9.125209784415643
      ],
      [
        "Ġnovembro",
        -9.1252991671143
      ],
      [
        "14",
        -9.12749432691392
      ],
      [
        "Ġpresidente",
        -9.127661444014098
      ],
      [
        "NE",
        -9.128174456254625
      ],
      [
        "ĠPARECER",
        -9.12843558013542
      ],
      [
        "por",
        -9.129225093447664
      ],
      [
        "Ġ2005",
        -9.1295979650456
      ],
      [
        "Ġvolta",
        -9.12984772252043
      ],
      [
        "ĠtÃŃtulo",
        -9.129999331626824
      ],
      [
        "nÃ§a",
        -9.132410405184846
      ],
      [
        "Ġpai",
        -9.133295896127464
      ],
      [
        "ĠcondiÃ§Ãµes",
        -9.133301481004034
      ],
      [
        "ĠproduÃ§Ã£o",
        -9.13382303510854
      ],
      [
        "val",
        -9.136419871198676
      ],
      [
        "ĠPi",
        -9.137085848190091
      ],
      [
        "nia",
        -9.139286755032844
      ],
      [
        "chi",
        -9.139409971216638
      ],
      [
        "ĠsituaÃ§Ã£o",
        -9.139466044708682
      ],
      [
        "MunicÃŃpio",
        -9.140106248346225
      ],
      [
        "Ġ27",
        -9.14170597291165
      ],
      [
        "Ã",
        -9.144053247223114
      ],
      [
        "ĠseguranÃ§a",
        -9.1442372724328
      ],
      [
        "Ġprecisa",
        -9.145231714314486
      ],
      [
        "NÃ³s",
        -9.145263205664584
      ],
      [
        "ĠSala",
        -9.146287754921786
      ],
      [
        "sÃ£o",
        -9.147510128559404
      ],
      [
        "ĠMi",
        -9.147779378229092
      ],
      [
        "ĠÃ¡gua",
        -9.150022763466746
      ],
      [
        "vol",
        -9.151586372577226
      ],
      [
        "rar",
        -9.151894189505068
      ],
      [
        "ind",
        -9.152467002164096
      ],
      [
        "ĠNe",
        -9.15389945742116
      ],
      [
        "pol",
        -9.154067918576812
      ],
      [
        "RO",
        -9.157319980445756
      ],
      [
        "Ġtenha",
        -9.158136986387165
      ],
      [
        "Ġfalar",
        -9.158393958536658
      ],
      [
        "ĠEstÃ¡",
        -9.159436554910064
      ],
      [
        "ĠMin",
        -9.161039398402838
      ],
      [
        "Ġvista",
        -9.161880502271096
      ],
      [
        "estamos",
        -9.162696743824016
      ],
      [
        "2011",
        -9.16423936398533
      ],
      [
        "missÃ£o",
        -9.16571145641472
      ],
      [
        "Ġtanto",
        -9.1683903286404
      ],
      [
        "ĠEssa",
        -9.168443017032068
      ],
      [
        "ite",
        -9.168616611977338
      ],
      [
        "PSB",
        -9.16995495984919
      ],
      [
        "Ġ29",
        -9.171010185683684
      ],
      [
        "ato",
        -9.171058373713796
      ],
      [
        "Ġfeito",
        -9.174189431149417
      ],
      [
        "ĠHe",
        -9.174292354412216
      ],
      [
        "ĠEmenda",
        -9.176560151827504
      ],
      [
        "port",
        -9.179075776054017
      ],
      [
        "aÃŃ",
        -9.179256395589064
      ],
      [
        "Regimento",
        -9.18012143934739
      ],
      [
        "ense",
        -9.180746787199311
      ],
      [
        "Ġpena",
        -9.181981105513874
      ],
      [
        "ĠEsse",
        -9.183962092999131
      ],
      [
        "tura",
        -9.184751044376254
      ],
      [
        "ĠeducaÃ§Ã£o",
        -9.186025742342403
      ],
      [
        "tivo",
        -9.188250693442509
      ],
      [
        "Ġbi",
        -9.191125351342247
      ],
      [
        "ĠinÃŃcio",
        -9.191897776697031
      ],
      [
        "Ġverdade",
        -9.19210998973211
      ],
      [
        "Ġenquanto",
        -9.19374420188588
      ],
      [
        "ele",
        -9.195701661334343
      ],
      [
        "Ġquatro",
        -9.196218145841591
      ],
      [
        "ĠUma",
        -9.197394855751934
      ],
      [
        "providÃªncias",
        -9.197485325592291
      ],
      [
        "Ġtra",
        -9.197623573951038
      ],
      [
        "Ġponto",
        -9.197791899271204
      ],
      [
        "ador",
        -9.198677412235584
      ],
      [
        "SP",
        -9.198948981181918
      ],
      [
        "pro",
        -9.20095785906374
      ],
      [
        "sessÃ£o",
        -9.20192540130866
      ],
      [
        "Ġobjetivo",
        -9.203646045027332
      ],
      [
        "Ġrespeito",
        -9.20425711961181
      ],
      [
        "bal",
        -9.205208975809404
      ],
      [
        "Ġfevereiro",
        -9.205883839531438
      ],
      [
        "ĠSu",
        -9.206628311144756
      ],
      [
        "Ġtrans",
        -9.208057126482876
      ],
      [
        "Ġlocal",
        -9.208333867133405
      ],
      [
        "feira",
        -9.20893498951908
      ],
      [
        "nado",
        -9.209775881646726
      ],
      [
        "log",
        -9.211835858309726
      ],
      [
        "Ġdentro",
        -9.212204116995082
      ],
      [
        "istas",
        -9.21253297535702
      ],
      [
        "Supremo",
        -9.213088021321893
      ],
      [
        "ÃŃn",
        -9.214052331712477
      ],
      [
        "ĠMaria",
        -9.214284462329411
      ],
      [
        "Ð",
        -9.215957448308725
      ],
      [
        "Ġ31",
        -9.216443733365203
      ],
      [
        "Deputada",
        -9.217594724197928
      ],
      [
        "NI",
        -9.218191281612684
      ],
      [
        "Ġmim",
        -9.218968795767156
      ],
      [
        "ĠBi",
        -9.222197764239771
      ],
      [
        "Ġdemais",
        -9.222443637778404
      ],
      [
        "ĠsÃ©rie",
        -9.223294574044642
      ],
      [
        "Ġhoras",
        -9.22393517597337
      ],
      [
        "Ġcargo",
        -9.224483690438769
      ],
      [
        "Ġfi",
        -9.226623412496195
      ],
      [
        "Ġapoio",
        -9.226789793698076
      ],
      [
        "ĠInterno",
        -9.227476812451355
      ],
      [
        "rada",
        -9.229676563500275
      ],
      [
        "ĠPresidÃªncia",
        -9.231239005789536
      ],
      [
        "ix",
        -9.23368498313339
      ],
      [
        "ĠÃĢ",
        -9.234647188852176
      ],
      [
        "Ġtotal",
        -9.240549184283962
      ],
      [
        "uro",
        -9.241719218897336
      ],
      [
        "criaÃ§Ã£o",
        -9.242822547337235
      ],
      [
        "ĠPÃºblico",
        -9.242917252483528
      ],
      [
        "vin",
        -9.243156353256811
      ],
      [
        "Ġ(\"",
        -9.243366600494022
      ],
      [
        "tico",
        -9.244620059153585
      ],
      [
        "ĠpossÃŃvel",
        -9.244801996757207
      ],
      [
        "Ġ2013",
        -9.245308945611123
      ],
      [
        "Ġfilme",
        -9.24626976816586
      ],
      [
        "ĠBrasÃŃlia",
        -9.247532066812624
      ],
      [
        "25",
        -9.2492505453961
      ],
      [
        "Ġparecer",
        -9.249534459809633
      ],
      [
        "PDT",
        -9.250581569545073
      ],
      [
        "Ġvota",
        -9.252248576259635
      ],
      [
        "ĠUnidos",
        -9.25228319252444
      ],
      [
        "Ġfalta",
        -9.253704769640477
      ],
      [
        "Ġconforme",
        -9.254460537833006
      ],
      [
        "Ġluta",
        -9.254932210624585
      ],
      [
        "ĠTurma",
        -9.256370432242829
      ],
      [
        "serviÃ§os",
        -9.256854117911097
      ],
      [
        "cial",
        -9.257648960269227
      ],
      [
        "Ġproblema",
        -9.257874222929606
      ],
      [
        "Ġnunca",
        -9.25856236206215
      ],
      [
        "Ġespecial",
        -9.259207944276325
      ],
      [
        "ĠConselho",
        -9.260080868873729
      ],
      [
        "Ġcar",
        -9.260307788119167
      ],
      [
        "ĠpaÃŃses",
        -9.262395854329467
      ],
      [
        "Ġjogo",
        -9.26243678608332
      ],
      [
        "CE",
        -9.262581763539927
      ],
      [
        "NA",
        -9.26416399482599
      ],
      [
        "Ġsou",
        -9.26470044282143
      ],
      [
        "Ġ2012",
        -9.265416848379274
      ],
      [
        "len",
        -9.267128058877466
      ],
      [
        "Ġalgo",
        -9.269034439021704
      ],
      [
        "Ġcerca",
        -9.269443335001345
      ],
      [
        "Ġ2004",
        -9.270044066233703
      ],
      [
        "98",
        -9.27015546101725
      ],
      [
        "ĠUniversidade",
        -9.27063856484133
      ],
      [
        "ĠQuando",
        -9.270905856435252
      ],
      [
        "ser",
        -9.271088430155295
      ],
      [
        "cos",
        -9.2745160038527
      ],
      [
        "ĠmÃºsica",
        -9.275579778024335
      ],
      [
        "q",
        -9.276593697706788
      ],
      [
        "ĠsÃ©culo",
        -9.278527457570512
      ],
      [
        "Ġobrigado",
        -9.27868729198566
      ],
      [
        "defesa",
        -9.28023026408636
      ],
      [
        "tÃ³rio",
        -9.281115479726331
      ],
      [
        "ĠSilva",
        -9.283928593877098
      ],
      [
        "tanto",
        -9.285525959342255
      ],
      [
        "Ġequipe",
        -9.285536063109651
      ],
      [
        "ĠEducaÃ§Ã£o",
        -9.286332905974913
      ],
      [
        "cho",
        -9.289286534274405
      ],
      [
        "devido",
        -9.28957732436068
      ],
      [
        "ĠPedro",
        -9.28979784183782
      ],
      [
        "CÃ³digo",
        -9.28990752500035
      ],
      [
        "40",
        -9.290903003043926
      ],
      [
        "ĠSocial",
        -9.290915505505373
      ],
      [
        "Ġfora",
        -9.291213640851929
      ],
      [
        "registro",
        -9.292547472295528
      ],
      [
        "Ġmembro",
        -9.293649956563184
      ],
      [
        "ĠatravÃ©s",
        -9.29369324716814
      ],
      [
        "Ġcinco",
        -9.29397986323638
      ],
      [
        "Ġregimental",
        -9.294458218253665
      ],
      [
        "ban",
        -9.295661391966416
      ],
      [
        "Ġkm",
        -9.29951354716716
      ],
      [
        "Ġsegunda",
        -9.299887091222343
      ],
      [
        "âĢĻ",
        -9.300002016675748
      ],
      [
        "ini",
        -9.301197569209416
      ],
      [
        "ĠGr",
        -9.302165188766024
      ],
      [
        "ĠOliveira",
        -9.30271648221068
      ],
      [
        "PlenÃ¡rio",
        -9.30307822120792
      ],
      [
        "Ġpedido",
        -9.303278996891482
      ],
      [
        "IN",
        -9.304465498896253
      ],
      [
        "ger",
        -9.304888459730211
      ],
      [
        "SE",
        -9.308385295868684
      ],
      [
        "Ġvo",
        -9.310004226976742
      ],
      [
        "Ġrealizada",
        -9.310884318169444
      ],
      [
        "Ġficar",
        -9.312318185963948
      ],
      [
        "ĠTotal",
        -9.313023054430616
      ],
      [
        "CO",
        -9.314094831217504
      ],
      [
        "Ġdireitos",
        -9.314306144975143
      ],
      [
        "ris",
        -9.315219877424196
      ],
      [
        "ĠFo",
        -9.315242442512709
      ],
      [
        "lia",
        -9.315432776852957
      ],
      [
        "Ġmorte",
        -9.315465941868124
      ],
      [
        "Ġpesquisa",
        -9.315709242880994
      ],
      [
        "iti",
        -9.3169118697681
      ],
      [
        "PE",
        -9.317244813705605
      ],
      [
        "bilidade",
        -9.31732077059744
      ],
      [
        "taÃ§Ã£o",
        -9.31744811879602
      ],
      [
        "Ġvem",
        -9.31753220723044
      ],
      [
        "ĠSra",
        -9.318513499432513
      ],
      [
        "posiÃ§Ã£o",
        -9.31888809944921
      ],
      [
        "ĠJÃ¡",
        -9.320085455828307
      ],
      [
        "US",
        -9.321089396140016
      ],
      [
        "ĠCi",
        -9.322821222287232
      ],
      [
        "Ġfazendo",
        -9.323000866523714
      ],
      [
        "ĠCl",
        -9.323069662740574
      ],
      [
        "Ġdeixa",
        -9.324732786020236
      ],
      [
        "ly",
        -9.325429253742596
      ],
      [
        "ĠprÃ³pria",
        -9.32664961987441
      ],
      [
        "2000",
        -9.32675865087554
      ],
      [
        "ĠSi",
        -9.326888769469608
      ],
      [
        "Ġobjeto",
        -9.32794113374221
      ],
      [
        "ĠKa",
        -9.329038650914203
      ],
      [
        "tÃ£o",
        -9.329381904794172
      ],
      [
        "Ġthe",
        -9.329502492174218
      ],
      [
        "Ãī",
        -9.330303212417604
      ],
      [
        "ĠforÃ§a",
        -9.33097929928424
      ],
      [
        "ĠrazÃ£o",
        -9.331108510871452
      ],
      [
        "ĠDia",
        -9.332576767014904
      ],
      [
        "vÃ¡rios",
        -9.335976923795856
      ],
      [
        "ĠDu",
        -9.336248087132072
      ],
      [
        "The",
        -9.336407747572704
      ],
      [
        "rim",
        -9.33676332362381
      ],
      [
        "ĠexercÃŃcio",
        -9.33752974324202
      ],
      [
        "Ġacesso",
        -9.337796580630007
      ],
      [
        "ĠSaÃºde",
        -9.339305940001156
      ],
      [
        "Ġmeses",
        -9.339634100682808
      ],
      [
        "origem",
        -9.339932955946338
      ],
      [
        "Executivo",
        -9.341367208198092
      ],
      [
        "2008",
        -9.341833442730357
      ],
      [
        "tÃ¡",
        -9.342627821460043
      ],
      [
        "var",
        -9.344132274248606
      ],
      [
        "uma",
        -9.344591093329086
      ],
      [
        "tan",
        -9.34674946624126
      ],
      [
        "bel",
        -9.347601335921668
      ],
      [
        "Ġmercado",
        -9.348036686317164
      ],
      [
        "Ġ2003",
        -9.348842358617013
      ],
      [
        "ĠÃ©poca",
        -9.349053539221616
      ],
      [
        "serÃ£o",
        -9.353815192794714
      ],
      [
        "Ġfilho",
        -9.353995423800118
      ],
      [
        "ĠSegundo",
        -9.355965035971758
      ],
      [
        "Ġmal",
        -9.356120773114132
      ],
      [
        "AlÃ©m",
        -9.357393743646956
      ],
      [
        "ĠPer",
        -9.357683805921791
      ],
      [
        "ĠPP",
        -9.35778051380366
      ],
      [
        "ĠFilho",
        -9.360423690408089
      ],
      [
        "iano",
        -9.36090978057147
      ],
      [
        "ĠAgora",
        -9.36123932465329
      ],
      [
        "Ġinclusive",
        -9.36248248919467
      ],
      [
        "Ġ2015",
        -9.36272254774918
      ],
      [
        "PTB",
        -9.362792306480396
      ],
      [
        "97",
        -9.363004542941187
      ],
      [
        "Ġdados",
        -9.363380793215825
      ],
      [
        "eram",
        -9.363559453313597
      ],
      [
        "2007",
        -9.364324225513789
      ],
      [
        "ento",
        -9.3643890240934
      ],
      [
        "Ġatividade",
        -9.36546296381864
      ],
      [
        "Ġgeral",
        -9.366416260245158
      ],
      [
        "ĠEM",
        -9.368528829686984
      ],
      [
        "Ġfosse",
        -9.37088538616839
      ],
      [
        "Ġcara",
        -9.371093974080212
      ],
      [
        "agem",
        -9.371271754459745
      ],
      [
        "Ġfala",
        -9.371630028819576
      ],
      [
        "nho",
        -9.37280308363584
      ],
      [
        "ano",
        -9.37321718405488
      ],
      [
        "radiodifusÃ£o",
        -9.376716329765726
      ],
      [
        "Ġpagamento",
        -9.377741647216752
      ],
      [
        "Ġquase",
        -9.378283297103334
      ],
      [
        "LA",
        -9.378306912526874
      ],
      [
        "Ġqualidade",
        -9.38016829772796
      ],
      [
        "nas",
        -9.380900811109942
      ],
      [
        "Ġlegal",
        -9.38149905162564
      ],
      [
        "Ġobra",
        -9.382039327231167
      ],
      [
        "Ġmar",
        -9.383311115988654
      ],
      [
        "ĠPA",
        -9.38462100230664
      ],
      [
        "STF",
        -9.385343873723352
      ],
      [
        "Ġpelas",
        -9.38594908794911
      ],
      [
        "Ġnecessidade",
        -9.387928741413688
      ],
      [
        "ĠDeus",
        -9.388163175723529
      ],
      [
        "cada",
        -9.389046647747955
      ],
      [
        "28",
        -9.390255373162296
      ],
      [
        "Ġalgumas",
        -9.39066292798297
      ],
      [
        "Ġcrime",
        -9.391585158901036
      ],
      [
        "ĠMan",
        -9.39185410502665
      ],
      [
        "2010",
        -9.393346977187914
      ],
      [
        "ĠMA",
        -9.39742269429058
      ],
      [
        "Ġminutos",
        -9.40016836077992
      ],
      [
        "Ġpoderia",
        -9.401044685993684
      ],
      [
        "Ġboa",
        -9.401497914353468
      ],
      [
        "ĠVI",
        -9.40196295203568
      ],
      [
        "Ġmaioria",
        -9.40233828513799
      ],
      [
        "entes",
        -9.402941300154383
      ],
      [
        "29",
        -9.404740363664706
      ],
      [
        "para",
        -9.404874414293165
      ],
      [
        "Ġ2014",
        -9.405872485285602
      ],
      [
        "95",
        -9.406508239144111
      ],
      [
        ".âĢĿ",
        -9.406941347317948
      ],
      [
        "bol",
        -9.40896110355815
      ],
      [
        "ĠpolÃŃtico",
        -9.41139827490058
      ],
      [
        "ĠCha",
        -9.411673008745192
      ],
      [
        "Ġinteresse",
        -9.412487726576297
      ],
      [
        "Ġesses",
        -9.412736650218958
      ],
      [
        "ĠCiÃªncia",
        -9.413018244794236
      ],
      [
        "Ġpartido",
        -9.413827561426269
      ],
      [
        "Ġdinheiro",
        -9.415198828286012
      ],
      [
        "Ġcerto",
        -9.4163968201535
      ],
      [
        "Ġmodo",
        -9.416910608450198
      ],
      [
        "Ġconhecido",
        -9.417931668739838
      ],
      [
        "Ġres",
        -9.418748400610456
      ],
      [
        "AÃĩÃĥO",
        -9.418866014551543
      ],
      [
        "ĠSua",
        -9.418977984854711
      ],
      [
        "Ġfr",
        -9.41970822779673
      ],
      [
        "Ġpossa",
        -9.422981081330551
      ],
      [
        "ĠVal",
        -9.424998317788024
      ],
      [
        "Ġrequerimento",
        -9.42567176558772
      ],
      [
        "Ġdele",
        -9.42592564526694
      ],
      [
        "ĠSE",
        -9.426502406075803
      ],
      [
        "tem",
        -9.42775237412684
      ],
      [
        "PR",
        -9.428084709702675
      ],
      [
        "aumento",
        -9.428137766590543
      ],
      [
        "Ġci",
        -9.42877739290584
      ],
      [
        "Ġ50",
        -9.429715056598448
      ],
      [
        "ĠHÃ¡",
        -9.430006274774492
      ],
      [
        "iga",
        -9.430168936564485
      ],
      [
        "Ġatual",
        -9.43080661097114
      ],
      [
        "ff",
        -9.431060123981815
      ],
      [
        "Ġpassa",
        -9.431346454411344
      ],
      [
        "Ġnesse",
        -9.431474202859912
      ],
      [
        "altera",
        -9.431811190684558
      ],
      [
        "nÃŃvel",
        -9.43377857239352
      ],
      [
        "99",
        -9.435058057426287
      ],
      [
        "Ġ2016",
        -9.435139509305552
      ],
      [
        "Ġemenda",
        -9.435430481287533
      ],
      [
        "Ġensino",
        -9.435770801958256
      ],
      [
        "Ġautor",
        -9.43616644648982
      ],
      [
        "Ġjunto",
        -9.436868263096772
      ],
      [
        "Ġdeixar",
        -9.437200879492927
      ],
      [
        "ĠNova",
        -9.437424759008753
      ],
      [
        "ĠCr",
        -9.437696303572976
      ],
      [
        "let",
        -9.43780863216604
      ],
      [
        "https",
        -9.439289348226984
      ],
      [
        "agravo",
        -9.439622219715456
      ],
      [
        "Ġnuma",
        -9.440094903093287
      ],
      [
        "Ġnorte",
        -9.440434667193005
      ],
      [
        "til",
        -9.44058017592119
      ],
      [
        "88",
        -9.443066812467292
      ],
      [
        "45",
        -9.44332391121262
      ],
      [
        ");",
        -9.44370490032816
      ],
      [
        "ĠBu",
        -9.444385770551271
      ],
      [
        "Ġreforma",
        -9.44546209136936
      ],
      [
        "ĠprÃ¡tica",
        -9.446917660916316
      ],
      [
        "anÃ¡lise",
        -9.448203716270967
      ],
      [
        "ĠreuniÃ£o",
        -9.44824733812638
      ],
      [
        "ĠÃºltima",
        -9.449680076508868
      ],
      [
        "Ġcampo",
        -9.450721874854985
      ],
      [
        "ĠAssim",
        -9.451514361713258
      ],
      [
        "ago",
        -9.451547297527648
      ],
      [
        "ĠPrograma",
        -9.451797874911158
      ],
      [
        "ĠmÃ£e",
        -9.452842232581515
      ],
      [
        "Ġnoite",
        -9.453146061310076
      ],
      [
        "ĠLula",
        -9.454682549039577
      ],
      [
        "elo",
        -9.455227230112476
      ],
      [
        "tina",
        -9.4556395579501
      ],
      [
        "Ġmuitas",
        -9.455660617497044
      ],
      [
        "ĠParecer",
        -9.457648754998342
      ],
      [
        "ĠLÃŃder",
        -9.458727873511934
      ],
      [
        "somente",
        -9.459287251213263
      ],
      [
        "iva",
        -9.4599332395502
      ],
      [
        "redaÃ§Ã£o",
        -9.46113728298483
      ],
      [
        "entanto",
        -9.461877493048856
      ],
      [
        "96",
        -9.462851155891606
      ],
      [
        "Ġsuperior",
        -9.463911775002604
      ],
      [
        "ĠNi",
        -9.464271577821142
      ],
      [
        "ice",
        -9.46492252723545
      ],
      [
        "ĠLegislativo",
        -9.465648076581257
      ],
      [
        "ĠTi",
        -9.466426995336056
      ],
      [
        "dado",
        -9.467123255099272
      ],
      [
        "Ġregime",
        -9.467294409346724
      ],
      [
        "Ġhomem",
        -9.467677973756256
      ],
      [
        "ĠparticipaÃ§Ã£o",
        -9.468107543968298
      ],
      [
        "ĠPÃºblica",
        -9.46875628825974
      ],
      [
        "ĠBar",
        -9.469009678373393
      ],
      [
        "net",
        -9.470527200476
      ],
      [
        "BA",
        -9.471085732241002
      ],
      [
        "27",
        -9.472195456989455
      ],
      [
        "ĠThe",
        -9.473248256343584
      ],
      [
        "26",
        -9.473711531888
      ],
      [
        "Ġqu",
        -9.475226890100048
      ],
      [
        "Ġproduto",
        -9.47689048187249
      ],
      [
        "Ġcontrole",
        -9.478061516923958
      ],
      [
        "Ġoficial",
        -9.47842555608602
      ],
      [
        "Ġtarde",
        -9.47895791107544
      ],
      [
        "ĠcrÃ©dito",
        -9.479634241578395
      ],
      [
        "Ġlongo",
        -9.479800243119804
      ],
      [
        "ĠPE",
        -9.47994906127662
      ],
      [
        "ĠFernando",
        -9.48145344156666
      ],
      [
        "OR",
        -9.48156227990828
      ],
      [
        "Ġsetor",
        -9.484398779821964
      ],
      [
        "Ġgra",
        -9.484883734105496
      ],
      [
        "Ġgrandes",
        -9.48567139658129
      ],
      [
        "2012",
        -9.486419045026782
      ],
      [
        "Ġ100",
        -9.487282574039904
      ],
      [
        "ĠSÃ³",
        -9.48822959107071
      ],
      [
        "ega",
        -9.488486590394055
      ],
      [
        "ĠAssociaÃ§Ã£o",
        -9.490130160304204
      ],
      [
        "ĠCOM",
        -9.49238061444784
      ],
      [
        "mas",
        -9.492660953740758
      ],
      [
        "ĠRoberto",
        -9.492784004443411
      ],
      [
        "ĠHi",
        -9.492927661788876
      ],
      [
        "ĠWi",
        -9.49301219787244
      ],
      [
        "ĠlegislaÃ§Ã£o",
        -9.49348941234336
      ],
      [
        "2016",
        -9.49481761942828
      ],
      [
        "ĠTrabalho",
        -9.494884833511854
      ],
      [
        "ĠDes",
        -9.495299054431722
      ],
      [
        "ĠPl",
        -9.497498299027551
      ],
      [
        "EIRA",
        -9.49786556125655
      ],
      [
        "Ġacho",
        -9.498135934690376
      ],
      [
        "tando",
        -9.498372064833596
      ],
      [
        "Ġjulgamento",
        -9.499216767446224
      ],
      [
        "Ġsaber",
        -9.501462018188224
      ],
      [
        "emos",
        -9.501936286537443
      ],
      [
        "Ġcontrato",
        -9.503165329028796
      ],
      [
        "Ġpreciso",
        -9.503946157207398
      ],
      [
        "ĠpublicaÃ§Ã£o",
        -9.5040454770791
      ],
      [
        "IO",
        -9.504594059103724
      ],
      [
        "IM",
        -9.50663083884329
      ],
      [
        "Ġfeita",
        -9.50718875558064
      ],
      [
        "passou",
        -9.507843500270134
      ],
      [
        "ĠMaia",
        -9.509164848745378
      ],
      [
        "Ġinc",
        -9.510234688803518
      ],
      [
        "Ġessas",
        -9.511932601953406
      ],
      [
        "Ġbrasileiros",
        -9.512117233437165
      ],
      [
        "Ġformula",
        -9.514212682742444
      ],
      [
        "ĠBem",
        -9.514456749263603
      ],
      [
        "Ġdez",
        -9.515231540641778
      ],
      [
        "relatÃ³rio",
        -9.515282009922796
      ],
      [
        "ĠextraordinÃ¡rio",
        -9.517304145392744
      ],
      [
        "Ġprova",
        -9.5175570931912
      ],
      [
        "vel",
        -9.518601981476554
      ],
      [
        "90",
        -9.519777846518256
      ],
      [
        "NT",
        -9.520054050018633
      ],
      [
        "46",
        -9.521718727583965
      ],
      [
        "vis",
        -9.522236970876577
      ],
      [
        "Ġconstante",
        -9.52555165083597
      ],
      [
        "24",
        -9.52712041158304
      ],
      [
        "Ġenergia",
        -9.52760859593447
      ],
      [
        "conjunto",
        -9.528006782576115
      ],
      [
        "realizaÃ§Ã£o",
        -9.52814766054724
      ],
      [
        "nico",
        -9.528239784052248
      ],
      [
        "mulheres",
        -9.528896597145105
      ],
      [
        "ĠconstruÃ§Ã£o",
        -9.529697495981692
      ],
      [
        "mÃŃnimo",
        -9.53072382946975
      ],
      [
        "ĠCor",
        -9.531617704107749
      ],
      [
        "ĠespÃ©cie",
        -9.532538290658138
      ],
      [
        "ĠPortugal",
        -9.533217999365045
      ],
      [
        "ong",
        -9.534119773032518
      ],
      [
        "Ġpossui",
        -9.53567280760688
      ],
      [
        "Ġhora",
        -9.535834614165577
      ],
      [
        "land",
        -9.535854486415817
      ],
      [
        "her",
        -9.535983989900576
      ],
      [
        "01",
        -9.538947487338358
      ],
      [
        "Ġmaneira",
        -9.539129060078462
      ],
      [
        "2014",
        -9.53921428768092
      ],
      [
        "ĠMarco",
        -9.5398109894329
      ],
      [
        "ĠcrianÃ§as",
        -9.539839584532412
      ],
      [
        "23",
        -9.540734184319282
      ],
      [
        "ĠÃ¡lbum",
        -9.54088365242388
      ],
      [
        "ĠdiscussÃ£o",
        -9.54216354796612
      ],
      [
        "poderÃ¡",
        -9.54362864159342
      ],
      [
        "vÃ¡rias",
        -9.5436587874252
      ],
      [
        "ĠSan",
        -9.543890242321552
      ],
      [
        "economia",
        -9.544089981369558
      ],
      [
        "ĠediÃ§Ã£o",
        -9.54447096770462
      ],
      [
        "Ġdebate",
        -9.544756235272876
      ],
      [
        "Ġparece",
        -9.544838732736412
      ],
      [
        "tec",
        -9.545070014939938
      ],
      [
        "ologia",
        -9.545240049314202
      ],
      [
        "ĠnecessÃ¡rio",
        -9.54599211180062
      ],
      [
        "Ġtal",
        -9.54612328581544
      ],
      [
        "ĠMinas",
        -9.546295023514098
      ],
      [
        "Partido",
        -9.546508935189976
      ],
      [
        "lan",
        -9.546942819993005
      ],
      [
        "ĠBr",
        -9.547172925708828
      ],
      [
        "ĠMesa",
        -9.547876775231304
      ],
      [
        "Ġvir",
        -9.547987926593173
      ],
      [
        "Ġfrente",
        -9.548279520123288
      ],
      [
        "ĠDEM",
        -9.549519438847016
      ],
      [
        "Ġ54",
        -9.549970692428552
      ],
      [
        "Ġassunto",
        -9.550450077046978
      ],
      [
        "Ġprincipalmente",
        -9.550501087071057
      ],
      [
        "Ġchamado",
        -9.55110043851802
      ],
      [
        "possibilidade",
        -9.55181933942469
      ],
      [
        "legislativa",
        -9.553347166706056
      ],
      [
        "Ġpar",
        -9.553570185759424
      ],
      [
        "ĠEstou",
        -9.554124285465416
      ],
      [
        "â",
        -9.554243807019263
      ],
      [
        "Ġlinha",
        -9.55483217420914
      ],
      [
        "IA",
        -9.55611723253312
      ],
      [
        "ĠRi",
        -9.55642235011982
      ],
      [
        "Í",
        -9.556715192545484
      ],
      [
        "ĠDesenvolvimento",
        -9.55744163128206
      ],
      [
        "ĠTr",
        -9.557822337741536
      ],
      [
        "ĠespaÃ§o",
        -9.558119955755842
      ],
      [
        "Ġpapel",
        -9.55826173712688
      ],
      [
        "Ġfica",
        -9.55959177909604
      ],
      [
        "Ġforte",
        -9.5595949672549
      ],
      [
        "Ġmuitos",
        -9.560436984999264
      ],
      [
        "sim",
        -9.560481123861615
      ],
      [
        "Ġestrutura",
        -9.561648907403113
      ],
      [
        "ĠFrancisco",
        -9.562053447438732
      ],
      [
        "ĠNorte",
        -9.562060655986446
      ],
      [
        "ĠAb",
        -9.562379598634452
      ],
      [
        "ĠvÃ£o",
        -9.56273592682596
      ],
      [
        "Ġcorpo",
        -9.563043888247844
      ],
      [
        "\")",
        -9.563055221715771
      ],
      [
        "ĠCO",
        -9.564967719528742
      ],
      [
        "Ġ40",
        -9.565565140116448
      ],
      [
        "presenÃ§a",
        -9.567851325375251
      ],
      [
        "ĠDJ",
        -9.5682270616463
      ],
      [
        "reais",
        -9.568431894476438
      ],
      [
        "ĠPode",
        -9.571212960147038
      ],
      [
        "Ġreal",
        -9.571867150823756
      ],
      [
        "ĠSP",
        -9.572055460313797
      ],
      [
        "Ġcapital",
        -9.57209649803469
      ],
      [
        "Ġapresenta",
        -9.572272888455243
      ],
      [
        "Ġhouve",
        -9.572662088759513
      ],
      [
        "Ġ32",
        -9.572833083527836
      ],
      [
        "Ġ33",
        -9.573054470249934
      ],
      [
        "ĠIV",
        -9.57378483466438
      ],
      [
        "Ġproblemas",
        -9.574073684154284
      ],
      [
        "Ġterra",
        -9.574514571715593
      ],
      [
        "ĠAG",
        -9.575918312416407
      ],
      [
        "Ġbanda",
        -9.58055436421092
      ],
      [
        "atividades",
        -9.580595293801922
      ],
      [
        "ell",
        -9.58145381332004
      ],
      [
        "concessÃ£o",
        -9.581659444113567
      ],
      [
        "dÃ©cada",
        -9.58187093263017
      ],
      [
        "zada",
        -9.581937703143495
      ],
      [
        "#",
        -9.582501211738183
      ],
      [
        "MunicÃŃpios",
        -9.585133224248866
      ],
      [
        "Ġconhecimento",
        -9.585206726294418
      ],
      [
        "Ġlhe",
        -9.585353537692622
      ],
      [
        "Ġprofessor",
        -9.585643477931972
      ],
      [
        "Ġalguma",
        -9.586291437037747
      ],
      [
        "prÃ³ximo",
        -9.58691096948558
      ],
      [
        "aprovado",
        -9.58747698826007
      ],
      [
        "rin",
        -9.58770536743896
      ],
      [
        "Ġposso",
        -9.588136395718733
      ],
      [
        "sejam",
        -9.58863547365965
      ],
      [
        "cado",
        -9.588775621407663
      ],
      [
        "tel",
        -9.589052674327808
      ],
      [
        "execuÃ§Ã£o",
        -9.58938864156487
      ],
      [
        "zado",
        -9.5898439934772
      ],
      [
        "Ġencontra",
        -9.590818448677776
      ],
      [
        "Ġbusca",
        -9.591783006496918
      ],
      [
        "Ġembora",
        -9.594747424656386
      ],
      [
        "press",
        -9.594885231493691
      ],
      [
        "Ġcoisas",
        -9.594994632826364
      ],
      [
        "ĠRIC",
        -9.595164771940867
      ],
      [
        "responsabilidade",
        -9.597223409599955
      ],
      [
        "Ġlivro",
        -9.599088953309217
      ],
      [
        "Ġoportunidade",
        -9.59922569423007
      ],
      [
        "Ġpassado",
        -9.599399287322685
      ],
      [
        "Ġdeveria",
        -9.599541529627087
      ],
      [
        "COMISSÃĥO",
        -9.600809257099987
      ],
      [
        "Ġ2017",
        -9.600880644876227
      ],
      [
        "ĠCam",
        -9.601356052516094
      ],
      [
        "ment",
        -9.602886880756808
      ],
      [
        "ĠFl",
        -9.606830707862876
      ],
      [
        "ĠcompetÃªncia",
        -9.60762124050492
      ],
      [
        "Ġ:)",
        -9.607727905843914
      ],
      [
        "ĠfunÃ§Ã£o",
        -9.607771643899142
      ],
      [
        "FI",
        -9.607862060496092
      ],
      [
        "Ġalgum",
        -9.609838081292905
      ],
      [
        "ĠimportÃ¢ncia",
        -9.611028578354269
      ],
      [
        "Ã¡ria",
        -9.611139465528607
      ],
      [
        "dade",
        -9.611484995640913
      ],
      [
        "ĠmÃ©dia",
        -9.612460551875992
      ],
      [
        "ĠApÃ³s",
        -9.613448501741548
      ],
      [
        "Distrito",
        -9.613500008749718
      ],
      [
        "ĠSeu",
        -9.615283953905566
      ],
      [
        "enti",
        -9.616438186773063
      ],
      [
        "previsto",
        -9.618208965595452
      ],
      [
        "ĠAntonio",
        -9.618223109753144
      ],
      [
        "RECURSO",
        -9.618327611510988
      ],
      [
        "Defesa",
        -9.619827256223092
      ],
      [
        "ĠCivil",
        -9.621331630406376
      ],
      [
        "Ġmulher",
        -9.621721922342942
      ],
      [
        "Ġrepresenta",
        -9.621823759095545
      ],
      [
        "disposto",
        -9.621900440576267
      ],
      [
        "gado",
        -9.62220136221721
      ],
      [
        "ĠEst",
        -9.623496622494466
      ],
      [
        "ĠCol",
        -9.62354236544084
      ],
      [
        "&",
        -9.62421014759894
      ],
      [
        "22",
        -9.624549542970437
      ],
      [
        "Ġajuda",
        -9.62502925426602
      ],
      [
        "zer",
        -9.62697666943414
      ],
      [
        "*",
        -9.627574111619992
      ],
      [
        "portanto",
        -9.627603417607869
      ],
      [
        "Ġlista",
        -9.629092883085235
      ],
      [
        "):",
        -9.629121978877322
      ],
      [
        "Ģ",
        -9.63061598959711
      ],
      [
        "ĠBen",
        -9.63076175213616
      ],
      [
        "gan",
        -9.631600743824317
      ],
      [
        "cÃ³rdÃ£o",
        -9.63207852750026
      ],
      [
        "discussÃ£o",
        -9.632610056910616
      ],
      [
        "nada",
        -9.633543767893585
      ],
      [
        "sociais",
        -9.634300880004188
      ],
      [
        "ĠEMENDA",
        -9.634528702001935
      ],
      [
        "Ġtema",
        -9.636266816639363
      ],
      [
        "Presidente",
        -9.636818644844032
      ],
      [
        "Ġgente",
        -9.638290583949404
      ],
      [
        "Ġmodelo",
        -9.63864223837304
      ],
      [
        "Ġqueria",
        -9.63877127171494
      ],
      [
        "Ġescola",
        -9.63923329742978
      ],
      [
        "Geral",
        -9.640270907848487
      ],
      [
        "ĠTecnologia",
        -9.64097858231958
      ],
      [
        "Ġali",
        -9.64167251208732
      ],
      [
        "Â",
        -9.642472475275166
      ],
      [
        "Ġ1990",
        -9.64481631564757
      ],
      [
        "Ġpessoal",
        -9.646607477983382
      ],
      [
        "Ġ2020",
        -9.646862356115628
      ],
      [
        "ĠmudanÃ§a",
        -9.64717560727739
      ],
      [
        "Ġsolicita",
        -9.647917891640692
      ],
      [
        "risco",
        -9.648311451281478
      ],
      [
        "mÃªs",
        -9.648614851274411
      ],
      [
        "GO",
        -9.648622534238324
      ],
      [
        "laÃ§Ã£o",
        -9.649042914808298
      ],
      [
        "rÃ£o",
        -9.64978304924464
      ],
      [
        "Ġdar",
        -9.65049617432592
      ],
      [
        "ĠPrimeira",
        -9.65320389283718
      ],
      [
        "Ġbo",
        -9.653270856502823
      ],
      [
        "Ġ2002",
        -9.654036673540473
      ],
      [
        "exame",
        -9.654217600562935
      ],
      [
        "Â²",
        -9.654492006744862
      ],
      [
        "iniciativa",
        -9.65451805544623
      ],
      [
        "ĠSal",
        -9.6548798677549
      ],
      [
        "Ġlogo",
        -9.654941150096777
      ],
      [
        "Ġvia",
        -9.65519547541925
      ],
      [
        "Ġmarca",
        -9.655499263805542
      ],
      [
        "ĠComunicaÃ§Ã£o",
        -9.655572364530869
      ],
      [
        "DEM",
        -9.655885386992184
      ],
      [
        "podemos",
        -9.6559767374105
      ],
      [
        "ĠinglÃªs",
        -9.6569054674848
      ],
      [
        "ĠPar",
        -9.658188861457996
      ],
      [
        "ServiÃ§o",
        -9.65820914317257
      ],
      [
        "ĠVice",
        -9.659010540949996
      ],
      [
        "ĠBrasileiro",
        -9.659983545681072
      ],
      [
        "Ġnenhum",
        -9.660677280655149
      ],
      [
        "Ġentra",
        -9.660843343126793
      ],
      [
        "2005",
        -9.661208383818073
      ],
      [
        "Ġ2019",
        -9.661306737534304
      ],
      [
        "ias",
        -9.661427642378442
      ],
      [
        "Campeonato",
        -9.662015087899633
      ],
      [
        "Ġficou",
        -9.66510726429516
      ],
      [
        "prevista",
        -9.665857793919075
      ],
      [
        "nessa",
        -9.666840136449371
      ],
      [
        "ĠREQUERIMENTO",
        -9.66685924536354
      ],
      [
        "carreira",
        -9.667889705931804
      ],
      [
        "isto",
        -9.667897766623696
      ],
      [
        "ã",
        -9.668628153052218
      ],
      [
        "cionais",
        -9.66917016050309
      ],
      [
        "ĠpÃ¡gina",
        -9.669824932554524
      ],
      [
        "ĠCorte",
        -9.669897419919984
      ],
      [
        "Ã¡veis",
        -9.66997842748425
      ],
      [
        "membros",
        -9.67078425751376
      ],
      [
        "mÃ©rito",
        -9.670976295495429
      ],
      [
        "ĠObrigado",
        -9.6715200987182
      ],
      [
        "ley",
        -9.672361261071226
      ],
      [
        "ĠprincÃŃpio",
        -9.672778676859268
      ],
      [
        "Ġefeito",
        -9.67413320296772
      ],
      [
        "ĠGi",
        -9.67654365605491
      ],
      [
        "Ġprofissional",
        -9.676774487303277
      ],
      [
        "Ġtemporada",
        -9.678508850134586
      ],
      [
        "ĠInstituto",
        -9.678912833451324
      ],
      [
        "Ġexiste",
        -9.680407452324475
      ],
      [
        "gem",
        -9.681147552198569
      ],
      [
        "jurÃŃdica",
        -9.6825096936559
      ],
      [
        "bilhÃµes",
        -9.682933295920316
      ],
      [
        "ĠCan",
        -9.682991667095587
      ],
      [
        "discurso",
        -9.683253704854634
      ],
      [
        "Ġsenhor",
        -9.683386662299988
      ],
      [
        "ĠAmÃ©rica",
        -9.6836606980282
      ],
      [
        "Ġanterior",
        -9.685344595131513
      ],
      [
        "ĠExcelÃªncia",
        -9.686118750694607
      ],
      [
        "nica",
        -9.686415885131238
      ],
      [
        "80",
        -9.686480842032708
      ],
      [
        "ĠCosta",
        -9.687061856387912
      ],
      [
        "Ã¢mbito",
        -9.68795668433901
      ],
      [
        "TambÃ©m",
        -9.688321762142794
      ],
      [
        "Ġvigor",
        -9.689258787929605
      ],
      [
        "tornou",
        -9.690036754580705
      ],
      [
        "60",
        -9.69016111305383
      ],
      [
        "requer",
        -9.690760876511948
      ],
      [
        "obras",
        -9.690872685155988
      ],
      [
        "Ġ2000",
        -9.691467014770137
      ],
      [
        "2019",
        -9.691899569560965
      ],
      [
        "ĠCunha",
        -9.693241159597887
      ],
      [
        "Ġrei",
        -9.69352897459098
      ],
      [
        "ĠCh",
        -9.693645311144968
      ],
      [
        "Ġcampanha",
        -9.693645354750354
      ],
      [
        "posiÃ§Ãµes",
        -9.69403000906438
      ],
      [
        "mandato",
        -9.694199083003962
      ],
      [
        "Ġpauta",
        -9.694585633030384
      ],
      [
        "serem",
        -9.695315580751252
      ],
      [
        "ĠRel",
        -9.695405048602002
      ],
      [
        "ĠRequerimento",
        -9.695540725467795
      ],
      [
        "Ġchegar",
        -9.696094702640131
      ],
      [
        "Ġcerteza",
        -9.698556673264225
      ],
      [
        "comeÃ§ou",
        -9.699552716570134
      ],
      [
        "ĠquÃª",
        -9.700443011774922
      ],
      [
        "Ġtransporte",
        -9.700819033200691
      ],
      [
        "MENTO",
        -9.700867939288472
      ],
      [
        "Ġteria",
        -9.701036095314512
      ],
      [
        "tic",
        -9.701059883374812
      ],
      [
        "ĠCON",
        -9.701193498078538
      ],
      [
        "Ġtitular",
        -9.70319144169347
      ],
      [
        "Depois",
        -9.703283302368323
      ],
      [
        "Ġsuper",
        -9.70367448259571
      ],
      [
        "Ġprojetos",
        -9.705247424814726
      ],
      [
        "vida",
        -9.706260274234609
      ],
      [
        "ÃļLTI",
        -9.706641891949712
      ],
      [
        "Ġfederal",
        -9.707534758911052
      ],
      [
        "Ġhaver",
        -9.70760125178817
      ],
      [
        "Ġresultado",
        -9.70771527115472
      ],
      [
        "Ġalta",
        -9.707774239233768
      ],
      [
        "Ġoriginal",
        -9.707803910769137
      ],
      [
        "Ġcentro",
        -9.708671493343775
      ],
      [
        "Ġinfra",
        -9.708696647249171
      ],
      [
        "Ġsede",
        -9.708754232241974
      ],
      [
        "ĠGuerra",
        -9.708847950427328
      ],
      [
        "cap",
        -9.70903910342915
      ],
      [
        "valores",
        -9.709539594546344
      ],
      [
        "econÃ´mica",
        -9.710118998700125
      ],
      [
        "ĠaplicaÃ§Ã£o",
        -9.710967990142477
      ],
      [
        "ĠalguÃ©m",
        -9.711007004764912
      ],
      [
        "Ġ2001",
        -9.711630923655996
      ],
      [
        "Ã¼",
        -9.712757042437111
      ],
      [
        "Ġrealizado",
        -9.713255232767184
      ],
      [
        "Ã§",
        -9.713938320864616
      ],
      [
        "ĠterritÃ³rio",
        -9.71415735773082
      ],
      [
        "iana",
        -9.715127937631284
      ],
      [
        "Ġprincipais",
        -9.715717617656765
      ],
      [
        "enda",
        -9.71571843120757
      ],
      [
        "Ġaquele",
        -9.71615122003975
      ],
      [
        "ĠCopa",
        -9.716386474911005
      ],
      [
        "Ġfo",
        -9.716503615716867
      ],
      [
        "ĠSecretaria",
        -9.717653407313986
      ],
      [
        "Ġsal",
        -9.718033569406025
      ],
      [
        "pÃ©",
        -9.718311575187258
      ],
      [
        "ego",
        -9.71957454676774
      ],
      [
        "ÃĩÃķES",
        -9.720944419867152
      ],
      [
        "ĠRos",
        -9.721141470010174
      ],
      [
        "Ġmovimento",
        -9.721460602863267
      ],
      [
        "ĠRu",
        -9.721916190630608
      ],
      [
        "CN",
        -9.723055470533856
      ],
      [
        "ilha",
        -9.72323439340236
      ],
      [
        "Ã³rgÃ£o",
        -9.723774676004313
      ],
      [
        "Î",
        -9.723934665598703
      ],
      [
        "CURSO",
        -9.724467268607796
      ],
      [
        "Ġclaro",
        -9.725072941949524
      ],
      [
        "ĠEspecial",
        -9.725575821572995
      ],
      [
        "nÃ£o",
        -9.72591389878407
      ],
      [
        "Ġrenda",
        -9.726316215733604
      ],
      [
        "comunicaÃ§Ã£o",
        -9.726811928511037
      ],
      [
        "Ġnobre",
        -9.726973297379358
      ],
      [
        "Ġautos",
        -9.727193273697187
      ],
      [
        "Ġocorre",
        -9.72751754097592
      ],
      [
        "Ġperde",
        -9.727575117542424
      ],
      [
        "2017",
        -9.728927195111629
      ],
      [
        "ĠinformaÃ§Ã£o",
        -9.728993405447309
      ],
      [
        "ĠTV",
        -9.729143302496595
      ],
      [
        "van",
        -9.729185092953646
      ],
      [
        "Ġideia",
        -9.730091926721627
      ],
      [
        "Ġconsiderado",
        -9.732504830864558
      ],
      [
        "Ġcrise",
        -9.732710818869668
      ],
      [
        "Ġauto",
        -9.733345660530638
      ],
      [
        "21",
        -9.734249736437908
      ],
      [
        "Ġnatureza",
        -9.735730474079851
      ],
      [
        "Ġrefere",
        -9.73579739455589
      ],
      [
        "deverÃ¡",
        -9.73832304065584
      ],
      [
        "Ġpontos",
        -9.738391016544655
      ],
      [
        "apreciaÃ§Ã£o",
        -9.739101044142211
      ],
      [
        "Ġturno",
        -9.740858348031749
      ],
      [
        "..............",
        -9.74113480402173
      ],
      [
        "Ġfase",
        -9.7411357250524
      ],
      [
        "culo",
        -9.74133829324536
      ],
      [
        "Ġins",
        -9.74306687873922
      ],
      [
        "ĠTra",
        -9.74670370670082
      ],
      [
        "Ġlivre",
        -9.7471960391845
      ],
      [
        "ĠatenÃ§Ã£o",
        -9.747332850860756
      ],
      [
        "ĠMIN",
        -9.747742307654155
      ],
      [
        "ĠQuero",
        -9.74952116523649
      ],
      [
        "provimento",
        -9.752338547363514
      ],
      [
        "ĠQuem",
        -9.753985835788884
      ],
      [
        "dora",
        -9.75409545651077
      ],
      [
        "Ordem",
        -9.754454444976172
      ],
      [
        "ĠRicardo",
        -9.7547392779232
      ],
      [
        "ĠEles",
        -9.755383147561762
      ],
      [
        "chegou",
        -9.756663475577309
      ],
      [
        "ĠPI",
        -9.756918342156716
      ],
      [
        "ĠPr",
        -9.75707329917508
      ],
      [
        "Ġ1998",
        -9.760562361953092
      ],
      [
        "70",
        -9.76067301943078
      ],
      [
        "plan",
        -9.760696579328034
      ],
      [
        "ĠSistema",
        -9.761672319158013
      ],
      [
        "Ġautoria",
        -9.762447293284284
      ],
      [
        "ĠAlves",
        -9.762534500339523
      ],
      [
        "essÃµes",
        -9.762666107488908
      ],
      [
        "Ġsucesso",
        -9.764175873337775
      ],
      [
        "ĠSanto",
        -9.764285402765676
      ],
      [
        "Ġdiferentes",
        -9.765365202015992
      ],
      [
        "Ġafirma",
        -9.766049091085774
      ],
      [
        "Ġcaput",
        -9.766205070286626
      ],
      [
        "ĠHenrique",
        -9.76731568218495
      ],
      [
        "existÃªncia",
        -9.767435067047824
      ],
      [
        "Ġ2018",
        -9.76852099715371
      ],
      [
        "ĠMINISTR",
        -9.76933966707264
      ],
      [
        "ĠAGRAV",
        -9.769357112089532
      ],
      [
        "Ġ60",
        -9.769400293329724
      ],
      [
        "Ġguerra",
        -9.769648491116572
      ],
      [
        "Ġrede",
        -9.769727159222205
      ],
      [
        "ĠSub",
        -9.771144060457836
      ],
      [
        "Ġrel",
        -9.771516113307475
      ],
      [
        "ĠOh",
        -9.773394442830966
      ],
      [
        "Ġpenal",
        -9.773461972628676
      ],
      [
        "ĠPereira",
        -9.773465779815458
      ],
      [
        "Ġcivil",
        -9.777497694361877
      ],
      [
        "Ġcriar",
        -9.778790196484463
      ],
      [
        "ĠSantos",
        -9.780216920756052
      ],
      [
        "Ġreco",
        -9.780606085900834
      ],
      [
        "idades",
        -9.783105625892585
      ],
      [
        "ĠÃºnica",
        -9.783605807575029
      ],
      [
        "Ġmenor",
        -9.784022839391405
      ],
      [
        "ĠformaÃ§Ã£o",
        -9.784034394156787
      ],
      [
        "ĠDias",
        -9.784119991887373
      ],
      [
        "remos",
        -9.78448719566424
      ],
      [
        "ĠEl",
        -9.784960214238234
      ],
      [
        "rica",
        -9.78524743410566
      ],
      [
        "acima",
        -9.785409626511749
      ],
      [
        "Cidadania",
        -9.785701318599966
      ],
      [
        "Ġseis",
        -9.786108961506509
      ],
      [
        "ara",
        -9.786525762393454
      ],
      [
        "dar",
        -9.787123225813236
      ],
      [
        "Ġfinanceira",
        -9.788269644480868
      ],
      [
        "REG",
        -9.788755361399
      ],
      [
        "ĠDireito",
        -9.789987779460612
      ],
      [
        "ĠMais",
        -9.790000097652968
      ],
      [
        "PolÃŃcia",
        -9.790060067799146
      ],
      [
        "Ġfiscal",
        -9.79041096334441
      ],
      [
        "Ġref",
        -9.790936487904524
      ],
      [
        "Ġsol",
        -9.791118305847093
      ],
      [
        "cujo",
        -9.791768310738972
      ],
      [
        "Ãį",
        -9.7930106028654
      ],
      [
        "Ġinternacional",
        -9.79303541638202
      ],
      [
        "Ġplano",
        -9.793402359634385
      ],
      [
        "iri",
        -9.793567717639426
      ],
      [
        "Ã³rgÃ£os",
        -9.794377880031735
      ],
      [
        "ĥ",
        -9.794484109866673
      ],
      [
        "Ġvisita",
        -9.79530877395209
      ],
      [
        "Ĥ",
        -9.795784837667435
      ],
      [
        "pensado",
        -9.798833163588036
      ],
      [
        "Ġcomunidade",
        -9.799042836912571
      ],
      [
        "Ġchega",
        -9.799164865032004
      ],
      [
        "trabalhadores",
        -9.80031953995572
      ],
      [
        "ĠGra",
        -9.800385806216038
      ],
      [
        "2006",
        -9.800512403872403
      ],
      [
        "Ġsignifica",
        -9.800522355244144
      ],
      [
        "gestÃ£o",
        -9.80158698586612
      ],
      [
        "bert",
        -9.801721139575328
      ],
      [
        "ĠPorto",
        -9.802708659346177
      ],
      [
        "Medida",
        -9.803850880970298
      ],
      [
        "Ġ35",
        -9.804994277741438
      ],
      [
        "Ġnota",
        -9.80531530192519
      ],
      [
        "ĠSou",
        -9.805913810951951
      ],
      [
        "ĠVa",
        -9.806240748769548
      ],
      [
        "ĠmÃ£o",
        -9.806840716842606
      ],
      [
        "ĠBl",
        -9.806871195592343
      ],
      [
        "ĠreferÃªncia",
        -9.80731860417802
      ],
      [
        "destaque",
        -9.808148965888105
      ],
      [
        "ting",
        -9.808766354392985
      ],
      [
        "tados",
        -9.809000435085547
      ],
      [
        "ĠCE",
        -9.8095604267918
      ],
      [
        "Ġpri",
        -9.809569823371234
      ],
      [
        "ĠDilma",
        -9.809748087961571
      ],
      [
        "mediante",
        -9.80993523861332
      ],
      [
        "Ġautoriza",
        -9.811486228118545
      ],
      [
        "ĠParlamentar",
        -9.811803819388192
      ],
      [
        "ĠposiÃ§Ã£o",
        -9.812753677941672
      ],
      [
        "ĠVou",
        -9.814241391641293
      ],
      [
        "Ġcaminho",
        -9.814893278431098
      ],
      [
        "realmente",
        -9.81511947676204
      ],
      [
        "dura",
        -9.815271731165277
      ],
      [
        "ĠirmÃ£o",
        -9.815367530375486
      ],
      [
        "ĠinstituiÃ§Ãµes",
        -9.815509382309012
      ],
      [
        "leg",
        -9.81740457066343
      ],
      [
        "recebeu",
        -9.818221120423418
      ],
      [
        "ĠHer",
        -9.818430054260668
      ],
      [
        "ĠBanco",
        -9.81844691989602
      ],
      [
        "ĠFu",
        -9.819556736973327
      ],
      [
        "Ġatendimento",
        -9.819929987928267
      ],
      [
        "PP",
        -9.820758692518815
      ],
      [
        "contrÃ¡rio",
        -9.8208863151886
      ],
      [
        "parÃ¡grafo",
        -9.822544959400428
      ],
      [
        "cuja",
        -9.8236402276376
      ],
      [
        "Ġpequeno",
        -9.8236783377909
      ],
      [
        "ĠPSD",
        -9.82659403547523
      ],
      [
        "ĠMato",
        -9.827384391608565
      ],
      [
        "ĠEra",
        -9.82803032588365
      ],
      [
        "ĠNesse",
        -9.829374355280445
      ],
      [
        "IDADE",
        -9.829517345934036
      ],
      [
        "ĠSol",
        -9.83043570486348
      ],
      [
        "Ġporta",
        -9.83069256247777
      ],
      [
        "ĠDis",
        -9.83173930900514
      ],
      [
        "category",
        -9.83218959758104
      ],
      [
        "ĠHistÃ³ria",
        -9.832350204618209
      ],
      [
        "Ġsul",
        -9.832353702787245
      ],
      [
        "Ġdesses",
        -9.833398409207245
      ],
      [
        "ĠEntre",
        -9.833650212638457
      ],
      [
        "eve",
        -9.83479244429104
      ],
      [
        "ĠMeu",
        -9.836031369603768
      ],
      [
        "gio",
        -9.83636109743147
      ],
      [
        "Ġclube",
        -9.836626394830208
      ],
      [
        "ĠNos",
        -9.836857265567003
      ],
      [
        "Ġresposta",
        -9.837548273386162
      ],
      [
        "har",
        -9.837770695909123
      ],
      [
        "Ġmanter",
        -9.838511210814758
      ],
      [
        "Ġeleito",
        -9.839131558907145
      ],
      [
        "Ġcultura",
        -9.839267465640978
      ],
      [
        "ĠlanÃ§ado",
        -9.84036949020688
      ],
      [
        "critÃ©rio",
        -9.84109581492852
      ],
      [
        "ĠMarcelo",
        -9.84237831745493
      ],
      [
        "violÃªncia",
        -9.842911614657512
      ],
      [
        "ĠFundo",
        -9.844914515843524
      ],
      [
        "Gerais",
        -9.844954300583758
      ],
      [
        "ĠHu",
        -9.845170647249224
      ],
      [
        "tÃ³ria",
        -9.84536352394163
      ],
      [
        "Durante",
        -9.84633155502194
      ],
      [
        "Ġcapacidade",
        -9.847592840941283
      ],
      [
        "Ġmeta",
        -9.848078370381732
      ],
      [
        "Ġliberdade",
        -9.850150757435468
      ],
      [
        "lei",
        -9.850483517873124
      ],
      [
        "Ġreuni",
        -9.85163316436301
      ],
      [
        "preÃ§o",
        -9.85246964371089
      ],
      [
        "PAULO",
        -9.852473479883928
      ],
      [
        "Ġcriado",
        -9.85270704971772
      ],
      [
        "ĠRosa",
        -9.852891913535368
      ],
      [
        "ĠADV",
        -9.853160126606909
      ],
      [
        "ĠRÃ¡dio",
        -9.853564153866426
      ],
      [
        "Ġdela",
        -9.853960628710714
      ],
      [
        "Ġnovos",
        -9.854309851168306
      ],
      [
        "homens",
        -9.855924581373564
      ],
      [
        "ĠPRO",
        -9.856352364206378
      ],
      [
        "ĠBahia",
        -9.85685884294807
      ],
      [
        "ĠBR",
        -9.857106845280786
      ],
      [
        "Ġdisputa",
        -9.85919906399656
      ],
      [
        "Ġagr",
        -9.859426624638456
      ],
      [
        "ĠBrasileira",
        -9.859462825483265
      ],
      [
        "ty",
        -9.859965023846634
      ],
      [
        "Ġdiversos",
        -9.86079615479329
      ],
      [
        "Ġexecutar",
        -9.861462679239269
      ],
      [
        "ĠJorge",
        -9.862430028743654
      ],
      [
        "proteÃ§Ã£o",
        -9.863143612070193
      ],
      [
        "cido",
        -9.863180018401826
      ],
      [
        "ÃŃstica",
        -9.863225301421211
      ],
      [
        "ĠresponsÃ¡vel",
        -9.864406617384825
      ],
      [
        "Ġterceiro",
        -9.864439868571116
      ],
      [
        "Ġmaterial",
        -9.864627448605598
      ],
      [
        "Ġvotar",
        -9.864817065811469
      ],
      [
        "rico",
        -9.865751341456004
      ],
      [
        "ĠLima",
        -9.865931408577303
      ],
      [
        "servidores",
        -9.866309826555964
      ],
      [
        "RS",
        -9.867924231329138
      ],
      [
        "ĠSENHOR",
        -9.868265498106874
      ],
      [
        "Ġincluindo",
        -9.868979694913069
      ],
      [
        "pressÃ£o",
        -9.869329928537471
      ],
      [
        "Ġchamada",
        -9.869612798239404
      ],
      [
        "Ġambiente",
        -9.869644610545786
      ],
      [
        "ĠAg",
        -9.869808154394931
      ],
      [
        "mentos",
        -9.870031377858355
      ],
      [
        "mir",
        -9.87008412660601
      ],
      [
        "ĠMundial",
        -9.87067493993112
      ],
      [
        "ProvisÃ³ria",
        -9.871959051789492
      ],
      [
        "maiores",
        -9.871990702087478
      ],
      [
        "Ġestudo",
        -9.872330595316654
      ],
      [
        "ĠAdministraÃ§Ã£o",
        -9.873730064146285
      ],
      [
        "wa",
        -9.874290557417718
      ],
      [
        "Ġhomenage",
        -9.874712563530474
      ],
      [
        "ssem",
        -9.87491850004537
      ],
      [
        "age",
        -9.875300566119805
      ],
      [
        "ĠBra",
        -9.876112153543342
      ],
      [
        "SOL",
        -9.876130931219503
      ],
      [
        "ĠKi",
        -9.876541104578408
      ],
      [
        "Ġapresentado",
        -9.87728103432764
      ],
      [
        "Ġquer",
        -9.878542317105024
      ],
      [
        "ĠGe",
        -9.87894324735638
      ],
      [
        "Ġtorna",
        -9.87933439236762
      ],
      [
        "Ġdiversas",
        -9.879634050269738
      ],
      [
        "devem",
        -9.880420955075218
      ],
      [
        "Ġmostra",
        -9.88074701706385
      ],
      [
        "Ġtrabalhos",
        -9.88125216899392
      ],
      [
        "Ġusar",
        -9.881536461325569
      ],
      [
        "org",
        -9.882171020438864
      ],
      [
        "Ġacha",
        -9.88318762510547
      ],
      [
        "Ainda",
        -9.883192309617538
      ],
      [
        "Ġprofissionais",
        -9.883505789818347
      ],
      [
        "Ġreceber",
        -9.88355517675224
      ],
      [
        "ĠInternacional",
        -9.883669913411165
      ],
      [
        "normas",
        -9.883734245561834
      ],
      [
        "ance",
        -9.884682122161204
      ],
      [
        "Ġamor",
        -9.885232635348094
      ],
      [
        "Of",
        -9.885336305263763
      ],
      [
        "Ġfiz",
        -9.885459950858555
      ],
      [
        "ĠâĢĺ",
        -9.88585258311042
      ],
      [
        "Ã¢ncia",
        -9.88590778420994
      ],
      [
        "tratamento",
        -9.88648785950098
      ],
      [
        "ĠMendes",
        -9.886915561223772
      ],
      [
        "produtos",
        -9.887116374953676
      ],
      [
        "Ġcabe",
        -9.88734676504237
      ],
      [
        "Ġamigo",
        -9.887583850886484
      ],
      [
        "ARDO",
        -9.888260416550953
      ],
      [
        "anti",
        -9.888731052115608
      ],
      [
        "ĠBA",
        -9.88893483517528
      ],
      [
        "Ġelas",
        -9.888962013185768
      ],
      [
        "ĠTudo",
        -9.89041938059295
      ],
      [
        "Ġcompra",
        -9.890945347052511
      ],
      [
        "gostaria",
        -9.891398949577209
      ],
      [
        "\",\"",
        -9.891489708689152
      ],
      [
        "ĠAta",
        -9.891583857442624
      ],
      [
        "onde",
        -9.892115956718108
      ],
      [
        "Ġartigos",
        -9.893896748364462
      ],
      [
        "Ġ1997",
        -9.894193220986258
      ],
      [
        "lÃ³gico",
        -9.894564650936127
      ],
      [
        "ģ",
        -9.895936468414202
      ],
      [
        "Ġautoridade",
        -9.896867547598102
      ],
      [
        "ĠeconÃ´mico",
        -9.897252217412184
      ],
      [
        "reduÃ§Ã£o",
        -9.898632671902556
      ],
      [
        "vendo",
        -9.899314295465349
      ],
      [
        "shi",
        -9.899573799469412
      ],
      [
        "Ġfins",
        -9.900658686342869
      ],
      [
        "PL",
        -9.900898781629865
      ],
      [
        "ĠLocal",
        -9.901444783343344
      ],
      [
        "ĠWe",
        -9.901865991127128
      ],
      [
        "Ġgarantia",
        -9.903708377409725
      ],
      [
        "PCdoB",
        -9.903996646720207
      ],
      [
        "RJ",
        -9.904624001640771
      ],
      [
        "Ġcumprimento",
        -9.905524425970444
      ],
      [
        "Ġdiretor",
        -9.905748989459276
      ],
      [
        "Ġcarro",
        -9.906165073831732
      ],
      [
        "medidas",
        -9.906702263627126
      ],
      [
        "Ġfundamental",
        -9.907436211417348
      ],
      [
        "2003",
        -9.907660405889995
      ],
      [
        "ĠVoss",
        -9.907747706761826
      ],
      [
        "Ġcorre",
        -9.908455214579504
      ],
      [
        "Ġfuturo",
        -9.909503006267414
      ],
      [
        "Ġevento",
        -9.911510451041703
      ],
      [
        "Ġ36",
        -9.911592709377874
      ],
      [
        "Lei",
        -9.912344215722923
      ],
      [
        "dig",
        -9.913616214591006
      ],
      [
        "ĠGovernador",
        -9.913713022858223
      ],
      [
        "Ġmuita",
        -9.915096989715751
      ],
      [
        "lidade",
        -9.916212041743234
      ],
      [
        "acrescenta",
        -9.917465414905548
      ],
      [
        "Ġcategoria",
        -9.917714946125452
      ],
      [
        "pronunciamento",
        -9.918041316065557
      ],
      [
        "Ġtaxa",
        -9.918330437710448
      ],
      [
        "Ġnenhuma",
        -9.918506072286316
      ],
      [
        "Ġnatural",
        -9.919225401000269
      ],
      [
        "Ġnego",
        -9.91944116779874
      ],
      [
        "Ġpassar",
        -9.91990413673436
      ],
      [
        "Ġapresentada",
        -9.92034447289754
      ],
      [
        "mont",
        -9.920490427326287
      ],
      [
        "fÃŃsica",
        -9.920773130769042
      ],
      [
        "ĠGen",
        -9.920948457835388
      ],
      [
        "Ġalto",
        -9.92293974366972
      ],
      [
        "Ġdispo",
        -9.922958145179358
      ],
      [
        "pur",
        -9.92326473551103
      ],
      [
        "Ġisto",
        -9.92629397204298
      ],
      [
        "Ġmilitar",
        -9.92653205700127
      ],
      [
        "ĠAcho",
        -9.926602351446618
      ],
      [
        "ĠAna",
        -9.927471680198458
      ],
      [
        "dÃºvida",
        -9.927855700305914
      ],
      [
        "ori",
        -9.928610195583714
      ],
      [
        "ung",
        -9.92915531658107
      ],
      [
        "tores",
        -9.929727299063083
      ],
      [
        "seguintes",
        -9.930250290607374
      ],
      [
        "Ġcontinua",
        -9.93096421336636
      ],
      [
        "ĠSuperior",
        -9.931050921948444
      ],
      [
        "substituiÃ§Ã£o",
        -9.932149097803162
      ],
      [
        "Ġdeles",
        -9.9326808014481
      ],
      [
        "Ġcrescimento",
        -9.933111135315064
      ],
      [
        "Ġinstrumento",
        -9.933813866201998
      ],
      [
        "RG",
        -9.934000627709237
      ],
      [
        "ĠCentro",
        -9.937204520657655
      ],
      [
        "Ġnovas",
        -9.938373355369915
      ],
      [
        "gia",
        -9.938536927057736
      ],
      [
        "pel",
        -9.939353171454249
      ],
      [
        "Ġapresentar",
        -9.939397218562595
      ],
      [
        "hipÃ³tese",
        -9.940271309216923
      ],
      [
        "Ġjornal",
        -9.94044977977132
      ],
      [
        "rito",
        -9.940779407938818
      ],
      [
        "Ġsonora",
        -9.941546766713603
      ],
      [
        "tido",
        -9.941724131832189
      ],
      [
        "gal",
        -9.942249542045802
      ],
      [
        "ĠPEC",
        -9.942600132367096
      ],
      [
        "Ġsimples",
        -9.94432876778968
      ],
      [
        "Ġnaquel",
        -9.94447075358579
      ],
      [
        "entidades",
        -9.945005204553349
      ],
      [
        "Ġcusto",
        -9.945418124625514
      ],
      [
        "ĠEXTRAORDINÃģRI",
        -9.94558561914624
      ],
      [
        "ĠVoto",
        -9.945673004759325
      ],
      [
        "ĠCal",
        -9.945736798009497
      ],
      [
        "ĠPmdbP",
        -9.94728025017838
      ],
      [
        "Ġajudar",
        -9.947845963341408
      ],
      [
        "Ġfundo",
        -9.948077051725608
      ],
      [
        "tecnologia",
        -9.94856882220257
      ],
      [
        "rios",
        -9.948821096322744
      ],
      [
        "Ãĵ",
        -9.948934827642203
      ],
      [
        "tia",
        -9.949152395470016
      ],
      [
        "Ġimposto",
        -9.949431220362175
      ],
      [
        "ĠAqui",
        -9.950326089867962
      ],
      [
        "ĠBel",
        -9.950341895911654
      ],
      [
        "GA",
        -9.950533467791708
      ],
      [
        "Ġdeixo",
        -9.951259748518764
      ],
      [
        "Ġmer",
        -9.952468981198152
      ],
      [
        "gente",
        -9.95272944239914
      ],
      [
        "audiÃªncia",
        -9.953162639152056
      ],
      [
        "RES",
        -9.954473630850565
      ],
      [
        "ĠvocÃªs",
        -9.956718382888395
      ],
      [
        "ĠIta",
        -9.956834928893011
      ],
      [
        "ĠCampos",
        -9.958082738537204
      ],
      [
        "Ġacaba",
        -9.959311824585471
      ],
      [
        "ĠTh",
        -9.96025235711591
      ],
      [
        "Ñ",
        -9.96065607692454
      ],
      [
        "Ġtribuna",
        -9.960814600561958
      ],
      [
        "ĠninguÃ©m",
        -9.96085559152101
      ],
      [
        "ĠBer",
        -9.961220790749811
      ],
      [
        "Ġconquista",
        -9.961673287918346
      ],
      [
        "Ġextra",
        -9.961771506610717
      ],
      [
        "Hoje",
        -9.962957580597282
      ],
      [
        "ĠRO",
        -9.963357966258576
      ],
      [
        "Ġdespes",
        -9.96360382494538
      ],
      [
        "ĠTodos",
        -9.963937114785471
      ],
      [
        "verÃ£o",
        -9.96548920719778
      ],
      [
        "vos",
        -9.966156922303355
      ],
      [
        "Ġconsegui",
        -9.966345907602696
      ],
      [
        "cida",
        -9.966561888543342
      ],
      [
        "ĠIgreja",
        -9.966921372009596
      ],
      [
        "Ġvisto",
        -9.967367318815157
      ],
      [
        "ĠLt",
        -9.967682088426
      ],
      [
        "2004",
        -9.967804914453168
      ],
      [
        "Ġcria",
        -9.968412906358042
      ],
      [
        "CH",
        -9.968621166742668
      ],
      [
        "Ġdiante",
        -9.970354598754357
      ],
      [
        "ĠterÃ¡",
        -9.970904511169945
      ],
      [
        "lada",
        -9.971305433532327
      ],
      [
        "Ġfilhos",
        -9.971861739413114
      ],
      [
        "Ġ1999",
        -9.972012435473056
      ],
      [
        "Ġcontar",
        -9.972034682124589
      ],
      [
        "ĠadministraÃ§Ã£o",
        -9.972847619082318
      ],
      [
        "designado",
        -9.97433047371828
      ],
      [
        "ĠversÃ£o",
        -9.974808779333204
      ],
      [
        "Ġespecialmente",
        -9.975613056286411
      ],
      [
        "ĠFranÃ§a",
        -9.976291393256242
      ],
      [
        "Ġcombate",
        -9.977496684792255
      ],
      [
        "ĠAnex",
        -9.977604093010294
      ],
      [
        "ĠinstituiÃ§Ã£o",
        -9.978347843479815
      ],
      [
        "PFL",
        -9.97845461256294
      ],
      [
        "ĠSecretÃ¡rio",
        -9.978524862641123
      ],
      [
        "Ġestabelece",
        -9.979423256040045
      ],
      [
        "ĠCultura",
        -9.979891924658563
      ],
      [
        "ĠlÃŃngua",
        -9.980556907833051
      ],
      [
        "Ġnorma",
        -9.981196856168564
      ],
      [
        "by",
        -9.98124517494554
      ],
      [
        "Ġconhecida",
        -9.981508469797344
      ],
      [
        "juridicidade",
        -9.981721817302272
      ],
      [
        "stÃµes",
        -9.98261517711412
      ],
      [
        "Tenho",
        -9.983334238657688
      ],
      [
        "ĠMon",
        -9.983406021483216
      ],
      [
        "Ġfutebol",
        -9.98395508588571
      ],
      [
        "ĠSrÂª",
        -9.984445388105549
      ],
      [
        "ĠFEDERAL",
        -9.984611503578828
      ],
      [
        "AM",
        -9.985340570336025
      ],
      [
        "Ġimporta",
        -9.985884410314032
      ],
      [
        "Ġ37",
        -9.98607562170142
      ],
      [
        "ĠTemer",
        -9.98679198583138
      ],
      [
        "ĠRJ",
        -9.987961213067896
      ],
      [
        "NAL",
        -9.989506631926751
      ],
      [
        "ĠJÃºnior",
        -9.989748669805898
      ],
      [
        "URMA",
        -9.990055399280896
      ],
      [
        "Ġapre",
        -9.990072186391846
      ],
      [
        "ĠTerra",
        -9.990150321807514
      ],
      [
        "ĠSer",
        -9.991253913659198
      ],
      [
        "Ġtermo",
        -9.99317445509658
      ],
      [
        "ontem",
        -9.99322420771861
      ],
      [
        "ĠorganizaÃ§Ã£o",
        -9.99362095649205
      ],
      [
        "proposiÃ§Ã£o",
        -9.994186736208166
      ],
      [
        "Ġbastante",
        -9.994306835892566
      ],
      [
        "Ġrevista",
        -9.994391320764388
      ],
      [
        "bit",
        -9.995143133933004
      ],
      [
        "Ġfilha",
        -9.995271844208997
      ],
      [
        "tenham",
        -9.99556923567082
      ],
      [
        "ĠBom",
        -9.995901086995968
      ],
      [
        "ĠRibeiro",
        -9.996979606913
      ],
      [
        "Ġ55",
        -9.996984009709594
      ],
      [
        "Ġsair",
        -9.997163173947207
      ],
      [
        "ÃŃvel",
        -9.998215932735516
      ],
      [
        "Ġaprovada",
        -9.998751320155016
      ],
      [
        "comunitÃ¡ria",
        -9.99886843980624
      ],
      [
        "ham",
        -9.99914047877542
      ],
      [
        "Ġapro",
        -9.999200295306697
      ],
      [
        "Ġrecu",
        -9.9999926894306
      ],
      [
        "Ġpublicado",
        -10.000060203340452
      ],
      [
        "Ġvale",
        -10.000389838114888
      ],
      [
        "porÃ©",
        -10.000421275985614
      ],
      [
        "Ġrealidade",
        -10.00111708657059
      ],
      [
        "conteÃºdo",
        -10.001476657393352
      ],
      [
        "lida",
        -10.002155336914267
      ],
      [
        "Ġgarantir",
        -10.002473499691185
      ],
      [
        "ĠprÃ³xima",
        -10.002572213698716
      ],
      [
        "prisÃ£o",
        -10.0028290426576
      ],
      [
        "eza",
        -10.003097139045758
      ],
      [
        "afirmou",
        -10.003359362170508
      ],
      [
        "seguida",
        -10.003720376506786
      ],
      [
        "rÃ³",
        -10.00427805583809
      ],
      [
        "bancada",
        -10.004418363068767
      ],
      [
        "pÃºblicos",
        -10.004586463655745
      ],
      [
        "autorizaÃ§Ã£o",
        -10.00639444555908
      ],
      [
        "Ġpergunta",
        -10.006982614941004
      ],
      [
        "Ġ70",
        -10.007160205911736
      ],
      [
        "toria",
        -10.00803084399559
      ],
      [
        "Ġrecebe",
        -10.008291469045664
      ],
      [
        "Ġcurso",
        -10.009109171575904
      ],
      [
        "Ġnovamente",
        -10.00957787653873
      ],
      [
        "ĠDOS",
        -10.01132056218236
      ],
      [
        "han",
        -10.011516946115751
      ],
      [
        "tudo",
        -10.01189245262495
      ],
      [
        "Ġ53",
        -10.012463096090237
      ],
      [
        "Ġtrabalhar",
        -10.01254800875501
      ],
      [
        "jovens",
        -10.014387671819538
      ],
      [
        "aga",
        -10.014512313468684
      ],
      [
        "Ġclasse",
        -10.015921865686554
      ],
      [
        "ĠLÃºci",
        -10.016494208197338
      ],
      [
        "ĠJO",
        -10.017365547024122
      ],
      [
        "ĠSegunda",
        -10.017826451893798
      ],
      [
        "ÃŃcio",
        -10.017885002660748
      ],
      [
        "ĠTom",
        -10.018536743555378
      ],
      [
        "ĠJohn",
        -10.0190083922534
      ],
      [
        "ĠVale",
        -10.019202502621509
      ],
      [
        "atuaÃ§Ã£o",
        -10.019228318627544
      ],
      [
        "ĠRoma",
        -10.019342611563712
      ],
      [
        "Ġparticipar",
        -10.019348176334214
      ],
      [
        "âĢĳ",
        -10.02050292748865
      ],
      [
        "Ã¡rios",
        -10.02126905101942
      ],
      [
        "bia",
        -10.021842122605102
      ],
      [
        "ĠAprova",
        -10.02282206340486
      ],
      [
        "ĠInformÃ¡tica",
        -10.024052789583498
      ],
      [
        "ĠAtÃ©",
        -10.02413285415592
      ],
      [
        "GL",
        -10.024430959602192
      ],
      [
        "ĠeletrÃ´nico",
        -10.029536876142528
      ],
      [
        "Ġ34",
        -10.029690204010013
      ],
      [
        "ĠcondiÃ§Ã£o",
        -10.031471578768423
      ],
      [
        "Ġdispositivo",
        -10.03221967797752
      ],
      [
        "Ġpopular",
        -10.032729731030312
      ],
      [
        "Ġvoltar",
        -10.032885978821271
      ],
      [
        "emprego",
        -10.033522322278246
      ],
      [
        "Ġtraz",
        -10.033605922915804
      ],
      [
        "ĠTrata",
        -10.033894744854033
      ],
      [
        "ĠdireÃ§Ã£o",
        -10.03414255363552
      ],
      [
        "Ġmeus",
        -10.034192625514669
      ],
      [
        "SC",
        -10.03430838682152
      ],
      [
        "Ġ49",
        -10.034638331428296
      ],
      [
        "Ġcomum",
        -10.03464977781565
      ],
      [
        "uti",
        -10.035683441142346
      ],
      [
        "]",
        -10.035712687315888
      ],
      [
        "ĠtÃ©cnico",
        -10.035745733985852
      ],
      [
        "Ġlevar",
        -10.037827916766304
      ],
      [
        "ĠcomeÃ§a",
        -10.037837168979468
      ],
      [
        "Ġfedera",
        -10.040303983508409
      ],
      [
        "ĠUn",
        -10.040448052722484
      ],
      [
        "[",
        -10.04100350750121
      ],
      [
        "Ġaparece",
        -10.041005914109272
      ],
      [
        "HC",
        -10.04260608881252
      ],
      [
        "Ġganho",
        -10.042648515868214
      ],
      [
        "Ġsuficiente",
        -10.046441708404377
      ],
      [
        "ĠAL",
        -10.04687877710341
      ],
      [
        "aqueles",
        -10.047128272530774
      ],
      [
        "gada",
        -10.0473847466943
      ],
      [
        "dÃŃvida",
        -10.048294417932684
      ],
      [
        "ĠEuropa",
        -10.048327839657803
      ],
      [
        "Ġquadro",
        -10.0489425775894
      ],
      [
        "Ġbaixa",
        -10.049564337928228
      ],
      [
        "ali",
        -10.049956462948517
      ],
      [
        "ĠcabeÃ§a",
        -10.050177016278449
      ],
      [
        "AgR",
        -10.05067334351816
      ],
      [
        "indÃºstria",
        -10.050779455289936
      ],
      [
        "declaraÃ§Ã£o",
        -10.051848118180237
      ],
      [
        "ĠEdi",
        -10.051953461210656
      ],
      [
        "ĠComplementar",
        -10.052779016253844
      ],
      [
        "Ġoutorga",
        -10.053186029031693
      ],
      [
        "dez",
        -10.053958317803476
      ],
      [
        "entendimento",
        -10.05409284083308
      ],
      [
        "lÃ³gica",
        -10.054869233904132
      ],
      [
        "entidade",
        -10.055123282422183
      ],
      [
        "ĠEscola",
        -10.05596621828533
      ],
      [
        "å",
        -10.0561676895881
      ],
      [
        "Ġfaixa",
        -10.0562867498144
      ],
      [
        "razÃµes",
        -10.05726044875165
      ],
      [
        "Ġtais",
        -10.057337738459552
      ],
      [
        "entrada",
        -10.058097957622328
      ],
      [
        "prestaÃ§Ã£o",
        -10.059846714235764
      ],
      [
        "DEPUTADO",
        -10.061164982758449
      ],
      [
        "ĠmÃ©dico",
        -10.061461930236115
      ],
      [
        "Ġencontrar",
        -10.06153896570141
      ],
      [
        "comissÃ£o",
        -10.061888320193852
      ],
      [
        "Substitutivo",
        -10.062527698154032
      ],
      [
        "Ġve",
        -10.062909013623674
      ],
      [
        "AntÃ´nio",
        -10.062925402945949
      ],
      [
        "Ġministro",
        -10.063039475632507
      ],
      [
        "vÃŃtima",
        -10.064551725418813
      ],
      [
        "ĠPenal",
        -10.064848993985104
      ],
      [
        "Ġsite",
        -10.065211767084254
      ],
      [
        "Ġcolocar",
        -10.06534671288928
      ],
      [
        "ĠDep",
        -10.065467111330028
      ],
      [
        "ĠParanÃ¡",
        -10.065717881067693
      ],
      [
        "Ġ1996",
        -10.06607331125403
      ],
      [
        "Ġsete",
        -10.06616327775668
      ],
      [
        "ĠportuguÃªs",
        -10.066373375803488
      ],
      [
        "Certo",
        -10.066555426284175
      ],
      [
        "visÃ£o",
        -10.067678739256053
      ],
      [
        "Ġgrave",
        -10.06789326434265
      ],
      [
        "Portaria",
        -10.06818514094282
      ],
      [
        "GU",
        -10.069487617979457
      ],
      [
        "Ġentrar",
        -10.070662065451188
      ],
      [
        "+",
        -10.070759847280536
      ],
      [
        "Primeiro",
        -10.071230430438282
      ],
      [
        "Ptb",
        -10.07127925192728
      ],
      [
        "SÃ©rgi",
        -10.074519663525328
      ],
      [
        "conformidade",
        -10.07479399868309
      ],
      [
        "Ġfunciona",
        -10.075244074313138
      ],
      [
        "RelatÃ³rio",
        -10.07579108229088
      ],
      [
        "Ġouvi",
        -10.075824404193064
      ],
      [
        "SÃĥO",
        -10.07631325658297
      ],
      [
        "ĠvitÃ³ria",
        -10.07749858594694
      ],
      [
        "ĠTu",
        -10.077845078528057
      ],
      [
        "Ġaconteceu",
        -10.07842401921974
      ],
      [
        "locais",
        -10.078743913613703
      ],
      [
        "Ġindependente",
        -10.07925204936324
      ],
      [
        "Ġpermite",
        -10.07936009606038
      ],
      [
        "prejuÃŃz",
        -10.080300027915078
      ],
      [
        "2018",
        -10.083343172222952
      ],
      [
        "Ġacerca",
        -10.08638311035085
      ],
      [
        "ÃĬNCIA",
        -10.087525995458533
      ],
      [
        "Ġigual",
        -10.088515974476309
      ],
      [
        "aquela",
        -10.088773486993452
      ],
      [
        "Ł",
        -10.089051643425847
      ],
      [
        "Ġdisco",
        -10.089221356226542
      ],
      [
        "Ġparticular",
        -10.08966740809827
      ],
      [
        "Ġtornar",
        -10.089784454567532
      ],
      [
        "Ġdemanda",
        -10.090483748681937
      ],
      [
        "talvez",
        -10.090580474372429
      ],
      [
        "NTE",
        -10.091424627745052
      ],
      [
        "Ġbaixo",
        -10.091657171830205
      ],
      [
        "salÃ¡rio",
        -10.09184647256379
      ],
      [
        "Ġluz",
        -10.0920062531476
      ],
      [
        "Ġmedi",
        -10.092487880958616
      ],
      [
        "Ġenca",
        -10.092540666606276
      ],
      [
        "ĠMal",
        -10.092628804227529
      ],
      [
        "ngel",
        -10.092950510467892
      ],
      [
        "ĠtelevisÃ£o",
        -10.09299716938019
      ],
      [
        "veio",
        -10.093280236057993
      ],
      [
        "ĠapresentaÃ§Ã£o",
        -10.094045039350378
      ],
      [
        "eri",
        -10.094283210634703
      ],
      [
        "tividade",
        -10.09451218466488
      ],
      [
        "ciais",
        -10.094721618228986
      ],
      [
        "Ġrepresentante",
        -10.094965503215647
      ],
      [
        "vide",
        -10.095073596637276
      ],
      [
        "Ġliga",
        -10.096008208208524
      ],
      [
        "cisÃ£o",
        -10.09691256117786
      ],
      [
        "ĠEr",
        -10.09745616173441
      ],
      [
        "ĠCas",
        -10.097621609520012
      ],
      [
        "OfÃŃci",
        -10.098003408909175
      ],
      [
        "Ġtratar",
        -10.098137707289784
      ],
      [
        "cat",
        -10.099297379517976
      ],
      [
        "Ġcontinuar",
        -10.09971503006473
      ],
      [
        "gol",
        -10.099732002571582
      ],
      [
        "destinada",
        -10.099871240390646
      ],
      [
        "Ġabertura",
        -10.102713453452932
      ],
      [
        "ĠAcre",
        -10.102851705360337
      ],
      [
        "PRB",
        -10.103794416965682
      ],
      [
        "Ġusado",
        -10.103838800218536
      ],
      [
        "ĠexperiÃªncia",
        -10.104587125173191
      ],
      [
        "Ġdessas",
        -10.10477189854044
      ],
      [
        "ĠComunitÃ¡ri",
        -10.105101955290657
      ],
      [
        "ĠcarÃ¡ter",
        -10.105501982477296
      ],
      [
        "arÃ¡grafo",
        -10.106842264131686
      ],
      [
        "ĠdifÃŃcil",
        -10.107364351720475
      ],
      [
        "ĠvÃª",
        -10.108349908504907
      ],
      [
        "Ġantiga",
        -10.1086155648694
      ],
      [
        "Ġ38",
        -10.10986555917536
      ],
      [
        "ĠdistribuiÃ§Ã£o",
        -10.109949426445809
      ],
      [
        "Ġpais",
        -10.110333444353357
      ],
      [
        "Ġcomercial",
        -10.11126104342982
      ],
      [
        "Ġconfi",
        -10.113568032000044
      ],
      [
        "ĠPOR",
        -10.113816155558272
      ],
      [
        "Ġmulta",
        -10.114102351557534
      ],
      [
        "ĠTrans",
        -10.114336595853835
      ],
      [
        "soluÃ§Ã£o",
        -10.114371914588954
      ],
      [
        "Ġ43",
        -10.114677278378457
      ],
      [
        "MEN",
        -10.114743757397386
      ],
      [
        "ĠQuer",
        -10.115516170378868
      ],
      [
        "Ġdireta",
        -10.1160127921105
      ],
      [
        "QUE",
        -10.116519090483326
      ],
      [
        "manutenÃ§Ã£o",
        -10.116624873776288
      ],
      [
        "atrÃ¡s",
        -10.11671778125713
      ],
      [
        "estavam",
        -10.117485917585496
      ],
      [
        "lÃ¡",
        -10.11754768934176
      ],
      [
        "Ġarma",
        -10.117645081491126
      ],
      [
        "sul",
        -10.117778821712848
      ],
      [
        "Ġfonte",
        -10.11802748989203
      ],
      [
        "provisÃ³ria",
        -10.118325552161602
      ],
      [
        "uba",
        -10.119341085032133
      ],
      [
        "cimento",
        -10.121185516687149
      ],
      [
        "Ġaltera",
        -10.121484961818696
      ],
      [
        "MG",
        -10.122267403772222
      ],
      [
        "posto",
        -10.123054741622386
      ],
      [
        "ĠCentral",
        -10.12401118137568
      ],
      [
        "mÃ¡tica",
        -10.124260453378746
      ],
      [
        "ĠPrefeit",
        -10.124422249598068
      ],
      [
        "favorÃ¡vel",
        -10.125603598562115
      ],
      [
        "regiÃµes",
        -10.125873890994216
      ],
      [
        "ĠPROC",
        -10.126248130811906
      ],
      [
        "Ġsofre",
        -10.126355845869773
      ],
      [
        "ĠprÃ©",
        -10.126811199128072
      ],
      [
        "leiÃ§Ã£o",
        -10.12814437311988
      ],
      [
        "legais",
        -10.12830267385935
      ],
      [
        "ĠXX",
        -10.128525496617206
      ],
      [
        "Ġtomar",
        -10.128993957658247
      ],
      [
        "Ġ44",
        -10.128997745932942
      ],
      [
        "referido",
        -10.129100519699014
      ],
      [
        "|",
        -10.129373765084823
      ],
      [
        "Ġpequena",
        -10.130074479492585
      ],
      [
        "PSC",
        -10.131046067733436
      ],
      [
        "quer",
        -10.131229442150293
      ],
      [
        "Ġinstitui",
        -10.131360108281488
      ],
      [
        "Ġnormal",
        -10.132754827759737
      ],
      [
        "Ġred",
        -10.133246868047536
      ],
      [
        "Ġbens",
        -10.133477241909254
      ],
      [
        "apesar",
        -10.133589304086852
      ],
      [
        "cular",
        -10.134303351256206
      ],
      [
        "Ġcolega",
        -10.134359463848892
      ],
      [
        "Å",
        -10.134367455812225
      ],
      [
        "utilizaÃ§Ã£o",
        -10.134565487943508
      ],
      [
        "Ġjogos",
        -10.135921225100882
      ],
      [
        "ĠProcesso",
        -10.136065766508908
      ],
      [
        "Ġamigos",
        -10.136192442162027
      ],
      [
        "Apoio",
        -10.13861046579608
      ],
      [
        "ker",
        -10.13861081062969
      ],
      [
        "Celso",
        -10.139415066640892
      ],
      [
        "Ġdecreta",
        -10.139470527989726
      ],
      [
        "ĠGal",
        -10.140025364752471
      ],
      [
        "ĠQual",
        -10.14088707529056
      ],
      [
        "eleiÃ§Ãµes",
        -10.141166941999392
      ],
      [
        "efeitos",
        -10.14289417511372
      ],
      [
        "Ġtime",
        -10.14357218337253
      ],
      [
        "Ä",
        -10.143681482617758
      ],
      [
        "Ġchama",
        -10.14368554332008
      ],
      [
        "Ġnot",
        -10.143740734480556
      ],
      [
        "Ġpermitir",
        -10.144130921381093
      ],
      [
        "Ġ45",
        -10.14438406257058
      ],
      [
        "lla",
        -10.144611522444922
      ],
      [
        "ĠPlano",
        -10.14487822100832
      ],
      [
        "dizendo",
        -10.145396099483737
      ],
      [
        "fico",
        -10.145530028398824
      ],
      [
        "Ã©tica",
        -10.14579916038462
      ],
      [
        "Ġperda",
        -10.14595906149812
      ],
      [
        "Ġtramita",
        -10.146063365791235
      ],
      [
        "ĠPROPOSI",
        -10.14670316518223
      ],
      [
        "ĠSouza",
        -10.146855402917351
      ],
      [
        "Ġpasso",
        -10.14711336538772
      ],
      [
        "ausÃªncia",
        -10.148654725015016
      ],
      [
        "Ġperto",
        -10.149111444592824
      ],
      [
        "Ġdocumentos",
        -10.149156623556502
      ],
      [
        "±",
        -10.150296283808748
      ],
      [
        "militares",
        -10.1513286209014
      ],
      [
        "Ġmelhores",
        -10.151813232936094
      ],
      [
        "Ġreceita",
        -10.152386618215202
      ],
      [
        "«",
        -10.152673207333097
      ],
      [
        "ĠGomes",
        -10.152838291741062
      ],
      [
        "ĠConced",
        -10.152942992183956
      ],
      [
        "diretamente",
        -10.153010188804014
      ],
      [
        "Ġcapaz",
        -10.15312534969562
      ],
      [
        "Ġrevela",
        -10.153532082677522
      ],
      [
        "Ġ80",
        -10.15457229844774
      ],
      [
        "ĠGrosso",
        -10.155092231262817
      ],
      [
        "Ġinterior",
        -10.15545842576179
      ],
      [
        "ĠMunicipal",
        -10.15588235673715
      ],
      [
        "ĠoperaÃ§Ã£o",
        -10.156402533386078
      ],
      [
        "Ġfazem",
        -10.156587283446903
      ],
      [
        "Ķ",
        -10.1565995415192
      ],
      [
        "ĠMinistra",
        -10.15680551483337
      ],
      [
        "ĠcanÃ§Ã£o",
        -10.156830237238328
      ],
      [
        "ĠLopes",
        -10.157748846624507
      ],
      [
        "Estamos",
        -10.158067395380076
      ],
      [
        "Ġcento",
        -10.159814976032004
      ],
      [
        "CARLOS",
        -10.160021537892902
      ],
      [
        "ĠMilitar",
        -10.16013146429157
      ],
      [
        "ĠRocha",
        -10.16100628849452
      ],
      [
        "ĠEsc",
        -10.161325430605777
      ],
      [
        "Ġconsiderada",
        -10.161729053703096
      ],
      [
        "ciado",
        -10.161848743753128
      ],
      [
        "inclusÃ£o",
        -10.16220011140592
      ],
      [
        "aÃ§a",
        -10.163190179822534
      ],
      [
        "Ġrealizar",
        -10.16400288730016
      ],
      [
        "Ġdiscutir",
        -10.16483432704227
      ],
      [
        "ĠvÃŃdeo",
        -10.165007346949231
      ],
      [
        "Ġadministrativa",
        -10.165514351784232
      ],
      [
        "ĠPal",
        -10.166471695055042
      ],
      [
        "Ġregra",
        -10.167427566031058
      ],
      [
        "INA",
        -10.167434515759515
      ],
      [
        "operaÃ§Ãµes",
        -10.167772901581628
      ],
      [
        "tivos",
        -10.168055109633537
      ],
      [
        "ĠInter",
        -10.168130925275731
      ],
      [
        "ĠlanÃ§amento",
        -10.168429897625796
      ],
      [
        "Ġoito",
        -10.170433302102047
      ],
      [
        "ĠLista",
        -10.170537102647518
      ],
      [
        "ĠChi",
        -10.17060834713684
      ],
      [
        "Ġcerta",
        -10.170953335795614
      ],
      [
        "ĠChe",
        -10.17181192473268
      ],
      [
        "ĠTri",
        -10.171933561944648
      ],
      [
        "ĠpeÃ§o",
        -10.17234119373333
      ],
      [
        "Ġfar",
        -10.173211258829864
      ],
      [
        "GERAL",
        -10.174126622618312
      ],
      [
        "alunos",
        -10.174451177480098
      ],
      [
        "iam",
        -10.174648228346202
      ],
      [
        "Ġderrota",
        -10.175243834320115
      ],
      [
        "Ġcompromisso",
        -10.175519505308657
      ],
      [
        "ĠGar",
        -10.17577409303231
      ],
      [
        "Ġdecidi",
        -10.176095517509411
      ],
      [
        "Pausa",
        -10.176853981348158
      ],
      [
        "ĠorÃ§amentÃ¡ria",
        -10.177862191332313
      ],
      [
        "Ġlocalizado",
        -10.178076759282948
      ],
      [
        "ĠPorque",
        -10.178317477792358
      ],
      [
        "Ġseguir",
        -10.178826242304822
      ],
      [
        "Ġmetros",
        -10.17929457745353
      ],
      [
        "daquele",
        -10.17975347754199
      ],
      [
        "Ġtentar",
        -10.179858752917388
      ],
      [
        "ĠCatarina",
        -10.179991030987622
      ],
      [
        "Ġacabou",
        -10.180009734837917
      ],
      [
        "Ġdiferente",
        -10.180347782757742
      ],
      [
        "ĠAp",
        -10.18122253702172
      ],
      [
        "ĠmÃ©dio",
        -10.182037437110957
      ],
      [
        "Ġjovem",
        -10.182327274431469
      ],
      [
        "Ġopera",
        -10.18289866940315
      ],
      [
        "xclusividade",
        -10.18292817934844
      ],
      [
        "Ã¡reas",
        -10.183357180155664
      ],
      [
        "Ġvenda",
        -10.18416447250848
      ],
      [
        "Ã´nica",
        -10.184195569907825
      ],
      [
        "Ġrelativa",
        -10.184402795259317
      ],
      [
        "tenÃ§Ã£o",
        -10.184493543237846
      ],
      [
        "ĠVeja",
        -10.184907317857409
      ],
      [
        "exposto",
        -10.185823855255816
      ],
      [
        "Ġquarto",
        -10.18733401117236
      ],
      [
        "Ãºmula",
        -10.188240617586375
      ],
      [
        "Ġpropriedade",
        -10.1884001705722
      ],
      [
        "Con",
        -10.189046183128582
      ],
      [
        "Ġconseguiu",
        -10.190034448734474
      ],
      [
        "Apesar",
        -10.190491488915114
      ],
      [
        "esforÃ§o",
        -10.190587227560693
      ],
      [
        "cus",
        -10.191272465144849
      ],
      [
        "ĠdiferenÃ§a",
        -10.191841383459453
      ],
      [
        "Ġtroca",
        -10.193058611112642
      ],
      [
        "americana",
        -10.1935354768489
      ],
      [
        "Ġinterna",
        -10.193707242539642
      ],
      [
        "ĠProfessor",
        -10.193747941277824
      ],
      [
        "Ġescolas",
        -10.194395939453344
      ],
      [
        "Ġaprova",
        -10.194440289040022
      ],
      [
        "ĠReal",
        -10.194493572604229
      ],
      [
        "ĠLUIZ",
        -10.195104994029665
      ],
      [
        "Ġviola",
        -10.195191516837106
      ],
      [
        "tiveram",
        -10.195545734093596
      ],
      [
        "estabelecimento",
        -10.195735707208136
      ],
      [
        "Ġcompleta",
        -10.19616610282111
      ],
      [
        "Ġpropor",
        -10.196887579471488
      ],
      [
        "Ġfinanciamento",
        -10.196959434707196
      ],
      [
        "Ġimprensa",
        -10.197212137806732
      ],
      [
        "Ġquantidade",
        -10.197290147477664
      ],
      [
        "ĠDiretor",
        -10.198239748934787
      ],
      [
        "ĠCidade",
        -10.199673630094017
      ],
      [
        "Ġ42",
        -10.199738689192008
      ],
      [
        "Ġ1991",
        -10.199953924294256
      ],
      [
        "ĠCONSTITUIÃĩÃĥO",
        -10.200164500338216
      ],
      [
        "usada",
        -10.201654575087996
      ],
      [
        "plenÃ¡rio",
        -10.20212493362092
      ],
      [
        "ĠSabe",
        -10.202385894135976
      ],
      [
        "zinho",
        -10.20248925415882
      ],
      [
        "Ġquarta",
        -10.202621020270172
      ],
      [
        "falando",
        -10.202735128590737
      ],
      [
        "Ġatua",
        -10.20299466798068
      ],
      [
        "ĠZa",
        -10.203568697368532
      ],
      [
        "Ġentrega",
        -10.204544646525523
      ],
      [
        "ĠTemo",
        -10.204545378705175
      ],
      [
        "uplente",
        -10.20539284569806
      ],
      [
        "grafia",
        -10.205636620018542
      ],
      [
        "ĠAma",
        -10.20588021505134
      ],
      [
        "motivo",
        -10.205958349539038
      ],
      [
        "ĠFica",
        -10.206010325788396
      ],
      [
        "Ġ52",
        -10.2062764679009
      ],
      [
        "Ġestudos",
        -10.206278773729627
      ],
      [
        "Ġpagar",
        -10.206545426310973
      ],
      [
        "PPS",
        -10.20661301259246
      ],
      [
        "ejeiÃ§Ã£o",
        -10.206696159194802
      ],
      [
        "Ġlimite",
        -10.20673997189776
      ],
      [
        "ĠLou",
        -10.206818576860332
      ],
      [
        "Ġservi",
        -10.207951442862615
      ],
      [
        "Ġhonra",
        -10.208259443615225
      ],
      [
        "privada",
        -10.208846360968511
      ],
      [
        "ĠMaranhÃ£o",
        -10.20942745035897
      ],
      [
        "Ġlocalizada",
        -10.210306528921178
      ],
      [
        "ĠAlmeida",
        -10.21072743721206
      ],
      [
        "ĠmÃ¡",
        -10.211661679437777
      ],
      [
        "DF",
        -10.21230316294315
      ],
      [
        "ich",
        -10.212311935201468
      ],
      [
        "benefÃŃcio",
        -10.21237977546464
      ],
      [
        "Ġfixa",
        -10.21238875149868
      ],
      [
        "ĠParÃ¡",
        -10.212622999835723
      ],
      [
        "ĠPelo",
        -10.213763263566443
      ],
      [
        "ĠFA",
        -10.21379852868294
      ],
      [
        "Ġcre",
        -10.213948733246244
      ],
      [
        "burg",
        -10.214530974320713
      ],
      [
        "tida",
        -10.214833807262272
      ],
      [
        "Ġcomigo",
        -10.214870451479207
      ],
      [
        "nÂº",
        -10.214919224452215
      ],
      [
        "ĠcrianÃ§a",
        -10.215780176024372
      ],
      [
        "Ġexatamente",
        -10.216697855817731
      ],
      [
        "ĠUSP",
        -10.216710110892851
      ],
      [
        "OSÃī",
        -10.217190752970406
      ],
      [
        "ĠAh",
        -10.217779025993815
      ],
      [
        "ari",
        -10.219339127208864
      ],
      [
        "ativo",
        -10.21938740456694
      ],
      [
        "Ġescrito",
        -10.219435560324104
      ],
      [
        "Ġ1995",
        -10.21947232039113
      ],
      [
        "ĠRodrigues",
        -10.219862961938166
      ],
      [
        "ĠToda",
        -10.220475256041809
      ],
      [
        "constitucionai",
        -10.22123061394503
      ],
      [
        "Ġpior",
        -10.221359338294008
      ],
      [
        "Ġinicial",
        -10.2213992770891
      ],
      [
        "Ġganha",
        -10.22143037915308
      ],
      [
        "Ġunidades",
        -10.221947004996064
      ],
      [
        "Ġsur",
        -10.222065822691007
      ],
      [
        "atriz",
        -10.222788468678074
      ],
      [
        "mÃ¡ximo",
        -10.223059903559552
      ],
      [
        "ĠGrupo",
        -10.2237512452904
      ],
      [
        "Ġassumi",
        -10.224000604013362
      ],
      [
        "Ġinforma",
        -10.22505990358229
      ],
      [
        "side",
        -10.226008431906882
      ],
      [
        "existente",
        -10.227683053007016
      ],
      [
        "Ġhaja",
        -10.227717195485114
      ],
      [
        "Ġ119",
        -10.227982554099135
      ],
      [
        "ĠSU",
        -10.228128408502698
      ],
      [
        "ĠCarvalho",
        -10.228330653702413
      ],
      [
        "NR",
        -10.229454256779096
      ],
      [
        "Ġpermiti",
        -10.229486854213018
      ],
      [
        "line",
        -10.22987554874826
      ],
      [
        "Ġ58",
        -10.230993328377544
      ],
      [
        "Ġutilizado",
        -10.23171295377726
      ],
      [
        "ambos",
        -10.232149573652336
      ],
      [
        "RegiÃ£o",
        -10.23246902272295
      ],
      [
        "julgado",
        -10.23252402968669
      ],
      [
        "ĠKo",
        -10.232881873738712
      ],
      [
        "Ġacontece",
        -10.23315263436163
      ],
      [
        "Ġ48",
        -10.233399066719311
      ],
      [
        "ĠOnde",
        -10.233611793762826
      ],
      [
        "LideranÃ§a",
        -10.234042710167344
      ],
      [
        "ĠPri",
        -10.234349892783053
      ],
      [
        "bairro",
        -10.23470862828224
      ],
      [
        "criada",
        -10.235195542658044
      ],
      [
        "corrupÃ§Ã£o",
        -10.235435451776349
      ],
      [
        "hy",
        -10.23558321788589
      ],
      [
        "ĠcontribuiÃ§Ã£o",
        -10.236440524472856
      ],
      [
        "ĠMinha",
        -10.23831302798359
      ],
      [
        "chefe",
        -10.239153352472272
      ],
      [
        "Ġ64",
        -10.239795029515108
      ],
      [
        ".............",
        -10.239873536588211
      ],
      [
        "lizaÃ§Ã£o",
        -10.24026901662478
      ],
      [
        "ĠSuper",
        -10.240522069726447
      ],
      [
        "ĠAP",
        -10.24151870063661
      ],
      [
        "Ġresultados",
        -10.242614698241296
      ],
      [
        "ĠDaniel",
        -10.243183220816531
      ],
      [
        "Ġmundial",
        -10.243614815486062
      ],
      [
        "ĠgÃªnero",
        -10.244892584244822
      ],
      [
        "Ġantigo",
        -10.245157185380894
      ],
      [
        "ĠLEGISLATIV",
        -10.245617191691323
      ],
      [
        "ĠhistÃ³rico",
        -10.246167815553404
      ],
      [
        "ĠPubli",
        -10.246427655384627
      ],
      [
        "Ġaberto",
        -10.246787275930815
      ],
      [
        "Ġhumano",
        -10.24706548741125
      ],
      [
        "Ġestadual",
        -10.247139111331634
      ],
      [
        "missÃµes",
        -10.248140278783644
      ],
      [
        "Ġencontro",
        -10.248426360602595
      ],
      [
        "regras",
        -10.249417419554725
      ],
      [
        "irÃ¡",
        -10.249857126446289
      ],
      [
        "Ġdada",
        -10.250013757919122
      ],
      [
        "somos",
        -10.250025153175049
      ],
      [
        "ĠBoa",
        -10.250282910315278
      ],
      [
        "distrito",
        -10.250834878402635
      ],
      [
        "ĠReino",
        -10.251188076642668
      ],
      [
        "ĠRIO",
        -10.251402221765016
      ],
      [
        "Ġvivo",
        -10.25166856810102
      ],
      [
        "Ġevitar",
        -10.251740498789054
      ],
      [
        "Ġdeputado",
        -10.25256992555662
      ],
      [
        "ĠAli",
        -10.252766387923783
      ],
      [
        "icamente",
        -10.25428549235177
      ],
      [
        "ĠpolÃŃcia",
        -10.254500410216757
      ],
      [
        "Ġconv",
        -10.256988303249887
      ],
      [
        "ĠjurÃŃdico",
        -10.25719206715069
      ],
      [
        "ĠTer",
        -10.25740230653563
      ],
      [
        "bon",
        -10.257414705077991
      ],
      [
        "ĠNordeste",
        -10.257656670707728
      ],
      [
        "atualmente",
        -10.25864015004614
      ],
      [
        "AmazÃ´nia",
        -10.25894834822224
      ],
      [
        "Ġfigura",
        -10.259186402133002
      ],
      [
        "ĠAugusto",
        -10.259536947038082
      ],
      [
        "Estadual",
        -10.259910669514554
      ],
      [
        "Talvez",
        -10.26032466807534
      ],
      [
        "Ġdocumento",
        -10.260560857254552
      ],
      [
        "ĠNew",
        -10.260720095137312
      ],
      [
        "requisitos",
        -10.26121427722879
      ],
      [
        "impacto",
        -10.2616092631013
      ],
      [
        "ĠMac",
        -10.262321785296455
      ],
      [
        "Figueiredo",
        -10.263362657453165
      ],
      [
        "Fazenda",
        -10.26390278070081
      ],
      [
        "ĠFamÃŃlia",
        -10.264297778067473
      ],
      [
        "Ġmerece",
        -10.264538045478371
      ],
      [
        "ĠWikipÃ©dia",
        -10.26511932336058
      ],
      [
        "ĠUS",
        -10.265140799337573
      ],
      [
        "ĠDECRET",
        -10.26530684621656
      ],
      [
        "Ġ41",
        -10.265609839396188
      ],
      [
        "essÃ£o",
        -10.26593974376811
      ],
      [
        "JudiciÃ¡ri",
        -10.266014434375816
      ],
      [
        "ĠQUE",
        -10.266363368593192
      ],
      [
        "Ġjudicial",
        -10.266472713784236
      ],
      [
        "ĠNelson",
        -10.266524956005725
      ],
      [
        "mil",
        -10.267408678955444
      ],
      [
        "ĠBal",
        -10.267442326836417
      ],
      [
        "Ġestabelecer",
        -10.268340621060169
      ],
      [
        "publicada",
        -10.268476060101252
      ],
      [
        "ĠSeguranÃ§a",
        -10.268936202387671
      ],
      [
        "Ġorienta",
        -10.26911980934064
      ],
      [
        "Teixeira",
        -10.269206333645956
      ],
      [
        "Ġespera",
        -10.270122988611693
      ],
      [
        "Ġgosta",
        -10.270493228100351
      ],
      [
        "Ġgrau",
        -10.27053997004102
      ],
      [
        "Ġ01",
        -10.271643341330108
      ],
      [
        "ĠRS",
        -10.271921832234064
      ],
      [
        "ĠAndrÃ©",
        -10.272335059482872
      ],
      [
        "ĠcidadÃ£o",
        -10.272358169035456
      ],
      [
        "Ġ39",
        -10.273629291682392
      ],
      [
        "DiscussÃ£o",
        -10.27514654614165
      ],
      [
        "Ġshow",
        -10.27530409482032
      ],
      [
        "Ġprocura",
        -10.275441488529234
      ],
      [
        "Ġcentral",
        -10.27587434484028
      ],
      [
        "ĠepisÃ³dio",
        -10.276728033558896
      ],
      [
        "Ġcri",
        -10.277227808397829
      ],
      [
        "ĠFun",
        -10.2779123489027
      ],
      [
        "candidato",
        -10.27858559311234
      ],
      [
        "pÃµe",
        -10.278702753282497
      ],
      [
        "Ġfac",
        -10.280801408733923
      ],
      [
        "raÃ§a",
        -10.281498156671145
      ],
      [
        "levou",
        -10.282650455471272
      ],
      [
        "vemos",
        -10.282784906099469
      ],
      [
        "preÃ§os",
        -10.28313234082586
      ],
      [
        "ĠSI",
        -10.283917007590794
      ],
      [
        "Ġespecifica",
        -10.284237850425225
      ],
      [
        "Ġanimais",
        -10.28441786063378
      ],
      [
        "ĠFutebol",
        -10.284574864535667
      ],
      [
        "Ġ1988",
        -10.285004821719742
      ],
      [
        "ĠNA",
        -10.28514472933748
      ],
      [
        "paciente",
        -10.28527369719213
      ],
      [
        "ĠDesde",
        -10.28557327540097
      ],
      [
        "Ġsala",
        -10.286287185319264
      ],
      [
        "Ġinvestiga",
        -10.286436819866656
      ],
      [
        "ĠChina",
        -10.28685624033647
      ],
      [
        "abaixo",
        -10.287317145442604
      ],
      [
        "Ġestilo",
        -10.289037186764697
      ],
      [
        "nacionais",
        -10.2890516396844
      ],
      [
        "ĠOlÃ¡",
        -10.289501330953623
      ],
      [
        "Ã¢nia",
        -10.289549397175124
      ],
      [
        "Ġmudar",
        -10.28979155645884
      ],
      [
        "ĠMO",
        -10.28993679366822
      ],
      [
        "ĠSÃ¡",
        -10.290232210970892
      ],
      [
        "Ġpratica",
        -10.290257684748177
      ],
      [
        "NÃ£o",
        -10.290940604863495
      ],
      [
        "Ġface",
        -10.292097311713286
      ],
      [
        "possam",
        -10.292216680906034
      ],
      [
        "deira",
        -10.292367928925575
      ],
      [
        "licitante",
        -10.293387719986464
      ],
      [
        "ĠAlberto",
        -10.293996826777793
      ],
      [
        "ÃŃdo",
        -10.294901408751215
      ],
      [
        "avaliaÃ§Ã£o",
        -10.295602342697974
      ],
      [
        "ĠNossa",
        -10.295607200738653
      ],
      [
        "á",
        -10.295840103172296
      ],
      [
        "tava",
        -10.296888882371176
      ],
      [
        "ĠciÃªncia",
        -10.29782981995313
      ],
      [
        "ĠZe",
        -10.29895360458176
      ],
      [
        "ĠPolÃŃtica",
        -10.29934769064966
      ],
      [
        "errado",
        -10.299915046699558
      ],
      [
        "Ġleva",
        -10.300165341894772
      ],
      [
        "Ġentrevista",
        -10.300274593238743
      ],
      [
        "rais",
        -10.301284821113503
      ],
      [
        "ney",
        -10.30177052750342
      ],
      [
        "ĠMG",
        -10.301804429970534
      ],
      [
        "ĠLuÃŃs",
        -10.301823337825352
      ],
      [
        "ĠMundo",
        -10.302513696688854
      ],
      [
        "ĠameaÃ§a",
        -10.302776337786252
      ],
      [
        "ĠAlemanha",
        -10.303475467971536
      ],
      [
        "Ġmesa",
        -10.30388301764108
      ],
      [
        "ĠAC",
        -10.30402545445444
      ],
      [
        "Ġfui",
        -10.304685489418738
      ],
      [
        "omissÃµes",
        -10.30496477732069
      ],
      [
        "ĠRequer",
        -10.305281114741204
      ],
      [
        "Ġoferece",
        -10.305558576518886
      ],
      [
        "Ġestes",
        -10.30658550077762
      ],
      [
        "vor",
        -10.30661043391012
      ],
      [
        "Ġacidente",
        -10.306637155561296
      ],
      [
        "ÃŃstico",
        -10.306796065873044
      ],
      [
        "oeste",
        -10.30680776633429
      ],
      [
        "Ġconseguir",
        -10.30755782415518
      ],
      [
        "tÃ¡rio",
        -10.307577635557095
      ],
      [
        "Ġrece",
        -10.30808524106852
      ],
      [
        "EMENTA",
        -10.30851547131348
      ],
      [
        "Ġdisciplina",
        -10.309019699402455
      ],
      [
        "Ġinicia",
        -10.30903455289344
      ],
      [
        "bus",
        -10.309102051293914
      ],
      [
        "Ġdemocracia",
        -10.3092866823775
      ],
      [
        "del",
        -10.310086762112263
      ],
      [
        "ĠCer",
        -10.31012757179805
      ],
      [
        "Ġvice",
        -10.310758094202496
      ],
      [
        "ĠGeral",
        -10.31104587374283
      ],
      [
        "Ġparticipa",
        -10.311102772272466
      ],
      [
        "Ġenfrenta",
        -10.311250862326462
      ],
      [
        "Ġpretende",
        -10.31183571911486
      ],
      [
        "relaÃ§Ãµes",
        -10.311886212678342
      ],
      [
        "tivesse",
        -10.312014908035897
      ],
      [
        "ĠFer",
        -10.312193992889826
      ],
      [
        "Ġlido",
        -10.312364228764974
      ],
      [
        "riam",
        -10.312375616785303
      ],
      [
        "Ġpedir",
        -10.312472127926949
      ],
      [
        "Ġrural",
        -10.312923363084558
      ],
      [
        "EUA",
        -10.313315023178824
      ],
      [
        "Ġexplorar",
        -10.313808933019786
      ],
      [
        "ĠfunÃ§Ãµes",
        -10.313824031924105
      ],
      [
        "Ġatender",
        -10.313832967335244
      ],
      [
        "Ġambiental",
        -10.31411524009055
      ],
      [
        "PSL",
        -10.314194178890888
      ],
      [
        "ĠmanhÃ£",
        -10.314334209216202
      ],
      [
        "ĠJesus",
        -10.31536261829122
      ],
      [
        "Ġefetiva",
        -10.315725617176776
      ],
      [
        "STA",
        -10.315931327566837
      ],
      [
        "atos",
        -10.316669527399034
      ],
      [
        "ĠART",
        -10.316770565403289
      ],
      [
        "ĠDepu",
        -10.31683972367969
      ],
      [
        "ĠMil",
        -10.316885293889351
      ],
      [
        "Geraldo",
        -10.31740847692256
      ],
      [
        "Ġfesta",
        -10.318044353515807
      ],
      [
        "PrevidÃªncia",
        -10.318045413881409
      ],
      [
        "Ġdaquel",
        -10.318659812901304
      ],
      [
        "ling",
        -10.319257555783032
      ],
      [
        "FundaÃ§Ã£o",
        -10.319292252630596
      ],
      [
        "Ġjornalista",
        -10.319694047189806
      ],
      [
        "deficiÃªncia",
        -10.31972632720898
      ],
      [
        "Ġcur",
        -10.32024212831904
      ],
      [
        "Ġespe",
        -10.3204153716491
      ],
      [
        "Ï",
        -10.320648452646084
      ],
      [
        "fronteira",
        -10.32082398460692
      ],
      [
        "ĠAto",
        -10.3212984108534
      ],
      [
        "ĠAlexandre",
        -10.322315811888316
      ],
      [
        "geraÃ§Ã£o",
        -10.322752838232576
      ],
      [
        "virtud",
        -10.323351582878558
      ],
      [
        "Ġimagem",
        -10.323531384377551
      ],
      [
        "tÃ¡ria",
        -10.323654749915066
      ],
      [
        "Ġtorno",
        -10.32390981472194
      ],
      [
        "decreto",
        -10.324339354158363
      ],
      [
        "CearÃ¡",
        -10.324692694841302
      ],
      [
        "Ġpaga",
        -10.324874221244386
      ],
      [
        "Ġunidade",
        -10.325119494183925
      ],
      [
        "ÃŃndice",
        -10.325147076099435
      ],
      [
        "ĠArthur",
        -10.325876379797922
      ],
      [
        "nais",
        -10.326803924425812
      ],
      [
        "ĠSerra",
        -10.32692879209539
      ],
      [
        "ĠRede",
        -10.327020973109317
      ],
      [
        "Ġpalavras",
        -10.327113452584856
      ],
      [
        "Ġinvestimento",
        -10.32746476361995
      ],
      [
        "TER",
        -10.327586010049338
      ],
      [
        "apresentou",
        -10.327723228686354
      ],
      [
        "Ġzona",
        -10.327981085650794
      ],
      [
        "Ġconcurso",
        -10.32813547079633
      ],
      [
        "Ġ62",
        -10.32858113049071
      ],
      [
        "ĠrÃ¡pido",
        -10.328609955913844
      ],
      [
        "imagens",
        -10.328855845357518
      ],
      [
        "nunciou",
        -10.328942055181878
      ],
      [
        "SRA",
        -10.329155197705528
      ],
      [
        "CIA",
        -10.329536825068214
      ],
      [
        "lizado",
        -10.329928082735508
      ],
      [
        "trecho",
        -10.330013051618891
      ],
      [
        "alteraÃ§Ã£o",
        -10.330245956901948
      ],
      [
        "ĠLisboa",
        -10.330419192544182
      ],
      [
        "Ġprocedimento",
        -10.33044527377956
      ],
      [
        "Departamento",
        -10.33221931735299
      ],
      [
        "pÃºblicas",
        -10.332788455713745
      ],
      [
        "Ġdetermina",
        -10.335568825380506
      ],
      [
        "ĠDom",
        -10.33608885681859
      ],
      [
        "conflito",
        -10.336461910033304
      ],
      [
        "evoluÃ§Ã£o",
        -10.33671218724708
      ],
      [
        "ĠLegislativa",
        -10.338297464682354
      ],
      [
        "Ġexpressa",
        -10.33921234349395
      ],
      [
        "exigÃªncia",
        -10.339693836313115
      ],
      [
        "mann",
        -10.339971229360131
      ],
      [
        "Ġpobre",
        -10.34052706311993
      ],
      [
        "ĠVai",
        -10.341595132701343
      ],
      [
        "Ġigreja",
        -10.342248509590068
      ],
      [
        "Ġpromover",
        -10.342281670930882
      ],
      [
        "advogado",
        -10.342845757682303
      ],
      [
        "ĠMichel",
        -10.343202028690646
      ],
      [
        "Ġconceito",
        -10.343249682151011
      ],
      [
        "Ġsai",
        -10.343266473052386
      ],
      [
        "ĠopiniÃ£o",
        -10.343371414312452
      ],
      [
        "ĠPan",
        -10.343592727988774
      ],
      [
        "ĠDESPACH",
        -10.343879310321263
      ],
      [
        "2020",
        -10.34434166849799
      ],
      [
        "hon",
        -10.345502999174334
      ],
      [
        "lis",
        -10.345521060699308
      ],
      [
        "Ġetc",
        -10.346319164545648
      ],
      [
        "relativo",
        -10.346526502772535
      ],
      [
        "ĠWal",
        -10.34784925775956
      ],
      [
        "referida",
        -10.347981630048425
      ],
      [
        "Ġentender",
        -10.348172721316232
      ],
      [
        "ĠMarcos",
        -10.34828917753827
      ],
      [
        "Ġfinanceiro",
        -10.349067321429745
      ],
      [
        "Ġguarda",
        -10.349414288506305
      ],
      [
        "Ī",
        -10.3495870146963
      ],
      [
        "leitura",
        -10.351726607112443
      ],
      [
        "ĠpeÃ§a",
        -10.351944099860706
      ],
      [
        "Ġanti",
        -10.353308205001143
      ],
      [
        "retorno",
        -10.353361823012138
      ],
      [
        "urgÃªncia",
        -10.353415115379558
      ],
      [
        "ĠVista",
        -10.353669773621917
      ],
      [
        "Ġrenova",
        -10.354080971283436
      ],
      [
        "Ġconsegue",
        -10.354652892663978
      ],
      [
        "ĠCur",
        -10.354870219607347
      ],
      [
        "mal",
        -10.355230800911537
      ],
      [
        "ĠorientaÃ§Ã£o",
        -10.355371943742345
      ],
      [
        "ĠAgrav",
        -10.355398780346247
      ],
      [
        "ĠPp",
        -10.355656293036896
      ],
      [
        "½",
        -10.356212979558638
      ],
      [
        "havend",
        -10.35636733365352
      ],
      [
        "PÃ¡gina",
        -10.356406757428656
      ],
      [
        "Ġamericano",
        -10.357082428932328
      ],
      [
        "ĠParis",
        -10.35800326352797
      ],
      [
        "doenÃ§a",
        -10.35912760936782
      ],
      [
        "ĠUr",
        -10.359489289368248
      ],
      [
        "juros",
        -10.35963703237782
      ],
      [
        "www",
        -10.360375821702467
      ],
      [
        "ResoluÃ§Ã£o",
        -10.360604808017946
      ],
      [
        "Ġbanco",
        -10.360652324716025
      ],
      [
        "privado",
        -10.360866389283672
      ],
      [
        "ĠjustiÃ§a",
        -10.361675070531607
      ],
      [
        "Ġataque",
        -10.361933675648697
      ],
      [
        "ĠOUTR",
        -10.362672829909686
      ],
      [
        "ĠdenÃºncia",
        -10.3637225147541
      ],
      [
        "substitutivo",
        -10.36394637763006
      ],
      [
        "ĠRodrigo",
        -10.364158361947409
      ],
      [
        "ĠQuanto",
        -10.364382914649688
      ],
      [
        "Jogos",
        -10.364431241405056
      ],
      [
        "quilo",
        -10.364719821666258
      ],
      [
        "Ġfeliz",
        -10.364972416721512
      ],
      [
        "benefÃŃcios",
        -10.365203681254004
      ],
      [
        "ocorreu",
        -10.36535798416288
      ],
      [
        "¾",
        -10.365371444094826
      ],
      [
        "estaÃ§Ã£o",
        -10.365601862400716
      ],
      [
        "ĠSobre",
        -10.365763860783131
      ],
      [
        "ĠsaÃŃd",
        -10.366376352486142
      ],
      [
        "humanos",
        -10.366399108375218
      ],
      [
        "bin",
        -10.367086940152143
      ],
      [
        "Moreira",
        -10.367197309461185
      ],
      [
        "gli",
        -10.367337684477524
      ],
      [
        "ĠGer",
        -10.368215538448707
      ],
      [
        "ĠcomeÃ§ar",
        -10.368588196754848
      ],
      [
        "Ġ1994",
        -10.369230638572173
      ],
      [
        "vontade",
        -10.369809068854911
      ],
      [
        "Ġcarga",
        -10.370632509988871
      ],
      [
        "ADA",
        -10.37083642416636
      ],
      [
        "ĠAM",
        -10.371105362160444
      ],
      [
        "assistÃªncia",
        -10.371881032962118
      ],
      [
        "Ġrua",
        -10.371962858915696
      ],
      [
        "ĠRei",
        -10.372629102071771
      ],
      [
        "Ġpreso",
        -10.373261092808288
      ],
      [
        "fiscalizaÃ§Ã£o",
        -10.373452817822448
      ],
      [
        "parceria",
        -10.374084384503192
      ],
      [
        "Ġ90",
        -10.374601617667263
      ],
      [
        "amanhÃ£",
        -10.375003539417165
      ],
      [
        "rÃ¡pida",
        -10.375489600795705
      ],
      [
        "PrÃªmio",
        -10.376101430028417
      ],
      [
        "Ġconstitui",
        -10.37682949924268
      ],
      [
        "Ġouvir",
        -10.377557772241351
      ],
      [
        "gor",
        -10.377653390871902
      ],
      [
        "Ġcontas",
        -10.377707770748538
      ],
      [
        "Ġpermanece",
        -10.37785995136957
      ],
      [
        "PpP",
        -10.37805512565066
      ],
      [
        "instalaÃ§Ã£o",
        -10.378839851231838
      ],
      [
        "ficado",
        -10.379398069334888
      ],
      [
        "assi",
        -10.3794370986695
      ],
      [
        "Proposta",
        -10.380004239912534
      ],
      [
        "ĠBor",
        -10.380188241954722
      ],
      [
        "Ġcuidado",
        -10.380669589686262
      ],
      [
        "Ġcoloca",
        -10.380779084113176
      ],
      [
        "investimentos",
        -10.381523266781976
      ],
      [
        "ENTE",
        -10.38164669017781
      ],
      [
        "ĠPARA",
        -10.382466008065396
      ],
      [
        "ĠForÃ§a",
        -10.38322668614548
      ],
      [
        "Ġjuiz",
        -10.383881415554336
      ],
      [
        "ĠNada",
        -10.384768160323516
      ],
      [
        "mulo",
        -10.384839194401415
      ],
      [
        "Ġquinta",
        -10.385549403725507
      ],
      [
        "Ġhumana",
        -10.386232529977214
      ],
      [
        "Ġtrabalhador",
        -10.386246043211374
      ],
      [
        "atu",
        -10.38651470941957
      ],
      [
        "ĠNeste",
        -10.38741790688258
      ],
      [
        "ĠCruz",
        -10.388154533137904
      ],
      [
        "Ġerro",
        -10.38816437968465
      ],
      [
        "emendas",
        -10.388333509489849
      ],
      [
        "Ġaplica",
        -10.389011089139272
      ],
      [
        "Ġcorpus",
        -10.390026692826194
      ],
      [
        "preciaÃ§Ã£o",
        -10.390074945310312
      ],
      [
        "FederaÃ§Ã£o",
        -10.390186533482222
      ],
      [
        "Ġdefende",
        -10.39107534228197
      ],
      [
        "Ġregistrado",
        -10.39110468935549
      ],
      [
        "ĠAltera",
        -10.391315842737734
      ],
      [
        "precisamos",
        -10.39250949017108
      ],
      [
        "Ġalega",
        -10.393151342594846
      ],
      [
        "dida",
        -10.393598284726188
      ],
      [
        "Ġatingi",
        -10.393733499748537
      ],
      [
        "prÃªmio",
        -10.39375149166857
      ],
      [
        "Ġreserva",
        -10.39389953118612
      ],
      [
        "Ġcompanhia",
        -10.394651106819598
      ],
      [
        "Ġrealiza",
        -10.394971623181585
      ],
      [
        "Ġmedo",
        -10.395236674421255
      ],
      [
        "avanÃ§o",
        -10.39544198270497
      ],
      [
        "americano",
        -10.395792602347692
      ],
      [
        "campeÃ£o",
        -10.395822051245377
      ],
      [
        "ĠCapi",
        -10.39615383657402
      ],
      [
        "Ġresulta",
        -10.396346002684988
      ],
      [
        "Ġreclama",
        -10.396436347080968
      ],
      [
        "existem",
        -10.396725423863195
      ],
      [
        "expressÃ£o",
        -10.397390765999878
      ],
      [
        "Amazonas",
        -10.397485471531246
      ],
      [
        "retirada",
        -10.39827915486421
      ],
      [
        "definiÃ§Ã£o",
        -10.398448353336777
      ],
      [
        "etapa",
        -10.399065072158445
      ],
      [
        "ĠfaÃ§a",
        -10.399188322476302
      ],
      [
        "ĠParlamento",
        -10.399496215684696
      ],
      [
        "ĠSin",
        -10.399499969078006
      ],
      [
        "ĠSai",
        -10.399506247483686
      ],
      [
        "apensado",
        -10.399553356500164
      ],
      [
        "ation",
        -10.399711295084046
      ],
      [
        "ĠfaÃ§o",
        -10.399958347799892
      ],
      [
        "consumo",
        -10.400214182711316
      ],
      [
        "gravada",
        -10.400872511869668
      ],
      [
        "equipamentos",
        -10.401292512283568
      ],
      [
        "ĠNeto",
        -10.401897040761169
      ],
      [
        "tinho",
        -10.402136804513118
      ],
      [
        "ĠlÃŃder",
        -10.402779638642071
      ],
      [
        "Ġpartida",
        -10.40310092778349
      ],
      [
        "Ġgosto",
        -10.403514738848678
      ],
      [
        "Ġvoz",
        -10.403595096255309
      ],
      [
        "tais",
        -10.403685151273791
      ],
      [
        "elementos",
        -10.404044359841304
      ],
      [
        "ĠJU",
        -10.404159126434331
      ],
      [
        "Ġconhece",
        -10.404228622495625
      ],
      [
        "Barbosa",
        -10.404590570612513
      ],
      [
        "Ġrespectiva",
        -10.40525915453668
      ],
      [
        "Ġjogador",
        -10.405721159821256
      ],
      [
        "agentes",
        -10.405887480430446
      ],
      [
        "Ġoferta",
        -10.406226241225763
      ],
      [
        "Ġeventos",
        -10.406397907160027
      ],
      [
        "Ġtermina",
        -10.407251314591235
      ],
      [
        "Ġexporta",
        -10.407598597623508
      ],
      [
        "ĠHar",
        -10.408015283790752
      ],
      [
        "contexto",
        -10.40839948877421
      ],
      [
        "ĠVila",
        -10.408523703291872
      ],
      [
        "Ġescolha",
        -10.408708874240418
      ],
      [
        "ĠMeio",
        -10.4089075123226
      ],
      [
        "Ġdispor",
        -10.408977937990768
      ],
      [
        "·",
        -10.40928830748826
      ],
      [
        "empresÃ¡rio",
        -10.411130038426226
      ],
      [
        "ĠRegional",
        -10.41120256658156
      ],
      [
        "Ġvelho",
        -10.411231298610684
      ],
      [
        "Ġinternacionais",
        -10.411392306283137
      ],
      [
        "Ġgera",
        -10.411404871630609
      ],
      [
        "ocalidades",
        -10.41153206328693
      ],
      [
        "all",
        -10.41160099023937
      ],
      [
        "Mar",
        -10.41174442958838
      ],
      [
        "Ġbe",
        -10.411885152730136
      ],
      [
        "Ġtinham",
        -10.413263523234171
      ],
      [
        "Ġdaqui",
        -10.413639562193447
      ],
      [
        "desempenho",
        -10.413723084787906
      ],
      [
        "Ġesti",
        -10.413744885092507
      ],
      [
        "ther",
        -10.414555249077557
      ],
      [
        "Ġ1993",
        -10.414734977307823
      ],
      [
        "the",
        -10.41510157571993
      ],
      [
        "ĠDeve",
        -10.415405599237566
      ],
      [
        "Ġplanta",
        -10.415749292997782
      ],
      [
        "http",
        -10.415813489727096
      ],
      [
        "Ġesposa",
        -10.41611423115182
      ],
      [
        "Ġcima",
        -10.416151070648288
      ],
      [
        "Ġvinte",
        -10.416478460951485
      ],
      [
        "Ġeleitoral",
        -10.416943020988246
      ],
      [
        "Ġsexta",
        -10.41696473060884
      ],
      [
        "Ġcarta",
        -10.417269748998065
      ],
      [
        "Ġadequa",
        -10.417280557554376
      ],
      [
        "tentativa",
        -10.4180202268872
      ],
      [
        "ĠIN",
        -10.41928120926216
      ],
      [
        "ĠTim",
        -10.420131292019216
      ],
      [
        "ĠCap",
        -10.420489970401226
      ],
      [
        "ĠjurisprudÃªncia",
        -10.42062425577215
      ],
      [
        "veÃŃculos",
        -10.420913936462869
      ],
      [
        "ĠalÃŃnea",
        -10.420916122136738
      ],
      [
        "RelaÃ§Ãµes",
        -10.421437429451151
      ],
      [
        "Ġhabita",
        -10.421867466948772
      ],
      [
        "Ġcomando",
        -10.422599810462014
      ],
      [
        "Ġfogo",
        -10.422931965839954
      ],
      [
        "AgÃªncia",
        -10.422959495726545
      ],
      [
        "Ġresto",
        -10.423565968631236
      ],
      [
        "ĠalcanÃ§",
        -10.424312399425355
      ],
      [
        "ĠMagalhÃ£es",
        -10.425119165463428
      ],
      [
        "Ġvive",
        -10.425165426881176
      ],
      [
        "Ġampla",
        -10.425524751901792
      ],
      [
        "reconhecimento",
        -10.425842497421243
      ],
      [
        "MAN",
        -10.426200276636727
      ],
      [
        "endente",
        -10.426478260622153
      ],
      [
        "ĠIsto",
        -10.426510152226829
      ],
      [
        "2002",
        -10.426934149737743
      ],
      [
        "Ġquebra",
        -10.426972881838212
      ],
      [
        "Ġprodutor",
        -10.428197544363192
      ],
      [
        "Ĵ",
        -10.428347479576637
      ],
      [
        "onda",
        -10.429068431228831
      ],
      [
        "ĠusuÃ¡rio",
        -10.429146780493651
      ],
      [
        "PRIMEIR",
        -10.429429907117738
      ],
      [
        "convidado",
        -10.43042384931226
      ],
      [
        "Ġposto",
        -10.430525222271768
      ],
      [
        "Ġdado",
        -10.431343826218423
      ],
      [
        "ĠSam",
        -10.431840838375662
      ],
      [
        "elli",
        -10.431989707599826
      ],
      [
        "Ġcorte",
        -10.432501815944
      ],
      [
        "ð",
        -10.432754287177229
      ],
      [
        "Ġinclui",
        -10.433157498560933
      ],
      [
        "Ġven",
        -10.43324378244232
      ],
      [
        "ĠCarreira",
        -10.43367285024472
      ],
      [
        "francÃªs",
        -10.434106289068602
      ],
      [
        "rena",
        -10.434140523508455
      ],
      [
        "ĠMARCO",
        -10.434228480175465
      ],
      [
        "ĠTal",
        -10.435061830364646
      ],
      [
        "ĠClaro",
        -10.43508811134042
      ],
      [
        "Ġrelator",
        -10.436054431378604
      ],
      [
        "ĠlicenÃ§a",
        -10.436180486387723
      ],
      [
        "presidente",
        -10.4364016824465
      ],
      [
        "ĠJan",
        -10.437458862916838
      ],
      [
        "ĠExterior",
        -10.437675184702243
      ],
      [
        "apelo",
        -10.438172741130066
      ],
      [
        "decisÃµes",
        -10.439929896419876
      ],
      [
        "necessÃ¡ria",
        -10.440040903529043
      ],
      [
        "metade",
        -10.441583806521846
      ],
      [
        "Ġaumenta",
        -10.44165906238505
      ],
      [
        "Ġassinatura",
        -10.44201560537596
      ],
      [
        "administrativo",
        -10.442528961837114
      ],
      [
        "Ġposse",
        -10.442803527226992
      ],
      [
        "ĠPER",
        -10.4434021389433
      ],
      [
        "ĠCPI",
        -10.443478879201669
      ],
      [
        "provÃŃncia",
        -10.444311180032113
      ],
      [
        "ĠFolha",
        -10.444651856497266
      ],
      [
        "ĠFerreira",
        -10.445334296729548
      ],
      [
        "Ġ200",
        -10.445886312174366
      ],
      [
        "Ġjunta",
        -10.446449734797824
      ],
      [
        "Enquanto",
        -10.446511181056255
      ],
      [
        "ĠClube",
        -10.446531064011374
      ],
      [
        "Ġexterior",
        -10.44676600696338
      ],
      [
        "Ġnove",
        -10.446780490468145
      ],
      [
        "Ġinstru",
        -10.446997108211798
      ],
      [
        "gula",
        -10.447079985606928
      ],
      [
        "ĠConstitucional",
        -10.447290042662344
      ],
      [
        "indicaÃ§Ã£o",
        -10.447931451385015
      ],
      [
        "Ġindi",
        -10.44837174347072
      ],
      [
        "Ġcursos",
        -10.449598960646254
      ],
      [
        "Ġencaminh",
        -10.449737507659812
      ],
      [
        "Ġseguro",
        -10.449795876486531
      ],
      [
        "ĠrÃ¡dio",
        -10.449879358467587
      ],
      [
        "............",
        -10.450189201737295
      ],
      [
        "Ġcontato",
        -10.450324801405918
      ],
      [
        "finalidade",
        -10.451003982851162
      ],
      [
        "ĠSO",
        -10.451051130240792
      ],
      [
        "ĠelÃ©trica",
        -10.451129511997582
      ],
      [
        "licitaÃ§Ã£o",
        -10.451356519757445
      ],
      [
        "ĠcompetiÃ§Ã£o",
        -10.451754717426612
      ],
      [
        "Ġconsidera",
        -10.45261172692103
      ],
      [
        "Ġcinema",
        -10.452786068390605
      ],
      [
        "incidÃªncia",
        -10.452893939002772
      ],
      [
        "Ġchance",
        -10.45335843953847
      ],
      [
        "Ġaceita",
        -10.45412874019779
      ],
      [
        "Ġcultural",
        -10.45458145074364
      ],
      [
        "ĠOrÃ§ament",
        -10.454842658320366
      ],
      [
        "Ġ1992",
        -10.455834767703648
      ],
      [
        "Ġlivros",
        -10.456541955346529
      ],
      [
        "Ġregistrar",
        -10.457023636113734
      ],
      [
        "Ġterceira",
        -10.45725118660307
      ],
      [
        "ella",
        -10.458306071820624
      ],
      [
        "funcionamento",
        -10.458838302006551
      ],
      [
        "ESTADO",
        -10.459183544353351
      ],
      [
        "Outra",
        -10.459634006559003
      ],
      [
        "ĠMello",
        -10.46033289902333
      ],
      [
        "onclusÃ£o",
        -10.460532198721452
      ],
      [
        "votos",
        -10.46079712259735
      ],
      [
        "MÃ£o",
        -10.460826665183593
      ],
      [
        "exploraÃ§Ã£o",
        -10.461407175572305
      ],
      [
        "Ġatende",
        -10.461690693091676
      ],
      [
        "ĠEspanha",
        -10.462534383177427
      ],
      [
        "vado",
        -10.462987240624752
      ],
      [
        "Ġentende",
        -10.463005900482376
      ],
      [
        "Ġimediata",
        -10.46324462534303
      ],
      [
        "Ġpersonagem",
        -10.46325710631498
      ],
      [
        "Ġinteiro",
        -10.46327619158924
      ],
      [
        "ĠMer",
        -10.463412715259771
      ],
      [
        "Ġveja",
        -10.464447307402908
      ],
      [
        "ĠConstitui",
        -10.46568348666126
      ],
      [
        "ĠPaul",
        -10.46583610170095
      ],
      [
        "Embora",
        -10.46634832791347
      ],
      [
        "tributÃ¡ria",
        -10.466388420117571
      ],
      [
        "ĠEli",
        -10.466545685547368
      ],
      [
        "Ġsenti",
        -10.466651054923748
      ],
      [
        "policiais",
        -10.467645076933817
      ],
      [
        "ĠdistÃ¢ncia",
        -10.467758386766931
      ],
      [
        "fundamento",
        -10.468405076641082
      ],
      [
        "Ġsabia",
        -10.468648192542611
      ],
      [
        "Ġprefeito",
        -10.46881266984263
      ],
      [
        "Ġjoga",
        -10.469904791480294
      ],
      [
        "comÃ©rcio",
        -10.470285383446996
      ],
      [
        "Ġitem",
        -10.470428520247909
      ],
      [
        "ĠespÃ©cies",
        -10.470471409122228
      ],
      [
        "Ġpermanente",
        -10.470513723155412
      ],
      [
        "Ġproduzir",
        -10.471230150151266
      ],
      [
        "ĠVida",
        -10.471371642331334
      ],
      [
        "Ġcal",
        -10.471673724198151
      ],
      [
        "trinta",
        -10.471895534732672
      ],
      [
        "cir",
        -10.472637510729635
      ],
      [
        "Ġquiser",
        -10.473292161969308
      ],
      [
        "Ġindividual",
        -10.473455574124817
      ],
      [
        "lex",
        -10.473549303666744
      ],
      [
        "geralmente",
        -10.473711198429378
      ],
      [
        "Ġadolescente",
        -10.476484108522516
      ],
      [
        "ĠDan",
        -10.476718024419949
      ],
      [
        "lizar",
        -10.477149806668915
      ],
      [
        "ĠYork",
        -10.47716640565949
      ],
      [
        "ĠMc",
        -10.47732291325624
      ],
      [
        "ĠMartins",
        -10.477411713796265
      ],
      [
        "tive",
        -10.477419384715294
      ],
      [
        "Ġpaz",
        -10.478058076447816
      ],
      [
        "Ġdiminui",
        -10.47868318170432
      ],
      [
        "ĠMuseu",
        -10.479161755747011
      ],
      [
        "ligaÃ§Ã£o",
        -10.479880310006005
      ],
      [
        "Ġpensar",
        -10.480080459375506
      ],
      [
        "mantid",
        -10.480938643116856
      ],
      [
        "Parlamentare",
        -10.4813680821727
      ],
      [
        "Couto",
        -10.482675185464704
      ],
      [
        "fizeram",
        -10.483123177656516
      ],
      [
        "ĠfÃ¡cil",
        -10.483215581091894
      ],
      [
        "ĠParte",
        -10.483568964595523
      ],
      [
        "Ġimplica",
        -10.48365928152792
      ],
      [
        "Bibliografia",
        -10.48386274019265
      ],
      [
        "ric",
        -10.484674034829627
      ],
      [
        "domÃŃnio",
        -10.485340298968488
      ],
      [
        "Ġaquilo",
        -10.485662504150696
      ],
      [
        "Ġconversa",
        -10.48597249833781
      ],
      [
        "Pernambuco",
        -10.486351738637266
      ],
      [
        "ordinÃ¡ria",
        -10.486842638524552
      ],
      [
        "ĠAntes",
        -10.486911625414846
      ],
      [
        "usando",
        -10.48716093344774
      ],
      [
        "ĠMelhor",
        -10.48862894794625
      ],
      [
        "ĠprÃ©vi",
        -10.48883275589495
      ],
      [
        "Ġ1913",
        -10.490042331691816
      ],
      [
        "Ġenorme",
        -10.490748687944158
      ],
      [
        "ĠAgricultura",
        -10.491270137022438
      ],
      [
        "Ġlonga",
        -10.491469342712657
      ],
      [
        "estudantes",
        -10.491480636516698
      ],
      [
        "consumidor",
        -10.492141831653765
      ],
      [
        "ĠNÃĥO",
        -10.49219308233351
      ],
      [
        "esteja",
        -10.49255440413604
      ],
      [
        "terminou",
        -10.492743048496909
      ],
      [
        "Ġinsti",
        -10.49315199073492
      ],
      [
        "professores",
        -10.49378018256755
      ],
      [
        "Ġobservado",
        -10.493844318966357
      ],
      [
        "ĠcrÃŃtica",
        -10.494008208035885
      ],
      [
        "bÃ¡sica",
        -10.494667941617193
      ],
      [
        "morreu",
        -10.49491575339922
      ],
      [
        "Vieira",
        -10.495365139627454
      ],
      [
        "Ġfamiliar",
        -10.495441848318904
      ],
      [
        "Ġtele",
        -10.495942898650922
      ],
      [
        "Ġpensa",
        -10.496502704028666
      ],
      [
        "ĠParece",
        -10.496579236706944
      ],
      [
        "Ġdemonstra",
        -10.496625731982965
      ],
      [
        "Ġclara",
        -10.497828358378996
      ],
      [
        "petrÃ³leo",
        -10.49808910676854
      ],
      [
        "nanimidade",
        -10.49865396368068
      ],
      [
        "trÃ¢nsito",
        -10.498943089869762
      ],
      [
        "ick",
        -10.49904847192842
      ],
      [
        "Ġlimita",
        -10.499149885056935
      ],
      [
        "aposentadoria",
        -10.500185860844551
      ],
      [
        "Ġjeito",
        -10.50026060406099
      ],
      [
        "iauÃŃ",
        -10.50131413605928
      ],
      [
        "companheiro",
        -10.502535973561043
      ],
      [
        "patrimÃ´nio",
        -10.502630251567904
      ],
      [
        "ĠMonte",
        -10.502703862294805
      ],
      [
        "Ġsenador",
        -10.503047664463056
      ],
      [
        "Ĩ",
        -10.50343531835441
      ],
      [
        "Ġindica",
        -10.50383085063986
      ],
      [
        "ĠNovo",
        -10.504140898992311
      ],
      [
        "arney",
        -10.504440563358282
      ],
      [
        "¸",
        -10.505225677861407
      ],
      [
        "escrita",
        -10.5053618658799
      ],
      [
        "postos",
        -10.505655423381697
      ],
      [
        "recebido",
        -10.50615822162622
      ],
      [
        "Ġinferior",
        -10.506172270887012
      ],
      [
        "Ġalternativa",
        -10.506503190810406
      ],
      [
        "Ġmensagem",
        -10.506652165868472
      ],
      [
        "Ġanteriores",
        -10.507385694265889
      ],
      [
        "ÃŃveis",
        -10.507536997034222
      ],
      [
        "Ġrapid",
        -10.508105139883732
      ],
      [
        "Ġofens",
        -10.508385833874907
      ],
      [
        "ĠMachado",
        -10.508465692903815
      ],
      [
        "bot",
        -10.50908565055628
      ],
      [
        "Ġpatr",
        -10.509586471449431
      ],
      [
        "ĠAurÃ©li",
        -10.51076354473585
      ],
      [
        "Ġintegral",
        -10.510825964163203
      ],
      [
        "Ġreferente",
        -10.511259536766966
      ],
      [
        "2001",
        -10.511631245135812
      ],
      [
        "Ġvolume",
        -10.511651895832877
      ],
      [
        "transferÃªncia",
        -10.511682589589473
      ],
      [
        "ocumentaÃ§Ã£o",
        -10.512738896309346
      ],
      [
        "ĠcoraÃ§Ã£o",
        -10.51288965759556
      ],
      [
        "Ġhabe",
        -10.513292586177444
      ],
      [
        "Ġpreocupa",
        -10.513346313070988
      ],
      [
        "µ",
        -10.51337368395106
      ],
      [
        "Ġdesen",
        -10.514293470776432
      ],
      [
        "passando",
        -10.51472256942923
      ],
      [
        "Ãģfrica",
        -10.51473558111814
      ],
      [
        "âĢĵâĢĵâĢĵâĢĵâĢĵ",
        -10.514748302113295
      ],
      [
        "Ġaberta",
        -10.515148679138903
      ],
      [
        "tte",
        -10.51591217470032
      ],
      [
        "Ġacompanh",
        -10.516160892659848
      ],
      [
        "investigaÃ§Ã£o",
        -10.5162360707156
      ],
      [
        "erra",
        -10.51623812656339
      ],
      [
        "camp",
        -10.516602604031084
      ],
      [
        "ĠGO",
        -10.516696994495492
      ],
      [
        "ĠCultural",
        -10.516745377690787
      ],
      [
        "»",
        -10.517277309708692
      ],
      [
        "Com",
        -10.517314396720682
      ],
      [
        "horÃ¡rio",
        -10.518590317704277
      ],
      [
        "ĠEdita",
        -10.518834123591278
      ],
      [
        "redor",
        -10.51895565438736
      ],
      [
        "produtores",
        -10.51910688894658
      ],
      [
        "Ġmostrar",
        -10.519121940714866
      ],
      [
        "ĠWilliam",
        -10.51937961310189
      ],
      [
        "Rodrigo",
        -10.520030780559283
      ],
      [
        "PLS",
        -10.520157898466326
      ],
      [
        "ĠPare",
        -10.520808398050626
      ],
      [
        "Ġaltura",
        -10.521244487872174
      ],
      [
        "desafio",
        -10.521835249145632
      ],
      [
        "Į",
        -10.522066045336326
      ],
      [
        "Candido",
        -10.522129598001698
      ],
      [
        "Ġolhos",
        -10.522178892653784
      ],
      [
        "ĠItÃ¡lia",
        -10.52225522882645
      ],
      [
        "ļ",
        -10.52230245496743
      ],
      [
        "ĠJapÃ£o",
        -10.522671138580453
      ],
      [
        "funcionÃ¡rios",
        -10.522918370349862
      ],
      [
        "Renan",
        -10.523111578620515
      ],
      [
        "cÃ³pia",
        -10.523157060859928
      ],
      [
        "tomada",
        -10.52380622239276
      ],
      [
        "ĠEspÃŃrit",
        -10.524800460803291
      ],
      [
        "ĠPaim",
[...]
